{"version":"1.0","truncation":null,"padding":null,"added_tokens":[{"id":0,"special":true,"content":"[PAD]","single_word":false,"lstrip":false,"rstrip":false,"normalized":false},{"id":1,"special":true,"content":"[UNK]","single_word":false,"lstrip":false,"rstrip":false,"normalized":false},{"id":2,"special":true,"content":"[CLS]","single_word":false,"lstrip":false,"rstrip":false,"normalized":false},{"id":3,"special":true,"content":"[SEP]","single_word":false,"lstrip":false,"rstrip":false,"normalized":false},{"id":4,"special":true,"content":"[MASK]","single_word":false,"lstrip":false,"rstrip":false,"normalized":false}],"normalizer":{"type":"BertNormalizer","clean_text":false,"handle_chinese_chars":false,"strip_accents":false,"lowercase":true},"pre_tokenizer":{"type":"BertPreTokenizer"},"post_processor":null,"decoder":{"type":"WordPiece","prefix":"##","cleanup":true},"model":{"type":"WordPiece","unk_token":"[UNK]","continuing_subword_prefix":"##","max_input_chars_per_word":100,"vocab":{"[PAD]":0,"[UNK]":1,"[CLS]":2,"[SEP]":3,"[MASK]":4,"!":5,"\"":6,"#":7,"$":8,"%":9,"&":10,"'":11,"(":12,")":13,"*":14,"+":15,",":16,"-":17,".":18,"/":19,"0":20,"1":21,"2":22,"3":23,"4":24,"5":25,"6":26,"7":27,"8":28,"9":29,":":30,";":31,"<":32,"=":33,">":34,"?":35,"@":36,"[":37,"\\":38,"]":39,"^":40,"_":41,"`":42,"a":43,"b":44,"c":45,"d":46,"e":47,"f":48,"g":49,"h":50,"i":51,"j":52,"k":53,"l":54,"m":55,"n":56,"o":57,"p":58,"q":59,"r":60,"s":61,"t":62,"u":63,"v":64,"w":65,"x":66,"y":67,"z":68,"{":69,"|":70,"}":71,"~":72,"":73,"":74,"":75,"":76,"":77,"":78,"":79,"":80,"":81,"":82,"":83,"¡":84,"¢":85,"£":86,"¥":87,"¦":88,"§":89,"©":90,"«":91,"­":92,"®":93,"¯":94,"°":95,"±":96,"²":97,"³":98,"´":99,"µ":100,"¶":101,"·":102,"¸":103,"¹":104,"º":105,"»":106,"¼":107,"½":108,"×":109,"ß":110,"à":111,"á":112,"â":113,"ã":114,"ä":115,"å":116,"æ":117,"ç":118,"è":119,"é":120,"ê":121,"ë":122,"ì":123,"í":124,"î":125,"ï":126,"ð":127,"ñ":128,"ò":129,"ó":130,"ô":131,"õ":132,"ö":133,"÷":134,"ø":135,"ù":136,"ú":137,"û":138,"ü":139,"ý":140,"þ":141,"ā":142,"ă":143,"ć":144,"č":145,"đ":146,"ē":147,"ę":148,"ě":149,"ğ":150,"ī":151,"ı":152,"ł":153,"ō":154,"œ":155,"ř":156,"ś":157,"ş":158,"š":159,"ţ":160,"ū":161,"ů":162,"ž":163,"ɐ":164,"ə":165,"ɛ":166,"ʌ":167,"ʒ":168,"ʔ":169,"ʻ":170,"ˈ":171,"ː":172,"˜":173,"̇":174,"ά":175,"έ":176,"ή":177,"ί":178,"α":179,"β":180,"γ":181,"δ":182,"ε":183,"η":184,"θ":185,"ι":186,"κ":187,"λ":188,"μ":189,"ν":190,"ξ":191,"ο":192,"π":193,"ρ":194,"ς":195,"σ":196,"τ":197,"υ":198,"φ":199,"χ":200,"ω":201,"ό":202,"ύ":203,"ώ":204,"а":205,"б":206,"в":207,"г":208,"д":209,"е":210,"ж":211,"з":212,"и":213,"й":214,"к":215,"л":216,"м":217,"н":218,"о":219,"п":220,"р":221,"с":222,"т":223,"у":224,"ф":225,"х":226,"ц":227,"ч":228,"ш":229,"щ":230,"ы":231,"ь":232,"э":233,"ю":234,"я":235,"ё":236,"ѕ":237,"і":238,"ש":239,"،":240,"ا":241,"ب":242,"ة":243,"ت":244,"ح":245,"د":246,"ر":247,"ز":248,"س":249,"ش":250,"ط":251,"ظ":252,"ع":253,"ف":254,"ق":255,"ك":256,"ل":257,"م":258,"ن":259,"ه":260,"و":261,"ي":262,"ی":263,"द":264,"र":265,"ल":266,"ि":267,"ु":268,"्":269,"ก":270,"ข":271,"ง":272,"ด":273,"ต":274,"ท":275,"น":276,"ป":277,"ผ":278,"ม":279,"ย":280,"ร":281,"ล":282,"ว":283,"ห":284,"อ":285,"า":286,"ี":287,"เ":288,"ไ":289,"่":290,"้":291,"๋":292,"ာ":293,"ა":294,"ი":295,"ḍ":296,"ḷ":297,"ṃ":298,"ṇ":299,"ṛ":300,"ṣ":301,"ṭ":302,"ἀ":303,"ὀ":304,"ὐ":305,"ῖ":306,"ῶ":307,"​":308,"‎":309,"‐":310,"‑":311,"–":312,"—":313,"―":314,"‘":315,"’":316,"‚":317,"“":318,"”":319,"„":320,"‡":321,"•":322,"․":323,"…":324,"′":325,"″":326,"›":327,"※":328,"⁄":329,"₂":330,"€":331,"™":332,"→":333,"↓":334,"⇓":335,"−":336,"∞":337,"∥":338,"∷":339,"∼":340,"≈":341,"≥":342,"─":343,"┃":344,"█":345,"■":346,"▪":347,"►":348,"▼":349,"◊":350,"★":351,"♦":352,"➜":353,"、":354,"。":355,"々":356,"〈":357,"〉":358,"「":359,"」":360,"『":361,"』":362,"あ":363,"い":364,"う":365,"え":366,"お":367,"か":368,"が":369,"き":370,"く":371,"け":372,"げ":373,"こ":374,"さ":375,"し":376,"じ":377,"す":378,"ず":379,"そ":380,"ぞ":381,"た":382,"だ":383,"ち":384,"っ":385,"つ":386,"て":387,"で":388,"と":389,"ど":390,"な":391,"に":392,"の":393,"は":394,"ば":395,"び":396,"へ":397,"べ":398,"ま":399,"み":400,"め":401,"も":402,"や":403,"よ":404,"ら":405,"り":406,"る":407,"れ":408,"ろ":409,"わ":410,"を":411,"ん":412,"ァ":413,"ア":414,"ィ":415,"イ":416,"ゥ":417,"ウ":418,"ェ":419,"エ":420,"ォ":421,"オ":422,"カ":423,"キ":424,"ギ":425,"ク":426,"グ":427,"ゲ":428,"コ":429,"ゴ":430,"サ":431,"シ":432,"ジ":433,"ス":434,"ズ":435,"セ":436,"ソ":437,"ゾ":438,"タ":439,"ダ":440,"チ":441,"ッ":442,"ツ":443,"テ":444,"デ":445,"ト":446,"ド":447,"ナ":448,"ニ":449,"ネ":450,"ノ":451,"バ":452,"ヒ":453,"ビ":454,"ピ":455,"フ":456,"ブ":457,"プ":458,"ヘ":459,"ホ":460,"ボ":461,"マ":462,"ミ":463,"ム":464,"メ":465,"モ":466,"ャ":467,"ヤ":468,"ュ":469,"ユ":470,"ョ":471,"ラ":472,"リ":473,"ル":474,"レ":475,"ロ":476,"ワ":477,"ン":478,"ヴ":479,"・":480,"ー":481,"ㅋ":482,"一":483,"上":484,"下":485,"不":486,"中":487,"主":488,"事":489,"亡":490,"京":491,"人":492,"他":493,"以":494,"件":495,"位":496,"低":497,"体":498,"何":499,"作":500,"係":501,"保":502,"側":503,"傷":504,"先":505,"光":506,"入":507,"全":508,"公":509,"内":510,"出":511,"分":512,"切":513,"初":514,"判":515,"別":516,"前":517,"力":518,"助":519,"動":520,"北":521,"原":522,"反":523,"取":524,"可":525,"同":526,"名":527,"向":528,"告":529,"命":530,"員":531,"問":532,"因":533,"在":534,"地":535,"域":536,"報":537,"場":538,"外":539,"多":540,"夜":541,"大":542,"失":543,"始":544,"姿":545,"子":546,"存":547,"学":548,"定":549,"実":550,"家":551,"容":552,"密":553,"察":554,"審":555,"対":556,"射":557,"小":558,"局":559,"履":560,"山":561,"峠":562,"崩":563,"州":564,"常":565,"年":566,"幾":567,"度":568,"式":569,"引":570,"張":571,"弾":572,"当":573,"彼":574,"後":575,"心":576,"性":577,"想":578,"態":579,"折":580,"持":581,"捜":582,"探":583,"接":584,"推":585,"撃":586,"放":587,"教":588,"文":589,"料":590,"斜":591,"新":592,"方":593,"日":594,"明":595,"時":596,"書":597,"最":598,"月":599,"有":600,"服":601,"木":602,"本":603,"東":604,"査":605,"森":606,"検":607,"極":608,"機":609,"次":610,"死":611,"残":612,"気":613,"渓":614,"温":615,"点":616,"無":617,"然":618,"版":619,"物":620,"特":621,"状":622,"現":623,"球":624,"理":625,"生":626,"画":627,"症":628,"発":629,"登":630,"的":631,"目":632,"直":633,"県":634,"真":635,"着":636,"研":637,"示":638,"科":639,"究":640,"立":641,"索":642,"終":643,"結":644,"線":645,"編":646,"置":647,"考":648,"者":649,"能":650,"脱":651,"自":652,"至":653,"舌":654,"色":655,"落":656,"著":657,"行":658,"衣":659,"裂":660,"要":661,"覆":662,"見":663,"解":664,"記":665,"設":666,"語":667,"説":668,"調":669,"論":670,"谷":671,"象":672,"負":673,"資":674,"起":675,"足":676,"跡":677,"身":678,"軍":679,"近":680,"述":681,"送":682,"通":683,"連":684,"道":685,"遺":686,"部":687,"都":688,"里":689,"量":690,"長":691,"開":692,"間":693,"関":694,"隊":695,"集":696,"離":697,"難":698,"雪":699,"非":700,"面":701,"靴":702,"頭":703,"風":704,"飛":705,"験":706,"骨":707,"高":708,"가":709,"각":710,"간":711,"갔":712,"같":713,"개":714,"거":715,"건":716,"걸":717,"검":718,"겁":719,"것":720,"게":721,"겠":722,"겨":723,"견":724,"결":725,"경":726,"계":727,"고":728,"공":729,"과":730,"관":731,"광":732,"굉":733,"구":734,"국":735,"권":736,"그":737,"극":738,"글":739,"금":740,"기":741,"긴":742,"김":743,"까":744,"끝":745,"나":746,"난":747,"날":748,"남":749,"났":750,"내":751,"냐":752,"너":753,"년":754,"노":755,"놓":756,"눈":757,"뉴":758,"느":759,"는":760,"늘":761,"니":762,"다":763,"단":764,"달":765,"담":766,"당":767,"대":768,"더":769,"던":770,"데":771,"도":772,"독":773,"돈":774,"동":775,"됐":776,"되":777,"된":778,"두":779,"드":780,"든":781,"들":782,"등":783,"디":784,"딸":785,"때":786,"떠":787,"떳":788,"떻":789,"또":790,"라":791,"락":792,"람":793,"랑":794,"래":795,"러":796,"런":797,"럼":798,"렇":799,"레":800,"려":801,"로":802,"론":803,"루":804,"르":805,"른":806,"를":807,"름":808,"리":809,"린":810,"마":811,"만":812,"많":813,"말":814,"매":815,"먼":816,"며":817,"면":818,"모":819,"몰":820,"못":821,"무":822,"문":823,"물":824,"뭐":825,"미":826,"민":827,"바":828,"박":829,"밖":830,"반":831,"받":832,"발":833,"밝":834,"버":835,"번":836,"벌":837,"범":838,"법":839,"변":840,"별":841,"병":842,"보":843,"복":844,"본":845,"봤":846,"부":847,"분":848,"불":849,"뷰":850,"비":851,"빠":852,"사":853,"살":854,"상":855,"생":856,"서":857,"석":858,"선":859,"세":860,"소":861,"속":862,"손":863,"송":864,"수":865,"순":866,"숨":867,"스":868,"슬":869,"습":870,"시":871,"식":872,"신":873,"실":874,"싫":875,"심":876,"싶":877,"싸":878,"씨":879,"아":880,"안":881,"않":882,"알":883,"았":884,"애":885,"야":886,"약":887,"양":888,"어":889,"억":890,"언":891,"얼":892,"엄":893,"없":894,"었":895,"에":896,"여":897,"연":898,"열":899,"였":900,"영":901,"예":902,"오":903,"온":904,"올":905,"와":906,"왔":907,"왜":908,"요":909,"용":910,"우":911,"운":912,"울":913,"워":914,"원":915,"웠":916,"위":917,"유":918,"으":919,"은":920,"을":921,"음":922,"응":923,"의":924,"이":925,"인":926,"일":927,"있":928,"자":929,"작":930,"잘":931,"장":932,"재":933,"저":934,"적":935,"전":936,"점":937,"정":938,"제":939,"져":940,"조":941,"좀":942,"주":943,"죽":944,"준":945,"줄":946,"중":947,"증":948,"지":949,"진":950,"질":951,"집":952,"쪽":953,"차":954,"찰":955,"처":956,"청":957,"체":958,"최":959,"추":960,"취":961,"친":962,"키":963,"타":964,"터":965,"테":966,"판":967,"편":968,"평":969,"표":970,"하":971,"한":972,"할":973,"함":974,"해":975,"했":976,"행":977,"혀":978,"현":979,"혐":980,"혜":981,"호":982,"혹":983,"혼":984,"화":985,"확":986,"활":987,"황":988,"회":989,"후":990,"훈":991,"흥":992,"히":993,"힘":994,"️":995,"﻿":996,"（":997,"）":998,"：":999,"＝":1000,"�":1001,"🐒":1002,"😉":1003,"🙂":1004,"##i":1005,"##r":1006,"##c":1007,"##o":1008,"##j":1009,"##e":1010,"##a":1011,"##s":1012,"##k":1013,"##y":1014,"##p":1015,"##n":1016,"##d":1017,"##b":1018,"##h":1019,"##v":1020,"##é":1021,"##l":1022,"##u":1023,"##t":1024,"##g":1025,"##0":1026,"##씨":1027,"##가":1028,"##x":1029,"##m":1030,"##2":1031,"##q":1032,"##4":1033,"##f":1034,"##7":1035,"##w":1036,"##z":1037,"##č":1038,"##ć":1039,"##1":1040,"##9":1041,"##6":1042,"##8":1043,"##า":1044,"##เ":1045,"##ย":1046,"##น":1047,"##­":1048,"##5":1049,"##こ":1050,"##か":1051,"##ら":1052,"##先":1053,"##の":1054,"##一":1055,"##行":1056,"##動":1057,"##は":1058,"##다":1059,"##면":1060,"##ě":1061,"##ā":1062,"##ṇ":1063,"##ý":1064,"##ţ":1065,"##ä":1066,"##้":1067,"##ว":1068,"##ม":1069,"##ไ":1070,"##ก":1071,"##่":1072,"##3":1073,"##年":1074,"##月":1075,"##日":1076,"##生":1077,"##ま":1078,"##れ":1079,"##니":1080,"##까":1081,"##�":1082,"##ル":1083,"##ー":1084,"##ト":1085,"##á":1086,"##体":1087,"##に":1088,"##っ":1089,"##た":1090,"##跡":1091,"##な":1092,"##が":1093,"##š":1094,"##ヴ":1095,"##ェ":1096,"##ド":1097,"##ロ":1098,"##フ":1099,"##ス":1100,"##ク":1101,"##州":1102,"##内":1103,"##ウ":1104,"##ラ":1105,"##山":1106,"##北":1107,"##部":1108,"##お":1109,"##い":1110,"##て":1111,"##キ":1112,"##で":1113,"##レ":1114,"##ッ":1115,"##ン":1116,"##グ":1117,"##を":1118,"##画":1119,"##し":1120,"##×":1121,"##렇":1122,"##게":1123,"##":1124,"##í":1125,"##조":1126,"##하":1127,"##는":1128,"##의":1129,"##지":1130,"##ö":1131,"##회":1132,"##에":1133,"##不":1134,"##気":1135,"##難":1136,"##事":1137,"##수":1138,"##심":1139,"##도":1140,"##ó":1141,"##±":1142,"##보":1143,"##기":1144,"##λ":1145,"##ο":1146,"##ύ":1147,"##τ":1148,"##ω":1149,"##ν":1150,"##약":1151,"##로":1152,"##만":1153,"##데":1154,"##ú":1155,"##р":1156,"##и":1157,"##в":1158,"##у":1159,"##ю":1160,"##ă":1161,"##б":1162,"##о":1163,"##л":1164,"##ч":1165,"##к":1166,"##а":1167,"##シ":1168,"##チ":1169,"##라":1170,"##고":1171,"##ñ":1172,"##려":1173,"##ί":1174,"##μ":1175,"##ι":1176,"##δ":1177,"##ς":1178,"##​":1179,"##⁄":1180,"##생":1181,"##을":1182,"##ô":1183,"##骨":1184,"##傷":1185,"##п":1186,"##ل":1187,"##여":1188,"##주":1189,"##며":1190,"##人":1191,"##全":1192,"##員":1193,"##死":1194,"##因":1195,"##低":1196,"##温":1197,"##症":1198,"##あ":1199,"##る":1200,"##と":1201,"##判":1202,"##明":1203,"##à":1204,"##실":1205,"##이":1206,"##연":1207,"##е":1208,"##å":1209,"##스":1210,"##터":1211,"##関":1212,"##係":1213,"##者":1214,"##랑":1215,"##았":1216,"##ž":1217,"##ō":1218,"##마":1219,"##빠":1220,"##한":1221,"##테":1222,"##받":1223,"##°":1224,"##으":1225,"##ã":1226,"##©":1227,"##з":1228,"##و":1229,"##ق":1230,"##ع":1231,"##ç":1232,"##н":1233,"##я":1234,"##м":1235,"##응":1236,"##할":1237,"##ʻ":1238,"##ا":1239,"##ر":1240,"##ت":1241,"##ن":1242,"##ü":1243,"##і":1244,"##件":1245,"##出":1246,"##版":1247,"##物":1248,"##や":1249,"##地":1250,"##メ":1251,"##デ":1252,"##ィ":1253,"##ア":1254,"##公":1255,"##さ":1256,"##よ":1257,"##う":1258,"##리":1259,"##т":1260,"##금":1261,"##ś":1262,"##本":1263,"##査":1264,"##":1265,"##모":1266,"##ь":1267,"##è":1268,"##찰":1269,"##떠":1270,"##냐":1271,"##동":1272,"##자":1273,"##α":1274,"##ά":1275,"##습":1276,"##調":1277,"##前":1278,"##最":1279,"##高":1280,"##検":1281,"##察":1282,"##説":1283,"##î":1284,"##命":1285,"##ë":1286,"##時":1287,"##捜":1288,"##ム":1289,"##理":1290,"##的":1291,"##す":1292,"##上":1293,"##뷰":1294,"##를":1295,"##そ":1296,"##他":1297,"##靴":1298,"##履":1299,"##음":1300,"##ы":1301,"##с":1302,"##й":1303,"##상":1304,"##호":1305,"##법":1306,"##예":1307,"##갔":1308,"##사":1309,"##®":1310,"##울":1311,"##정":1312,"##했":1313,"##장":1314,"##속":1315,"##노":1316,"##ल":1317,"##ि":1318,"##र":1319,"##ु":1320,"##™":1321,"##ѕ":1322,"##ห":1323,"##ี":1324,"##ง":1325,"##ů":1326,"##ร":1327,"##じ":1328,"##ş":1329,"##ğ":1330,"##️":1331,"##저":1332,"##서":1333,"##관":1334,"##우":1335,"##遺":1336,"##り":1337,"##も":1338,"##服":1339,"##ό":1340,"##β":1341,"##ì":1342,"##リ":1343,"##ャ":1344,"##小":1345,"##家":1346,"##ど":1347,"##─":1348,"##起":1349,"##き":1350,"##년":1351,"##신":1352,"##ø":1353,"##υ":1354,"##은":1355,"##д":1356,"##놓":1357,"##린":1358,"##ф":1359,"##ř":1360,"##훈":1361,"##양":1362,"##亡":1363,"##く":1364,"##衣":1365,"##引":1366,"##裂":1367,"##切":1368,"##시":1369,"##살":1370,"##루":1371,"##峠":1372,"##러":1373,"##내":1374,"##단":1375,"##マ":1376,"##ヤ":1377,"##有":1378,"##力":1379,"##つ":1380,"##み":1381,"##雪":1382,"##崩":1383,"##나":1384,"##ビ":1385,"##エ":1386,"##連":1387,"##主":1388,"##要":1389,"##実":1390,"##験":1391,"##場":1392,"##だ":1393,"##ж":1394,"##송":1395,"##런":1396,"##번":1397,"##方":1398,"##後":1399,"##集":1400,"##落":1401,"##−":1402,"##分":1403,"##ち":1404,"##残":1405,"##示":1406,"##文":1407,"##해":1408,"##달":1409,"##돈":1410,"##至":1411,"##推":1412,"##":1413,"##인":1414,"##":1415,"##â":1416,"##":1417,"##민":1418,"##석":1419,"##었":1420,"##작":1421,"##€":1422,"##":1423,"##어":1424,"##テ":1425,"##局":1426,"##ュ":1427,"##タ":1428,"##긴":1429,"##ḷ":1430,"##ī":1431,"##ę":1432,"##特":1433,"##反":1434,"##진":1435,"##終":1436,"##目":1437,"##中":1438,"##오":1439,"##래":1440,"##ı":1441,"##ː":1442,"##ɐ":1443,"##ʔ":1444,"##プ":1445,"##œ":1446,"##ḍ":1447,"##け":1448,"##권":1449,"##위":1450,"##원":1451,"##용":1452,"##변":1453,"##щ":1454,"##거":1455,"##´":1456,"##아":1457,"##극":1458,"##モ":1459,"##結":1460,"##論":1461,"##활":1462,"##ṣ":1463,"##디":1464,"##カ":1465,"##걸":1466,"##":1467,"##ボ":1468,"##＝":1469,"##ブ":1470,"##ニ":1471,"##ョ":1472,"##頭":1473,"##大":1474,"##負":1475,"##→":1476,"##̇":1477,"##대":1478,"##순":1479,"##ب":1480,"##ي":1481,"##里":1482,"##発":1483,"##ა":1484,"##ი":1485,"##∷":1486,"##何":1487,"##ず":1488,"##ṛ":1489,"##現":1490,"##近":1491,"##½":1492,"##건":1493,"##겠":1494,"##х":1495,"##作":1496,"##非":1497,"##常":1498,"##え":1499,"##当":1500,"##度":1501,"##極":1502,"##め":1503,"##定":1504,"##람":1505,"##道":1506,"##オ":1507,"##側":1508,"##ホ":1509,"##문":1510,"##ц":1511,"##イ":1512,"##ネ":1513,"##コ":1514,"##˜":1515,"##ˈ":1516,"##ɛ":1517,"##무":1518,"##ح":1519,"##م":1520,"##구":1521,"##ピ":1522,"##開":1523,"##들":1524,"##ò":1525,"##彼":1526,"##著":1527,"##書":1528,"##ワ":1529,"##█":1530,"##물":1531,"##처":1532,"##럼":1533,"##バ":1534,"##г":1535,"##ギ":1536,"##夜":1537,"##κ":1538,"##京":1539,"##都":1540,"##々":1541,"##設":1542,"##容":1543,"##³":1544,"##증":1545,"##ū":1546,"##ミ":1547,"##결":1548,"##着":1549,"##姿":1550,"##ユ":1551,"##û":1552,"##ł":1553,"##教":1554,"##‎":1555,"##¼":1556,"##청":1557,"##드":1558,"##科":1559,"##向":1560,"##ズ":1561,"##일":1562,"##語":1563,"##더":1564,"##ὐ":1565,"##ρ":1566,"##ώ":1567,"##π":1568,"##η":1569,"##्":1570,"##ù":1571,"##د":1572,"##세":1573,"##당":1574,"##후":1575,"##س":1576,"##전":1577,"##화":1578,"##복":1579,"##ه":1580,"##르":1581,"##¹":1582,"##혜":1583,"##ล":1584,"##可":1585,"##能":1586,"##審":1587,"##問":1588,"##資":1589,"##料":1590,"##친":1591,"##斜":1592,"##面":1593,"##밖":1594,"##ة":1595,"##혼":1596,"##줄":1597,"##ท":1598,"##ป":1599,"##γ":1600,"##광":1601,"##였":1602,"##ソ":1603,"##線":1604,"##量":1605,"##放":1606,"##射":1607,"##ば":1608,"##국":1609,"##재":1610,"##ผ":1611,"##間":1612,"##在":1613,"##見":1614,"##ォ":1615,"##ṭ":1616,"##과":1617,"##ß":1618,"##球":1619,"##舌":1620,"##失":1621,"##点":1622,"##解":1623,"##入":1624,"##探":1625,"##域":1626,"##へ":1627,"##立":1628,"##체":1629,"##히":1630,"##론":1631,"##중":1632,"##말":1633,"##ε":1634,"##離":1635,"##わ":1636,"##든":1637,"##ァ":1638,"##부":1639,"##됐":1640,"##ヘ":1641,"##야":1642,"##覆":1643,"##온":1644,"##ด":1645,"##対":1646,"##없":1647,"##サ":1648,"##ナ":1649,"##혀":1650,"##불":1651,"##각":1652,"##θ":1653,"##ê":1654,"##๋":1655,"##อ":1656,"##以":1657,"##ё":1658,"##登":1659,"##ジ":1660,"##次":1661,"##손":1662,"##져":1663,"##持":1664,"##真":1665,"##原":1666,"##억":1667,"##ゾ":1668,"##느":1669,"##述":1670,"##범":1671,"##검":1672,"##ʒ":1673,"##自":1674,"##반":1675,"##올":1676,"##脱":1677,"##났":1678,"##던":1679,"##別":1680,"##幾":1681,"##下":1682,"##存":1683,"##機":1684,"##질":1685,"##적":1686,"##되":1687,"##선":1688,"##애":1689,"##웠":1690,"##ή":1691,"##🐒":1692,"##σ":1693,"##色":1694,"##光":1695,"##撃":1696,"##報":1697,"##告":1698,"##름":1699,"##분":1700,"##²":1701,"##못":1702,"##đ":1703,"##έ":1704,"##른":1705,"##ш":1706,"##황":1707,"##봤":1708,"##長":1709,"##담":1710,"##学":1711,"##助":1712,"##ə":1713,"##겁":1714,"##⇓":1715,"##張":1716,"##æ":1717,"##外":1718,"##э":1719,"##ㅋ":1720,"##난":1721,"##열":1722,"##두":1723,"##표":1724,"##ï":1725,"##ゥ":1726,"##子":1727,"##ゲ":1728,"##ダ":1729,"##소":1730,"##발":1731,"##뉴":1732,"##간":1733,"##õ":1734,"##미":1735,"##げ":1736,"##ゴ":1737,"##究":1738,"##늘":1739,"##¦":1740,"##¸":1741,"##된":1742,"##∞":1743,"##요":1744,"##索":1745,"##별":1746,"##♦":1747,"##◊":1748,"##セ":1749,"##워":1750,"##直":1751,"##接":1752,"##通":1753,"##位":1754,"##置":1755,"##性":1756,"##비":1757,"##겨":1758,"##₂":1759,"##ん":1760,"##ṃ":1761,"##多":1762,"##¢":1763,"##날":1764,"##행":1765,"##渓":1766,"##谷":1767,"##ต":1768,"##점":1769,"##ك":1770,"##森":1771,"##足":1772,"##÷":1773,"##想":1774,"##折":1775,"##집":1776,"##등":1777,"##﻿":1778,"##확":1779,"##取":1780,"##떻":1781,"##心":1782,"##研":1783,"##ی":1784,"##ξ":1785,"##왔":1786,"##떳":1787,"##흥":1788,"##제":1789,"##初":1790,"##":1791,"##운":1792,"##경":1793,"##ש":1794,"##식":1795,"##ろ":1796,"##密":1797,"##保":1798,"##送":1799,"##軍":1800,"##記":1801,"##때":1802,"##象":1803,"##名":1804,"##ē":1805,"##べ":1806,"##然":1807,"##新":1808,"##편":1809,"##ð":1810,"##χ":1811,"##無":1812,"##견":1813,"##飛":1814,"##び":1815,"##개":1816,"##式":1817,"##ʌ":1818,"##벌":1819,"##ノ":1820,"##状":1821,"##態":1822,"##弾":1823,"##너":1824,"##隊":1825,"##ヒ":1826,"##혹":1827,"##공":1828,"##있":1829,"##ῖ":1830,"##身":1831,"##와":1832,"##ظ":1833,"##ف":1834,"##버":1835,"##始":1836,"##안":1837,"##쪽":1838,"##木":1839,"##ツ":1840,"##º":1841,"##県":1842,"##함":1843,"##風":1844,"##द":1845,"##매":1846,"##독":1847,"##차":1848,"##먼":1849,"##ط":1850,"##ῶ":1851,"##考":1852,"##준":1853,"##현":1854,"##병":1855,"##東":1856,"##ز":1857,"##레":1858,"##ぞ":1859,"##φ":1860,"##락":1861,"##많":1862,"##것":1863,"##":1864,"##":1865,"##혐":1866,"##타":1867,"##판":1868,"##≈":1869,"##ာ":1870,"th":1871,"##er":1872,"the":1873,"##in":1874,"##on":1875,"##at":1876,"##en":1877,"##es":1878,"##or":1879,"##ed":1880,"##nd":1881,"##ing":1882,"##ar":1883,"##an":1884,"to":1885,"##ou":1886,"in":1887,"##it":1888,"##al":1889,"of":1890,"##is":1891,"and":1892,"##ic":1893,"##as":1894,"##re":1895,"##om":1896,"##ion":1897,"##le":1898,"##ent":1899,"##ll":1900,"re":1901,"be":1902,"##ly":1903,"##st":1904,"##ot":1905,"##ve":1906,"wh":1907,"##id":1908,"on":1909,"##ac":1910,"##ut":1911,"that":1912,"is":1913,"st":1914,"##ow":1915,"##et":1916,"for":1917,"##ay":1918,"##ur":1919,"it":1920,"##am":1921,"##ad":1922,"pr":1923,"##ig":1924,"##se":1925,"##ct":1926,"##ld":1927,"##ver":1928,"##im":1929,"##ir":1930,"##ter":1931,"as":1932,"he":1933,"##ch":1934,"##ith":1935,"##ation":1936,"##ol":1937,"an":1938,"##ce":1939,"with":1940,"de":1941,"##th":1942,"you":1943,"##ers":1944,"##il":1945,"con":1946,"##ere":1947,"we":1948,"was":1949,"se":1950,"##op":1951,"##ill":1952,"ha":1953,"sh":1954,"ch":1955,"##est":1956,"com":1957,"fr":1958,"at":1959,"ne":1960,"##ess":1961,"##ate":1962,"##od":1963,"su":1964,"##ag":1965,"##ke":1966,"##ul":1967,"this":1968,"tr":1969,"##ment":1970,"are":1971,"##igh":1972,"##ain":1973,"##os":1974,"ex":1975,"or":1976,"al":1977,"##ist":1978,"##pp":1979,"not":1980,"##us":1981,"##oc":1982,"by":1983,"##ore":1984,"##ab":1985,"have":1986,"##ity":1987,"##ould":1988,"##if":1989,"##ive":1990,"##um":1991,"##ant":1992,"##un":1993,"from":1994,"le":1995,"##and":1996,"but":1997,"##em":1998,"##ort":1999,"##ies":2000,"go":2001,"##art":2002,"ab":2003,"sp":2004,"##iv":2005,"sa":2006,"pl":2007,"##ie":2008,"##ight":2009,"##ust":2010,"they":2011,"##el":2012,"un":2013,"##ear":2014,"wor":2015,"##ap":2016,"##ally":2017,"his":2018,"has":2019,"##ack":2020,"##all":2021,"##ect":2022,"pro":2023,"do":2024,"##out":2025,"20":2026,"##ard":2027,"en":2028,"##ost":2029,"can":2030,"##gh":2031,"##ome":2032,"ar":2033,"all":2034,"##ud":2035,"##ak":2036,"##ast":2037,"will":2038,"##end":2039,"##our":2040,"so":2041,"ad":2042,"##ib":2043,"##ich":2044,"##ge":2045,"said":2046,"us":2047,"cl":2048,"##ok":2049,"##ial":2050,"out":2051,"who":2052,"up":2053,"me":2054,"te":2055,"one":2056,"their":2057,"br":2058,"##ip":2059,"##ough":2060,"more":2061,"##ans":2062,"##tr":2063,"gr":2064,"##ame":2065,"res":2066,"new":2067,"im":2068,"##ound":2069,"##ions":2070,"comp":2071,"##ice":2072,"##ue":2073,"##ike":2074,"##her":2075,"##ous":2076,"there":2077,"##act":2078,"##ff":2079,"##one":2080,"am":2081,"##oun":2082,"##ia":2083,"##ure":2084,"##og":2085,"##age":2086,"##ong":2087,"man":2088,"about":2089,"##ine":2090,"if":2091,"ac":2092,"year":2093,"ag":2094,"ev":2095,"off":2096,"##ated":2097,"tim":2098,"cr":2099,"which":2100,"##ence":2101,"##pt":2102,"had":2103,"were":2104,"would":2105,"pe":2106,"##iz":2107,"int":2108,"rep":2109,"no":2110,"exp":2111,"what":2112,"##ind":2113,"sc":2114,"##ake":2115,"##ide":2116,"##ub":2117,"like":2118,"##ther":2119,"per":2120,"when":2121,"been":2122,"some":2123,"inc":2124,"co":2125,"##ach":2126,"fe":2127,"dr":2128,"##au":2129,"##ign":2130,"##own":2131,"##ber":2132,"##qu":2133,"part":2134,"af":2135,"tw":2136,"over":2137,"##ays":2138,"dis":2139,"##ace":2140,"##so":2141,"##ary":2142,"than":2143,"bec":2144,"201":2145,"her":2146,"lo":2147,"how":2148,"##able":2149,"just":2150,"##ite":2151,"qu":2152,"app":2153,"##ople":2154,"##ord":2155,"##ire":2156,"##ical":2157,"people":2158,"inter":2159,"##ish":2160,"##ian":2161,"also":2162,"##ose":2163,"my":2164,"##ations":2165,"##ile":2166,"str":2167,"work":2168,"mar":2169,"kn":2170,"##ult":2171,"time":2172,"##ree":2173,"get":2174,"##ass":2175,"your":2176,"##av":2177,"##ens":2178,"she":2179,"them":2180,"bl":2181,"any":2182,"pol":2183,"##int":2184,"fir":2185,"rec":2186,"other":2187,"##ec":2188,"##are":2189,"##ond":2190,"after":2191,"##ick":2192,"comm":2193,"##orm":2194,"its":2195,"ind":2196,"act":2197,"##ance":2198,"##lic":2199,"##ail":2200,"##ase":2201,"imp":2202,"our":2203,"play":2204,"##aw":2205,"##00":2206,"ever":2207,"##ro":2208,"19":2209,"##reat":2210,"fo":2211,"##uc":2212,"pre":2213,"po":2214,"ro":2215,"into":2216,"##amp":2217,"##fer":2218,"##gr":2219,"##ink":2220,"##ings":2221,"acc":2222,"##ition":2223,"bo":2224,"##ory":2225,"##vel":2226,"first":2227,"##oss":2228,"cont":2229,"##ep":2230,"##uct":2231,"ser":2232,"##ors":2233,"##ang":2234,"em":2235,"##ause":2236,"two":2237,"##itt":2238,"##ates":2239,"only":2240,"could":2241,"now":2242,"coun":2243,"ph":2244,"mo":2245,"most":2246,"him":2247,"des":2248,"##ert":2249,"##ious":2250,"may":2251,"##ents":2252,"##lect":2253,"sec":2254,"pres":2255,"##ks":2256,"und":2257,"back":2258,"##ade":2259,"##lo":2260,"bet":2261,"even":2262,"##enc":2263,"jo":2264,"cons":2265,"##ied":2266,"these":2267,"##ft":2268,"##ild":2269,"##ery":2270,"dec":2271,"##hing":2272,"att":2273,"##urn":2274,"did":2275,"because":2276,"don":2277,"again":2278,"bu":2279,"thr":2280,"every":2281,"wr":2282,"##ict":2283,"op":2284,"state":2285,"sy":2286,"##form":2287,"under":2288,"see":2289,"def":2290,"##iver":2291,"##ater":2292,"car":2293,"ob":2294,"##uch":2295,"rel":2296,"##we":2297,"inv":2298,"add":2299,"##ons":2300,"##day":2301,"know":2302,"high":2303,"then":2304,"##ry":2305,"min":2306,"ass":2307,"supp":2308,"##ual":2309,"years":2310,"ke":2311,"##ock":2312,"want":2313,"##erm":2314,"right":2315,"##iss":2316,"##ident":2317,"##ise":2318,"need":2319,"##lud":2320,"##ning":2321,"fl":2322,"##ra":2323,"where":2324,"many":2325,"##sel":2326,"mon":2327,"##wn":2328,"world":2329,"reg":2330,"##ments":2331,"call":2332,"make":2333,"ed":2334,"##ublic":2335,"down":2336,"##les":2337,"gu":2338,"par":2339,"##eric":2340,"##ved":2341,"fu":2342,"col":2343,"way":2344,"rem":2345,"well":2346,"dif":2347,"while":2348,"last":2349,"bel":2350,"contr":2351,"think":2352,"look":2353,"##fore":2354,"##oth":2355,"gen":2356,"##ell":2357,"being":2358,"team":2359,"ear":2360,"sch":2361,"ve":2362,"##oup":2363,"sm":2364,"americ":2365,"##ational":2366,"end":2367,"fin":2368,"##ject":2369,"id":2370,"show":2371,"##olog":2372,"includ":2373,"much":2374,"form":2375,"through":2376,"stud":2377,"##vern":2378,"very":2379,"##iew":2380,"inst":2381,"##ath":2382,"##ys":2383,"##ating":2384,"200":2385,"govern":2386,"##anc":2387,"those":2388,"##ason":2389,"long":2390,"##ump":2391,"dem":2392,"##aking":2393,"##other":2394,"##ily":2395,"##ics":2396,"##urr":2397,"should":2398,"say":2399,"10":2400,"##xt":2401,"##sp":2402,"start":2403,"##uring":2404,"##ative":2405,"##ited":2406,"before":2407,"##ower":2408,"##ities":2409,"report":2410,"sim":2411,"cent":2412,"use":2413,"war":2414,"##ific":2415,"##ased":2416,"good":2417,"##cc":2418,"##ty":2419,"##atch":2420,"does":2421,"ma":2422,"##ible":2423,"sub":2424,"own":2425,"med":2426,"##ting":2427,"cour":2428,"##ange":2429,"game":2430,"char":2431,"prob":2432,"point":2433,"such":2434,"hel":2435,"##ug":2436,"##ts":2437,"##ward":2438,"wee":2439,"here":2440,"##omet":2441,"##ince":2442,"going":2443,"##ters":2444,"##get":2445,"resp":2446,"dep":2447,"##ues":2448,"prod":2449,"eff":2450,"law":2451,"made":2452,"pers":2453,"##eral":2454,"##io":2455,"##az":2456,"mod":2457,"disc":2458,"aut":2459,"##ism":2460,"##ually":2461,"lead":2462,"##ular":2463,"##ving":2464,"##ix":2465,"##ility":2466,"cap":2467,"##llow":2468,"against":2469,"##orn":2470,"differ":2471,"take":2472,"##air":2473,"found":2474,"set":2475,"day":2476,"though":2477,"##up":2478,"##ier":2479,"##its":2480,"##ife":2481,"read":2482,"president":2483,"still":2484,"##illion":2485,"help":2486,"##ful":2487,"offic":2488,"great":2489,"sl":2490,"trans":2491,"three":2492,"government":2493,"##let":2494,"says":2495,"##ood":2496,"##man":2497,"##ope":2498,"somet":2499,"##ists":2500,"##ween":2501,"##ee":2502,"sign":2503,"spec":2504,"##ress":2505,"between":2506,"##ently":2507,"soc":2508,"##stem":2509,"mem":2510,"countr":2511,"prov":2512,"group":2513,"big":2514,"during":2515,"##als":2516,"real":2517,"num":2518,"sur":2519,"lar":2520,"elect":2521,"run":2522,"##ked":2523,"bus":2524,"since":2525,"same":2526,"##gan":2527,"really":2528,"##ying":2529,"system":2530,"around":2531,"both":2532,"hand":2533,"##ives":2534,"##irect":2535,"##ah":2536,"follow":2537,"public":2538,"leg":2539,"##self":2540,"##con":2541,"wom":2542,"##ene":2543,"##bo":2544,"prop":2545,"##yp":2546,"##ote":2547,"##led":2548,"##ork":2549,"##land":2550,"polit":2551,"##cept":2552,"cle":2553,"el":2554,"compan":2555,"##hip":2556,"##cr":2557,"support":2558,"##ient":2559,"##iet":2560,"##uss":2561,"##ames":2562,"##ves":2563,"ret":2564,"sen":2565,"mark":2566,"direct":2567,"##ever":2568,"##read":2569,"##velop":2570,"let":2571,"##ution":2572,"trump":2573,"find":2574,"##ouse":2575,"ho":2576,"det":2577,"conf":2578,"used":2579,"week":2580,"##ures":2581,"tal":2582,"##ton":2583,"person":2584,"fact":2585,"##ather":2586,"art":2587,"red":2588,"develop":2589,"fam":2590,"##cent":2591,"##way":2592,"met":2593,"##ern":2594,"cor":2595,"cre":2596,"progr":2597,"prot":2598,"happ":2599,"##ool":2600,"power":2601,"win":2602,"##ivers":2603,"post":2604,"##ered":2605,"iss":2606,"contin":2607,"##ines":2608,"##ash":2609,"bre":2610,"far":2611,"inf":2612,"##pr":2613,"##ax":2614,"##ik":2615,"##lish":2616,"city":2617,"old":2618,"month":2619,"##ience":2620,"##ave":2621,"commun":2622,"camp":2623,"told":2624,"put":2625,"nor":2626,"ann":2627,"lot":2628,"another":2629,"##istr":2630,"##ph":2631,"##ale":2632,"open":2633,"##ank":2634,"top":2635,"head":2636,"##ices":2637,"av":2638,"eng":2639,"tech":2640,"000":2641,"invest":2642,"second":2643,"adv":2644,"quest":2645,"intern":2646,"each":2647,"##akes":2648,"plan":2649,"##gest":2650,"life":2651,"##erg":2652,"rev":2653,"few":2654,"##ially":2655,"hum":2656,"belie":2657,"##ize":2658,"##ording":2659,"why":2660,"##per":2661,"##ont":2662,"too":2663,"opp":2664,"police":2665,"fil":2666,"##ount":2667,"##str":2668,"never":2669,"news":2670,"ord":2671,"ins":2672,"##lem":2673,"##ages":2674,"##ically":2675,"turn":2676,"##ency":2677,"loc":2678,"##ision":2679,"things":2680,"##ins":2681,"bar":2682,"poss":2683,"however":2684,"best":2685,"pass":2686,"conc":2687,"school":2688,"stand":2689,"requ":2690,"##ants":2691,"something":2692,"12":2693,"##ized":2694,"come":2695,"next":2696,"val":2697,"##ott":2698,"curr":2699,"##ime":2700,"##ior":2701,"##br":2702,"states":2703,"##alth":2704,"different":2705,"hard":2706,"##ead":2707,"##ology":2708,"four":2709,"ll":2710,"##tern":2711,"mil":2712,"ide":2713,"##co":2714,"##ger":2715,"might":2716,"##bs":2717,"##ute":2718,"main":2719,"rele":2720,"proc":2721,"serv":2722,"##err":2723,"11":2724,"according":2725,"air":2726,"##ling":2727,"##thing":2728,"test":2729,"##ody":2730,"##iving":2731,"result":2732,"##bers":2733,"house":2734,"##med":2735,"15":2736,"##ets":2737,"build":2738,"home":2739,"partic":2740,"dat":2741,"season":2742,"sk":2743,"problem":2744,"prof":2745,"##ric":2746,"##ention":2747,"econ":2748,"percent":2749,"##ne":2750,"##ret":2751,"including":2752,"american":2753,"##ri":2754,"list":2755,"econom":2756,"##ark":2757,"full":2758,"without":2759,"auth":2760,"feel":2761,"child":2762,"incre":2763,"national":2764,"product":2765,"import":2766,"seem":2767,"chr":2768,"free":2769,"##iness":2770,"fun":2771,"expl":2772,"##ittle":2773,"sw":2774,"##res":2775,"##ull":2776,"less":2777,"pop":2778,"care":2779,"##ield":2780,"allow":2781,"##son":2782,"##ness":2783,"##ined":2784,"number":2785,"##king":2786,"million":2787,"##pl":2788,"left":2789,"exper":2790,"level":2791,"little":2792,"techn":2793,"spe":2794,"ref":2795,"##ected":2796,"##ced":2797,"ext":2798,"called":2799,"better":2800,"18":2801,"##ner":2802,"beh":2803,"inform":2804,"country":2805,"la":2806,"##ces":2807,"##earch":2808,"research":2809,"##ately":2810,"sol":2811,"pos":2812,"pat":2813,"##ably":2814,"keep":2815,"place":2816,"interest":2817,"near":2818,"mus":2819,"rest":2820,"pay":2821,"face":2822,"ir":2823,"##aim":2824,"effect":2825,"adm":2826,"sou":2827,"mat":2828,"##iting":2829,"cond":2830,"##osed":2831,"arr":2832,"prev":2833,"times":2834,"##red":2835,"got":2836,"##ina":2837,"##ama":2838,"##ways":2839,"book":2840,"using":2841,"design":2842,"eas":2843,"har":2844,"gre":2845,"##ering":2846,"case":2847,"##ital":2848,"bit":2849,"maj":2850,"##til":2851,"##ten":2852,"##ised":2853,"##ats":2854,"program":2855,"cal":2856,"consid":2857,"miss":2858,"didn":2859,"typ":2860,"##over":2861,"press":2862,"move":2863,"##oney":2864,"term":2865,"##ral":2866,"##ains":2867,"##ction":2868,"##eng":2869,"##ocr":2870,"eur":2871,"##ained":2872,"##uck":2873,"simp":2874,"sever":2875,"prom":2876,"stre":2877,"hist":2878,"later":2879,"##ds":2880,"story":2881,"based":2882,"star":2883,"white":2884,"change":2885,"business":2886,"attack":2887,"del":2888,"clear":2889,"##inal":2890,"women":2891,"mid":2892,"mr":2893,"##ned":2894,"major":2895,"court":2896,"ra":2897,"cost":2898,"small":2899,"##hn":2900,"company":2901,"##ived":2902,"##ends":2903,"ste":2904,"organ":2905,"aff":2906,"##ven":2907,"##ense":2908,"class":2909,"appear":2910,"##atur":2911,"mean":2912,"##ator":2913,"##atic":2914,"health":2915,"project":2916,"univers":2917,"author":2918,"gl":2919,"vis":2920,"##line":2921,"polic":2922,"human":2923,"##ister":2924,"##iven":2925,"united":2926,"net":2927,"phot":2928,"30":2929,"lib":2930,"money":2931,"today":2932,"data":2933,"cert":2934,"##less":2935,"process":2936,"always":2937,"pur":2938,"past":2939,"terr":2940,"bas":2941,"##ged":2942,"chang":2943,"##ared":2944,"sing":2945,"once":2946,"party":2947,"important":2948,"rece":2949,"est":2950,"must":2951,"##aff":2952,"record":2953,"democr":2954,"ent":2955,"tax":2956,"##ature":2957,"claim":2958,"##ren":2959,"##ided":2960,"thing":2961,"##ready":2962,"already":2963,"political":2964,"##ians":2965,"fund":2966,"black":2967,"tell":2968,"var":2969,"##wh":2970,"line":2971,"grow":2972,"vide":2973,"men":2974,"making":2975,"view":2976,"##used":2977,"pot":2978,"least":2979,"pa":2980,"until":2981,"##ury":2982,"deb":2983,"opt":2984,"vi":2985,"##stand":2986,"return":2987,"former":2988,"fri":2989,"social":2990,"##be":2991,"##aining":2992,"##me":2993,"##ample":2994,"john":2995,"water":2996,"##erv":2997,"##aph":2998,"large":2999,"hal":3000,"oper":3001,"##app":3002,"##ases":3003,"lear":3004,"199":3005,"##ences":3006,"official":3007,"##ending":3008,"mor":3009,"days":3010,"family":3011,"happen":3012,"land":3013,"##aign":3014,"information":3015,"edit":3016,"games":3017,"media":3018,"campaign":3019,"occ":3020,"sit":3021,"##loy":3022,"actually":3023,"youn":3024,"ap":3025,"##ether":3026,"appro":3027,"##oub":3028,"##att":3029,"market":3030,"13":3031,"##itch":3032,"hu":3033,"kill":3034,"##acy":3035,"night":3036,"vot":3037,"republic":3038,"foot":3039,"kind":3040,"able":3041,"enough":3042,"order":3043,"emp":3044,"##ley":3045,"##ode":3046,"es":3047,"gener":3048,"arg":3049,"##augh":3050,"##ew":3051,"wal":3052,"doesn":3053,"won":3054,"14":3055,"fac":3056,"five":3057,"name":3058,"##unch":3059,"##ired":3060,"##orts":3061,"fed":3062,"several":3063,"##ession":3064,"often":3065,"##mm":3066,"bill":3067,"ant":3068,"sug":3069,"become":3070,"##ief":3071,"working":3072,"away":3073,"non":3074,"##ium":3075,"yet":3076,"##ality":3077,"watch":3078,"exc":3079,"hour":3080,"early":3081,"came":3082,"having":3083,"equ":3084,"##ird":3085,"north":3086,"##ified":3087,"secur":3088,"crit":3089,"sure":3090,"fur":3091,"##gin":3092,"players":3093,"stop":3094,"##ued":3095,"trad":3096,"##ards":3097,"whether":3098,"europe":3099,"##ising":3100,"##ush":3101,"give":3102,"question":3103,"##sh":3104,"deal":3105,"fre":3106,"perform":3107,"16":3108,"lab":3109,"event":3110,"arm":3111,"##ball":3112,"ge":3113,"##ensive":3114,"fut":3115,"sour":3116,"##ipp":3117,"meet":3118,"##crib":3119,"##ides":3120,"##ential":3121,"ca":3122,"complet":3123,"cho":3124,"certain":3125,"##ison":3126,"cover":3127,"##iam":3128,"activ":3129,"york":3130,"priv":3131,"##els":3132,"vers":3133,"##ization":3134,"##ony":3135,"step":3136,"known":3137,"lim":3138,"short":3139,"##empt":3140,"##enn":3141,"among":3142,"took":3143,"25":3144,"##ember":3145,"##erman":3146,"##ove":3147,"##ither":3148,"local":3149,"##itions":3150,"##idence":3151,"asked":3152,"control":3153,"course":3154,"bro":3155,"##ov":3156,"seen":3157,"charac":3158,"##ru":3159,"low":3160,"##icle":3161,"doing":3162,"dev":3163,"orig":3164,"##aps":3165,"within":3166,"dom":3167,"##lex":3168,"university":3169,"alm":3170,"went":3171,"17":3172,"pract":3173,"along":3174,"side":3175,"esp":3176,"sn":3177,"##aken":3178,"love":3179,"given":3180,"pub":3181,"##iety":3182,"general":3183,"##inc":3184,"acr":3185,"likely":3186,"##te":3187,"##ories":3188,"##uary":3189,"example":3190,"succ":3191,"##iously":3192,"sal":3193,"depart":3194,"light":3195,"##aring":3196,"members":3197,"##ought":3198,"investig":3199,"##ended":3200,"possible":3201,"young":3202,"security":3203,"fail":3204,"##ots":3205,"strong":3206,"obama":3207,"##ones":3208,"christ":3209,"future":3210,"hold":3211,"tot":3212,"understand":3213,"video":3214,"##thers":3215,"ce":3216,"##side":3217,"viol":3218,"##ane":3219,"across":3220,"##lf":3221,"interv":3222,"children":3223,"enter":3224,"##que":3225,"space":3226,"##ann":3227,"##ured":3228,"##tt":3229,"##mber":3230,"##ateg":3231,"community":3232,"##urs":3233,"thought":3234,"reason":3235,"addition":3236,"##imate":3237,"announ":3238,"done":3239,"mind":3240,"##ivid":3241,"following":3242,"means":3243,"##work":3244,"film":3245,"##by":3246,"conn":3247,"south":3248,"sound":3249,"##une":3250,"const":3251,"further":3252,"##itter":3253,"##oci":3254,"00":3255,"months":3256,"success":3257,"believe":3258,"russ":3259,"##arch":3260,"##ilar":3261,"getting":3262,"indust":3263,"reported":3264,"others":3265,"office":3266,"almost":3267,"##ination":3268,"fight":3269,"##ware":3270,"half":3271,"mag":3272,"anal":3273,"super":3274,"creat":3275,"100":3276,"##fe":3277,"##ague":3278,"ident":3279,"series":3280,"##lished":3281,"vict":3282,"suggest":3283,"sex":3284,"makes":3285,"rul":3286,"##ted":3287,"##oph":3288,"compet":3289,"cut":3290,"fall":3291,"history":3292,"glo":3293,"ple":3294,"study":3295,"international":3296,"fire":3297,"##itive":3298,"bad":3299,"##ortun":3300,"invol":3301,"issue":3302,"associ":3303,"distr":3304,"mom":3305,"instead":3306,"started":3307,"america":3308,"policy":3309,"##por":3310,"##book":3311,"canad":3312,"##par":3313,"50":3314,"##vers":3315,"##ergy":3316,"milit":3317,"particular":3318,"repres":3319,"scient":3320,"avail":3321,"sho":3322,"food":3323,"tar":3324,"live":3325,"rather":3326,"looking":3327,"##com":3328,"try":3329,"2016":3330,"service":3331,"similar":3332,"area":3333,"ep":3334,"reach":3335,"individ":3336,"##osp":3337,"quick":3338,"key":3339,"idea":3340,"##lement":3341,"imm":3342,"fig":3343,"colle":3344,"##ars":3345,"##ulation":3346,"lat":3347,"##aged":3348,"env":3349,"den":3350,"toget":3351,"together":3352,"foc":3353,"sent":3354,"##ows":3355,"points":3356,"##ference":3357,"cult":3358,"##ai":3359,"cell":3360,"ris":3361,"##ators":3362,"bene":3363,"special":3364,"intr":3365,"impro":3366,"added":3367,"ban":3368,"close":3369,"six":3370,"wind":3371,"isn":3372,"death":3373,"##ape":3374,"anything":3375,"##uction":3376,"protect":3377,"tre":3378,"##ler":3379,"trying":3380,"##back":3381,"mass":3382,"##ances":3383,"##uce":3384,"federal":3385,"dist":3386,"front":3387,"stat":3388,"german":3389,"##imes":3390,"committ":3391,"aust":3392,"##fic":3393,"cam":3394,"center":3395,"individual":3396,"comes":3397,"port":3398,"pick":3399,"##eign":3400,"discuss":3401,"rad":3402,"ago":3403,"##utes":3404,"##bal":3405,"admin":3406,"present":3407,"twitter":3408,"secret":3409,"behind":3410,"cy":3411,"mult":3412,"taken":3413,"##ids":3414,"capt":3415,"recent":3416,"2015":3417,"jud":3418,"##ored":3419,"energy":3420,"complete":3421,"er":3422,"job":3423,"available":3424,"cop":3425,"west":3426,"##ogr":3427,"##uced":3428,"san":3429,"upd":3430,"rights":3431,"nothing":3432,"tit":3433,"vir":3434,"entire":3435,"21":3436,"relig":3437,"init":3438,"pret":3439,"##selves":3440,"##ission":3441,"someone":3442,"development":3443,"email":3444,"mess":3445,"current":3446,"##erc":3447,"##ability":3448,"ey":3449,"player":3450,"##wards":3451,"wa":3452,"god":3453,"employ":3454,"attempt":3455,"access":3456,"wanted":3457,"saying":3458,"probably":3459,"mot":3460,"taking":3461,"gun":3462,"experience":3463,"field":3464,"exec":3465,"hit":3466,"image":3467,"infl":3468,"either":3469,"jour":3470,"##though":3471,"dam":3472,"##igr":3473,"phys":3474,"although":3475,"2014":3476,"dav":3477,"single":3478,"##iron":3479,"##ps":3480,"##ument":3481,"china":3482,"##aper":3483,"match":3484,"##aster":3485,"##0s":3486,"third":3487,"fav":3488,"brit":3489,"##ls":3490,"action":3491,"##ald":3492,"enc":3493,"doub":3494,"##ges":3495,"cann":3496,"break":3497,"room":3498,"bi":3499,"aud":3500,"threat":3501,"exist":3502,"department":3503,"desp":3504,"aver":3505,"cust":3506,"##amed":3507,"coming":3508,"economic":3509,"bring":3510,"rich":3511,"##sw":3512,"che":3513,"doc":3514,"clint":3515,"##ands":3516,"##uly":3517,"educ":3518,"body":3519,"conv":3520,"interview":3521,"##vert":3522,"mill":3523,"league":3524,"concern":3525,"earl":3526,"due":3527,"environ":3528,"summ":3529,"washing":3530,"tra":3531,"##rael":3532,"final":3533,"everything":3534,"countries":3535,"continue":3536,"cand":3537,"##for":3538,"##leg":3539,"late":3540,"woman":3541,"##reme":3542,"chec":3543,"administr":3544,"israel":3545,"##gress":3546,"simply":3547,"price":3548,"lang":3549,"##ipt":3550,"2017":3551,"signific":3552,"election":3553,"hom":3554,"##oy":3555,"##ming":3556,"else":3557,"club":3558,"civ":3559,"tem":3560,"##nes":3561,"##sy":3562,"specific":3563,"meas":3564,"collect":3565,"##iter":3566,"clinton":3567,"##den":3568,"##aces":3569,"##uation":3570,"describ":3571,"ground":3572,"review":3573,"building":3574,"represent":3575,"begin":3576,"street":3577,"share":3578,"minister":3579,"track":3580,"everyone":3581,"vol":3582,"bud":3583,"below":3584,"issues":3585,"matter":3586,"ball":3587,"evidence":3588,"div":3589,"washington":3590,"bank":3591,"director":3592,"target":3593,"et":3594,"##old":3595,"deep":3596,"words":3597,"198":3598,"foreign":3599,"22":3600,"ur":3601,"relations":3602,"scre":3603,"companies":3604,"block":3605,"hope":3606,"##fl":3607,"coup":3608,"chall":3609,"role":3610,"##uff":3611,"wasn":3612,"abs":3613,"military":3614,"true":3615,"outside":3616,"cir":3617,"uk":3618,"##mb":3619,"launch":3620,"treat":3621,"conserv":3622,"24":3623,"billion":3624,"environment":3625,"common":3626,"##ij":3627,"position":3628,"saw":3629,"create":3630,"yes":3631,"legal":3632,"respons":3633,"jan":3634,"diffic":3635,"comb":3636,"repl":3637,"difficult":3638,"link":3639,"mal":3640,"squ":3641,"coach":3642,"2013":3643,"self":3644,"gold":3645,"2012":3646,"custom":3647,"force":3648,"espec":3649,"running":3650,"##yn":3651,"##ival":3652,"##dle":3653,"##ites":3654,"wrote":3655,"especially":3656,"##ring":3657,"##ule":3658,"sand":3659,"leaders":3660,"##use":3661,"whole":3662,"financ":3663,"green":3664,"despite":3665,"##urch":3666,"playing":3667,"led":3668,"agree":3669,"susp":3670,"higher":3671,"article":3672,"technology":3673,"neg":3674,"terror":3675,"##lling":3676,"##ault":3677,"character":3678,"vo":3679,"##ength":3680,"##ify":3681,"obs":3682,"students":3683,"earlier":3684,"pet":3685,"music":3686,"total":3687,"age":3688,"global":3689,"decision":3690,"##ogn":3691,"version":3692,"benef":3693,"##umb":3694,"circ":3695,"dest":3696,"##ney":3697,"significant":3698,"soft":3699,"candid":3700,"society":3701,"pretty":3702,"mc":3703,"pal":3704,"vote":3705,"suff":3706,"expect":3707,"seems":3708,"gir":3709,"hours":3710,"##ibility":3711,"detail":3712,"da":3713,"nation":3714,"coll":3715,"##ully":3716,"##af":3717,"became":3718,"civil":3719,"type":3720,"langu":3721,"dead":3722,"march":3723,"sense":3724,"board":3725,"value":3726,"facebook":3727,"pan":3728,"page":3729,"services":3730,"champ":3731,"answ":3732,"site":3733,"##ively":3734,"decl":3735,"pred":3736,"htt":3737,"##ional":3738,"needs":3739,"talk":3740,"engine":3741,"shoot":3742,"subject":3743,"consider":3744,"potential":3745,"bur":3746,"include":3747,"church":3748,"cit":3749,"##ana":3750,"##ological":3751,"release":3752,"##nal":3753,"##ench":3754,"drop":3755,"network":3756,"40":3757,"##lam":3758,"##orr":3759,"##oud":3760,"related":3761,"##ograph":3762,"provide":3763,"aw":3764,"began":3765,"mov":3766,"##onse":3767,"road":3768,"ill":3769,"statement":3770,"source":3771,"##asing":3772,"##iday":3773,"inj":3774,"##ental":3775,"advert":3776,"speak":3777,"##ural":3778,"above":3779,"##body":3780,"##go":3781,"##aft":3782,"itself":3783,"word":3784,"drug":3785,"object":3786,"shows":3787,"mich":3788,"nec":3789,"##esh":3790,"refer":3791,"##ibut":3792,"cred":3793,"played":3794,"instit":3795,"themselves":3796,"himself":3797,"football":3798,"pain":3799,"note":3800,"execut":3801,"lost":3802,"accept":3803,"online":3804,"heart":3805,"results":3806,"##ender":3807,"##und":3808,"popular":3809,"officials":3810,"broad":3811,"laws":3812,"questions":3813,"##ests":3814,"base":3815,"wall":3816,"##yle":3817,"norm":3818,"rob":3819,"wed":3820,"defense":3821,"changes":3822,"industry":3823,"connect":3824,"##fully":3825,"needed":3826,"released":3827,"##oring":3828,"staff":3829,"host":3830,"stay":3831,"##hood":3832,"recently":3833,"response":3834,"friends":3835,"##ped":3836,"chief":3837,"##iple":3838,"groups":3839,"corre":3840,"approach":3841,"opportun":3842,"photo":3843,"sund":3844,"anyone":3845,"nearly":3846,"consum":3847,"##iod":3848,"##port":3849,"ang":3850,"##istic":3851,"cur":3852,"soon":3853,"##action":3854,"##ilt":3855,"search":3856,"model":3857,"function":3858,"meth":3859,"paul":3860,"living":3861,"##ift":3862,"science":3863,"tele":3864,"sept":3865,"##oint":3866,"hill":3867,"##ster":3868,"heav":3869,"##elt":3870,"personal":3871,"period":3872,"ah":3873,"particip":3874,"sil":3875,"##rew":3876,"mic":3877,"##ms":3878,"pack":3879,"published":3880,"##lim":3881,"ul":3882,"##erty":3883,"address":3884,"east":3885,"mis":3886,"##omp":3887,"##atives":3888,"works":3889,"middle":3890,"private":3891,"oct":3892,"hot":3893,"prim":3894,"goal":3895,"anti":3896,"flo":3897,"forward":3898,"republican":3899,"moment":3900,"college":3901,"di":3902,"shot":3903,"draw":3904,"197":3905,"created":3906,"quite":3907,"scr":3908,"teams":3909,"respond":3910,"##asons":3911,"select":3912,"express":3913,"minutes":3914,"hon":3915,"##oll":3916,"held":3917,"##aced":3918,"strateg":3919,"##load":3920,"longer":3921,"hun":3922,"je":3923,"round":3924,"exact":3925,"##apan":3926,"weeks":3927,"cases":3928,"constr":3929,"introd":3930,"average":3931,"rock":3932,"content":3933,"problems":3934,"shar":3935,"regard":3936,"card":3937,"mater":3938,"tur":3939,"internet":3940,"focus":3941,"##urd":3942,"##ucture":3943,"japan":3944,"race":3945,"wrong":3946,"##attle":3947,"extr":3948,"natur":3949,"park":3950,"americans":3951,"learn":3952,"journal":3953,"##olution":3954,"chance":3955,"arch":3956,"text":3957,"administration":3958,"islam":3959,"##osing":3960,"pict":3961,"2011":3962,"leader":3963,"aug":3964,"webs":3965,"comment":3966,"calif":3967,"##haps":3968,"log":3969,"##lus":3970,"announced":3971,"28":3972,"##ades":3973,"perhaps":3974,"fem":3975,"que":3976,"##key":3977,"##epend":3978,"hop":3979,"oil":3980,"town":3981,"##ished":3982,"friend":3983,"risk":3984,"##ron":3985,"##atures":3986,"##okes":3987,"capital":3988,"easy":3989,"196":3990,"##iding":3991,"leave":3992,"23":3993,"##rop":3994,"##ises":3995,"##medi":3996,"austral":3997,"language":3998,"earth":3999,"influ":4000,"ver":4001,"son":4002,"##rupt":4003,"original":4004,"king":4005,"mond":4006,"independ":4007,"maybe":4008,"reports":4009,"sometimes":4010,"impact":4011,"account":4012,"member":4013,"june":4014,"congress":4015,"fair":4016,"increase":4017,"wide":4018,"worth":4019,"india":4020,"buy":4021,"bal":4022,"pie":4023,"##ugg":4024,"financial":4025,"##ream":4026,"demand":4027,"education":4028,"##ob":4029,"##arter":4030,"manag":4031,"currently":4032,"size":4033,"##ique":4034,"##arr":4035,"studies":4036,"inside":4037,"##thern":4038,"##sec":4039,"##itting":4040,"defin":4041,"ess":4042,"##ex":4043,"unf":4044,"comput":4045,"##ude":4046,"##na":4047,"recogn":4048,"##yr":4049,"dece":4050,"rac":4051,"##cil":4052,"users":4053,"##ellig":4054,"favor":4055,"ways":4056,"expected":4057,"finally":4058,"please":4059,"##ino":4060,"progress":4061,"check":4062,"##uth":4063,"via":4064,"contract":4065,"##ey":4066,"constit":4067,"##ops":4068,"goog":4069,"tues":4070,"ira":4071,"reve":4072,"##ested":4073,"committee":4074,"doll":4075,"27":4076,"production":4077,"tuesday":4078,"happened":4079,"method":4080,"##isl":4081,"##ips":4082,"##where":4083,"sunday":4084,"climate":4085,"intellig":4086,"##oke":4087,"google":4088,"dog":4089,"performance":4090,"sold":4091,"situation":4092,"david":4093,"dig":4094,"##ett":4095,"immedi":4096,"##anger":4097,"rules":4098,"worked":4099,"blood":4100,"##bc":4101,"2010":4102,"##gn":4103,"january":4104,"loss":4105,"##uit":4106,"##cript":4107,"li":4108,"rate":4109,"##lin":4110,"complex":4111,"99":4112,"ran":4113,"teach":4114,"emerg":4115,"friday":4116,"surve":4117,"fans":4118,"tool":4119,"##omm":4120,"turned":4121,"terms":4122,"cannot":4123,"necess":4124,"ten":4125,"european":4126,"##itten":4127,"famil":4128,"relationship":4129,"movement":4130,"##ees":4131,"determ":4132,"web":4133,"phil":4134,"legisl":4135,"anim":4136,"attr":4137,"##ried":4138,"except":4139,"received":4140,"apr":4141,"jack":4142,"surpr":4143,"material":4144,"monday":4145,"##lear":4146,"aren":4147,"ask":4148,"ability":4149,"standard":4150,"il":4151,"##ners":4152,"indic":4153,"central":4154,"##coin":4155,"speed":4156,"californ":4157,"##bert":4158,"couple":4159,"gar":4160,"weap":4161,"obv":4162,"involved":4163,"quickly":4164,"iraq":4165,"british":4166,"thous":4167,"##ese":4168,"##ores":4169,"workers":4170,"confir":4171,"##aming":4172,"amount":4173,"practice":4174,"september":4175,"lay":4176,"oh":4177,"##fect":4178,"contact":4179,"simple":4180,"becom":4181,"applic":4182,"modern":4183,"plans":4184,"estab":4185,"mach":4186,"economy":4187,"sun":4188,"leav":4189,"events":4190,"phone":4191,"cast":4192,"##ging":4193,"built":4194,"poll":4195,"cup":4196,"images":4197,"ok":4198,"takes":4199,"tradition":4200,"gave":4201,"sat":4202,"tv":4203,"##atory":4204,"trade":4205,"##idents":4206,"##ilities":4207,"heard":4208,"##of":4209,"enj":4210,"council":4211,"26":4212,"canada":4213,"figure":4214,"mart":4215,"unl":4216,"syr":4217,"camer":4218,"##ients":4219,"##iff":4220,"discover":4221,"april":4222,"pull":4223,"##ctor":4224,"chair":4225,"prem":4226,"insp":4227,"conference":4228,"respect":4229,"tom":4230,"poor":4231,"lack":4232,"separ":4233,"guard":4234,"ach":4235,"crim":4236,"iran":4237,"##izing":4238,"career":4239,"push":4240,"##onstr":4241,"century":4242,"sens":4243,"##amm":4244,"subs":4245,"decided":4246,"july":4247,"sup":4248,"expert":4249,"eight":4250,"fix":4251,"##eal":4252,"morning":4253,"ele":4254,"lives":4255,"slow":4256,"meeting":4257,"##oon":4258,"hear":4259,"travel":4260,"paper":4261,"##ael":4262,"prior":4263,"bir":4264,"felt":4265,"table":4266,"grand":4267,"##xic":4268,"nove":4269,"wednes":4270,"california":4271,"pen":4272,"color":4273,"communic":4274,"killed":4275,"growth":4276,"training":4277,"behav":4278,"huge":4279,"##ask":4280,"neigh":4281,"veh":4282,"extreme":4283,"considered":4284,"lower":4285,"##ams":4286,"remember":4287,"code":4288,"##tain":4289,"officers":4290,"neighb":4291,"##pect":4292,"mother":4293,"rom":4294,"range":4295,"##estern":4296,"whose":4297,"additional":4298,"wednesday":4299,"hall":4300,"serious":4301,"improve":4302,"father":4303,"wond":4304,"included":4305,"talking":4306,"goes":4307,"corpor":4308,"russia":4309,"fast":4310,"visit":4311,"democratic":4312,"##imum":4313,"december":4314,"fal":4315,"cross":4316,"perfect":4317,"purp":4318,"fear":4319,"compl":4320,"##eech":4321,"seven":4322,"quality":4323,"assist":4324,"dark":4325,"##ening":4326,"speech":4327,"resour":4328,"##raft":4329,"bott":4330,"satur":4331,"##osition":4332,"##ung":4333,"song":4334,"##ibly":4335,"november":4336,"hy":4337,"justice":4338,"##iction":4339,"unc":4340,"afric":4341,"quarter":4342,"numbers":4343,"august":4344,"hands":4345,"deliver":4346,"##ened":4347,"item":4348,"reading":4349,"##off":4350,"##eed":4351,"knew":4352,"##force":4353,"##orters":4354,"##ceed":4355,"imag":4356,"regular":4357,"eg":4358,"offer":4359,"require":4360,"medical":4361,"##ining":4362,"agency":4363,"choice":4364,"analys":4365,"epis":4366,"##20":4367,"guy":4368,"citiz":4369,"reb":4370,"user":4371,"daily":4372,"cause":4373,"hosp":4374,"##icles":4375,"##ober":4376,"forces":4377,"spent":4378,"box":4379,"movie":4380,"tried":4381,"website":4382,"bey":4383,"various":4384,"##iation":4385,"##omb":4386,"officer":4387,"intelligence":4388,"29":4389,"##to":4390,"plat":4391,"alb":4392,"gets":4393,"county":4394,"medic":4395,"skill":4396,"##ider":4397,"areas":4398,"senate":4399,"title":4400,"##cl":4401,"boy":4402,"##play":4403,"previous":4404,"hund":4405,"##etic":4406,"geor":4407,"champions":4408,"35":4409,"wild":4410,"writing":4411,"##light":4412,"##uk":4413,"##uf":4414,"reveal":4415,"2009":4416,"file":4417,"named":4418,"thurs":4419,"##ires":4420,"written":4421,"allowed":4422,"immigr":4423,"software":4424,"sort":4425,"##mp":4426,"##ctions":4427,"concept":4428,"clean":4429,"advertise":4430,"natural":4431,"##oid":4432,"##kn":4433,"##ledge":4434,"culture":4435,"hundred":4436,"island":4437,"##istan":4438,"certainly":4439,"october":4440,"date":4441,"inn":4442,"bitcoin":4443,"##bi":4444,"##ume":4445,"jobs":4446,"kh":4447,"prep":4448,"##idge":4449,"document":4450,"##owd":4451,"upon":4452,"thursday":4453,"union":4454,"##ubb":4455,"##ondon":4456,"victim":4457,"fill":4458,"brown":4459,"starting":4460,"conduct":4461,"beyond":4462,"sett":4463,"exactly":4464,"parents":4465,"interesting":4466,"opportunity":4467,"##cer":4468,"gas":4469,"stories":4470,"trust":4471,"budget":4472,"##atter":4473,"##dr":4474,"saf":4475,"2008":4476,"rap":4477,"##ux":4478,"touch":4479,"william":4480,"particularly":4481,"london":4482,"biggest":4483,"##aut":4484,"republicans":4485,"attention":4486,"##craft":4487,"usually":4488,"majority":4489,"##ification":4490,"pressure":4491,"completely":4492,"swe":4493,"##oles":4494,"commission":4495,"safe":4496,"brought":4497,"##itted":4498,"bush":4499,"ice":4500,"##agement":4501,"systems":4502,"schools":4503,"##arily":4504,"##ida":4505,"features":4506,"donald":4507,"politics":4508,"muslim":4509,"##eter":4510,"##essional":4511,"investigation":4512,"cele":4513,"hous":4514,"ow":4515,"cris":4516,"autom":4517,"executive":4518,"western":4519,"style":4520,"convers":4521,"##ounts":4522,"freed":4523,"http":4524,"mad":4525,"mention":4526,"##zz":4527,"##lly":4528,"answer":4529,"stuff":4530,"population":4531,"##iant":4532,"##sequ":4533,"amaz":4534,"histor":4535,"##aries":4536,"prison":4537,"saturday":4538,"ens":4539,"max":4540,"letter":4541,"fa":4542,"##ety":4543,"critic":4544,"message":4545,"continued":4546,"##bit":4547,"##ament":4548,"##uses":4549,"crime":4550,"##sych":4551,"##oo":4552,"drink":4553,"##encies":4554,"latest":4555,"update":4556,"alle":4557,"spir":4558,"effects":4559,"growing":4560,"achie":4561,"##inated":4562,"##isions":4563,"counter":4564,"wants":4565,"roll":4566,"thinking":4567,"demonstr":4568,"celebr":4569,"##sc":4570,"princ":4571,"##inese":4572,"voters":4573,"ny":4574,"looks":4575,"tor":4576,"##ously":4577,"looked":4578,"property":4579,"enjoy":4580,"deg":4581,"##enced":4582,"effort":4583,"chinese":4584,"##ha":4585,"appar":4586,"blue":4587,"##entially":4588,"cook":4589,"45":4590,"cat":4591,"comments":4592,"##aging":4593,"levels":4594,"kids":4595,"mob":4596,"##ugh":4597,"implement":4598,"leading":4599,"danger":4600,"pun":4601,"##erve":4602,"##ma":4603,"attacks":4604,"psych":4605,"spokes":4606,"##wor":4607,"##imately":4608,"democrats":4609,"debate":4610,"limited":4611,"secretary":4612,"income":4613,"##asc":4614,"##oses":4615,"attorn":4616,"60":4617,"##uments":4618,"peace":4619,"inte":4620,"remain":4621,"reality":4622,"frequ":4623,"germany":4624,"battle":4625,"alone":4626,"##come":4627,"district":4628,"religious":4629,"31":4630,"nuc":4631,"##fort":4632,"print":4633,"blog":4634,"emb":4635,"meaning":4636,"overall":4637,"english":4638,"described":4639,"required":4640,"purch":4641,"wouldn":4642,"disp":4643,"calls":4644,"remains":4645,"##adem":4646,"febr":4647,"write":4648,"authority":4649,"500":4650,"##enge":4651,"regul":4652,"mcc":4653,"sports":4654,"entr":4655,"ready":4656,"increasing":4657,"band":4658,"install":4659,"##aught":4660,"freedom":4661,"february":4662,"mount":4663,"##mon":4664,"army":4665,"summer":4666,"ult":4667,"thus":4668,"plant":4669,"click":4670,"nature":4671,"##uing":4672,"claims":4673,"bow":4674,"##eth":4675,"##ension":4676,"rand":4677,"wife":4678,"reasons":4679,"organization":4680,"physical":4681,"scene":4682,"experi":4683,"ii":4684,"store":4685,"recomm":4686,"flor":4687,"##anced":4688,"russian":4689,"path":4690,"indian":4691,"##ground":4692,"changed":4693,"bord":4694,"jer":4695,"spot":4696,"##reg":4697,"drive":4698,"command":4699,"products":4700,"contribut":4701,"presidential":4702,"surv":4703,"eventually":4704,"criminal":4705,"##mer":4706,"ut":4707,"brain":4708,"carry":4709,"violence":4710,"platform":4711,"safety":4712,"paid":4713,"traff":4714,"stra":4715,"strugg":4716,"fly":4717,"twe":4718,"immediately":4719,"exch":4720,"altern":4721,"##eless":4722,"throughout":4723,"estim":4724,"extra":4725,"analysis":4726,"james":4727,"##ky":4728,"efforts":4729,"profess":4730,"thousands":4731,"prime":4732,"couldn":4733,"status":4734,"mix":4735,"##erson":4736,"exam":4737,"gone":4738,"stage":4739,"sem":4740,"prec":4741,"conditions":4742,"liberal":4743,"walk":4744,"fit":4745,"kore":4746,"academ":4747,"multiple":4748,"kick":4749,"mac":4750,"surr":4751,"toward":4752,"difference":4753,"analy":4754,"nuclear":4755,"eth":4756,"pitch":4757,"costs":4758,"crisis":4759,"parts":4760,"bab":4761,"hair":4762,"increased":4763,"grad":4764,"subst":4765,"prevent":4766,"ign":4767,"##ham":4768,"ones":4769,"directly":4770,"hospital":4771,"download":4772,"happy":4773,"nom":4774,"rout":4775,"##field":4776,"thanks":4777,"manager":4778,"beat":4779,"positive":4780,"conservative":4781,"lines":4782,"ww":4783,"##ford":4784,"provided":4785,"labor":4786,"credit":4787,"integr":4788,"##cs":4789,"mech":4790,"draft":4791,"2007":4792,"##ables":4793,"brand":4794,"cars":4795,"promot":4796,"appears":4797,"stem":4798,"195":4799,"produc":4800,"associated":4801,"##enue":4802,"##astic":4803,"receive":4804,"ahead":4805,"pm":4806,"##iers":4807,"##sa":4808,"plus":4809,"##isc":4810,"showed":4811,"largest":4812,"dan":4813,"liter":4814,"region":4815,"##utions":4816,"##hib":4817,"##ga":4818,"perm":4819,"esc":4820,"measure":4821,"vs":4822,"tex":4823,"disapp":4824,"constitution":4825,"burn":4826,"eu":4827,"spending":4828,"moving":4829,"##inary":4830,"arab":4831,"student":4832,"##ban":4833,"guys":4834,"michael":4835,"designed":4836,"radio":4837,"##ufact":4838,"core":4839,"jaz":4840,"eyes":4841,"die":4842,"towards":4843,"hero":4844,"strength":4845,"clearly":4846,"damage":4847,"##ustr":4848,"smith":4849,"##he":4850,"##anch":4851,"unit":4852,"followed":4853,"beginning":4854,"tour":4855,"trial":4856,"repe":4857,"virt":4858,"challeng":4859,"lin":4860,"##oken":4861,"manufact":4862,"unlike":4863,"##ocks":4864,"##ze":4865,"scen":4866,"predict":4867,"episode":4868,"compared":4869,"sexual":4870,"candidate":4871,"details":4872,"correct":4873,"mer":4874,"##akers":4875,"truth":4876,"##ortion":4877,"##aker":4878,"thank":4879,"senior":4880,"advertisement":4881,"nav":4882,"##64":4883,"failed":4884,"whate":4885,"option":4886,"wood":4887,"##ara":4888,"beg":4889,"##ikes":4890,"whatever":4891,"categ":4892,"door":4893,"brother":4894,"agreement":4895,"micr":4896,"##ypt":4897,"theory":4898,"hell":4899,"save":4900,"opin":4901,"absol":4902,"moved":4903,"relative":4904,"ideas":4905,"citizens":4906,"hyp":4907,"##cast":4908,"##hold":4909,"section":4910,"marri":4911,"helped":4912,"restr":4913,"voice":4914,"origin":4915,"giving":4916,"32":4917,"der":4918,"vill":4919,"french":4920,"##face":4921,"ital":4922,"haven":4923,"coal":4924,"apple":4925,"projects":4926,"activity":4927,"hur":4928,"yourself":4929,"knowledge":4930,"ended":4931,"##box":4932,"shown":4933,"##aint":4934,"feed":4935,"##using":4936,"##ivity":4937,"mission":4938,"computer":4939,"##astr":4940,"defe":4941,"smart":4942,"screen":4943,"florida":4944,"od":4945,"consist":4946,"developed":4947,"normal":4948,"fan":4949,"van":4950,"notice":4951,"books":4952,"individuals":4953,"37":4954,"mexic":4955,"agre":4956,"includes":4957,"greater":4958,"occup":4959,"born":4960,"gives":4961,"murd":4962,"meant":4963,"association":4964,"independent":4965,"##ef":4966,"##ping":4967,"##wise":4968,"sched":4969,"australia":4970,"clos":4971,"scale":4972,"cool":4973,"photos":4974,"encour":4975,"telev":4976,"dream":4977,"dise":4978,"corn":4979,"dut":4980,"fine":4981,"cyc":4982,"album":4983,"www":4984,"religion":4985,"ben":4986,"rule":4987,"##ny":4988,"##ago":4989,"##phone":4990,"policies":4991,"basic":4992,"ath":4993,"##ero":4994,"feature":4995,"passed":4996,"heavy":4997,"resources":4998,"absolute":4999,"sle":5000,"chann":5001,"minor":5002,"reflect":5003,"piece":5004,"narr":5005,"rh":5006,"haw":5007,"slight":5008,"fully":5009,"wait":5010,"square":5011,"forced":5012,"spread":5013,"electric":5014,"authorities":5015,"judge":5016,"jump":5017,"##yan":5018,"##eration":5019,"##iny":5020,"prosec":5021,"uses":5022,"expand":5023,"incident":5024,"##ado":5025,"##ille":5026,"structure":5027,"mechan":5028,"sud":5029,"impress":5030,"shut":5031,"shooting":5032,"reform":5033,"remo":5034,"characters":5035,"##val":5036,"##arian":5037,"coff":5038,"experim":5039,"err":5040,"championship":5041,"##yal":5042,"##berg":5043,"##ios":5044,"attorney":5045,"hol":5046,"tick":5047,"##set":5048,"34":5049,"rise":5050,"##owers":5051,"lob":5052,"avoid":5053,"##ipped":5054,"sanders":5055,"map":5056,"##owing":5057,"crowd":5058,"join":5059,"conflic":5060,"##rim":5061,"##erved":5062,"willing":5063,"count":5064,"reached":5065,"aim":5066,"##orter":5067,"sell":5068,"supposed":5069,"editor":5070,"critical":5071,"chic":5072,"##apt":5073,"advant":5074,"eye":5075,"calling":5076,"primary":5077,"33":5078,"bay":5079,"ip":5080,"lif":5081,"wel":5082,"unique":5083,"learning":5084,"##ev":5085,"defend":5086,"highly":5087,"foundation":5088,"none":5089,"winning":5090,"researchers":5091,"girl":5092,"##enty":5093,"##ocked":5094,"larger":5095,"posted":5096,"chris":5097,"alleged":5098,"myself":5099,"previously":5100,"organiz":5101,"sources":5102,"treatment":5103,"texas":5104,"mike":5105,"##ona":5106,"##sey":5107,"noted":5108,"##unt":5109,"driving":5110,"actions":5111,"politic":5112,"condition":5113,"strategy":5114,"died":5115,"##aur":5116,"illeg":5117,"bottom":5118,"straight":5119,"wil":5120,"##iate":5121,"contain":5122,"continues":5123,"ms":5124,"thom":5125,"places":5126,"affect":5127,"benefits":5128,"behavior":5129,"speaking":5130,"double":5131,"##ki":5132,"##li":5133,"station":5134,"2018":5135,"apart":5136,"gh":5137,"gay":5138,"nice":5139,"therefore":5140,"produced":5141,"minimum":5142,"request":5143,"##istry":5144,"##eno":5145,"powerful":5146,"generation":5147,"necessary":5148,"mist":5149,"trib":5150,"adj":5151,"decades":5152,"highest":5153,"kept":5154,"pattern":5155,"challenge":5156,"mel":5157,"nations":5158,"compar":5159,"partners":5160,"easily":5161,"domin":5162,"weapons":5163,"gree":5164,"rare":5165,"weight":5166,"qual":5167,"indeed":5168,"female":5169,"leaving":5170,"##ula":5171,"spend":5172,"syn":5173,"caused":5174,"36":5175,"goals":5176,"##iance":5177,"propos":5178,"successful":5179,"##ici":5180,"##amb":5181,"weekend":5182,"angel":5183,"fat":5184,"80":5185,"kr":5186,"nut":5187,"tough":5188,"##rec":5189,"spr":5190,"chem":5191,"##room":5192,"picture":5193,"##lor":5194,"##ato":5195,"frank":5196,"destro":5197,"wonder":5198,"pac":5199,"tro":5200,"mostly":5201,"transport":5202,"seemed":5203,"industr":5204,"creating":5205,"bed":5206,"hus":5207,"##down":5208,"management":5209,"christian":5210,"influence":5211,"75":5212,"gal":5213,"lic":5214,"##unk":5215,"raised":5216,"etc":5217,"benefit":5218,"george":5219,"professor":5220,"jazz":5221,"fighting":5222,"environmental":5223,"##roid":5224,"##amples":5225,"flight":5226,"patients":5227,"appeared":5228,"initial":5229,"cities":5230,"notes":5231,"charge":5232,"fox":5233,"##while":5234,"confirmed":5235,"##iar":5236,"pair":5237,"opening":5238,"marriage":5239,"television":5240,"jew":5241,"##uana":5242,"programs":5243,"libr":5244,"##aughter":5245,"ec":5246,"tend":5247,"whom":5248,"194":5249,"knows":5250,"memory":5251,"sales":5252,"##ste":5253,"chap":5254,"machine":5255,"length":5256,"##iced":5257,"lawy":5258,"signed":5259,"opened":5260,"records":5261,"millions":5262,"traffic":5263,"##put":5264,"franc":5265,"defensive":5266,"opposition":5267,"lou":5268,"los":5269,"##iel":5270,"adop":5271,"grant":5272,"quant":5273,"species":5274,"send":5275,"recover":5276,"debt":5277,"thomas":5278,"nine":5279,"##hi":5280,"##ented":5281,"react":5282,"sea":5283,"fresh":5284,"##itely":5285,"happens":5286,"funding":5287,"95":5288,"rat":5289,"##ches":5290,"##ibution":5291,"brief":5292,"generally":5293,"chicago":5294,"rub":5295,"##iles":5296,"##iled":5297,"enforce":5298,"options":5299,"operations":5300,"survey":5301,"agreed":5302,"ali":5303,"uns":5304,"residents":5305,"parties":5306,"audience":5307,"hack":5308,"##ya":5309,"troub":5310,"magaz":5311,"dollars":5312,"families":5313,"anc":5314,"limit":5315,"banks":5316,"display":5317,"competition":5318,"massive":5319,"favorite":5320,"traditional":5321,"ber":5322,"##ba":5323,"##itz":5324,"score":5325,"mah":5326,"professional":5327,"male":5328,"rid":5329,"enem":5330,"##ube":5331,"owners":5332,"understanding":5333,"martin":5334,"##bon":5335,"##onents":5336,"##aked":5337,"brew":5338,"occurr":5339,"choose":5340,"##oft":5341,"feet":5342,"false":5343,"90":5344,"ye":5345,"##uge":5346,"fort":5347,"##ishing":5348,"infr":5349,"occas":5350,"spirit":5351,"64":5352,"70":5353,"vac":5354,"org":5355,"subm":5356,"allows":5357,"windows":5358,"japanese":5359,"mir":5360,"stick":5361,"adult":5362,"scott":5363,"adding":5364,"advoc":5365,"claimed":5366,"rank":5367,"##itness":5368,"whe":5369,"commerc":5370,"assault":5371,"investment":5372,"39":5373,"cas":5374,"river":5375,"wing":5376,"##agon":5377,"robert":5378,"switch":5379,"customers":5380,"floor":5381,"##itude":5382,"##ifying":5383,"spect":5384,"cru":5385,"firm":5386,"accomp":5387,"seeing":5388,"insur":5389,"solid":5390,"canadian":5391,"##ijuana":5392,"##band":5393,"incred":5394,"load":5395,"supporters":5396,"protest":5397,"cells":5398,"separate":5399,"du":5400,"spring":5401,"hillary":5402,"purpose":5403,"models":5404,"##ropri":5405,"syria":5406,"fif":5407,"##iring":5408,"bull":5409,"controver":5410,"snow":5411,"offensive":5412,"driver":5413,"parl":5414,"proper":5415,"islamic":5416,"##10":5417,"stock":5418,"trip":5419,"hundreds":5420,"comfort":5421,"graph":5422,"charges":5423,"produce":5424,"putting":5425,"interested":5426,"sites":5427,"attract":5428,"##iverse":5429,"provides":5430,"bag":5431,"sad":5432,"stone":5433,"explained":5434,"palest":5435,"establish":5436,"hor":5437,"math":5438,"##iest":5439,"##itor":5440,"beaut":5441,"served":5442,"unfortun":5443,"crew":5444,"southern":5445,"award":5446,"names":5447,"##iro":5448,"shared":5449,"instr":5450,"catch":5451,"era":5452,"##ario":5453,"android":5454,"shel":5455,"emot":5456,"transl":5457,"doubt":5458,"worse":5459,"negative":5460,"obviously":5461,"65":5462,"kar":5463,"##dom":5464,"feeling":5465,"cab":5466,"nfl":5467,"##zen":5468,"##icient":5469,"candidates":5470,"digital":5471,"birth":5472,"bomb":5473,"diet":5474,"##cing":5475,"france":5476,"exerc":5477,"active":5478,"extremely":5479,"coffee":5480,"##nn":5481,"##essed":5482,"poly":5483,"communities":5484,"legislation":5485,"camera":5486,"ther":5487,"amb":5488,"coast":5489,"finding":5490,"learned":5491,"device":5492,"scientists":5493,"richard":5494,"##ta":5495,"spl":5496,"cold":5497,"refuge":5498,"parliam":5499,"##yl":5500,"heat":5501,"worst":5502,"##cul":5503,"##vin":5504,"##ston":5505,"dism":5506,"marijuana":5507,"actual":5508,"assum":5509,"##apped":5510,"lose":5511,"2006":5512,"responsible":5513,"becoming":5514,"neighbor":5515,"commercial":5516,"mos":5517,"rough":5518,"##lied":5519,"beer":5520,"closed":5521,"offered":5522,"annual":5523,"believed":5524,"effective":5525,"johnson":5526,"##ipping":5527,"protection":5528,"concerns":5529,"vehicle":5530,"lad":5531,"##ext":5532,"##outh":5533,"iron":5534,"advantage":5535,"fant":5536,"sher":5537,"##odies":5538,"explain":5539,"israeli":5540,"border":5541,"##more":5542,"acqu":5543,"showing":5544,"owner":5545,"standing":5546,"employees":5547,"jeff":5548,"##vant":5549,"##eline":5550,"prefer":5551,"caption":5552,"institute":5553,"migr":5554,"northern":5555,"victory":5556,"items":5557,"dangerous":5558,"exchange":5559,"43":5560,"si":5561,"wage":5562,"##uries":5563,"##che":5564,"wealth":5565,"##estic":5566,"##aine":5567,"sport":5568,"plays":5569,"elements":5570,"prices":5571,"##uters":5572,"parliament":5573,"witness":5574,"register":5575,"optim":5576,"announce":5577,"entirely":5578,"nas":5579,"rates":5580,"##la":5581,"##ica":5582,"commit":5583,"supply":5584,"##board":5585,"##iber":5586,"##airs":5587,"construction":5588,"tools":5589,"magazine":5590,"master":5591,"##ville":5592,"##semb":5593,"solution":5594,"revealed":5595,"cash":5596,"luck":5597,"##cell":5598,"governor":5599,"arrested":5600,"apparently":5601,"49":5602,"horr":5603,"vice":5604,"##iling":5605,"##ounds":5606,"convention":5607,"temper":5608,"slightly":5609,"os":5610,"stad":5611,"planned":5612,"random":5613,"illegal":5614,"francis":5615,"300":5616,"cath":5617,"##gs":5618,"##inate":5619,"usa":5620,"##ipl":5621,"##izes":5622,"otherwise":5623,"transform":5624,"values":5625,"tests":5626,"batter":5627,"kid":5628,"##wood":5629,"shop":5630,"coop":5631,"watching":5632,"failure":5633,"holding":5634,"application":5635,"rang":5636,"ton":5637,"##ipe":5638,"joined":5639,"48":5640,"2000":5641,"##aves":5642,"fourth":5643,"##ospect":5644,"suspect":5645,"42":5646,"mail":5647,"##isation":5648,"##ota":5649,"##oted":5650,"fellow":5651,"flag":5652,"ensure":5653,"ko":5654,"##erry":5655,"advis":5656,"zone":5657,"##ushing":5658,"##umn":5659,"centre":5660,"supreme":5661,"channel":5662,"alex":5663,"bul":5664,"##olic":5665,"truly":5666,"##antly":5667,"easier":5668,"meanwhile":5669,"argument":5670,"##stein":5671,"ham":5672,"pc":5673,"sam":5674,"asking":5675,"frame":5676,"##oster":5677,"controll":5678,"glass":5679,"markets":5680,"listen":5681,"38":5682,"hate":5683,"laugh":5684,"##onent":5685,"##ano":5686,"span":5687,"farm":5688,"vari":5689,"existing":5690,"negot":5691,"storm":5692,"serve":5693,"division":5694,"achieve":5695,"bowl":5696,"dar":5697,"gather":5698,"profile":5699,"opinion":5700,"stadium":5701,"52":5702,"wish":5703,"##my":5704,"##icted":5705,"construct":5706,"surround":5707,"##ca":5708,"##bur":5709,"##house":5710,"braz":5711,"offers":5712,"fell":5713,"partner":5714,"discussion":5715,"virgin":5716,"concerned":5717,"replace":5718,"introduced":5719,"conversation":5720,"hind":5721,"mere":5722,"##da":5723,"##men":5724,"novel":5725,"string":5726,"transfer":5727,"##coming":5728,"pin":5729,"##wide":5730,"##inct":5731,"onto":5732,"sav":5733,"unp":5734,"proposed":5735,"##acity":5736,"##abb":5737,"bob":5738,"decisions":5739,"solar":5740,"initi":5741,"documents":5742,"recommend":5743,"##ih":5744,"##time":5745,"##11":5746,"bell":5747,"minute":5748,"##ancy":5749,"micros":5750,"44":5751,"waiting":5752,"definitely":5753,"##kin":5754,"mayor":5755,"revolution":5756,"spokesman":5757,"jim":5758,"wat":5759,"##rem":5760,"doct":5761,"apply":5762,"193":5763,"missing":5764,"types":5765,"afford":5766,"sounds":5767,"destroy":5768,"comed":5769,"athlet":5770,"adjust":5771,"enforcement":5772,"##fs":5773,"hearing":5774,"resist":5775,"breaking":5776,"55":5777,"pap":5778,"tant":5779,"##bl":5780,"aspect":5781,"clin":5782,"##know":5783,"ultimately":5784,"removed":5785,"louis":5786,"bern":5787,"gain":5788,"jose":5789,"tack":5790,"interp":5791,"fuel":5792,"supported":5793,"allowing":5794,"largely":5795,"repeated":5796,"getty":5797,"decade":5798,"planning":5799,"experts":5800,"medicine":5801,"mobile":5802,"murder":5803,"ju":5804,"##ingly":5805,"runs":5806,"tells":5807,"##works":5808,"infrastr":5809,"carol":5810,"detect":5811,"homes":5812,"gop":5813,"stated":5814,"highlight":5815,"direction":5816,"arrived":5817,"basis":5818,"housing":5819,"library":5820,"saud":5821,"surface":5822,"older":5823,"steph":5824,"scientology":5825,"williams":5826,"##eren":5827,"guess":5828,"requires":5829,"streets":5830,"coverage":5831,"domain":5832,"rain":5833,"consequ":5834,"train":5835,"context":5836,"edge":5837,"turns":5838,"sky":5839,"restaur":5840,"purs":5841,"focused":5842,"launched":5843,"fle":5844,"##ada":5845,"suc":5846,"acknow":5847,"seek":5848,"differences":5849,"elections":5850,"stopped":5851,"copyr":5852,"discovered":5853,"copyright":5854,"ps":5855,"rog":5856,"reuters":5857,"depend":5858,"becomes":5859,"ram":5860,"##ym":5861,"##odes":5862,"##abor":5863,"spoke":5864,"doctor":5865,"crash":5866,"accused":5867,"##azy":5868,"telling":5869,"activities":5870,"suggested":5871,"faith":5872,"pu":5873,"tow":5874,"##ige":5875,"##ils":5876,"atl":5877,"##issions":5878,"schem":5879,"useful":5880,"participants":5881,"infrastructure":5882,"ren":5883,"##gl":5884,"england":5885,"specifically":5886,"prosecut":5887,"rs":5888,"sust":5889,"appoint":5890,"strike":5891,"background":5892,"carl":5893,"absolutely":5894,"jes":5895,"vul":5896,"unless":5897,"britain":5898,"ded":5899,"yell":5900,"##ole":5901,"plants":5902,"attend":5903,"2003":5904,"issued":5905,"alternative":5906,"disease":5907,"66":5908,"##atically":5909,"##ulf":5910,"##igned":5911,"setting":5912,"african":5913,"tweet":5914,"na":5915,"reject":5916,"appeal":5917,"mont":5918,"miles":5919,"obvious":5920,"##eness":5921,"basically":5922,"identified":5923,"emergency":5924,"41":5925,"bon":5926,"ty":5927,"##ka":5928,"##ani":5929,"##olf":5930,"weak":5931,"democracy":5932,"##isf":5933,"##osen":5934,"interact":5935,"writ":5936,"providing":5937,"developing":5938,"domestic":5939,"injury":5940,"imagine":5941,"dim":5942,"eat":5943,"tun":5944,"##ius":5945,"##za":5946,"##cel":5947,"bridge":5948,"imposs":5949,"skin":5950,"feels":5951,"skills":5952,"##arm":5953,"##acher":5954,"earn":5955,"2005":5956,"articles":5957,"files":5958,"smaller":5959,"https":5960,"subscrib":5961,"conflict":5962,"las":5963,"vast":5964,"##uate":5965,"ship":5966,"##pper":5967,"##ption":5968,"believes":5969,"leadership":5970,"princip":5971,"degree":5972,"identity":5973,"balance":5974,"relatively":5975,"zero":5976,"##oom":5977,"##itable":5978,"hasn":5979,"crack":5980,"immigration":5981,"sleep":5982,"alloc":5983,"interests":5984,"healthy":5985,"suggests":5986,"hang":5987,"pil":5988,"assemb":5989,"returned":5990,"dropped":5991,"47":5992,"##usion":5993,"appropri":5994,"accounts":5995,"studio":5996,"##ression":5997,"corporate":5998,"rapid":5999,"rush":6000,"##ront":6001,"##equ":6002,"##gb":6003,"##aks":6004,"newsp":6005,"2019":6006,"advanced":6007,"keeping":6008,"honest":6009,"regarding":6010,"established":6011,"##oked":6012,"coord":6013,"standards":6014,"paying":6015,"scientific":6016,"girls":6017,"##ulated":6018,"cancer":6019,"photograph":6020,"operation":6021,"window":6022,"originally":6023,"palestin":6024,"rene":6025,"task":6026,"##gers":6027,"prospect":6028,"seed":6029,"reduce":6030,"##cription":6031,"victims":6032,"cart":6033,"cards":6034,"sitting":6035,"##ques":6036,"wars":6037,"currency":6038,"instruct":6039,"54":6040,"gard":6041,"consc":6042,"2001":6043,"senator":6044,"raise":6045,"ron":6046,"##ox":6047,"##nel":6048,"##irt":6049,"neither":6050,"drivers":6051,"testing":6052,"businesses":6053,"views":6054,"innov":6055,"ment":6056,"ox":6057,"rose":6058,"ryan":6059,"##osh":6060,"cloud":6061,"seconds":6062,"changing":6063,"sharp":6064,"##enoord":6065,"unfortunately":6066,"53":6067,"bond":6068,"resc":6069,"carbon":6070,"metal":6071,"terrorism":6072,"impossible":6073,"01":6074,"mary":6075,"tact":6076,"##ris":6077,"##ae":6078,"##ari":6079,"trick":6080,"abuse":6081,"afgh":6082,"twice":6083,"accur":6084,"owned":6085,"labour":6086,"steps":6087,"budd":6088,"responsibility":6089,"fol":6090,"gall":6091,"placed":6092,"proceed":6093,"managed":6094,"possibility":6095,"conclud":6096,"equal":6097,"privacy":6098,"committed":6099,"veter":6100,"stan":6101,"##ulate":6102,"discrim":6103,"location":6104,"##arko":6105,"exclus":6106,"dollar":6107,"pip":6108,"##onom":6109,"pool":6110,"presence":6111,"swed":6112,"##resp":6113,"korea":6114,"##icip":6115,"##istics":6116,"recall":6117,"##otten":6118,"mentioned":6119,"purchase":6120,"powers":6121,"aircraft":6122,"harm":6123,"voting":6124,"equip":6125,"dyn":6126,"ped":6127,"wear":6128,"##emen":6129,"broken":6130,"symb":6131,"flat":6132,"africa":6133,"organizations":6134,"chapter":6135,"vision":6136,"##ener":6137,"amend":6138,"eval":6139,"capacity":6140,"##ception":6141,"stars":6142,"measures":6143,"##going":6144,"yards":6145,"##inn":6146,"finished":6147,"##onto":6148,"votes":6149,"arms":6150,"yeah":6151,"ken":6152,"##antic":6153,"##roll":6154,"facing":6155,"losing":6156,"nick":6157,"sac":6158,"wik":6159,"##itory":6160,"intel":6161,"parent":6162,"bigger":6163,"internal":6164,"philos":6165,"angeles":6166,"brazil":6167,"lie":6168,"##ble":6169,"tourn":6170,"affected":6171,"##onym":6172,"presented":6173,"attempts":6174,"neighborhood":6175,"nh":6176,"helping":6177,"considering":6178,"sudden":6179,"aware":6180,"sides":6181,"##tained":6182,"variety":6183,"figures":6184,"greek":6185,"sector":6186,"##enses":6187,"buff":6188,"familiar":6189,"oly":6190,"##ata":6191,"##ola":6192,"neur":6193,"alleg":6194,"##erties":6195,"elected":6196,"factors":6197,"planet":6198,"patr":6199,"visual":6200,"taxes":6201,"ceo":6202,"mexico":6203,"rum":6204,"clar":6205,"charged":6206,"factor":6207,"technical":6208,"devices":6209,"##ophy":6210,"broadcast":6211,"complexity":6212,"toronto":6213,"occurred":6214,"dial":6215,"tight":6216,"killing":6217,"connection":6218,"afghan":6219,"46":6220,"mental":6221,"##iated":6222,"##inating":6223,"##agr":6224,"##ander":6225,"craft":6226,"guide":6227,"circum":6228,"lived":6229,"mas":6230,"sample":6231,"##ker":6232,"beach":6233,"weather":6234,"diss":6235,"struct":6236,"instance":6237,"protes":6238,"funds":6239,"cuts":6240,"linked":6241,"nyarko":6242,"daughter":6243,"jon":6244,"##pm":6245,"##awn":6246,"moon":6247,"potentially":6248,"publish":6249,"politicians":6250,"beautif":6251,"olymp":6252,"caught":6253,"mand":6254,"##aud":6255,"##kins":6256,"##gu":6257,"##arant":6258,"##outs":6259,"compr":6260,"seriously":6261,"founder":6262,"famous":6263,"penn":6264,"##ship":6265,"##town":6266,"##mas":6267,"##ania":6268,"param":6269,"voted":6270,"fi":6271,"fest":6272,"jones":6273,"rail":6274,"supporting":6275,"cultural":6276,"drugs":6277,"51":6278,"bbc":6279,"lake":6280,"concent":6281,"consult":6282,"positions":6283,"steve":6284,"appearance":6285,"recorded":6286,"faced":6287,"widely":6288,"coalition":6289,"microsoft":6290,"gi":6291,"horn":6292,"rod":6293,"##uel":6294,"##igan":6295,"prepared":6296,"insurance":6297,"bes":6298,"mort":6299,"wid":6300,"shape":6301,"##enda":6302,"assess":6303,"magic":6304,"motiv":6305,"hurt":6306,"##ken":6307,"##itation":6308,"alt":6309,"worry":6310,"remind":6311,"remained":6312,"governments":6313,"charl":6314,"passing":6315,"faster":6316,"tag":6317,"spons":6318,"clim":6319,"fired":6320,"signs":6321,"eastern":6322,"methods":6323,"liqu":6324,"baby":6325,"##nam":6326,"##aded":6327,"##uls":6328,"carr":6329,"##others":6330,"typically":6331,"cannab":6332,"penal":6333,"saudi":6334,"bodies":6335,"sor":6336,"##right":6337,"##head":6338,"##agn":6339,"##anta":6340,"armed":6341,"joint":6342,"throw":6343,"wrest":6344,"finish":6345,"arrest":6346,"videos":6347,"proposal":6348,"concentr":6349,"##hol":6350,"teen":6351,"resident":6352,"writer":6353,"starts":6354,"elim":6355,"weapon":6356,"satisf":6357,"egypt":6358,"increasingly":6359,"gender":6360,"gaming":6361,"jun":6362,"weren":6363,"##uous":6364,"##oned":6365,"##igg":6366,"nobody":6367,"emph":6368,"##well":6369,"ministry":6370,"refused":6371,"amazing":6372,"nasa":6373,"equipment":6374,"##lig":6375,"##lies":6376,"##uted":6377,"selling":6378,"##essions":6379,"collection":6380,"premier":6381,"din":6382,"##ding":6383,"carried":6384,"engineering":6385,"carolina":6386,"cow":6387,"ire":6388,"##enger":6389,"##agues":6390,"trail":6391,"covered":6392,"linux":6393,"husband":6394,"##18":6395,"##ibute":6396,"decide":6397,"seeking":6398,"guarant":6399,"talks":6400,"fixed":6401,"industrial":6402,"lu":6403,"##iot":6404,"agent":6405,"fey":6406,"forms":6407,"possibly":6408,"happening":6409,"copy":6410,"panel":6411,"analyst":6412,"##32":6413,"complic":6414,"statements":6415,"2002":6416,"argued":6417,"totally":6418,"sar":6419,"##fc":6420,"sharing":6421,"shift":6422,"intended":6423,"default":6424,"magn":6425,"corner":6426,"troops":6427,"85":6428,"##do":6429,"retr":6430,"wearing":6431,"orange":6432,"##emp":6433,"##ansion":6434,"2004":6435,"investors":6436,"practices":6437,"entertain":6438,"suffered":6439,"astr":6440,"bost":6441,"jav":6442,"tiss":6443,"reference":6444,"sequ":6445,"seasons":6446,"##ogen":6447,"recru":6448,"proced":6449,"bringing":6450,"shares":6451,"pak":6452,"##lock":6453,"##lines":6454,"##real":6455,"##tered":6456,"seg":6457,"##pped":6458,"schol":6459,"tempor":6460,"hawai":6461,"bid":6462,"##uations":6463,"rein":6464,"##iders":6465,"abortion":6466,"##gry":6467,"writes":6468,"defence":6469,"paris":6470,"retire":6471,"revenue":6472,"terrorist":6473,"filled":6474,"category":6475,"error":6476,"##aints":6477,"column":6478,"pointed":6479,"handle":6480,"lots":6481,"conclus":6482,"initially":6483,"challenges":6484,"iv":6485,"les":6486,"util":6487,"##ez":6488,"##aj":6489,"##gor":6490,"stret":6491,"##illing":6492,"agencies":6493,"confidence":6494,"ruling":6495,"combined":6496,"australian":6497,"400":6498,"aid":6499,"gap":6500,"ske":6501,"wire":6502,"##30":6503,"##stream":6504,"royal":6505,"guid":6506,"remaining":6507,"posts":6508,"consumer":6509,"essential":6510,"chairman":6511,"boston":6512,"fish":6513,"mun":6514,"##acing":6515,"##verse":6516,"expensive":6517,"joe":6518,"fing":6519,"rup":6520,"anth":6521,"plenty":6522,"nov":6523,"aftern":6524,"implic":6525,"deput":6526,"identify":6527,"updates":6528,"employment":6529,"motion":6530,"miller":6531,"customer":6532,"vehicles":6533,"conducted":6534,"ancient":6535,"oce":6536,"pic":6537,"##owed":6538,"##ocol":6539,"helps":6540,"schedul":6541,"breat":6542,"jail":6543,"pages":6544,"##bn":6545,"##omen":6546,"myth":6547,"marg":6548,"boost":6549,"secure":6550,"flash":6551,"maintain":6552,"grew":6553,"regardless":6554,"leaves":6555,"okay":6556,"cu":6557,"cia":6558,"ring":6559,"##ita":6560,"evil":6561,"scores":6562,"everybody":6563,"developers":6564,"conservatives":6565,"substant":6566,"virginia":6567,"##mark":6568,"examples":6569,"anyway":6570,"electron":6571,"exercise":6572,"3d":6573,"fake":6574,"kat":6575,"lit":6576,"mu":6577,"##any":6578,"##ales":6579,"shad":6580,"accident":6581,"belong":6582,"turning":6583,"matters":6584,"element":6585,"sale":6586,"tast":6587,"##isher":6588,"##stone":6589,"seat":6590,"##oking":6591,"brad":6592,"edition":6593,"remove":6594,"greatest":6595,"winter":6596,"excited":6597,"urban":6598,"hotel":6599,"animals":6600,"entry":6601,"roughly":6602,"##how":6603,"##wr":6604,"##erate":6605,"offering":6606,"##ords":6607,"##ensions":6608,"formula":6609,"plane":6610,"audio":6611,"feyenoord":6612,"ell":6613,"om":6614,"rot":6615,"tap":6616,"##gen":6617,"##osure":6618,"apprec":6619,"playoff":6620,"##ictions":6621,"perspect":6622,"encoun":6623,"determined":6624,"dismiss":6625,"renew":6626,"emphas":6627,"fbi":6628,"##19":6629,"##erous":6630,"isis":6631,"spell":6632,"universe":6633,"distance":6634,"circumst":6635,"##pass":6636,"topic":6637,"filed":6638,"increases":6639,"guns":6640,"pictures":6641,"soldiers":6642,"estimated":6643,"chemical":6644,"protesters":6645,"thread":6646,"##oma":6647,"##ette":6648,"##amental":6649,"##kel":6650,"##ighter":6651,"lee":6652,"columb":6653,"creative":6654,"determine":6655,"animal":6656,"interpret":6657,"afternoon":6658,"viet":6659,"forget":6660,"##ura":6661,"##ansas":6662,"crimes":6663,"##ucks":6664,"regime":6665,"subsequ":6666,"quarterback":6667,"experienced":6668,"closer":6669,"mahiro":6670,"vulner":6671,"56":6672,"native":6673,"yemen":6674,"##aver":6675,"##xual":6676,"##icated":6677,"frustr":6678,"##ours":6679,"##ucing":6680,"leads":6681,"advance":6682,"newslet":6683,"criticism":6684,"tiny":6685,"##point":6686,"##der":6687,"andrew":6688,"cry":6689,"herself":6690,"located":6691,"##atured":6692,"critics":6693,"declared":6694,"femin":6695,"ireland":6696,"ba":6697,"bure":6698,"##bre":6699,"##ini":6700,"congr":6701,"##ights":6702,"intent":6703,"mars":6704,"paral":6705,"personally":6706,"datab":6707,"jesus":6708,"bol":6709,"vent":6710,"##ati":6711,"##otyp":6712,"aside":6713,"involve":6714,"motor":6715,"##ography":6716,"essentially":6717,"communication":6718,"disappoint":6719,"youth":6720,"##abilities":6721,"ariz":6722,"featured":6723,"dram":6724,"evening":6725,"finance":6726,"extent":6727,"christmas":6728,"entered":6729,"micro":6730,"applications":6731,"##reh":6732,"forg":6733,"##uration":6734,"asia":6735,"comic":6736,"communications":6737,"gm":6738,"hat":6739,"ash":6740,"##atell":6741,"strange":6742,"humans":6743,"##loyment":6744,"updated":6745,"consumers":6746,"az":6747,"bound":6748,"mut":6749,"##ias":6750,"##ket":6751,"##yc":6752,"##isters":6753,"##ayed":6754,"discl":6755,"talent":6756,"admitted":6757,"observ":6758,"significantly":6759,"lawsuit":6760,"expressed":6761,"pulled":6762,"experiment":6763,"lock":6764,"nic":6765,"row":6766,"rally":6767,"##ss":6768,"ongoing":6769,"##urb":6770,"contrast":6771,"##othes":6772,"mode":6773,"findings":6774,"reduced":6775,"functions":6776,"connected":6777,"treas":6778,"turk":6779,"surprising":6780,"lawyer":6781,"trouble":6782,"beautiful":6783,"tissue":6784,"bureau":6785,"cnn":6786,"fash":6787,"tail":6788,"##enth":6789,"offense":6790,"explo":6791,"##ups":6792,"fundamental":6793,"completed":6794,"institutions":6795,"ghost":6796,"ol":6797,"sought":6798,"##aling":6799,"shock":6800,"##ager":6801,"valid":6802,"##standing":6803,"##ibuted":6804,"##inet":6805,"##oms":6806,"units":6807,"crazy":6808,"##izz":6809,"##roit":6810,"silver":6811,"jersey":6812,"francisco":6813,"battery":6814,"symbol":6815,"entertainment":6816,"##asy":6817,"##illa":6818,"prove":6819,"boys":6820,"advice":6821,"approx":6822,"broke":6823,"radical":6824,"yester":6825,"responded":6826,"hopes":6827,"village":6828,"controvers":6829,"gang":6830,"nba":6831,"rising":6832,"wake":6833,"wave":6834,"proud":6835,"resol":6836,"legit":6837,"corrupt":6838,"explan":6839,"classic":6840,"opportunities":6841,"teaching":6842,"pakistan":6843,"62":6844,"giant":6845,"satell":6846,"tear":6847,"reaction":6848,"reserve":6849,"phase":6850,"shouldn":6851,"thoughts":6852,"faces":6853,"emails":6854,"yesterday":6855,"##isted":6856,"##abe":6857,"scar":6858,"regional":6859,"wins":6860,"##place":6861,"reportedly":6862,"collabor":6863,"script":6864,"galax":6865,"negoti":6866,"fashion":6867,"bare":6868,"batt":6869,"gear":6870,"##ns":6871,"##onic":6872,"yout":6873,"shr":6874,"pled":6875,"reporters":6876,"joke":6877,"knowing":6878,"##ologies":6879,"capable":6880,"ukr":6881,"illustr":6882,"amazon":6883,"bought":6884,"##acle":6885,"teacher":6886,"detroit":6887,"150":6888,"importance":6889,"violent":6890,"academic":6891,"begins":6892,"pure":6893,"##arks":6894,"aband":6895,"sci":6896,"stress":6897,"married":6898,"decre":6899,"monit":6900,"opposed":6901,"operating":6902,"sugar":6903,"discussed":6904,"volume":6905,"kingdom":6906,"newspaper":6907,"##de":6908,"##amin":6909,"missed":6910,"stream":6911,"movies":6912,"package":6913,"enemy":6914,"stretch":6915,"##ador":6916,"hey":6917,"excell":6918,"gov":6919,"amp":6920,"scot":6921,"192":6922,"warning":6923,"realize":6924,"moral":6925,"activists":6926,"treated":6927,"declined":6928,"jackson":6929,"kir":6930,"##onna":6931,"resolution":6932,"perman":6933,"##encing":6934,"relevant":6935,"existence":6936,"wilson":6937,"merely":6938,"##ii":6939,"##rees":6940,"forest":6941,"chart":6942,"##ector":6943,"drag":6944,"phen":6945,"warr":6946,"ordered":6947,"affairs":6948,"argue":6949,"enterpr":6950,"champion":6951,"honor":6952,"pieces":6953,"muslims":6954,"virtual":6955,"welcome":6956,"papers":6957,"dynam":6958,"ocean":6959,"##tle":6960,"exhib":6961,"##anda":6962,"usual":6963,"upgr":6964,"flav":6965,"ends":6966,"warned":6967,"auto":6968,"readers":6969,"memor":6970,"promise":6971,"walking":6972,"italy":6973,"restaurant":6974,"bat":6975,"morm":6976,"##dp":6977,"##inent":6978,"##rel":6979,"##abil":6980,"##uster":6981,"charles":6982,"follows":6983,"surprise":6984,"wheel":6985,"##erb":6986,"##itect":6987,"##iture":6988,"cham":6989,"contains":6990,"##what":6991,"films":6992,"distribution":6993,"latter":6994,"destr":6995,"assistant":6996,"uncert":6997,"drinking":6998,"##respond":6999,"tournament":7000,"63":7001,"##makers":7002,"##icit":7003,"##ading":7004,"atm":7005,"algor":7006,"##aped":7007,"incor":7008,"reporting":7009,"talked":7010,"correspond":7011,"household":7012,"profit":7013,"causes":7014,"competitive":7015,"deaths":7016,"flood":7017,"dogs":7018,"syrian":7019,"literally":7020,"therap":7021,"afghanistan":7022,"fasc":7023,"hr":7024,"proof":7025,"agenda":7026,"expansion":7027,"sym":7028,"buildings":7029,"squad":7030,"injuries":7031,"route":7032,"algorith":7033,"##nic":7034,"forum":7035,"gross":7036,"opponents":7037,"slowly":7038,"py":7039,"ray":7040,"sick":7041,"theat":7042,"##iti":7043,"##ache":7044,"quiet":7045,"underst":7046,"defined":7047,"##lands":7048,"percentage":7049,"severe":7050,"injured":7051,"deputy":7052,"perspective":7053,"cens":7054,"muse":7055,"##otic":7056,"shots":7057,"unus":7058,"applied":7059,"ourselves":7060,"depth":7061,"numerous":7062,"electr":7063,"picked":7064,"heavily":7065,"turkey":7066,"architect":7067,"amendment":7068,"dad":7069,"mouth":7070,"ride":7071,"forth":7072,"desk":7073,"transition":7074,"milk":7075,"tested":7076,"correl":7077,"exception":7078,"defeat":7079,"comfortable":7080,"split":7081,"writers":7082,"youtube":7083,"cos":7084,"cole":7085,"driven":7086,"anywhere":7087,"##road":7088,"kevin":7089,"combat":7090,"objects":7091,"##draw":7092,"jewish":7093,"spanish":7094,"bench":7095,"neut":7096,"##usal":7097,"marc":7098,"serving":7099,"nearby":7100,"trading":7101,"traditions":7102,"unlikely":7103,"comparison":7104,"dipl":7105,"hoc":7106,"mi":7107,"##16":7108,"##edia":7109,"suit":7110,"bright":7111,"somewhat":7112,"thinks":7113,"prompt":7114,"causing":7115,"controversial":7116,"59":7117,"rend":7118,"##iration":7119,"weird":7120,"allen":7121,"manning":7122,"warm":7123,"confident":7124,"universal":7125,"younger":7126,"journey":7127,"historical":7128,"disappear":7129,"manufactur":7130,"occasion":7131,"conscious":7132,"hide":7133,"luc":7134,"ru":7135,"rif":7136,"raw":7137,"wound":7138,"##po":7139,"##lets":7140,"explains":7141,"soul":7142,"greg":7143,"basket":7144,"watched":7145,"links":7146,"peter":7147,"accepted":7148,"surveill":7149,"sustain":7150,"##pa":7151,"branch":7152,"##ached":7153,"dish":7154,"flow":7155,"campus":7156,"authors":7157,"denied":7158,"cheap":7159,"subjects":7160,"##iciency":7161,"mathem":7162,"fab":7163,"mm":7164,"##ml":7165,"##orage":7166,"##lying":7167,"shall":7168,"##osite":7169,"unable":7170,"adapt":7171,"loved":7172,"kelly":7173,"instru":7174,"artist":7175,"advent":7176,"bills":7177,"brook":7178,"moments":7179,"escape":7180,"mine":7181,"tree":7182,"##oul":7183,"isol":7184,"stable":7185,"pra":7186,"trend":7187,"alco":7188,"assert":7189,"##ologist":7190,"##whel":7191,"##iami":7192,"##known":7193,"announcement":7194,"##oe":7195,"##here":7196,"inher":7197,"##ayer":7198,"##ulations":7199,"grown":7200,"overse":7201,"flu":7202,"explos":7203,"effectively":7204,"1998":7205,"represents":7206,"inspired":7207,"allegedly":7208,"appropriate":7209,"surveillance":7210,"57":7211,"72":7212,"boss":7213,"gam":7214,"jord":7215,"lt":7216,"vit":7217,"##iques":7218,"##icing":7219,"sets":7220,"listed":7221,"steel":7222,"fairly":7223,"surprised":7224,"delivered":7225,"immigrants":7226,"sweet":7227,"estimates":7228,"schedule":7229,"buddh":7230,"races":7231,"##bor":7232,"stood":7233,"enh":7234,"acting":7235,"server":7236,"adds":7237,"minim":7238,"##elling":7239,"territory":7240,"marketing":7241,"label":7242,"multi":7243,"attempted":7244,"golden":7245,"michigan":7246,"mountain":7247,"uncertain":7248,"bin":7249,"ht":7250,"lord":7251,"session":7252,"tas":7253,"##era":7254,"##osph":7255,"plug":7256,"decent":7257,"medium":7258,"properties":7259,"config":7260,"harv":7261,"facility":7262,"##anny":7263,"impressive":7264,"registered":7265,"doctors":7266,"ast":7267,"##mates":7268,"##12":7269,"prince":7270,"alert":7271,"dozen":7272,"emissions":7273,"publicly":7274,"letters":7275,"funny":7276,"improved":7277,"cyber":7278,"davis":7279,"expression":7280,"progressive":7281,"ticket":7282,"bang":7283,"tan":7284,"tab":7285,"taught":7286,"##iable":7287,"thir":7288,"##itarian":7289,"##iger":7290,"counsel":7291,"remark":7292,"creation":7293,"approved":7294,"matches":7295,"speaker":7296,"friendly":7297,"teachers":7298,"ohio":7299,"experiences":7300,"constitutional":7301,"partnership":7302,"pacific":7303,"refugees":7304,"joseph":7305,"58":7306,"pir":7307,"##bel":7308,"button":7309,"##acks":7310,"ending":7311,"barack":7312,"victor":7313,"latin":7314,"institution":7315,"queen":7316,"confirm":7317,"guardian":7318,"transportation":7319,"adults":7320,"cannabis":7321,"rupee":7322,"pd":7323,"sin":7324,"voc":7325,"wisc":7326,"##pir":7327,"##min":7328,"##icul":7329,"lew":7330,"scored":7331,"scoring":7332,"targets":7333,"suffering":7334,"necessarily":7335,"subsid":7336,"flying":7337,"cooper":7338,"tantric":7339,"bio":7340,"kim":7341,"patch":7342,"##rison":7343,"##uable":7344,"spain":7345,"agents":7346,"somehow":7347,"fold":7348,"signing":7349,"stands":7350,"strongly":7351,"physics":7352,"baseball":7353,"selection":7354,"colorado":7355,"cycle":7356,"consequences":7357,"paralle":7358,"phenomen":7359,"diplom":7360,"cd":7361,"##taining":7362,"##idden":7363,"##etr":7364,"unknown":7365,"disag":7366,"imper":7367,"facts":7368,"protests":7369,"irish":7370,"walked":7371,"falling":7372,"threats":7373,"owls":7374,"carrying":7375,"scheme":7376,"miami":7377,"pock":7378,"##ien":7379,"##ek":7380,"##uated":7381,"##orted":7382,"##weight":7383,"genetic":7384,"redd":7385,"requirements":7386,"mechanism":7387,"suddenly":7388,"circumstances":7389,"ga":7390,"jay":7391,"kil":7392,"lies":7393,"##ko":7394,"##14":7395,"repr":7396,"overwhel":7397,"recording":7398,"embr":7399,"##onsin":7400,"guil":7401,"extended":7402,"captain":7403,"wisconsin":7404,"dcs":7405,"##sl":7406,"##wal":7407,"shif":7408,"prohib":7409,"meat":7410,"tea":7411,"evolution":7412,"drone":7413,"index":7414,"pover":7415,"classes":7416,"closely":7417,"regulations":7418,"galaxy":7419,"bath":7420,"coc":7421,"sister":7422,"chosen":7423,"aggress":7424,"evol":7425,"scand":7426,"contest":7427,"orders":7428,"cutting":7429,"materials":7430,"maximum":7431,"consistent":7432,"arizona":7433,"jul":7434,"rig":7435,"##rich":7436,"##iser":7437,"bear":7438,"##cher":7439,"chick":7440,"brian":7441,"acts":7442,"buying":7443,"downtown":7444,"##ternal":7445,"ideology":7446,"matt":7447,"approval":7448,"meetings":7449,"compete":7450,"definition":7451,"roger":7452,"scheduled":7453,"jam":7454,"sab":7455,"sight":7456,"##17":7457,"##erves":7458,"##icide":7459,"##char":7460,"sees":7461,"intention":7462,"reput":7463,"desire":7464,"desper":7465,"##ancing":7466,"depending":7467,"officially":7468,"continuing":7469,"heads":7470,"colleagues":7471,"assistance":7472,"adopt":7473,"palestinian":7474,"database":7475,"tort":7476,"##elines":7477,"unemp":7478,"reporter":7479,"apps":7480,"veget":7481,"valley":7482,"debut":7483,"##orrow":7484,"mistake":7485,"quantum":7486,"yellow":7487,"ble":7488,"##ck":7489,"##pan":7490,"##lv":7491,"##aled":7492,"storage":7493,"noticed":7494,"abc":7495,"cruc":7496,"struck":7497,"colon":7498,"directed":7499,"promised":7500,"acknowled":7501,"nhl":7502,"divers":7503,"jur":7504,"kings":7505,"sinc":7506,"##inity":7507,"##inals":7508,"##arters":7509,"disrupt":7510,"worldwide":7511,"##ashed":7512,"promote":7513,"networks":7514,"alongside":7515,"constant":7516,"falls":7517,"observed":7518,"houses":7519,"frequency":7520,"korean":7521,"fifth":7522,"alcohol":7523,"jordan":7524,"##pe":7525,"##arth":7526,"soil":7527,"manif":7528,"blame":7529,"holly":7530,"calcul":7531,"landers":7532,"versions":7533,"selected":7534,"frequently":7535,"struggle":7536,"##chester":7537,"commitment":7538,"tackle":7539,"succeed":7540,"museum":7541,"800":7542,"eric":7543,"likes":7544,"soph":7545,"##west":7546,"stuck":7547,"anonym":7548,"welf":7549,"orient":7550,"leaf":7551,"plot":7552,"moves":7553,"elite":7554,"winner":7555,"topics":7556,"espn":7557,"detailed":7558,"immediate":7559,"daniel":7560,"scenes":7561,"incredible":7562,"incredibly":7563,"poverty":7564,"loud":7565,"tel":7566,"upper":7567,"yog":7568,"##otes":7569,"angry":7570,"regener":7571,"##enny":7572,"stronger":7573,"tracks":7574,"drawn":7575,"polls":7576,"songs":7577,"welfare":7578,"74":7579,"jr":7580,"kong":7581,"ott":7582,"##col":7583,"##ingu":7584,"##unte":7585,"bloom":7586,"empt":7587,"handed":7588,"retail":7589,"fewer":7590,"opposite":7591,"harder":7592,"claiming":7593,"##apping":7594,"shortly":7595,"distinct":7596,"godd":7597,"volunte":7598,"recognize":7599,"controlled":7600,"repeatedly":7601,"intellect":7602,"liquid":7603,"sorry":7604,"foss":7605,"iq":7606,"mur":7607,"thin":7608,"stores":7609,"##asts":7610,"transm":7611,"passion":7612,"deeply":7613,"khan":7614,"italian":7615,"comedy":7616,"columbia":7617,"drew":7618,"liver":7619,"ta":7620,"tall":7621,"##uits":7622,"inqu":7623,"abd":7624,"brothers":7625,"mainstream":7626,"liberals":7627,"odd":7628,"cruz":7629,"festival":7630,"approximately":7631,"dub":7632,"pushing":7633,"rice":7634,"##oral":7635,"##cho":7636,"arts":7637,"allies":7638,"##ologists":7639,"putin":7640,"liberty":7641,"independence":7642,"catal":7643,"dedicated":7644,"assembly":7645,"discrimination":7646,"sacr":7647,"05":7648,"rival":7649,"ont":7650,"shield":7651,"cha":7652,"##apse":7653,"brut":7654,"compens":7655,"compreh":7656,"disaster":7657,"theme":7658,"remote":7659,"confront":7660,"raising":7661,"returning":7662,"kinds":7663,"excess":7664,"performed":7665,"limits":7666,"favour":7667,"hoping":7668,"narrative":7669,"rescue":7670,"guilty":7671,"dall":7672,"iphone":7673,"jason":7674,"##mond":7675,"##eda":7676,"##areness":7677,"sty":7678,"seattle":7679,"upcoming":7680,"somebody":7681,"backed":7682,"humanity":7683,"holds":7684,"titles":7685,"##exp":7686,"racial":7687,"fantasy":7688,"temperature":7689,"icon":7690,"kurd":7691,"##bed":7692,"##ito":7693,"somewhere":7694,"##ifications":7695,"infect":7696,"arguments":7697,"##ographic":7698,"awes":7699,"awareness":7700,"recognition":7701,"pushed":7702,"punish":7703,"contributions":7704,"mixed":7705,"excellent":7706,"dw":7707,"hen":7708,"fraud":7709,"unif":7710,"grass":7711,"crypt":7712,"extension":7713,"extrem":7714,"ruled":7715,"risks":7716,"elsewhere":7717,"navig":7718,"catholic":7719,"aspects":7720,"understood":7721,"98":7722,"hong":7723,"##rd":7724,"##ena":7725,"clock":7726,"client":7727,"strik":7728,"developer":7729,"possession":7730,"typical":7731,"fields":7732,"coaches":7733,"racing":7734,"degrees":7735,"scotland":7736,"bike":7737,"cere":7738,"dc":7739,"nar":7740,"rating":7741,"roster":7742,"##laim":7743,"##onn":7744,"##lla":7745,"truck":7746,"grav":7747,"##ogue":7748,"twin":7749,"disord":7750,"province":7751,"condem":7752,"dealing":7753,"references":7754,"romney":7755,"academy":7756,"hindu":7757,"02":7758,"fiction":7759,"nurs":7760,"sir":7761,"##night":7762,"##imm":7763,"chlor":7764,"1999":7765,"choices":7766,"messages":7767,"hopefully":7768,"conclusion":7769,"hollywood":7770,"eld":7771,"tank":7772,"tony":7773,"##ded":7774,"##sters":7775,"worried":7776,"proved":7777,"##otted":7778,"explor":7779,"solutions":7780,"occur":7781,"sanctions":7782,"scenario":7783,"granted":7784,"04":7785,"67":7786,"bom":7787,"bits":7788,"##oman":7789,"##illy":7790,"lean":7791,"spo":7792,"enth":7793,"rolling":7794,"earned":7795,"courts":7796,"headed":7797,"sentence":7798,"georg":7799,"horned":7800,"sending":7801,"##view":7802,"##inations":7803,"##illed":7804,"dry":7805,"##upid":7806,"artists":7807,"solo":7808,"harass":7809,"taxp":7810,"describe":7811,"resource":7812,"precise":7813,"feedback":7814,"properly":7815,"subscribe":7816,"pilot":7817,"explanation":7818,"61":7819,"68":7820,"eb":7821,"##cy":7822,"##aire":7823,"##dy":7824,"forec":7825,"franch":7826,"unw":7827,"adam":7828,"outcome":7829,"formed":7830,"extensive":7831,"patient":7832,"trees":7833,"describes":7834,"replaced":7835,"referred":7836,"layer":7837,"license":7838,"pi":7839,"vige":7840,"##hr":7841,"##mat":7842,"##fr":7843,"##rey":7844,"stim":7845,"##ilit":7846,"##agan":7847,"trig":7848,"perce":7849,"feat":7850,"breed":7851,"listening":7852,"attacked":7853,"exciting":7854,"controls":7855,"advertising":7856,"historic":7857,"mccain":7858,"nomine":7859,"dominant":7860,"folks":7861,"vigeant":7862,"dal":7863,"gaz":7864,"hubb":7865,"lind":7866,"pump":7867,"reward":7868,"whis":7869,"##chain":7870,"chose":7871,"brings":7872,"newly":7873,"##rete":7874,"techniques":7875,"250":7876,"targeted":7877,"priority":7878,"surrounding":7879,"comprom":7880,"hockey":7881,"dallas":7882,"merc":7883,"##een":7884,"##aa":7885,"##han":7886,"##repr":7887,"pros":7888,"withdraw":7889,"strict":7890,"goods":7891,"discount":7892,"technologies":7893,"funded":7894,"1996":7895,"captured":7896,"combination":7897,"thousand":7898,"purposes":7899,"duty":7900,"stephen":7901,"awesome":7902,"mak":7903,"pok":7904,"sid":7905,"sessions":7906,"##ties":7907,"##esy":7908,"##orse":7909,"##asion":7910,"##etime":7911,"conce":7912,"sole":7913,"output":7914,"##licit":7915,"founded":7916,"legend":7917,"patri":7918,"payments":7919,"clubs":7920,"representative":7921,"answers":7922,"owl":7923,"virtually":7924,"patterns":7925,"mirr":7926,"unusual":7927,"ak":7928,"flex":7929,"hans":7930,"##gg":7931,"height":7932,"agric":7933,"anna":7934,"##cover":7935,"keeps":7936,"musc":7937,"returns":7938,"regularly":7939,"literature":7940,"73":7941,"nbc":7942,"nato":7943,"ros":7944,"rape":7945,"##bell":7946,"##alf":7947,"##asp":7948,"chain":7949,"orch":7950,"alph":7951,"phr":7952,"resulting":7953,"receiving":7954,"minds":7955,"losses":7956,"emerged":7957,"behavi":7958,"hyd":7959,"ultimate":7960,"cycling":7961,"apartment":7962,"scholars":7963,"permanent":7964,"##osphere":7965,"82":7966,"cable":7967,"gate":7968,"hay":7969,"ku":7970,"yield":7971,"regions":7972,"##athan":7973,"realized":7974,"holy":7975,"situations":7976,"facilities":7977,"versus":7978,"replied":7979,"journalists":7980,"premium":7981,"complaint":7982,"lobby":7983,"alien":7984,"electronic":7985,"neutral":7986,"mathemat":7987,"parallel":7988,"reputation":7989,"agricult":7990,"eating":7991,"pul":7992,"pope":7993,"rav":7994,"ts":7995,"tied":7996,"vic":7997,"zeal":7998,"##va":7999,"##isa":8000,"ford":8001,"anger":8002,"outl":8003,"manip":8004,"marsh":8005,"##awa":8006,"mole":8007,"barr":8008,"payment":8009,"similarly":8010,"normally":8011,"lawyers":8012,"philosophy":8013,"bird":8014,"tone":8015,"##pg":8016,"##ws":8017,"ingr":8018,"##itar":8019,"hash":8020,"blocks":8021,"boat":8022,"contem":8023,"deficit":8024,"assume":8025,"supports":8026,"puts":8027,"ideal":8028,"arrange":8029,"entit":8030,"austin":8031,"templ":8032,"congressional":8033,"03":8034,"76":8035,"##lers":8036,"forfe":8037,"##ched":8038,"anx":8039,"alliance":8040,"sov":8041,"##ounced":8042,"marked":8043,"capit":8044,"protected":8045,"belief":8046,"valuable":8047,"resulted":8048,"creates":8049,"capture":8050,"contributed":8051,"encourage":8052,"bj":8053,"cad":8054,"dna":8055,"pound":8056,"sony":8057,"tip":8058,"##ico":8059,"conver":8060,"habit":8061,"fred":8062,"##ifies":8063,"abu":8064,"compare":8065,"amid":8066,"hadn":8067,"dress":8068,"assets":8069,"retired":8070,"reasonable":8071,"collective":8072,"enemies":8073,"initiative":8074,"lewis":8075,"##die":8076,"##win":8077,"##icial":8078,"##ayers":8079,"asian":8080,"weigh":8081,"seats":8082,"perp":8083,"simpl":8084,"terrible":8085,"circuit":8086,"primarily":8087,"emotional":8088,"tower":8089,"complicated":8090,"mormon":8091,"regenerative":8092,"enthus":8093,"69":8094,"aj":8095,"buck":8096,"##sen":8097,"##bar":8098,"##ighters":8099,"##usive":8100,"lev":8101,"fees":8102,"surg":8103,"locations":8104,"matth":8105,"biology":8106,"relationships":8107,"principles":8108,"##gbt":8109,"satellite":8110,"fought":8111,"lgbt":8112,"pod":8113,"##uts":8114,"##osis":8115,"enorm":8116,"loyal":8117,"decline":8118,"attended":8119,"hole":8120,"represented":8121,"recovery":8122,"rapidly":8123,"vietnam":8124,"vulnerable":8125,"enterprise":8126,"gym":8127,"pad":8128,"##40":8129,"##erd":8130,"##isan":8131,"stupid":8132,"##owa":8133,"manner":8134,"myst":8135,"guest":8136,"engage":8137,"hardware":8138,"terrorists":8139,"corporations":8140,"prisoners":8141,"installed":8142,"ethnic":8143,"minority":8144,"narrow":8145,"08":8146,"cod":8147,"dod":8148,"hurr":8149,"vr":8150,"ves":8151,"x64":8152,"##fall":8153,"inev":8154,"input":8155,"rear":8156,"prote":8157,"##sea":8158,"##iment":8159,"waste":8160,"unn":8161,"brows":8162,"component":8163,"manage":8164,"peak":8165,"actor":8166,"description":8167,"obtained":8168,"factory":8169,"mainly":8170,"viewers":8171,"anticip":8172,"equival":8173,"obser":8174,"allegations":8175,"empty":8176,"soviet":8177,"##ora":8178,"##rect":8179,"pron":8180,"##igen":8181,"suicide":8182,"grid":8183,"amounts":8184,"explicit":8185,"prepar":8186,"oblig":8187,"smo":8188,"propag":8189,"opponent":8190,"informed":8191}}}