{"version":"1.0","truncation":null,"padding":null,"added_tokens":[{"id":0,"special":true,"content":"[PAD]","single_word":false,"lstrip":false,"rstrip":false,"normalized":false},{"id":1,"special":true,"content":"[UNK]","single_word":false,"lstrip":false,"rstrip":false,"normalized":false},{"id":2,"special":true,"content":"[CLS]","single_word":false,"lstrip":false,"rstrip":false,"normalized":false},{"id":3,"special":true,"content":"[SEP]","single_word":false,"lstrip":false,"rstrip":false,"normalized":false},{"id":4,"special":true,"content":"[MASK]","single_word":false,"lstrip":false,"rstrip":false,"normalized":false}],"normalizer":{"type":"BertNormalizer","clean_text":false,"handle_chinese_chars":false,"strip_accents":false,"lowercase":true},"pre_tokenizer":{"type":"BertPreTokenizer"},"post_processor":null,"decoder":{"type":"WordPiece","prefix":"##","cleanup":true},"model":{"type":"WordPiece","unk_token":"[UNK]","continuing_subword_prefix":"##","max_input_chars_per_word":100,"vocab":{"[PAD]":0,"[UNK]":1,"[CLS]":2,"[SEP]":3,"[MASK]":4,"!":5,"\"":6,"#":7,"$":8,"%":9,"&":10,"'":11,"(":12,")":13,"*":14,"+":15,",":16,"-":17,".":18,"/":19,"0":20,"1":21,"2":22,"3":23,"4":24,"5":25,"6":26,"7":27,"8":28,"9":29,":":30,";":31,"<":32,"=":33,">":34,"?":35,"@":36,"[":37,"\\":38,"]":39,"^":40,"_":41,"`":42,"a":43,"b":44,"c":45,"d":46,"e":47,"f":48,"g":49,"h":50,"i":51,"j":52,"k":53,"l":54,"m":55,"n":56,"o":57,"p":58,"q":59,"r":60,"s":61,"t":62,"u":63,"v":64,"w":65,"x":66,"y":67,"z":68,"{":69,"|":70,"}":71,"~":72,"":73,"":74,"":75,"":76,"":77,"":78,"":79,"":80,"":81,"":82,"":83,"¡":84,"¢":85,"£":86,"¥":87,"¦":88,"§":89,"©":90,"«":91,"­":92,"®":93,"¯":94,"°":95,"±":96,"²":97,"³":98,"´":99,"µ":100,"¶":101,"·":102,"¸":103,"¹":104,"º":105,"»":106,"¼":107,"½":108,"¿":109,"×":110,"ß":111,"à":112,"á":113,"â":114,"ã":115,"ä":116,"å":117,"æ":118,"ç":119,"è":120,"é":121,"ê":122,"ë":123,"ì":124,"í":125,"î":126,"ï":127,"ð":128,"ñ":129,"ò":130,"ó":131,"ô":132,"õ":133,"ö":134,"÷":135,"ø":136,"ù":137,"ú":138,"û":139,"ü":140,"ý":141,"þ":142,"ā":143,"ă":144,"ć":145,"č":146,"đ":147,"ē":148,"ę":149,"ě":150,"ğ":151,"ī":152,"ı":153,"ł":154,"ō":155,"œ":156,"ř":157,"ś":158,"ş":159,"š":160,"ţ":161,"ū":162,"ů":163,"ž":164,"ɐ":165,"ə":166,"ɛ":167,"ʌ":168,"ʒ":169,"ʔ":170,"ʻ":171,"ˈ":172,"ː":173,"˚":174,"˜":175,"̇":176,"ά":177,"έ":178,"ή":179,"ί":180,"α":181,"β":182,"γ":183,"δ":184,"ε":185,"η":186,"θ":187,"ι":188,"κ":189,"λ":190,"μ":191,"ν":192,"ξ":193,"ο":194,"π":195,"ρ":196,"ς":197,"σ":198,"τ":199,"υ":200,"φ":201,"χ":202,"ω":203,"ό":204,"ύ":205,"ώ":206,"а":207,"б":208,"в":209,"г":210,"д":211,"е":212,"ж":213,"з":214,"и":215,"й":216,"к":217,"л":218,"м":219,"н":220,"о":221,"п":222,"р":223,"с":224,"т":225,"у":226,"ф":227,"х":228,"ц":229,"ч":230,"ш":231,"щ":232,"ы":233,"ь":234,"э":235,"ю":236,"я":237,"ё":238,"ѕ":239,"і":240,"ר":241,"ا":242,"ب":243,"ة":244,"ت":245,"ح":246,"د":247,"ر":248,"ز":249,"س":250,"ش":251,"ط":252,"ظ":253,"ع":254,"ف":255,"ق":256,"ك":257,"ل":258,"م":259,"ن":260,"ه":261,"و":262,"ي":263,"ی":264,"र":265,"ल":266,"ि":267,"ु":268,"्":269,"ਾ":270,"ก":271,"ข":272,"ง":273,"ด":274,"ต":275,"ท":276,"น":277,"ป":278,"ม":279,"ย":280,"ร":281,"ล":282,"ว":283,"ห":284,"อ":285,"ะ":286,"า":287,"ี":288,"ู":289,"เ":290,"ไ":291,"่":292,"้":293,"๋":294,"ა":295,"ი":296,"ḍ":297,"ḷ":298,"ṃ":299,"ṇ":300,"ṛ":301,"ṣ":302,"ṭ":303,"ἀ":304,"ὀ":305,"ὐ":306,"ῖ":307,"ῶ":308,"​":309,"‎":310,"‐":311,"‑":312,"–":313,"—":314,"―":315,"‘":316,"’":317,"‚":318,"“":319,"”":320,"„":321,"‡":322,"•":323,"․":324,"…":325,"′":326,"″":327,"›":328,"※":329,"⁄":330,"₂":331,"€":332,"™":333,"↑":334,"→":335,"↓":336,"⇓":337,"−":338,"∞":339,"∥":340,"∷":341,"∼":342,"≈":343,"≤":344,"≥":345,"─":346,"┃":347,"█":348,"■":349,"▪":350,"►":351,"▼":352,"◊":353,"★":354,"♦":355,"➜":356,"、":357,"。":358,"々":359,"〈":360,"〉":361,"「":362,"」":363,"『":364,"』":365,"あ":366,"い":367,"う":368,"え":369,"お":370,"か":371,"が":372,"き":373,"く":374,"け":375,"げ":376,"こ":377,"さ":378,"し":379,"じ":380,"す":381,"ず":382,"そ":383,"た":384,"だ":385,"ち":386,"っ":387,"つ":388,"て":389,"で":390,"と":391,"ど":392,"な":393,"に":394,"の":395,"は":396,"ば":397,"び":398,"へ":399,"べ":400,"ま":401,"み":402,"め":403,"も":404,"や":405,"よ":406,"ら":407,"り":408,"る":409,"れ":410,"ろ":411,"わ":412,"を":413,"ん":414,"ァ":415,"ア":416,"ィ":417,"イ":418,"ゥ":419,"ウ":420,"ェ":421,"エ":422,"ォ":423,"オ":424,"カ":425,"キ":426,"ギ":427,"ク":428,"グ":429,"ゲ":430,"コ":431,"ゴ":432,"サ":433,"シ":434,"ジ":435,"ス":436,"ズ":437,"セ":438,"ソ":439,"ゾ":440,"タ":441,"ダ":442,"チ":443,"ッ":444,"ツ":445,"テ":446,"デ":447,"ト":448,"ド":449,"ナ":450,"ニ":451,"ネ":452,"ノ":453,"バ":454,"ヒ":455,"ビ":456,"ピ":457,"フ":458,"ブ":459,"プ":460,"ヘ":461,"ホ":462,"ボ":463,"マ":464,"ミ":465,"ム":466,"メ":467,"モ":468,"ャ":469,"ヤ":470,"ュ":471,"ユ":472,"ョ":473,"ラ":474,"リ":475,"ル":476,"レ":477,"ロ":478,"ワ":479,"ン":480,"ヴ":481,"・":482,"ー":483,"ㅋ":484,"一":485,"上":486,"下":487,"不":488,"中":489,"事":490,"亡":491,"京":492,"人":493,"他":494,"以":495,"件":496,"位":497,"低":498,"体":499,"何":500,"作":501,"係":502,"側":503,"傷":504,"先":505,"光":506,"入":507,"全":508,"公":509,"典":510,"内":511,"写":512,"出":513,"分":514,"切":515,"初":516,"判":517,"別":518,"前":519,"力":520,"助":521,"動":522,"北":523,"原":524,"取":525,"可":526,"同":527,"名":528,"向":529,"告":530,"問":531,"回":532,"因":533,"在":534,"地":535,"域":536,"報":537,"場":538,"外":539,"多":540,"夜":541,"大":542,"失":543,"始":544,"姿":545,"子":546,"存":547,"学":548,"定":549,"実":550,"家":551,"容":552,"密":553,"察":554,"審":555,"対":556,"射":557,"小":558,"局":559,"履":560,"山":561,"峠":562,"崩":563,"州":564,"巻":565,"常":566,"年":567,"度":568,"式":569,"引":570,"当":571,"彼":572,"後":573,"心":574,"性":575,"想":576,"態":577,"憶":578,"折":579,"持":580,"捜":581,"探":582,"接":583,"推":584,"撃":585,"放":586,"文":587,"料":588,"斜":589,"新":590,"方":591,"日":592,"明":593,"映":594,"時":595,"書":596,"最":597,"月":598,"有":599,"服":600,"木":601,"本":602,"東":603,"査":604,"森":605,"検":606,"極":607,"機":608,"次":609,"死":610,"残":611,"気":612,"渓":613,"温":614,"測":615,"点":616,"無":617,"然":618,"版":619,"物":620,"特":621,"状":622,"現":623,"球":624,"理":625,"生":626,"画":627,"症":628,"発":629,"登":630,"的":631,"目":632,"直":633,"県":634,"真":635,"着":636,"研":637,"示":638,"科":639,"秘":640,"究":641,"立":642,"級":643,"索":644,"終":645,"結":646,"線":647,"編":648,"置":649,"考":650,"者":651,"能":652,"脱":653,"自":654,"至":655,"色":656,"落":657,"著":658,"行":659,"衣":660,"裂":661,"要":662,"見":663,"解":664,"記":665,"設":666,"語":667,"説":668,"調":669,"警":670,"谷":671,"象":672,"負":673,"財":674,"資":675,"起":676,"足":677,"跡":678,"軍":679,"述":680,"送":681,"通":682,"連":683,"道":684,"遭":685,"遺":686,"部":687,"都":688,"量":689,"長":690,"開":691,"間":692,"関":693,"陥":694,"隊":695,"集":696,"離":697,"難":698,"雪":699,"面":700,"靴":701,"風":702,"験":703,"骨":704,"高":705,"가":706,"각":707,"간":708,"갔":709,"같":710,"개":711,"거":712,"건":713,"걸":714,"검":715,"겁":716,"것":717,"게":718,"겠":719,"겨":720,"견":721,"결":722,"경":723,"계":724,"고":725,"공":726,"과":727,"관":728,"광":729,"구":730,"국":731,"권":732,"그":733,"극":734,"글":735,"금":736,"기":737,"긴":738,"김":739,"까":740,"끝":741,"끼":742,"나":743,"난":744,"날":745,"남":746,"났":747,"내":748,"냐":749,"너":750,"네":751,"년":752,"노":753,"놓":754,"눈":755,"뉴":756,"느":757,"는":758,"늘":759,"니":760,"님":761,"다":762,"단":763,"담":764,"당":765,"대":766,"더":767,"던":768,"데":769,"도":770,"독":771,"돈":772,"동":773,"됐":774,"되":775,"된":776,"두":777,"드":778,"든":779,"들":780,"등":781,"디":782,"딸":783,"때":784,"떳":785,"떻":786,"또":787,"라":788,"락":789,"람":790,"랑":791,"래":792,"러":793,"런":794,"럼":795,"렇":796,"레":797,"려":798,"로":799,"론":800,"루":801,"르":802,"른":803,"를":804,"름":805,"리":806,"린":807,"마":808,"만":809,"많":810,"말":811,"매":812,"먼":813,"며":814,"면":815,"명":816,"모":817,"몰":818,"못":819,"무":820,"문":821,"물":822,"뭐":823,"미":824,"민":825,"바":826,"박":827,"밖":828,"반":829,"받":830,"발":831,"밝":832,"배":833,"버":834,"번":835,"벌":836,"범":837,"법":838,"변":839,"별":840,"병":841,"보":842,"복":843,"본":844,"봤":845,"부":846,"분":847,"불":848,"뷰":849,"비":850,"빠":851,"사":852,"살":853,"상":854,"생":855,"서":856,"석":857,"선":858,"섭":859,"세":860,"소":861,"손":862,"송":863,"수":864,"순":865,"숨":866,"스":867,"슬":868,"시":869,"식":870,"신":871,"실":872,"싫":873,"심":874,"싶":875,"싸":876,"씨":877,"씩":878,"아":879,"안":880,"않":881,"알":882,"았":883,"애":884,"야":885,"약":886,"양":887,"어":888,"억":889,"언":890,"얼":891,"엄":892,"없":893,"었":894,"에":895,"여":896,"연":897,"열":898,"였":899,"영":900,"예":901,"오":902,"온":903,"올":904,"와":905,"왔":906,"왜":907,"외":908,"요":909,"용":910,"우":911,"운":912,"울":913,"워":914,"원":915,"웠":916,"위":917,"유":918,"으":919,"은":920,"을":921,"음":922,"응":923,"의":924,"이":925,"인":926,"일":927,"있":928,"자":929,"작":930,"잘":931,"장":932,"재":933,"저":934,"적":935,"전":936,"정":937,"제":938,"져":939,"조":940,"좀":941,"주":942,"죽":943,"준":944,"중":945,"증":946,"지":947,"진":948,"질":949,"집":950,"쪽":951,"차":952,"찰":953,"처":954,"청":955,"체":956,"최":957,"추":958,"취":959,"친":960,"키":961,"타":962,"터":963,"테":964,"판":965,"편":966,"평":967,"표":968,"프":969,"하":970,"한":971,"할":972,"함":973,"해":974,"했":975,"행":976,"혀":977,"현":978,"혐":979,"혜":980,"호":981,"혹":982,"혼":983,"화":984,"확":985,"활":986,"황":987,"회":988,"후":989,"훈":990,"흥":991,"히":992,"힘":993,"️":994,"﻿":995,"（":996,"）":997,"：":998,"＜":999,"＝":1000,"�":1001,"🐒":1002,"😉":1003,"🙂":1004,"##g":1005,"##l":1006,"##o":1007,"##w":1008,"##a":1009,"##e":1010,"##m":1011,"##n":1012,"##v":1013,"##i":1014,"##b":1015,"##r":1016,"##t":1017,"##x":1018,"##s":1019,"##é":1020,"##6":1021,"##0":1022,"##c":1023,"##á":1024,"##í":1025,"##u":1026,"##k":1027,"##h":1028,"##ć":1029,"##d":1030,"##p":1031,"##y":1032,"##j":1033,"##f":1034,"##4":1035,"##1":1036,"##2":1037,"##â":1038,"##­":1039,"##z":1040,"##7":1041,"##":1042,"##а":1043,"##т":1044,"##е":1045,"##г":1046,"##о":1047,"##р":1048,"##и":1049,"##9":1050,"##è":1051,"##û":1052,"##울":1053,"##한":1054,"##5":1055,"##q":1056,"##우":1057,"##기":1058,"##도":1059,"##3":1060,"##8":1061,"##→":1062,"##ѕ":1063,"##®":1064,"##의":1065,"##나":1066,"##л":1067,"##м":1068,"##в":1069,"##š":1070,"##ü":1071,"##증":1072,"##혀":1073,"##내":1074,"##겠":1075,"##다":1076,"##ä":1077,"##오":1078,"##에":1079,"##ý":1080,"##ž":1081,"##⁄":1082,"##ã":1083,"##с":1084,"##ṣ":1085,"##ṃ":1086,"##ā":1087,"##ó":1088,"##동":1089,"##ę":1090,"##ṛ":1091,"##ī":1092,"##×":1093,"##":1094,"##르":1095,"##는":1096,"##у":1097,"##ě":1098,"##ῶ":1099,"##ς":1100,"##금":1101,"##°":1102,"##으":1103,"##면":1104,"##상":1105,"##하":1106,"##ه":1107,"##و":1108,"##ر":1109,"##č":1110,"##ʻ":1111,"##️":1112,"##ч":1113,"##н":1114,"##ь":1115,"##변":1116,"##고":1117,"##件":1118,"##は":1119,"##었":1120,"##어":1121,"##지":1122,"##며":1123,"##ö":1124,"##래":1125,"##람":1126,"##들":1127,"##이":1128,"##ː":1129,"##ø":1130,"##애":1131,"##아":1132,"##를":1133,"##ñ":1134,"##象":1135,"##п":1136,"##к":1137,"##体":1138,"##か":1139,"##ら":1140,"##を":1141,"##失":1142,"##う":1143,"##度":1144,"##ま":1145,"##っ":1146,"##た":1147,"##だ":1148,"##ろ":1149,"##니":1150,"##라":1151,"##こ":1152,"##の":1153,"##小":1154,"##説":1155,"##別":1156,"##バ":1157,"##ー":1158,"##ジ":1159,"##ョ":1160,"##ン":1161,"##つ":1162,"##書":1163,"##い":1164,"##よ":1165,"##で":1166,"##あ":1167,"##る":1168,"##が":1169,"##로":1170,"##年":1171,"##月":1172,"##日":1173,"##生":1174,"##れ":1175,"##述":1176,"##べ":1177,"##て":1178,"##λ":1179,"##ω":1180,"##ρ":1181,"##ό":1182,"##인":1183,"##":1184,"##ц":1185,"##원":1186,"##게":1187,"##々":1188,"##中":1189,"##キ":1190,"##ャ":1191,"##プ":1192,"##設":1193,"##容":1194,"##ò":1195,"##²":1196,"##ř":1197,"##ト":1198,"##ロ":1199,"##フ":1200,"##峠":1201,"##ă":1202,"##ύ":1203,"##π":1204,"##ο":1205,"##각":1206,"##자":1207,"##ğ":1208,"##ū":1209,"##ů":1210,"##":1211,"##과":1212,"##й":1213,"##æ":1214,"##사":1215,"##가":1216,"##初":1217,"##ㅋ":1218,"##з":1219,"##ю":1220,"##原":1221,"##因":1222,"##と":1223,"##し":1224,"##通":1225,"##り":1226,"##可":1227,"##能":1228,"##性":1229,"##検":1230,"##に":1231,"##ん":1232,"##ы":1233,"##빠":1234,"##σ":1235,"##μ":1236,"##ή":1237,"##à":1238,"##õ":1239,"##タ":1240,"##б":1241,"##д":1242,"##±":1243,"##장":1244,"##광":1245,"##석":1246,"##な":1247,"##回":1248,"##想":1249,"##서":1250,"##™":1251,"##호":1252,"##ú":1253,"##я":1254,"##극":1255,"##적":1256,"##ô":1257,"##文":1258,"##語":1259,"##찰":1260,"##€":1261,"##œ":1262,"##ด":1263,"##ไ":1264,"##ท":1265,"##ย":1266,"##늘":1267,"##마":1268,"##˜":1269,"##く":1270,"##者":1271,"##ち":1272,"##記":1273,"##憶":1274,"##存":1275,"##す":1276,"##デ":1277,"##ィ":1278,"##ア":1279,"##持":1280,"##ა":1281,"##ი":1282,"##져":1283,"##ṇ":1284,"##β":1285,"##민":1286,"##랑":1287,"##​":1288,"##분":1289,"##려":1290,"##і":1291,"##や":1292,"##分":1293,"##衣":1294,"##服":1295,"##雪":1296,"##崩":1297,"##당":1298,"##까":1299,"##ヴ":1300,"##リ":1301,"##メ":1302,"##ル":1303,"##北":1304,"##方":1305,"##最":1306,"##後":1307,"##有":1308,"##人":1309,"##集":1310,"##落":1311,"##반":1312,"##을":1313,"##ç":1314,"##探":1315,"##示":1316,"##も":1317,"##리":1318,"##資":1319,"##料":1320,"##わ":1321,"##đ":1322,"##ι":1323,"##τ":1324,"##ά":1325,"##ν":1326,"##έ":1327,"##씨":1328,"##올":1329,"##만":1330,"##ï":1331,"##린":1332,"##ш":1333,"##山":1334,"##å":1335,"##¹":1336,"##ώ":1337,"##δ":1338,"##η":1339,"##ل":1340,"##ق":1341,"##ا":1342,"##م":1343,"##س":1344,"##ت":1345,"##د":1346,"##ί":1347,"##θ":1348,"##ð":1349,"##モ":1350,"##ド":1351,"##ュ":1352,"##立":1353,"##ク":1354,"##シ":1355,"##갔":1356,"##向":1357,"##х":1358,"##र":1359,"##्":1360,"##外":1361,"##傷":1362,"##負":1363,"##お":1364,"##ず":1365,"##편":1366,"##ō":1367,"##ф":1368,"##할":1369,"##щ":1370,"##작":1371,"##스":1372,"##ゥ":1373,"##ビ":1374,"##ニ":1375,"##ナ":1376,"##コ":1377,"##子":1378,"##연":1379,"##¢":1380,"##법":1381,"##워":1382,"##보":1383,"##":1384,"##":1385,"##":1386,"##해":1387,"##物":1388,"##目":1389,"##さ":1390,"##ś":1391,"##요":1392,"##光":1393,"##査":1394,"##단":1395,"##ר":1396,"##´":1397,"##히":1398,"##표":1399,"##정":1400,"##�":1401,"##レ":1402,"##サ":1403,"##チ":1404,"##้":1405,"##า":1406,"##ว":1407,"##เ":1408,"##ห":1409,"##น":1410,"##ี":1411,"##ม":1412,"##ะ":1413,"##่":1414,"##ง":1415,"##色":1416,"##ラ":1417,"##科":1418,"##大":1419,"##学":1420,"##助":1421,"##け":1422,"##집":1423,"##시":1424,"##예":1425,"##손":1426,"##κ":1427,"##겁":1428,"##−":1429,"##要":1430,"##位":1431,"##置":1432,"##め":1433,"##定":1434,"##∞":1435,"##테":1436,"##そ":1437,"##報":1438,"##送":1439,"##ب":1440,"##느":1441,"##セ":1442,"##エ":1443,"##저":1444,"##끼":1445,"##터":1446,"##뷰":1447,"##域":1448,"##高":1449,"##級":1450,"##県":1451,"##았":1452,"##살":1453,"##遺":1454,"##発":1455,"##見":1456,"##直":1457,"##時":1458,"##他":1459,"##靴":1460,"##履":1461,"##ß":1462,"##드":1463,"##국":1464,"##考":1465,"##え":1466,"##소":1467,"##된":1468,"##ต":1469,"##ی":1470,"##¼":1471,"##イ":1472,"##ı":1473,"##ス":1474,"##≈":1475,"##제":1476,"##ʒ":1477,"##ˈ":1478,"##行":1479,"##ダ":1480,"##처":1481,"##럼":1482,"##냐":1483,"##":1484,"##間":1485,"##섭":1486,"##ح":1487,"##脱":1488,"##関":1489,"##連":1490,"##겨":1491,"##놓":1492,"##テ":1493,"##き":1494,"##登":1495,"##地":1496,"##点":1497,"##러":1498,"##難":1499,"##常":1500,"##放":1501,"##射":1502,"##線":1503,"##量":1504,"##出":1505,"##不":1506,"##自":1507,"##然":1508,"##ṭ":1509,"##ɐ":1510,"##ʔ":1511,"##번":1512,"##夜":1513,"##ط":1514,"##ي":1515,"##東":1516,"##斜":1517,"##面":1518,"##起":1519,"##次":1520,"##新":1521,"##無":1522,"##係":1523,"##撃":1524,"##ţ":1525,"##作":1526,"##γ":1527,"##수":1528,"##ボ":1529,"##隊":1530,"##미":1531,"##했":1532,"##˚":1533,"##":1534,"##ッ":1535,"##入":1536,"##런":1537,"##데":1538,"##ş":1539,"##별":1540,"##亡":1541,"##引":1542,"##裂":1543,"##切":1544,"##巻":1545,"##더":1546,"##됐":1547,"##現":1548,"##へ":1549,"##心":1550,"##물":1551,"##말":1552,"##은":1553,"##거":1554,"##事":1555,"##─":1556,"##明":1557,"##残":1558,"##ж":1559,"##체":1560,"##였":1561,"##場":1562,"##一":1563,"##足":1564,"##跡":1565,"##ก":1566,"##α":1567,"##当":1568,"##状":1569,"##態":1570,"##진":1571,"##以":1572,"##上":1573,"##多":1574,"##‎":1575,"##着":1576,"##범":1577,"##画":1578,"##対":1579,"##간":1580,"##ë":1581,"##걸":1582,"##🐒":1583,"##実":1584,"##타":1585,"##송":1586,"##結":1587,"##び":1588,"##カ":1589,"##写":1590,"##真":1591,"##ど":1592,"##推":1593,"##死":1594,"##ع":1595,"##ة":1596,"##황":1597,"##じ":1598,"##운":1599,"##년":1600,"##ε":1601,"##ブ":1602,"##財":1603,"##날":1604,"##권":1605,"##위":1606,"##회":1607,"##ゾ":1608,"##名":1609,"##骨":1610,"##折":1611,"##모":1612,"##실":1613,"##공":1614,"##ł":1615,"##쪽":1616,"##ウ":1617,"##グ":1618,"##マ":1619,"##ə":1620,"##와":1621,"##♦":1622,"##◊":1623,"##本":1624,"##구":1625,"##ユ":1626,"##ツ":1627,"##ェ":1628,"##υ":1629,"##웠":1630,"##ك":1631,"##全":1632,"##혹":1633,"##ن":1634,"##심":1635,"##½":1636,"##█":1637,"##ु":1638,"##ल":1639,"##ि":1640,"##야":1641,"##内":1642,"##極":1643,"##低":1644,"##温":1645,"##症":1646,"##주":1647,"##프":1648,"##道":1649,"##ミ":1650,"##げ":1651,"##理":1652,"##長":1653,"##음":1654,"##在":1655,"##著":1656,"##家":1657,"##察":1658,"##局":1659,"##特":1660,"##告":1661,"##ê":1662,"##렇":1663,"##̇":1664,"##下":1665,"##못":1666,"##º":1667,"##버":1668,"##님":1669,"##떳":1670,"##질":1671,"##先":1672,"##動":1673,"##온":1674,"##ヤ":1675,"##ネ":1676,"##๋":1677,"##式":1678,"##ノ":1679,"##무":1680,"##版":1681,"##姿":1682,"##彼":1683,"##청":1684,"##อ":1685,"##ป":1686,"##ล":1687,"##ร":1688,"##終":1689,"##전":1690,"##離":1691,"##론":1692,"##혼":1693,"##응":1694,"##ё":1695,"##신":1696,"##⇓":1697,"##＝":1698,"##部":1699,"##風":1700,"##オ":1701,"##解":1702,"##み":1703,"##始":1704,"##取":1705,"##여":1706,"##ξ":1707,"##매":1708,"##받":1709,"##건":1710,"##э":1711,"##부":1712,"##機":1713,"##密":1714,"##양":1715,"##ḷ":1716,"##側":1717,"##ホ":1718,"##왔":1719,"##현":1720,"##ォ":1721,"##捜":1722,"##索":1723,"##문":1724,"##억":1725,"##ム":1726,"##渓":1727,"##谷":1728,"##외":1729,"##公":1730,"##개":1731,"##ῖ":1732,"##ゲ":1733,"##ゴ":1734,"##ù":1735,"##気":1736,"##遭":1737,"##験":1738,"##何":1739,"##긴":1740,"##등":1741,"##비":1742,"##던":1743,"##³":1744,"##불":1745,"##발":1746,"##ɛ":1747,"##ਾ":1748,"##î":1749,"##재":1750,"##典":1751,"##ピ":1752,"##복":1753,"##선":1754,"##든":1755,"##都":1756,"##ヘ":1757,"##研":1758,"##究":1759,"##화":1760,"##的":1761,"##봤":1762,"##디":1763,"##調":1764,"##力":1765,"##네":1766,"##씩":1767,"##때":1768,"##판":1769,"##¦":1770,"##©":1771,"##前":1772,"##至":1773,"##審":1774,"##問":1775,"##행":1776,"##식":1777,"##락":1778,"##세":1779,"##뉴":1780,"##森":1781,"##ู":1782,"##난":1783,"##견":1784,"##軍":1785,"##秘":1786,"##ギ":1787,"##木":1788,"##떻":1789,"##ば":1790,"##ὐ":1791,"##검":1792,"##용":1793,"##ḍ":1794,"##ズ":1795,"##벌":1796,"##되":1797,"##警":1798,"##判":1799,"##름":1800,"##독":1801,"##병":1802,"##÷":1803,"##京":1804,"##ヒ":1805,"##대":1806,"##일":1807,"##두":1808,"##":1809,"##測":1810,"##약":1811,"##開":1812,"##났":1813,"##州":1814,"##ワ":1815,"##球":1816,"##루":1817,"##ì":1818,"##ァ":1819,"##있":1820,"##른":1821,"##활":1822,"##φ":1823,"##순":1824,"##ソ":1825,"##노":1826,"##조":1827,"##ʌ":1828,"##陥":1829,"##차":1830,"##χ":1831,"##함":1832,"##담":1833,"##﻿":1834,"##혐":1835,"##훈":1836,"##후":1837,"##映":1838,"##친":1839,"##생":1840,"##안":1841,"##接":1842,"##₂":1843,"##돈":1844,"##준":1845,"##≤":1846,"##너":1847,"##경":1848,"##¸":1849,"##ز":1850,"##없":1851,"##먼":1852,"##열":1853,"##것":1854,"##중":1855,"##레":1856,"##많":1857,"##밖":1858,"##결":1859,"##ظ":1860,"##ف":1861,"##∷":1862,"##확":1863,"##관":1864,"##혜":1865,"##흥":1866,"##ē":1867,"th":1868,"##er":1869,"the":1870,"##in":1871,"##on":1872,"##at":1873,"##en":1874,"##es":1875,"##or":1876,"##ed":1877,"##nd":1878,"##ing":1879,"##ar":1880,"##an":1881,"to":1882,"##ou":1883,"in":1884,"##it":1885,"##al":1886,"of":1887,"##is":1888,"and":1889,"##ic":1890,"##as":1891,"##re":1892,"##om":1893,"##ion":1894,"##le":1895,"##ent":1896,"##ll":1897,"re":1898,"be":1899,"##ly":1900,"##st":1901,"##ot":1902,"##ve":1903,"wh":1904,"##id":1905,"on":1906,"##ac":1907,"##ut":1908,"that":1909,"is":1910,"st":1911,"##ow":1912,"##et":1913,"for":1914,"##ay":1915,"##ur":1916,"it":1917,"##am":1918,"##ad":1919,"pr":1920,"##ig":1921,"##se":1922,"##ct":1923,"##ld":1924,"##ver":1925,"##im":1926,"##ir":1927,"##ter":1928,"as":1929,"he":1930,"##ch":1931,"##ith":1932,"##ation":1933,"##ol":1934,"an":1935,"##ce":1936,"with":1937,"de":1938,"##th":1939,"you":1940,"##ers":1941,"##il":1942,"con":1943,"##ere":1944,"we":1945,"was":1946,"se":1947,"##op":1948,"##ill":1949,"ha":1950,"sh":1951,"ch":1952,"##est":1953,"com":1954,"fr":1955,"at":1956,"ne":1957,"##ess":1958,"##ate":1959,"##od":1960,"su":1961,"##ag":1962,"##ke":1963,"##ul":1964,"this":1965,"tr":1966,"##ment":1967,"are":1968,"##igh":1969,"##ain":1970,"##os":1971,"ex":1972,"or":1973,"al":1974,"##ist":1975,"##pp":1976,"not":1977,"##us":1978,"##oc":1979,"by":1980,"##ore":1981,"##ab":1982,"have":1983,"##ity":1984,"##ould":1985,"##if":1986,"##ive":1987,"##um":1988,"##ant":1989,"##un":1990,"from":1991,"le":1992,"##and":1993,"but":1994,"##em":1995,"##ort":1996,"##ies":1997,"go":1998,"##art":1999,"ab":2000,"sp":2001,"##iv":2002,"sa":2003,"pl":2004,"##ie":2005,"##ight":2006,"##ust":2007,"they":2008,"##el":2009,"un":2010,"##ear":2011,"wor":2012,"##ap":2013,"##ally":2014,"his":2015,"has":2016,"##ack":2017,"##all":2018,"##ect":2019,"pro":2020,"do":2021,"##out":2022,"20":2023,"##ard":2024,"en":2025,"##ost":2026,"can":2027,"##gh":2028,"##ome":2029,"ar":2030,"all":2031,"##ud":2032,"##ak":2033,"##ast":2034,"will":2035,"##end":2036,"##our":2037,"so":2038,"ad":2039,"##ib":2040,"##ich":2041,"##ge":2042,"said":2043,"us":2044,"cl":2045,"##ok":2046,"##ial":2047,"out":2048,"who":2049,"up":2050,"me":2051,"te":2052,"one":2053,"their":2054,"br":2055,"##ip":2056,"##ough":2057,"more":2058,"##ans":2059,"##tr":2060,"gr":2061,"##ame":2062,"res":2063,"new":2064,"im":2065,"##ound":2066,"##ions":2067,"comp":2068,"##ice":2069,"##ue":2070,"##ike":2071,"##her":2072,"##ous":2073,"there":2074,"##act":2075,"##ff":2076,"##one":2077,"am":2078,"##oun":2079,"##ia":2080,"##ure":2081,"##og":2082,"##age":2083,"##ong":2084,"man":2085,"about":2086,"##ine":2087,"if":2088,"ac":2089,"year":2090,"ag":2091,"ev":2092,"off":2093,"##ated":2094,"tim":2095,"cr":2096,"which":2097,"##ence":2098,"##pt":2099,"had":2100,"were":2101,"would":2102,"pe":2103,"##iz":2104,"int":2105,"rep":2106,"no":2107,"exp":2108,"what":2109,"##ind":2110,"sc":2111,"##ake":2112,"##ide":2113,"##ub":2114,"like":2115,"##ther":2116,"per":2117,"when":2118,"been":2119,"some":2120,"inc":2121,"co":2122,"##ach":2123,"fe":2124,"dr":2125,"##au":2126,"##ign":2127,"##own":2128,"##ber":2129,"##qu":2130,"part":2131,"af":2132,"tw":2133,"over":2134,"##ays":2135,"dis":2136,"##ace":2137,"##so":2138,"##ary":2139,"than":2140,"bec":2141,"201":2142,"her":2143,"lo":2144,"how":2145,"##able":2146,"just":2147,"##ite":2148,"qu":2149,"app":2150,"##ople":2151,"##ord":2152,"##ire":2153,"##ical":2154,"people":2155,"inter":2156,"##ish":2157,"##ian":2158,"also":2159,"##ose":2160,"my":2161,"##ations":2162,"##ile":2163,"str":2164,"work":2165,"mar":2166,"kn":2167,"##ult":2168,"time":2169,"##ree":2170,"get":2171,"##ass":2172,"your":2173,"##av":2174,"##ens":2175,"she":2176,"them":2177,"bl":2178,"any":2179,"pol":2180,"##int":2181,"fir":2182,"rec":2183,"other":2184,"##ec":2185,"##are":2186,"##ond":2187,"after":2188,"##ick":2189,"comm":2190,"##orm":2191,"its":2192,"ind":2193,"act":2194,"##ance":2195,"##lic":2196,"##ail":2197,"##ase":2198,"imp":2199,"our":2200,"play":2201,"##aw":2202,"##00":2203,"ever":2204,"##ro":2205,"19":2206,"##reat":2207,"fo":2208,"##uc":2209,"pre":2210,"po":2211,"ro":2212,"into":2213,"##amp":2214,"##fer":2215,"##gr":2216,"##ink":2217,"##ings":2218,"acc":2219,"##ition":2220,"bo":2221,"##ory":2222,"##vel":2223,"first":2224,"##oss":2225,"cont":2226,"##ep":2227,"##uct":2228,"ser":2229,"##ors":2230,"##ang":2231,"em":2232,"##ause":2233,"two":2234,"##itt":2235,"##ates":2236,"only":2237,"could":2238,"now":2239,"coun":2240,"ph":2241,"mo":2242,"most":2243,"him":2244,"des":2245,"##ert":2246,"##ious":2247,"may":2248,"##ents":2249,"##lect":2250,"sec":2251,"pres":2252,"##ks":2253,"und":2254,"back":2255,"##ade":2256,"##lo":2257,"bet":2258,"even":2259,"##enc":2260,"jo":2261,"cons":2262,"##ied":2263,"these":2264,"##ft":2265,"##ild":2266,"##ery":2267,"dec":2268,"##hing":2269,"att":2270,"##urn":2271,"did":2272,"because":2273,"don":2274,"again":2275,"bu":2276,"thr":2277,"every":2278,"wr":2279,"##ict":2280,"op":2281,"state":2282,"sy":2283,"##form":2284,"under":2285,"see":2286,"def":2287,"##iver":2288,"##ater":2289,"car":2290,"ob":2291,"##uch":2292,"rel":2293,"##we":2294,"inv":2295,"add":2296,"##ons":2297,"##day":2298,"know":2299,"high":2300,"then":2301,"##ry":2302,"min":2303,"ass":2304,"supp":2305,"##ual":2306,"years":2307,"ke":2308,"##ock":2309,"want":2310,"##erm":2311,"right":2312,"##iss":2313,"##ident":2314,"##ise":2315,"need":2316,"##lud":2317,"##ning":2318,"fl":2319,"##ra":2320,"where":2321,"many":2322,"##sel":2323,"mon":2324,"##wn":2325,"world":2326,"reg":2327,"##ments":2328,"call":2329,"make":2330,"ed":2331,"##ublic":2332,"down":2333,"##les":2334,"gu":2335,"par":2336,"##eric":2337,"##ved":2338,"fu":2339,"col":2340,"way":2341,"rem":2342,"well":2343,"dif":2344,"while":2345,"last":2346,"bel":2347,"contr":2348,"think":2349,"look":2350,"##fore":2351,"##oth":2352,"gen":2353,"##ell":2354,"being":2355,"team":2356,"ear":2357,"sch":2358,"ve":2359,"##oup":2360,"sm":2361,"americ":2362,"##ational":2363,"end":2364,"fin":2365,"##ject":2366,"id":2367,"show":2368,"##olog":2369,"includ":2370,"much":2371,"form":2372,"through":2373,"stud":2374,"##vern":2375,"very":2376,"##iew":2377,"inst":2378,"##ath":2379,"##ys":2380,"##ating":2381,"200":2382,"govern":2383,"##anc":2384,"those":2385,"##ason":2386,"long":2387,"##ump":2388,"dem":2389,"##aking":2390,"##other":2391,"##ily":2392,"##ics":2393,"##urr":2394,"should":2395,"say":2396,"10":2397,"##xt":2398,"##sp":2399,"start":2400,"##uring":2401,"##ative":2402,"##ited":2403,"before":2404,"##ower":2405,"##ities":2406,"report":2407,"sim":2408,"cent":2409,"use":2410,"war":2411,"##ific":2412,"##ased":2413,"good":2414,"##cc":2415,"##ty":2416,"##atch":2417,"does":2418,"ma":2419,"##ible":2420,"sub":2421,"own":2422,"med":2423,"##ting":2424,"cour":2425,"##ange":2426,"game":2427,"char":2428,"prob":2429,"point":2430,"such":2431,"hel":2432,"##ug":2433,"##ts":2434,"##ward":2435,"wee":2436,"here":2437,"##omet":2438,"##ince":2439,"going":2440,"##ters":2441,"##get":2442,"resp":2443,"dep":2444,"##ues":2445,"prod":2446,"eff":2447,"law":2448,"made":2449,"pers":2450,"##eral":2451,"##io":2452,"##az":2453,"mod":2454,"disc":2455,"aut":2456,"##ism":2457,"##ually":2458,"lead":2459,"##ular":2460,"##ving":2461,"##ix":2462,"##ility":2463,"cap":2464,"##llow":2465,"against":2466,"##orn":2467,"differ":2468,"take":2469,"##air":2470,"found":2471,"set":2472,"day":2473,"though":2474,"##up":2475,"##ier":2476,"##its":2477,"##ife":2478,"read":2479,"president":2480,"still":2481,"##illion":2482,"help":2483,"##ful":2484,"offic":2485,"great":2486,"sl":2487,"trans":2488,"three":2489,"government":2490,"##let":2491,"says":2492,"##ood":2493,"##man":2494,"##ope":2495,"somet":2496,"##ists":2497,"##ween":2498,"##ee":2499,"sign":2500,"spec":2501,"##ress":2502,"between":2503,"##ently":2504,"soc":2505,"##stem":2506,"mem":2507,"countr":2508,"prov":2509,"group":2510,"big":2511,"during":2512,"##als":2513,"real":2514,"num":2515,"sur":2516,"lar":2517,"elect":2518,"run":2519,"##ked":2520,"bus":2521,"since":2522,"same":2523,"##gan":2524,"really":2525,"##ying":2526,"system":2527,"around":2528,"both":2529,"hand":2530,"##ives":2531,"##irect":2532,"##ah":2533,"follow":2534,"public":2535,"leg":2536,"##self":2537,"##con":2538,"wom":2539,"##ene":2540,"##bo":2541,"prop":2542,"##yp":2543,"##ote":2544,"##led":2545,"##ork":2546,"##land":2547,"polit":2548,"##cept":2549,"cle":2550,"el":2551,"compan":2552,"##hip":2553,"##cr":2554,"support":2555,"##ient":2556,"##iet":2557,"##uss":2558,"##ames":2559,"##ves":2560,"ret":2561,"sen":2562,"mark":2563,"direct":2564,"##ever":2565,"##read":2566,"##velop":2567,"let":2568,"##ution":2569,"trump":2570,"find":2571,"##ouse":2572,"ho":2573,"det":2574,"conf":2575,"used":2576,"week":2577,"##ures":2578,"tal":2579,"##ton":2580,"person":2581,"fact":2582,"##ather":2583,"art":2584,"red":2585,"develop":2586,"fam":2587,"##cent":2588,"##way":2589,"met":2590,"##ern":2591,"cor":2592,"cre":2593,"progr":2594,"prot":2595,"happ":2596,"##ool":2597,"power":2598,"win":2599,"##ivers":2600,"post":2601,"##ered":2602,"iss":2603,"contin":2604,"##ines":2605,"##ash":2606,"bre":2607,"far":2608,"inf":2609,"##pr":2610,"##ax":2611,"##ik":2612,"##lish":2613,"city":2614,"old":2615,"month":2616,"##ience":2617,"##ave":2618,"commun":2619,"camp":2620,"told":2621,"put":2622,"nor":2623,"ann":2624,"lot":2625,"another":2626,"##istr":2627,"##ph":2628,"##ale":2629,"open":2630,"##ank":2631,"top":2632,"head":2633,"##ices":2634,"av":2635,"eng":2636,"tech":2637,"000":2638,"invest":2639,"second":2640,"adv":2641,"quest":2642,"intern":2643,"each":2644,"##akes":2645,"plan":2646,"##gest":2647,"life":2648,"##erg":2649,"rev":2650,"few":2651,"##ially":2652,"hum":2653,"belie":2654,"##ize":2655,"##ording":2656,"why":2657,"##per":2658,"##ont":2659,"too":2660,"opp":2661,"police":2662,"fil":2663,"##ount":2664,"##str":2665,"never":2666,"news":2667,"ord":2668,"ins":2669,"##lem":2670,"##ages":2671,"##ically":2672,"turn":2673,"##ency":2674,"loc":2675,"##ision":2676,"things":2677,"##ins":2678,"bar":2679,"poss":2680,"however":2681,"best":2682,"pass":2683,"conc":2684,"school":2685,"stand":2686,"requ":2687,"##ants":2688,"something":2689,"12":2690,"##ized":2691,"come":2692,"next":2693,"val":2694,"##ott":2695,"curr":2696,"##ime":2697,"##ior":2698,"##br":2699,"states":2700,"##alth":2701,"different":2702,"hard":2703,"##ead":2704,"##ology":2705,"four":2706,"ll":2707,"##tern":2708,"mil":2709,"ide":2710,"##ger":2711,"##co":2712,"might":2713,"##bs":2714,"##ute":2715,"main":2716,"rele":2717,"proc":2718,"serv":2719,"##err":2720,"11":2721,"according":2722,"air":2723,"##ling":2724,"##thing":2725,"test":2726,"##ody":2727,"##iving":2728,"result":2729,"##bers":2730,"house":2731,"##med":2732,"15":2733,"##ets":2734,"build":2735,"home":2736,"partic":2737,"dat":2738,"season":2739,"sk":2740,"problem":2741,"prof":2742,"##ric":2743,"##ention":2744,"econ":2745,"percent":2746,"##ne":2747,"##ret":2748,"including":2749,"american":2750,"##ri":2751,"list":2752,"econom":2753,"##ark":2754,"full":2755,"without":2756,"auth":2757,"feel":2758,"child":2759,"incre":2760,"national":2761,"product":2762,"import":2763,"seem":2764,"chr":2765,"free":2766,"##iness":2767,"fun":2768,"expl":2769,"##ittle":2770,"sw":2771,"##res":2772,"##ull":2773,"less":2774,"pop":2775,"care":2776,"##ield":2777,"allow":2778,"##ness":2779,"##son":2780,"##ined":2781,"number":2782,"##king":2783,"million":2784,"##pl":2785,"left":2786,"exper":2787,"level":2788,"little":2789,"techn":2790,"spe":2791,"ref":2792,"##ected":2793,"##ced":2794,"ext":2795,"called":2796,"better":2797,"18":2798,"##ner":2799,"beh":2800,"inform":2801,"country":2802,"la":2803,"##ces":2804,"##earch":2805,"research":2806,"##ately":2807,"sol":2808,"pos":2809,"pat":2810,"##ably":2811,"keep":2812,"place":2813,"interest":2814,"near":2815,"mus":2816,"rest":2817,"pay":2818,"face":2819,"ir":2820,"##aim":2821,"effect":2822,"adm":2823,"sou":2824,"mat":2825,"##iting":2826,"cond":2827,"##osed":2828,"arr":2829,"prev":2830,"times":2831,"##red":2832,"got":2833,"##ina":2834,"##ama":2835,"##ways":2836,"book":2837,"using":2838,"design":2839,"eas":2840,"har":2841,"gre":2842,"##ering":2843,"case":2844,"##ital":2845,"bit":2846,"maj":2847,"##til":2848,"##ten":2849,"##ised":2850,"##ats":2851,"program":2852,"cal":2853,"consid":2854,"miss":2855,"didn":2856,"typ":2857,"##over":2858,"press":2859,"move":2860,"##oney":2861,"term":2862,"##ral":2863,"##ains":2864,"##ction":2865,"##eng":2866,"##ocr":2867,"eur":2868,"##ained":2869,"##uck":2870,"simp":2871,"sever":2872,"prom":2873,"stre":2874,"hist":2875,"later":2876,"##ds":2877,"story":2878,"based":2879,"star":2880,"white":2881,"change":2882,"business":2883,"attack":2884,"del":2885,"clear":2886,"##inal":2887,"women":2888,"mid":2889,"mr":2890,"##ned":2891,"major":2892,"court":2893,"ra":2894,"cost":2895,"small":2896,"##hn":2897,"company":2898,"##ived":2899,"##ends":2900,"ste":2901,"organ":2902,"aff":2903,"##ven":2904,"##ense":2905,"class":2906,"appear":2907,"##atur":2908,"mean":2909,"##ator":2910,"##atic":2911,"health":2912,"project":2913,"univers":2914,"author":2915,"gl":2916,"vis":2917,"##line":2918,"polic":2919,"human":2920,"##ister":2921,"##iven":2922,"united":2923,"net":2924,"phot":2925,"30":2926,"lib":2927,"money":2928,"today":2929,"data":2930,"cert":2931,"##less":2932,"process":2933,"always":2934,"pur":2935,"past":2936,"terr":2937,"bas":2938,"##ged":2939,"chang":2940,"##ared":2941,"sing":2942,"once":2943,"party":2944,"important":2945,"rece":2946,"est":2947,"must":2948,"##aff":2949,"record":2950,"democr":2951,"ent":2952,"tax":2953,"##ature":2954,"claim":2955,"##ren":2956,"##ided":2957,"thing":2958,"##ready":2959,"already":2960,"political":2961,"##ians":2962,"fund":2963,"black":2964,"tell":2965,"var":2966,"##wh":2967,"line":2968,"grow":2969,"vide":2970,"men":2971,"making":2972,"view":2973,"##used":2974,"pot":2975,"least":2976,"pa":2977,"until":2978,"##ury":2979,"deb":2980,"opt":2981,"vi":2982,"##stand":2983,"return":2984,"former":2985,"fri":2986,"social":2987,"##be":2988,"##aining":2989,"##me":2990,"##ample":2991,"john":2992,"water":2993,"##erv":2994,"##aph":2995,"large":2996,"hal":2997,"oper":2998,"##app":2999,"##ases":3000,"lear":3001,"199":3002,"##ences":3003,"official":3004,"##ending":3005,"mor":3006,"days":3007,"family":3008,"happen":3009,"land":3010,"##aign":3011,"information":3012,"edit":3013,"games":3014,"media":3015,"campaign":3016,"occ":3017,"sit":3018,"##loy":3019,"actually":3020,"youn":3021,"ap":3022,"##ether":3023,"appro":3024,"##oub":3025,"##att":3026,"market":3027,"13":3028,"##itch":3029,"hu":3030,"kill":3031,"##acy":3032,"night":3033,"vot":3034,"republic":3035,"foot":3036,"kind":3037,"able":3038,"enough":3039,"order":3040,"emp":3041,"##ley":3042,"##ode":3043,"es":3044,"gener":3045,"arg":3046,"##augh":3047,"##ew":3048,"wal":3049,"doesn":3050,"won":3051,"14":3052,"fac":3053,"five":3054,"name":3055,"##unch":3056,"##ired":3057,"##orts":3058,"fed":3059,"several":3060,"##ession":3061,"often":3062,"##mm":3063,"bill":3064,"ant":3065,"sug":3066,"become":3067,"##ief":3068,"working":3069,"away":3070,"non":3071,"##ium":3072,"yet":3073,"##ality":3074,"watch":3075,"exc":3076,"hour":3077,"early":3078,"came":3079,"having":3080,"equ":3081,"##ird":3082,"north":3083,"##ified":3084,"secur":3085,"crit":3086,"sure":3087,"fur":3088,"##gin":3089,"players":3090,"stop":3091,"##ued":3092,"trad":3093,"##ards":3094,"whether":3095,"europe":3096,"##ising":3097,"##ush":3098,"give":3099,"question":3100,"##sh":3101,"deal":3102,"fre":3103,"perform":3104,"16":3105,"lab":3106,"event":3107,"arm":3108,"##ball":3109,"ge":3110,"##ensive":3111,"fut":3112,"sour":3113,"##ipp":3114,"meet":3115,"##crib":3116,"##ides":3117,"##ential":3118,"ca":3119,"complet":3120,"cho":3121,"certain":3122,"##ison":3123,"cover":3124,"##iam":3125,"activ":3126,"york":3127,"priv":3128,"##els":3129,"vers":3130,"##ization":3131,"##ony":3132,"step":3133,"known":3134,"lim":3135,"short":3136,"##empt":3137,"##enn":3138,"among":3139,"took":3140,"25":3141,"##ember":3142,"##erman":3143,"##ove":3144,"##ither":3145,"local":3146,"##itions":3147,"##idence":3148,"asked":3149,"control":3150,"course":3151,"bro":3152,"##ov":3153,"seen":3154,"charac":3155,"##ru":3156,"low":3157,"##icle":3158,"doing":3159,"dev":3160,"orig":3161,"##aps":3162,"within":3163,"dom":3164,"##lex":3165,"university":3166,"alm":3167,"went":3168,"17":3169,"pract":3170,"along":3171,"side":3172,"esp":3173,"sn":3174,"##aken":3175,"love":3176,"given":3177,"pub":3178,"##iety":3179,"general":3180,"##inc":3181,"acr":3182,"likely":3183,"##te":3184,"##ories":3185,"##uary":3186,"example":3187,"succ":3188,"##iously":3189,"sal":3190,"depart":3191,"light":3192,"##aring":3193,"members":3194,"##ought":3195,"investig":3196,"##ended":3197,"possible":3198,"young":3199,"security":3200,"fail":3201,"##ots":3202,"strong":3203,"obama":3204,"##ones":3205,"christ":3206,"future":3207,"hold":3208,"tot":3209,"understand":3210,"video":3211,"##thers":3212,"ce":3213,"##side":3214,"viol":3215,"##ane":3216,"across":3217,"##lf":3218,"interv":3219,"children":3220,"enter":3221,"##que":3222,"space":3223,"##ann":3224,"##ured":3225,"##mber":3226,"##tt":3227,"##ateg":3228,"community":3229,"##urs":3230,"thought":3231,"reason":3232,"addition":3233,"##imate":3234,"announ":3235,"done":3236,"mind":3237,"##ivid":3238,"following":3239,"means":3240,"##work":3241,"film":3242,"##by":3243,"conn":3244,"south":3245,"sound":3246,"##une":3247,"const":3248,"further":3249,"##itter":3250,"##oci":3251,"00":3252,"months":3253,"success":3254,"believe":3255,"russ":3256,"##arch":3257,"##ilar":3258,"getting":3259,"indust":3260,"reported":3261,"others":3262,"office":3263,"almost":3264,"##ination":3265,"fight":3266,"##ware":3267,"half":3268,"mag":3269,"anal":3270,"super":3271,"creat":3272,"100":3273,"##fe":3274,"##ague":3275,"ident":3276,"series":3277,"##lished":3278,"vict":3279,"suggest":3280,"sex":3281,"makes":3282,"rul":3283,"##ted":3284,"##oph":3285,"compet":3286,"cut":3287,"fall":3288,"history":3289,"glo":3290,"ple":3291,"study":3292,"international":3293,"fire":3294,"##itive":3295,"bad":3296,"##ortun":3297,"invol":3298,"issue":3299,"associ":3300,"distr":3301,"mom":3302,"instead":3303,"started":3304,"america":3305,"policy":3306,"##por":3307,"##book":3308,"canad":3309,"##par":3310,"50":3311,"##vers":3312,"##ergy":3313,"milit":3314,"particular":3315,"repres":3316,"scient":3317,"avail":3318,"sho":3319,"food":3320,"tar":3321,"live":3322,"rather":3323,"looking":3324,"##com":3325,"try":3326,"2016":3327,"service":3328,"similar":3329,"area":3330,"ep":3331,"reach":3332,"individ":3333,"##osp":3334,"quick":3335,"key":3336,"idea":3337,"##lement":3338,"imm":3339,"fig":3340,"colle":3341,"##ars":3342,"##ulation":3343,"lat":3344,"##aged":3345,"env":3346,"den":3347,"toget":3348,"together":3349,"foc":3350,"sent":3351,"##ows":3352,"points":3353,"##ference":3354,"cult":3355,"##ai":3356,"cell":3357,"ris":3358,"##ators":3359,"bene":3360,"special":3361,"intr":3362,"impro":3363,"added":3364,"ban":3365,"close":3366,"six":3367,"wind":3368,"isn":3369,"death":3370,"##ape":3371,"anything":3372,"##uction":3373,"protect":3374,"tre":3375,"##ler":3376,"trying":3377,"##back":3378,"mass":3379,"##ances":3380,"##uce":3381,"federal":3382,"dist":3383,"front":3384,"stat":3385,"german":3386,"##imes":3387,"committ":3388,"aust":3389,"##fic":3390,"cam":3391,"center":3392,"individual":3393,"comes":3394,"port":3395,"pick":3396,"##eign":3397,"discuss":3398,"rad":3399,"ago":3400,"##utes":3401,"##bal":3402,"admin":3403,"present":3404,"twitter":3405,"secret":3406,"behind":3407,"cy":3408,"mult":3409,"taken":3410,"##ids":3411,"capt":3412,"recent":3413,"2015":3414,"jud":3415,"##ored":3416,"energy":3417,"complete":3418,"er":3419,"job":3420,"available":3421,"cop":3422,"west":3423,"##ogr":3424,"##uced":3425,"san":3426,"upd":3427,"rights":3428,"nothing":3429,"tit":3430,"vir":3431,"entire":3432,"21":3433,"relig":3434,"init":3435,"pret":3436,"##selves":3437,"##ission":3438,"someone":3439,"development":3440,"email":3441,"mess":3442,"current":3443,"##erc":3444,"##ability":3445,"ey":3446,"player":3447,"##wards":3448,"wa":3449,"god":3450,"employ":3451,"attempt":3452,"access":3453,"wanted":3454,"saying":3455,"probably":3456,"mot":3457,"taking":3458,"gun":3459,"experience":3460,"field":3461,"exec":3462,"hit":3463,"image":3464,"infl":3465,"either":3466,"jour":3467,"##though":3468,"dam":3469,"##igr":3470,"phys":3471,"although":3472,"2014":3473,"dav":3474,"single":3475,"##iron":3476,"##ument":3477,"##ps":3478,"china":3479,"##aper":3480,"match":3481,"##aster":3482,"##0s":3483,"third":3484,"fav":3485,"brit":3486,"##ls":3487,"action":3488,"##ald":3489,"enc":3490,"doub":3491,"##ges":3492,"cann":3493,"break":3494,"room":3495,"bi":3496,"aud":3497,"threat":3498,"exist":3499,"department":3500,"desp":3501,"aver":3502,"cust":3503,"##amed":3504,"coming":3505,"economic":3506,"bring":3507,"rich":3508,"##sw":3509,"che":3510,"doc":3511,"clint":3512,"##ands":3513,"##uly":3514,"educ":3515,"body":3516,"conv":3517,"interview":3518,"##vert":3519,"mill":3520,"league":3521,"concern":3522,"earl":3523,"due":3524,"environ":3525,"summ":3526,"washing":3527,"tra":3528,"##rael":3529,"final":3530,"everything":3531,"countries":3532,"continue":3533,"cand":3534,"##for":3535,"##leg":3536,"late":3537,"woman":3538,"##reme":3539,"chec":3540,"administr":3541,"israel":3542,"##gress":3543,"simply":3544,"price":3545,"lang":3546,"##ipt":3547,"2017":3548,"signific":3549,"election":3550,"hom":3551,"##oy":3552,"##ming":3553,"else":3554,"club":3555,"civ":3556,"tem":3557,"##nes":3558,"##sy":3559,"specific":3560,"meas":3561,"collect":3562,"##iter":3563,"clinton":3564,"##den":3565,"##aces":3566,"##uation":3567,"describ":3568,"ground":3569,"review":3570,"building":3571,"represent":3572,"begin":3573,"street":3574,"share":3575,"minister":3576,"track":3577,"everyone":3578,"vol":3579,"bud":3580,"below":3581,"issues":3582,"matter":3583,"ball":3584,"evidence":3585,"div":3586,"washington":3587,"bank":3588,"director":3589,"target":3590,"et":3591,"##old":3592,"deep":3593,"words":3594,"198":3595,"foreign":3596,"22":3597,"ur":3598,"relations":3599,"scre":3600,"companies":3601,"block":3602,"hope":3603,"##fl":3604,"coup":3605,"chall":3606,"role":3607,"##uff":3608,"wasn":3609,"abs":3610,"military":3611,"true":3612,"outside":3613,"cir":3614,"uk":3615,"##mb":3616,"launch":3617,"treat":3618,"conserv":3619,"24":3620,"billion":3621,"environment":3622,"common":3623,"##ij":3624,"position":3625,"saw":3626,"create":3627,"yes":3628,"legal":3629,"respons":3630,"jan":3631,"diffic":3632,"comb":3633,"repl":3634,"difficult":3635,"link":3636,"mal":3637,"squ":3638,"coach":3639,"2013":3640,"self":3641,"gold":3642,"2012":3643,"custom":3644,"force":3645,"espec":3646,"running":3647,"##yn":3648,"##ival":3649,"##dle":3650,"##ites":3651,"wrote":3652,"especially":3653,"##ring":3654,"##ule":3655,"sand":3656,"leaders":3657,"##use":3658,"whole":3659,"financ":3660,"green":3661,"despite":3662,"##urch":3663,"playing":3664,"led":3665,"agree":3666,"susp":3667,"higher":3668,"article":3669,"technology":3670,"neg":3671,"terror":3672,"##lling":3673,"##ault":3674,"character":3675,"vo":3676,"##ength":3677,"##ify":3678,"obs":3679,"students":3680,"earlier":3681,"pet":3682,"music":3683,"total":3684,"age":3685,"global":3686,"decision":3687,"##ogn":3688,"version":3689,"benef":3690,"##umb":3691,"circ":3692,"dest":3693,"##ney":3694,"significant":3695,"soft":3696,"candid":3697,"society":3698,"pretty":3699,"mc":3700,"pal":3701,"vote":3702,"suff":3703,"expect":3704,"seems":3705,"gir":3706,"hours":3707,"##ibility":3708,"detail":3709,"da":3710,"nation":3711,"coll":3712,"##ully":3713,"##af":3714,"became":3715,"civil":3716,"type":3717,"langu":3718,"dead":3719,"march":3720,"sense":3721,"board":3722,"value":3723,"facebook":3724,"pan":3725,"page":3726,"services":3727,"champ":3728,"answ":3729,"site":3730,"##ively":3731,"decl":3732,"pred":3733,"htt":3734,"##ional":3735,"needs":3736,"talk":3737,"engine":3738,"shoot":3739,"subject":3740,"consider":3741,"potential":3742,"bur":3743,"include":3744,"church":3745,"cit":3746,"##ana":3747,"##ological":3748,"release":3749,"##nal":3750,"##ench":3751,"drop":3752,"network":3753,"40":3754,"##lam":3755,"##orr":3756,"##oud":3757,"related":3758,"##ograph":3759,"provide":3760,"aw":3761,"began":3762,"mov":3763,"##onse":3764,"road":3765,"ill":3766,"statement":3767,"source":3768,"##asing":3769,"##iday":3770,"inj":3771,"##ental":3772,"advert":3773,"speak":3774,"##ural":3775,"above":3776,"##go":3777,"##body":3778,"##aft":3779,"itself":3780,"word":3781,"drug":3782,"object":3783,"shows":3784,"mich":3785,"nec":3786,"##esh":3787,"refer":3788,"##ibut":3789,"cred":3790,"played":3791,"instit":3792,"themselves":3793,"himself":3794,"football":3795,"pain":3796,"note":3797,"execut":3798,"lost":3799,"accept":3800,"online":3801,"heart":3802,"results":3803,"##ender":3804,"##und":3805,"popular":3806,"officials":3807,"broad":3808,"laws":3809,"questions":3810,"##ests":3811,"base":3812,"wall":3813,"##yle":3814,"norm":3815,"rob":3816,"wed":3817,"defense":3818,"changes":3819,"industry":3820,"connect":3821,"##fully":3822,"needed":3823,"released":3824,"##oring":3825,"staff":3826,"host":3827,"stay":3828,"##hood":3829,"recently":3830,"response":3831,"friends":3832,"##ped":3833,"chief":3834,"##iple":3835,"groups":3836,"corre":3837,"approach":3838,"opportun":3839,"photo":3840,"sund":3841,"anyone":3842,"nearly":3843,"consum":3844,"##iod":3845,"##port":3846,"ang":3847,"##istic":3848,"cur":3849,"soon":3850,"##action":3851,"##ilt":3852,"search":3853,"model":3854,"function":3855,"meth":3856,"paul":3857,"living":3858,"##ift":3859,"science":3860,"tele":3861,"sept":3862,"##oint":3863,"hill":3864,"##ster":3865,"heav":3866,"##elt":3867,"personal":3868,"period":3869,"ah":3870,"particip":3871,"sil":3872,"##rew":3873,"mic":3874,"##ms":3875,"pack":3876,"published":3877,"##lim":3878,"ul":3879,"##erty":3880,"address":3881,"east":3882,"mis":3883,"##omp":3884,"##atives":3885,"works":3886,"middle":3887,"private":3888,"oct":3889,"hot":3890,"prim":3891,"goal":3892,"anti":3893,"flo":3894,"forward":3895,"republican":3896,"moment":3897,"college":3898,"di":3899,"shot":3900,"draw":3901,"197":3902,"created":3903,"quite":3904,"scr":3905,"teams":3906,"respond":3907,"##asons":3908,"select":3909,"express":3910,"minutes":3911,"hon":3912,"##oll":3913,"held":3914,"##aced":3915,"strateg":3916,"##load":3917,"longer":3918,"hun":3919,"je":3920,"round":3921,"exact":3922,"##apan":3923,"weeks":3924,"cases":3925,"constr":3926,"introd":3927,"average":3928,"rock":3929,"content":3930,"problems":3931,"shar":3932,"regard":3933,"card":3934,"mater":3935,"tur":3936,"internet":3937,"focus":3938,"##urd":3939,"##ucture":3940,"japan":3941,"race":3942,"wrong":3943,"##attle":3944,"extr":3945,"natur":3946,"park":3947,"americans":3948,"learn":3949,"journal":3950,"##olution":3951,"chance":3952,"arch":3953,"text":3954,"administration":3955,"islam":3956,"##osing":3957,"pict":3958,"2011":3959,"leader":3960,"aug":3961,"webs":3962,"comment":3963,"calif":3964,"##haps":3965,"log":3966,"##lus":3967,"announced":3968,"28":3969,"##ades":3970,"perhaps":3971,"fem":3972,"que":3973,"##key":3974,"##epend":3975,"hop":3976,"oil":3977,"town":3978,"##ished":3979,"friend":3980,"risk":3981,"##ron":3982,"##atures":3983,"##okes":3984,"capital":3985,"easy":3986,"196":3987,"##iding":3988,"leave":3989,"23":3990,"##rop":3991,"##ises":3992,"##medi":3993,"austral":3994,"language":3995,"earth":3996,"influ":3997,"ver":3998,"son":3999,"##rupt":4000,"original":4001,"king":4002,"mond":4003,"independ":4004,"maybe":4005,"reports":4006,"sometimes":4007,"impact":4008,"account":4009,"member":4010,"june":4011,"congress":4012,"fair":4013,"increase":4014,"wide":4015,"worth":4016,"india":4017,"buy":4018,"bal":4019,"pie":4020,"##ugg":4021,"financial":4022,"##ream":4023,"demand":4024,"education":4025,"##ob":4026,"##arter":4027,"manag":4028,"currently":4029,"size":4030,"##ique":4031,"##arr":4032,"studies":4033,"inside":4034,"##thern":4035,"##sec":4036,"##itting":4037,"defin":4038,"ess":4039,"##ex":4040,"unf":4041,"comput":4042,"##ude":4043,"##na":4044,"recogn":4045,"##yr":4046,"dece":4047,"rac":4048,"##cil":4049,"users":4050,"##ellig":4051,"favor":4052,"ways":4053,"expected":4054,"finally":4055,"please":4056,"##ino":4057,"progress":4058,"check":4059,"##uth":4060,"via":4061,"contract":4062,"##ey":4063,"constit":4064,"##ops":4065,"goog":4066,"tues":4067,"ira":4068,"reve":4069,"##ested":4070,"committee":4071,"doll":4072,"27":4073,"production":4074,"tuesday":4075,"happened":4076,"method":4077,"##isl":4078,"##ips":4079,"##where":4080,"sunday":4081,"climate":4082,"intellig":4083,"##oke":4084,"google":4085,"dog":4086,"performance":4087,"sold":4088,"situation":4089,"david":4090,"dig":4091,"##ett":4092,"immedi":4093,"##anger":4094,"rules":4095,"worked":4096,"blood":4097,"##bc":4098,"2010":4099,"##gn":4100,"january":4101,"loss":4102,"##uit":4103,"##cript":4104,"li":4105,"rate":4106,"##lin":4107,"complex":4108,"99":4109,"ran":4110,"teach":4111,"emerg":4112,"friday":4113,"surve":4114,"fans":4115,"tool":4116,"##omm":4117,"turned":4118,"terms":4119,"cannot":4120,"necess":4121,"ten":4122,"european":4123,"##itten":4124,"famil":4125,"relationship":4126,"movement":4127,"##ees":4128,"determ":4129,"web":4130,"phil":4131,"legisl":4132,"anim":4133,"attr":4134,"##ried":4135,"except":4136,"received":4137,"apr":4138,"jack":4139,"surpr":4140,"material":4141,"monday":4142,"##lear":4143,"aren":4144,"ask":4145,"ability":4146,"standard":4147,"il":4148,"##ners":4149,"indic":4150,"central":4151,"##coin":4152,"speed":4153,"californ":4154,"##bert":4155,"couple":4156,"gar":4157,"weap":4158,"obv":4159,"involved":4160,"quickly":4161,"iraq":4162,"british":4163,"thous":4164,"##ese":4165,"##ores":4166,"workers":4167,"confir":4168,"##aming":4169,"amount":4170,"practice":4171,"september":4172,"lay":4173,"oh":4174,"##fect":4175,"contact":4176,"simple":4177,"becom":4178,"applic":4179,"modern":4180,"plans":4181,"estab":4182,"mach":4183,"economy":4184,"sun":4185,"leav":4186,"events":4187,"phone":4188,"cast":4189,"##ging":4190,"built":4191,"poll":4192,"cup":4193,"images":4194,"ok":4195,"takes":4196,"tradition":4197,"gave":4198,"sat":4199,"tv":4200,"##atory":4201,"trade":4202,"##idents":4203,"##ilities":4204,"heard":4205,"##of":4206,"enj":4207,"council":4208,"26":4209,"canada":4210,"figure":4211,"mart":4212,"unl":4213,"syr":4214,"camer":4215,"##ients":4216,"##iff":4217,"discover":4218,"april":4219,"pull":4220,"##ctor":4221,"chair":4222,"prem":4223,"insp":4224,"conference":4225,"respect":4226,"tom":4227,"poor":4228,"lack":4229,"separ":4230,"guard":4231,"ach":4232,"crim":4233,"iran":4234,"##izing":4235,"career":4236,"push":4237,"##onstr":4238,"century":4239,"sens":4240,"##amm":4241,"subs":4242,"decided":4243,"july":4244,"sup":4245,"expert":4246,"eight":4247,"fix":4248,"##eal":4249,"morning":4250,"ele":4251,"lives":4252,"slow":4253,"meeting":4254,"##oon":4255,"hear":4256,"travel":4257,"paper":4258,"##ael":4259,"prior":4260,"bir":4261,"felt":4262,"table":4263,"grand":4264,"##xic":4265,"nove":4266,"wednes":4267,"california":4268,"pen":4269,"color":4270,"communic":4271,"killed":4272,"growth":4273,"training":4274,"behav":4275,"huge":4276,"##ask":4277,"neigh":4278,"veh":4279,"extreme":4280,"considered":4281,"lower":4282,"##ams":4283,"remember":4284,"code":4285,"##tain":4286,"officers":4287,"neighb":4288,"##pect":4289,"mother":4290,"rom":4291,"range":4292,"##estern":4293,"whose":4294,"additional":4295,"wednesday":4296,"hall":4297,"serious":4298,"improve":4299,"father":4300,"wond":4301,"included":4302,"talking":4303,"goes":4304,"corpor":4305,"russia":4306,"fast":4307,"visit":4308,"democratic":4309,"##imum":4310,"december":4311,"fal":4312,"cross":4313,"perfect":4314,"purp":4315,"fear":4316,"compl":4317,"##eech":4318,"seven":4319,"quality":4320,"assist":4321,"dark":4322,"##ening":4323,"speech":4324,"resour":4325,"##raft":4326,"bott":4327,"satur":4328,"##osition":4329,"##ung":4330,"song":4331,"##ibly":4332,"november":4333,"hy":4334,"justice":4335,"##iction":4336,"unc":4337,"afric":4338,"quarter":4339,"numbers":4340,"august":4341,"hands":4342,"deliver":4343,"##ened":4344,"item":4345,"reading":4346,"##off":4347,"##eed":4348,"knew":4349,"##force":4350,"##orters":4351,"##ceed":4352,"imag":4353,"regular":4354,"eg":4355,"offer":4356,"require":4357,"medical":4358,"##ining":4359,"agency":4360,"choice":4361,"analys":4362,"epis":4363,"##20":4364,"guy":4365,"citiz":4366,"reb":4367,"user":4368,"daily":4369,"cause":4370,"hosp":4371,"##icles":4372,"##ober":4373,"forces":4374,"spent":4375,"box":4376,"movie":4377,"tried":4378,"website":4379,"bey":4380,"various":4381,"##iation":4382,"##omb":4383,"officer":4384,"intelligence":4385,"29":4386,"##to":4387,"plat":4388,"alb":4389,"gets":4390,"county":4391,"medic":4392,"skill":4393,"##ider":4394,"areas":4395,"senate":4396,"title":4397,"##cl":4398,"boy":4399,"##play":4400,"previous":4401,"hund":4402,"##etic":4403,"geor":4404,"champions":4405,"35":4406,"wild":4407,"writing":4408,"##light":4409,"##uk":4410,"##uf":4411,"reveal":4412,"2009":4413,"file":4414,"named":4415,"thurs":4416,"##ires":4417,"written":4418,"allowed":4419,"immigr":4420,"software":4421,"sort":4422,"##mp":4423,"##ctions":4424,"concept":4425,"clean":4426,"advertise":4427,"natural":4428,"##oid":4429,"##kn":4430,"##ledge":4431,"culture":4432,"hundred":4433,"island":4434,"##istan":4435,"certainly":4436,"october":4437,"date":4438,"inn":4439,"bitcoin":4440,"##bi":4441,"##ume":4442,"jobs":4443,"kh":4444,"prep":4445,"##idge":4446,"document":4447,"##owd":4448,"upon":4449,"thursday":4450,"union":4451,"##ubb":4452,"##ondon":4453,"victim":4454,"fill":4455,"brown":4456,"starting":4457,"conduct":4458,"beyond":4459,"sett":4460,"exactly":4461,"parents":4462,"interesting":4463,"opportunity":4464,"##cer":4465,"gas":4466,"stories":4467,"trust":4468,"budget":4469,"##atter":4470,"##dr":4471,"saf":4472,"2008":4473,"rap":4474,"##ux":4475,"touch":4476,"william":4477,"particularly":4478,"london":4479,"biggest":4480,"##aut":4481,"republicans":4482,"attention":4483,"##craft":4484,"usually":4485,"majority":4486,"##ification":4487,"pressure":4488,"completely":4489,"swe":4490,"##oles":4491,"commission":4492,"safe":4493,"brought":4494,"##itted":4495,"bush":4496,"ice":4497,"##agement":4498,"systems":4499,"schools":4500,"##arily":4501,"##ida":4502,"features":4503,"donald":4504,"politics":4505,"muslim":4506,"##eter":4507,"##essional":4508,"investigation":4509,"cele":4510,"hous":4511,"ow":4512,"cris":4513,"autom":4514,"executive":4515,"western":4516,"style":4517,"convers":4518,"##ounts":4519,"freed":4520,"http":4521,"mad":4522,"mention":4523,"##zz":4524,"##lly":4525,"answer":4526,"stuff":4527,"population":4528,"##iant":4529,"##sequ":4530,"amaz":4531,"histor":4532,"##aries":4533,"prison":4534,"saturday":4535,"ens":4536,"max":4537,"letter":4538,"fa":4539,"##ety":4540,"critic":4541,"message":4542,"continued":4543,"##bit":4544,"##ament":4545,"##uses":4546,"crime":4547,"##sych":4548,"##oo":4549,"drink":4550,"##encies":4551,"latest":4552,"update":4553,"alle":4554,"spir":4555,"effects":4556,"growing":4557,"achie":4558,"##inated":4559,"##isions":4560,"counter":4561,"wants":4562,"roll":4563,"thinking":4564,"demonstr":4565,"celebr":4566,"##sc":4567,"princ":4568,"##inese":4569,"voters":4570,"ny":4571,"looks":4572,"tor":4573,"##ously":4574,"looked":4575,"property":4576,"enjoy":4577,"deg":4578,"##enced":4579,"effort":4580,"chinese":4581,"##ha":4582,"appar":4583,"blue":4584,"##entially":4585,"cook":4586,"45":4587,"cat":4588,"comments":4589,"##aging":4590,"levels":4591,"kids":4592,"mob":4593,"##ugh":4594,"implement":4595,"leading":4596,"danger":4597,"pun":4598,"##erve":4599,"##ma":4600,"attacks":4601,"psych":4602,"spokes":4603,"##wor":4604,"##imately":4605,"democrats":4606,"debate":4607,"limited":4608,"secretary":4609,"income":4610,"##asc":4611,"##oses":4612,"attorn":4613,"60":4614,"##uments":4615,"peace":4616,"inte":4617,"remain":4618,"reality":4619,"frequ":4620,"germany":4621,"battle":4622,"alone":4623,"##come":4624,"district":4625,"religious":4626,"31":4627,"nuc":4628,"##fort":4629,"print":4630,"blog":4631,"emb":4632,"meaning":4633,"overall":4634,"english":4635,"described":4636,"required":4637,"purch":4638,"wouldn":4639,"disp":4640,"calls":4641,"remains":4642,"##adem":4643,"febr":4644,"write":4645,"authority":4646,"500":4647,"##enge":4648,"regul":4649,"mcc":4650,"sports":4651,"entr":4652,"ready":4653,"increasing":4654,"band":4655,"install":4656,"##aught":4657,"freedom":4658,"february":4659,"mount":4660,"##mon":4661,"army":4662,"summer":4663,"ult":4664,"thus":4665,"plant":4666,"click":4667,"nature":4668,"##uing":4669,"claims":4670,"bow":4671,"##eth":4672,"##ension":4673,"rand":4674,"wife":4675,"reasons":4676,"organization":4677,"physical":4678,"scene":4679,"experi":4680,"ii":4681,"store":4682,"recomm":4683,"flor":4684,"##anced":4685,"russian":4686,"path":4687,"indian":4688,"##ground":4689,"changed":4690,"bord":4691,"jer":4692,"spot":4693,"##reg":4694,"drive":4695,"command":4696,"products":4697,"contribut":4698,"presidential":4699,"surv":4700,"eventually":4701,"criminal":4702,"##mer":4703,"ut":4704,"brain":4705,"carry":4706,"violence":4707,"platform":4708,"safety":4709,"paid":4710,"traff":4711,"stra":4712,"strugg":4713,"fly":4714,"twe":4715,"immediately":4716,"exch":4717,"altern":4718,"##eless":4719,"throughout":4720,"estim":4721,"extra":4722,"analysis":4723,"james":4724,"##ky":4725,"efforts":4726,"profess":4727,"thousands":4728,"prime":4729,"couldn":4730,"status":4731,"mix":4732,"##erson":4733,"exam":4734,"gone":4735,"stage":4736,"sem":4737,"prec":4738,"conditions":4739,"liberal":4740,"walk":4741,"fit":4742,"kore":4743,"academ":4744,"multiple":4745,"kick":4746,"mac":4747,"surr":4748,"toward":4749,"difference":4750,"analy":4751,"nuclear":4752,"eth":4753,"pitch":4754,"costs":4755,"crisis":4756,"parts":4757,"bab":4758,"hair":4759,"increased":4760,"grad":4761,"subst":4762,"prevent":4763,"ign":4764,"##ham":4765,"ones":4766,"directly":4767,"hospital":4768,"download":4769,"happy":4770,"nom":4771,"rout":4772,"##field":4773,"thanks":4774,"manager":4775,"beat":4776,"positive":4777,"conservative":4778,"lines":4779,"ww":4780,"##ford":4781,"provided":4782,"labor":4783,"credit":4784,"integr":4785,"##cs":4786,"mech":4787,"draft":4788,"2007":4789,"##ables":4790,"brand":4791,"cars":4792,"promot":4793,"appears":4794,"stem":4795,"195":4796,"produc":4797,"associated":4798,"##enue":4799,"##astic":4800,"receive":4801,"ahead":4802,"pm":4803,"##iers":4804,"##sa":4805,"plus":4806,"##isc":4807,"showed":4808,"largest":4809,"dan":4810,"liter":4811,"region":4812,"##utions":4813,"##ga":4814,"##hib":4815,"perm":4816,"esc":4817,"measure":4818,"vs":4819,"tex":4820,"disapp":4821,"constitution":4822,"burn":4823,"eu":4824,"spending":4825,"moving":4826,"##inary":4827,"arab":4828,"student":4829,"##ban":4830,"guys":4831,"michael":4832,"designed":4833,"radio":4834,"##ufact":4835,"core":4836,"jaz":4837,"eyes":4838,"die":4839,"towards":4840,"hero":4841,"strength":4842,"clearly":4843,"damage":4844,"##ustr":4845,"smith":4846,"##he":4847,"##anch":4848,"unit":4849,"followed":4850,"beginning":4851,"tour":4852,"trial":4853,"repe":4854,"virt":4855,"challeng":4856,"lin":4857,"##oken":4858,"manufact":4859,"unlike":4860,"##ocks":4861,"##ze":4862,"scen":4863,"predict":4864,"episode":4865,"compared":4866,"sexual":4867,"candidate":4868,"details":4869,"correct":4870,"mer":4871,"##akers":4872,"truth":4873,"##ortion":4874,"##aker":4875,"thank":4876,"senior":4877,"advertisement":4878,"nav":4879,"##64":4880,"failed":4881,"whate":4882,"option":4883,"wood":4884,"##ara":4885,"beg":4886,"##ikes":4887,"whatever":4888,"categ":4889,"door":4890,"brother":4891,"agreement":4892,"micr":4893,"##ypt":4894,"theory":4895,"hell":4896,"save":4897,"opin":4898,"absol":4899,"moved":4900,"relative":4901,"ideas":4902,"citizens":4903,"hyp":4904,"##cast":4905,"##hold":4906,"section":4907,"marri":4908,"helped":4909,"restr":4910,"voice":4911,"origin":4912,"giving":4913,"32":4914,"der":4915,"vill":4916,"french":4917,"##face":4918,"ital":4919,"haven":4920,"coal":4921,"apple":4922,"projects":4923,"activity":4924,"hur":4925,"yourself":4926,"knowledge":4927,"ended":4928,"##box":4929,"shown":4930,"##aint":4931,"feed":4932,"##using":4933,"##ivity":4934,"mission":4935,"computer":4936,"##astr":4937,"defe":4938,"smart":4939,"screen":4940,"florida":4941,"od":4942,"consist":4943,"developed":4944,"normal":4945,"fan":4946,"van":4947,"notice":4948,"books":4949,"individuals":4950,"37":4951,"mexic":4952,"agre":4953,"includes":4954,"greater":4955,"occup":4956,"born":4957,"gives":4958,"murd":4959,"meant":4960,"association":4961,"independent":4962,"##ef":4963,"##wise":4964,"##ping":4965,"sched":4966,"australia":4967,"clos":4968,"scale":4969,"cool":4970,"photos":4971,"encour":4972,"telev":4973,"dream":4974,"dise":4975,"corn":4976,"dut":4977,"fine":4978,"cyc":4979,"album":4980,"www":4981,"religion":4982,"ben":4983,"rule":4984,"##ny":4985,"##ago":4986,"##phone":4987,"policies":4988,"basic":4989,"ath":4990,"##ero":4991,"feature":4992,"passed":4993,"heavy":4994,"resources":4995,"absolute":4996,"sle":4997,"chann":4998,"minor":4999,"reflect":5000,"piece":5001,"narr":5002,"rh":5003,"haw":5004,"slight":5005,"fully":5006,"wait":5007,"square":5008,"forced":5009,"spread":5010,"electric":5011,"authorities":5012,"judge":5013,"jump":5014,"##yan":5015,"##eration":5016,"##iny":5017,"prosec":5018,"uses":5019,"expand":5020,"incident":5021,"##ado":5022,"##ille":5023,"structure":5024,"mechan":5025,"sud":5026,"impress":5027,"shut":5028,"shooting":5029,"reform":5030,"remo":5031,"characters":5032,"##val":5033,"##arian":5034,"coff":5035,"experim":5036,"err":5037,"championship":5038,"##yal":5039,"##berg":5040,"##ios":5041,"attorney":5042,"hol":5043,"tick":5044,"##set":5045,"34":5046,"rise":5047,"##owers":5048,"lob":5049,"avoid":5050,"##ipped":5051,"sanders":5052,"map":5053,"##owing":5054,"crowd":5055,"join":5056,"conflic":5057,"##rim":5058,"##erved":5059,"willing":5060,"count":5061,"reached":5062,"aim":5063,"##orter":5064,"sell":5065,"supposed":5066,"editor":5067,"critical":5068,"chic":5069,"##apt":5070,"advant":5071,"eye":5072,"calling":5073,"primary":5074,"33":5075,"bay":5076,"ip":5077,"lif":5078,"wel":5079,"unique":5080,"learning":5081,"##ev":5082,"defend":5083,"highly":5084,"foundation":5085,"none":5086,"winning":5087,"researchers":5088,"girl":5089,"##enty":5090,"##ocked":5091,"larger":5092,"posted":5093,"chris":5094,"alleged":5095,"myself":5096,"previously":5097,"organiz":5098,"sources":5099,"treatment":5100,"texas":5101,"mike":5102,"##ona":5103,"##sey":5104,"noted":5105,"##unt":5106,"driving":5107,"actions":5108,"politic":5109,"condition":5110,"strategy":5111,"died":5112,"##aur":5113,"illeg":5114,"bottom":5115,"straight":5116,"wil":5117,"##iate":5118,"contain":5119,"continues":5120,"ms":5121,"thom":5122,"places":5123,"affect":5124,"benefits":5125,"behavior":5126,"speaking":5127,"double":5128,"##li":5129,"##ki":5130,"station":5131,"2018":5132,"apart":5133,"gh":5134,"gay":5135,"nice":5136,"therefore":5137,"produced":5138,"minimum":5139,"request":5140,"##istry":5141,"##eno":5142,"powerful":5143,"generation":5144,"necessary":5145,"mist":5146,"trib":5147,"adj":5148,"decades":5149,"highest":5150,"kept":5151,"pattern":5152,"challenge":5153,"mel":5154,"nations":5155,"compar":5156,"partners":5157,"easily":5158,"domin":5159,"weapons":5160,"gree":5161,"rare":5162,"weight":5163,"qual":5164,"indeed":5165,"female":5166,"leaving":5167,"##ula":5168,"spend":5169,"syn":5170,"caused":5171,"36":5172,"goals":5173,"##iance":5174,"propos":5175,"successful":5176,"##ici":5177,"##amb":5178,"weekend":5179,"angel":5180,"fat":5181,"80":5182,"kr":5183,"nut":5184,"tough":5185,"##rec":5186,"spr":5187,"chem":5188,"##room":5189,"picture":5190,"##lor":5191,"##ato":5192,"frank":5193,"destro":5194,"wonder":5195,"pac":5196,"tro":5197,"mostly":5198,"transport":5199,"seemed":5200,"industr":5201,"creating":5202,"bed":5203,"hus":5204,"##down":5205,"management":5206,"christian":5207,"influence":5208,"75":5209,"gal":5210,"lic":5211,"##unk":5212,"raised":5213,"etc":5214,"benefit":5215,"george":5216,"professor":5217,"jazz":5218,"fighting":5219,"environmental":5220,"##roid":5221,"##amples":5222,"flight":5223,"patients":5224,"appeared":5225,"initial":5226,"cities":5227,"notes":5228,"charge":5229,"fox":5230,"##while":5231,"confirmed":5232,"##iar":5233,"pair":5234,"opening":5235,"marriage":5236,"television":5237,"jew":5238,"##uana":5239,"programs":5240,"libr":5241,"##aughter":5242,"ec":5243,"tend":5244,"whom":5245,"194":5246,"knows":5247,"memory":5248,"sales":5249,"##ste":5250,"chap":5251,"machine":5252,"length":5253,"##iced":5254,"lawy":5255,"signed":5256,"opened":5257,"records":5258,"millions":5259,"traffic":5260,"##put":5261,"franc":5262,"defensive":5263,"opposition":5264,"lou":5265,"los":5266,"##iel":5267,"adop":5268,"grant":5269,"quant":5270,"species":5271,"send":5272,"recover":5273,"debt":5274,"thomas":5275,"nine":5276,"##hi":5277,"##ented":5278,"react":5279,"sea":5280,"fresh":5281,"##itely":5282,"happens":5283,"funding":5284,"95":5285,"rat":5286,"##ches":5287,"##ibution":5288,"brief":5289,"generally":5290,"chicago":5291,"rub":5292,"##iles":5293,"##iled":5294,"enforce":5295,"options":5296,"operations":5297,"survey":5298,"agreed":5299,"ali":5300,"uns":5301,"residents":5302,"parties":5303,"audience":5304,"hack":5305,"##ya":5306,"troub":5307,"magaz":5308,"dollars":5309,"families":5310,"anc":5311,"limit":5312,"banks":5313,"display":5314,"competition":5315,"massive":5316,"favorite":5317,"traditional":5318,"ber":5319,"##ba":5320,"##itz":5321,"score":5322,"mah":5323,"professional":5324,"male":5325,"rid":5326,"enem":5327,"##ube":5328,"owners":5329,"understanding":5330,"martin":5331,"##bon":5332,"##onents":5333,"##aked":5334,"brew":5335,"occurr":5336,"choose":5337,"##oft":5338,"feet":5339,"false":5340,"90":5341,"ye":5342,"##uge":5343,"fort":5344,"##ishing":5345,"infr":5346,"occas":5347,"spirit":5348,"64":5349,"70":5350,"vac":5351,"org":5352,"subm":5353,"allows":5354,"windows":5355,"japanese":5356,"mir":5357,"stick":5358,"adult":5359,"scott":5360,"adding":5361,"advoc":5362,"claimed":5363,"rank":5364,"##itness":5365,"whe":5366,"commerc":5367,"assault":5368,"investment":5369,"39":5370,"cas":5371,"river":5372,"wing":5373,"##agon":5374,"robert":5375,"switch":5376,"customers":5377,"floor":5378,"##itude":5379,"##ifying":5380,"spect":5381,"cru":5382,"firm":5383,"accomp":5384,"seeing":5385,"insur":5386,"solid":5387,"canadian":5388,"##ijuana":5389,"##band":5390,"incred":5391,"load":5392,"supporters":5393,"protest":5394,"cells":5395,"separate":5396,"du":5397,"spring":5398,"hillary":5399,"purpose":5400,"models":5401,"##ropri":5402,"syria":5403,"fif":5404,"##iring":5405,"bull":5406,"controver":5407,"snow":5408,"offensive":5409,"driver":5410,"parl":5411,"proper":5412,"islamic":5413,"##10":5414,"stock":5415,"trip":5416,"hundreds":5417,"comfort":5418,"graph":5419,"charges":5420,"produce":5421,"putting":5422,"interested":5423,"sites":5424,"attract":5425,"##iverse":5426,"provides":5427,"bag":5428,"sad":5429,"stone":5430,"explained":5431,"palest":5432,"establish":5433,"hor":5434,"math":5435,"##iest":5436,"##itor":5437,"beaut":5438,"served":5439,"unfortun":5440,"crew":5441,"southern":5442,"award":5443,"names":5444,"##iro":5445,"shared":5446,"instr":5447,"catch":5448,"era":5449,"##ario":5450,"android":5451,"shel":5452,"emot":5453,"transl":5454,"doubt":5455,"worse":5456,"negative":5457,"obviously":5458,"65":5459,"kar":5460,"##dom":5461,"feeling":5462,"cab":5463,"nfl":5464,"##zen":5465,"##icient":5466,"candidates":5467,"digital":5468,"birth":5469,"bomb":5470,"diet":5471,"##cing":5472,"france":5473,"exerc":5474,"active":5475,"extremely":5476,"coffee":5477,"##nn":5478,"##essed":5479,"poly":5480,"communities":5481,"legislation":5482,"camera":5483,"ther":5484,"amb":5485,"coast":5486,"finding":5487,"learned":5488,"device":5489,"scientists":5490,"richard":5491,"##ta":5492,"spl":5493,"cold":5494,"refuge":5495,"parliam":5496,"##yl":5497,"heat":5498,"worst":5499,"##vin":5500,"##cul":5501,"##ston":5502,"dism":5503,"marijuana":5504,"actual":5505,"assum":5506,"##apped":5507,"lose":5508,"2006":5509,"responsible":5510,"becoming":5511,"neighbor":5512,"commercial":5513,"mos":5514,"rough":5515,"##lied":5516,"beer":5517,"closed":5518,"offered":5519,"annual":5520,"believed":5521,"effective":5522,"johnson":5523,"##ipping":5524,"protection":5525,"concerns":5526,"vehicle":5527,"lad":5528,"##ext":5529,"##outh":5530,"iron":5531,"advantage":5532,"fant":5533,"sher":5534,"##odies":5535,"explain":5536,"israeli":5537,"border":5538,"##more":5539,"acqu":5540,"showing":5541,"owner":5542,"standing":5543,"employees":5544,"jeff":5545,"##vant":5546,"##eline":5547,"prefer":5548,"caption":5549,"institute":5550,"migr":5551,"northern":5552,"victory":5553,"items":5554,"dangerous":5555,"exchange":5556,"43":5557,"si":5558,"wage":5559,"##uries":5560,"##che":5561,"wealth":5562,"##estic":5563,"##aine":5564,"sport":5565,"plays":5566,"elements":5567,"prices":5568,"##uters":5569,"parliament":5570,"witness":5571,"register":5572,"optim":5573,"announce":5574,"entirely":5575,"nas":5576,"rates":5577,"##la":5578,"##ica":5579,"commit":5580,"supply":5581,"##board":5582,"##iber":5583,"##airs":5584,"construction":5585,"tools":5586,"magazine":5587,"master":5588,"##ville":5589,"##semb":5590,"solution":5591,"revealed":5592,"cash":5593,"luck":5594,"##cell":5595,"governor":5596,"arrested":5597,"apparently":5598,"49":5599,"horr":5600,"vice":5601,"##iling":5602,"##ounds":5603,"convention":5604,"temper":5605,"slightly":5606,"os":5607,"stad":5608,"planned":5609,"random":5610,"illegal":5611,"francis":5612,"300":5613,"cath":5614,"##gs":5615,"##inate":5616,"usa":5617,"##ipl":5618,"##izes":5619,"otherwise":5620,"transform":5621,"values":5622,"tests":5623,"batter":5624,"kid":5625,"##wood":5626,"shop":5627,"coop":5628,"watching":5629,"failure":5630,"holding":5631,"application":5632,"rang":5633,"ton":5634,"##ipe":5635,"joined":5636,"48":5637,"2000":5638,"##aves":5639,"fourth":5640,"##ospect":5641,"suspect":5642,"42":5643,"mail":5644,"##isation":5645,"##ota":5646,"##oted":5647,"fellow":5648,"flag":5649,"ensure":5650,"ko":5651,"##erry":5652,"advis":5653,"zone":5654,"##ushing":5655,"##umn":5656,"centre":5657,"supreme":5658,"channel":5659,"alex":5660,"bul":5661,"##olic":5662,"truly":5663,"##antly":5664,"easier":5665,"meanwhile":5666,"argument":5667,"##stein":5668,"ham":5669,"pc":5670,"sam":5671,"asking":5672,"frame":5673,"##oster":5674,"controll":5675,"glass":5676,"markets":5677,"listen":5678,"38":5679,"hate":5680,"laugh":5681,"##onent":5682,"##ano":5683,"span":5684,"farm":5685,"vari":5686,"existing":5687,"negot":5688,"storm":5689,"serve":5690,"division":5691,"achieve":5692,"bowl":5693,"dar":5694,"gather":5695,"profile":5696,"opinion":5697,"stadium":5698,"52":5699,"wish":5700,"##my":5701,"##icted":5702,"construct":5703,"surround":5704,"##bur":5705,"##ca":5706,"##house":5707,"braz":5708,"offers":5709,"fell":5710,"partner":5711,"discussion":5712,"virgin":5713,"concerned":5714,"replace":5715,"introduced":5716,"conversation":5717,"hind":5718,"mere":5719,"##men":5720,"##da":5721,"novel":5722,"string":5723,"transfer":5724,"##coming":5725,"pin":5726,"##wide":5727,"##inct":5728,"onto":5729,"sav":5730,"unp":5731,"proposed":5732,"##acity":5733,"##abb":5734,"bob":5735,"decisions":5736,"solar":5737,"initi":5738,"documents":5739,"recommend":5740,"##ih":5741,"##time":5742,"##11":5743,"bell":5744,"minute":5745,"##ancy":5746,"micros":5747,"44":5748,"waiting":5749,"definitely":5750,"##kin":5751,"mayor":5752,"revolution":5753,"spokesman":5754,"jim":5755,"wat":5756,"##rem":5757,"doct":5758,"apply":5759,"193":5760,"missing":5761,"types":5762,"afford":5763,"sounds":5764,"destroy":5765,"comed":5766,"athlet":5767,"adjust":5768,"enforcement":5769,"##fs":5770,"hearing":5771,"resist":5772,"breaking":5773,"55":5774,"pap":5775,"tant":5776,"##bl":5777,"aspect":5778,"clin":5779,"##know":5780,"ultimately":5781,"removed":5782,"louis":5783,"bern":5784,"gain":5785,"jose":5786,"tack":5787,"interp":5788,"fuel":5789,"supported":5790,"allowing":5791,"largely":5792,"repeated":5793,"getty":5794,"decade":5795,"planning":5796,"experts":5797,"medicine":5798,"mobile":5799,"murder":5800,"ju":5801,"##ingly":5802,"runs":5803,"tells":5804,"##works":5805,"infrastr":5806,"carol":5807,"detect":5808,"homes":5809,"gop":5810,"stated":5811,"highlight":5812,"direction":5813,"arrived":5814,"basis":5815,"housing":5816,"library":5817,"saud":5818,"surface":5819,"older":5820,"steph":5821,"scientology":5822,"williams":5823,"##eren":5824,"guess":5825,"requires":5826,"streets":5827,"coverage":5828,"domain":5829,"rain":5830,"consequ":5831,"train":5832,"context":5833,"edge":5834,"turns":5835,"sky":5836,"restaur":5837,"purs":5838,"focused":5839,"launched":5840,"fle":5841,"##ada":5842,"suc":5843,"acknow":5844,"seek":5845,"differences":5846,"elections":5847,"stopped":5848,"copyr":5849,"discovered":5850,"copyright":5851,"ps":5852,"rog":5853,"reuters":5854,"depend":5855,"becomes":5856,"ram":5857,"##ym":5858,"##odes":5859,"##abor":5860,"spoke":5861,"doctor":5862,"crash":5863,"accused":5864,"##azy":5865,"telling":5866,"activities":5867,"suggested":5868,"faith":5869,"pu":5870,"tow":5871,"##ige":5872,"##ils":5873,"atl":5874,"##issions":5875,"schem":5876,"useful":5877,"participants":5878,"infrastructure":5879,"ren":5880,"##gl":5881,"england":5882,"specifically":5883,"prosecut":5884,"rs":5885,"sust":5886,"appoint":5887,"strike":5888,"background":5889,"carl":5890,"absolutely":5891,"jes":5892,"vul":5893,"unless":5894,"britain":5895,"ded":5896,"yell":5897,"##ole":5898,"plants":5899,"attend":5900,"2003":5901,"issued":5902,"alternative":5903,"disease":5904,"66":5905,"##atically":5906,"##ulf":5907,"##igned":5908,"setting":5909,"african":5910,"tweet":5911,"na":5912,"reject":5913,"appeal":5914,"mont":5915,"miles":5916,"obvious":5917,"##eness":5918,"basically":5919,"identified":5920,"emergency":5921,"41":5922,"bon":5923,"ty":5924,"##ka":5925,"##ani":5926,"##olf":5927,"weak":5928,"democracy":5929,"##isf":5930,"##osen":5931,"interact":5932,"writ":5933,"providing":5934,"developing":5935,"domestic":5936,"injury":5937,"imagine":5938,"dim":5939,"eat":5940,"tun":5941,"##ius":5942,"##za":5943,"##cel":5944,"bridge":5945,"imposs":5946,"skin":5947,"feels":5948,"skills":5949,"##arm":5950,"##acher":5951,"earn":5952,"2005":5953,"articles":5954,"files":5955,"smaller":5956,"https":5957,"subscrib":5958,"conflict":5959,"las":5960,"vast":5961,"##uate":5962,"ship":5963,"##pper":5964,"##ption":5965,"believes":5966,"leadership":5967,"princip":5968,"degree":5969,"identity":5970,"balance":5971,"relatively":5972,"zero":5973,"##oom":5974,"##itable":5975,"hasn":5976,"crack":5977,"immigration":5978,"sleep":5979,"alloc":5980,"interests":5981,"healthy":5982,"suggests":5983,"hang":5984,"pil":5985,"assemb":5986,"returned":5987,"dropped":5988,"47":5989,"##usion":5990,"appropri":5991,"accounts":5992,"studio":5993,"##ression":5994,"corporate":5995,"rapid":5996,"rush":5997,"##gb":5998,"##equ":5999,"##ront":6000,"##aks":6001,"newsp":6002,"2019":6003,"advanced":6004,"keeping":6005,"honest":6006,"regarding":6007,"established":6008,"##oked":6009,"coord":6010,"standards":6011,"paying":6012,"scientific":6013,"girls":6014,"##ulated":6015,"cancer":6016,"photograph":6017,"operation":6018,"window":6019,"originally":6020,"palestin":6021,"rene":6022,"task":6023,"##gers":6024,"prospect":6025,"seed":6026,"reduce":6027,"##cription":6028,"victims":6029,"cart":6030,"cards":6031,"sitting":6032,"##ques":6033,"wars":6034,"currency":6035,"instruct":6036,"54":6037,"gard":6038,"consc":6039,"2001":6040,"senator":6041,"raise":6042,"ron":6043,"##ox":6044,"##nel":6045,"##irt":6046,"neither":6047,"drivers":6048,"testing":6049,"businesses":6050,"views":6051,"innov":6052,"ment":6053,"ox":6054,"rose":6055,"ryan":6056,"##osh":6057,"cloud":6058,"seconds":6059,"changing":6060,"sharp":6061,"##enoord":6062,"unfortunately":6063,"53":6064,"bond":6065,"resc":6066,"carbon":6067,"metal":6068,"terrorism":6069,"impossible":6070,"01":6071,"mary":6072,"tact":6073,"##ae":6074,"##ris":6075,"##ari":6076,"trick":6077,"abuse":6078,"afgh":6079,"twice":6080,"accur":6081,"owned":6082,"labour":6083,"steps":6084,"budd":6085,"responsibility":6086,"fol":6087,"gall":6088,"placed":6089,"proceed":6090,"managed":6091,"possibility":6092,"conclud":6093,"equal":6094,"privacy":6095,"committed":6096,"veter":6097,"stan":6098,"##ulate":6099,"discrim":6100,"location":6101,"##arko":6102,"exclus":6103,"dollar":6104,"pip":6105,"##onom":6106,"pool":6107,"presence":6108,"swed":6109,"##resp":6110,"korea":6111,"##icip":6112,"##istics":6113,"recall":6114,"##otten":6115,"mentioned":6116,"purchase":6117,"powers":6118,"aircraft":6119,"harm":6120,"voting":6121,"equip":6122,"dyn":6123,"ped":6124,"wear":6125,"##emen":6126,"broken":6127,"symb":6128,"flat":6129,"africa":6130,"organizations":6131,"chapter":6132,"vision":6133,"##ener":6134,"amend":6135,"eval":6136,"capacity":6137,"##ception":6138,"stars":6139,"measures":6140,"##going":6141,"yards":6142,"##inn":6143,"finished":6144,"##onto":6145,"votes":6146,"arms":6147,"yeah":6148,"ken":6149,"##antic":6150,"##roll":6151,"facing":6152,"losing":6153,"nick":6154,"sac":6155,"wik":6156,"##itory":6157,"intel":6158,"parent":6159,"bigger":6160,"internal":6161,"philos":6162,"angeles":6163,"brazil":6164,"lie":6165,"##ble":6166,"tourn":6167,"affected":6168,"##onym":6169,"presented":6170,"attempts":6171,"neighborhood":6172,"nh":6173,"helping":6174,"considering":6175,"sudden":6176,"aware":6177,"sides":6178,"##tained":6179,"variety":6180,"figures":6181,"greek":6182,"sector":6183,"##enses":6184,"buff":6185,"familiar":6186,"oly":6187,"##ata":6188,"##ola":6189,"neur":6190,"alleg":6191,"##erties":6192,"elected":6193,"factors":6194,"planet":6195,"patr":6196,"visual":6197,"taxes":6198,"ceo":6199,"mexico":6200,"rum":6201,"clar":6202,"charged":6203,"factor":6204,"technical":6205,"devices":6206,"##ophy":6207,"broadcast":6208,"complexity":6209,"toronto":6210,"occurred":6211,"dial":6212,"tight":6213,"killing":6214,"connection":6215,"afghan":6216,"46":6217,"mental":6218,"##iated":6219,"##inating":6220,"##agr":6221,"##ander":6222,"craft":6223,"guide":6224,"circum":6225,"lived":6226,"mas":6227,"sample":6228,"##ker":6229,"beach":6230,"weather":6231,"diss":6232,"struct":6233,"instance":6234,"protes":6235,"funds":6236,"cuts":6237,"linked":6238,"nyarko":6239,"daughter":6240,"jon":6241,"##pm":6242,"##awn":6243,"moon":6244,"potentially":6245,"publish":6246,"politicians":6247,"beautif":6248,"olymp":6249,"caught":6250,"mand":6251,"##gu":6252,"##aud":6253,"##kins":6254,"##arant":6255,"##outs":6256,"compr":6257,"seriously":6258,"founder":6259,"famous":6260,"penn":6261,"##mas":6262,"##town":6263,"##ship":6264,"##ania":6265,"param":6266,"voted":6267,"fi":6268,"fest":6269,"jones":6270,"rail":6271,"supporting":6272,"cultural":6273,"drugs":6274,"51":6275,"bbc":6276,"lake":6277,"concent":6278,"consult":6279,"positions":6280,"steve":6281,"appearance":6282,"recorded":6283,"faced":6284,"widely":6285,"coalition":6286,"microsoft":6287,"gi":6288,"horn":6289,"rod":6290,"##uel":6291,"##igan":6292,"prepared":6293,"insurance":6294,"bes":6295,"mort":6296,"wid":6297,"shape":6298,"##enda":6299,"assess":6300,"magic":6301,"motiv":6302,"hurt":6303,"##ken":6304,"##itation":6305,"alt":6306,"worry":6307,"remind":6308,"remained":6309,"governments":6310,"charl":6311,"passing":6312,"faster":6313,"tag":6314,"spons":6315,"clim":6316,"fired":6317,"signs":6318,"eastern":6319,"methods":6320,"liqu":6321,"baby":6322,"##nam":6323,"##aded":6324,"##uls":6325,"carr":6326,"##others":6327,"typically":6328,"cannab":6329,"penal":6330,"saudi":6331,"bodies":6332,"sor":6333,"##right":6334,"##head":6335,"##agn":6336,"##anta":6337,"armed":6338,"joint":6339,"throw":6340,"wrest":6341,"finish":6342,"arrest":6343,"videos":6344,"proposal":6345,"concentr":6346,"##hol":6347,"teen":6348,"resident":6349,"writer":6350,"starts":6351,"elim":6352,"weapon":6353,"satisf":6354,"egypt":6355,"increasingly":6356,"gender":6357,"gaming":6358,"jun":6359,"weren":6360,"##uous":6361,"##oned":6362,"##igg":6363,"nobody":6364,"emph":6365,"##well":6366,"ministry":6367,"refused":6368,"amazing":6369,"nasa":6370,"equipment":6371,"##lig":6372,"##lies":6373,"##uted":6374,"selling":6375,"##essions":6376,"collection":6377,"premier":6378,"din":6379,"##ding":6380,"carried":6381,"engineering":6382,"carolina":6383,"cow":6384,"ire":6385,"##enger":6386,"##agues":6387,"trail":6388,"covered":6389,"linux":6390,"husband":6391,"##18":6392,"##ibute":6393,"decide":6394,"seeking":6395,"guarant":6396,"talks":6397,"fixed":6398,"industrial":6399,"lu":6400,"##iot":6401,"agent":6402,"fey":6403,"forms":6404,"possibly":6405,"happening":6406,"copy":6407,"panel":6408,"analyst":6409,"##32":6410,"complic":6411,"statements":6412,"2002":6413,"argued":6414,"totally":6415,"sar":6416,"##fc":6417,"sharing":6418,"shift":6419,"intended":6420,"default":6421,"magn":6422,"corner":6423,"troops":6424,"85":6425,"##do":6426,"retr":6427,"wearing":6428,"orange":6429,"##emp":6430,"##ansion":6431,"2004":6432,"investors":6433,"practices":6434,"entertain":6435,"suffered":6436,"astr":6437,"bost":6438,"jav":6439,"tiss":6440,"reference":6441,"sequ":6442,"seasons":6443,"##ogen":6444,"recru":6445,"proced":6446,"bringing":6447,"shares":6448,"pak":6449,"##lock":6450,"##lines":6451,"##real":6452,"##tered":6453,"seg":6454,"##pped":6455,"schol":6456,"tempor":6457,"hawai":6458,"bid":6459,"##uations":6460,"rein":6461,"##iders":6462,"abortion":6463,"##gry":6464,"writes":6465,"defence":6466,"paris":6467,"retire":6468,"revenue":6469,"terrorist":6470,"filled":6471,"category":6472,"error":6473,"##aints":6474,"column":6475,"pointed":6476,"handle":6477,"lots":6478,"conclus":6479,"initially":6480,"challenges":6481,"iv":6482,"les":6483,"util":6484,"##gor":6485,"##aj":6486,"##ez":6487,"stret":6488,"##illing":6489,"agencies":6490,"confidence":6491,"ruling":6492,"combined":6493,"australian":6494,"400":6495,"aid":6496,"gap":6497,"ske":6498,"wire":6499,"##30":6500,"##stream":6501,"royal":6502,"guid":6503,"remaining":6504,"posts":6505,"consumer":6506,"essential":6507,"chairman":6508,"boston":6509,"fish":6510,"mun":6511,"##acing":6512,"##verse":6513,"expensive":6514,"joe":6515,"fing":6516,"rup":6517,"anth":6518,"plenty":6519,"nov":6520,"aftern":6521,"implic":6522,"deput":6523,"identify":6524,"updates":6525,"employment":6526,"motion":6527,"miller":6528,"customer":6529,"vehicles":6530,"conducted":6531,"ancient":6532,"oce":6533,"pic":6534,"##owed":6535,"##ocol":6536,"helps":6537,"schedul":6538,"breat":6539,"jail":6540,"pages":6541,"##bn":6542,"##omen":6543,"myth":6544,"marg":6545,"boost":6546,"secure":6547,"flash":6548,"maintain":6549,"grew":6550,"regardless":6551,"leaves":6552,"okay":6553,"cu":6554,"cia":6555,"ring":6556,"##ita":6557,"evil":6558,"scores":6559,"everybody":6560,"developers":6561,"conservatives":6562,"substant":6563,"virginia":6564,"##mark":6565,"examples":6566,"anyway":6567,"electron":6568,"exercise":6569,"3d":6570,"fake":6571,"kat":6572,"lit":6573,"mu":6574,"##any":6575,"##ales":6576,"shad":6577,"accident":6578,"belong":6579,"turning":6580,"matters":6581,"element":6582,"sale":6583,"tast":6584,"##isher":6585,"##stone":6586,"seat":6587,"##oking":6588,"brad":6589,"edition":6590,"remove":6591,"greatest":6592,"winter":6593,"excited":6594,"urban":6595,"hotel":6596,"animals":6597,"entry":6598,"roughly":6599,"##wr":6600,"##how":6601,"##erate":6602,"offering":6603,"##ords":6604,"##ensions":6605,"formula":6606,"plane":6607,"audio":6608,"feyenoord":6609,"ell":6610,"om":6611,"rot":6612,"tap":6613,"##gen":6614,"##osure":6615,"apprec":6616,"playoff":6617,"##ictions":6618,"perspect":6619,"encoun":6620,"determined":6621,"dismiss":6622,"renew":6623,"emphas":6624,"fbi":6625,"##19":6626,"##erous":6627,"isis":6628,"spell":6629,"universe":6630,"distance":6631,"circumst":6632,"##pass":6633,"topic":6634,"filed":6635,"increases":6636,"guns":6637,"pictures":6638,"soldiers":6639,"estimated":6640,"chemical":6641,"protesters":6642,"thread":6643,"##oma":6644,"##ette":6645,"##amental":6646,"##kel":6647,"##ighter":6648,"lee":6649,"columb":6650,"creative":6651,"determine":6652,"animal":6653,"interpret":6654,"afternoon":6655,"viet":6656,"forget":6657,"##ura":6658,"##ansas":6659,"crimes":6660,"##ucks":6661,"regime":6662,"subsequ":6663,"quarterback":6664,"experienced":6665,"closer":6666,"mahiro":6667,"vulner":6668,"56":6669,"native":6670,"yemen":6671,"##aver":6672,"##xual":6673,"##icated":6674,"frustr":6675,"##ours":6676,"##ucing":6677,"leads":6678,"advance":6679,"newslet":6680,"criticism":6681,"tiny":6682,"##der":6683,"##point":6684,"andrew":6685,"cry":6686,"herself":6687,"located":6688,"##atured":6689,"critics":6690,"declared":6691,"femin":6692,"ireland":6693,"ba":6694,"bure":6695,"##bre":6696,"##ini":6697,"congr":6698,"##ights":6699,"intent":6700,"mars":6701,"paral":6702,"personally":6703,"datab":6704,"jesus":6705,"bol":6706,"vent":6707,"##ati":6708,"##otyp":6709,"aside":6710,"involve":6711,"motor":6712,"##ography":6713,"essentially":6714,"communication":6715,"disappoint":6716,"youth":6717,"##abilities":6718,"ariz":6719,"featured":6720,"dram":6721,"evening":6722,"finance":6723,"extent":6724,"christmas":6725,"entered":6726,"micro":6727,"applications":6728,"##reh":6729,"forg":6730,"##uration":6731,"asia":6732,"comic":6733,"communications":6734,"gm":6735,"hat":6736,"ash":6737,"##atell":6738,"strange":6739,"humans":6740,"##loyment":6741,"updated":6742,"consumers":6743,"az":6744,"bound":6745,"mut":6746,"##ias":6747,"##ket":6748,"##yc":6749,"##isters":6750,"##ayed":6751,"discl":6752,"talent":6753,"admitted":6754,"observ":6755,"significantly":6756,"lawsuit":6757,"expressed":6758,"pulled":6759,"experiment":6760,"lock":6761,"nic":6762,"row":6763,"rally":6764,"##ss":6765,"ongoing":6766,"##urb":6767,"contrast":6768,"##othes":6769,"mode":6770,"findings":6771,"reduced":6772,"functions":6773,"connected":6774,"treas":6775,"turk":6776,"surprising":6777,"lawyer":6778,"trouble":6779,"beautiful":6780,"tissue":6781,"bureau":6782,"cnn":6783,"fash":6784,"tail":6785,"##enth":6786,"offense":6787,"explo":6788,"##ups":6789,"fundamental":6790,"completed":6791,"institutions":6792,"ghost":6793,"ol":6794,"sought":6795,"##aling":6796,"shock":6797,"##ager":6798,"valid":6799,"##standing":6800,"##ibuted":6801,"##inet":6802,"##oms":6803,"units":6804,"crazy":6805,"##izz":6806,"##roit":6807,"silver":6808,"jersey":6809,"francisco":6810,"battery":6811,"symbol":6812,"entertainment":6813,"##asy":6814,"##illa":6815,"prove":6816,"boys":6817,"advice":6818,"approx":6819,"broke":6820,"radical":6821,"yester":6822,"responded":6823,"hopes":6824,"village":6825,"controvers":6826,"gang":6827,"nba":6828,"rising":6829,"wake":6830,"wave":6831,"proud":6832,"resol":6833,"legit":6834,"corrupt":6835,"explan":6836,"classic":6837,"opportunities":6838,"teaching":6839,"pakistan":6840,"62":6841,"giant":6842,"satell":6843,"tear":6844,"reaction":6845,"reserve":6846,"phase":6847,"shouldn":6848,"thoughts":6849,"faces":6850,"emails":6851,"yesterday":6852,"##isted":6853,"##abe":6854,"scar":6855,"regional":6856,"wins":6857,"##place":6858,"reportedly":6859,"collabor":6860,"script":6861,"galax":6862,"negoti":6863,"fashion":6864,"bare":6865,"batt":6866,"gear":6867,"##ns":6868,"##onic":6869,"yout":6870,"shr":6871,"pled":6872,"reporters":6873,"joke":6874,"knowing":6875,"##ologies":6876,"capable":6877,"ukr":6878,"illustr":6879,"amazon":6880,"bought":6881,"##acle":6882,"teacher":6883,"detroit":6884,"150":6885,"importance":6886,"violent":6887,"academic":6888,"begins":6889,"pure":6890,"##arks":6891,"aband":6892,"sci":6893,"stress":6894,"married":6895,"decre":6896,"monit":6897,"opposed":6898,"operating":6899,"sugar":6900,"discussed":6901,"volume":6902,"kingdom":6903,"newspaper":6904,"##de":6905,"##amin":6906,"missed":6907,"stream":6908,"movies":6909,"package":6910,"enemy":6911,"stretch":6912,"##ador":6913,"hey":6914,"excell":6915,"gov":6916,"amp":6917,"scot":6918,"192":6919,"warning":6920,"realize":6921,"moral":6922,"activists":6923,"treated":6924,"declined":6925,"jackson":6926,"kir":6927,"##onna":6928,"resolution":6929,"perman":6930,"##encing":6931,"relevant":6932,"existence":6933,"wilson":6934,"merely":6935,"##ii":6936,"##rees":6937,"forest":6938,"chart":6939,"##ector":6940,"drag":6941,"phen":6942,"warr":6943,"ordered":6944,"affairs":6945,"argue":6946,"enterpr":6947,"champion":6948,"honor":6949,"pieces":6950,"muslims":6951,"virtual":6952,"welcome":6953,"papers":6954,"dynam":6955,"ocean":6956,"##tle":6957,"exhib":6958,"##anda":6959,"usual":6960,"upgr":6961,"flav":6962,"ends":6963,"warned":6964,"auto":6965,"readers":6966,"memor":6967,"promise":6968,"walking":6969,"italy":6970,"restaurant":6971,"bat":6972,"morm":6973,"##dp":6974,"##inent":6975,"##rel":6976,"##abil":6977,"##uster":6978,"charles":6979,"follows":6980,"surprise":6981,"wheel":6982,"##erb":6983,"##itect":6984,"##iture":6985,"cham":6986,"contains":6987,"##what":6988,"films":6989,"distribution":6990,"latter":6991,"destr":6992,"assistant":6993,"uncert":6994,"drinking":6995,"##respond":6996,"tournament":6997,"63":6998,"##makers":6999,"##icit":7000,"##ading":7001,"atm":7002,"algor":7003,"##aped":7004,"incor":7005,"reporting":7006,"talked":7007,"correspond":7008,"household":7009,"profit":7010,"causes":7011,"competitive":7012,"deaths":7013,"flood":7014,"dogs":7015,"syrian":7016,"literally":7017,"therap":7018,"afghanistan":7019,"fasc":7020,"hr":7021,"proof":7022,"agenda":7023,"expansion":7024,"sym":7025,"buildings":7026,"squad":7027,"injuries":7028,"route":7029,"algorith":7030,"##nic":7031,"forum":7032,"gross":7033,"opponents":7034,"slowly":7035,"py":7036,"ray":7037,"sick":7038,"theat":7039,"##iti":7040,"##ache":7041,"quiet":7042,"underst":7043,"defined":7044,"##lands":7045,"percentage":7046,"severe":7047,"injured":7048,"deputy":7049,"perspective":7050,"cens":7051,"muse":7052,"##otic":7053,"shots":7054,"unus":7055,"applied":7056,"ourselves":7057,"depth":7058,"numerous":7059,"electr":7060,"picked":7061,"heavily":7062,"turkey":7063,"architect":7064,"amendment":7065,"dad":7066,"mouth":7067,"ride":7068,"forth":7069,"desk":7070,"transition":7071,"milk":7072,"tested":7073,"correl":7074,"exception":7075,"defeat":7076,"comfortable":7077,"split":7078,"writers":7079,"youtube":7080,"cos":7081,"cole":7082,"driven":7083,"anywhere":7084,"##road":7085,"kevin":7086,"combat":7087,"objects":7088,"##draw":7089,"jewish":7090,"spanish":7091,"bench":7092,"neut":7093,"##usal":7094,"marc":7095,"serving":7096,"nearby":7097,"trading":7098,"traditions":7099,"unlikely":7100,"comparison":7101,"dipl":7102,"hoc":7103,"mi":7104,"##16":7105,"##edia":7106,"suit":7107,"bright":7108,"somewhat":7109,"thinks":7110,"prompt":7111,"causing":7112,"controversial":7113,"59":7114,"rend":7115,"##iration":7116,"weird":7117,"allen":7118,"manning":7119,"warm":7120,"confident":7121,"universal":7122,"younger":7123,"journey":7124,"historical":7125,"disappear":7126,"manufactur":7127,"occasion":7128,"conscious":7129,"hide":7130,"luc":7131,"ru":7132,"rif":7133,"raw":7134,"wound":7135,"##po":7136,"##lets":7137,"explains":7138,"soul":7139,"greg":7140,"basket":7141,"watched":7142,"links":7143,"peter":7144,"accepted":7145,"surveill":7146,"sustain":7147,"##pa":7148,"branch":7149,"##ached":7150,"dish":7151,"flow":7152,"campus":7153,"authors":7154,"denied":7155,"cheap":7156,"subjects":7157,"##iciency":7158,"mathem":7159,"fab":7160,"mm":7161,"##ml":7162,"##orage":7163,"##lying":7164,"shall":7165,"##osite":7166,"unable":7167,"adapt":7168,"loved":7169,"kelly":7170,"instru":7171,"artist":7172,"advent":7173,"bills":7174,"brook":7175,"moments":7176,"escape":7177,"mine":7178,"tree":7179,"##oul":7180,"isol":7181,"stable":7182,"pra":7183,"trend":7184,"alco":7185,"assert":7186,"##ologist":7187,"##whel":7188,"##iami":7189,"##known":7190,"announcement":7191,"##oe":7192,"##here":7193,"inher":7194,"##ayer":7195,"##ulations":7196,"grown":7197,"overse":7198,"flu":7199,"explos":7200,"effectively":7201,"1998":7202,"represents":7203,"inspired":7204,"allegedly":7205,"appropriate":7206,"surveillance":7207,"57":7208,"72":7209,"boss":7210,"gam":7211,"jord":7212,"lt":7213,"vit":7214,"##iques":7215,"##icing":7216,"sets":7217,"listed":7218,"steel":7219,"fairly":7220,"surprised":7221,"delivered":7222,"immigrants":7223,"sweet":7224,"estimates":7225,"schedule":7226,"buddh":7227,"races":7228,"##bor":7229,"stood":7230,"enh":7231,"acting":7232,"server":7233,"adds":7234,"minim":7235,"##elling":7236,"territory":7237,"marketing":7238,"label":7239,"multi":7240,"attempted":7241,"golden":7242,"michigan":7243,"mountain":7244,"uncertain":7245,"bin":7246,"ht":7247,"lord":7248,"session":7249,"tas":7250,"##era":7251,"##osph":7252,"plug":7253,"decent":7254,"medium":7255,"properties":7256,"config":7257,"harv":7258,"facility":7259,"##anny":7260,"impressive":7261,"registered":7262,"doctors":7263,"ast":7264,"##mates":7265,"##12":7266,"prince":7267,"alert":7268,"dozen":7269,"emissions":7270,"publicly":7271,"letters":7272,"funny":7273,"improved":7274,"cyber":7275,"davis":7276,"expression":7277,"progressive":7278,"ticket":7279,"bang":7280,"tan":7281,"tab":7282,"taught":7283,"##iable":7284,"thir":7285,"##itarian":7286,"##iger":7287,"counsel":7288,"remark":7289,"creation":7290,"approved":7291,"matches":7292,"speaker":7293,"friendly":7294,"teachers":7295,"ohio":7296,"experiences":7297,"constitutional":7298,"partnership":7299,"pacific":7300,"refugees":7301,"joseph":7302,"58":7303,"pir":7304,"##bel":7305,"button":7306,"##acks":7307,"ending":7308,"barack":7309,"victor":7310,"latin":7311,"institution":7312,"queen":7313,"confirm":7314,"guardian":7315,"transportation":7316,"adults":7317,"cannabis":7318,"rupee":7319,"pd":7320,"sin":7321,"voc":7322,"wisc":7323,"##min":7324,"##pir":7325,"##icul":7326,"lew":7327,"scored":7328,"scoring":7329,"targets":7330,"suffering":7331,"necessarily":7332,"subsid":7333,"flying":7334,"cooper":7335,"tantric":7336,"bio":7337,"kim":7338,"patch":7339,"##rison":7340,"##uable":7341,"spain":7342,"agents":7343,"somehow":7344,"fold":7345,"signing":7346,"stands":7347,"strongly":7348,"physics":7349,"baseball":7350,"selection":7351,"colorado":7352,"cycle":7353,"consequences":7354,"paralle":7355,"phenomen":7356,"diplom":7357,"cd":7358,"##taining":7359,"##idden":7360,"##etr":7361,"unknown":7362,"disag":7363,"imper":7364,"facts":7365,"protests":7366,"irish":7367,"walked":7368,"falling":7369,"threats":7370,"owls":7371,"carrying":7372,"scheme":7373,"miami":7374,"pock":7375,"##ek":7376,"##ien":7377,"##uated":7378,"##orted":7379,"##weight":7380,"genetic":7381,"redd":7382,"requirements":7383,"mechanism":7384,"suddenly":7385,"circumstances":7386,"ga":7387,"jay":7388,"kil":7389,"lies":7390,"##ko":7391,"##14":7392,"repr":7393,"overwhel":7394,"recording":7395,"embr":7396,"##onsin":7397,"guil":7398,"extended":7399,"captain":7400,"wisconsin":7401,"dcs":7402,"##wal":7403,"##sl":7404,"shif":7405,"prohib":7406,"meat":7407,"tea":7408,"evolution":7409,"drone":7410,"index":7411,"pover":7412,"classes":7413,"closely":7414,"regulations":7415,"galaxy":7416,"bath":7417,"coc":7418,"sister":7419,"chosen":7420,"aggress":7421,"evol":7422,"scand":7423,"contest":7424,"orders":7425,"cutting":7426,"materials":7427,"maximum":7428,"consistent":7429,"arizona":7430,"jul":7431,"rig":7432,"##rich":7433,"##iser":7434,"bear":7435,"##cher":7436,"chick":7437,"brian":7438,"acts":7439,"buying":7440,"downtown":7441,"##ternal":7442,"ideology":7443,"matt":7444,"approval":7445,"meetings":7446,"compete":7447,"definition":7448,"roger":7449,"scheduled":7450,"jam":7451,"sab":7452,"sight":7453,"##17":7454,"##erves":7455,"##icide":7456,"##char":7457,"sees":7458,"intention":7459,"reput":7460,"desire":7461,"desper":7462,"##ancing":7463,"depending":7464,"officially":7465,"continuing":7466,"heads":7467,"colleagues":7468,"assistance":7469,"adopt":7470,"palestinian":7471,"database":7472,"tort":7473,"##elines":7474,"unemp":7475,"reporter":7476,"apps":7477,"veget":7478,"valley":7479,"debut":7480,"##orrow":7481,"mistake":7482,"quantum":7483,"yellow":7484,"ble":7485,"##lv":7486,"##ck":7487,"##pan":7488,"##aled":7489,"storage":7490,"noticed":7491,"abc":7492,"cruc":7493,"struck":7494,"colon":7495,"directed":7496,"promised":7497,"acknowled":7498,"nhl":7499,"divers":7500,"jur":7501,"kings":7502,"sinc":7503,"##inity":7504,"##inals":7505,"##arters":7506,"disrupt":7507,"worldwide":7508,"##ashed":7509,"promote":7510,"networks":7511,"alongside":7512,"constant":7513,"falls":7514,"observed":7515,"houses":7516,"frequency":7517,"korean":7518,"fifth":7519,"alcohol":7520,"jordan":7521,"##pe":7522,"##arth":7523,"soil":7524,"manif":7525,"blame":7526,"holly":7527,"calcul":7528,"landers":7529,"versions":7530,"selected":7531,"frequently":7532,"struggle":7533,"##chester":7534,"commitment":7535,"tackle":7536,"succeed":7537,"museum":7538,"800":7539,"eric":7540,"likes":7541,"soph":7542,"##west":7543,"stuck":7544,"anonym":7545,"welf":7546,"orient":7547,"leaf":7548,"plot":7549,"moves":7550,"elite":7551,"winner":7552,"topics":7553,"espn":7554,"detailed":7555,"immediate":7556,"daniel":7557,"scenes":7558,"incredible":7559,"incredibly":7560,"poverty":7561,"loud":7562,"tel":7563,"upper":7564,"yog":7565,"##otes":7566,"angry":7567,"regener":7568,"##enny":7569,"stronger":7570,"tracks":7571,"drawn":7572,"polls":7573,"songs":7574,"welfare":7575,"74":7576,"jr":7577,"kong":7578,"ott":7579,"##col":7580,"##ingu":7581,"##unte":7582,"bloom":7583,"empt":7584,"handed":7585,"retail":7586,"fewer":7587,"opposite":7588,"harder":7589,"claiming":7590,"##apping":7591,"shortly":7592,"distinct":7593,"godd":7594,"volunte":7595,"recognize":7596,"controlled":7597,"repeatedly":7598,"intellect":7599,"liquid":7600,"sorry":7601,"foss":7602,"iq":7603,"mur":7604,"thin":7605,"stores":7606,"##asts":7607,"transm":7608,"passion":7609,"deeply":7610,"khan":7611,"italian":7612,"comedy":7613,"columbia":7614,"drew":7615,"liver":7616,"ta":7617,"tall":7618,"##uits":7619,"inqu":7620,"abd":7621,"brothers":7622,"mainstream":7623,"liberals":7624,"odd":7625,"cruz":7626,"festival":7627,"approximately":7628,"dub":7629,"pushing":7630,"rice":7631,"##oral":7632,"##cho":7633,"arts":7634,"allies":7635,"##ologists":7636,"putin":7637,"liberty":7638,"independence":7639,"catal":7640,"dedicated":7641,"assembly":7642,"discrimination":7643,"sacr":7644,"05":7645,"rival":7646,"ont":7647,"shield":7648,"cha":7649,"##apse":7650,"brut":7651,"compens":7652,"compreh":7653,"disaster":7654,"theme":7655,"remote":7656,"confront":7657,"raising":7658,"returning":7659,"kinds":7660,"excess":7661,"performed":7662,"limits":7663,"favour":7664,"hoping":7665,"narrative":7666,"rescue":7667,"guilty":7668,"dall":7669,"iphone":7670,"jason":7671,"##mond":7672,"##eda":7673,"##areness":7674,"sty":7675,"seattle":7676,"upcoming":7677,"somebody":7678,"backed":7679,"humanity":7680,"holds":7681,"titles":7682,"##exp":7683,"racial":7684,"fantasy":7685,"temperature":7686,"icon":7687,"kurd":7688,"##bed":7689,"##ito":7690,"somewhere":7691,"##ifications":7692,"infect":7693,"arguments":7694,"##ographic":7695,"awes":7696,"awareness":7697,"recognition":7698,"pushed":7699,"punish":7700,"contributions":7701,"mixed":7702,"excellent":7703,"dw":7704,"hen":7705,"fraud":7706,"unif":7707,"grass":7708,"crypt":7709,"extension":7710,"extrem":7711,"ruled":7712,"risks":7713,"elsewhere":7714,"navig":7715,"catholic":7716,"aspects":7717,"understood":7718,"98":7719,"hong":7720,"##rd":7721,"##ena":7722,"clock":7723,"client":7724,"strik":7725,"developer":7726,"possession":7727,"typical":7728,"fields":7729,"coaches":7730,"racing":7731,"degrees":7732,"scotland":7733,"bike":7734,"cere":7735,"dc":7736,"nar":7737,"rating":7738,"roster":7739,"##laim":7740,"##onn":7741,"##lla":7742,"truck":7743,"grav":7744,"##ogue":7745,"twin":7746,"disord":7747,"province":7748,"condem":7749,"dealing":7750,"references":7751,"romney":7752,"academy":7753,"hindu":7754,"02":7755,"fiction":7756,"nurs":7757,"sir":7758,"##night":7759,"##imm":7760,"chlor":7761,"1999":7762,"choices":7763,"messages":7764,"hopefully":7765,"conclusion":7766,"hollywood":7767,"eld":7768,"tank":7769,"tony":7770,"##ded":7771,"##sters":7772,"worried":7773,"proved":7774,"##otted":7775,"explor":7776,"solutions":7777,"occur":7778,"sanctions":7779,"scenario":7780,"granted":7781,"04":7782,"67":7783,"bom":7784,"bits":7785,"##oman":7786,"##illy":7787,"lean":7788,"spo":7789,"enth":7790,"rolling":7791,"earned":7792,"courts":7793,"headed":7794,"sentence":7795,"georg":7796,"horned":7797,"sending":7798,"##view":7799,"##inations":7800,"##illed":7801,"dry":7802,"##upid":7803,"artists":7804,"solo":7805,"harass":7806,"taxp":7807,"describe":7808,"resource":7809,"precise":7810,"feedback":7811,"properly":7812,"subscribe":7813,"pilot":7814,"explanation":7815,"61":7816,"68":7817,"eb":7818,"##aire":7819,"##cy":7820,"##dy":7821,"forec":7822,"franch":7823,"unw":7824,"adam":7825,"outcome":7826,"formed":7827,"extensive":7828,"patient":7829,"trees":7830,"describes":7831,"replaced":7832,"referred":7833,"layer":7834,"license":7835,"pi":7836,"vige":7837,"##mat":7838,"##hr":7839,"##fr":7840,"##rey":7841,"stim":7842,"##ilit":7843,"##agan":7844,"trig":7845,"perce":7846,"feat":7847,"breed":7848,"listening":7849,"attacked":7850,"exciting":7851,"controls":7852,"advertising":7853,"historic":7854,"mccain":7855,"nomine":7856,"dominant":7857,"folks":7858,"vigeant":7859,"dal":7860,"gaz":7861,"hubb":7862,"lind":7863,"pump":7864,"reward":7865,"whis":7866,"##chain":7867,"chose":7868,"brings":7869,"newly":7870,"##rete":7871,"techniques":7872,"250":7873,"targeted":7874,"priority":7875,"surrounding":7876,"comprom":7877,"hockey":7878,"dallas":7879,"merc":7880,"##aa":7881,"##een":7882,"##han":7883,"##repr":7884,"pros":7885,"withdraw":7886,"strict":7887,"goods":7888,"discount":7889,"technologies":7890,"funded":7891,"1996":7892,"captured":7893,"combination":7894,"thousand":7895,"purposes":7896,"duty":7897,"stephen":7898,"awesome":7899,"mak":7900,"pok":7901,"sid":7902,"sessions":7903,"##ties":7904,"##esy":7905,"##orse":7906,"##asion":7907,"##etime":7908,"conce":7909,"sole":7910,"output":7911,"##licit":7912,"founded":7913,"legend":7914,"patri":7915,"payments":7916,"clubs":7917,"representative":7918,"answers":7919,"owl":7920,"virtually":7921,"patterns":7922,"mirr":7923,"unusual":7924,"ak":7925,"flex":7926,"hans":7927,"##gg":7928,"height":7929,"agric":7930,"anna":7931,"##cover":7932,"keeps":7933,"musc":7934,"returns":7935,"regularly":7936,"literature":7937,"73":7938,"nbc":7939,"nato":7940,"ros":7941,"rape":7942,"##bell":7943,"##alf":7944,"##asp":7945,"chain":7946,"orch":7947,"alph":7948,"phr":7949,"resulting":7950,"receiving":7951,"minds":7952,"losses":7953,"emerged":7954,"behavi":7955,"hyd":7956,"ultimate":7957,"cycling":7958,"apartment":7959,"scholars":7960,"permanent":7961,"##osphere":7962,"82":7963,"cable":7964,"gate":7965,"hay":7966,"ku":7967,"yield":7968,"regions":7969,"##athan":7970,"realized":7971,"holy":7972,"situations":7973,"facilities":7974,"versus":7975,"replied":7976,"journalists":7977,"premium":7978,"complaint":7979,"lobby":7980,"alien":7981,"electronic":7982,"neutral":7983,"mathemat":7984,"parallel":7985,"reputation":7986,"agricult":7987,"eating":7988,"pul":7989,"pope":7990,"rav":7991,"ts":7992,"tied":7993,"vic":7994,"zeal":7995,"##va":7996,"##isa":7997,"ford":7998,"anger":7999,"outl":8000,"manip":8001,"marsh":8002,"##awa":8003,"mole":8004,"barr":8005,"payment":8006,"similarly":8007,"normally":8008,"lawyers":8009,"philosophy":8010,"bird":8011,"tone":8012,"##ws":8013,"##pg":8014,"ingr":8015,"##itar":8016,"hash":8017,"blocks":8018,"boat":8019,"contem":8020,"deficit":8021,"assume":8022,"supports":8023,"puts":8024,"ideal":8025,"arrange":8026,"entit":8027,"austin":8028,"templ":8029,"congressional":8030,"03":8031,"76":8032,"##lers":8033,"forfe":8034,"##ched":8035,"anx":8036,"alliance":8037,"sov":8038,"##ounced":8039,"marked":8040,"capit":8041,"protected":8042,"belief":8043,"valuable":8044,"resulted":8045,"creates":8046,"capture":8047,"contributed":8048,"encourage":8049,"bj":8050,"cad":8051,"dna":8052,"pound":8053,"sony":8054,"tip":8055,"##ico":8056,"conver":8057,"habit":8058,"fred":8059,"##ifies":8060,"abu":8061,"compare":8062,"amid":8063,"hadn":8064,"dress":8065,"assets":8066,"retired":8067,"reasonable":8068,"collective":8069,"enemies":8070,"initiative":8071,"lewis":8072,"##win":8073,"##die":8074,"##icial":8075,"##ayers":8076,"asian":8077,"weigh":8078,"seats":8079,"perp":8080,"simpl":8081,"terrible":8082,"circuit":8083,"primarily":8084,"emotional":8085,"tower":8086,"complicated":8087,"mormon":8088,"regenerative":8089,"enthus":8090,"69":8091,"aj":8092,"buck":8093,"##bar":8094,"##sen":8095,"##ighters":8096,"##usive":8097,"lev":8098,"fees":8099,"surg":8100,"locations":8101,"matth":8102,"biology":8103,"relationships":8104,"principles":8105,"##gbt":8106,"satellite":8107,"fought":8108,"lgbt":8109,"pod":8110,"##uts":8111,"##osis":8112,"enorm":8113,"loyal":8114,"decline":8115,"attended":8116,"hole":8117,"represented":8118,"recovery":8119,"rapidly":8120,"vietnam":8121,"vulnerable":8122,"enterprise":8123,"gym":8124,"pad":8125,"##40":8126,"##erd":8127,"##isan":8128,"stupid":8129,"##owa":8130,"manner":8131,"myst":8132,"guest":8133,"engage":8134,"hardware":8135,"terrorists":8136,"corporations":8137,"prisoners":8138,"installed":8139,"ethnic":8140,"minority":8141,"narrow":8142,"08":8143,"cod":8144,"dod":8145,"hurr":8146,"vr":8147,"ves":8148,"x64":8149,"##fall":8150,"inev":8151,"input":8152,"rear":8153,"prote":8154,"##sea":8155,"##iment":8156,"waste":8157,"unn":8158,"brows":8159,"component":8160,"manage":8161,"peak":8162,"actor":8163,"description":8164,"obtained":8165,"factory":8166,"mainly":8167,"viewers":8168,"anticip":8169,"equival":8170,"obser":8171,"allegations":8172,"empty":8173,"soviet":8174,"##ora":8175,"##rect":8176,"pron":8177,"##igen":8178,"suicide":8179,"grid":8180,"amounts":8181,"explicit":8182,"prepar":8183,"oblig":8184,"smo":8185,"propag":8186,"opponent":8187,"informed":8188,"affil":8189,"discussions":8190,"improvement":8191,"navy":8192,"ukraine":8193,"basketball":8194,"cited":8195,"dust":8196,"hidden":8197,"porn":8198,"samples":8199,"##anes":8200,"deleg":8201,"##keep":8202,"##abled":8203,"anymore":8204,"fool":8205,"##ucc":8206,"presum":8207,"registr":8208,"deploy":8209,"transpar":8210,"careful":8211,"1994":8212,"apolog":8213,"empire":8214,"representatives":8215,"screens":8216,"responses":8217,"naturally":8218,"iraqi":8219,"automatic":8220,"enjoyed":8221,"lucky":8222,"wrestling":8223,"aer":8224,"gotten":8225,"ky":8226,"naz":8227,"ted":8228,"vary":8229,"##gian":8230,"##rid":8231,"##33":8232,"##ares":8233,"disney":8234,"contribute":8235,"demands":8236,"weekly":8237,"reduction":8238,"airport":8239,"programming":8240,"salt":8241,"employee":8242,"reviews":8243,"introduction":8244,"celebrate":8245,"07":8246,"fc":8247,"hits":8248,"iowa":8249,"##uine":8250,"##hab":8251,"stead":8252,"shit":8253,"exists":8254,"alive":8255,"engaged":8256,"##riend":8257,"##iveness":8258,"deeper":8259,"strategic":8260,"bh":8261,"cree":8262,"ft":8263,"fault":8264,"som":8265,"thor":8266,"##esis":8267,"iter":8268,"chances":8269,"joining":8270,"parking":8271,"belt":8272,"efficient":8273,"finds":8274,"personnel":8275,"requests":8276,"raf":8277,"reaching":8278,"rejected":8279,"penalty":8280,"cosm":8281,"goddess":8282,"ale":8283,"gulf":8284,"##wart":8285,"##xit":8286,"##arked":8287,"conven":8288,"sev":8289,"frag":8290,"saved":8291,"outstanding":8292,"##acted":8293,"exposed":8294,"boom":8295,"minnes":8296,"monthly":8297,"1997":8298,"threatened":8299,"diagn":8300,"implementation":8301,"cabinet":8302,"accurate":8303,"exclusive":8304,"disagree":8305,"77":8306,"bunch":8307,"cub":8308,"gig":8309,"vanc":8310,"theor":8311,"##ouver":8312,"triple":8313,"modi":8314,"legacy":8315,"democrat":8316,"generate":8317,"lights":8318,"paint":8319,"journalist":8320,"elev":8321,"principle":8322,"manufacturing":8323,"begun":8324,"adopted":8325,"shadow":8326,"taste":8327,"ontario":8328,"minnesota":8329,"bak":8330,"germ":8331,"hud":8332,"nich":8333,"rick":8334,"sed":8335,"token":8336,"sum":8337,"##apol":8338,"##sole":8339,"blind":8340,"formation":8341,"shoulder":8342,"carefully":8343,"prominent":8344,"visible":8345,"involving":8346,"banned":8347,"blockchain":8348,"collapse":8349,"perfectly":8350,"utility":8351,"tickets":8352,"81":8353,"ties":8354,"tie":8355,"##rum":8356,"##esc":8357,"##ctic":8358,"deals":8359,"saving":8360,"##enders":8361,"ads":8362,"coins":8363,"invent":8364,"keys":8365,"warming":8366,"avenue":8367,"profession":8368,"practical":8369,"routine":8370,"nutr":8371,"destroyed":8372,"chamber":8373,"therapy":8374,"intellectual":8375,"bor":8376,"oz":8377,"pace":8378,"rent":8379,"uber":8380,"##tig":8381,"prize":8382,"outs":8383,"herit":8384,"beta":8385,"obam":8386,"legs":8387,"operate":8388,"christie":8389,"constantly":8390,"pleas":8391,"collected":8392,"voices":8393,"innoc":8394,"categories":8395,"sherlock":8396,"concluded":8397,"giants":8398,"sympt":8399,"vancouver":8400,"fert":8401,"kur":8402,"pill":8403,"tut":8404,"till":8405,"##pro":8406,"##celer":8407,"console":8408,"wash":8409,"strip":8410,"serves":8411,"whereas":8412,"busy":8413,"processing":8414,"covers":8415,"drawing":8416,"racist":8417,"extraord":8418,"mexican":8419,"ipad":8420,"##ihad":8421,"87":8422,"ax":8423,"dou":8424,"jac":8425,"kiss":8426,"##ua":8427,"##don":8428,"##inter":8429,"##inator":8430,"rely":8431,"##vereign":8432,"##pping":8433,"abb":8434,"sovereign":8435,"##iana":8436,"strikes":8437,"edward":8438,"##lete":8439,"societ":8440,"info":8441,"concrete":8442,"portion":8443,"blocked":8444,"ultr":8445,"unclear":8446,"survive":8447,"bernie":8448,"garden":8449,"sweden":8450,"newsletter":8451,"matthew":8452,"88":8453,"bubb":8454,"kent":8455,"pour":8456,"rational":8457,"santa":8458,"ven":8459,"##word":8460,"##part":8461,"##██":8462,"##rell":8463,"revel":8464,"##osexual":8465,"roy":8466,"##raid":8467,"##elled":8468,"signal":8469,"larry":8470,"handful":8471,"##phones":8472,"testim":8473,"technique":8474,"covering":8475,"liked":8476,"indicate":8477,"discovery":8478,"exchang":8479,"advocates":8480,"controversy":8481,"sheriff":8482,"retirement":8483,"unemployment":8484,"79":8485,"86":8486,"jokes":8487,"##aid":8488,"##mo":8489,"##pu":8490,"##ystem":8491,"##idency":8492,"trends":8493,"spots":8494,"190":8495,"publication":8496,"promises":8497,"footage":8498,"statistics":8499,"grounds":8500,"tomorrow":8501,"veteran":8502,"destruction":8503,"crucial":8504,"dir":8505,"hamm":8506,"ly":8507,"lists":8508,"##gas":8509,"##oric":8510,"acceler":8511,"##aws":8512,"root":8513,"boot":8514,"conspir":8515,"relief":8516,"monitor":8517,"simult":8518,"handling":8519,"win64":8520,"beliefs":8521,"hardly":8522,"iii":8523,"casual":8524,"olympic":8525,"hubbard":8526,"96":8527,"97":8528,"wides":8529,"##greg":8530,"##care":8531,"resign":8532,"amy":8533,"manchester":8534,"drones":8535,"consens":8536,"assass":8537,"lawmakers":8538,"protocol":8539,"1990s":8540,"investigators":8541,"threatening":8542,"citizen":8543,"clinical":8544,"appointed":8545,"equivalent":8546,"simultane":8547,"bac":8548,"fisc":8549,"ic":8550,"mile":8551,"ramp":8552,"tenn":8553,"##can":8554,"##hy":8555,"stack":8556,"##etts":8557,"fruit":8558,"gray":8559,"whenever":8560,"twenty":8561,"formal":8562,"soccer":8563,"elsa":8564,"brexit":8565,"campaigns":8566,"bias":8567,"suspended":8568,"sensitive":8569,"achieved":8570,"migrants":8571,"resistance":8572,"tactics":8573,"negotiations":8574,"600":8575,"cogn":8576,"gains":8577,"oreg":8578,"##jan":8579,"##fire":8580,"##oning":8581,"##vey":8582,"##opher":8583,"alter":8584,"##ivals":8585,"plastic":8586,"outr":8587,"bron":8588,"##iano":8589,"##ecess":8590,"##orship":8591,"depends":8592,"bars":8593,"passes":8594,"laid":8595,"solve":8596,"organized":8597,"hunt":8598,"islands":8599,"electricity":8600,"accompan":8601,"barely":8602,"uniform":8603,"hurric":8604,"oregon":8605,"dance":8606,"gained":8607,"lun":8608,"pent":8609,"##bour":8610,"beij":8611,"chel":8612,"##estr":8613,"external":8614,"uncon":8615,"uncom":8616,"##ibr":8617,"##ibilities":8618,"marks":8619,"##sels":8620,"genuine":8621,"offices":8622,"##inson":8623,"machines":8624,"recommended":8625,"aimed":8626,"industries":8627,"besides":8628,"atmosphere":8629,"reddit":8630,"beijing":8631,"sams":8632,"wine":8633,"##stal":8634,"spin":8635,"plain":8636,"doz":8637,"enable":8638,"##endum":8639,"closing":8640,"upset":8641,"scan":8642,"afraid":8643,"##icks":8644,"attitude":8645,"bug":8646,"define":8647,"smile":8648,"efficiency":8649,"anne":8650,"courtesy":8651,"processes":8652,"argues":8653,"physic":8654,"rounds":8655,"##aska":8656,"visitors":8657,"producing":8658,"holiday":8659,"fortun":8660,"horse":8661,"mosc":8662,"algorithm":8663,"uncertainty":8664,"franchise":8665,"84":8666,"83":8667,"dun":8668,"gor":8669,"gift":8670,"kin":8671,"pence":8672,"wages":8673,"##bec":8674,"##py":8675,"##pread":8676,"##15":8677,"##acare":8678,"##season":8679,"asks":8680,"ark":8681,"intense":8682,"ministers":8683,"format":8684,"absor":8685,"participate":8686,"challenging":8687,"##burg":8688,"patrick":8689,"pocket":8690,"obamacare":8691,"widespread":8692,"700":8693,"hired":8694,"lam":8695,"##su":8696,"##fit":8697,"confer":8698,"noting":8699,"notion":8700,"abstr":8701,"doors":8702,"crow":8703,"##auc":8704,"pregn":8705,"buzz":8706,"##ressed":8707,"##print":8708,"estate":8709,"1995":8710,"lowest":8711,"investigations":8712,"immune":8713,"##sylv":8714,"referring":8715,"##under":8716,"ranked":8717,"rarely":8718,"ruby":8719,"spiritual":8720,"pennsylv":8721,"monitoring":8722,"1st":8723,"78":8724,"gonna":8725,"lens":8726,"wis":8727,"##bing":8728,"##top":8729,"thick":8730,"##stit":8731,"##umin":8732,"plate":8733,"prey":8734,"inval":8735,"proven":8736,"explore":8737,"delay":8738,"organisation":8739,"landsc":8740,"generated":8741,"activist":8742,"privile":8743,"snap":8744,"entering":8745,"distributed":8746,"trek":8747,"suffer":8748,"delivery":8749,"implemented":8750,"producer":8751,"wonderful":8752,"chicken":8753,"moscow":8754,"bail":8755,"cul":8756,"dick":8757,"echo":8758,"fulf":8759,"hint":8760,"##iat":8761,"##inem":8762,"toy":8763,"##alia":8764,"##ashing":8765,"##ller":8766,"beating":8767,"shout":8768,"trillion":8769,"meg":8770,"components":8771,"##ounting":8772,"exposure":8773,"##aches":8774,"hern":8775,"interaction":8776,"shell":8777,"recipe":8778,"thrown":8779,"mini":8780,"monarch":8781,"seemingly":8782,"programme":8783,"successfully":8784,"massach":8785,"banking":8786,"pettig":8787,"engineers":8788,"permission":8789,"establishment":8790,"aggressive":8791,"enormous":8792,"pettigrew":8793,"09":8794,"waves":8795,"yard":8796,"##woman":8797,"##thr":8798,"chip":8799,"exceed":8800,"albert":8801,"##usetts":8802,"##apore":8803,"crown":8804,"actors":8805,"joy":8806,"reducing":8807,"universities":8808,"singapore":8809,"suspected":8810,"struggling":8811,"stanford":8812,"legitimate":8813,"warrant":8814,"incorpor":8815,"massachusetts":8816,"dur":8817,"punch":8818,"tay":8819,"tri":8820,"##umes":8821,"##actions":8822,"repair":8823,"marco":8824,"##uctive":8825,"presidency":8826,"throwing":8827,"avo":8828,"scientist":8829,"attempting":8830,"expectations":8831,"introduce":8832,"logic":8833,"recognized":8834,"inspect":8835,"settlement":8836,"graduate":8837,"ignore":8838,"horiz":8839,"temporary":8840,"surgery":8841,"pennsylvania":8842,"eag":8843,"hou":8844,"pit":8845,"roles":8846,"##born":8847,"##pool":8848,"##iner":8849,"toler":8850,"##etics":8851,"ups":8852,"incidents":8853,"personality":8854,"##otte":8855,"##engers":8856,"singing":8857,"##ova":8858,"devast":8859,"circle":8860,"silent":8861,"indicated":8862,"cameras":8863,"apparent":8864,"platforms":8865,"georgia":8866,"nominee":8867,"bass":8868,"jets":8869,"ri":8870,"ry":8871,"vl":8872,"##aria":8873,"##ione":8874,"##lyn":8875,"##ima":8876,"fee":8877,"##berry":8878,"rook":8879,"everywhere":8880,"regulation":8881,"transit":8882,"superior":8883,"benefic":8884,"summit":8885,"addressed":8886,"corporation":8887,"heroes":8888,"odds":8889,"proposals":8890,"##agram":8891,"dinner":8892,"subsequent":8893,"treasury":8894,"dave":8895,"hitting":8896,"josh":8897,"jihad":8898,"rus":8899,"terry":8900,"vital":8901,"vector":8902,"##oying":8903,"##wan":8904,"##ja":8905,"##olit":8906,"trave":8907,"##andez":8908,"brill":8909,"loan":8910,"marvel":8911,"containing":8912,"endorse":8913,"##ikh":8914,"swim":8915,"estimate":8916,"exclud":8917,"surely":8918,"convin":8919,"interviews":8920,"referendum":8921,"rocket":8922,"automatically":8923,"expanded":8924,"prosecutors":8925,"innovation":8926,"cowbo":8927,"##otype":8928,"featuring":8929,"dozens":8930,"cig":8931,"lying":8932,"tips":8933,"wolf":8934,"##ni":8935,"abroad":8936,"202":8937,"grade":8938,"polar":8939,"roots":8940,"invited":8941,"monster":8942,"studying":8943,"centers":8944,"heading":8945,"euro":8946,"ballot":8947,"engineer":8948,"touchdown":8949,"conversations":8950,"ridicul":8951,"farmers":8952,"rifle":8953,"fiscal":8954,"##lah":8955,"##east":8956,"##endo":8957,"grab":8958,"incomp":8959,"marine":8960,"phones":8961,"carn":8962,"assad":8963,"guitar":8964,"discip":8965,"elig":8966,"artific":8967,"extend":8968,"behalf":8969,"array":8970,"deliber":8971,"steam":8972,"visited":8973,"landing":8974,"divided":8975,"silence":8976,"websites":8977,"iranian":8978,"walker":8979,"berlin":8980,"vacc":8981,"bullet":8982,"gathered":8983,"prosecutor":8984,"pipeline":8985,"turkish":8986,"sciences":8987,"consciousness":8988,"reprod":8989,"smooth":8990,"gent":8991,"mit":8992,"x6":8993,"##eters":8994,"alan":8995,"##ipedia":8996,"drunk":8997,"partly":8998,"knife":8999,"##urray":9000,"barcel":9001,"feelings":9002,"189":9003,"violations":9004,"furthermore":9005,"suggesting":9006,"fallen":9007,"statist":9008,"stayed":9009,"participation":9010,"settings":9011,"cooking":9012,"dutch":9013,"ratio":9014,"skept":9015,"makabe":9016,"zealand":9017,"samsung":9018,"dict":9019,"jury":9020,"##och":9021,"##ses":9022,"inequ":9023,"revers":9024,"stun":9025,"forever":9026,"shah":9027,"tries":9028,"leon":9029,"##ials":9030,"recip":9031,"mining":9032,"fled":9033,"##aham":9034,"denver":9035,"temp":9036,"##umble":9037,"birds":9038,"scandal":9039,"92":9040,"cort":9041,"gut":9042,"hd":9043,"kitch":9044,"lane":9045,"oak":9046,"rab":9047,"##oot":9048,"##fast":9049,"##ala":9050,"stake":9051,"stages":9052,"anton":9053,"deaf":9054,"butt":9055,"anybody":9056,"economics":9057,"attacking":9058,"immun":9059,"restrictions":9060,"jews":9061,"fantastic":9062,"tonight":9063,"implications":9064,"substantial":9065,"corruption":9066,"overwhelming":9067,"convinced":9068,"94":9069,"jere":9070,"kl":9071,"mitch":9072,"ot":9073,"pale":9074,"vert":9075,"##rog":9076,"shipping":9077,"##udes":9078,"justin":9079,"interior":9080,"blow":9081,"desert":9082,"surf":9083,"harry":9084,"##tenance":9085,"importantly":9086,"argent":9087,"creator":9088,"judges":9089,"1980s":9090,"popularity":9091,"walls":9092,"robot":9093,"1970s":9094,"oklah":9095,"tweeted":9096,"analysts":9097,"javas":9098,"fel":9099,"mild":9100,"##met":9101,"##ries":9102,"##uild":9103,"chat":9104,"##iev":9105,"scope":9106,"worker":9107,"roof":9108,"##veland":9109,"colors":9110,"metro":9111,"cream":9112,"ordinary":9113,"admit":9114,"receiver":9115,"equally":9116,"equality":9117,"##feld":9118,"improving":9119,"respectively":9120,"fears":9121,"prepare":9122,"printed":9123,"entrance":9124,"borders":9125,"opinions":9126,"occupy":9127,"procedure":9128,"hawaiian":9129,"instrument":9130,"remarkable":9131,"yoga":9132,"trigger":9133,"testimony":9134,"cigar":9135,"barcelona":9136,"javascript":9137,"2nd":9138,"nod":9139,"##water":9140,"##50":9141,"infer":9142,"trained":9143,"2020":9144,"replic":9145,"drama":9146,"firing":9147,"##graph":9148,"centuries":9149,"persu":9150,"persons":9151,"proph":9152,"concert":9153,"glad":9154,"##lessly":9155,"rhet":9156,"finger":9157,"breath":9158,"forfeiture":9159,"awards":9160,"pel":9161,"tum":9162,"vet":9163,"prol":9164,"asyl":9165,"exit":9166,"clash":9167,"noise":9168,"##ensity":9169,"firms":9170,"opens":9171,"remarks":9172,"gene":9173,"autonom":9174,"cleveland":9175,"##ika":9176,"intervention":9177,"hung":9178,"managing":9179,"##arrass":9180,"commissioner":9181,"diseases":9182,"accomplish":9183,"acknowledge":9184,"carlos":9185,"guidelines":9186,"manifest":9187,"innocent":9188,"bind":9189,"kansas":9190,"qa":9191,"##bod":9192,"##zy":9193,"##80":9194,"inner":9195,"##oming":9196,"##see":9197,"deem":9198,"##ulating":9199,"lect":9200,"unions":9201,"syd":9202,"##ateral":9203,"studied":9204,"annivers":9205,"streaming":9206,"midfield":9207,"foods":9208,"epic":9209,"inflation":9210,"consideration":9211,"speaks":9212,"acceptable":9213,"embarrass":9214,"utah":9215,"sustainable":9216,"fossil":9217,"inquir":9218,"ingred":9219,"89":9220,"fisher":9221,"han":9222,"mp":9223,"tub":9224,"ug":9225,"##hd":9226,"##ji":9227,"##isons":9228,"##omes":9229,"sus":9230,"suite":9231,"spaces":9232,"##ouri":9233,"scout":9234,"##gression":9235,"underm":9236,"invasion":9237,"colour":9238,"##xture":9239,"reader":9240,"##leton":9241,"maintenance":9242,"populations":9243,"technological":9244,"calm":9245,"salary":9246,"investigate":9247,"sixth":9248,"protecting":9249,"disturb":9250,"portr":9251,"picks":9252,"sufficient":9253,"complaints":9254,"indiana":9255,"wealthy":9256,"framework":9257,"assessment":9258,"municip":9259,"venture":9260,"abandoned":9261,"oklahoma":9262,"asylum":9263,"dies":9264,"wise":9265,"##mun":9266,"##eria":9267,"inch":9268,"##uten":9269,"stations":9270,"##iler":9271,"##ills":9272,"shirt":9273,"exempt":9274,"alab":9275,"craw":9276,"quoted":9277,"blast":9278,"##athy":9279,"pointing":9280,"module":9281,"setup":9282,"delhi":9283,"firef":9284,"cycl":9285,"balt":9286,"contracts":9287,"legislative":9288,"roman":9289,"psychological":9290,"predicted":9291,"waters":9292,"encounter":9293,"dramatic":9294,"registration":9295,"consensus":9296,"chelsea":9297,"dump":9298,"hip":9299,"jet":9300,"mt":9301,"rou":9302,"vig":9303,"##vp":9304,"##24":9305,"20th":9306,"acid":9307,"overcome":9308,"##uces":9309,"moderate":9310,"transg":9311,"requested":9312,"arrive":9313,"entrepr":9314,"voter":9315,"wales":9316,"breaks":9317,"homosexual":9318,"eastl":9319,"demanding":9320,"improvements":9321,"episodes":9322,"brotherhood":9323,"pupp":9324,"maryland":9325,"structures":9326,"phenomenon":9327,"extraordinary":9328,"houston":9329,"entreprene":9330,"hed":9331,"hamp":9332,"lunch":9333,"por":9334,"toxic":9335,"##ali":9336,"stl":9337,"##abet":9338,"reserved":9339,"overs":9340,"attached":9341,"symp":9342,"flick":9343,"musical":9344,"viewed":9345,"globe":9346,"improv":9347,"declar":9348,"illness":9349,"mechanics":9350,"affordable":9351,"atlantic":9352,"appreciate":9353,"diversity":9354,"cbs":9355,"hes":9356,"lux":9357,"ml":9358,"nu":9359,"nur":9360,"osc":9361,"##je":9362,"theories":9363,"##ader":9364,"sean":9365,"lever":9366,"grabb":9367,"instant":9368,"depression":9369,"memo":9370,"headqu":9371,"profits":9372,"swift":9373,"fundra":9374,"competing":9375,"judg":9376,"biological":9377,"homeless":9378,"hybr":9379,"##haust":9380,"commander":9381,"producers":9382,"ownership":9383,"lady":9384,"montreal":9385,"kirk":9386,"sydney":9387,"anniversary":9388,"4th":9389,"fame":9390,"fighters":9391,"gem":9392,"gdp":9393,"##mate":9394,"##aron":9395,"##esty":9396,"##agger":9397,"drove":9398,"bold":9399,"designer":9400,"missile":9401,"questioned":9402,"trem":9403,"virus":9404,"urg":9405,"ranks":9406,"counterpart":9407,"arabia":9408,"encouraged":9409,"lobster":9410,"horror":9411,"dependent":9412,"wounded":9413,"tasks":9414,"cowboys":9415,"06":9416,"ka":9417,"mant":9418,"##dam":9419,"##dog":9420,"prest":9421,"haiti":9422,"##ipts":9423,"grind":9424,"compat":9425,"vegas":9426,"engagement":9427,"swing":9428,"arguing":9429,"failing":9430,"titled":9431,"civilian":9432,"consumption":9433,"##inois":9434,"survival":9435,"examination":9436,"semi":9437,"burning":9438,"mistakes":9439,"adviser":9440,"sarah":9441,"interpretation":9442,"involvement":9443,"imperial":9444,"capitol":9445,"71":9446,"bust":9447,"cav":9448,"citing":9449,"dos":9450,"dates":9451,"dating":9452,"gott":9453,"lyn":9454,"pink":9455,"rural":9456,"sr":9457,"ze":9458,"##fare":9459,"stored":9460,"exhaust":9461,"##aping":9462,"usage":9463,"drum":9464,"relation":9465,"relax":9466,"contribution":9467,"##bridge":9468,"##nedy":9469,"visiting":9470,"neck":9471,"broader":9472,"eggs":9473,"integrity":9474,"conventional":9475,"residential":9476,"anthony":9477,"manufacturers":9478,"mirror":9479,"nutrition":9480,"symptoms":9481,"conspiracy":9482,"dual":9483,"diam":9484,"maps":9485,"tape":9486,"ward":9487,"xbox":9488,"##13":9489,"##s":9490,"##inction":9491,"##icon":9492,"##ication":9493,"forb":9494,"##adel":9495,"##osc":9496,"notable":9497,"##unction":9498,"unr":9499,"unexp":9500,"##iah":9501,"export":9502,"displ":9503,"myster":9504,"indigen":9505,"contained":9506,"underground":9507,"politically":9508,"hook":9509,"membership":9510,"investigating":9511,"violation":9512,"millenn":9513,"civilians":9514,"connections":9515,"hoped":9516,"drinks":9517,"demonstrate":9518,"purchased":9519,"diego":9520,"temperatures":9521,"seeds":9522,"kennedy":9523,"contempor":9524,"inequality":9525,"alabama":9526,"gif":9527,"hire":9528,"ter":9529,"tes":9530,"um":9531,"wings":9532,"##ti":9533,"##etch":9534,"inclus":9535,"coin":9536,"loose":9537,"blank":9538,"startup":9539,"stepped":9540,"##backs":9541,"void":9542,"obsc":9543,"languages":9544,"demanded":9545,"arena":9546,"sweep":9547,"##kyo":9548,"expanding":9549,"##burgh":9550,"doctr":9551,"bonus":9552,"swedish":9553,"guarantee":9554,"indigenous":9555,"bour":9556,"ib":9557,"murray":9558,"nin":9559,"##iu":9560,"##kh":9561,"##itals":9562,"reverse":9563,"##acc":9564,"##imp":9565,"chord":9566,"una":9567,"resem":9568,"overt":9569,"preced":9570,"##angel":9571,"##iox":9572,"reads":9573,"hob":9574,"menu":9575,"involves":9576,"convicted":9577,"difficulty":9578,"strategies":9579,"computers":9580,"racism":9581,"ratings":9582,"submitted":9583,"replacement":9584,"charlie":9585,"emphasis":9586,"ee":9587,"pitt":9588,"vel":9589,"wol":9590,"##fol":9591,"##alo":9592,"nev":9593,"##eman":9594,"##oko":9595,"crop":9596,"interse":9597,"##away":9598,"##ucking":9599,"assigned":9600,"contrary":9601,"subur":9602,"powered":9603,"insert":9604,"designs":9605,"distingu":9606,"deadly":9607,"burden":9608,"roads":9609,"searching":9610,"towns":9611,"promoting":9612,"graphics":9613,"alexander":9614,"battles":9615,"buddhist":9616,"elder":9617,"phrase":9618,"mystery":9619,"conferences":9620,"unexpected":9621,"93":9622,"cm":9623,"dol":9624,"hub":9625,"locked":9626,"nerv":9627,"##dd":9628,"##istent":9629,"butter":9630,"adequ":9631,"##ibutes":9632,"##iang":9633,"accomm":9634,"##anged":9635,"120":9636,"authent":9637,"libert":9638,"operator":9639,"antib":9640,"departments":9641,"presentation":9642,"employed":9643,"suspic":9644,"objective":9645,"hosted":9646,"functional":9647,"focusing":9648,"indicates":9649,"defeated":9650,"acknowledged":9651,"comprehensive":9652,"hernandez":9653,"taylor":9654,"accommod":9655,"diverse":9656,"pounds":9657,"sant":9658,"##person":9659,"##yer":9660,"stir":9661,"sect":9662,"shocked":9663,"chad":9664,"##uma":9665,"##elle":9666,"clients":9667,"aga":9668,"appe":9669,"interrog":9670,"nowhere":9671,"assign":9672,"investments":9673,"childhood":9674,"##ucky":9675,"facilit":9676,"##shop":9677,"illinois":9678,"1960s":9679,"neighbour":9680,"preparing":9681,"laboratory":9682,"container":9683,"emotion":9684,"junior":9685,"forgotten":9686,"occasionally":9687,"anonymous":9688,"perceived":9689,"poké":9690,"entitled":9691,"cats":9692,"fate":9693,"fuck":9694,"gn":9695,"nat":9696,"##lu":9697,"##cro":9698,"##39":9699,"##olen":9700,"dear":9701,"abilities":9702,"spoken":9703,"##apher":9704,"##endous":9705,"clothes":9706,"intim":9707,"repeal":9708,"coh":9709,"defender":9710,"warn":9711,"communist":9712,"performing":9713,"picking":9714,"divor":9715,"absence":9716,"coaching":9717,"speakers":9718,"philipp":9719,"settle":9720,"ecos":9721,"cooperation":9722,"instructions":9723,"dialogue":9724,"flavor":9725,"overseas":9726,"rookie":9727,"jeremy":9728,"transgender":9729,"bump":9730,"bible":9731,"cous":9732,"ein":9733,"lift":9734,"##car":9735,"threw":9736,"anderson":9737,"##oto":9738,"stability":9739,"forcing":9740,"##ami":9741,"##ili":9742,"comics":9743,"unh":9744,"parks":9745,"lawr":9746,"##ierce":9747,"builds":9748,"missouri":9749,"cambod":9750,"commonly":9751,"collins":9752,"reveals":9753,"##uko":9754,"concepts":9755,"correctly":9756,"hypothes":9757,"ranking":9758,"taxpayers":9759,"invalid":9760,"landscape":9761,"kitchen":9762,"ecosystem":9763,"cauc":9764,"cinem":9765,"hence":9766,"pix":9767,"rome":9768,"rah":9769,"riot":9770,"##gar":9771,"inject":9772,"##aki":9773,"knee":9774,"campbell":9775,"filter":9776,"insisted":9777,"##riers":9778,"restore":9779,"irr":9780,"classified":9781,"1993":9782,"21st":9783,"volunt":9784,"targeting":9785,"contacted":9786,"greece":9787,"refugee":9788,"pursue":9789,"wireless":9790,"harvard":9791,"sincl":9792,"hurricane":9793,"artificial":9794,"bread":9795,"cs":9796,"gord":9797,"tang":9798,"torn":9799,"##lar":9800,"##theless":9801,"##ilton":9802,"arc":9803,"timing":9804,"##enson":9805,"##icking":9806,"discour":9807,"differently":9808,"##itsu":9809,"lets":9810,"nevertheless":9811,"movements":9812,"healthcare":9813,"1992":9814,"api":9815,"additionally":9816,"discussing":9817,"hunter":9818,"constitu":9819,"settled":9820,"editorial":9821,"spectrum":9822,"athletic":9823,"wikipedia":9824,"theatre":9825,"juris":9826,"arkansas":9827,"rhetoric":9828,"hybrid":9829,"borr":9830,"danny":9831,"ease":9832,"ric":9833,"tai":9834,"wider":9835,"##bul":9836,"##erce":9837,"##eries":9838,"tokyo":9839,"##itors":9840,"reign":9841,"##othing":9842,"std":9843,"pride":9844,"nel":9845,"aged":9846,"crick":9847,"##aching":9848,"counts":9849,"supplies":9850,"teammates":9851,"courses":9852,"senators":9853,"posting":9854,"sandbox":9855,"hearts":9856,"soldier":9857,"consistently":9858,"athletes":9859,"highlights":9860,"dynamic":9861,"fabric":9862,"chaos":9863,"brilliant":9864,"sinclair":9865,"dying":9866,"kit":9867,"lav":9868,"sorts":9869,"vamp":9870,"##arre":9871,"stere":9872,"##the":9873,"chuck":9874,"fro":9875,"adams":9876,"upload":9877,"coher":9878,"##ails":9879,"moore":9880,"opio":9881,"smoke":9882,"discont":9883,"##eney":9884,"corps":9885,"infant":9886,"secondary":9887,"maintained":9888,"productivity":9889,"summary":9890,"malcol":9891,"approaches":9892,"telephone":9893,"jacket":9894,"layout":9895,"tweets":9896,"sprint":9897,"unpre":9898,"honestly":9899,"upgrade":9900,"henry":9901,"malcolm":9902,"jar":9903,"lag":9904,"ng":9905,"ross":9906,"##lings":9907,"##wa":9908,"##zing":9909,"##oux":9910,"##ouch":9911,"stolen":9912,"##sell":9913,"shaped":9914,"notably":9915,"ages":9916,"incent":9917,"margin":9918,"mold":9919,"worlds":9920,"smell":9921,"legally":9922,"##iko":9923,"##phia":9924,"insight":9925,"releases":9926,"starcraft":9927,"lineback":9928,"dominated":9929,"publ":9930,"damaged":9931,"burst":9932,"legislature":9933,"inspiration":9934,"districts":9935,"embass":9936,"nomination":9937,"merkel":9938,"reforms":9939,"licens":9940,"loaded":9941,"graphic":9942,"bureaucr":9943,"html":9944,"torture":9945,"compensation":9946,"harassment":9947,"propaganda":9948,"theoret":9949,"##apolis":9950,"simultaneously":9951,"##croft":9952,"lawrence":9953,"nan":9954,"nsa":9955,"##list":9956,"##mail":9957,"##­t":9958,"##orious":9959,"##thood":9960,"shir":9961,"strain":9962,"sheet":9963,"everyday":9964,"transaction":9965,"openly":9966,"110":9967,"explaining":9968,"admission":9969,"1990":9970,"christopher":9971,"##comes":9972,"rooms":9973,"interviewed":9974,"emerging":9975,"promotion":9976,"defendant":9977,"awarded":9978,"bombing":9979,"preferred":9980,"segment":9981,"pledge":9982,"punishment":9983,"browser":9984,"abstract":9985,"headquarters":9986,"bam":9987,"golf":9988,"nca":9989,"tu":9990,"wo":9991,"##orous":9992,"##leans":9993,"delic":9994,"leices":9995,"##acking":9996,"enfor":9997,"arctic":9998,"adap":9999}}}