[PAD]
[UNK]
[CLS]
[SEP]
[MASK]
!
"
#
$
%
&
'
(
)
*
+
,
-
.
/
0
1
2
3
4
5
6
7
8
9
:
;
<
=
>
?
@
[
\
]
^
_
`
a
b
c
d
e
f
g
h
i
j
k
l
m
n
o
p
q
r
s
t
u
v
w
x
y
z
{
|
}
~












¡
¢
£
¤
¥
¦
§
¨
©
«
¬
­
®
¯
°
±
²
³
´
µ
¶
·
¸
¹
º
»
¼
½
¾
¿
×
ß
à
á
â
ã
ä
å
æ
ç
è
é
ê
ë
ì
í
î
ï
ð
ñ
ò
ó
ô
õ
ö
÷
ø
ù
ú
û
ü
ý
þ
ÿ
ā
ă
ą
ć
č
đ
ē
ė
ę
ě
ĝ
ğ
ī
ı
ł
ń
ŋ
ō
ő
œ
ř
ś
ş
š
ţ
ū
ŭ
ů
ź
ż
ž
ƒ
ǎ
ǐ
ǒ
ǔ
ș
ț
ɑ
ɔ
ə
ɛ
ɡ
ɪ
ɾ
ʃ
ʊ
ʔ
ʖ
ʰ
ʲ
ʻ
ʼ
ʿ
ˈ
ː
˙
˚
˜
̀
́
̃
̄
̇
̈
̯
̶
͜
͡
ά
έ
ή
ί
α
β
γ
δ
ε
ζ
η
θ
ι
κ
λ
μ
ν
ξ
ο
π
ρ
ς
σ
τ
υ
φ
χ
ψ
ω
ό
ύ
ώ
ϕ
а
б
в
г
д
е
ж
з
и
й
к
л
м
н
о
п
р
с
т
у
ф
х
ц
ч
ш
щ
ъ
ы
ь
э
ю
я
ё
ѕ
і
ї
ա
ե
ի
ն
ո
ր
ւ
ְ
ִ
ֶ
ַ
ָ
ֹ
ּ
א
ב
ג
ד
ה
ו
ז
ח
ט
י
כ
ל
ם
מ
ן
נ
ס
ע
פ
צ
ק
ר
ש
ת
،
ء
آ
أ
إ
ئ
ا
ب
ة
ت
ث
ج
ح
خ
د
ذ
ر
ز
س
ش
ص
ض
ط
ظ
ع
غ
ـ
ف
ق
ك
ل
م
ن
ه
و
ى
ي
ً
َ
ُ
ِ
ّ
ْ
ک
ی
ं
क
ग
च
ज
त
द
न
प
ब
भ
म
य
र
ल
व
श
स
ह
ा
ि
ी
ु
े
ै
ो
्
।
র
া
ে
্
க
ி
்
್
ക
ത
ന
ാ
ി
ു
്
ก
ค
ง
ด
ต
ท
น
บ
ป
ม
ย
ร
ล
ว
ส
ห
อ
ะ
ั
า
ิ
ี
เ
่
้
๎
་
ḍ
ḥ
ṃ
ṇ
ṛ
ṣ
ṭ
ệ
ἀ
ἐ
ὶ
​
‌
‍
‎
‏
‐
‑
‒
–
—
―
‘
’
‚
“
”
„
†
‡
•
…
‪
‬
‭
‰
′
″
‹
›
※
⁃
⁄
⁠
⁡
€
₹
™
⅓
←
↑
→
↓
↩
⇒
⇓
∀
∂
∈
∑
−
∗
∘
∙
√
∞
∧
∫
∴
∵
∼
≈
≠
≡
≤
≥
⋅
⌘
ⓒ
ⓘ
─
━
│
└
├
┼
═
║
╺
▀
▄
█
▌
▐
░
▒
▓
■
□
▪
▬
▲
▶
►
▼
◆
◊
○
●
★
☆
♠
♥
♦
♪
♫
♭
✓
✔
❤
➤
⟨
⟩
、
。
〉
《
「
」
『
』
【
】
〓
あ
い
う
え
お
か
が
き
く
け
げ
こ
ご
さ
し
じ
す
ず
せ
そ
た
だ
ち
っ
つ
て
で
と
ど
な
に
ね
の
は
ば
び
へ
べ
ほ
ま
み
め
も
ゃ
や
ょ
よ
ら
り
る
れ
ろ
わ
を
ん
ァ
ア
ィ
イ
ウ
ェ
エ
オ
カ
ガ
キ
ク
グ
ケ
ゲ
コ
ゴ
サ
ザ
シ
ジ
ス
ズ
セ
ソ
タ
ダ
チ
ッ
ツ
テ
デ
ト
ド
ナ
ニ
ネ
ノ
ハ
バ
パ
ビ
ピ
フ
ブ
プ
ベ
ボ
ポ
マ
ミ
ム
メ
モ
ャ
ュ
ョ
ラ
リ
ル
レ
ロ
ワ
ン
・
ー
ヽ
ㅋ
ㅠ
一
三
上
下
不
世
个
中
为
主
么
之
也
了
事
二
京
人
今
他
代
以
们
会
体
何
作
你
使
保
信
先
入
全
公
其
内
出
分
利
到
制
前
力
加
動
化
北
十
南
原
发
取
可
合
同
名
向
和
品
回
国
在
地
場
士
変
外
多
大
天
太
女
好
如
子
字
学
安
定
実
家
对
対
小
少
就
山
工
市
常
平
年
度
式
当
後
得
心
思
性
情
想
意
感
成
我
戦
所
手
持
政
数
文
新
方
日
时
明
是
時
書
最
月
有
期
木
本
来
東
果
機
正
民
気
水
法
海
点
無
然
物
特
王
現
理
生
用
田
由
界
発
的
目
相
真
着
知
社
神
私
空
立
第
等
网
美
者
而
能
自
色
行
表
西
要
見
解
言
記
話
語
说
起
身
这
通
道
那
部
都
重
金
長
開
間
関
集
面
音
高
魔
가
것
게
경
고
공
과
구
국
그
기
나
는
니
다
대
데
도
동
드
들
라
로
를
리
마
만
면
모
무
미
보
부
비
사
상
서
선
성
소
수
스
습
시
신
아
어
에
여
오
요
우
원
으
은
을
의
이
인
일
있
자
장
적
전
정
제
주
지
진
트
하
한
해
했


ﬁ
ﬂ
️
﻿
！
（
）
，
－
／
１
：
？
＼
＿
～
｡
･
ﾟ
￣
￼
�
🇸
🇺
😀
😂
😉
🙂
##n
##i
##c
##a
##w
##h
##s
##p
##e
##r
##t
##f
##v
##d
##l
##o
##k
##b
##5
##1
##4
##9
##y
##u
##z
##m
##0
##g
##도
##의
##6
##ר
##ע
##ק
##™
##j
##8
##7
##é
##x
##2
##ー
##ル
##で
##の
##お
##い
##合
##わ
##せ
##с
##л
##о
##ж
##н
##я
##ь
##е
##т
##и
##3
##고
##로
##서
##з
##д
##а
##м
##q
##ミ
##リ
##ア
##は
##を
##上
##げ
##る
##­
##у
##関
##数
##中
##と
##う
##名
##前
##使
##っ
##て
##な
##所
##が
##ポ
##イ
##ン
##ト
##ö
##ل
##س
##و
##ر
##ي
##ç
##く
##í
##ž
##期
##間
##に
##つ
##目
##成
##定
##後
##
##ı
##γ
##♠
##ż
##ł
##š
##č
##ú
##ɪ
##≠
##사
##면
##을
##×
##ḍ
##
##щ
##ä
##あ
##ら
##し
##ح
##ْ
##م
##َ
##ا
##ن
##ُ
##化
##三
##部
##в
##к
##ю
##ج
##ع
##ى
##á
##持
##ρ
##ι
##π
##ο
##λ
##τ
##σ
##ά
##ς
##か
##コ
##ド
##書
##き
##レ
##キ
##シ
##カ
##変
##也
##是
##一
##个
##特
##時
##大
##小
##み
##言
##だ
##不
##这
##会
##的
##ा
##र
##ि
##क
##े
##ल
##ب
##د
##ه
##ャ
##プ
##テ
##モ
##ゴ
##チ
##ョ
##ッ
##ブ
##ロ
##ク
##地
##म
##द
##श
##्
##त
##प
##व
##न
##ν
##ί
##α
##р
##ы
##ш
##й
##ę
##ā
##ִ
##ת
##ָ
##ּ
##ְ
##ß
##ダ
##ü
##à
##ч
##ğ
##°
##â
##ț
##ó
##子
##¬
##�
##ו
##י
##ش
##ま
##す
##ラ
##ね
##נ
##ד
##ַ
##א
##行
##ş
##п
##十
##ć
##지
##
##أ
##ت
##ذ
##ِ
##ّ
##ة
##ं
##ग
##や
##今
##日
##ん
##京
##公
##η
##μ
##√
##ц
##¹
##б
##ё
##х
##î
##ظ
##г
##்
##க
##ி
##​
##ε
##θ
##神
##社
##こ
##り
##±
##리
##시
##에
##드
##성
##기
##가
##다
##제
##ø
##北
##่
##ง
##æ
##ă
##ി
##ή
##じ
##め
##音
##た
##タ
##∴
##∵
##ち
##へ
##ō
##€
##œ
##
##ィ
##ス
##ъ
##¨
##️
##ì
##度
##加
##ý
##性
##多
##国
##力
##通
##理
##解
##å
##ʼ
##מ
##ה
##为
##了
##魔
##重
##よ
##ム
##ビ
##東
##ニ
##メ
##ṭ
##і
##れ
##何
##时
##想
##ض
##ū
##自
##動
##オ
##月
##発
##ウ
##デ
##記
##事
##ש
##ם
##▲
##ق
##ك
##®
##ു
##്
##ř
##э
##º
##立
##ʻ
##ī
##إ
##ן
##ě
##全
##体
##年
##も
##け
##作
##機
##ほ
##ど
##ѕ
##ń
##è
##β
##−
##ʲ
##ə
##代
##さ
##高
##得
##υ
##έ
##ˈ
##ʃ
##ï
##ô
##ò
##스
##え
##ê
##来
##ό
##長
##͡
##情
##한
##¦
##ご
##
##인
##데
##소
##적
##이
##פ
##어
##ئ
##¸
##¾
##ो
##
##ã
##
##¢
##
##民
##́
##đ
##정
##과
##ṣ
##下
##田
##ë
##‎
##û
##原
##学
##生
##グ
##ノ
##ピ
##ジ
##ω
##分
##サ
##ボ
##░
##▀
##█
##▄
##▐
##ヽ
##ɑ
##ː
##ツ
##ֶ
##ത
##ന
##ハ
##ג
##ա
##ո
##아
##를
##ǎ
##フ
##バ
##ァ
##式
##心
##意
##خ
##ف
##ב
##ל
##１
##要
##ţ
##ょ
##ゃ
##王
##文
##そ
##
##→
##常
##했
##ŋ
##═
##ร
##ค
##ث
##
##用
##方
##開
##現
##ÿ
##ñ
##ด
##ย
##เ
##า
##ะ
##ท
##ิ
##ป
##ี
##ば
##ї
##구
##하
##¥
##©
##κ
##δ
##나
##य
##च
##品
##ろ
##ㅋ
##思
##ز
##∙
##■
##明
##﻿
##べ
##先
##▓
##本
##ð
##♪
##ㅠ
##─
##
##利
##字
##同
##等
##出
##ą
##ず
##ص
##þ
##게
##ै
##χ
##ύ
##진
##은
##ǔ
##二
##面
##ф
##ƒ
##ź
##ė
##ώ
##̀
##ک
##주
##자
##知
##人
##ś
##我
##‭
##真
##最
##
##果
##↓
##能
##ズ
##ی
##有
##↩
##स
##ാ
##ക
##対
##工
##家
##点
##保
##物
##ु
##么
##場
##気
##感
##̄
##ी
##²
##כ
##ṃ
##内
##←
##
##美
##˜
##½
##ṛ
##就
##‌
##向
##世
##‏
##和
##们
##平
##在
##外
##那
##手
##습
##는
##대
##್
##女
##
##ʰ
##ェ
##私
##到
##↑
##ʊ
##入
##他
##界
##ס
##ガ
##니
##̶
##ュ
##語
##集
##好
##说
##ș
##★
##ケ
##☆
##상
##해
##오
##ソ
##ů
##水
##身
##들
##而
##マ
##パ
##□
##ห
##ส
##ต
##ワ
##צ
##ǐ
##여
##相
##当
##由
##장
##공
##│
##道
##신
##⋅
##ē
##如
##你
##可
##以
##发
##表
##海
##≤
##น
##ก
##戦
##요
##之
##ŭ
##►
##ɾ
##̇
##라
##으
##网
##安
##̈
##ط
##ט
##者
##制
##ĝ
##⁄
##ザ
##ナ
##取
##太
##对
##¤
##´
##동
##트
##ネ
##ɛ
##무
##起
##見
##̃
##ֹ
##市
##³
##∗
##ʖ
##ล
##ั
##ม
##อ
##少
##ù
##ǒ
##ɡ
##ベ
##ḥ
##実
##̯
##新
##것
##●
##õ
##無
##ह
##£
##보
##ว
##ṇ
##回
##其
##着
##色
##우
##金
##‍
##া
##전
##～
##غ
##第
##부
##ő
##天
##空
##山
##ً
##信
##話
##都
##φ
##บ
##้
##法
##政
##主
##ɔ
##▒
##마
##▼
##エ
##西
##‬
##ե
##ր
##ի
##セ
##⇓
##원
##ज
##¼
##수
##🇺
##🇸
##¯
##ζ
##ـ
##ξ
##국
##선
##然
##ւ
##آ
##士
##ﬁ
##び
##만
##্
##ὶ
##⅓
##ψ
##भ
##∘
##正
##ে
##͜
##ז
##র
##￣
##ʿ
##있
##▶
##├
##미
##비
##⌘
##❤
##ء
##♦
##그
##모
##µ
##▌
##∈
##ն
##木
##南
##⁠
##ʔ
##ﾟ
##≡
##∞
##ゲ
##━
##ﬂ
##ח
##▬
##일
##♥
##≥
##경
##˚
##♭
##ब
##∂
##✓
##😂
##○
##∼
##‪
##÷
##≈
##∑
##∀
##๎
##◆
##⇒
##˙
##🙂
##┼
##♫
##▪
##😉
##✔
##￼
##└
##∧
##ⓘ
##ϕ
##╺
##ệ
##∫
##〓
##😀
##║
##₹
##◊
##ⓒ
##➤
##⁡
##ἐ
##ἀ
th
##er
the
##in
##on
##at
##en
##es
##or
##ed
##nd
##ing
##ar
##an
##ou
to
in
##it
##al
of
##is
and
##as
##ic
##re
##om
##ion
##le
##ent
##il
##el
re
##st
be
##ot
wh
##id
on
##ac
##ut
that
##et
is
##ly
##ow
st
for
##ve
##ay
it
##am
##ur
##ol
##ad
pr
##ig
##ec
##ers
##im
##ir
as
##ith
##se
an
al
##ation
##ver
with
##ter
##ch
you
##th
##ce
he
con
##ere
##op
##ill
was
sh
##ld
ha
##ul
fr
com
at
##est
ch
##em
we
##ess
ne
##ct
##od
##ag
su
##os
##ak
tr
this
are
##igh
##ist
##ate
ex
##pp
##ain
or
##iv
##us
de
not
se
##oc
##um
by
##ore
##ab
have
##ity
##ould
##un
##if
from
but
##ts
##and
le
##ment
##ies
ab
##ive
sp
sa
go
pl
##art
##ust
they
##ort
##ant
un
##ear
##ap
##ack
wor
has
his
##all
##ally
##ight
pro
##out
20
##ect
can
ar
##ard
en
##gh
##ost
##ome
do
all
##our
##ok
##ast
will
##ik
##ud
##ell
##end
##ie
ad
cl
##ich
##ib
said
us
who
##ial
up
out
so
##ge
##ough
br
##ip
their
more
one
##tr
##ans
me
##ame
gr
new
im
##ound
##her
comp
res
##ous
##ice
##ions
##ue
ac
there
am
##one
##ia
##oun
##ff
about
##ure
man
##ong
##act
if
##ine
ag
##age
year
##og
##ated
tim
off
cr
which
exp
ev
had
int
rep
##iz
were
lik
would
no
##ence
##ake
##ide
pe
when
##pt
what
##ub
##ind
##ther
##ely
per
inc
been
sc
some
dr
##ook
##au
##qu
##ary
##ber
##ach
af
##own
app
dis
##av
201
##ign
tw
##so
##ace
##ays
fe
##able
bec
just
##ose
than
how
like
its
##ail
my
##ass
##00
##ile
##ish
also
part
over
##ian
pol
##ire
qu
peop
your
te
her
people
work
bl
##ite
##ord
##ations
##ical
time
inter
str
mar
fir
them
get
kn
any
##ens
rec
other
comm
##ick
she
##ond
act
after
##orm
##ase
##ents
##lic
##are
co
##ance
our
acc
##aw
##uc
imp
pre
play
##reat
ind
##gr
19
##ree
##ink
into
ever
##ob
##ult
##oll
first
##ov
ser
##ings
##ory
##oin
##ep
dec
em
##amp
##ition
##ors
ph
##oss
##ang
##fer
cont
##ause
##ade
##uct
##ates
##itt
two
coun
only
could
##ks
now
sec
und
##vel
him
most
##ious
back
des
##ild
pres
##lect
may
##ove
cons
fl
##ied
don
op
bet
##hing
sy
##oy
even
these
##ery
att
thr
##form
##enc
##ict
because
under
##ning
##ock
did
see
again
##ft
add
every
wr
ob
inv
col
##day
bu
##ons
par
##ry
##ater
car
##ey
##ert
need
ass
years
##ual
rel
then
know
high
mu
supp
min
def
mon
##lud
##wn
##ood
##ublic
where
##old
many
make
##iss
contr
ro
hel
look
##ident
ed
call
reg
##urn
rem
##man
##les
##we
world
sm
while
last
##oth
##ath
well
way
gen
think
gu
##elf
##anc
fin
##pl
##ra
##fore
down
want
ve
bel
those
being
##ational
##ting
##vern
inst
##ful
##ump
includ
show
##oup
##eric
dif
sch
through
##other
end
ear
##ating
id
govern
war
very
should
form
##iew
state
##ton
##ason
##ug
10
say
##hn
long
##ise
##aking
##ased
much
americ
##ower
##ited
char
before
200
use
does
##xt
##atch
med
team
##uring
##ities
own
##sp
##ty
dem
##cc
good
##ific
##ro
sub
##ible
stud
ter
cent
game
##urr
sim
here
##ics
##ward
such
set
##als
wee
poin
##omet
right
made
government
pers
##get
##ues
##ix
prov
start
cour
##ince
law
ma
eff
dep
##olog
still
##ier
##ble
prod
##ily
going
##ject
##ife
##ange
lead
trans
cap
day
though
bo
mod
##ular
against
##ress
##ility
##ull
sl
##ement
##ism
##ually
##eral
##ists
##ative
found
read
disc
sign
##orn
take
help
report
offic
##its
##az
mem
resp
run
##let
somet
sur
##gan
##stem
serv
el
##alk
##uss
##ently
spec
ke
##io
real
differ
president
##illion
aut
##air
says
num
##ween
##ivers
##und
between
great
three
group
support
same
##ope
system
##ments
public
##ool
##ives
both
##ures
hand
det
##ms
during
##yp
##irect
since
##ah
big
##ollow
countr
##ution
compan
##ank
wom
soc
around
follow
##ames
##ph
trump
##way
fam
prot
##der
##ys
post
leg
##ork
mark
ret
##read
##land
##ather
let
000
direct
met
really
sen
##hip
bus
gl
##velop
conf
used
prop
##ern
cle
##led
art
elect
plan
##up
##con
red
##pr
lar
##ash
##ouse
develop
old
ins
##ever
another
week
find
cre
far
polit
##cr
happ
person
##iel
progr
rev
av
##ene
##per
month
power
##ying
##cent
fil
##ient
##ale
put
spe
commun
##istr
city
cor
iss
life
##ience
adv
##orts
##ax
contin
loc
##alth
inf
##ote
##att
open
##cept
##ave
camp
win
##ices
stat
fact
nor
bar
head
##ines
second
12
##ount
few
##ision
lot
exper
##akes
invest
##iet
##oot
each
told
opp
too
sk
news
best
##ages
eng
hum
##ger
##son
requ
pass
##ically
val
belie
child
bre
##gest
next
##ider
something
intern
never
##ording
conc
police
point
dat
##ants
##lish
##ime
expl
mil
rele
ann
ll
##ize
##ving
ask
why
##bers
things
##ri
top
home
tec
##ially
##ved
11
##ead
##ont
##ized
##ention
quest
jo
##erg
##str
##br
##ets
poss
15
##ves
##ner
proc
##ency
four
##iving
##ior
##min
##ee
got
hard
school
come
however
sw
curr
stand
might
##ody
national
according
states
##thing
house
mus
##ects
different
without
##tern
care
build
air
inform
##res
##ling
##iness
allow
pat
season
feel
prof
turn
18
pop
incre
including
seem
##ten
##med
star
percent
##oad
test
##ital
called
##ret
##uck
##ights
##ittle
##ew
free
chr
mov
main
univers
prev
del
number
left
ide
little
million
place
har
##ric
##ected
beh
level
product
ref
##ness
class
##iver
##ield
import
interest
fun
keep
health
proble
less
pay
##ember
econ
sol
##osed
case
sou
country
better
econom
partic
eas
rest
arr
##over
gre
##ately
hist
la
data
program
##ged
times
using
face
list
##ced
##ins
american
move
##red
attack
##ark
##ama
ext
book
##iting
women
##oney
near
##aim
##ably
auth
##ways
maj
techn
##ute
pos
net
typ
##ained
phot
based
##ces
miss
##ral
story
company
##ned
##ised
##line
cond
didn
small
##ains
##earch
##eng
##til
business
research
##ocr
cal
##ott
organ
##iven
bit
conv
oper
est
change
##self
vis
##ode
##ina
men
##ren
##ional
##ived
clear
bas
appear
major
30
prom
sever
design
stre
later
ir
##ends
process
view
party
exc
##atur
today
##ature
order
information
var
aff
white
pur
ra
official
united
chang
fri
talk
mean
rece
money
job
##ology
lib
##atter
vide
press
black
kill
ste
cost
simp
fac
mid
edit
human
##ided
##ready
##ats
ent
already
##less
##ploy
always
##aph
dev
##els
consider
##ird
must
mr
##ians
past
##ense
court
mor
line
##par
##bs
once
making
family
record
polic
sing
##aining
16
grow
eur
thing
##inal
##ister
13
##wh
claim
social
democr
##ted
##atic
media
fund
##used
john
##app
tax
##aff
ant
terr
##ike
tell
full
vi
##ether
14
able
russ
##aign
important
away
games
kind
##ator
cert
##unch
ap
deb
campaign
fed
until
##erv
hal
bill
days
doesn
##ired
gener
examp
##mm
pa
yet
happen
republic
former
political
secur
il
##ection
##ards
watch
word
##ending
##ourn
##stand
199
##acy
opt
least
market
##ively
working
sit
##augh
##ury
enough
##ven
youn
name
##itch
##ief
author
deal
came
##ases
##gin
25
##ides
es
lab
sex
fre
water
manag
##ows
sour
17
control
##ley
five
actually
pot
land
night
whether
perform
north
having
vot
po
complet
##ences
event
return
give
arg
often
lear
equ
several
hour
##ued
fut
stop
##ising
##ered
sal
##ified
project
fight
##eck
early
took
##ipp
crit
ca
##rem
become
##te
among
##aps
sure
university
vers
children
##ering
won
##ush
sug
sn
##crib
##enn
##ony
occ
players
security
side
milit
orig
non
##tt
super
##ann
effect
short
meet
priv
key
video
doing
##ox
##ison
local
succ
members
prob
##ization
along
##ared
known
community
clin
##lin
##ality
certain
hold
given
general
step
lim
within
south
question
##thers
investig
depart
future
##ech
activ
##icle
##ium
seen
cover
##ots
##iam
example
##ane
went
##aken
europe
##gress
success
##ither
er
viol
##side
##sel
cho
york
ge
creat
done
likely
fur
##ought
##idence
cut
##work
obama
distr
mag
2016
##ories
##iously
impr
arm
history
100
death
##uary
##lex
vict
others
acr
invol
##ware
following
avail
alm
tar
conn
series
foot
fail
##urs
##ones
##ential
love
understand
##itter
##que
##inc
##sh
##ended
christ
course
strong
##ecut
##be
asked
result
saf
months
pub
indust
##une
wind
problem
young
fire
esp
##leg
reason
getting
possible
thought
large
means
ident
##ilar
across
tot
bad
##ured
mass
low
office
##imate
##by
##ulation
join
light
##ball
fig
service
sent
##ument
access
anal
looking
mom
2015
ple
makes
suggest
##ensive
addition
##lement
##ivid
##ps
50
trad
live
repres
special
employ
reported
half
believe
instead
six
almost
##ague
##oke
##book
##oci
enter
announ
##ars
##co
food
fall
foc
interv
jud
federal
##osp
##ogr
mo
available
##por
mind
##arch
##vert
##aring
area
associ
##ald
space
##int
##ators
mult
##ortun
dou
particular
##iety
2014
##ances
rad
policy
toget
issue
ep
together
similar
cust
port
added
##uce
ris
rights
cop
##itions
const
pick
rather
mess
recent
##ults
##com
america
started
ce
dam
##ateg
further
tem
international
ger
pract
##itive
dist
21
##ored
third
##uction
rul
##oved
isn
trying
##oph
reach
cult
##uly
player
san
admin
experience
canad
24
fav
ago
comes
env
image
idea
try
appro
twitter
##ands
##ergy
film
military
anything
department
##aster
imm
##selves
vir
comb
individ
nothing
##ler
ban
dom
##ape
##acter
committ
##ability
enc
##ru
##ails
wa
compet
refer
bene
quick
current
capt
glob
field
##iter
##ission
present
##utes
journ
##ls
aust
collect
##erc
upd
##lished
sound
##imes
behind
doc
mot
study
center
##ination
threat
single
tur
profess
action
##wards
ey
front
summ
den
west
someone
discuss
saying
park
##ipt
taken
##uced
##rael
individual
scre
intr
##sw
htt
##ids
body
gun
cann
##ction
taking
final
israel
##yn
uk
dav
energy
22
development
everything
##igr
link
washing
pet
entire
ur
##uff
concern
secret
hit
close
bring
cam
probably
hom
alth
init
##ming
target
custom
although
pret
check
##nes
ball
brit
colle
hope
##fic
either
coming
god
vol
tit
yes
self
##aper
chall
wanted
music
clinton
2013
##den
div
create
exist
washington
true
else
attem
points
desp
walk
march
represent
##ender
mich
room
specific
##amed
everyone
##irc
##uge
administr
league
198
##back
bank
share
cand
common
due
##ees
mc
##iron
earl
jan
force
relations
2012
begin
scr
describ
break
lo
signific
rob
continue
below
educ
##for
advert
gir
civ
treat
fore
##ify
led
2017
drug
##ined
review
street
bur
meas
environ
students
building
matter
infl
##ges
decision
##ule
deep
##ograph
pal
officials
40
circ
dest
whole
leaders
lat
companies
anim
##olution
match
##yc
position
cred
block
issues
pack
outside
##ring
source
##dle
23
agre
launch
financ
character
dead
wrote
road
above
running
##aces
election
director
abs
##ival
susp
##attle
cit
aver
##0s
congress
repl
seems
ground
neg
green
released
role
rich
address
services
tre
phys
tal
##port
ang
hours
et
china
##asing
trav
woman
version
##go
pi
release
simply
age
##ecess
##af
value
code
track
##sy
##ana
sil
aud
host
statement
espec
##lus
friends
obs
economic
mill
appr
especially
german
##uation
interview
##bo
despite
coll
type
##iday
##elt
##ibility
term
##oud
extr
article
oct
significant
began
lang
scient
provide
total
legal
lost
civil
##esh
club
himself
anti
respons
evidence
phil
answ
countries
##ench
consum
online
drop
##ength
benef
late
photo
itself
playing
pretty
earlier
inj
##ai
log
##ogn
facebook
industry
##oid
environment
##body
relig
became
hill
themselves
pain
wasn
##ites
saw
##yr
diffic
##ex
##iod
##orr
coup
groups
global
difficult
soon
clos
minister
quite
bud
needs
technology
wall
boy
needed
site
aw
##ural
round
mic
approach
recently
squ
##yle
goog
shows
##ift
##fl
dig
nation
##ault
aug
forward
sense
expect
##aft
billion
candid
include
##ental
##lim
express
##aged
meth
##ips
board
##action
played
vote
page
gold
##ouch
shoot
instit
suff
execut
wed
pred
##ilt
pan
##jects
network
foreign
broad
stay
sept
prim
account
##aced
google
sat
rock
mis
anyone
sun
##atures
comput
##ibut
webs
##uel
##ams
base
terror
deter
period
changes
##ugg
##ished
focus
##arr
##fully
coach
speak
##ask
ul
risk
applic
##mb
model
price
sold
staff
norm
conserv
opportun
##gn
journal
pict
mal
email
chief
syr
protest
bi
##ney
00
##iple
tele
26
hot
card
personal
weeks
middle
27
results
wrong
apr
related
langu
##oring
held
hop
##istic
higher
sell
comment
moment
hun
2011
##uk
republican
select
##lam
ah
content
private
hol
##umb
soft
197
king
capital
friend
longer
natur
##ij
##ference
rate
potential
june
words
buy
28
##ped
heav
laws
hon
che
popular
bal
arch
fair
accept
##urch
##use
engine
science
shot
search
created
fem
oil
los
##eal
inside
mer
##ades
##medi
minutes
original
july
favor
piec
nearly
living
easy
administration
##play
draw
mater
sand
##ron
famil
cur
surpr
ver
town
##iff
extrem
goal
attempt
defense
financial
##iding
strateg
austral
cell
protect
average
##uth
##ique
##ients
questions
champ
##epend
##onse
workers
internet
earth
works
rom
maybe
estab
leave
##hood
mond
trade
##cript
member
expected
##atives
problems
received
adm
east
necess
##na
reve
note
mur
college
users
##asons
##ops
independ
##vers
##arter
web
ways
church
worth
##ne
currently
##where
increase
tv
david
2010
phone
fans
response
##haps
weap
exact
published
##apan
##load
reports
##ption
april
americans
advertis
cannot
oppos
dre
county
perhaps
regard
friday
heart
constr
defin
##anger
je
##omm
fear
##cil
##of
method
announced
speed
russia
##bert
##itting
vo
japan
cross
involved
##ma
finally
request
##okes
paul
rac
relationship
introd
unf
##off
##ried
central
##ster
##isl
camer
sund
color
amount
society
via
son
immedi
mach
geor
sometimes
##ners
union
medical
cases
arrest
tues
subs
lower
race
monday
reb
29
tool
di
##ett
respond
islam
calif
##ude
killed
text
lives
performance
##itten
lack
##ging
material
propert
tuesday
tex
deliver
aren
##eter
box
oh
leader
mob
becom
ability
##ological
##thern
discover
##ellig
terms
please
takes
hear
particip
size
##ilities
perf
##eed
##uit
committee
corre
progress
##bc
justice
##ters
influ
simple
legisl
events
worked
visit
destr
remember
##joy
##erson
production
35
##izing
cast
ess
##tain
mother
september
impact
##mber
require
teams
unl
##ham
insp
##lear
citiz
amaz
##aut
january
thous
chance
micr
dark
attr
fast
recogn
confir
tradition
song
forces
imag
morning
pen
meeting
built
table
movement
http
goes
##omb
plans
push
images
whose
nove
##ises
education
council
website
indic
decided
object
gave
jew
offer
pull
##ael
turned
father
happened
##cer
november
fix
democratic
career
intellig
##ober
situation
improve
behav
enjoy
learn
##gs
shar
victim
compl
loss
##idents
ok
unc
agency
european
jack
##ened
august
afric
sens
thurs
196
##ening
plat
sett
economy
wednes
ill
respect
ach
numbers
fell
areas
wond
obv
october
inn
emerg
31
doct
neigh
veh
commission
##iction
neighb
##anch
grand
wednesday
training
##aming
russian
canada
ele
##uments
cause
thursday
prem
language
user
couple
struct
touch
hands
constit
tom
felt
##xic
separ
doll
hosp
previous
prior
upon
##ibly
leav
blood
climate
modern
british
resour
californ
quickly
ho
immigr
sunday
growth
range
seven
travel
path
##dr
figure
60
reveal
battle
function
heard
fa
##yl
ten
eight
ens
mart
##atory
rules
ham
natural
file
football
huge
surve
histor
demand
##istan
included
demon
population
eg
contract
gets
que
##ession
allowed
##sych
except
dail
wants
##put
communic
various
looks
purp
spent
crim
perfect
poor
bott
command
document
tour
california
##oo
satur
##oon
knew
wes
teach
analys
december
bey
systems
corpor
quality
assist
standard
written
guy
regular
##bit
jobs
attention
##itted
kore
features
blue
2008
talking
tried
##mer
gar
muslim
##ores
senate
tor
princ
psych
##ety
lay
roll
##ires
emb
pros
daily
##ume
##force
slow
latest
gas
contact
ful
paper
bord
store
mention
summer
##eless
subject
##kn
##uses
interesting
challen
skill
32
century
sexual
india
conference
brought
quarter
rout
##mp
fill
investigation
eth
install
2009
seek
wal
donald
iran
##ceed
date
hund
##ung
surv
ira
##etic
majority
island
blog
freed
strugg
achie
##bi
##eth
fly
advertisement
##ruct
##arily
flo
ww
##ground
hundred
sort
wild
regul
violence
message
parents
beyond
budget
starting
convers
##sequ
##iant
epis
conduct
500
##face
item
max
increasing
##iers
movie
##bt
serious
critic
lond
complete
speech
stories
levels
reading
officers
army
considered
brown
certainly
officer
chair
corn
michael
mcc
45
details
london
ut
credit
prison
click
##ification
band
hall
hous
##ese
##uf
##ky
safety
comments
prevent
cup
particularly
answer
alle
##ements
counter
culture
apple
trust
continued
writing
paid
extra
growing
mad
spokes
nuc
carry
saturday
completely
rap
alb
style
##icles
iraq
james
##imately
region
##aries
##aging
exactly
##ille
crime
opportunity
##ux
drive
write
##20
##iation
sle
decl
ready
danger
practice
intelligence
biggest
girl
usually
leading
damage
##ament
executive
title
mount
stuff
nature
attacks
guard
appar
products
##enced
febr
platform
clean
claims
effort
sup
bir
brain
cat
matt
##coin
software
income
##ension
organization
february
##idge
screen
medic
##ha
required
multiple
crow
student
thanks
perm
##asc
##wor
mac
prime
deg
giving
brand
additional
cele
die
bab
throughout
##sc
safe
connect
ign
dan
district
kids
choice
##reg
produc
##ledge
thinking
western
##isc
named
remain
experi
disp
twe
##to
origin
##aught
republicans
described
##ida
kick
##encies
sports
##ino
ult
changed
cris
freedom
smart
##yan
##entially
##cast
happy
provided
##ping
reality
stage
hy
celebr
purch
bul
spir
##come
##rew
texas
ones
ms
books
swe
overall
looked
prepar
effects
ath
voters
parts
update
demonstr
labor
fit
##orney
implement
##inese
der
complex
costs
##ously
prec
letter
increased
##ds
attorney
analysis
thus
##isions
ii
err
##enue
avoid
recomm
##raft
##iqu
guys
alone
vill
##uz
chinese
wouldn
repe
eventually
nom
computer
remains
hospital
www
peace
36
nav
william
core
showed
##omp
mix
##uing
display
thousands
calls
opin
moving
limited
cool
designed
##erve
indian
consist
wife
##hib
autom
nuclear
rank
##overs
##ounts
senior
sect
scene
thank
stra
##unk
##ypt
ben
immediately
grad
died
meaning
gone
draft
efforts
inte
citizens
altern
propos
born
esc
bow
bitcoin
##he
poll
##anced
##ago
includes
towards
truth
correct
ahead
subst
politics
presidential
property
secretary
fal
studies
hyp
##utions
manager
reform
entr
##oes
save
##aker
##ables
trial
religious
piece
##akers
##oken
couldn
directly
analy
democrats
##ke
##ford
sched
judge
insur
pressure
##down
debate
##arian
##eration
od
ord
##ba
33
##ustr
##unt
##pect
ran
feed
##fort
##aur
associated
device
eu
##key
station
flor
beginning
english
compared
wood
schools
french
##light
##icted
ber
reflect
toward
##la
lic
disapp
##aint
windows
cyc
##phone
##ban
spot
beaut
ice
exch
map
contribut
##aughter
strength
largest
##ny
lif
dise
count
##emy
aim
estim
passed
wid
eyes
rand
receive
beat
digital
drink
physical
angel
minor
radio
lin
hur
conditions
conservative
failed
moved
resources
virt
##acters
##ev
photos
wide
eye
characters
alleged
##agon
reasons
clearly
ec
criminal
traff
##bur
appears
section
experim
independent
##hold
challenge
##50
door
dut
rule
##ze
absol
whate
liter
##imum
encour
champions
sales
helped
powerful
##field
whatever
##ari
fat
illeg
difference
posted
smith
promot
shut
##ocks
crisis
feature
##astic
##enty
cook
rub
controll
lock
frequ
families
myself
##inary
candidate
sem
status
send
80
fan
treatment
management
##me
spending
##iders
mexic
sources
##ara
option
##ero
shown
destroy
narr
##ipped
##rupt
##ston
weapons
mos
christian
domin
syria
murder
forced
greater
##wood
##acts
syn
australia
normal
coal
acad
##rec
previously
surr
bay
voice
mobile
franc
##using
detail
apart
##berg
signed
load
wait
necessary
tick
researchers
firm
99
unique
wel
integr
george
yourself
actions
##apt
mech
records
##wise
sea
##imin
fighting
rise
ideas
conflic
mist
picture
primary
sam
34
telev
fox
jump
arab
meant
charge
##ufact
positive
expand
alex
subm
straight
manufact
mel
goals
easily
basic
beg
border
uns
projects
mission
gives
allows
followed
restr
##iest
politic
impress
spr
wonder
developed
scen
association
customers
lines
plant
##atively
##room
knowledge
germany
plus
benefits
##oint
female
marri
##ches
pitch
##sa
##iar
uses
individuals
spread
measure
2007
cities
scott
##pts
decades
highly
##oles
speaking
weight
pm
chic
incident
scale
fine
##elling
##bed
frank
continues
##ef
fully
##set
authorities
##owing
emot
pow
nice
emp
shop
appeared
hell
##ein
hillary
van
sud
##ya
qual
rates
agreement
adding
none
traditional
options
birth
##mon
##ube
successful
professor
##iance
winning
download
##ville
advant
activity
vac
favorite
grant
##ki
catch
rh
owners
shooting
larger
constitution
90
##ivity
bush
calling
samp
noted
editor
chann
##ga
organiz
##osh
70
programs
stock
double
enforce
reached
bed
establish
album
revolution
creating
places
transport
feet
heavy
##ota
suprem
##box
libr
lou
##oft
fif
##band
gay
indeed
##iate
seeing
partners
##onents
mechan
concept
determin
application
##orter
##ented
dog
##airs
org
##aine
##iny
mostly
employees
names
funct
##oyal
fort
trou
amb
foundation
fant
gal
pun
acqu
challeng
chem
##erved
critical
adj
##bl
seemed
##board
ended
ye
kept
micros
recover
mat
notes
electric
haven
prices
funding
sad
knows
resist
operations
therefore
nine
master
england
spend
37
brief
##essed
exam
194
caused
learning
patients
hack
##opri
male
behavior
##ishing
strategy
##vin
choose
##itely
train
temper
hus
florida
values
##my
##onent
episode
actual
leaving
chicago
##iced
trib
slight
sleep
weekend
machine
##10
willing
rat
ital
opposition
television
##nn
memory
lawy
mike
38
etc
claimed
award
concerns
overs
##iring
lad
river
raised
scientists
##ortion
kid
mir
supposed
opening
policies
flag
os
bag
ali
parl
defend
generation
france
advoc
##bon
charges
happens
spl
cars
##rel
condition
spring
frame
vs
theory
##ipe
wit
residents
hor
occup
adop
camera
limit
##ifying
##dom
location
##ici
stick
tough
agree
kh
massive
produced
bomb
switch
##ries
##ulated
crowd
proper
pil
ip
ther
investment
effective
##uana
palest
ensure
unit
##itor
##arm
protection
feeling
##roid
commerc
ship
hundreds
farm
##antly
active
horr
##lined
miles
marriage
mail
##ounds
bottom
generally
solid
parties
##ibution
cash
##ado
negot
spirit
professional
pattern
commit
robert
tech
revealed
debt
operation
devices
##odes
assum
##iable
##ona
offered
##while
learned
##aa
faith
highest
initial
tend
graph
task
fresh
wil
##men
arrested
types
https
notice
pac
##iful
##pm
lose
worse
##ijuana
##icient
chris
johnson
prefer
influence
nations
49
brother
##itude
length
opinion
fle
coast
asking
appl
millions
benefit
solution
burn
believed
whom
gather
showing
trip
confirmed
compar
runs
ol
48
afford
##olic
understanding
wish
provides
driving
##istry
kr
react
anc
parliam
liberal
2006
marijuana
wing
##lusion
interested
195
francis
##ta
tro
background
##estic
produce
occas
##apped
##ipl
apply
##eline
responsible
din
cas
##itz
##iles
defe
sanders
##lant
dollars
fourth
42
categ
victory
alleg
##11
whe
300
existing
##ancy
strik
institute
islamic
era
##oving
parliament
photograph
achieve
korea
gh
illegal
authority
##craft
##aked
environmental
joined
luck
nfl
snow
species
39
veter
cold
surface
centre
disease
coop
44
##iled
##more
gam
##oses
commercial
gall
##cription
assault
incred
watching
##elled
offers
neighbor
server
wealth
bat
shock
leadership
putting
cards
proposed
agreed
##erate
convention
controvers
girls
extremely
jim
rid
canadian
##oster
exchange
witness
shared
##cing
##aves
worst
minute
documents
announce
ram
driver
finding
floor
false
traffic
labour
##pper
transl
vehicle
advantage
thom
span
register
occurr
opened
pin
explained
fuel
basis
transfer
planet
annual
supporters
##izes
restaur
eat
##time
chap
insurance
##ih
square
victims
serve
dangerous
competition
##mine
enforcement
cancer
definitely
standing
brew
doz
tools
attract
##umn
##ae
becoming
purpose
belief
banks
items
becomes
drugs
testing
jeff
legislation
contain
planned
jones
unfortun
rough
onto
survey
ded
ton
sport
coverage
##atically
views
communities
bon
reduce
construction
consequ
appeal
housing
android
##uries
accused
comfort
obviously
strike
easier
##da
served
audience
hearing
heat
libert
##uters
magaz
microsoft
otherwise
doubt
math
##abor
israeli
refuge
files
argument
imagine
planning
##itation
southern
##olf
closed
immigration
##inct
explain
animals
transform
##za
novel
75
##vant
northern
purs
##ext
dism
sites
pc
division
flight
##oom
solar
##ica
sac
amazing
carol
2000
gop
##ulate
tweet
separate
mayor
43
launched
instance
exerc
structure
##ios
pak
surround
supported
beer
suc
divers
##works
britain
issued
unless
apparently
dyn
dream
returned
##wide
sequ
stars
calc
ren
##ole
ukr
fbi
decade
hair
##ris
collection
asp
degree
telling
##ushing
partner
##ius
##utely
reject
kar
supreme
41
virgin
athlet
setting
repeated
mand
##ipping
##aks
daughter
trail
princip
##bing
##istics
##ghan
jewish
##iated
##ml
ken
##ding
ryan
##oval
##mark
ultimately
patr
governor
smaller
2005
crew
tow
charged
negative
older
55
holding
abuse
##ictions
direction
beautiful
cab
mut
suggested
spect
copyr
gender
47
##acity
missing
cath
richard
concerned
tun
subscrib
established
aware
##hen
depend
accur
plays
supply
vice
score
animal
##ato
owner
pair
asse
sav
requires
keeping
batter
meanwhile
spoke
businesses
activities
fest
stated
##cel
discovered
fol
candidates
focused
2018
##los
##gers
scientific
raise
##aud
skin
martin
##ka
infr
193
wars
conflict
attend
larg
string
nas
hate
wat
truly
palestin
jer
allowing
listen
entirely
caught
caption
cloud
copyright
waiting
sor
storm
amend
tra
discussion
magn
##ression
##do
changing
sust
championship
identity
harm
recommend
largely
sudden
migr
##ario
placed
jon
newsp
appropri
mental
mort
african
bob
japanese
##asts
doctor
absolutely
jav
laugh
bern
##outh
prosecut
sky
afghan
louis
##know
amp
##agn
##itable
decisions
reuters
innov
46
context
pakistan
01
killing
print
##hol
shad
injury
intel
models
gain
advis
baby
philos
removed
homes
mexico
magic
rang
presence
peter
jose
figures
mode
introduced
flow
providing
##irt
cy
conversation
honest
thomas
believes
africa
vul
##cl
glass
mentioned
anth
offensive
cells
earn
##inger
bod
connection
rene
domestic
##oz
identified
##rial
spokesman
crash
##igned
nov
writer
publish
window
useful
##iling
##kin
tells
ht
library
angeles
weak
religion
64
skills
##nel
##ss
##coming
corner
measures
profile
mary
lob
optim
dar
acknow
##ront
imposs
managed
hasn
guess
failure
aggress
error
##ream
##ette
rod
adjust
interests
gard
usa
##tained
nick
bull
steps
obvious
##agr
vision
finished
##onto
internal
funds
ju
observ
##ada
experts
##igan
stopped
51
##ula
standards
tests
atlant
##fc
sale
##going
sher
##gu
channel
interp
husband
rain
##oted
originally
lived
slightly
prosp
elements
rail
specifically
##onym
sounds
agent
committed
corporate
finish
joe
##isation
mont
##issions
motor
##house
52
recall
electron
yout
amazon
affect
turns
alternative
balance
##icip
exclus
random
relatively
feels
markets
edge
conclud
interact
fellow
assemb
jes
humans
hang
eastern
operating
arrived
senator
teen
neur
tourn
oce
arms
possibly
basically
##onom
filed
toronto
iron
unp
circum
youth
haw
taxes
talks
element
gm
schem
defensive
selling
developers
bond
variety
bigger
organizations
remind
cultural
native
##ander
##ano
paying
penn
elections
hers
breaking
tast
zone
starts
##arant
##azy
sides
2004
magazine
regarding
weather
familiar
fish
neither
##gl
##ola
lee
impossible
##ania
cart
videos
##anda
##others
getty
rose
tack
carbon
seconds
helping
neighborhood
soldiers
healthy
cub
nut
##ager
##well
votes
##enses
visual
jun
bost
##oe
seeking
alt
##amm
losing
linked
##rim
##hl
syrian
equip
symb
emergency
yeah
suggests
combat
bid
##rom
##ighter
privacy
accounts
units
ped
applications
##icide
happening
consult
remove
brad
rare
##dy
chairman
twice
armed
aid
lake
ceo
##ests
##acing
parent
400
assess
##aints
lie
deploy
sar
decide
steve
ash
zero
famous
penal
wer
##itory
winter
rot
broken
sector
stad
jail
clim
ox
sitting
youtube
##oms
bird
cuts
carried
##wr
hero
covered
increasingly
##kins
65
fired
equal
da
capacity
##ructure
53
schedul
weapon
coff
##isf
##uate
##usion
rein
##acher
wik
##ingly
##ii
##oves
developing
##orrow
unfortunately
breat
panel
sant
throw
posts
##resp
conce
##iot
##asy
boston
consc
bound
batt
##emic
##ata
worry
54
##gen
pictures
yards
dropped
##agues
closer
beach
rapid
quant
##ocol
prin
infrast
expert
fer
agencies
##outs
shall
las
##eness
streets
##awn
trig
charl
powers
egypt
philosoph
flash
spons
considering
##ordin
updated
voting
##any
##equ
initi
carr
trick
tight
seriously
vast
responsibility
##zz
na
guarant
diss
tag
owned
##stream
lord
retail
secure
turkey
dynam
surprise
perspect
expensive
##aling
stadium
##licit
crack
located
##apers
tree
chemical
facing
cnn
##stein
numer
revenue
unlike
instr
everybody
dur
forms
carolina
##ogen
francisco
methods
ps
vehicles
democracy
elected
copy
deput
expans
rush
stress
possibility
##och
recru
factor
##sen
##lor
lots
bridge
infrastructure
estimated
##mas
williams
muse
advanced
##essions
##80
fixed
seat
buff
greatest
governments
presented
##lines
bringing
upgr
pod
##head
stone
##rop
grab
plenty
advent
archit
equipment
config
retr
row
hotel
shift
##inn
dram
paris
detect
tact
dub
prepared
script
py
andrew
##don
schol
alco
shape
vulner
stor
apps
technical
reference
column
dim
stret
##ayer
classic
56
seasons
##ucks
pieces
emph
##hi
typically
##lets
moon
##town
##ception
construct
fi
instruct
films
supporting
virginia
du
##arks
astr
australian
giant
guide
walking
helps
troops
##ologies
kel
saud
intended
potentially
faster
entertain
boost
nic
rum
package
gear
##uke
route
minimum
##osen
##lig
##ez
explos
transition
seg
metal
turning
##ogue
##erse
prove
signs
determine
##ils
default
creative
challenges
2003
cry
##icious
bell
##ibute
forget
yester
enemy
surprising
bes
ring
factors
luc
moral
jul
percentage
studio
proposal
##gry
consumer
offering
isis
urban
wire
kur
pages
##ca
bol
purchase
distance
nobody
client
boys
pip
criticism
universe
renew
lit
jackson
combined
bbc
##porary
proced
aircraft
resol
##oned
approx
broadcast
politicians
2001
occurred
##ulations
pool
ray
industrial
bright
kim
hurt
consumers
index
ruling
##bre
advance
creation
wearing
##iations
founder
reduced
handle
mp
57
profit
maintain
##aded
##ois
##ym
regime
##how
bure
atm
braz
significantly
evening
dedic
yesterday
royal
silver
determined
voted
valid
##ani
proceed
appearance
refused
##ayed
motiv
suppl
diet
ment
resolution
iv
recorded
violent
##ography
affected
##ucing
label
forg
museum
regional
excell
wear
eval
95
bought
ron
##ointed
expressed
temp
guns
artist
accident
##ece
reporting
##osph
aftern
##ita
conducted
##12
drag
pointed
##word
matters
positions
dial
filled
initially
##gg
approved
hat
oly
##amb
amendment
les
bear
enh
expos
button
##otyp
concent
insist
##tered
##ersey
termin
apprec
##isher
ohio
02
passing
brows
ends
bowl
fash
collabor
weren
comed
59
broke
complic
involve
connected
identify
bureau
treated
remained
##ecution
suit
differences
branch
quiet
examples
remaining
session
reaction
##iber
trouble
scot
attach
leads
gon
experiment
welcome
colon
completed
dun
confidence
sharing
##30
squad
herself
grew
afternoon
ow
olymp
plants
concentr
opportunities
essentially
excited
resc
boss
pic
movies
explo
struggle
experienced
emphas
ocean
articles
##enth
##de
newslet
mun
sets
perman
extreme
coalition
warning
cow
entry
sharp
radical
numerous
##ena
rising
controlled
pure
input
depth
joint
communications
gaz
attempts
belong
reporters
edition
thoughts
craft
writ
crimes
ministry
historical
confident
##uous
terrorist
suspect
ire
memor
fashion
argued
elimin
illustr
pulled
datab
ba
hou
proud
frustr
hen
virtual
facts
05
updates
##reek
replace
##izz
faced
om
agents
motion
sov
readers
ride
evolution
##idden
dipl
shap
li
##etr
stan
contrast
##ket
seattle
emails
shel
hopes
driven
sanct
hu
jersey
unable
shr
loved
dismiss
links
imper
drivers
##othes
##oma
##ensions
pit
premier
alcohol
lg
##ura
chron
talked
##pped
output
mi
ordered
capable
##illing
playoff
##ruption
satisf
widely
materials
##gar
affairs
empt
predict
evil
storage
bodies
resident
04
stream
valley
muslims
messages
village
vent
##oking
##makers
admitted
femin
fuck
exercise
seed
opposed
cos
campus
##pted
anyway
doctors
wave
192
subsequ
perspective
substant
activists
tournament
institutions
marketing
##dp
advice
58
volume
talent
daniel
shouldn
faces
##âã
dc
##amin
writes
soviet
ancient
150
contem
gang
##illa
##ship
liqu
analyst
##abilities
denied
guid
##enda
captain
stands
sweet
inspired
stretch
improved
##lo
married
newspaper
decre
christmas
2002
chain
flood
##reh
anonym
journey
outr
brook
picked
aside
debut
legit
forum
restaurant
##otic
appropriate
ru
##enom
##known
friendly
afghanistan
airport
favour
saudi
expansion
customer
reportedly
objects
quarterback
ongoing
trigger
warm
terrorism
festival
declared
bike
pad
sacr
delivered
##ini
##bn
leaves
responded
injured
ariz
lawyer
##oul
tab
##rant
michigan
findings
experiences
fasc
distribut
##ek
gov
architect
confirm
kil
##ining
ukraine
flat
hide
wheel
mine
prep
neut
crazy
distribution
##atured
clar
yell
networks
doub
##iev
interpret
steel
thread
##ooth
statements
explains
entertainment
georg
assistant
aband
patri
contest
golden
contains
incor
roughly
essential
defined
circumst
investors
songs
practices
applied
mountain
cd
honor
columb
explan
##hab
buildings
##respond
consp
publicly
##ador
totally
guil
repr
suffered
romney
currency
03
##unte
##oman
##isters
fifth
coffee
dollar
##0000
wake
##icul
prohib
correspond
proof
effectively
tear
##iger
adam
declined
param
sir
desire
causes
util
volunte
finance
rally
swed
missed
##hr
injuries
champion
participants
franch
pu
desk
ireland
listed
patient
split
diplom
accom
acknowled
baseball
##âãâã
realize
unknown
wins
##ansas
##rd
merc
##ias
brazil
plane
##ternal
##ocket
iphone
increases
allegations
heads
symbol
fraud
knock
critics
suicide
offense
##arters
shots
fab
defence
coordin
##encing
ourselves
situ
raw
##athan
nba
tap
cere
remark
acting
fold
sym
shif
dad
accompl
##lying
sick
forest
accepted
trend
harv
waste
ble
watched
barack
adds
temperature
jews
regardless
returns
cycle
argue
3d
houston
expression
rig
chick
scheduled
height
knowing
scar
schedule
moves
classes
naz
##amental
phase
tiny
hardware
nasa
guilty
##16
##list
thinks
facility
meat
consistent
cruc
##ancing
tan
nearby
begins
strange
ts
##ns
buying
##ading
acts
basket
##what
performed
##laim
announcement
66
underst
##ionally
monit
consequences
deck
highlight
authors
promise
behavi
entered
treas
kevin
##ales
featured
tank
threats
kingdom
fantasy
##chester
pra
tort
gaming
suddenly
resistance
palestinian
62
si
ta
license
charles
household
serving
korean
constant
moments
pd
bench
unlik
disappear
surprised
##road
sister
deputy
stores
holly
necessarily
recon
mouth
warned
protests
younger
functions
existence
09
regulations
flu
sample
colorado
surveill
jesus
backed
receiving
somewhat
teachers
rape
discussed
winner
intention
follows
##burg
excellent
legend
inqu
battery
victor
grown
deaths
jr
multi
##taining
represents
artists
brings
##irty
asia
abortion
cheap
duty
85
08
##cs
manage
##bor
stood
##erves
engineering
isol
adults
pushed
adult
tay
eric
##abled
audio
communication
evol
unlikely
wage
putin
eating
lawsuit
literally
fewer
anywhere
lies
surveillance
bills
ske
liber
orders
plot
targets
sought
##15
##point
##usal
emotional
fairly
davis
sin
combination
personally
cia
promin
##fri
07
##overty
conclusion
##war
patch
##eas
chapter
comic
relevant
scored
musc
ax
importance
cruz
voc
##mates
cham
poverty
signal
ny
surg
fundamental
flying
theat
##har
succeed
brian
exhib
##acement
ell
signing
compos
root
##inet
html
##tle
heavily
##whel
agric
tall
jam
protesters
galax
##apping
myth
67
06
rar
upper
tea
gap
earned
##14
##mond
sustain
developer
spin
##place
ending
##aid
shares
##ours
immediate
disord
colleagues
versions
wound
alive
carrying
##rees
##pass
competitive
crypt
allegedly
catholic
holds
pled
poly
detailed
##han
format
approximately
##ko
72
##osphere
##acle
##uls
opponents
minim
ech
agricult
jord
opponent
embr
category
forth
replaced
bang
hoping
##mo
arizona
icon
alongside
sab
protected
mechanism
##ologist
scand
assembly
medicine
theme
opposite
##real
properties
buck
plug
suffering
harder
eld
agenda
sees
##aver
rating
awes
flav
##icts
flex
maximum
ly
functional
##uster
pushing
feat
dogs
##icing
##ll
cp
reward
unus
formed
immigrants
##roit
##nam
relationships
enr
assets
pleas
transm
shortly
##17
hey
pregn
hind
##ker
marc
az
extended
cutting
intent
##gor
rely
##xual
latter
##ala
rog
barr
frequently
selection
cannab
institution
blind
territory
##lands
closely
mit
vacc
miller
reporter
mainstream
manner
##employ
ingr
prospect
##oral
decline
63
refugees
controversial
fields
describe
fake
sentence
actor
##ockey
relative
##een
targeted
dress
tas
##urning
somehow
600
deeply
elite
passion
database
##iat
province
technologies
sorry
tested
selected
depending
##char
##here
lew
cable
pir
ticket
stephen
dedicated
teacher
directed
unemploy
conver
circumstances
coc
detroit
okay
tenn
empty
stack
bom
upcoming
extent
conscious
congressional
wilson
employment
arrang
subsid
##iques
solutions
causing
diagn
description
dealing
##ensus
referred
commitment
##elines
dry
salt
allies
truck
800
joy
medium
##hs
folks
estate
trading
noticed
requirements
journalists
reput
orient
usual
overwhel
intellect
sending
linux
comfortable
kinds
pacific
ty
stim
ted
##iences
typical
##ashed
repeatedly
struck
##ken
adapt
topic
conservatives
cha
phenom
attempted
encoun
subscribe
retire
definition
paral
empire
sight
escape
##eman
partnership
ic
awesome
approval
inher
##lv
punish
77
liver
##iami
##emies
handed
abd
##40
letters
##bel
blame
##nic
slowly
rab
enth
##fe
pilot
spell
limits
ford
##ati
rick
realized
ak
defeat
risks
universal
dall
scheme
somewhere
downtown
deleg
transportation
hidden
##agan
somebody
ven
walked
##under
##rid
sole
##ews
matches
josh
##exp
deals
##ache
kir
fel
locations
exciting
hollywood
effici
miami
recovery
navy
observed
##iveness
##night
##adel
##sey
ale
##inals
shell
mistake
weird
clock
76
kelly
##water
##awa
brothers
jordan
shadow
soul
##oked
surrounding
ros
bath
##ulf
promised
assert
zeal
raising
distinct
polls
##otes
italy
employee
##uable
spanish
##osis
falling
worker
##pa
hook
advertising
requests
statistics
##aled
cooper
georgia
bunch
som
likes
independence
elsewhere
hits
destroyed
mixed
promote
trees
grav
manufactur
democrat
anx
worldwide
##enger
##orted
comparison
puts
transpar
payment
supports
myst
irish
tony
##view
impressive
decent
250
properly
arguments
fighters
franchise
asian
angry
adopt
electr
ideal
equival
turk
##13
##ded
oak
##ien
##sl
##gas
auto
##ingu
speaker
scenes
academy
disag
goods
##pping
odd
attacked
eb
yellow
disney
regions
##itarian
judg
electronic
minority
desper
bin
sr
involving
merely
strongly
oblig
founded
withdr
##actions
harass
mas
hay
queen
writers
progressive
fees
parking
programming
assume
##pe
representative
joseph
arts
exposed
ga
redd
##ja
nomine
thor
##pool
worried
fo
facilities
courts
satell
granted
##oration
houses
drawn
##anes
ultimate
##osing
officially
##ensity
reasonable
paint
##iants
##owed
0x
##ua
moore
alliance
##win
recognize
##rey
68
69
1999
conspir
##18
robot
hockey
chose
understood
##apse
nbc
##west
comprom
assistance
electricity
jur
loan
##engers
innoc
##inations
bug
spark
##lad
mirr
neutral
##sters
payments
drew
##enders
meetings
components
barb
answers
permanent
enterpr
emissions
chosen
blow
condem
tower
reserve
tel
incredible
corruption
##dd
##bling
initiative
grass
nhl
lights
stronger
continuing
sid
informed
dod
sev
lev
academic
drinking
tip
sessions
##illed
74
##emen
##xx
estimates
thin
rival
rent
counsel
organized
enemies
shield
##born
mile
##uzz
feedback
encourage
##standing
robin
therap
ott
dozen
##ora
punch
##19
obtained
returning
veteran
ads
##iment
marsh
severe
dallas
73
lawyers
historic
##acted
primarily
pump
registered
##eller
ties
controls
italian
gate
taylor
minnes
representatives
manip
##25
roman
claiming
scotland
finds
sugar
producer
##uts
terrible
machines
hopefully
cod
##ups
overl
ultr
##friend
plastic
cannabis
tickets
habit
capture
gotten
soph
lgbt
choices
excess
confront
hub
narrative
aggressive
exclusive
browser
ruled
racial
generated
funny
##era
##care
citizen
dish
enable
mosc
stead
basketball
discovery
soccer
spain
lawmakers
explore
##gb
fu
threatened
elev
incredibly
purposes
captured
chart
unn
hole
alien
jac
perfectly
info
galaxy
jason
establishment
implic
tied
anticip
forec
array
##alf
##ographic
##pan
horse
##uits
teaching
##owa
seats
##iform
perp
##fall
##stone
stuck
##ilit
ker
mm
chances
aspects
compens
##illy
pace
clients
constantly
##icks
matth
##rum
twenty
78
anger
enthus
rejected
funded
minnesota
##woman
fiction
tail
headed
outcome
##ties
##repr
##vey
##intend
disaster
balt
avenue
taste
newly
recording
pill
contributed
wine
amounts
orange
##mann
api
dust
oreg
diam
extension
apartment
97
brut
##ikes
compreh
##inated
exists
oregon
consumption
dict
warri
##60
##oming
##weight
pent
stem
sympt
generate
wrest
keeps
occur
affil
warming
cig
yard
penalty
regularly
veget
thick
dna
anymore
dozens
stab
##edia
moscow
blocks
crucial
represented
accel
accurate
resulting
accomp
component
principles
abc
relief
##ella
strategic
holy
references
prize
explanation
privile
atmosphere
gift
ib
wis
pok
##met
##rimination
bron
sum
cyber
fred
philosophy
nar
constitutional
grade
installed
##bles
recip
remote
##ayers
roster
##raid
plate
exposure
interface
##can
weekly
##iana
##cher
catal
phr
normally
vr
demands
maps
situations
personnel
everywhere
navig
va
discip
propag
lu
henry
theor
kl
unw
ont
loud
kent
##pg
concluded
lady
depression
surgery
complaint
sheriff
efficient
##boy
legacy
thousand
