{"version":"1.0","truncation":null,"padding":null,"added_tokens":[],"normalizer":null,"pre_tokenizer":{"type":"ByteLevel","add_prefix_space":true,"trim_offsets":true},"post_processor":{"type":"ByteLevel","add_prefix_space":true,"trim_offsets":true},"decoder":{"type":"ByteLevel","add_prefix_space":true,"trim_offsets":true},"model":{"type":"BPE","dropout":null,"unk_token":null,"continuing_subword_prefix":null,"end_of_word_suffix":null,"vocab":{"!":0,"\"":1,"#":2,"$":3,"%":4,"&":5,"'":6,"(":7,")":8,"*":9,"+":10,",":11,"-":12,".":13,"/":14,"0":15,"1":16,"2":17,"3":18,"4":19,"5":20,"6":21,"7":22,"8":23,"9":24,":":25,";":26,"<":27,"=":28,">":29,"?":30,"@":31,"A":32,"B":33,"C":34,"D":35,"E":36,"F":37,"G":38,"H":39,"I":40,"J":41,"K":42,"L":43,"M":44,"N":45,"O":46,"P":47,"Q":48,"R":49,"S":50,"T":51,"U":52,"V":53,"W":54,"X":55,"Y":56,"Z":57,"[":58,"\\":59,"]":60,"^":61,"_":62,"`":63,"a":64,"b":65,"c":66,"d":67,"e":68,"f":69,"g":70,"h":71,"i":72,"j":73,"k":74,"l":75,"m":76,"n":77,"o":78,"p":79,"q":80,"r":81,"s":82,"t":83,"u":84,"v":85,"w":86,"x":87,"y":88,"z":89,"{":90,"|":91,"}":92,"~":93,"¡":94,"¢":95,"£":96,"¤":97,"¥":98,"¦":99,"§":100,"¨":101,"©":102,"ª":103,"«":104,"¬":105,"®":106,"¯":107,"°":108,"±":109,"²":110,"³":111,"´":112,"µ":113,"¶":114,"·":115,"¸":116,"¹":117,"º":118,"»":119,"¼":120,"½":121,"¾":122,"¿":123,"À":124,"Á":125,"Â":126,"Ã":127,"Ä":128,"Å":129,"Æ":130,"Ç":131,"È":132,"É":133,"Ê":134,"Ë":135,"Ì":136,"Í":137,"Î":138,"Ï":139,"Ð":140,"Ñ":141,"Ò":142,"Ó":143,"Ô":144,"Õ":145,"Ö":146,"×":147,"Ø":148,"Ù":149,"Ú":150,"Û":151,"Ü":152,"Ý":153,"Þ":154,"ß":155,"à":156,"á":157,"â":158,"ã":159,"ä":160,"å":161,"æ":162,"ç":163,"è":164,"é":165,"ê":166,"ë":167,"ì":168,"í":169,"î":170,"ï":171,"ð":172,"ñ":173,"ò":174,"ó":175,"ô":176,"õ":177,"ö":178,"÷":179,"ø":180,"ù":181,"ú":182,"û":183,"ü":184,"ý":185,"þ":186,"ÿ":187,"Ā":188,"ā":189,"Ă":190,"ă":191,"Ą":192,"ą":193,"Ć":194,"ć":195,"Ĉ":196,"ĉ":197,"Ċ":198,"ċ":199,"Č":200,"č":201,"Ď":202,"ď":203,"Đ":204,"đ":205,"Ē":206,"ē":207,"Ĕ":208,"ĕ":209,"Ė":210,"ė":211,"Ę":212,"ę":213,"Ě":214,"ě":215,"Ĝ":216,"ĝ":217,"Ğ":218,"ğ":219,"Ġ":220,"ġ":221,"Ģ":222,"ģ":223,"Ĥ":224,"ĥ":225,"Ħ":226,"ħ":227,"Ĩ":228,"ĩ":229,"Ī":230,"ī":231,"Ĭ":232,"ĭ":233,"Į":234,"į":235,"İ":236,"ı":237,"Ĳ":238,"ĳ":239,"Ĵ":240,"ĵ":241,"Ķ":242,"ķ":243,"ĸ":244,"Ĺ":245,"ĺ":246,"Ļ":247,"ļ":248,"Ľ":249,"ľ":250,"Ŀ":251,"ŀ":252,"Ł":253,"ł":254,"Ń":255,"Ġt":256,"he":257,"Ġa":258,"Ġi":259,"Ġs":260,"re":261,"Ġw":262,"Ġthe":263,"Ġo":264,"Ġb":265,"in":266,"at":267,"Ġc":268,"ou":269,"Ġ.":270,"an":271,"er":272,"Ġy":273,"on":274,"Ġd":275,"Ġp":276,"Ġl":277,"Ġm":278,"es":279,"nd":280,"Ġth":281,"Ġ?":282,"ing":283,"Ġf":284,"it":285,"Ġh":286,"ll":287,"Ġn":288,"Ġto":289,"Ġg":290,"ar":291,"or":292,"en":293,"Ġyou":294,"Ġit":295,"Ġand":296,"Ġin":297,"ed":298,"Ġwh":299,"is":300,"Ġno":301,"Ġof":302,"om":303,"le":304,"'s":305,"Ġis":306,"ay":307,"as":308,"Ġon":309,"ow":310,"ic":311,"Ġthat":312,"oo":313,"ig":314,"ac":315,"ut":316,"et":317,"Ġhe":318,"al":319,"id":320,"Ġre":321,"us":322,"ve":323,"Ġbe":324,"Ġr":325,"ĠĊ":326,"Ġe":327,"Ġse":328,"âĢ":329,"Ġcan":330,"ke":331,"ir":332,"ot":333,"'t":334,"ht":335,"Ġdo":336,"ion":337,"ad":338,"ight":339,"Ġwe":340,"ld":341,"Ġwhat":342,"Ġare":343,"ent":344,"ver":345,"ly":346,"Ġst":347,"ack":348,"os":349,"Ġsee":350,"ook":351,"all":352,"am":353,"Ġbl":354,"ith":355,"ur":356,"ĠT":357,"Ġli":358,"ite":359,"Ġwith":360,"Ġu":361,"Ġnot":362,"Ġfor":363,"Ġthere":364,"Ġyes":365,"im":366,"Ġha":367,"Ġ1":368,"Ġan":369,"Ġlook":370,"ell":371,"Ġj":372,"Ġsh":373,"ĠI":374,"ome":375,"Ġk":376,"her":377,"Ġwhite":378,"Ġlike":379,"ĠS":380,"ro":381,"ter":382,"ch":383,"Ġthis":384,"se":385,"ĠA":386,"Ġle":387,"ant":388,"Ġthey":389,"ct":390,"Ġright":391,"Ġgo":392,"Ġfr":393,"ce":394,"âĢĻ":395,"ab":396,"ers":397,"ust":398,"il":399,"ink":400,"ge":401,"pp":402,"Ġat":403,"ol":404,"Ġbut":405,"Ġhave":406,"ĠC":407,"ie":408,"and":409,"Ġ2":410,"own":411,"Ġsu":412,"ill":413,"op":414,"st":415,"Ġdon":416,"Ġwas":417,"ould":418,"ore":419,"Ġor":420,"Ġso":421,"Ġwhe":422,"Ġas":423,"ĠM":424,"ain":425,"Ġoh":426,"Ġtell":427,"Ġme":428,"Ġye":429,"Ġpl":430,"ue":431,"Ġne":432,"Ġblack":433,"ft":434,"ĠB":435,"Ġbr":436,"ation":437,"Ġyour":438,"Ġtr":439,"Ġch":440,"um":441,"Ġjust":442,"out":443,"ood":444,"Ġsome":445,"ĠThe":446,"ate":447,"Ġone":448,"Ġthink":449,"un":450,"Ġall":451,"Ġok":452,"ul":453,"Ġv":454,"Ġokay":455,"Ġup":456,"Ġab":457,"Ġlooks":458,"ah":459,"ally":460,"ap":461,"ĠâĢ":462,"ide":463,"Ġout":464,"ĠP":465,"art":466,"ind":467,"Ġcl":468,"Ġde":469,"ard":470,"ort":471,"ound":472,"Ġhere":473,"Ġcon":474,"itt":475,"Ġleft":476,"ck":477,"Ġshe":478,"Ġal":479,"ĠW":480,"Ġhis":481,"Ġkn":482,"ff":483,"ake":484,"Ġfrom":485,"Ġman":486,"Ġgr":487,"ess":488,"ĠH":489,"est":490,"ri":491,"Ġdid":492,"na":493,"ist":494,"Ġback":495,"very":496,"res":497,"Ġcom":498,"Ġpro":499,"pe":500,"ĠR":501,"Ġhas":502,"'re":503,"Ġgre":504,"Ġyeah":505,"Ġby":506,"Ġwho":507,"Ġpe":508,"Ġwant":509,"nt":510,"ast":511,"ĠD":512,"Ġget":513,"ther":514,"Ġ!":515,"Ġabout":516,"ak":517,"em":518,"ive":519,"ĠF":520,"one":521,"Ġknow":522,"Ġsa":523,"Ġblue":524,"ies":525,"Ġex":526,"Ġsay":527,"irt":528,"Ġwhere":529,"qu":530,"el":531,"Ġmay":532,"ost":533,"Ġred":534,"ĠN":535,"ose":536,"Ġbrown":537,"ice":538,"Ġbo":539,"oug":540,"Ġthem":541,"hing":542,"ure":543,"be":544,"Ġ(":545,"Ġput":546,"ity":547,"ĠG":548,"Ġother":549,"Ġmore":550,"ag":551,"ĠL":552,"ment":553,"Ġus":554,"Ġlet":555,"ame":556,"Ġwould":557,"ark":558,"Ġdoes":559,"ĠâĢľ":560,"Ġar":561,"ick":562,"âĢĿ":563,"ong":564,"red":565,"Ġover":566,"Ġgu":567,"Ġ3":568,"ople":569,"ittle":570,"Ġher":571,"Ġany":572,"ep":573,"Ġgood":574,"Ġwor":575,"dy":576,"Ġhow":577,"Ġlittle":578,"Ġvery":579,"ass":580,"Ġpeople":581,"ars":582,"ĠE":583,"Ġwill":584,"Ġoff":585,"ry":586,"Ġplay":587,"our":588,"ĠO":589,"ime":590,"Ġnow":591,"Ġ20":592,"ine":593,"ich":594,"age":595,"Ġco":596,"Ġ\"":597,"ra":598,"Ġmaybe":599,"ont":600,"able":601,"Ġbot":602,"Ġonly":603,"ib":604,"Ġsp":605,"Ġmy":606,"Ġfe":607,"Ġsaid":608,"ough":609,"Ġtoo":610,"iz":611,"Ġif":612,"ud":613,"ans":614,"Ġdown":615,"ber":616,"Ġte":617,"are":618,"Ġtheir":619,"Ġgreen":620,"onna":621,"Ġpart":622,"Ġthan":623,"ace":624,"Ġapp":625,"Ġwell":626,"Ġro":627,"Ġdi":628,"ĠJ":629,"Ġgonna":630,"Ġint":631,"use":632,"ci":633,"Ġreally":634,"Ġshirt":635,"Ġwere":636,"Ġad":637,"ild":638,"ven":639,"Ġbu":640,"Ġtw":641,"'ll":642,"Ġfl":643,"Ġbec":644,"Ġhim":645,"Ġbig":646,"ĠU":647,"Ġag":648,"ater":649,"Ġday":650,"ict":651,"Ġsm":652,"ous":653,"Ġwhen":654,"ffe":655,"ond":656,"side":657,"ase":658,"ause":659,"erson":660,"Ġcould":661,"Ġhad":662,"Ġgoing":663,"gr":664,"way":665,"ish":666,"Ġcar":667,"ign":668,"Ġpre":669,"Ġtop":670,"Ġcou":671,"'m":672,"ors":673,"Ġgir":674,"pt":675,"air":676,"Ġpr":677,"Ġguy":678,"act":679,"Ġcome":680,"pl":681,"ings":682,"ile":683,"Ġsc":684,"ree":685,"ions":686,"Ġen":687,"iv":688,"Ġwhich":689,"Ġ4":690,"if":691,"Ġun":692,"Ġperson":693,"av":694,"Ġsure":695,"ple":696,"ub":697,"th":698,"Ġmake":699,"cc":700,"ellow":701,"Ġim":702,"Ġfar":703,"Ġtime":704,"so":705,"my":706,"oss":707,"ang":708,"00":709,"Ġmo":710,"other":711,"Ġwom":712,"Ġbecause":713,"ĠTh":714,"Ġcol":715,"Ġgot":716,"ance":717,"Ġcr":718,"alk":719,"ult":720,"Ġyellow":721,"Ġqu":722,"Ġthen":723,"ĠIn":724,"ange":725,"Ġmom":726,"ress":727,"oc":728,"ip":729,"Ġnew":730,"ach":731,"day":732,"ia":733,"Ġfront":734,"ated":735,"ty":736,"Ġhand":737,"mer":738,"ny":739,"ĠK":740,"Ġtwo":741,"uck":742,"Ġbeen":743,"og":744,"Ġcont":745,"ord":746,"Ġits":747,"Ġhu":748,"omet":749,"Ġlight":750,"ect":751,"Ġway":752,"Ġbott":753,"Ġph":754,"cl":755,"ail":756,"urn":757,"Ġread":758,"fter":759,"ĠSt":760,"Ġwork":761,"Ġlot":762,"Ġsk":763,"Ġmid":764,"old":765,"Ġah":766,"per":767,"ence":768,"anna":769,"we":770,"Ġgirl":771,"irst":772,"ock":773,"ary":774,"ale":775,"orn":776,"Ġneed":777,"Ġbab":778,"ens":779,"Ġwanna":780,"Ġsomet":781,"ug":782,"Ġmost":783,"Ġper":784,"Ġ5":785,"Ġtake":786,"Ġthese":787,"int":788,"Ġsmall":789,"ible":790,"orm":791,"Ġthose":792,"Ġbet":793,"ire":794,"les":795,"Ġkind":796,"Ġhard":797,"Ġund":798,"ull":799,"Ġgl":800,"Ġalso":801,"up":802,"ial":803,"Ġstand":804,"Ġres":805,"Ġinto":806,"ian":807,"ade":808,"Ġdis":809,"Ġpict":810,"Ġbook":811,"Ġthr":812,"Ġcle":813,"Ġwhy":814,"ouse":815,"dle":816,"Ġcat":817,"ph":818,"Ġeat":819,"Ġfirst":820,"Ġaround":821,"Ġside":822,"Ġwoman":823,"Ġbaby":824,"Ġafter":825,"Ġmany":826,"Ġhel":827,"Ġact":828,"ting":829,"iss":830,"Ġcomp":831,"Ġprob":832,"Ġagain":833,"Ġtable":834,"Ġpo":835,"ĠIt":836,"ical":837,"Ġmommy":838,"bo":839,"Ġdoing":840,"Ġshould":841,"hed":842,"ory":843,"Ġsomething":844,"Ġshow":845,"ove":846,"Ġrem":847,"Ġdark":848,"Ġboy":849,"ground":850,"ons":851,"ool":852,"Ġel":853,"Ġ0":854,"ĠY":855,"Ġbus":856,"te":857,"Ġbottom":858,"Ġour":859,"ren":860,"Ġla":861,"Ġrec":862,"Ġam":863,"uch":864,"ations":865,"Ġ-":866,"Ġsun":867,"Ġlong":868,"Ġhuh":869,"Ġwr":870,"Ġhapp":871,"Ġhead":872,"ving":873,"port":874,"Ġbuild":875,"ĠHe":876,"Ġdad":877,"ĠCh":878,"Ġspe":879,"Ġaway":880,"ants":881,"Ġ201":882,"Ġvis":883,"not":884,"Ġanother":885,"Ġpol":886,"Ġsl":887,"hes":888,"Ġop":889,"Ġele":890,"Ġtre":891,"aring":892,"rent":893,"Ġpicture":894,"xt":895,"Ġwater":896,"Ġcolor":897,"ump":898,"ms":899,"Ġdog":900,"Ġcall":901,"Ġappe":902,"Ġevery":903,"Ġold":904,"Ġbackground":905,"Ġmiddle":906,"Ġche":907,"Ġhm":908,"Ġshort":909,"Ġclose":910,"ĠV":911,"Ġdoesn":912,"fe":913,"ave":914,"de":915,"Ġchair":916,"Ġbeh":917,"oney":918,"Ġgray":919,"Ġdes":920,"Ġmuch":921,"ix":922,"ird":923,"Ġaha":924,"Ġind":925,"Ġcannot":926,"ates":927,"Ġsec":928,"ath":929,"aking":930,"ob":931,"Ġbel":932,"ank":933,"ably":934,"Ġsays":935,"Ġfew":936,"lf":937,"Ġturn":938,"ction":939,"ition":940,"Ġz":941,"ne":942,"Ġpret":943,"atch":944,"Ġ6":945,"ents":946,"als":947,"Ġhold":948,"Ġeven":949,"Ġke":950,"Ġdr":951,"Ġdaddy":952,"Ġunder":953,"ious":954,"hm":955,"Ġorange":956,"Ġboth":957,"Ġem":958,"ady":959,"Ġpretty":960,"Ġlar":961,"arly":962,"Ġopen":963,"Ġhelp":964,".âĢĿ":965,"Ġball":966,"Ġcam":967,"Ġbehind":968,"right":969,"Ġtry":970,"wn":971,"ces":972,"vel":973,"get":974,"Ġwood":975,"igh":976,"Ġsign":977,"ush":978,"lic":979,"Ġelse":980,"ew":981,"Ġ19":982,"vers":983,"Ġlooking":984,"Ġdidn":985,"Ġmhm":986,"Ġnice":987,"Ġmight":988,"ually":989,"Ġbre":990,"ower":991,"Ġdiffe":992,"Ġsupp":993,"Ġstr":994,"fore":995,"ved":996,"Ġmin":997,"Ġcount":998,"Ġinside":999,"Ġprobably":1000,"od":1001,"itting":1002,"Ġsit":1003,"Ġoutside":1004,"ek":1005,"Ġthrough":1006,"Ġfind":1007,"ys":1008,"ves":1009,"ise":1010,"Ġcre":1011,"Ġwearing":1012,"Ġser":1013,"Ġacc":1014,",âĢĿ":1015,"Ġyears":1016,"Ġhome":1017,"oto":1018,"oot":1019,"Ġuse":1020,"Ġisn":1021,"Ġmade":1022,"ng":1023,"atter":1024,"du":1025,"ful":1026,"Ġhouse":1027,"Ġroom":1028,"Ġgive":1029,"Ġatt":1030,"Ġvisible":1031,"Ġsn":1032,"Ġgrey":1033,"Ġum":1034,"Ġbit":1035,"ĠBut":1036,"ets":1037,"Ġhat":1038,"Ġthree":1039,"Ġstanding":1040,"Ġthank":1041,"Ġface":1042,"Ġtrees":1043,"oll":1044,"Ġlast":1045,"Ġwind":1046,"Ġnext":1047,"man":1048,"Ġfun":1049,"Ġtrain":1050,"ĠWh":1051,"Ġcut":1052,"form":1053,"Ġdist":1054,"Ġcomm":1055,"ows":1056,"Ġstill":1057,"hen":1058,"Ġlarge":1059,"iew":1060,"cy":1061,"ount":1062,"Ġalright":1063,"Ġthings":1064,"ought":1065,"ĠThis":1066,"ike":1067,"thing":1068,"Ġbed":1069,"Ġfin":1070,"Ġpres":1071,"Ġglass":1072,"Ġend":1073,"Ġtalk":1074,"gg":1075,"Ġcent":1076,"Ġnum":1077,"Ġbear":1078,"Ġmed":1079,"Ġ10":1080,"Ġclou":1081,"chool":1082,"Ġbeing":1083,"ward":1084,"Ġreg":1085,"Ġsil":1086,"ps":1087,".\"":1088,"Ġsitting":1089,"ual":1090,"Ġstre":1091,"Ġthing":1092,"Ġdifferent":1093,"ember":1094,"Ġhair":1095,"Ġwa":1096,"ert":1097,"ĠAnd":1098,"Ġinc":1099,"ident":1100,"Ġstart":1101,"oor":1102,"Ġbefore":1103,"ating":1104,"Ġpie":1105,"ning":1106,"Ġnight":1107,"eb":1108,"cial":1109,"Ġsur":1110,"Ġyear":1111,"Ġsame":1112,"Ġpink":1113,"oh":1114,"ily":1115,"Ġwall":1116,"'d":1117,"Ġleg":1118,"Ġinter":1119,"Ġsunny":1120,"ced":1121,"Ġpur":1122,"Ġphoto":1123,"Ġ7":1124,"aper":1125,"ied":1126,"ters":1127,"Ġname":1128,"Ġdec":1129,"self":1130,"Ġchild":1131,"ather":1132,"ĠâĢĵ":1133,"uff":1134,"oon":1135,"ese":1136,"Ġbox":1137,"Ġhappen":1138,"Ġnope":1139,"Ġsecond":1140,"Ġsle":1141,"Ġmale":1142,"Ġkid":1143,"clud":1144,"ublic":1145,"Ġ30":1146,"Ġbird":1147,"Ġinv":1148,"ject":1149,"ru":1150,"ize":1151,"Ġfood":1152,"Ġposs":1153,"Ġwhile":1154,"Ġsilver":1155,"ĠUn":1156,"Ġadd":1157,"Ġreal":1158,"Ġrun":1159,"Ġgame":1160,"meric":1161,"raw":1162,"Ġtruck":1163,"Ġbelie":1164,"ane":1165,"Ġ$":1166,"Ġbro":1167,"cle":1168,"Ġrel":1169,"Ġhigh":1170,"Ġpants":1171,"ope":1172,",\"":1173,"ĠAs":1174,"io":1175,"Ġschool":1176,"Ġbetter":1177,"ĠWe":1178,"Ġsw":1179,"ative":1180,"osed":1181,"Ġmm":1182,"Ġdri":1183,"Ġsky":1184,"Ġmet":1185,"Ġappears":1186,"Ġhor":1187,"pect":1188,"Ġhoney":1189,"Ġ8":1190,"Ġset":1191,"ere":1192,"ason":1193,"Ġev":1194,"ĠâĢĶ":1195,"urt":1196,"akes":1197,"oy":1198,"ger":1199,"Ġgoes":1200,"ats":1201,"lease":1202,"Ġwatch":1203,"Ġuh":1204,"Ġguess":1205,"Ġcons":1206,"Ġswe":1207,"ince":1208,"Ġwait":1209,"der":1210,"ĠTr":1211,"Ġwalk":1212,"Ġmark":1213,"itc":1214,"Ġbas":1215,"Ġrest":1216,"Ġclear":1217,"ork":1218,"ute":1219,"Ġcook":1220,"Ġown":1221,"Ġtoday":1222,"Ġ[":1223,"Ġac":1224,"Ġmil":1225,"ier":1226,"olog":1227,"ins":1228,"Ġed":1229,"Ġteam":1230,"ular":1231,"Ġair":1232,"ures":1233,"ited":1234,"ics":1235,"Ġanim":1236,"Ġask":1237,"und":1238,"ational":1239,"imes":1240,"vern":1241,"Ġremember":1242,"Ġcare":1243,"Ġthough":1244,"time":1245,"Ġbuilding":1246,"Ġstri":1247,"alf":1248,"Ġpoint":1249,"Ġgrass":1250,"ama":1251,"uring":1252,"Ġcap":1253,"ds":1254,"ween":1255,"its":1256,"Ġgreat":1257,"Ġsy":1258,"Ġinclud":1259,"ash":1260,"ax":1261,"Ġfull":1262,"ĠRe":1263,"Ġwent":1264,"Ġstate":1265,"arn":1266,"..":1267,"ium":1268,"Ġfloor":1269,"Ġdef":1270,"Ġmean":1271,"owl":1272,"outh":1273,"era":1274,"ever":1275,"Ġbetween":1276,"Ġsuch":1277,"az":1278,"Ġyoung":1279,").":1280,"ities":1281,"ton":1282,"ĠAmeric":1283,"owing":1284,"Ġsand":1285,"ape":1286,"Ġfound":1287,"Ġpot":1288,"ble":1289,"ither":1290,"ener":1291,"ues":1292,"Ġide":1293,"Ġcalled":1294,"Ġent":1295,"most":1296,"'ve":1297,"Ġactually":1298,"Ġsub":1299,"ments":1300,"ĠNew":1301,"me":1302,"Ġhorse":1303,"Ġref":1304,"pr":1305,"Ġcour":1306,"Ġpark":1307,"Ġfour":1308,"Ġkeep":1309,"ote":1310,"Ġjack":1311,"The":1312,"Ġfac":1313,"Ġworld":1314,"ized":1315,"Ġob":1316,"Ġagainst":1317,"arch":1318,"ĠBr":1319,"Ġstreet":1320,"Ġass":1321,"Ġsim":1322,"Ġeleph":1323,"Ġeach":1324,"pped":1325,"Ġused":1326,"Ġey":1327,"izz":1328,"Ġweek":1329,"ec":1330,"Ġhalf":1331,"Ġinst":1332,"ield":1333,"led":1334,"amp":1335,"Ġreport":1336,"rect":1337,"Ġcorn":1338,"Ġter":1339,"),":1340,"Ġtan":1341,"Ġpick":1342,"Ġgovern":1343,"Ġty":1344,"Ġhi":1345,"Ġfeel":1346,"sh":1347,"ames":1348,"aw":1349,"Ġchar":1350,"Ġcur":1351,"ĠLe":1352,"Ġban":1353,"Ġ200":1354,"Ġ9":1355,"Ġmen":1356,"cept":1357,"Ġimp":1358,"oup":1359,"Ġpaper":1360,"Ġground":1361,"gan":1362,"Ġbun":1363,"Ġearly":1364,"Ġclean":1365,"Ġseems":1366,"ility":1367,"Ġlady":1368,"iend":1369,"ness":1370,"Ġcup":1371,"Ġlots":1372,"Ġfall":1373,"Ġready":1374,"Ġbelieve":1375,"ner":1376,"Ġseen":1377,"land":1378,"Ġstory":1379,"Ġdistance":1380,"Ġholding":1381,"Ġcow":1382,"cent":1383,"illion":1384,"Ġcamera":1385,"Ġplate":1386,"Ġmust":1387,"--":1388,"Ġdone":1389,"Ġsing":1390,"ĠAl":1391,"ists":1392,"ices":1393,"com":1394,"Ġlead":1395,"ĠYou":1396,"con":1397,"rib":1398,"Ġdoor":1399,"Ġenough":1400,"Ġtold":1401,"Ġcoll":1402,"ĠSo":1403,"ared":1404,"Ġleast":1405,"Ġnever":1406,"ored":1407,"body":1408,"Ġwon":1409,"Ġsho":1410,"Ġhot":1411,"cess":1412,"ĠIf":1413,"aim":1414,"Ġprodu":1415,"ana":1416,"Ġnumber":1417,"Ġgetting":1418,"Ġwar":1419,"stem":1420,"ĠFr":1421,"âĢĶ":1422,"Ġmar":1423,"uss":1424,"oun":1425,"ism":1426,"Ġdrink":1427,"Ġcenter":1428,"Ġelephant":1429,"Ġscre":1430,"Ġlate":1431,"Ġpiece":1432,"ric":1433,"Ġpizz":1434,"Ġhands":1435,"Ġsleep":1436,"Ġcloudy":1437,"Ġdress":1438,"Ġhey":1439,"eter":1440,"aint":1441,"Ġshorts":1442,"any":1443,"Ġfem":1444,"ines":1445,"Ġthought":1446,"ee":1447,"Ġhappened":1448,"ffic":1449,"que":1450,"Ġplaying":1451,"Ġnothing":1452,"Ġsqu":1453,"Ġret":1454,"med":1455,"Ġsever":1456,"bers":1457,"Ġve":1458,"aj":1459,"Ġplease":1460,"Ġsince":1461,"Ġfam":1462,"Ġbowl":1463,"Ġfoot":1464,"Ġmaking":1465,"ina":1466,"Ġlist":1467,"oth":1468,"less":1469,"Ġsnow":1470,"Ġben":1471,"att":1472,"Ġanything":1473,"Ġwhole":1474,"ired":1475,"Ġfriend":1476,"br":1477,"ense":1478,"board":1479,"Ġdaytime":1480,"Ġsort":1481,"ball":1482,"Ġseveral":1483,"Ġpass":1484,"Ġpizza":1485,"Ġblock":1486,"Ġplace":1487,"here":1488,"uc":1489,"Ġmove":1490,"Ġlove":1491,"Ġbreak":1492,"Ġdirt":1493,"ik":1494,"Ġje":1495,"Ġoffic":1496,"Ġlaw":1497,"Ġbring":1498,"ished":1499,"Ġgira":1500,"Ġeither":1501,"ically":1502,"onth":1503,"ĠFor":1504,"Ġca":1505,"Ġrecord":1506,"Ġpop":1507,"Ġzeb":1508,"Ġtoget":1509,"Ġtogether":1510,"ots":1511,"Ġquest":1512,"ĠAr":1513,"Ġcorner":1514,"Ġcars":1515,"Ġstuff":1516,"Ġtrans":1517,"key":1518,"Ġmem":1519,"ways":1520,"tern":1521,"aur":1522,"iam":1523,"Ġdraw":1524,"ator":1525,"Ġgovernment":1526,"eth":1527,"Ġjob":1528,"Ġbye":1529,"min":1530,"room":1531,"Ġhum":1532,"Ġyet":1533,"ĠIs":1534,"Ġpurple":1535,"els":1536,"Ġwindow":1537,"ige":1538,"ĠThey":1539,"ling":1540,"wh":1541,"Ġwow":1542,"ages":1543,"Ġjacket":1544,"Ġstop":1545,"Ġfeet":1546,"Ġmiss":1547,"ution":1548,"velop":1549,"gy":1550,"Ġnear":1551,"iting":1552,"Ġfact":1553,"Ġpublic":1554,"uth":1555,"Ġlater":1556,"Ġcity":1557,"Ġdoll":1558,"Ġalmost":1559,"Ġart":1560,"Ġexp":1561,"Ġcoming":1562,"oors":1563,"Ġpull":1564,"ffect":1565,"Ġidea":1566,"ains":1567,"Ġprov":1568,"ased":1569,"Ġbag":1570,"pper":1571,"Ġfive":1572,"ror":1573,"ĠSh":1574,"Ġmostly":1575,"Ġcame":1576,"Ġmoney":1577,"ĠCl":1578,"Ġsize":1579,"Ġphone":1580,"Ġdisc":1581,"Ġfoll":1582,"ific":1583,"Ġmonth":1584,"Ġfore":1585,"000":1586,"ready":1587,"Ġtree":1588,"Ġones":1589,"erest":1590,"ĠAn":1591,"ĠThere":1592,"orning":1593,"Ġmon":1594,"Ġview":1595,"Ġwomen":1596,"ĠThat":1597,"Ġbike":1598,"ives":1599,"Ġbest":1600,"Ġcake":1601,"ĠDe":1602,"Ġmot":1603,"Ġsystem":1604,"Ġalready":1605,"Ġsupport":1606,"Ġconf":1607,"Ġduring":1608,"Ġeas":1609,"by":1610,"Ġplayer":1611,"Ġpos":1612,"Ġexper":1613,"Ġmorning":1614,"ĠTrump":1615,"iness":1616,"ider":1617,"ok":1618,"Ġadult":1619,"Ġ12":1620,"cast":1621,"Ġpen":1622,"Ġstick":1623,"Ġpush":1624,".[":1625,"Ġext":1626,"anc":1627,"Ġpossib":1628,"Ġdin":1629,"Ġcomes":1630,"Ġstore":1631,"ister":1632,"Ġstay":1633,"Ġinf":1634,"Ġresp":1635,"Ġroad":1636,"Ġstrip":1637,"Ġunt":1638,"owers":1639,"Ġarea":1640,"Ġwin":1641,"Ġrock":1642,"Ġfire":1643,"alth":1644,"Ġdirect":1645,"Ġpolit":1646,"Ġiss":1647,"Ġopp":1648,"Ġcoun":1649,"Ġju":1650,"ĠCom":1651,"ries":1652,"Ġexpl":1653,"arl":1654,"Ġfemale":1655,"Ġclos":1656,"Ġdesign":1657,"hip":1658,"bre":1659,"ey":1660,"Ġrep":1661,"Ġzebra":1662,"Ġcomple":1663,"orth":1664,"Ġgiraffe":1665,"iding":1666,"acks":1667,"Ġeng":1668,"Ġprot":1669,"Ġbad":1670,"Ġdevelop":1671,"uit":1672,"Ġcountry":1673,"Ġmilk":1674,"Ġtall":1675,"Ġwithout":1676,"Ġstud":1677,"Ġeating":1678,"Ġgener":1679,"Ġinterest":1680,"Ġcheese":1681,"Ġsaw":1682,"Ġpower":1683,"row":1684,"Ġproble":1685,"Ġpast":1686,"Ġpri":1687,"Ġcontin":1688,"Ġplan":1689,"Ġbeige":1690,"Ġsweet":1691,"Ġ'":1692,"Ġever":1693,"Ġaren":1694,"Ġmouth":1695,"ear":1696,"Ġkitt":1697,"Ġconc":1698,"cher":1699,"Ġhell":1700,"Ġste":1701,"Ġboat":1702,"Ġpu":1703,"Ġfix":1704,"ides":1705,"Ġalways":1706,"Ġtook":1707,"Ġcouple":1708,"Ġcase":1709,"Ġlife":1710,"Ġcor":1711,"part":1712,"ertain":1713,"ĠOn":1714,"Ġanimals":1715,"ention":1716,"ret":1717,"Ġhear":1718,"Ġcontro":1719,"Ġaw":1720,"ern":1721,"ma":1722,"Ġcamp":1723,"Ġjeans":1724,"ĠHow":1725,"Ġfil":1726,"ision":1727,"Ġmedium":1728,"Ġtrying":1729,"Ġsomeone":1730,"ex":1731,"gle":1732,"Ġgroup":1733,"Ġboard":1734,"view":1735,"ature":1736,"Ġ40":1737,"aves":1738,"ital":1739,"apt":1740,"ross":1741,"Ġdem":1742,"ety":1743,"Ġduck":1744,"head":1745,"Ġinvest":1746,"Ġchick":1747,"Ġround":1748,"enn":1749,"ately":1750,"Ġhaving":1751,"Ġpost":1752,"Ġann":1753,"ĠAt":1754,"Ġrequ":1755,"ĠUS":1756,"Ġtow":1757,"Ġappear":1758,"Ġchange":1759,"ology":1760,"illy":1761,"Ġcir":1762,"ĠâĢĺ":1763,"ording":1764,"Ġlo":1765,"Ġmain":1766,"Ġloc":1767,"Ġpartic":1768,"erst":1769,"Ġline":1770,"Ġcommun":1771,"Ġusing":1772,"rist":1773,"Ġeyes":1774,"Ġtaking":1775,"orry":1776,"ised":1777,"end":1778,"rence":1779,"Ġquite":1780,"ivers":1781,"tend":1782,"co":1783,"ĠAd":1784,"ten":1785,"Ġuntil":1786,"Ġimage":1787,"Ġadv":1788,"zz":1789,"unch":1790,"Ġothers":1791,"let":1792,"ata":1793,"Ġless":1794,"ta":1795,"Ġpossibly":1796,"ĠRep":1797,"Ġbar":1798,"iver":1799,"Ġ15":1800,"Ġleave":1801,"Ġabove":1802,"ged":1803,"ouch":1804,"ĠInd":1805,"aps":1806,"Ġtom":1807,"chn":1808,"Ġcouch":1809,"pping":1810,"Ġpat":1811,"Ġfield":1812,"Ġmult":1813,"ife":1814,"ffee":1815,"Ġchildren":1816,"ming":1817,"20":1818,"erv":1819,"Ġthrow":1820,"Ġpercent":1821,"Ġhello":1822,"Ġegg":1823,"Ġpolice":1824,"Ġmic":1825,"Ġav":1826,"Ġpay":1827,"Ġboo":1828,"Ġmakes":1829,"Ġimport":1830,"Ġsound":1831,"urry":1832,"Ġwalking":1833,"ãģ":1834,"Ġresult":1835,"ctor":1836,"ura":1837,"ops":1838,"Ġcream":1839,"Ġyep":1840,"Ġins":1841,"Ġapple":1842,"Ġbright":1843,"Ġfunny":1844,"Ġjump":1845,"verage":1846,"gram":1847,"Ġsorry":1848,"ron":1849,"ral":1850,"Ġcoffee":1851,"Ġbuy":1852,"Ġmess":1853,"Ġgi":1854,"conom":1855,"Ġeverything":1856,"ĠBl":1857,"Ġincluding":1858,"lla":1859,"Ġblond":1860,"where":1861,"ov":1862,"Ġsheep":1863,"Ġbuildings":1864,"Ġable":1865,"ĠZ":1866,"Ġbusiness":1867,"used":1868,"ered":1869,"Ġsix":1870,"wards":1871,"inal":1872,"Ġsol":1873,"Ġjuice":1874,"Ġsaying":1875,"ement":1876,"atur":1877,"the":1878,"Ġhit":1879,"Ġtest":1880,"Ġrecent":1881,"gie":1882,"Ġseason":1883,"ald":1884,"Ġpig":1885,"Ġmillion":1886,"ined":1887,"Ġincre":1888,"Ġsum":1889,"Ġexam":1890,"Ġsandw":1891,"Ġarm":1892,"to":1893,"ohn":1894,"Ġfree":1895,"Ġalong":1896,"unk":1897,"Ġbath":1898,"Ġmetal":1899,"ls":1900,"Ġprof":1901,"Ġtype":1902,"pend":1903,"Ġhappy":1904,"ases":1905,"Ġnews":1906,"Ġfish":1907,"Ġappro":1908,"line":1909,"Ġda":1910,"Ġworking":1911,"Ġroll":1912,"urs":1913,"ering":1914,"Ġvar":1915,"ially":1916,"Ġclot":1917,"aken":1918,"Ġovercast":1919,"ency":1920,"Ġ11":1921,"ained":1922,"Ġacross":1923,"Ġgold":1924,"Ġparty":1925,"Ġunderst":1926,"Ġminute":1927,"ung":1928,"Ġumbre":1929,"Ġflowers":1930,"bs":1931,"Ġwooden":1932,"Ġbase":1933,"Ġra":1934,"ĠAmerican":1935,"Ġsal":1936,"icy":1937,"Ġ18":1938,"Ġcounter":1939,"Ġmother":1940,"Ġshoes":1941,"Ġcost":1942,"ĠShe":1943,"ĠPro":1944,"ract":1945,"Ġ50":1946,"Ġform":1947,"ER":1948,"Ġ&":1949,"Ġmatter":1950,"Ġnose":1951,"irth":1952,"Ġbatter":1953,"ony":1954,"Ġlevel":1955,"oman":1956,"Ġmeans":1957,"ole":1958,"ts":1959,"Ġwhoo":1960,"Ġhurt":1961,"Ġclass":1962,"idge":1963,"Ġtalking":1964,"Ġglasses":1965,"ef":1966,"Ġpress":1967,"Ġfence":1968,"ajor":1969,"ĠWhen":1970,"Ġinform":1971,"Ġrain":1972,"Ġpresent":1973,"Ġes":1974,"Ġmus":1975,"Ġjo":1976,"ato":1977,"vious":1978,"Ġquestion":1979,"ided":1980,"Ġfamily":1981,"We":1982,"Ġdays":1983,"ught":1984,"sc":1985,"ocr":1986,"Ġeconom":1987,"Ġwants":1988,"Ġprom":1989,"Ġeffect":1990,"Ġval":1991,"Ġmod":1992,"10":1993,"Ġkey":1994,"ppy":1995,"Ġlay":1996,"Ġliving":1997,"ones":1998,"Ġwanted":1999,"ration":2000,"Ġsandwich":2001,"Ġbirth":2002,"eng":2003,"Ġbooks":2004,"Ġland":2005,"Ġcold":2006,"Ġserv":2007,"Ġtouch":2008,"Ġconst":2009,"phone":2010,"Ġmama":2011,"Ġchang":2012,"Ġbody":2013,"atic":2014,"Ġplane":2015,"itchen":2016,"Ġwasn":2017,"Ġlaura":2018,"Ġexc":2019,"Ġtechn":2020,"arent":2021,"Ġgrand":2022,"icle":2023,"Ġshall":2024,"ead":2025,"ude":2026,"avor":2027,"Ġkitchen":2028,"uthor":2029,"Ġmotor":2030,"ards":2031,"Ġscreen":2032,"ĠBe":2033,"oof":2034,"Ġprogram":2035,"Ġfing":2036,"Ġasked":2037,"Ġfair":2038,"Ġcurrent":2039,"Ġcertain":2040,"ĠWhat":2041,"Ġpresident":2042,"uce":2043,"gin":2044,"ched":2045,"ring":2046,"Ġbottle":2047,"ians":2048,"ience":2049,"Ġcompany":2050,"Ġonce":2051,"Ġgone":2052,"Ġshot":2053,"Ġplayers":2054,"work":2055,"lect":2056,"ional":2057,"Ġimportant":2058,"Ġdonut":2059,"Ġdro":2060,"bit":2061,"Ġpar":2062,"iling":2063,"aid":2064,"ury":2065,"ĠQ":2066,"Ġblonde":2067,"ĠMr":2068,"Ġlive":2069,"Ġunderstand":2070,"Ġhelm":2071,"ories":2072,"ief":2073,"Ġfacing":2074,"aph":2075,"Ġid":2076,"AN":2077,"ĠPh":2078,"Ġcover":2079,"ĠMan":2080,"ift":2081,"Ġprocess":2082,"Ġlikely":2083,"Ġcourt":2084,"iny":2085,"Ġrece":2086,"Ġmarket":2087,"ĠOne":2088,"Ġorgan":2089,"Ġoffice":2090,"ior":2091,"ĠTo":2092,"ocol":2093,"Ġumbrella":2094,"Ġtax":2095,"ĠPr":2096,"Ġwords":2097,"une":2098,"illed":2099,"Ġelect":2100,"Ġtoys":2101,"avy":2102,"Ġtape":2103,"Ġpage":2104,"Ġclouds":2105,"ĠPl":2106,"noon":2107,"Ġmag":2108,"Ġcookie":2109,"ĠUnited":2110,"It":2111,"Ġtaken":2112,"Ġthre":2113,"Ġfoc":2114,"Ġmeet":2115,"ches":2116,"mi":2117,"aut":2118,"Ġafternoon":2119,"oli":2120,"Ġclosed":2121,"Ġhang":2122,"ĠCan":2123,"Ġdet":2124,"Ġmir":2125,"vered":2126,"Ġer":2127,"Ġolder":2128,"Ġclaim":2129,"Ġmajor":2130,"Ġexpect":2131,"Ġsong":2132,"ĠCon":2133,"utes":2134,"astic":2135,"Ġhealth":2136,"Ġorder":2137,"Ġletter":2138,"ĠSp":2139,"Ġpossible":2140,"Ġrese":2141,"Ġproject":2142,"Ġwrite":2143,"ĠAll":2144,"Ġlegs":2145,"itor":2146,"Ġhist":2147,"lex":2148,"Ġtimes":2149,"acy":2150,"Ġice":2151,"Ġfight":2152,"ĠOb":2153,"Ġtot":2154,"Ġcovered":2155,"Ġest":2156,"Ġcareful":2157,"Ġwrong":2158,"Ġdata":2159,"Ġword":2160,"Ġcolors":2161,"Ġreturn":2162,"light":2163,"ĠEur":2164,"ĠPres":2165,"ising":2166,"son":2167,"arah":2168,"Ġlower":2169,"Ġneeds":2170,"Ġkids":2171,"Ġcourse":2172,"aign":2173,"owed":2174,"Ġwindows":2175,"Ġoutd":2176,"Ġsweetie":2177,"ying":2178,"Ġthird":2179,"Ġfly":2180,"Ġproblem":2181,"Ġblurry":2182,"airs":2183,"ĠGr":2184,"sel":2185,"Ġyay":2186,"Ġaverage":2187,"Ġahead":2188,"Ġbirthday":2189,"ted":2190,"ploy":2191,"Ġtwent":2192,"Ġlow":2193,"Ġclock":2194,"Ġ--":2195,"Ġ25":2196,"Ġchoo":2197,"Ġvide":2198,"eral":2199,"Ġwriting":2200,"Ġsilly":2201,"Ġanimal":2202,"ĠTw":2203,"Ġbunny":2204,"ient":2205,"ĠMar":2206,"Ġfell":2207,"Ġhuman":2208,"iol":2209,"Ġhour":2210,"Ġclothes":2211,"Ġseem":2212,"ler":2213,"Ġtick":2214,"Ġdeal":2215,"ĠJohn":2216,"ality":2217,"Ġregular":2218,"Ġta":2219,"Ġbanana":2220,"Ġmix":2221,"ene":2222,"30":2223,"Ġclim":2224,"cient":2225,"Ġpolitical":2226,"Ġsummer":2227,"Ġage":2228,"ĠOr":2229,"ured":2230,"Ġequ":2231,"Ġdeb":2232,"Ġdirty":2233,"ued":2234,"Ġbecome":2235,"Ġmulti":2236,"Ġ,":2237,"ison":2238,"Ġcarr":2239,"Ġrunning":2240,"Ġkiss":2241,"Ġlearn":2242,"Ġgames":2243,"Ġchocol":2244,"Ġcheck":2245,"Ġintern":2246,"aster":2247,"aul":2248,"Ġbread":2249,"ators":2250,"Ġspecial":2251,"Ġleaves":2252,"Ġfur":2253,"ĠNo":2254,"Ġsurf":2255,"Ġofficial":2256,"ĠTe":2257,"Ġfit":2258,"Ġstrong":2259,"Ġoften":2260,"Ġcampaign":2261,"ummy":2262,"Ġlisten":2263,"Ġooh":2264,"Ġpract":2265,"raft":2266,"Ġant":2267,"Ġinformation":2268,"udy":2269,"Ġbutter":2270,"Ġdel":2271,"ery":2272,"ĠDem":2273,"ĠRepublic":2274,"Ġchocolate":2275,"Ġkittie":2276,"af":2277,"Ġnon":2278,"ccess":2279,"Ġpic":2280,"Ġmonths":2281,"Ġride":2282,"Ġvot":2283,"Ġoper":2284,"ails":2285,"Ġblank":2286,"Ġindoors":2287,"Ġdesk":2288,"Ġfavor":2289,"ĠMay":2290,"Ġprop":2291,"Ġtie":2292,"Ġreason":2293,"Ġsink":2294,"Ġgave":2295,"for":2296,"itch":2297,"ption":2298,"Ġstarted":2299,"Ġsarah":2300,"Ġstep":2301,"Ġnorm":2302,"idence":2303,"Ġhig":2304,"Ġcolored":2305,"Ġsuit":2306,"ĠPresident":2307,"kes":2308,"Ġmount":2309,"Ġfig":2310,"Ġlapt":2311,"pty":2312,"Ġfund":2313,"Ġpaint":2314,"Ġbench":2315,"ON":2316,"Ġdou":2317,"Ġwhether":2318,"Ġ199":2319,"gest":2320,"Ġlit":2321,"Ġwilliam":2322,"Ġhope":2323,"Ġquick":2324,"ley":2325,"den":2326,"erman":2327,"Ġformer":2328,"Ġtv":2329,"Ġocc":2330,"Ġsoon":2331,"Ġwhoops":2332,"ox":2333,"Ġeight":2334,"Ġcharac":2335,"Ġyourself":2336,"Ġevent":2337,"urity":2338,"Ġwond":2339,"Ġtrad":2340,"app":2341,"Ġago":2342,"Ġrather":2343,"Ġcond":2344,"iversity":2345,"book":2346,"Ġengine":2347,"Ġhelmet":2348,"tt":2349,"Ġcomput":2350,"mber":2351,"ization":2352,"ĠGre":2353,"Ġtoile":2354,"Ġauthor":2355,"ĠYork":2356,"Ġpriv":2357,"Ġtra":2358,"ney":2359,"par":2360,"ĠEurope":2361,"Ġbelow":2362,"Ġturned":2363,"Ġdefin":2364,"ensive":2365,"eg":2366,"cil":2367,"walk":2368,"amb":2369,"amed":2370,"Ġbrocc":2371,"ential":2372,"Ġarg":2373,"Ġperform":2374,"ales":2375,"itions":2376,"Ġsupposed":2377,"Ġfriends":2378,"Ġcomplete":2379,"Ġrac":2380,"Ġshad":2381,"__":2382,"oice":2383,"Ġbeach":2384,"iel":2385,"Ġmind":2386,"ague":2387,"Ġcrit":2388,"Ġpictures":2389,"Ġmusic":2390,"Ġbrick":2391,"Ġrestaur":2392,"ables":2393,"Ġlab":2394,"ĠIm":2395,"lo":2396,"Ġnap":2397,"iving":2398,"Ġsigns":2399,"Ġcomb":2400,"Ġspace":2401,"Ġslee":2402,"nect":2403,"Ġguys":2404,"Ġfut":2405,"cif":2406,"osh":2407,"ĠWith":2408,"Ġmov":2409,"Ġcatch":2410,"Ġmotorcy":2411,"ĠAfter":2412,"Ġbare":2413,"rest":2414,"Ġseat":2415,"Ġswim":2416,"Ġcry":2417,"Ġross":2418,"Ġchicken":2419,"Ġtele":2420,"year":2421,"Ġmirror":2422,"Ġmouse":2423,"ĠSc":2424,"aged":2425,"Ġsingle":2426,"ortun":2427,"Ġtoilet":2428,"ks":2429,"Ġaccording":2430,"itter":2431,"umb":2432,"Ġcal":2433,"Ġputting":2434,"Ġactiv":2435,"Ġport":2436,"Ġsent":2437,"ann":2438,"Ġentire":2439,"Ġwear":2440,"IN":2441,"ken":2442,"Ġviol":2443,"empt":2444,"Ġlim":2445,"Ġspoon":2446,"Ġbroccoli":2447,"Ġfre":2448,"ĠMc":2449,"Ġfast":2450,"Ġdoggie":2451,"ubl":2452,"Ġlights":2453,"ĠEx":2454,"ified":2455,"Ġrow":2456,"vert":2457,"Ġlaptop":2458,"Ġexact":2459,"nding":2460,"Ġwatching":2461,"ites":2462,"Ġveh":2463,"ĠHowever":2464,"Ġvers":2465,"ÂŃ":2466,"oke":2467,"âĢ¦":2468,"ada":2469,"ume":2470,"ai":2471,"Ġsuper":2472,"Ġcause":2473,"haps":2474,"ivid":2475,"iet":2476,"Ġwi":2477,"Ġcoat":2478,"Ġmoder":2479,"Ġstar":2480,"Ġnumbers":2481,"Ġproduct":2482,"Ġrele":2483,"Ġseven":2484,"Ġwithin":2485,"ĠComm":2486,"Ġclosest":2487,"Ġstudy":2488,"Ġtail":2489,"Ġsour":2490,"ĠObama":2491,"Ġhors":2492,"Ġsocial":2493,"ument":2494,"ried":2495,"Ġsometimes":2496,"ggest":2497,"Ġprotect":2498,"Ġident":2499,"Ġnet":2500,"Ġsuggest":2501,"play":2502,"Ġadam":2503,"vent":2504,"50":2505,"Ġ13":2506,"ĠDemocr":2507,"cing":2508,"gress":2509,"Ġgar":2510,"ĠPol":2511,"Ġbat":2512,"Ġpill":2513,"ĠRuss":2514,"Ġdesc":2515,"itive":2516,"Ġpan":2517,"ugg":2518,"Ġexample":2519,"AR":2520,"ĠCent":2521,"Ġgotta":2522,"Ġpeek":2523,"Ġ=":2524,"Ġlost":2525,"Ġbeaut":2526,"Ġwouldn":2527,"soci":2528,"Ġminutes":2529,"ges":2530,"though":2531,"Ġmembers":2532,"Ġcand":2533,"Ġmedia":2534,"Ġwalls":2535,"Ġsquare":2536,"reme":2537,"Ġsuccess":2538,"ĠGu":2539,"go":2540,"Ġapart":2541,"Ġmilit":2542,"Ġcool":2543,"Ġcompet":2544,"Ġbased":2545,"come":2546,"ĠStates":2547,"Ġinstead":2548,"Ġknown":2549,"Ġannoun":2550,"Th":2551,"Ġ16":2552,"Ġgets":2553,"kin":2554,"back":2555,"ference":2556,"AT":2557,"Ġrestaurant":2558,"aff":2559,"Ġalone":2560,"arth":2561,"Ġanyone":2562,"fast":2563,"oint":2564,"what":2565,"cially":2566,"Ġvideo":2567,"Ġlocal":2568,"Ġ14":2569,"Ġdeep":2570,"Ġcatcher":2571,"ket":2572,"ilar":2573,"ands":2574,"itional":2575,"ĠChrist":2576,"Ġce":2577,"ashing":2578,"Ġdev":2579,"por":2580,"ĠSy":2581,"Ġfuture":2582,"Ġstriped":2583,"Ġattack":2584,"Ġreported":2585,"ached":2586,"Ġtrue":2587,"ips":2588,"rew":2589,"Ġpieces":2590,"Ġstra":2591,"Ġspot":2592,"Ġbur":2593,"Ġedge":2594,"Ġwhoa":2595,"Ġlog":2596,"Ġrul":2597,"Ġsoft":2598,"ware":2599,"ott":2600,"Ġorig":2601,"ĠState":2602,"Ġempty":2603,"Ġgrow":2604,"Ġgiven":2605,"Ġamong":2606,"osp":2607,"ĠWhile":2608,"ully":2609,"Ġcell":2610,"Ġinvestig":2611,"Ġtyp":2612,"selves":2613,"urch":2614,"Ġhar":2615,"Ġindivid":2616,"Ġpack":2617,"ourn":2618,"Ġcontrol":2619,"19":2620,"Ġcarry":2621,"Ġsidewalk":2622,"Ġinvol":2623,"Ġtoy":2624,"ha":2625,"Ġmicro":2626,"orld":2627,"Ġoops":2628,"ĠMin":2629,"Ġeveryone":2630,"Ġcab":2631,"Ġplastic":2632,"Ġfurther":2633,"ilt":2634,"sw":2635,"ruct":2636,"Ġbutton":2637,"unt":2638,"rog":2639,"IG":2640,"Ġdom":2641,"Ġfollowing":2642,"oop":2643,"Ġten":2644,"Ġwhose":2645,"Ġissue":2646,"Ġproper":2647,"Ġstraight":2648,"Ġblocks":2649,"Ġplac":2650,"hest":2651,"ulation":2652,"Ġtar":2653,"Ġ#":2654,"Ġow":2655,"osaur":2656,"Ġprofess":2657,"aima":2658,"Ġabe":2659,"Ġnomi":2660,"Ġindust":2661,"Ġfail":2662,"Ġnaima":2663,"uct":2664,"ze":2665,"rel":2666,"ances":2667,"ination":2668,"ived":2669,"ailable":2670,"Ġscr":2671,"Ġhuge":2672,"Ġtrack":2673,"ĠEd":2674,"Ġhimself":2675,"ager":2676,"oom":2677,"Ġwee":2678,"Ġbegin":2679,"ĠSe":2680,"Ġexcept":2681,"fficult":2682,"la":2683,"iger":2684,"Ġfed":2685,"ission":2686,"ills":2687,"Ġmeat":2688,"Ġdefe":2689,"11":2690,"Ġplayed":2691,"iday":2692,"Ġbreakfast":2693,"lish":2694,"Ġpoor":2695,"Ġcapt":2696,"Ġcommunity":2697,"ĠSen":2698,"Ġimpro":2699,"Ġnational":2700,"Ġsomewhat":2701,"Ġeth":2702,"Ġzoo":2703,"ĠAmerica":2704,"Ġeasy":2705,"ream":2706,"Ġcross":2707,"Ġmeas":2708,"Ġwide":2709,"Ġdifficult":2710,"Ġamount":2711,"ris":2712,"ĠHouse":2713,"Ġdry":2714,"AS":2715,"Ġski":2716,"mb":2717,"Ġchairs":2718,"Ġfather":2719,"âĢĵ":2720,"Ġstat":2721,"Ġpoints":2722,"angu":2723,"icles":2724,"Ġaut":2725,"Ġslight":2726,"Ġmat":2727,"anas":2728,"ĠNow":2729,"ĠÂ":2730,"Ġsized":2731,"Ġhappens":2732,"Ġframe":2733,"Ġbirds":2734,"Ġadded":2735,"Ġwarm":2736,"ober":2737,"eds":2738,"Ġ2016":2739,"Ġdriver":2740,"ien":2741,"Ġplant":2742,"Ġmotorcycle":2743,"Ġfruit":2744,"Ġtea":2745,"read":2746,"Ġcontain":2747,"Ġbunch":2748,"Ġneck":2749,"Ġfinish":2750,"Ġdrive":2751,"...":2752,"Ġgun":2753,"Ġtiny":2754,"Ġhy":2755,"itely":2756,"Ġitself":2757,"Ġconnect":2758,"iful":2759,"Ġworks":2760,"Ġham":2761,"ĠSec":2762,"ĠNot":2763,"iff":2764,"Ġanal":2765,"agon":2766,"12":2767,"Ġbasket":2768,"ĠAb":2769,"ĠCal":2770,"Ġspecif":2771,"Ġtile":2772,"Ġheart":2773,"Ġ17":2774,"Ġshare":2775,"Ġbank":2776,"Ġstripes":2777,"Ġnormal":2778,"Ġris":2779,"Ġdiscuss":2780,"Ġcomputer":2781,"Ġcrow":2782,"Ġoutdoors":2783,"rodu":2784,"----":2785,"Ġstuck":2786,"ply":2787,"Ġ100":2788,"Ġdead":2789,".,":2790,"zy":2791,"Ġmatch":2792,"Ġsomebody":2793,"ĠGerman":2794,"Ġsurpr":2795,"Ġteac":2796,"fully":2797,"ege":2798,"ffort":2799,"Ġill":2800,"Ġwild":2801,"lection":2802,"Ġrepres":2803,"Ġring":2804,"terday":2805,"nes":2806,"Ġrad":2807,"Ġtowards":2808,"Ġconsider":2809,"Ġobject":2810,"Ġfocus":2811,"Ġsimilar":2812,"Ġteen":2813,"ĠLE":2814,"Ġtotal":2815,"eor":2816,"ability":2817,"Ġbite":2818,"oud":2819,"erry":2820,"ĠEng":2821,"attern":2822,"Ġsex":2823,"Ġshows":2824,"Ġavailable":2825,"ĠX":2826,"Ġwet":2827,"Ġheard":2828,"iron":2829,"ĠDon":2830,"Ġfinished":2831,"Ġfavorite":2832,"Ġsus":2833,"yle":2834,"Ġvase":2835,"Ġhowever":2836,"Ġseries":2837,"Ġeffort":2838,"Ġserious":2839,"Ġcard":2840,"Ġtown":2841,"Ġperhaps":2842,"Ġet":2843,"Ġreading":2844,"ural":2845,"Ġmoving":2846,"Ġbud":2847,"Ġwonder":2848,"au":2849,"Ġpubl":2850,"Ġstates":2851,"ennis":2852,"ustom":2853,"Ġbrush":2854,"Ġattempt":2855,"ĠFl":2856,"val":2857,"Ġhistory":2858,"Ġitem":2859,"Ġaccount":2860,"sy":2861,"ĠCity":2862,"got":2863,"minist":2864,"oe":2865,"graph":2866,"Ġexactly":2867,"Ġhung":2868,"pecially":2869,"ĠUniversity":2870,"Ġbeautiful":2871,"Ġexperience":2872,"Ġinfl":2873,"Ġfairly":2874,"Ġdue":2875,"Ġbell":2876,"Ġmovie":2877,"Ġyesterday":2878,"aker":2879,"Ġbigger":2880,"Ġcouldn":2881,"Ġbananas":2882,"more":2883,"Ġgoodness":2884,"Ġmilitary":2885,"Ġtool":2886,"Ġrab":2887,"Ġlunch":2888,"pet":2889,"Ġsat":2890,"Ġcray":2891,"Ġemploy":2892,"15":2893,"viron":2894,"Ġhon":2895,"Ġabs":2896,"Ġhop":2897,"Ġfeed":2898,"Ġpattern":2899,"ĠBrit":2900,"uly":2901,"Ġ2015":2902,"Ġparked":2903,"mon":2904,"aving":2905,"Ġfilm":2906,"Ġbang":2907,"Ġsuitc":2908,"lin":2909,"uation":2910,"nder":2911,"Ġkinda":2912,"Ġblanket":2913,"ael":2914,"ĠThese":2915,"Ġinde":2916,"Ġmodern":2917,"avid":2918,"Ġwrote":2919,"ĠChina":2920,"Ġbroken":2921,"Ġfootball":2922,"omas":2923,"inton":2924,"ran":2925,"Ġhaven":2926,"oph":2927,"ĠMed":2928,"Ġteeth":2929,"asing":2930,"Ġboys":2931,"hood":2932,"Ġhous":2933,"Ġvict":2934,"Ġtakes":2935,"ĠAust":2936,"rael":2937,"rete":2938,"ES":2939,"Ġdeath":2940,"Ġeye":2941,"Ġsad":2942,"Ġ]":2943,"ĠWorld":2944,"Ġpretend":2945,"FT":2946,"Ġur":2947,"ĠHis":2948,"Ġflower":2949,"Ġaud":2950,"Ġwine":2951,"cies":2952,"ster":2953,"ept":2954,"//":2955,"Ġbenef":2956,"Ġfine":2957,"Ġ2014":2958,"Ġhigher":2959,"Ġletters":2960,"Ġalex":2961,"Ġcountries":2962,"Ġcircle":2963,"ĠSome":2964,"Ġprevious":2965,"Ġbaseball":2966,"Ġvan":2967,"IT":2968,"Ġpolicy":2969,"Ġdefinitely":2970,"orrow":2971,"ently":2972,"Ġsmaller":2973,"Ġcollect":2974,"Ġpet":2975,"Ġtast":2976,"arlier":2977,"Ġconcern":2978,"ĠDr":2979,"Ġmach":2980,"ĠCo":2981,"gl":2982,"akers":2983,"Ġresearch":2984,"een":2985,"Ġposition":2986,"ĠHar":2987,"Ġupper":2988,"ĠCar":2989,"ĠNe":2990,"Ġrelig":2991,"IR":2992,"Ġcrack":2993,"Ġmoment":2994,"rench":2995,"Ġeggs":2996,"Ġted":2997,"Ġairpl":2998,"aniel":2999,"Ġflat":3000,"Ġriding":3001,"Ġroman":3002,"Ġansw":3003,"ĠWhite":3004,"anies":3005,"Ġlonger":3006,"Ġedit":3007,"Ġtennis":3008,"Ġwheel":3009,"Ġfinger":3010,"ault":3011,"ĠNorth":3012,"shirt":3013,"Ġsmiling":3014,"Ġslice":3015,"Ġopt":3016,"Ġcult":3017,"ĠClinton":3018,"anger":3019,"Ġsimply":3020,"Ġexist":3021,"Ġdinosaur":3022,"off":3023,"ĠPart":3024,"Ã©":3025,"Ġthirt":3026,"ĠAcc":3027,"ĠInst":3028,"vision":3029,"Ġself":3030,"ask":3031,"Ġthinking":3032,"cience":3033,"isc":3034,"Ġarms":3035,"Ġbug":3036,"Ġaccess":3037,"Ġdeter":3038,"Ġlangu":3039,"Ġphys":3040,"Ġbill":3041,"Ġcas":3042,"Ġdecl":3043,"Ġener":3044,"Ġconcrete":3045,"Ġtit":3046,"ĠJust":3047,"Ġtank":3048,"Ġimm":3049,"Ġcookies":3050,"Ġdinner":3051,"Ġlines":3052,"Ġforward":3053,"vironment":3054,"gar":3055,"ĠSu":3056,"roll":3057,"Ġcute":3058,"IS":3059,"Ġmine":3060,"Ġlives":3061,"Ġbrought":3062,"OR":3063,"Ġgas":3064,"Ġsock":3065,"Ġagre":3066,"ray":3067,"Ġtired":3068,"ĠWill":3069,"Ġknife":3070,"Ġsignific":3071,"Ġbarely":3072,"Ġru":3073,"Ġlooked":3074,"Ġsecurity":3075,"ging":3076,"ãĥ":3077,"Ġjud":3078,"Ġwash":3079,"Ġissues":3080,"Ġrepl":3081,"Ġshowing":3082,"itten":3083,"iform":3084,"attle":3085,"Ġband":3086,"Ġrace":3087,"Ġstation":3088,"ĠAf":3089,"ĠBy":3090,"Ġprice":3091,"Ġespecially":3092,".)":3093,"fect":3094,"omes":3095,"Ġcompl":3096,"rict":3097,"Ġtomato":3098,"hel":3099,"ili":3100,"over":3101,"ãĤ":3102,"Ġoil":3103,"Ġdude":3104,"fl":3105,"Ġhours":3106,"Ġknew":3107,"ĠIsrael":3108,"HT":3109,"Ġlink":3110,"ĠApp":3111,"Ġcy":3112,"Ġparent":3113,"Ġfork":3114,"ĠMy":3115,"Ġcrowd":3116,"set":3117,"ĠTH":3118,"Ġgirls":3119,"Ġforeign":3120,"Ġtarget":3121,"ify":3122,"angle":3123,"Ġlikes":3124,"Ġthemselves":3125,"Ġdam":3126,"Ġyours":3127,"Ġadults":3128,"fr":3129,"elt":3130,"ogn":3131,"Ġparking":3132,"Ġinit":3133,"itted":3134,"ding":3135,"Ġbegan":3136,"Ġkick":3137,"Ġbrother":3138,"Ġwaiting":3139,"Ġservice":3140,"pite":3141,"Ġheld":3142,"Ġgeneral":3143,"Ġut":3144,"Ġtem":3145,"ĠCol":3146,"Ġknock":3147,"ively":3148,"Ġcarrots":3149,"Ġcharacter":3150,"cean":3151,"ining":3152,"Ġweeks":3153,"Ġinteresting":3154,"Ġmass":3155,"Ġclearly":3156,"ashington":3157,"like":3158,"iles":3159,"str":3160,"apan":3161,"Ġevidence":3162,"atural":3163,"mas":3164,"Ġcustom":3165,"Ġslightly":3166,"ij":3167,"Ġdoc":3168,"Ġcompanies":3169,"Ġstove":3170,"Ġfan":3171,"Ġpolic":3172,"Ġquestions":3173,"AC":3174,"Ġdogs":3175,"obal":3176,"Ġnine":3177,"ĠWashington":3178,"Ġuniform":3179,"Ġden":3180,"Ġconv":3181,"Ġbecame":3182,"Ġcirc":3183,"ees":3184,"ivil":3185,"ival":3186,"Ġinterview":3187,"Ġchall":3188,"Ġneeded":3189,"Ġ2017":3190,"ises":3191,"oups":3192,"Ġshown":3193,"Ġdecision":3194,"Ġexec":3195,"Ġrole":3196,"IGHT":3197,"Ġdevelopment":3198,"Ġmicrophone":3199,"arter":3200,"Ġsepar":3201,"Ġstudents":3202,"Ġaction":3203,"Ġhanging":3204,"Ġear":3205,"oots":3206,"Ġteddy":3207,"cer":3208,"zen":3209,"Ġsam":3210,"Ġtraffic":3211,"Ġenergy":3212,"oid":3213,"ĠON":3214,"Ġrespons":3215,"Ġbillion":3216,"ciety":3217,"Ġcontinue":3218,"**":3219,"Ġnoise":3220,"Ġstories":3221,"Ġvisit":3222,"Ġrelations":3223,"Ġcandid":3224,"lam":3225,"uh":3226,"Ġsuitcase":3227,"atures":3228,"ĠNational":3229,"Ġyup":3230,"Ġ60":3231,"Ġsleeping":3232,"Ġtri":3233,"Ġ198":3234,"bb":3235,"fer":3236,"Ġol":3237,"Ġenc":3238,"Ġhungry":3239,"Ġpuzz":3240,"Ġpain":3241,"Ġgen":3242,"ĠAm":3243,"ĠBar":3244,"ĠJan":3245,"LE":3246,"Ġaff":3247,"onse":3248,"Ġrights":3249,"aining":3250,"ularly":3251,"wood":3252,"apes":3253,"ĠLEFT":3254,"Ġrabbit":3255,"Ġton":3256,"BC":3257,"pack":3258,"ĠIntern":3259,"Ġoppos":3260,"Ġvote":3261,"ĠEn":3262,"Ġlaying":3263,"Ġx":3264,"aboo":3265,"Ġvarious":3266,"ades":3267,"Ġwel":3268,"Ġairplane":3269,"Ġì":3270,"Ġfarm":3271,"Ġsubject":3272,"Ġfinal":3273,"ula":3274,"Ġvari":3275,"Ġsense":3276,"Ġpap":3277,"Ġcreate":3278,"Ġwheels":3279,"Ġclub":3280,"Ġusually":3281,"Ġskate":3282,"Ġrepresent":3283,"Ġtight":3284,"14":3285,"ique":3286,"Ġplain":3287,"ĠDep":3288,"Ġprivate":3289,"Ġcommon":3290,"Ġleaders":3291,"han":3292,"acebook":3293,"Ġsell":3294,"Ġbathroom":3295,"Ġfederal":3296,"Ġsignificant":3297,"ires":3298,"iod":3299,"ned":3300,"ruction":3301,"oseph":3302,"Ġadminist":3303,"Ġtreat":3304,"Ġdriving":3305,"Ġdressed":3306,"Ġeconomic":3307,"Ġsecret":3308,"Ġdest":3309,"Ġdish":3310,"Ġfres":3311,"Ġpersonal":3312,"Ġslow":3313,"rop":3314,"Ġgroups":3315,"Ġfaces":3316,"Ġ:":3317,"Ġparts":3318,"Ġversion":3319,"Ġlily":3320,"Ġcop":3321,"Ġpock":3322,"aterial":3323,"Ġlegal":3324,"ĠSouth":3325,"istic":3326,"Ġ2012":3327,"Ġrecently":3328,"Ġtur":3329,"Ġquack":3330,"18":3331,"ĠPe":3332,"ological":3333,"uary":3334,"Ġstatement":3335,"Ġneigh":3336,"Ġgiving":3337,"aming":3338,"Ġhandle":3339,"Ġhole":3340,"ishing":3341,"ett":3342,"ode":3343,"Ġinclude":3344,"ateg":3345,"ĠRIGHT":3346,"ribut":3347,"gn":3348,"Ġshape":3349,"oles":3350,"Ġprovide":3351,"opped":3352,"Ġelection":3353,"16":3354,"Ġbuilt":3355,"Ġinj":3356,"ament":3357,"Ġcompletely":3358,"Ġshut":3359,"Ġrecogn":3360,"ĠCour":3361,"13":3362,"Ġsauce":3363,"Ġstone":3364,"Ġled":3365,"Ġsold":3366,"Ġtrave":3367,"Ġ2013":3368,"Ġexpress":3369,"Ġlanguage":3370,"ĠFacebook":3371,"Ġpotential":3372,"Ġearlier":3373,"ĠMe":3374,"Ġaccept":3375,"ĠWest":3376,"Ġpoll":3377,"Ġmodel":3378,"ĠAccording":3379,"ww":3380,"Ġpus":3381,"Ġpred":3382,"Ġboom":3383,"lim":3384,"ndred":3385,"Ġstraw":3386,"Ġhundred":3387,"Ġbabies":3388,"Ġfigure":3389,"Ġpeter":3390,"Ġsite":3391,"ichael":3392,"Ġteams":3393,"ĠTwitter":3394,"iced":3395,"Ġpuppy":3396,"Ġthanks":3397,"Ġproblems":3398,"Ġbeer":3399,"Ġ24":3400,"onday":3401,"Ġtomorrow":3402,"rit":3403,"Ġocean":3404,"asons":3405,"Ġblow":3406,"Ġreleased":3407,"ĠWar":3408,"bl":3409,"uts":3410,"Ġheavy":3411,"Ġteens":3412,"lt":3413,"atives":3414,"Ġsomewhere":3415,"Ġchanges":3416,"bed":3417,"gre":3418,"Ġdig":3419,"ĠSm":3420,"ĠNews":3421,"Ġtower":3422,"Ġbes":3423,"clear":3424,"dd":3425,"bor":3426,"ky":3427,"Ġmonkey":3428,"Ġmonitor":3429,"Ġrocks":3430,"Ġbutt":3431,"Ġsweater":3432,"Ġpeekaboo":3433,"Ġprint":3434,"Ġdoctor":3435,"Ġperiod":3436,"Ġnearly":3437,"Ġpopular":3438,"Ġarticle":3439,"Ġcases":3440,"Ġgoal":3441,"Ġprim":3442,"ospital":3443,"Ġgosh":3444,"Ġep":3445,"Ġtried":3446,"Ġperfect":3447,"ength":3448,"Ġquickly":3449,"Ġaddress":3450,"illing":3451,"uesday":3452,"medi":3453,"pire":3454,"anta":3455,"Ġnetwork":3456,"ĠSte":3457,"Ġmeant":3458,"Ġbackpack":3459,"ĠSund":3460,"iforn":3461,"Ġresults":3462,"itution":3463,"ppers":3464,"Ġrob":3465,"Ġeverybody":3466,"Ġshirts":3467,"Ġways":3468,"Ġenvironment":3469,"Ġeduc":3470,"://":3471,"Ġspring":3472,"Ġopportun":3473,"Ġvalue":3474,"Ġthreat":3475,"Ġrelease":3476,"ĠPaul":3477,"Ġswing":3478,"mend":3479,"Ġrub":3480,"olution":3481,"Ġvol":3482,"ript":3483,"okes":3484,"Ġreach":3485,"Ġdirectly":3486,"ences":3487,"Ġcontent":3488,"Ġextreme":3489,"Ġdescrib":3490,"fort":3491,"Ġlaws":3492,"ournal":3493,"ĠRed":3494,"Ġpartly":3495,"ples":3496,"99":3497,"joy":3498,"hern":3499,"Ġslide":3500,"Ġevening":3501,"Ġindustry":3502,"ĠâĢ¢":3503,"Ġveget":3504,"inese":3505,"Ġmaterial":3506,"Ġmons":3507,"Ġworked":3508,"Ġsounds":3509,"ĠGo":3510,"Ġarri":3511,"Ġcorrect":3512,"Ġmax":3513,"ads":3514,"Ġwebs":3515,"ĠSept":3516,"Ġtechnology":3517,"Ġofficials":3518,"Ġtoward":3519,"Ġreview":3520,"ĠDo":3521,"ĠHere":3522,"Ġbump":3523,"Ġcart":3524,"Ġterror":3525,"Ġscrew":3526,"Ġrecorder":3527,"Ġtowel":3528,"Ġ|":3529,"17":3530,"Ġplants":3531,"Ġfelt":3532,"iled":3533,"aging":3534,"ĠRepublican":3535,"Ġethan":3536,"Ġstandard":3537,"Ġdisplay":3538,"Ġstruct":3539,"Ġbroad":3540,"Ġrespond":3541,"pro":3542,"Ġnatural":3543,"ests":3544,"Ġdrug":3545,"OM":3546,"Ġnina":3547,"Ġcreated":3548,"Ġtwenties":3549,"OT":3550,"ĠCong":3551,"Ġtooth":3552,"Ġtwenty":3553,"Ġannounced":3554,"Ġtub":3555,"Ġangle":3556,"Ġcutting":3557,"Ġpractice":3558,"Ġapples":3559,"ipe":3560,"Ġ21":3561,"ifornia":3562,"uk":3563,"Ġsport":3564,"Ġparticip":3565,"stairs":3566,"Ġanymore":3567,"Ġmoon":3568,"ĠJapan":3569,"40":3570,"Ġscene":3571,"ĠOct":3572,"Ġanswer":3573,"Ġbal":3574,"ils":3575,"Ġcabin":3576,"Ġadm":3577,"artment":3578,"Ġresponse":3579,"Ġgrandma":3580,"Ġwoo":3581,"Ġcast":3582,"Ġfunction":3583,"ev":3584,"Ġnath":3585,"Ġemer":3586,"Ġsugar":3587,"Ġchance":3588,"ĠDes":3589,"Ġfingers":3590,"oose":3591,"ĠMore":3592,"anges":3593,"Ġsimple":3594,"ednes":3595,"Ġonline":3596,"Ġdecided":3597,"Ġcurrently":3598,"Ġcere":3599,"Ġintell":3600,"pril":3601,"Ġrug":3602,"aded":3603,"Ġtray":3604,"Ġ197":3605,"Ġcred":3606,"Ġbiggest":3607,"aturday":3608,"Ġsource":3609,"Ġfresh":3610,"ednesday":3611,"Ġdep":3612,"ĠGod":3613,"action":3614,"Ġfinan":3615,"Ġcarpet":3616,"Ġrespect":3617,"yn":3618,"Ġcurt":3619,"Ġhost":3620,"ittee":3621,"Ġyog":3622,"Ġtrou":3623,"Ġstaff":3624,"ilities":3625,"Ġknows":3626,"Ġdoub":3627,"ĠCenter":3628,"isy":3629,"Ġnecess":3630,"Ġfrog":3631,"Ġwire":3632,"Ġplates":3633,"Ġsmart":3634,"asses":3635,"Ġque":3636,"ino":3637,"Ġindic":3638,"Ġbull":3639,"Ġshoe":3640,"Ġpublished":3641,"Ġhall":3642,"ucky":3643,"Ġwritten":3644,"Ġmissing":3645,"Ġears":3646,"Ġforce":3647,"Ġpoo":3648,"Ġdirector":3649,"Ġservices":3650,"Ġswimming":3651,"Ġwelcome":3652,"ĠMus":3653,"Ġble":3654,"Ġplat":3655,"Ġbridge":3656,"Ġallow":3657,"Ġflag":3658,"Ġoriginal":3659,"EN":3660,"Ġnamed":3661,"ĠJune":3662,"Ġexpected":3663,"Ġinternational":3664,"riage":3665,"ĠAustral":3666,"ners":3667,"Ġworth":3668,"Ġlength":3669,"Ġworkers":3670,"ĠAmericans":3671,"Ġenjoy":3672,"isl":3673,"anders":3674,"Ġsen":3675,"ĠIN":3676,"Ġpepper":3677,"Ġprep":3678,"ĠSunday":3679,"Ġpump":3680,"ica":3681,"Ġpartially":3682,"Ġtoast":3683,"cles":3684,"Ġglobal":3685,"ĠIndia":3686,"Ġincrease":3687,"Ġsituation":3688,"Ġmr":3689,"Ġcommer":3690,"Ġinflu":3691,"Ġcomment":3692,"Ġmember":3693,"Ġflying":3694,"Ġmachine":3695,"Ġnation":3696,"Ġtrunk":3697,"Ġupd":3698,"Ġspell":3699,"ĠIslam":3700,"ĠCongress":3701,"Ġsides":3702,"Ġfans":3703,"Ġreve":3704,"Ġgrowing":3705,"ID":3706,"Ġfift":3707,"25":3708,"Ġ2011":3709,"Ġrack":3710,"ĠTuesday":3711,"Ġshake":3712,"Ġrev":3713,"Ġpuzzle":3714,"Ġmis":3715,"ĠEven":3716,"Ġmeth":3717,"Ġanti":3718,"Ġhtt":3719,"Ġcontract":3720,"Ġstarting":3721,"Ġmeeting":3722,"ĠTHE":3723,"enger":3724,"ients":3725,"Ġbusy":3726,"Ġprin":3727,"Ġcivil":3728,"Ġimmedi":3729,"Ġhorses":3730,"Ġhospital":3731,"Ġblood":3732,"Ġchrist":3733,"Ġexecut":3734,");":3735,"Ġsque":3736,"Ġhill":3737,"oring":3738,"Ġquarter":3739,"clus":3740,"Ġdrinking":3741,"Ġran":3742,"hers":3743,"Ġintrodu":3744,"duct":3745,"Ġobs":3746,"ech":3747,"izing":3748,"berry":3749,"Ġrisk":3750,"ĠFriday":3751,"Ġitems":3752,"ĠRes":3753,"aching":3754,"alt":3755,"Ġtwe":3756,"Ġpole":3757,"Ġpocket":3758,"kn":3759,"ero":3760,"Ġhood":3761,"Ġimpact":3762,"St":3763,"bing":3764,"ara":3765,"ĠCont":3766,"Ġassoci":3767,"aked":3768,"Ġ196":3769,"Ġterms":3770,"Ġnathaniel":3771,"Ġscient":3772,"ĠAug":3773,"Ġscore":3774,"Ġcit":3775,"idents":3776,"ĠSw":3777,"gu":3778,"Ġlion":3779,"ĠMonday":3780,"ĠLib":3781,"Ġskin":3782,"Ġshower":3783,"imate":3784,"anding":3785,"Ġchurch":3786,"Ġtext":3787,"Ġcollege":3788,"Ġindividual":3789,"rd":3790,"Ġtun":3791,"ams":3792,"Ġtrick":3793,"Ġspr":3794,"ĠDepartment":3795,"Ġoink":3796,"Ġsafe":3797,"oogle":3798,"raq":3799,"Ġreports":3800,"Ġkeyboard":3801,"ED":3802,"Ġconserv":3803,"OS":3804,"Ġlat":3805,"Ġalthough":3806,"Ġconsum":3807,"\".":3808,"ading":3809,"Ġareas":3810,"aped":3811,"ancing":3812,"ursday":3813,"Ġrect":3814,"Ġbears":3815,"irm":3816,"Ġlaug":3817,"Ġpillow":3818,"sey":3819,"rences":3820,"rim":3821,"Ġ*":3822,"Ġcertainly":3823,"Ġchew":3824,"Ġoven":3825,"mine":3826,"Ġ/":3827,"Ġthous":3828,"Ġtor":3829,"Ġstyle":3830,"cloth":3831,"Ġvehicles":3832,"atory":3833,"Ġbroke":3834,"Ġdollars":3835,"Ġreceived":3836,"Ġrules":3837,"âĢĿ.":3838,"Ġspl":3839,"Ġinvolved":3840,"Ġarrest":3841,"order":3842,"Ġsolid":3843,"Ġdanger":3844,"Ġnames":3845,"Ġfully":3846,"Ġplans":3847,"king":3848,"ĠMarch":3849,"Ġmail":3850,"Ġstring":3851,"Ġrelationship":3852,"OP":3853,"Ġrate":3854,"ondon":3855,"box":3856,"Ġhouses":3857,"round":3858,"Ġbi":3859,"aches":3860,"Ġplaid":3861,"ucas":3862,"Ġplatform":3863,"AD":3864,"ares":3865,"cut":3866,"Ġaf":3867,"In":3868,"Ġbuck":3869,"Ġwinter":3870,"Ġperformance":3871,"Ġkilled":3872,"cember":3873,"ĠDavid":3874,"estern":3875,"ĠBritish":3876,"ĠJanuary":3877,"Ġ22":3878,"Ġability":3879,"ĠQu":3880,"rem":3881,"Ġusers":3882,"Ġlarger":3883,"nel":3884,"Ġloss":3885,"Ġbelong":3886,"Ġaffect":3887,"Ġtrim":3888,"Ġtracks":3889,"Ġprogress":3890,"Ġspin":3891,"sidered":3892,"aa":3893,"Ġreflection":3894,"Ġach":3895,"Ġmill":3896,"uments":3897,"Ġallowed":3898,"hy":3899,"ĠIraq":3900,"Ġskirt":3901,"Ġregard":3902,"Ġparents":3903,"Ġboats":3904,"Ġdepend":3905,"Ġtickle":3906,"ĠCourt":3907,"ĠCanada":3908,"Ġjoseph":3909,"Ġvia":3910,"Ġsoup":3911,"Ġweather":3912,"Ġcomplex":3913,"Ġcapital":3914,"Ġdouble":3915,"64":3916,"Ġmel":3917,"Ġfollow":3918,"igence":3919,"iter":3920,"Ġwhatever":3921,"Ġeconomy":3922,"icine":3923,"olute":3924,"ĠRight":3925,"Ġmultiple":3926,"ĠSeptember":3927,"rant":3928,"Ġsick":3929,"ĠSch":3930,"ĠAg":3931,"Ġgrown":3932,"Ġrange":3933,"ĠPal":3934,"Ġconsidered":3935,"Ġparticular":3936,"Ġsleeve":3937,"mo":3938,"yond":3939,"Ġrice":3940,"Ġeve":3941,"imum":3942,"ĠEuropean":3943,"anda":3944,"Ġkinds":3945,"ux":3946,"Ġopened":3947,"Ġattention":3948,"Ġevents":3949,"of":3950,"Ġson":3951,"Ġriver":3952,"kend":3953,"Ġweap":3954,"Ġvac":3955,"Ġfeature":3956,"Ġextra":3957,"vertis":3958,"aled":3959,"Ġchanged":3960,"Ġemail":3961,"ipped":3962,"Ġpin":3963,"ĠEm":3964,"eorge":3965,"Ġyummy":3966,"Ġdoo":3967,"Ġleader":3968,"Ġproduction":3969,"IC":3970,"ico":3971,"Ġbeyond":3972,"Ġroof":3973,"imately":3974,"ĠFirst":3975,"ĠStar":3976,"Ġtraining":3977,"ĠCalifornia":3978,"Ġadministration":3979,"Ġdepart":3980,"Ġ2010":3981,"Ġpotato":3982,"uf":3983,"Ġshoo":3984,"aud":3985,"Ġwave":3986,"ban":3987,"top":3988,"Ġtour":3989,"arily":3990,"Ġbrand":3991,"Ġterri":3992,"][":3993,"Ġsearch":3994,"ĠWednesday":3995,"iction":3996,"Ġfinancial":3997,"ĠIran":3998,"ĠJuly":3999,"Ġmethod":4000,"che":4001,"Ġthin":4002,"Ġtrip":4003,"Ġcloth":4004,"Ġdiaper":4005,"Ġcareer":4006,"Ġmountain":4007,"Ġskateboard":4008,"ened":4009,"ĠApril":4010,"Ġ28":4011,"ĠHill":4012,"Ġspeak":4013,"Ġparticularly":4014,"oni":4015,"Ġdream":4016,"Ġnu":4017,"Ġapplic":4018,"ays":4019,"Ġliber":4020,"reet":4021,"Ġcoach":4022,"tered":4023,"Ġcasual":4024,"ĠAct":4025,"Ġspent":4026,"Ġdiv":4027,"Ġimag":4028,"Ġincluded":4029,"rection":4030,"Ġge":4031,"ĠOf":4032,"Ġforgot":4033,"ĠPer":4034,"band":4035,"wise":4036,"Ġpath":4037,"oral":4038,"Ġpencil":4039,"Ġestab":4040,"lebr":4041,"Ġfalling":4042,"Ġmaint":4043,"Ġtrade":4044,"ING":4045,"Ġcommercial":4046,"Ġmention":4047,"ĠSpe":4048,"ovember":4049,"Ġsocks":4050,"Ġlift":4051,"Ġ35":4052,"Ġmovement":4053,"Ġnar":4054,"Ġtablecloth":4055,"\",":4056,"Ġboun":4057,"erc":4058,"Ġclick":4059,"Ġassume":4060,"orters":4061,"Ġspread":4062,"Ġindepend":4063,"Ġspecific":4064,"You":4065,"Ġpool":4066,"Ġdemon":4067,"This":4068,"mark":4069,"Ġsne":4070,"Ġstopped":4071,"Ġlap":4072,"Ġmur":4073,"Ġvoice":4074,"anch":4075,"Ġlegisl":4076,"bon":4077,"uses":4078,"ĠTV":4079,"ĠThen":4080,"Ġetc":4081,"yan":4082,"Ġang":4083,"Ġdropped":4084,"ĠRussia":4085,"vey":4086,"Ġflo":4087,"ĠSyri":4088,"Ġess":4089,"Ġupon":4090,"ously":4091,"Ġfinally":4092,"Ġoffer":4093,"ĠAfric":4094,"Ġmonster":4095,"oses":4096,"Ġmyself":4097,"force":4098,"Ġprofessional":4099,"cul":4100,"field":4101,"illa":4102,"ibility":4103,"Ġdefense":4104,"ĠBlack":4105,"glasses":4106,"ucasian":4107,"col":4108,"ĠGoogle":4109,"ĠUK":4110,"Ġbeginning":4111,"bow":4112,"Ġnobody":4113,"Ġgrowth":4114,"Ġimprove":4115,"istan":4116,"Ġdisapp":4117,"Ġcalls":4118,"ĠFrom":4119,"Ġsurface":4120,"Ġpour":4121,"aly":4122,"Ġtelling":4123,"Ġchoice":4124,"Ġvehicle":4125,"Ġsaf":4126,"Ġuns":4127,"Ġrequire":4128,"200":4129,"Ġdance":4130,"ida":4131,"Ġscar":4132,"Ġspect":4133,"Ġofficers":4134,"Ġdifference":4135,"ctions":4136,"ĠChe":4137,"ĠColl":4138,"Ġmarky":4139,"Ġyounger":4140,"Ġobvious":4141,"Ġdrop":4142,"kins":4143,"Ġbarn":4144,"Ġlack":4145,"Ġneither":4146,"Ġspeed":4147,"Ġpurp":4148,"Ġstripe":4149,"Ġwebsite":4150,"Ġrough":4151,"Ġneat":4152,"Ġshelf":4153,"Ġmoo":4154,"Ġrepe":4155,"Ġshowed":4156,"Ġtonight":4157,"ĠNovember":4158,"Ġhappening":4159,"Ġsett":4160,"Ġdough":4161,"Ġate":4162,"Ġconvers":4163,"ampions":4164,"Ġcalm":4165,"ĠAugust":4166,"elly":4167,"known":4168,"iers":4169,"iment":4170,"Ġchristmas":4171,"based":4172,"erve":4173,"Ġspots":4174,"ĠReg":4175,"ĠDecember":4176,"itar":4177,"ĠMark":4178,"Ġdecor":4179,"Ġclimate":4180,"Ġdisp":4181,"Ġbehav":4182,"Ġ@":4183,"Ġ23":4184,"ĠThursday":4185,"Ġsunglasses":4186,"Ġtrucks":4187,"Ð¾":4188,"zer":4189,"ios":4190,"ube":4191,"Ġremote":4192,"Ġweekend":4193,"hold":4194,"Ġhiding":4195,"ĠPark":4196,"ĠGet":4197,"ĠKing":4198,"Ġkept":4199,"Ġofficer":4200,"AL":4201,"ĠFeb":4202,"Ġpainted":4203,"oin":4204,"urred":4205,"ĠIS":4206,"Ġsociety":4207,"Ġbik":4208,"Ġcaucasian":4209,"down":4210,"Ġver":4211,"ĠPolice":4212,"ĠCor":4213,"ĠEl":4214,"Ġsens":4215,"Ġbeat":4216,"Ġlean":4217,"Ġtools":4218,"Ġtaste":4219,"ĠOctober":4220,"uals":4221,"Ġsister":4222,"Ġthomas":4223,"urg":4224,"agement":4225,"Ġstudies":4226,"ĠSenate":4227,"?âĢĿ":4228,"ĠCount":4229,"Ġpartial":4230,"Ġcris":4231,"Ġquiet":4232,"Ġelectric":4233,"orter":4234,"Ġdoors":4235,"Ġguessing":4236,"Ġcaught":4237,"Ġgro":4238,"bee":4239,"berries":4240,"Ġreflect":4241,"Ġprior":4242,"Ġburn":4243,"Ġple":4244,"Ġforget":4245,"ĠInt":4246,"ĠPerson":4247,"Ġoverall":4248,"Ġcalling":4249,"Ġmist":4250,"alled":4251,"Ġrid":4252,"Ġshoulder":4253,"tr":4254,"Ġcra":4255,"Ġattend":4256,"ession":4257,"Ġtitle":4258,"Ġding":4259,"Ġsection":4260,"ĠHer":4261,"Ġhelped":4262,"ka":4263,"Ġboots":4264,"Ġfold":4265,"Ġconduct":4266,"Ġadditional":4267,"Ġmessage":4268,"Ġabsolute":4269,"Ġho":4270,"enty":4271,"useum":4272,"Ġturning":4273,"Ġplaces":4274,"Ġaged":4275,"Ġcrying":4276,"Ġonto":4277,"Ġmoved":4278,"Ð°":4279,"Ġturt":4280,"nds":4281,"Ġsea":4282,"Ġsoap":4283,"ĠGl":4284,"ĠÂ£":4285,"Ġcrayons":4286,"amm":4287,"Ġwife":4288,"Ġbought":4289,"inary":4290,"Ġconference":4291,"Ġdespite":4292,"Ġdemand":4293,"Ġcelebr":4294,"sequ":4295,"Ġunf":4296,"Ġquality":4297,"Ġlibr":4298,"Ġtelevision":4299,"Ġcitiz":4300,"do":4301,"aries":4302,"uel":4303,"ĠLondon":4304,"ĠUp":4305,"azine":4306,"ĠWilliam":4307,"Ġgives":4308,"ĠStreet":4309,"anks":4310,"ĠMart":4311,"Ġcontact":4312,"Ġtelephone":4313,"FL":4314,"ros":4315,"Ġleading":4316,"Ġmap":4317,"Ġstands":4318,"Ġcovering":4319,"Ġcarrot":4320,"Ġcereal":4321,"Ġlake":4322,"entially":4323,"Ġanyway":4324,"Ġsmell":4325,"Ġhats":4326,"Ġpressure":4327,"==":4328,"Ġpers":4329,"isions":4330,"Ġbeans":4331,"ification":4332,"Ġjumping":4333,"ĠRepublicans":4334,"sp":4335,"omb":4336,"ĠPost":4337,"Ġbushes":4338,"Ġpositive":4339,"Ġcontroll":4340,"Ġmeasure":4341,"Ġasian":4342,"atively":4343,"Ġsleepy":4344,"men":4345,"ĠTimes":4346,"Ġrefr":4347,"Ġtrouble":4348,"Ġmac":4349,"Ġ26":4350,"Ġsetting":4351,"Ġportion":4352,"Ġdim":4353,"Ġlose":4354,"Ġdelic":4355,"Ġsteel":4356,"Ġlevels":4357,"Ġgarage":4358,"Ġseparate":4359,"rast":4360,"ĠSan":4361,"ĠMid":4362,"Ġcrim":4363,"Ġeducation":4364,"Wh":4365,"uing":4366,"ĠSaturday":4367,"Ġmixed":4368,"hew":4369,"Ġkite":4370,"ĠWell":4371,"Ġspeech":4372,"Ġpopulation":4373,"Ġvictim":4374,"Ġopportunity":4375,"ĠRich":4376,"Ġchest":4377,"He":4378,"Ðµ":4379,"Ġforces":4380,"house":4381,"aced":4382,"ĠOther":4383,"32":4384,"Ġ27":4385,"ĠPar":4386,"ĠWhy":4387,"mp":4388,"Ġdate":4389,"edom":4390,"plement":4391,"Ġpulled":4392,"Ġstage":4393,"Ġcode":4394,"ruary":4395,"just":4396,"ids":4397,"Ġfeatures":4398,"while":4399,"da":4400,"Ġwaves":4401,"Ġpair":4402,"Ġlamp":4403,"Ġfridge":4404,"Ġsave":4405,"Ġdump":4406,"ĠSim":4407,"no":4408,"Ġcows":4409,"Ġ2009":4410,"Ġjobs":4411,"Ġapproach":4412,"omp":4413,"adem":4414,"Ġking":4415,"Ġfeeling":4416,"Ġdolly":4417,"rick":4418,"ceed":4419,"ĠNet":4420,"ĠLet":4421,"RE":4422,"Ġdozen":4423,"Ġspokes":4424,"ĠCons":4425,"Ġcritic":4426,"hib":4427,"Ġ+":4428,"Ġuses":4429,"Ġactual":4430,"Ġwoof":4431,"Ġaddition":4432,"Ġmajority":4433,"ĠDemocratic":4434,"ette":4435,"Ġremains":4436,"Ġdocument":4437,"Ġlol":4438,"ado":4439,"Ġculture":4440,"ya":4441,"Ġfile":4442,"Ġship":4443,"ĠDonald":4444,"pa":4445,"Ġrail":4446,"Ġcommunic":4447,"Ġshadow":4448,"Ġmales":4449,"arm":4450,"Ġterm":4451,"Ġlatest":4452,"Ġachie":4453,"mit":4454,"Ġscience":4455,"inn":4456,"Ġhorn":4457,"Ġreb":4458,"ĠMost":4459,"ysis":4460,"azing":4461,"Ġdrawing":4462,"fa":4463,"otos":4464,"Ġens":4465,"Ġ2008":4466,"Ġepis":4467,"ked":4468,"Ġtables":4469,"Ġbubb":4470,"ĠDemocrats":4471,"ĠChinese":4472,"Ġsurround":4473,"Ġcosts":4474,"ĠMcC":4475,"Ġproperty":4476,"Ġwake":4477,"Ġpitc":4478,"iring":4479,"chan":4480,"Ġconcept":4481,"ĠLab":4482,"Ġpassenger":4483,"Ġfa":4484,"ache":4485,"Ġfris":4486,"Ġpupp":4487,"Ġrequired":4488,"craft":4489,"egr":4490,"Ġcontainer":4491,"ĠParty":4492,"Ġnote":4493,"Ġremain":4494,"Ġheads":4495,"ĠGermany":4496,"Ġlock":4497,"archer":4498,"oming":4499,"Ġinvestigation":4500,"Ġschools":4501,"Ġesc":4502,"arning":4503,"Ġinn":4504,"using":4505,"Ġgrab":4506,"Ġassist":4507,"Ġneighbor":4508,"Ġdirection":4509,"Ġlargest":4510,"Ġsafety":4511,"ext":4512,"het":4513,"Ġvoters":4514,"If":4515,"bage":4516,"Ġaunt":4517,"inally":4518,"Ġhun":4519,"aces":4520,"ĠSince":4521,"Ġrecom":4522,"Ġwat":4523,"Ġjournal":4524,"eman":4525,"overed":4526,"Ġeasier":4527,"Ġdebate":4528,"____":4529,"!!":4530,"ĠBre":4531,"Ġpean":4532,"Ġmountains":4533,"ss":4534,"Ġwish":4535,"iture":4536,"Ġcomfort":4537,"Ġ(@":4538,"Ġdescribed":4539,"Ġreasons":4540,"irl":4541,"Ġshar":4542,"Ġleague":4543,"Ġfrost":4544,"Ġpee":4545,"Ġimplement":4546,"ening":4547,"Ġshop":4548,"ĠAM":4549,"ĠRese":4550,"Ġforest":4551,"Ġproducts":4552,"oons":4553,"Ġleaving":4554,"ĠLeague":4555,"ĠMuslim":4556,"Ġlad":4557,"Ġweird":4558,"Ġult":4559,"Ġkill":4560,"Ġchief":4561,"Ġprison":4562,"Ġresour":4563,"Ġlugg":4564,"Ġcandy":4565,"ander":4566,"actor":4567,"Ġcups":4568,"Ġexperien":4569,"Ġhistor":4570,"Ġbudget":4571,"ford":4572,"inds":4573,"Ġimmig":4574,"Ġbeg":4575,"EC":4576,"anced":4577,"Ġfocused":4578,"Ġclaims":4579,"ĠMinister":4580,"Ġasking":4581,"Ġlob":4582,"ĠBel":4583,"ĠBec":4584,"Ġclown":4585,"place":4586,"ĠEnglish":4587,"45":4588,"US":4589,"orida":4590,"Ġnotice":4591,"Ġgod":4592,"ivity":4593,"Ġumpire":4594,"sych":4595,"Ġimmediately":4596,"Ġrefriger":4597,"osing":4598,"Ġwipe":4599,"22":4600,"Ġlying":4601,"Ġment":4602,"ension":4603,"reng":4604,"There":4605,"Ġrequest":4606,"Ġreligious":4607,"Ġphysical":4608,"Ġpaid":4609,"Ġpeace":4610,"Ġopening":4611,"Ġinterested":4612,"IA":4613,"Ġbicy":4614,"Ġpad":4615,"Ġseeing":4616,"Ġoranges":4617,"ĠBush":4618,"ĠJe":4619,"Ġcorpor":4620,"dish":4621,"nic":4622,"Ġmush":4623,"Ġtoes":4624,"Ġstock":4625,"Ġdied":4626,"ĠKe":4627,"Ġcontinued":4628,"Ġlimited":4629,"Ġsoftware":4630,"Ġautom":4631,"Ġplenty":4632,"Ġcomments":4633,"Ġ70":4634,"Ġdear":4635,"ĠIndian":4636,"Ġë":4637,"Ġoop":4638,"icated":4639,"Ġreality":4640,"Ġsalad":4641,"Ġhide":4642,"Ġlett":4643,"Ġanywhere":4644,"ĠEvery":4645,"Ġweren":4646,"Ġmeaning":4647,"ĠRussian":4648,"ĠFebruary":4649,"Ġtrail":4650,"Ġunable":4651,"Ġcentury":4652,"Ġideas":4653,"ĠComp":4654,"Ġdetails":4655,"yl":4656,"azz":4657,"Ġhotel":4658,"Ġfollowed":4659,"Ġeffects":4660,"Ġefforts":4661,"Ġrecommend":4662,"Ġattacks":4663,"rupt":4664,"Ġrelated":4665,"Ġyogurt":4666,"ufact":4667,"35":4668,"CS":4669,"Ġscared":4670,"Ġincreasing":4671,"Ġfrequ":4672,"Ġdoubt":4673,"60":4674,"AM":4675,"Ġmatt":4676,"ĠCoun":4677,"Ġmedical":4678,"Ġfixed":4679,"uits":4680,"Ġnone":4681,"ĠGener":4682,"avis":4683,"Ġpurch":4684,"ĠAssoci":4685,"Ġimpress":4686,"Ġhorsie":4687,"ĠMany":4688,"Ġlaunch":4689,"Ġreceive":4690,"ĠGreen":4691,"Ĥ¬":4692,"Ġestim":4693,"Ġdelicious":4694,"ari":4695,"Ġshel":4696,"Ġcondition":4697,"Ġsanta":4698,"Ġcards":4699,"Ġsend":4700,"ĠKore":4701,"Ġsubst":4702,"Ġpassed":4703,"ham":4704,"Ġ)":4705,"Ġiron":4706,"Ġcement":4707,"ĠAnt":4708,"Ġvill":4709,"Ġcats":4710,"Ġopin":4711,"Ġmissed":4712,"Ġconditions":4713,"Ġcarrying":4714,"Ġlettuce":4715,"Ġtrust":4716,"Ġuser":4717,"ĠJames":4718,"Ġcooking":4719,"Ġeasily":4720,"Ġstudent":4721,"ini":4722,"aling":4723,"Ġupside":4724,"ĠDuring":4725,"Ġarch":4726,"Ġattached":4727,"Ġincreased":4728,"Ġfrisbee":4729,"Ġisland":4730,"issue":4731,"Ġregul":4732,"Ġliter":4733,"vertisement":4734,"Ġfat":4735,"ago":4736,"Ġunc":4737,"Ġthroughout":4738,"ĠPlay":4739,"ona":4740,"Ġthick":4741,"ĠTom":4742,"Ġwets":4743,"Ġcro":4744,"ashed":4745,"Ġprevent":4746,"Ġwii":4747,"Ġradio":4748,"Ġstructure":4749,"Ġluggage":4750,"Ġsystems":4751,"Ġpolitics":4752,"Ġrout":4753,"ĠEast":4754,"Ġprovided":4755,"Ġcloser":4756,"Ġconstruction":4757,"Ġcharacters":4758,"paper":4759,"Ġborn":4760,"enny":4761,"Ġselect":4762,"Ġsofa":4763,"ĠPat":4764,"Ġraised":4765,"Ġsteps":4766,"uzz":4767,"Ġtire":4768,"omen":4769,"Ġspider":4770,"Ġviolence":4771,"ĠOur":4772,"Ġcontribut":4773,"Ġglo":4774,"ĠBrown":4775,"ĠLeft":4776,"Ġsuspect":4777,"Ġnuclear":4778,"Ġnature":4779,"Ġnurs":4780,"arden":4781,"ribe":4782,"ĠOff":4783,"Ġtomatoes":4784,"Ġvegetables":4785,"bum":4786,"ties":4787,"Ġtiger":4788,"amas":4789,"ĠMal":4790,"ughter":4791,"Ġhammer":4792,"Ġfeels":4793,"Ġlibrary":4794,"?\"":4795,"utions":4796,"ĠOver":4797,"itute":4798,"ooper":4799,"Ġbrownish":4800,"Ġcompared":4801,"neath":4802,"Ġteacher":4803,"Ġbow":4804,"inated":4805,"ĠII":4806,"ĠMichael":4807,"ĠCanad":4808,"Ġtypes":4809,"Ġdefend":4810,"Ġrefrigerator":4811,"ras":4812,"Ġspir":4813,"Ġsurv":4814,"Ġlearned":4815,"Ġpapers":4816,"Ġpal":4817,"ĠMod":4818,"aine":4819,"Ġcash":4820,"Ġnorth":4821,"Ġmechan":4822,"Ġhasn":4823,"Ġextend":4824,"ĠEU":4825,"Ġunderneath":4826,"ĠAlthough":4827,"Ġbeside":4828,"Ġord":4829,"Ġapparent":4830,"Ġinches":4831,"Ġhealthy":4832,"Ġaudience":4833,"ĠSuper":4834,"Ġmeow":4835,"load":4836,"Ġintelligence":4837,"Ġtweet":4838,"bble":4839,"fit":4840,"Ġloud":4841,"ĠCam":4842,"andom":4843,"merican":4844,"Ġhttp":4845,"Ġthousands":4846,"28":4847,"Ġearn":4848,"ille":4849,"Ġhug":4850,"Ġspending":4851,"Ġfailed":4852,"Ġcrisis":4853,"ĠLast":4854,"Ġsciss":4855,"Ġ...":4856,"Ġma":4857,"Ġreached":4858,"Ġlie":4859,"Ġconfir":4860,"Ġchallen":4861,"Ġbuttons":4862,"Ġign":4863,"ĠTre":4864,"Ġbottles":4865,"Ġdesigned":4866,"Ġpresidential":4867,"Ġmagazine":4868,"ĠSmith":4869,"ĠCounty":4870,"Ġtong":4871,"Ġhook":4872,"Ġhee":4873,"Ġstreng":4874,"OW":4875,"aus":4876,"Ġnavy":4877,"adium":4878,"ĠâĢ¦":4879,"Ġbasic":4880,"Ġpony":4881,"Ġmuseum":4882,"iti":4883,"Ġbattle":4884,"Ġsees":4885,"berg":4886,"Ġshooting":4887,"ule":4888,"Ġbrief":4889,"Ġgran":4890,"Ġspend":4891,"Ġregion":4892,"Ġactivity":4893,"Ġtruth":4894,"Ġincludes":4895,"Ġchoose":4896,"Ġnapkin":4897,"Ġrule":4898,"Ġdangerous":4899,"Ġ<":4900,"aser":4901,"Ġweb":4902,"ĠTrans":4903,"Ġpredict":4904,"lines":4905,"ĠTur":4906,"ĠMic":4907,"Ġcrime":4908,"Ġceiling":4909,"Ġbubbles":4910,"Ġaim":4911,"ooth":4912,"Ġrich":4913,"ĠTex":4914,"roy":4915,"iolet":4916,"host":4917,"erved":4918,"Ġpipe":4919,"Ġforeground":4920,"Ġdetail":4921,"ĠTeam":4922,"ĠRober":4923,"ĠFR":4924,"Ġballs":4925,"Ġminister":4926,"AP":4927,"lock":4928,"inate":4929,"icit":4930,"Ġlearning":4931,"Ġvest":4932,"Ġorganization":4933,"fly":4934,"Ġoption":4935,"Ġpaul":4936,"Ġhelping":4937,"Ġattract":4938,"Ġsnake":4939,"ended":4940,"Ġfighting":4941,"Ġ00":4942,"Ġknee":4943,"ender":4944,"Ġraining":4945,"Ġresearcher":4946,"Ġpropos":4947,"Ġencour":4948,"ĠScient":4949,"ola":4950,"ports":4951,"Ġruns":4952,"ĠFlorida":4953,"Ġap":4954,"Ġagency":4955,"Ġcandidate":4956,"Ġwhom":4957,"Ġconcent":4958,"Ġaltern":4959,"ĠFrench":4960,"Ġtend":4961,"Ġmob":4962,"Ġpotty":4963,"Ġowl":4964,"Ġsexual":4965,"Ġdemonstr":4966,"Ġforced":4967,"ĠDay":4968,"Ġeventually":4969,"Ġtriangle":4970,"Ġsan":4971,"Ġstars":4972,"ĠPhoto":4973,"ĠInternational":4974,"Ġextremely":4975,"iance":4976,"Ġtag":4977,"Ġyum":4978,"elling":4979,"Ġneg":4980,"Ġconsist":4981,"Ġassum":4982,"Ġpromot":4983,"Ġdamage":4984,"Ġlid":4985,"Ġseemed":4986,"Ġchain":4987,"Ġgrad":4988,"ĠDis":4989,"Ġplays":4990,"Ġcrash":4991,"Ġloves":4992,"Ġturtle":4993,"Ġmad":4994,"Ġshr":4995,"Ġsmile":4996,"Ġturns":4997,"Ġindividuals":4998,"Ġabsolutely":4999,"dom":5000,"Ġrt":5001,"Ġearth":5002,"Ġended":5003,"ĠRead":5004,"Ġelephants":5005,"ledge":5006,"Ġpumpkin":5007,"ĠÃ":5008,"Ġrib":5009,"ĠFed":5010,"ĠLike":5011,"ords":5012,"Ġrefer":5013,"Ġ2007":5014,"Ġcopy":5015,"Ġcriminal":5016,"ĠResearch":5017,"Ġmer":5018,"ĠArab":5019,"Ġprojects":5020,"Ġexecutive":5021,"ala":5022,"Ġweight":5023,"Ġbrain":5024,"Ġguard":5025,"Ġeverywhere":5026,"Ġaware":5027,"Ġcrayon":5028,"ez":5029,"Ġtim":5030,"igg":5031,"ĠTy":5032,"Ġbedroom":5033,"Ġhomes":5034,"Ġ45":5035,"ĠStr":5036,"Ġminor":5037,"Ġcentral":5038,"ipp":5039,"oved":5040,"Ġlic":5041,"see":5042,"Ġmanufact":5043,"Ġdeveloped":5044,"Ġlogo":5045,"Ġscissors":5046,"orney":5047,"boy":5048,"Ġtravel":5049,"Ġtee":5050,"ĠAss":5051,"Ġpicked":5052,"reg":5053,"Ġstack":5054,"Ġpros":5055,"Ġboxes":5056,"Ġpolicies":5057,"pir":5058,"Ġrear":5059,"Ġrust":5060,"ĠST":5061,"Ġupstairs":5062,"aks":5063,"Ġknowledge":5064,"Ġsched":5065,"Ġtotally":5066,"ĠAustralia":5067,"oul":5068,"Ġdancing":5069,"Ġrise":5070,"amps":5071,"ĠSer":5072,"ĠEv":5073,"Ġscen":5074,"ampionship":5075,"hem":5076,"Ġborder":5077,"Ġtrial":5078,"Ġexerc":5079,"Ġavoid":5080,"Ġcompetition":5081,"Ġcrazy":5082,"ĠBecause":5083,"Ġfle":5084,"ĠMex":5085,"ĠBo":5086,"Ġwilling":5087,"Ġcharge":5088,"Ġblog":5089,"change":5090,"antage":5091,"uela":5092,"Ġotherwise":5093,"ET":5094,"rated":5095,"Ġoo":5096,"Ġbeep":5097,"Ġlil":5098,"ounds":5099,"Ġmedicine":5100,"Ġincident":5101,"Ġenter":5102,"Ġconfl":5103,"Ġdining":5104,"ga":5105,"Ġnut":5106,"Ġ29":5107,"Ġalle":5108,"ĠLaw":5109,"Ġanalysis":5110,"Ġbelly":5111,"Ð¸":5112,"eno":5113,"umn":5114,"Ġappeared":5115,"Ġballoon":5116,"Ġswitch":5117,"aven":5118,"ki":5119,"uge":5120,"Ġtummy":5121,"icago":5122,"osure":5123,"ĠSanders":5124,"ĠBra":5125,"udd":5126,"Ġunique":5127,"Ġhighest":5128,"Ġprimary":5129,"Ġsenior":5130,"Ġangry":5131,"Ġcitizens":5132,"Ġpun":5133,"Ġrat":5134,"ĠRo":5135,"Ġflip":5136,"edy":5137,"ĠMor":5138,"ategy":5139,"Ġviolet":5140,"Ġredu":5141,"Ġdise":5142,"issa":5143,"Ġincome":5144,"ĠAlso":5145,"Ġhyd":5146,"Ġpushing":5147,"rants":5148,"town":5149,"Ġbald":5150,"Ġfart":5151,"icol":5152,"road":5153,"venue":5154,"Ġstarts":5155,"Ġoutdoor":5156,"Ġtough":5157,"Ġpor":5158,"amic":5159,"ĠCup":5160,"Ġtells":5161,"Ġappl":5162,"Ġunless":5163,"Ġclimb":5164,"ersey":5165,"Ġyard":5166,"Ġfake":5167,"Ġshoot":5168,"Ġsight":5169,"term":5170,"Ġyeh":5171,"Ġplayd":5172,"izes":5173,"Ġtunnel":5174,"encies":5175,"Ġtrains":5176,"Ġstatus":5177,"bar":5178,"rs":5179,"Ġlamb":5180,"ĠTor":5181,"Ġnoted":5182,"ĠAir":5183,"Ġaccident":5184,"Ġfourth":5185,"anches":5186,"Ġmessy":5187,"ACK":5188,"Ġbac":5189,"etic":5190,"Ġalbum":5191,"Ġanaly":5192,"Ġnecessary":5193,"ĠBill":5194,"Ġvs":5195,"Ġanybody":5196,"iber":5197,"ĠInter":5198,"Ġbattery":5199,"Ġagreement":5200,"ìĿ":5201,"Ġbout":5202,"ĠCr":5203,"istry":5204,"Ġjoin":5205,"Ġcredit":5206,"Ġmister":5207,"Ġrare":5208,"Ġstairs":5209,"Ġleather":5210,"ste":5211,"ĠBitc":5212,"Ġworry":5213,"Ġdishes":5214,"ĠApple":5215,"ĠGovern":5216,"Ġdraft":5217,"Ġfilled":5218,"ĠSH":5219,"Ġthrowing":5220,"Ġactions":5221,"Ġexcited":5222,"Ġtraditional":5223,"Ġdum":5224,"Ġpil":5225,"Ġpages":5226,"Ġgent":5227,"Ġshift":5228,"Ġsuff":5229,"Ġhighly":5230,"Ġsinging":5231,"Ġcontinues":5232,"Ġilleg":5233,"Ġtheory":5234,"Ġvirt":5235,"Ġmanager":5236,"Ġamb":5237,"Ġmemory":5238,"Ġpowerful":5239,"ortunately":5240,"Ġfreedom":5241,"Ġreligion":5242,"OU":5243,"inc":5244,"ilies":5245,"ection":5246,"new":5247,"Ġfinding":5248,"Ġmainly":5249,"Ġbenefits":5250,"Ġthirty":5251,"Ġpaj":5252,"Ġleaf":5253,"Ġstret":5254,"Ġprinci":5255,"ĠTexas":5256,"Ġalleged":5257,"asc":5258,"ĠSchool":5259,"roid":5260,"Ġgoat":5261,"aved":5262,"They":5263,"Ġpainting":5264,"ĠPeople":5265,"Ġmushroom":5266,"21":5267,"oft":5268,"Ġpsych":5269,"Ġfal":5270,"Ġonions":5271,"Ġrandom":5272,"Ġprose":5273,"Ġexplain":5274,"annel":5275,"Ġgarbage":5276,"Ġsuccessful":5277,"Ġpurpose":5278,"Ġbon":5279,"uty":5280,"rial":5281,"Ġcoal":5282,"Ġfear":5283,"Ġintegr":5284,"Ġshouldn":5285,"idden":5286,"Ġunknown":5287,"Ġimpl":5288,"Ġdecades":5289,"ĠServ":5290,"ĠMil":5291,"ossible":5292,"Ġ80":5293,"Ġcaused":5294,"Ġmission":5295,"ipping":5296,"put":5297,"ĠDel":5298,"Ġagree":5299,"ĠStep":5300,"Ġtreatment":5301,"Ġbehavior":5302,"night":5303,"Ġ{":5304,"Ġcateg":5305,"ĠGold":5306,"Ġbags":5307,"Ġdetermin":5308,"Ġsna":5309,"ĠPM":5310,"ernie":5311,"Ġteenager":5312,"Ġagreed":5313,"Ġtemper":5314,"Ġsharp":5315,"ota":5316,"ĠAre":5317,"ĠDa":5318,"Ġserved":5319,"Ġdollar":5320,"Ġpillows":5321,"Ġdevice":5322,"Ġtoothbr":5323,"ĠGree":5324,"RA":5325,"ym":5326,"Ġdie":5327,"ĠWall":5328,"EL":5329,"Ġsally":5330,"vere":5331,"verse":5332,"antly":5333,"ĠHigh":5334,"Ġstreets":5335,"Ġorganiz":5336,"ĠTwo":5337,"Ġchalleng":5338,"80":5339,"dies":5340,"oston":5341,"ĠEarth":5342,"Ġcaption":5343,"Ġsurprise":5344,"Ġcabinet":5345,"Ġconflict":5346,"Ġplaydoh":5347,"Ġpeppers":5348,"eling":5349,"ĠUs":5350,"Ġproduce":5351,"--------":5352,"ĠCouncil":5353,"EO":5354,"uana":5355,"Ġros":5356,"Ġcho":5357,"ĠPri":5358,"Ġworse":5359,"Ġlaun":5360,"ĠChris":5361,"Ġairport":5362,"ancis":5363,"Ġinternet":5364,"Ġepisode":5365,"Ġped":5366,"Ġug":5367,"Ġtrash":5368,"ĠFoll":5369,"Ġmicrow":5370,"Ġgrandpa":5371,"Ġtongue":5372,"lor":5373,"âĤ¬":5374,"Ġpreviously":5375,"Ġleaning":5376,"Ġchallenge":5377,"ipper":5378,"ĠÐ":5379,"erm":5380,"itness":5381,"ĠMike":5382,"ccer":5383,"Ġzoom":5384,"Ġstrange":5385,"Ġcloud":5386,"ĠAnge":5387,"95":5388,"Ġna":5389,"Ġgoals":5390,"iller":5391,"Ġgreater":5392,"Ġnumer":5393,"Ġcritical":5394,"iliar":5395,"Ġwetsuit":5396,"Ġpatients":5397,"ERS":5398,"ston":5399,"ĠGeorge":5400,"Ġparties":5401,"Ġdrinks":5402,"Ġprograms":5403,"Ġhonest":5404,"Ġthirties":5405,"BI":5406,"Ġprem":5407,"Ġpointing":5408,"Ġnearby":5409,"Ġshadows":5410,"Ġhundreds":5411,"Ġweapons":5412,"100":5413,"ĠMag":5414,"Ġarr":5415,"raid":5416,"Ġincred":5417,"ribution":5418,"Ġsch":5419,"onents":5420,"Ġnoon":5421,"irgin":5422,"ĠTop":5423,"ĠRel":5424,"ups":5425,"Ġequip":5426,"ĠImage":5427,"Ġcustomers":5428,"24":5429,"ba":5430,"Ġoat":5431,"etro":5432,"ĠBig":5433,"Ġkitty":5434,"Ġgolden":5435,"Ġrais":5436,"mbol":5437,"ĠDan":5438,"Ġserve":5439,"Ġentirely":5440,"Ġapartment":5441,"Ġconfirmed":5442,"Ph":5443,"wide":5444,"Ġsouth":5445,"Ġpine":5446,"ĠAP":5447,"Ġhipp":5448,"Ġgiant":5449,"dden":5450,"ograph":5451,"edge":5452,"asion":5453,"Ġmagn":5454,"Ġindeed":5455,"Ġbenefit":5456,"Ġcurtain":5457,"Ġbicycle":5458,"Ġfaster":5459,"itude":5460,"Ġscale":5461,"Ġoptions":5462,"Ġnor":5463,"ĠYes":5464,"Ġkeys":5465,"Ġsigned":5466,"Ġmarriage":5467,"Ġsticky":5468,"vest":5469,"Ġwarn":5470,"Ġtractor":5471,"Ġpoliceman":5472,"Ġinfluence":5473,"].":5474,"but":5475,"iest":5476,"iqu":5477,"Ġmud":5478,"Ġrap":5479,"Ġseats":5480,"ĠThomas":5481,"Ġposted":5482,"ĠBitcoin":5483,"asp":5484,"Ġhero":5485,"Ġrank":5486,"Ġarmy":5487,"Ġflight":5488,"Ġexcell":5489,"how":5490,"Ġpow":5491,"Ġheight":5492,"ĠWoman":5493,"Ġherself":5494,"Ġauthorities":5495,"ructure":5496,"Ġsports":5497,"Ġmillions":5498,"pan":5499,"Ġfirm":5500,"leep":5501,"Ġstain":5502,"Ġliqu":5503,"Ġsudden":5504,"Ġreddish":5505,"uffy":5506,"ĠChristian":5507,"Ġmicrowave":5508,"Ġfurn":5509,"alent":5510,"Ġteach":5511,"Ġphotos":5512,"Ġstrategy":5513,"Ġrectangle":5514,"Ġê":5515,"aroo":5516,"Ġheat":5517,"ĠBL":5518,"Ġthinks":5519,"Ġspecies":5520,"Ġslices":5521,"Ġminimum":5522,"fficient":5523,"Ġfamilies":5524,"Ġstuffed":5525,"Ġauthority":5526,"Ġsources":5527,"Ġdetermine":5528,"Ġafraid":5529,"33":5530,"ĠBen":5531,"Ġallows":5532,"ription":5533,"Ġprotest":5534,"Ġclaimed":5535,"ijuana":5536,"olf":5537,"umble":5538,"Ġadop":5539,"ĠUN":5540,"Ġsupper":5541,"Ġlawy":5542,"Ġexplained":5543,"Ġclothing":5544,"Ġexcuse":5545,"ca":5546,"Ġbacks":5547,"Ġmodels":5548,"Ġfunding":5549,"Ġsprink":5550,"eed":5551,"gency":5552,"Ġbaa":5553,"Ġshared":5554,"cious":5555,"Ġshopping":5556,"Ġmassive":5557,"Ġturkey":5558,"nut":5559,"Ġfellow":5560,"iders":5561,"outhern":5562,"ĠRob":5563,"ĠLou":5564,"ĠOh":5565,"Ġpointed":5566,"Ġsurfboard":5567,"Ġlimit":5568,"Ġsurprised":5569,"Ġvariety":5570,"Ġbob":5571,"Ġprices":5572,"Ġcreating":5573,"ĠUnion":5574,"Ġindependent":5575,"!\"":5576,"nie":5577,"Ġcities":5578,"Ġspill":5579,"Ġuncle":5580,"dered":5581,"Ġcells":5582,"ĠInternet":5583,"Ġtap":5584,"Ġgate":5585,"ario":5586,"iro":5587,"rian":5588,"igned":5589,"Ġowners":5590,"That":5591,"Ġpepperoni":5592,"ĠSyria":5593,"Ġresources":5594,"Ġgentle":5595,"Ġcharges":5596,"Ġimpossible":5597,"ĠAnother":5598,"Ġqueen":5599,"hi":5600,"tw":5601,"Ġnotes":5602,"Ġkang":5603,"Ġresident":5604,"Ġsites":5605,"Ġsymbol":5606,"iation":5607,"Ġfro":5608,"oops":5609,"ĠMad":5610,"ĠMah":5611,"ĠChurch":5612,"Ġowner":5613,"Ġproduced":5614,"Ġmagic":5615,"ĠSecret":5616,"Ġjudge":5617,"But":5618,"ĠAny":5619,"ĠFar":5620,"Ġimages":5621,"Ġinitial":5622,"Ġarrived":5623,"Ġconservative":5624,"ĠMartin":5625,"Ġequipment":5626,"cr":5627,"pri":5628,"ĠMAN":5629,"ĠHall":5630,"agers":5631,"ression":5632,"which":5633,"Ġdebt":5634,"Ġneighborhood":5635,"dog":5636,"Ġgay":5637,"ĠCle":5638,"andon":5639,"ibly":5640,"ias":5641,"Ġcore":5642,"icians":5643,"urse":5644,"ĠBer":5645,"outs":5646,"ĠChicago":5647,"coming":5648,"ĠDef":5649,"27":5650,"equ":5651,"Ġhus":5652,"Ġshock":5653,"orthern":5654,"Ġrelatively":5655,"Ġrainbow":5656,"ĠJapanese":5657,"miss":5658,"oly":5659,"Ġmanuela":5660,"Ġsmooth":5661,"Ġenem":5662,"Ġbringing":5663,"Ġtransport":5664,"Ġprovides":5665,"Ġgenerally":5666,"Ġthrew":5667,"Ġbucket":5668,"Ġconversation":5669,"29":5670,"Ġqual":5671,"Ġcompar":5672,"Ġ2018":5673,"Ġvegg":5674,"Ġdepartment":5675,"rom":5676,"Ġhate":5677,"ĠMac":5678,"ĠLar":5679,"ashion":5680,"Ġbutterfly":5681,"Ġimagine":5682,"Ġresearchers":5683,"ville":5684,"Ġfab":5685,"Ġramp":5686,"ĠHaw":5687,"ĠNFL":5688,"Ġbecoming":5689,"Ġaccom":5690,"Ġmulticol":5691,"wing":5692,"itz":5693,"ĠSee":5694,"ĠWestern":5695,"Ġoffered":5696,"Ġdrum":5697,"arliam":5698,"Ġdaughter":5699,"OL":5700,"etch":5701,"ĠMiss":5702,"ĠLa":5703,"Ġtwel":5704,"Ġrecords":5705,"Ġbugs":5706,"Ġscarf":5707,"ĠMiddle":5708,"Ġpeanut":5709,"ader":5710,"Ġemot":5711,"Ġtouching":5712,"Ġcandidates":5713,"Ġopposition":5714,"Ġopinion":5715,"gers":5716,"mission":5717,"ye":5718,"Ġwra":5719,"Ġrefe":5720,"ĠIr":5721,"âĢĿ,":5722,"rency":5723,"Ġbelieved":5724,"Ġlettering":5725,"):":5726,"cel":5727,"Ġwinning":5728,"ĠAdd":5729,"Ġfrosting":5730,"inct":5731,"Ġpud":5732,"Ġroo":5733,"ĠBank":5734,"Ġshell":5735,"Ġscary":5736,"Ġresidents":5737,"Ġpurse":5738,"Ġ90":5739,"ĠAtt":5740,"Ġunderstanding":5741,"ĠScott":5742,"Ġaid":5743,"ora":5744,"Ġreform":5745,"apers":5746,"ĠPress":5747,"ĠFrance":5748,"Ġsales":5749,"Ġlegislation":5750,"ãĢ":5751,"ano":5752,"Ġvroom":5753,"ĠWil":5754,"ĠCommittee":5755,"Ġracket":5756,"Ġassociated":5757,"Ġbounce":5758,"Ġbikes":5759,"Ġtent":5760,"Ġtissue":5761,"estic":5762,"Ġworst":5763,"ĠChar":5764,"aws":5765,"Ġcontrovers":5766,"ĠGeneral":5767,"Ġgloves":5768,"nowl":5769,"Ġder":5770,"urance":5771,"ĠWin":5772,"ĠYour":5773,"Ġdefensive":5774,"Ġinvestment":5775,"ĠGuy":5776,"Ġexcellent":5777,"uild":5778,"Ġmug":5779,"inger":5780,"isation":5781,"ĠMars":5782,"Ġsupporters":5783,"Ġpooh":5784,"Ġpitcher":5785,"iot":5786,"Ġgarden":5787,"icip":5788,"uries":5789,"ĠBay":5790,"Ġcommittee":5791,"Ġadvoc":5792,"ĠPalest":5793,"ĠHillary":5794,"Ġhur":5795,"Ġshore":5796,"Ġplus":5797,"ĠStud":5798,"Ġoperations":5799,"arliament":5800,"37":5801,"AY":5802,"ih":5803,"point":5804,"Ġfits":5805,"Ġremark":5806,"Ġdaisy":5807,"Ġkangaroo":5808,"onent":5809,"Ġdonkey":5810,"ĠJew":5811,"ĠJohnson":5812,".âĢĻ":5813,"39":5814,"iven":5815,"org":5816,"iser":5817,"Ġjam":5818,"Ġshaped":5819,"Ġasleep":5820,"Ġgraph":5821,"ĠGe":5822,"Ġcommunities":5823,"ita":5824,"ĠPort":5825,"aki":5826,"Ġresponsible":5827,"Ġ}":5828,"ĠCap":5829,"Ġsheet":5830,"Ġadding":5831,"Ġassault":5832,"Ġopposite":5833,"Ġtoothbrush":5834,"mm":5835,"ĸĪ":5836,"Ġtruly":5837,"uman":5838,"Ġcru":5839,"Ġcuts":5840,"Ġbusinesses":5841,"Ġnegative":5842,"Ġrates":5843,"Ġlived":5844,"Ġwashing":5845,"Ġdecide":5846,"ĠCanadian":5847,"Ġfurniture":5848,"Ġir":5849,"Ġthus":5850,"Ġjar":5851,"Ġjune":5852,"Ġplug":5853,"Ġacadem":5854,"Ġpulling":5855,"Ġdemocr":5856,"Ġconcerns":5857,"ĠInstead":5858,"What":5859,"ĠRobert":5860,"lie":5861,"anes":5862,"Ġseeds":5863,"Ġdoct":5864,"ĠSol":5865,"Ġenforce":5866,"oyal":5867,"Ġmaroon":5868,"Ġsolution":5869,"Ġbalance":5870,"Ġfalse":5871,"Ġtack":5872,"athe":5873,"Ġdat":5874,"Ġfox":5875,"ĠMon":5876,"Ġgrapes":5877,"Ġrolling":5878,"ĠIsraeli":5879,"ĠIslamic":5880,"Ġestabl":5881,"ĠJeff":5882,"Ġstorm":5883,"Ġjohn":5884,"umm":5885,"Ġdeck":5886,"ĠWH":5887,"Ġunlike":5888,"Ġhoodie":5889,"ushing":5890,"sec":5891,"Ġtwice":5892,"Ġcather":5893,"Ġcommit":5894,"Ġfamiliar":5895,"Ġexperiment":5896,"Ġdaily":5897,"Ġemployees":5898,"Ġmentioned":5899,"And":5900,"real":5901,"ancy":5902,"ĠArt":5903,"ĠOnce":5904,"Ġducks":5905,"Ġensure":5906,"Ġfill":5907,"isters":5908,"Ġbranch":5909,"ĠOF":5910,"Ġelmo":5911,"Ġbelt":5912,"Ġstores":5913,"Ġrevealed":5914,"rie":5915,"Ġbom":5916,"lying":5917,"Ġjazz":5918,"ĠSher":5919,"ĠCell":5920,"ĠGood":5921,"Ġhighlight":5922,"ĠProf":5923,"Ġargument":5924,"stein":5925,"nam":5926,"Ġcha":5927,"isted":5928,"ĠGame":5929,"ubs":5930,"Ġserving":5931,"ĠAdvertisement":5932,"IL":5933,"UT":5934,"Ġtiles":5935,"Ġsale":5936,"Ġacqu":5937,"Ġconcerned":5938,"Ġcomfortable":5939,"Ġcraw":5940,"ĠFound":5941,"Ġprec":5942,"Ġmarble":5943,"Ġtwelve":5944,"Ġannounce":5945,"Ġcatherine":5946,"Ġcrew":5947,"Ġbirdie":5948,"Ġtests":5949,"uke":5950,"ĠSup":5951,"ĠPlease":5952,"Ġlighting":5953,"ship":5954,"Ġarrested":5955,"alie":5956,"Ġsail":5957,"Ġkeeps":5958,"ĠFrancis":5959,"ĠUSA":5960,"Ġdigital":5961,"cont":5962,"Ġmig":5963,"Ġhearing":5964,"ĠTim":5965,"ĠHa":5966,"Ġguide":5967,"Ġoffers":5968,"Ġpartners":5969,"Ġmarijuana":5970,"Ġnewspaper":5971,"ĠToday":5972,"ram":5973,"onald":5974,"ĠBack":5975,"ĠNy":5976,"Ġoffensive":5977,"Ġsticking":5978,"Ġlistening":5979,"Ġlabel":5980,"Ġodd":5981,"Ġwhis":5982,"igan":5983,"acity":5984,"Ġwealth":5985,"abor":5986,"Ġ32":5987,"Ġdistrict":5988,"Ġrefuge":5989,"Ġoccup":5990,"ses":5991,"Ġpile":5992,"Ġstated":5993,"Ġbackwards":5994,"Ġsurvey":5995,"Ġwalked":5996,"Ġmiles":5997,"44":5998,"vant":5999,"Ġfant":6000,"Ġeh":6001,"Ġpartner":6002,"Ġglad":6003,"Ġ195":6004,"BA":6005,"ĠTO":6006,"ĠTheir":6007,"ĠYet":6008,"Ġchem":6009,"Ġpaying":6010,"Ġapparently":6011,"Ġstrength":6012,"Ġillegal":6013,"Ġmut":6014,"Ġreaching":6015,"grap":6016,"Ġactive":6017,"Ġspeaking":6018,"Ġhelps":6019,"Ġstrugg":6020,"Ġseconds":6021,"Ġapprox":6022,"Ġscratch":6023,"ĠSecurity":6024,"www":6025,"Ġther":6026,"Ġcord":6027,"Ġsoccer":6028,"ĠNor":6029,"Ġtops":6030,"Ġeffective":6031,"goti":6032,"Ġtied":6033,"Ġded":6034,"Ġbeef":6035,"aren":6036,"Ġgiraff":6037,"Ġadvantage":6038,"Ġpackage":6039,"anish":6040,"ĠSam":6041,"Ġwheat":6042,"Ġ31":6043,"Ġjackets":6044,"Ġsticker":6045,"ĠOffice":6046,"Ġmichael":6047,"Ġnest":6048,"Ġliked":6049,"ĠMatt":6050,"Ġquant":6051,"Ġdecisions":6052,"Ġdesigns":6053,"Ġsuggested":6054,"Ġintroduced":6055,"Ġurs":6056,"Ġwings":6057,"Ġbee":6058,"Ġjet":6059,"Ġlemon":6060,"Ġmere":6061,"Ġbodies":6062,"ĠGU":6063,"Ġpoles":6064,"ĠFrank":6065,"Ġdiscovered":6066,"Ġcloset":6067,"Ġsalt":6068,"Ġwhoop":6069,"Ġvalues":6070,"Ġlabor":6071,"Ġplaced":6072,"ĠInstitute":6073,"ker":6074,"Ġgear":6075,"kel":6076,"alley":6077,"apter":6078,"ĠFe":6079,"Ġmomma":6080,"Ġphil":6081,"Ġregist":6082,"Ġvictory":6083,"Ġstainless":6084,"ani":6085,"Ġlosing":6086,"lement":6087,"antic":6088,"Ġresc":6089,"Ġdarker":6090,"Ġchanging":6091,"Ġproposed":6092,"Ġdestroy":6093,"vention":6094,"rep":6095,"Ġfrench":6096,"Ġbeard":6097,"Ġtherefore":6098,"ĠSn":6099,"Ġgrew":6100,"ĠDire":6101,"Ġbecomes":6102,"ifying":6103,"Ġamazing":6104,"Ġdecent":6105,"Ġdecade":6106,"Ġposing":6107,"Ġexpert":6108,"ĠConst":6109,"Ġreturned":6110,"Ġcurtains":6111,"Ġspokesman":6112,"Ġachieve":6113,"Ġbegins":6114,"70":6115,"Ġ>":6116,"Ġdess":6117,"Ġhidden":6118,"Ġshade":6119,"ĠLin":6120,"Ġspoke":6121,"Ġbuses":6122,"Ġuseful":6123,"Ġrestrict":6124,"ception":6125,"Ġfancy":6126,"iable":6127,"Ġnovel":6128,"Ġfrank":6129,"Ġjustice":6130,"resp":6131,"Ġadjust":6132,"ubb":6133,"Ġkeeping":6134,"Ġgift":6135,"ĠGreat":6136,"Ġdocuments":6137,"ĠDespite":6138,"pen":6139,"well":6140,"Ġpitch":6141,"isf":6142,"uster":6143,"keys":6144,"Ġshapes":6145,"ĠMont":6146,"ĠBob":6147,"Ġguitar":6148,"Ġskier":6149,"iano":6150,"Ġeditor":6151,"Ġcleaning":6152,"Ġbean":6153,"ortion":6154,"ĠGirl":6155,"Ġsnack":6156,"Ġmeter":6157,"ĠCommun":6158,"Ġbanks":6159,"Ġpapa":6160,"ĠRichard":6161,"SP":6162,"gree":6163,"Ġwing":6164,"Ġwitness":6165,"asy":6166,"Ġzone":6167,"Ġaccur":6168,"Ġtowels":6169,"ĠSecond":6170,"Ġenvironmental":6171,"itation":6172,"Ġgender":6173,"enced":6174,"ĠAlex":6175,"Ġclip":6176,"Ġmarkets":6177,"Ġbasis":6178,"white":6179,"Ġshades":6180,"Ġrepeated":6181,"look":6182,"ulf":6183,"Ġsaus":6184,"Ġlargely":6185,"Ġbasically":6186,"Ġpushed":6187,"Ch":6188,"uate":6189,"Ġdot":6190,"acing":6191,"Ġstadium":6192,"olic":6193,"Ġaspect":6194,"Ġallowing":6195,"Ġunp":6196,"Ġsupply":6197,"Ġtalked":6198,"Ġfailure":6199,"Ġconnected":6200,"itutional":6201,"CH":6202,"ixt":6203,"ÑĤ":6204,"Ġwed":6205,"Ġmummy":6206,"Ġbless":6207,"ĠCamp":6208,"ĠBoth":6209,"Ġrecording":6210,"Ġexpand":6211,"Ġexpensive":6212,"Ġplanning":6213,"Ġrequires":6214,"Ġdiscussion":6215,"Ġselling":6216,"ĠWilliams":6217,"Ġursula":6218,"Ġdessert":6219,"tle":6220,"ëĭ":6221,"Ġcher":6222,"ĠCat":6223,"cknowl":6224,"emen":6225,"Ġcovers":6226,"Ġelements":6227,"Ġsleeves":6228,"Ġsneakers":6229,"ĠLouis":6230,"23":6231,"usion":6232,"Ġath":6233,"ĠFur":6234,"Ġ2006":6235,"Ġsnowboard":6236,"Ġterrible":6237,"500":6238,"atically":6239,"Ġdownstairs":6240,"ĠThose":6241,"Ġmotion":6242,"Ġraise":6243,"related":6244,"ĠEngland":6245,"ĠMedia":6246,"Ġstrawberry":6247,"Ġapplication":6248,"Ġmulticolored":6249,"ND":6250,"hell":6251,"nda":6252,"orse":6253,"ella":6254,"ĠWind":6255,"Ġawake":6256,"Ġsongs":6257,"Ġactivities":6258,"Ġidentify":6259,"Ġdinosaurs":6260,"Ġrecognize":6261,"Ġpajamas":6262,"Ġlaunched":6263,"mond":6264,"ĠSaud":6265,"Ġmanagement":6266,"ĠNAS":6267,"Ġunit":6268,"Ġcontext":6269,"clock":6270,"ĠImages":6271,"Ġpanel":6272,"rary":6273,"za":6274,"Ġholes":6275,"Ġgain":6276,"Ġchips":6277,"Ġappoint":6278,"Ġcarried":6279,"Ġtransfer":6280,"ĠCollege":6281,"Ġspirit":6282,"rative":6283,"Ġdots":6284,"Ġthumb":6285,"Ġseek":6286,"Ġbelieves":6287,"Ġcollar":6288,"Ġsupported":6289,"ĠBritain":6290,"66":6291,"Ġkalie":6292,"ĠAc":6293,"ĠCarl":6294,"ĠCEO":6295,"ugh":6296,"olly":6297,"Ġends":6298,"Ġlocation":6299,"ĠCarol":6300,"Ġscientists":6301,"Ġmelissa":6302,"ius":6303,"Ġgogg":6304,"ĠMer":6305,"Ġflash":6306,"Ġprefer":6307,"Ġdrivers":6308,"Ġequal":6309,"Ġsuggests":6310,"burg":6311,"ĠSub":6312,"ĠCH":6313,"ĠRem":6314,"Ġdifferences":6315,"Ġpurs":6316,"Ġgeneration":6317,"34":6318,"rating":6319,"Ġsets":6320,"Ġyards":6321,"Ġreject":6322,"Ġweak":6323,"Ġclay":6324,"Ġclap":6325,"Ġencl":6326,"ĠAndroid":6327,"meal":6328,"Ġtransform":6329,"Ġissued":6330,"Ġmatches":6331,"ĠAfrican":6332,"RI":6333,"cript":6334,"hirt":6335,"Ġfashion":6336,"Ġnurse":6337,"amin":6338,"semb":6339,"ĠPC":6340,"Ġcoverage":6341,"ĠJim":6342,"ĠHealth":6343,"Ġstrateg":6344,"Ġtalks":6345,"Ġfemales":6346,"Ġfigures":6347,"ĠCommission":6348,"Ġroughly":6349,"ĠSupreme":6350,"Ġpa":6351,"season":6352,"andy":6353,"ĠWork":6354,"pective":6355,"Ġobt":6356,"Ġexisting":6357,"spe":6358,"Ġfo":6359,"Ġhom":6360,"uters":6361,"Ġjelly":6362,"ĠSil":6363,"ĠStem":6364,"Ġaccused":6365,"print":6366,"Ġhumans":6367,"Ġplanes":6368,"van":6369,"yard":6370,"zil":6371,"Ġpatch":6372,"Ġlucky":6373,"esus":6374,"Ġfrust":6375,"ifer":6376,"ressed":6377,"Ġskills":6378,"Ġcolorful":6379,"Ġwaist":6380,"Ġcowboy":6381,"Ġzebras":6382,"Ġproviding":6383,"Ġpossibility":6384,"Ġmistake":6385,"Ġgiraffes":6386,"Ġwagon":6387,"Ġsemi":6388,"ĠCre":6389,"Ġnegoti":6390,"Ġvast":6391,"Ġcarriage":6392,"Ġshoulders":6393,"....":6394,"Ġdonuts":6395,"Ġteaching":6396,"Ġobjects":6397,"Ġslowly":6398,"ĠAssociation":6399,"ĠScientology":6400,"Ġgoggles":6401,".'":6402,"HL":6403,"upp":6404,"Ġhol":6405,"Ġnin":6406,"arant":6407,"ications":6408,"Ġkh":6409,"ĠWeb":6410,"Ġsmoke":6411,"Ġinterp":6412,"Ġspecifically":6413,"Ġinjury":6414,"Ġvillage":6415,"Ġnic":6416,"osen":6417,"ĠRE":6418,"ĠKh":6419,"ĠSociety":6420,"Ġinfrast":6421,"Ġjoined":6422,"ĠQue":6423,"going":6424,"Ġdomin":6425,"Ġconvention":6426,"gen":6427,"âĸĪ":6428,"Ġhurry":6429,"Ġhen":6430,"Ġforth":6431,"ĠRom":6432,"Ġcock":6433,"Ġunivers":6434,"Ġuniversity":6435,"ĠWho":6436,"Ġstickers":6437,"Ġdeliver":6438,"Ġidentified":6439,"Ġwonderful":6440,"Ġiniti":6441,"Ġmurder":6442,"38":6443,"As":6444,"CA":6445,"aver":6446,"imal":6447,"ĠFore":6448,"Ġdiam":6449,"Ġskis":6450,"Ġbelief":6451,"Ġinterests":6452,"ĠSpace":6453,"ĠGroup":6454,"Ġmovies":6455,"Ġbasketball":6456,"Ġolives":6457,"Ġliquid":6458,"Ġtab":6459,"anted":6460,"ĠBus":6461,"ĠBowl":6462,"Ġoutfit":6463,"onto":6464,"aze":6465,"Ġinstall":6466,"dri":6467,"Ġacknowl":6468,"icing":6469,"usk":6470,"Ġstem":6471,"Ġclaus":6472,"ĠFire":6473,"Ġ2000":6474,"enses":6475,"Ġpresents":6476,"Ġfalls":6477,"Ġjumped":6478,"Ġappropri":6479,"Ġpete":6480,"Ġprepared":6481,"Ñģ":6482,"reci":6483,"Ġcracker":6484,"Ġyork":6485,"ĠFin":6486,"Ġbroc":6487,"Ġpassing":6488,"Ġfundament":6489,"Ġhousing":6490,"ĠMean":6491,"Ġsqueak":6492,"Ġfaith":6493,"lymp":6494,"Ġalleg":6495,"ĠFox":6496,"ĠLat":6497,"Ġremoved":6498,"cake":6499,"Ġrings":6500,"elled":6501,"rier":6502,"istics":6503,"ĠDi":6504,"ĠLos":6505,"Ġindoor":6506,"Ġzero":6507,"Ġdragon":6508,"Ġcooked":6509,"Ġaircraft":6510,"Ġstrike":6511,"ĠIsland":6512,"ĠBlue":6513,"Ġupdate":6514,"enoord":6515,"Ġdisease":6516,"Ġhusband":6517,"Ġinfrastructure":6518,"Ġamerican":6519,"Ġhitting":6520,"oms":6521,"Ġreact":6522,"Ġmanaged":6523,"ĠUnder":6524,"coin":6525,"Ġprofessor":6526,"friend":6527,"Ġlaughing":6528,"55":6529,"90":6530,"SA":6531,"fish":6532,"win":6533,"Ġtip":6534,"Ġsoph":6535,"Ġeur":6536,"rif":6537,"ĠGOP":6538,"ĠOk":6539,"Ġtransl":6540,"Ġviews":6541,"front":6542,"rad":6543,"Ġrope":6544,"ĠCy":6545,"ĠCur":6546,"Ġreduce":6547,"arko":6548,"uggle":6549,"Ġmustard":6550,"ONT":6551,"Ġcandles":6552,"Ġtypical":6553,"Ġemergency":6554,"ghan":6555,"ÑĢ":6556,"Ġapr":6557,"Ġnuts":6558,"oween":6559,"Ġreci":6560,"ĠSur":6561,"Ġputs":6562,"Ġfloral":6563,"Ġproud":6564,"ĠVirgin":6565,"Ġmarried":6566,"Ġprotection":6567,"Ġaccounts":6568,"Ġurban":6569,"Ġjun":6570,"ĠElect":6571,"Ġeleven":6572,"azed":6573,"Ġmeasures":6574,"FC":6575,"hand":6576,"li":6577,"Ġtalent":6578,"Ġbib":6579,"Ġpond":6580,"isher":6581,"Ġstir":6582,"ĠBook":6583,"Ġconsequ":6584,"angular":6585,"Ġsubsc":6586,"bye":6587,"Ġdeveloping":6588,"Ġtesting":6589,"Ġdomestic":6590,"Ġbesides":6591,"Ġoatmeal":6592,"ST":6593,"arian":6594,"Ġremind":6595,"Ġcurrency":6596,"Ġplanet":6597,"ĠAtl":6598,"Ġexpression":6599,"Ġfloppy":6600,"Ġhay":6601,"Ġghost":6602,"Ġharder":6603,"Ġstandards":6604,"Ġcommand":6605,"Ġinteract":6606,"Ġblocked":6607,"gypt":6608,"ronic":6609,"ĠJustice":6610,"Ġafford":6611,"Ġmatthew":6612,"ĠKorea":6613,"bour":6614,"can":6615,"Ġconclud":6616,"Ġassess":6617,"Ġinstr":6618,"Ġpilot":6619,"26":6620,"Ġast":6621,"ĠSun":6622,"Ġleftmost":6623,"Ġ2019":6624,"Ġcommitted":6625,"Ġfaced":6626,"Ġoccur":6627,"Ġexercise":6628,"Ġtask":6629,"Ġsust":6630,"igator":6631,"teen":6632,"Ġpiggy":6633,"rosoft":6634,"Ġmushrooms":6635,"ĠPalestin":6636,"ĠGUY":6637,"OO":6638,"Ġdavid":6639,"Ġtoot":6640,"uls":6641,"ulated":6642,"ĠWhe":6643,"rawn":6644,"Ġholds":6645,"Ġsticks":6646,"Ġpigs":6647,"Ġnarrow":6648,"Ġprosecut":6649,"Ġfabric":6650,"case":6651,"vis":6652,"ication":6653,"Ġrural":6654,"ĠBet":6655,"Ġexchange":6656,"Ġsuppl":6657,"Ġtaller":6658,"Ġhurts":6659,"Ġoccurred":6660,"Ġparticipants":6661,"ĠAfrica":6662,"Ġrapid":6663,"Ġenforcement":6664,"íķ":6665,"Ġfamous":6666,"Ġpositions":6667,"ĠSwed":6668,"Ġveggies":6669,"GB":6670,"eze":6671,"Ġgig":6672,"alls":6673,"ulate":6674,"Ġdada":6675,"Ġsliced":6676,"oking":6677,"Ġvotes":6678,"Ġidentity":6679,"Ġresponsibility":6680,"Ã¡":6681,"Ġdu":6682,"Ġmal":6683,"Ġmaster":6684,"Ġgrave":6685,"Ġstream":6686,"Ġinstance":6687,"Ġplanned":6688,"Ġba":6689,"Ġcer":6690,"Ġpanc":6691,"Ġstool":6692,"Ġshiny":6693,"ĠMet":6694,"ĠMary":6695,"ĠRyan":6696,"ĠOut":6697,"Ġpresence":6698,"ĠYoung":6699,"Ġannual":6700,"ĠPrime":6701,"Ġsleeved":6702,"Ġharm":6703,"Ġlaugh":6704,"Ġvictims":6705,"Ġladder":6706,"Ġestablished":6707,"Ġwhist":6708,"ishes":6709,"Ġheav":6710,"Ġhaw":6711,"Ġshining":6712,"ores":6713,"Ġsquir":6714,"Ġaward":6715,"Ġrose":6716,"otes":6717,"Ġvo":6718,"ĠGar":6719,"ĠKur":6720,"Ġwrites":6721,"Ġsuppose":6722,"Ġpresented":6723,"ĠPhil":6724,"Ġpicnic":6725,"Ġconnection":6726,"clusion":6727,"Ġestablish":6728,"Ġobviously":6729,"Ġbacon":6730,"Ġorganizations":6731,"mar":6732,"Ġwest":6733,"utch":6734,"ĠDist":6735,"ĠChief":6736,"Ġbreaking":6737,"Ġphotograph":6738,"Ġloved":6739,"Ġtaught":6740,"ĠGuard":6741,"Ġdetermined":6742,"ĠGreek":6743,"ĠAngeles":6744,"Ġske":6745,"Ġcooper":6746,"Ġmuff":6747,"Ġtoe":6748,"ican":6749,"Ġdock":6750,"olt":6751,"Ġsoda":6752,"ĠPre":6753,"ĠDen":6754,"Ġsquish":6755,"Ġelections":6756,"Ġcomplaint":6757,"Ġleadership":6758,"ĠGovernment":6759,"made":6760,"onom":6761,"Ġfol":6762,"ĠRiver":6763,"Ġcolumn":6764,"Ġcharged":6765,"ĠArmy":6766,"Ġdevices":6767,"Ġskiing":6768,"ĠAfghan":6769,"ĠSecretary":6770,"stone":6771,"Ġwaste":6772,"Ġsoci":6773,"ums":6774,"umber":6775,"Ġgoodbye":6776,"ĠSocial":6777,"Ġfiles":6778,"Ġhelmets":6779,"Ġtaxes":6780,"ENT":6781,"Ġapproximately":6782,"born":6783,"makers":6784,"Ġdrew":6785,"ĠCN":6786,"Ġ34":6787,"Ġrecorded":6788,"Ġarticles":6789,"Ġvoted":6790,"Ġfuel":6791,"Ġnana":6792,"Ġnoticed":6793,"ĠScience":6794,"Ġbranches":6795,"Ġknees":6796,"Ġremained":6797,"Ġbowls":6798,"Ġcircles":6799,"iverse":6800,"Ġattempts":6801,"Ġaffected":6802,"Ġregarding":6803,"Ġmobile":6804,"rough":6805,"ÃŃ":6806,"agn":6807,"ĠOffic":6808,"that":6809,"Ġentertain":6810,"Ġ2003":6811,"Ġexperts":6812,"Ġrocking":6813,"Ġdesktop":6814,"ĠNyarko":6815,"CC":6816,"ded":6817,"pm":6818,"Ġtant":6819,"Ġtact":6820,"acle":6821,"Ġsevent":6822,"ĠTer":6823,"ĠSign":6824,"Ġdaylight":6825,"Ġsurve":6826,"Ġkitten":6827,"Ġbuying":6828,"onym":6829,"Ġfunds":6830,"ĠBrazil":6831,"Ġsausage":6832,"!âĢĿ":6833,"car":6834,"âĢľ":6835,"Ġcann":6836,"Ġshh":6837,"agues":6838,"ĠOlymp":6839,"Ġbreed":6840,"Ġsweats":6841,"Ġexciting":6842,"Ġdomain":6843,"Ġwidely":6844,"des":6845,"uous":6846,"Ġjenny":6847,"Ġabandon":6848,"ource":6849,"Ġdowntown":6850,"Ġvision":6851,"Ġregister":6852,"Ġrealize":6853,"Ġinstruct":6854,"Ġhyp":6855,"Ġcircus":6856,"Ġshelves":6857,"Ã¤":6858,"Ġbin":6859,"Ġcert":6860,"Ġfishing":6861,"Ġfuzz":6862,"orage":6863,"leg":6864,"alian":6865,"Ġraw":6866,"Ġstood":6867,"opy":6868,"Ġcliff":6869,"ĠGIR":6870,"Ġcheap":6871,"Ġpotentially":6872,"Ġ2005":6873,"ribute":6874,"Ġfactors":6875,"Ġvoting":6876,"Ġknocked":6877,"Ġbelongs":6878,"Ġfarthest":6879,"Ġceramic":6880,"rome":6881,"war":6882,"onn":6883,"Ġalloc":6884,"Ġabuse":6885,"Ġclin":6886,"Ġdegree":6887,"ements":6888,"Ġ37":6889,"arest":6890,"ffered":6891,"Ġskill":6892,"Ġsubur":6893,"Ġjoke":6894,"Ġsoldiers":6895,"Ġstretch":6896,"mes":6897,"overy":6898,"erg":6899,"ĠLong":6900,"bert":6901,"Ġflow":6902,"Ġsnap":6903,"Ġpicking":6904,"Ġstudio":6905,"ãģ®":6906,"ĠBefore":6907,"ĠMaybe":6908,"Ġwatched":6909,"Ġultimately":6910,"Ġraisins":6911,"ĠWindows":6912,"47":6913,"PA":6914,"cons":6915,"inals":6916,"Ġpale":6917,"Ġpowers":6918,"Ġhack":6919,"Ġvul":6920,"ansas":6921,"icted":6922,"Ġchef":6923,"Ġrefused":6924,"Ġcollection":6925,"Ġcycle":6926,"Ġstrawberries":6927,"When":6928,"gor":6929,"Ġseasons":6930,"ĠAuthor":6931,"ĠRog":6932,"ĠDN":6933,"Ġworried":6934,"ĠJones":6935,"Ġfarmer":6936,"irsty":6937,"Ġtradition":6938,"ĠCentral":6939,"ITH":6940,"Ġdrugs":6941,"Ġspinach":6942,"ĠBoy":6943,"Ġknowing":6944,"Ġ2001":6945,"Ġcouncil":6946,"Ġposts":6947,"Ġconsidering":6948,"Ġsatisf":6949,"Ġcircum":6950,"49":6951,"die":6952,"ena":6953,"Ġforms":6954,"ĠSl":6955,"ĠMel":6956,"Ġalive":6957,"Ġgrape":6958,"Ġ36":6959,"Ġcapacity":6960,"Ġleads":6961,"Ġpenny":6962,"Ġmickey":6963,"Ġsolar":6964,"Ġeric":6965,"ployment":6966,"ĠSystem":6967,"Ġindustrial":6968,"Ġcorporate":6969,"Ġalternative":6970,"ĠMexico":6971,"Ġugly":6972,"36":6973,"iant":6974,"Ġloose":6975,"Ġmask":6976,"Ġcoord":6977,"Ġ65":6978,"Ġargued":6979,"Ġguns":6980,"Ġbuddy":6981,"ĠToronto":6982,"mitted":6983,"Ġeast":6984,"oted":6985,"Ġkilling":6986,"Ġupset":6987,"ĠFey":6988,"Ġcarbon":6989,"ĠInc":6990,"ĠStan":6991,"Ġcommission":6992,"Ġappearance":6993,"Ġelected":6994,"ĠDaily":6995,"Ð½":6996,"Ġtad":6997,"Ġfav":6998,"Ġhoo":6999,"ented":7000,"Ġsharing":7001,"ĠMa":7002,"ĠMass":7003,"Ġfeather":7004,"ocal":7005,"Ġphones":7006,"Ġresist":7007,"phas":7008,"Ġbush":7009,"Ġinstit":7010,"Ġcustomer":7011,"IP":7012,"reland":7013,"Ġshove":7014,"Ġneut":7015,"Ġsweat":7016,"Ġlayer":7017,"Ġdetect":7018,"ĠSaudi":7019,"01":7020,"For":7021,"wr":7022,"ĠSing":7023,"ĠAri":7024,"standing":7025,"ĠWas":7026,"Ġappreci":7027,"Ġintended":7028,"weight":7029,"Ġmotiv":7030,"porary":7031,"Ġoriginally":7032,"Ġseriously":7033,"Ġsuddenly":7034,"ĠCarolina":7035,"Sh":7036,"uations":7037,"Ġdust":7038,"Ġsuffered":7039,"ĠEgypt":7040,"Ġspark":7041,"Ġaggress":7042,"phones":7043,"ĠSteve":7044,"Ġspectators":7045,"====":7046,"Ġtrailer":7047,"Ġresidential":7048,"ua":7049,"Ġernie":7050,"Ġlin":7051,"Ġstable":7052,"ĠCapt":7053,"stick":7054,"stream":7055,"ĠMur":7056,"Ġusual":7057,"ours":7058,"pay":7059,"Ġera":7060,"Ġwage":7061,"oma":7062,"Ġlif":7063,"ĠCard":7064,"Ġchin":7065,"ĠRub":7066,"ĠNote":7067,"Ġunclear":7068,"ockey":7069,"Ġremaining":7070,"Ġblocking":7071,"Ġdiscrim":7072,"Ġpoliticians":7073,"Ġhydrant":7074,"Ġaccompl":7075,"mail":7076,"ront":7077,"Ġicing":7078,"Ġgum":7079,"Ġnomin":7080,"Ġfries":7081,"ĠBBC":7082,"ĠPut":7083,"ĠJack":7084,"Ġattorney":7085,"Ġphotograp":7086,"ĠShow":7087,"Ġpromise":7088,"Ġwedding":7089,"Ġdiamond":7090,"ĠMeanwhile":7091,"48":7092,"EE":7093,"with":7094,"Ġyucky":7095,"Ġnations":7096,"igger":7097,"Ġhaha":7098,"rol":7099,"umin":7100,"ivia":7101,"ferences":7102,"Ġdrag":7103,"Ġcombination":7104,"Ġowls":7105,"ĠFoundation":7106,"Ġpra":7107,"alog":7108,"eller":7109,"Ġshark":7110,"Ġtroops":7111,"unction":7112,"Ġveter":7113,"ĠFree":7114,"Ġcoast":7115,"Ġprospect":7116,"IM":7117,"Ġcancer":7118,"Ġseeking":7119,"Ġketch":7120,"aham":7121,"Ġoffering":7122,"Ġdiet":7123,"Ġstayed":7124,"Ġinsurance":7125,"Ġcrossing":7126,"Ġphilos":7127,"Ġmary":7128,"isa":7129,"ĠWITH":7130,"ĠThank":7131,"Ġstatements":7132,"Ġrubber":7133,"Ġcabinets":7134,"Ġincreasingly":7135,"Ġliterally":7136,"cos":7137,"Ġmice":7138,"Ġgal":7139,"igation":7140,"Ġjail":7141,"char":7142,"ĠRock":7143,"Ġscript":7144,"Ġelim":7145,"Ġsurprising":7146,"Ġdisappoint":7147,"ĠUpd":7148,"ĠMicrosoft":7149,"Ġproposal":7150,"Ġchallenges":7151,"Ġketchup":7152,"tail":7153,"Ġcraft":7154,"Ġyer":7155,"Ġmall":7156,"Ġreference":7157,"Ġrot":7158,"ĠPac":7159,"Ġproced":7160,"ĠJon":7161,"Ġlocated":7162,"Ġscores":7163,"Ġweapon":7164,"Ġconducted":7165,"Ġimmigration":7166,"Ġpurchase":7167,"gent":7168,"tie":7169,"uish":7170,"ati":7171,"Ġgor":7172,"Ġrum":7173,"Ġblinds":7174,"Ġkat":7175,"ĠCath":7176,"ĠPublic":7177,"orders":7178,"Ġwrit":7179,"Ġgrayish":7180,"lets":7181,"Ġpractices":7182,"Ġruling":7183,"ĠAbout":7184,"ĠAgain":7185,"ĠFederal":7186,"Ġbone":7187,"itors":7188,"oos":7189,"Ġruff":7190,"ĠTra":7191,"olit":7192,"stal":7193,"Ġalligator":7194,"ĠPS":7195,"Ġadapt":7196,"Ġeaten":7197,"Ġcolle":7198,"ĠOnly":7199,"Ġpatient":7200,"Ġprofile":7201,"ĠSupp":7202,"Ġbroadcast":7203,"ĠAustralian":7204,"Ġdoughnut":7205,"Ġnumerous":7206,"Ġdusk":7207,"ushed":7208,"Ġchamp":7209,"ĠRad":7210,"Ġguarant":7211,"Ġtear":7212,"Ġapply":7213,"Ġmatty":7214,"IRT":7215,"ĠEnter":7216,"ĠNASA":7217,"ĠVirginia":7218,"05":7219,"bell":7220,"life":7221,"Ġpaved":7222,"Ġspons":7223,"Ġintent":7224,"Ġagencies":7225,"Ġ42":7226,"Ġ500":7227,"ĠCharl":7228,"Ġterrit":7229,"Ġtechnical":7230,"Ġutens":7231,"Ġrobin":7232,"anny":7233,"osition":7234,"ello":7235,"ĠMiller":7236,"ĠBoston":7237,"inda":7238,"ĠWood":7239,"Ġsecure":7240,"Ġsits":7241,"Ġprotes":7242,"Ġsample":7243,"Ġmrs":7244,"ĠService":7245,"BS":7246,"No":7247,"awn":7248,"Ġties":7249,"ĠSqu":7250,"udge":7251,"Ġunus":7252,"ĠVer":7253,"hens":7254,"Ġeval":7255,"ĠRec":7256,"Ġgovernments":7257,"ĠLeg":7258,"Ġoperation":7259,"Ġinnov":7260,"Is":7261,"coh":7262,"rot":7263,"Ġbars":7264,"Ġblurred":7265,"Ġuna":7266,"Ġkites":7267,"sex":7268,"ĠEach":7269,"Ġflood":7270,"ava":7271,"Ġmoves":7272,"issions":7273,"Ġwriter":7274,"Ġentry":7275,"Ġsupporting":7276,"Ġmental":7277,"Ġsweatshirt":7278,"ĠFeyenoord":7279,"kr":7280,"heart":7281,"Ġdrawn":7282,"Ġthirsty":7283,"arters":7284,"omer":7285,"Ġtravis":7286,"ĠHam":7287,"ĠHist":7288,"pee":7289,"Ġbubble":7290,"ĠThough":7291,"Ġwrap":7292,"Ġbeds":7293,"Ġcarefully":7294,"Ġgrassy":7295,"Ġsubs":7296,"ĠDevelop":7297,"ietnam":7298,"Ġrectangular":7299,"Ġcomplexity":7300,"ëĭ¤":7301,"itable":7302,"Ġgap":7303,"lyn":7304,"Ġsup":7305,"ĠEner":7306,"Ġrecru":7307,"Ġpolar":7308,"Ġgovernor":7309,"Ġfeeding":7310,"Ġsecretary":7311,"Ġscientific":7312,"Ġpotatoes":7313,"ĠHawai":7314,"Ġathlet":7315,"hett":7316,"Ġmor":7317,"Ġgym":7318,"Ġsector":7319,"itect":7320,"ulk":7321,"ĠHind":7322,"Ġexclus":7323,"Ġremove":7324,"Ġourselves":7325,"Ġsandy":7326,"Ġmatters":7327,"Ġinternal":7328,"Ġprivacy":7329,"Ġproperly":7330,"Ġsurrounding":7331,"Ġexperienced":7332,"Ġfired":7333,"Ġhint":7334,"Ġseed":7335,"lder":7336,"Ġwhee":7337,"ĠMich":7338,"ĠBas":7339,"ĠFre":7340,"azon":7341,"Ġawful":7342,"ITE":7343,"ributed":7344,"Ġterrorism":7345,"ĠNetwork":7346,"Ġschedul":7347,"ĠFurther":7348,"mod":7349,"vin":7350,"asure":7351,"Ġjour":7352,"abe":7353,"Ġchug":7354,"Ġdownload":7355,"Ġpray":7356,"cling":7357,"Ġhardwood":7358,"Ġdesert":7359,"Ġ75":7360,"Ġlovely":7361,"Ġconfidence":7362,"Ġextent":7363,"ĠColor":7364,"Ġinterpret":7365,"75":7366,"DP":7367,"foot":7368,"Ġtourn":7369,"Ġpiano":7370,"Ġgather":7371,"Ġfraser":7372,"Ġsund":7373,"ĠGal":7374,"Ġcontrast":7375,"Ġdismiss":7376,"Ġobsc":7377,"Ġfriendly":7378,"Ġfactor":7379,"engers":7380,"Ġvanilla":7381,"Ġhttps":7382,"Ġsplit":7383,"ĠParis":7384,"Ġlobby":7385,"Ġsubstant":7386,"ĠMahiro":7387,"Ġcircumst":7388,"Ġpoop":7389,"Ġdee":7390,"Ġentered":7391,"Ġcompleted":7392,"Ġinvestors":7393,"Ġsuspend":7394,"Ġcontroller":7395,"ĠFollow":7396,"mates":7397,"attered":7398,"abet":7399,"ĠCIA":7400,"Ġsuck":7401,"Ġvit":7402,"ĠHy":7403,"ĠJoe":7404,"Ġnewer":7405,"Ġlaund":7406,"Ġclosely":7407,"scar":7408,"Ġvideos":7409,"Ġtypically":7410,"Ġpatterns":7411,"Ġmethods":7412,"tion":7413,"Ġboot":7414,"Ġcous":7415,"Ġfurt":7416,"enture":7417,"abilities":7418,"Ġnearest":7419,"ulous":7420,"ĠPak":7421,"Ġ33":7422,"Ġtech":7423,"Ġgotten":7424,"iped":7425,"ĠYemen":7426,"oked":7427,"Ġadvance":7428,"ĠProt":7429,"Ġnecessarily":7430,"Ġterrif":7431,"Ġdingo":7432,"Ġdoctors":7433,"iw":7434,"lly":7435,"Ġjersey":7436,"ĠSal":7437,"ounded":7438,"essions":7439,"ĠFBI":7440,"Ġbits":7441,"Ġrelax":7442,"Ġcombined":7443,"Ġdeclared":7444,"rich":7445,"Ġpant":7446,"Ġgeorge":7447,"abil":7448,"ĠCru":7449,"ĠWild":7450,"Ġgreenish":7451,"ĠJo":7452,"Ġcontest":7453,"Ġhardly":7454,"ggy":7455,"ĠGrand":7456,"roller":7457,"****":7458,"Ġperspective":7459,"rels":7460,"Ġwins":7461,"Ġoct":7462,"inent":7463,"Ġshots":7464,"ĠHel":7465,"ĠDar":7466,"Ġbuzz":7467,"Ġsnowing":7468,"Ġdevelopers":7469,"Ġracing":7470,"Ġinvolve":7471,"Ġfifty":7472,"Ġpuppet":7473,"Ġmanufacture":7474,"Ġtemperature":7475,"py":7476,"pic":7477,"pired":7478,"Ġcandle":7479,"Ġsuits":7480,"ĠMos":7481,"Ġmegan":7482,"Ġbrings":7483,"ĠGames":7484,"anged":7485,"Ġelement":7486,"ologies":7487,"iki":7488,"Ġdrawer":7489,"Ġexpans":7490,"Ġfixing":7491,"ĠTechn":7492,"Ġexpressed":7493,"athered":7494,"Ġcind":7495,"esome":7496,"Ġancient":7497,"ĠAut":7498,"oodle":7499,"orted":7500,"ĠNov":7501,"Ġheavily":7502,"west":7503,"Ġauth":7504,"inating":7505,"Ġlick":7506,"astern":7507,"icial":7508,"iments":7509,"ĠSomet":7510,"ĠMs":7511,"ĠHuman":7512,"upid":7513,"Ġmini":7514,"Ġopposed":7515,"Ġfiled":7516,"Ġincreases":7517,"Ġmaintain":7518,"Ġessential":7519,"Ġapron":7520,"TS":7521,"run":7522,"Ġcush":7523,"Ġpure":7524,"esh":7525,"ĠPL":7526,"estival":7527,"ĠOpen":7528,"Ġregime":7529,"Ġgreatest":7530,"Ġfollows":7531,"Ġ1990":7532,"Ġhopes":7533,"Ġresponded":7534,"Ġschol":7535,"bie":7536,"rate":7537,"Ġouch":7538,"Ġnorthern":7539,"oria":7540,"oty":7541,"cha":7542,"ĠPower":7543,"Ġgross":7544,"ĠJournal":7545,"Ġglue":7546,"ĠYe":7547,"Ġemphas":7548,"Ġoptim":7549,"Ġrobot":7550,"Ġestimated":7551,"Ġpalm":7552,"PS":7553,"rig":7554,"Äģ":7555,"Ġsought":7556,"Ġwears":7557,"thur":7558,"Ġacting":7559,"Ġdistant":7560,"Ġexplan":7561,"Ġlanding":7562,"Ġerror":7563,"ĠColumb":7564,"Ġlawsuit":7565,"Ġribbon":7566,"ION":7567,"eal":7568,"vor":7569,"Ġparliament":7570,"Ġrent":7571,"Ġrenew":7572,"ulations":7573,"Ġprove":7574,"Ġpeach":7575,"ĠForm":7576,"Ġ55":7577,"ĠAsia":7578,"Ġ2004":7579,"Ġretire":7580,"Ġpassengers":7581,"Ġjean":7582,"Ġconstruct":7583,"Ġnapkins":7584,"Ġhalloween":7585,"________":7586,"rors":7587,"rance":7588,"Ġcried":7589,"Ġgaming":7590,"Ġbending":7591,"olved":7592,"Ġsomehow":7593,"Ġoffense":7594,"Ġmyster":7595,"Ġlighter":7596,"Ġcheer":7597,"Ġumbrell":7598,"Ġparade":7599,"Ġrachel":7600,"Ġsentence":7601,"Ġcontainers":7602,"Ġbrothers":7603,"Ġlicense":7604,"Ġlawyer":7605,"Ġvulner":7606,"Ġfurthest":7607,"PD":7608,"So":7609,"free":7610,"gment":7611,"person":7612,"Ġbond":7613,"Ġordered":7614,"ĠBudd":7615,"Ġvice":7616,"ĠHome":7617,"Ġexhib":7618,"ensions":7619,"odes":7620,"ĠAndrew":7621,"Ġclimbing":7622,"Ġstatue":7623,"Ġteenagers":7624,"Ġuniforms":7625,"Ġapplications":7626,"ĠConserv":7627,"Ġauntie":7628,"Ġwhistle":7629,"Ġinstitutions":7630,"lers":7631,"Ġongoing":7632,"Ġstom":7633,"uration":7634,"ĠBur":7635,"Ġchannel":7636,"Ġvir":7637,"Ġflu":7638,"Ġcontains":7639,"ĠVict":7640,"Ġscreens":7641,"Ġrolled":7642,"Ġargue":7643,"Ġinjured":7644,"ĠGetty":7645,"Ġreduced":7646,"respond":7647,"EM":7648,"],":7649,"fortunately":7650,"pass":7651,"Ġpats":7652,"Ġreaction":7653,"kered":7654,"Ġchim":7655,"ĠPrem":7656,"Ġsav":7657,"ĠThanks":7658,"class":7659,"ĠVietnam":7660,"Ġfunctions":7661,"Ġincor":7662,"Ġconsult":7663,"Ġartist":7664,"Ġ1980":7665,"Ġsignificantly":7666,"Ġopportunities":7667,"ĠLiber":7668,"Ġwarned":7669,"Ġsprinkles":7670,"law":7671,"Ġtou":7672,"Ġwrest":7673,"Ġmort":7674,"Ġfog":7675,"Ġhamb":7676,"Ġhills":7677,"Ġtodd":7678,"Ġrevenue":7679,"Ġrig":7680,"Ġrally":7681,"Ġstorage":7682,"Ġwithd":7683,"ĠIreland":7684,"Ġchart":7685,"Ġadvert":7686,"Ġdiss":7687,"Ġparam":7688,"Ġdiscussed":7689,"Ġterrorist":7690,"Ġconsumers":7691,"Ġvacation":7692,"ĠSHIRT":7693,"iency":7694,"vy":7695,"xy":7696,"Ġstress":7697,"Ġproceed":7698,"ĠEll":7699,"Ġplayoff":7700,"Ġ48":7701,"Ġpasta":7702,"ĠChristmas":7703,"Ġessentially":7704,"Ġanalyst":7705,"etroit":7706,"ippers":7707,"Ġbark":7708,"Ġmerry":7709,"Ġblind":7710,"Ġaside":7711,"ĠMot":7712,"Ġchinese":7713,"Ġalt":7714,"Ġ38":7715,"Ġscoo":7716,"Ġfemin":7717,"oken":7718,"ĠPolit":7719,"Ġreportedly":7720,"Ġexistence":7721,"Ġdemocracy":7722,"ĠFrancisco":7723,"ixture":7724,"face":7725,"mun":7726,"you":7727,"Ġbid":7728,"ĠTime":7729,"abis":7730,"Ġtrib":7731,"ĠDown":7732,"bec":7733,"Ġ300":7734,"Ġspag":7735,"Ġteal":7736,"ĠJesus":7737,"Ġprime":7738,"Ġsubsequ":7739,"Ġ2002":7740,"Ġwarning":7741,"ackson":7742,"Ġexamples":7743,"Ġsatell":7744,"Ġextended":7745,"Ġholiday":7746,"press":7747,"Ã³":7748,"roph":7749,"ĠMo":7750,"ĠBell":7751,"ideo":7752,"Ġdivision":7753,"Ġperman":7754,"boat":7755,"Ġwoods":7756,"Ġhousehold":7757,"Ġlegit":7758,"ennifer":7759,"Ġimportance":7760,"Ġparall":7761,"ĠPakistan":7762,"Ġumbrellas":7763,"My":7764,"gies":7765,"Ġwig":7766,"Ġbum":7767,"Ġlam":7768,"Ġnav":7769,"Ġgall":7770,"icop":7771,"uted":7772,"ĠIll":7773,"ĠSC":7774,"Ġrightmost":7775,"Ġdonald":7776,"Ġchip":7777,"Ġchampionship":7778,"Ġpeel":7779,"Ġunits":7780,"ulture":7781,"Ġeveryday":7782,"Ġballoons":7783,"Ġsweep":7784,"Ġedges":7785,"Ġexplo":7786,"Ġduckie":7787,"Ġpiggie":7788,"Ġoperating":7789,"Ġinitially":7790,"ĠFRONT":7791,"Ġneutral":7792,"/âĤ¬":7793,"FF":7794,"Ġbage":7795,"ali":7796,"Ġange":7797,"Ġshares":7798,"Ġfindings":7799,"Ġcaps":7800,"Ġdefault":7801,"ĠForce":7802,"ĠProject":7803,"ottom":7804,"Ġteachers":7805,"Ġperfectly":7806,"Ġ1970":7807,"Ġcopyright":7808,"Ġpedest":7809,"cohol":7810,"TL":7811,"och":7812,"uj":7813,"Ġtill":7814,"enth":7815,"Ġshout":7816,"opher":7817,"Ġbride":7818,"ĠPet":7819,"Ġagent":7820,"Ġtopic":7821,"Ġsche":7822,"Ġcrimes":7823,"Ġdram":7824,"duc":7825,"Ġthoughts":7826,"Ġticket":7827,"Ġexception":7828,"Ġadmitted":7829,"Ġsplash":7830,"ĠWilson":7831,"Ġchemical":7832,"Ġspaghett":7833,"/$":7834,"To":7835,"Ġbio":7836,"Ġmarch":7837,"Ġroot":7838,"irk":7839,"ĠAv":7840,"Ġpeas":7841,"ivered":7842,"Ġpersonally":7843,"ĠItaly":7844,"Ġtreated":7845,"Ġemb":7846,"Ġowned":7847,"Ġcauses":7848,"Ġpengu":7849,"Ġreporters":7850,"AND":7851,"Ġdescribe":7852,"Ġcultural":7853,"Ġmerely":7854,"ĠDirector":7855,"gorith":7856,"Ġstomach":7857,"uum":7858,"Ġsouthern":7859,"Ġcage":7860,"Ġrising":7861,"Ġko":7862,"Ġven":7863,"Ġalph":7864,"ĠJackson":7865,"Ġobl":7866,"Ġcollabor":7867,"ĠPlus":7868,"ĠAmazon":7869,",'":7870,"ii":7871,"lace":7872,"rical":7873,"whel":7874,"level":7875,"Ġsheets":7876,"eless":7877,"Ġbother":7878,"ĠUkr":7879,"onsin":7880,"Ġviolent":7881,"isconsin":7882,"Ġspells":7883,"Ġunsure":7884,"ĠCharles":7885,"Ġunlikely":7886,"Ġfundamental":7887,"rr":7888,"âĪ":7889,"Ġboss":7890,"Ġrh":7891,"Ġstaring":7892,"state":7893,"ĠEconom":7894,"ordan":7895,"Ġhoriz":7896,"Ġobst":7897,"Ġbarrel":7898,"Ġvalid":7899,"Ġemployment":7900,"ĠMedicine":7901,"Ġswinging":7902,"Ġtrunks":7903,"Ġcategory":7904,"ĠAfghanistan":7905,"Ġjourney":7906,"Tr":7907,"pes":7908,"sm":7909,"Ġsession":7910,"Ġhazy":7911,"Ġshorter":7912,"Ġfruits":7913,"ĠMem":7914,"Ġcargo":7915,"Ġunion":7916,"ĠYear":7917,"Ġconfirm":7918,"Ġadvice":7919,"Ġadvanced":7920,"Ġboop":7921,"Ġbatteries":7922,"Ġdelay":7923,"Ġwires":7924,"Ġlinked":7925,"OTT":7926,"Ġfeatured":7927,"Ġimpressive":7928,"Ġprotesters":7929,"zona":7930,"Ġmas":7931,"Ġgang":7932,"Ġyouth":7933,"Ġryan":7934,"Ġbuff":7935,"Ġages":7936,"Ġspec":7937,"Ġcentre":7938,"Ġhotdog":7939,"Ġcausing":7940,"Ġtransp":7941,"Ġcampus":7942,"Ġraces":7943,"Ġactivists":7944,"Ġburg":7945,"evin":7946,"Ġrevolution":7947,"Ġthousand":7948,"Ġincredible":7949,"Ġbent":7950,"Ġbound":7951,"Ġcub":7952,"ĠCole":7953,"ĠMorm":7954,"ĠNick":7955,"ĠStone":7956,"Ġhelicop":7957,"Ġamanda":7958,"Ġemails":7959,"Ġdecre":7960,"awa":7961,"Ġexplore":7962,"Ġalongside":7963,"Ġinjuries":7964,"Ġupdates":7965,"Ġcommunication":7966,"ĠMuslims":7967,"Ġuncertain":7968,"ERSON":7969,"ãĢģ":7970,"Ġkhaki":7971,"ĠBusiness":7972,"Ġpatsy":7973,"zens":7974,"Ġtons":7975,"Ġain":7976,"Ġluck":7977,"Ġfool":7978,"ĠMP":7979,"Ġ39":7980,"ĠEle":7981,"Ġtwin":7982,"ucks":7983,"ĠStill":7984,"ĠVan":7985,"Ġholder":7986,"Ġcapable":7987,"Ġtermin":7988,"Ġfactory":7989,"Ġclassic":7990,"Ġcompetitive":7991,"Ġdeaths":7992,"Ġpretending":7993,"greg":7994,"Ġsqueeze":7995,"itarian":7996,"Ġappropriate":7997,"LS":7998,"water":7999,"Ġsac":8000,"rend":8001,"Ġwitch":8002,"unte":8003,"Ġpeep":8004,"ĠDetroit":8005,"Ġspray":8006,"Ġyellowish":8007,"Ġindian":8008,"athan":8009,"formation":8010,"ĠUnfortunately":8011,"ĠLee":8012,"iami":8013,"Ġprompt":8014,"Ġdenied":8015,"Ġflags":8016,"Ġfifth":8017,"Ġenemy":8018,"TV":8019,"bits":8020,"Ġsevere":8021,"Ġblowing":8022,"Ġfort":8023,"ĠNation":8024,"anging":8025,"Ġglazed":8026,"Ġdeli":8027,"Ġrelevant":8028,"Ġbatht":8029,"Ġaccepted":8030,"ĠSyrian":8031,"ĠDistrict":8032,",,":8033,",âĢĻ":8034,"AB":8035,"zel":8036,"Ġtone":8037,"Ġwars":8038,"Ġhal":8039,"ador":8040,"Ġstupid":8041,"Ġsunset":8042,"Ġresting":8043,"Ġfacility":8044,"Ġconfident":8045,"Ġexplains":8046,"Ġboards":8047,"ĠScot":8048,"Ġhoping":8049,"Ġescape":8050,"Ġroute":8051,"Ġhippo":8052,"Ġrescue":8053,"bug":8054,"Ġdug":8055,"Ġlou":8056,"esy":8057,"Ġnaked":8058,"edged":8059,"Ġnood":8060,"keep":8061,"Ġmeal":8062,"ĠNBA":8063,"cipl":8064,"Ġhadn":8065,"Ġworker":8066,"Ġdiscl":8067,"Ġcharlie":8068,"Ġpercentage":8069,"Ġclasses":8070,"ĠPlan":8071,"Ġrepresents":8072,"ĠPerhaps":8073,"iques":8074,"care":8075,"cery":8076,"gia":8077,"Ġsir":8078,"Ġwis":8079,"chair":8080,"Ġabortion":8081,"ĠPeter":8082,"Ġdegre":8083,"Ġcrab":8084,"Ġlaid":8085,"ĠChampionship":8086,"ologist":8087,"Ġpots":8088,"ĠBrook":8089,"ĠSpanish":8090,"oopy":8091,"Ġlocked":8092,"Ġgranite":8093,"Ġapplied":8094,"Ġcontroversial":8095,"Ġphilosoph":8096,"Ġdegrees":8097,"ckered":8098,"hun":8099,"name":8100,"page":8101,"Ġblk":8102,"illance":8103,"Ġvary":8104,"bered":8105,"sole":8106,"Ġcrust":8107,"ensus":8108,"Ġpolka":8109,"Ġtrend":8110,"axy":8111,"ĠAnn":8112,"Ġwinner":8113,"Ġformal":8114,"Ġoccasion":8115,"Ġspotted":8116,"Ġreplace":8117,"ĠLabour":8118,"Ġexpansion":8119,"65":8120,"Ñĥ":8121,"Ġforty":8122,"ĠAT":8123,"ĠDec":8124,"Ġresolution":8125,"Ġ64":8126,"iously":8127,"Ġnicely":8128,"Ġadds":8129,"aza":8130,"Ġsorts":8131,"ĠReport":8132,"Ġcastle":8133,"panic":8134,"Ġannouncement":8135,"rus":8136,"uated":8137,"Ã¶":8138,"Ġod":8139,"Ġphen":8140,"Ġlatter":8141,"Ġisol":8142,"Ġarmed":8143,"iper":8144,"Ġglove":8145,"Ġheaded":8146,"Ġtransition":8147,"Ġeaster":8148,"ĠAllen":8149,"Ġdelivered":8150,"Ġmaterials":8151,"twitter":8152,"Ġcomparison":8153,"Ġwrapped":8154,"called":8155,"po":8156,"Ġbomb":8157,"Ġles":8158,"Ġlined":8159,"Ġrein":8160,"ĠTit":8161,"ĠSpr":8162,"Ġchose":8163,"Ġupgr":8164,"ĠPERSON":8165,"ĠHun":8166,"Ġmoments":8167,"Ġmidday":8168,"Ġfoods":8169,"Ġrealized":8170,"lands":8171,"Ġlisted":8172,"Ġopponents":8173,"ĠManning":8174,"Ġradical":8175,"Ġconvin":8176,"Ġsubjects":8177,"Ġspaghetti":8178,"mel":8179,"rid":8180,"Ġcrib":8181,"Ġpave":8182,"Ġmand":8183,"Ġgoose":8184,"Ġbeads":8185,"section":8186,"Ġdipl":8187,"Ġthrown":8188,"Ġwrist":8189,"Ġcheckered":8190,"Ġdefeat":8191,"Ġattempted":8192,"Ġconsumer":8193,"Ġsunday":8194,"Ġnoodles":8195,"PR":8196,"was":8197,"inity":8198,"Ġgroom":8199,"roat":8200,"ĠGL":8201,"Ġcrunch":8202,"ĠKevin":8203,"Ġeats":8204,"ĠRev":8205,"Ġeffectively":8206,"Ġtraditions":8207,"Ġcritics":8208,"Ġscrub":8209,"Ġcaptain":8210,"Ġallegedly":8211,"ĠEnergy":8212,"46":8213,"ae":8214,"mat":8215,"ody":8216,"Ġwestern":8217,"erves":8218,"isms":8219,"elle":8220,"Ġshit":8221,"ĠPenn":8222,"ĠRam":8223,"ĠDiv":8224,"ĠDavis":8225,"Ġcoats":8226,"Ġroy":8227,"athy":8228,"Ġjudy":8229,"Ġexplos":8230,"Ġenglish":8231,"Ġtested":8232,"Ġpromised":8233,"Ġerin":8234,"Ġwondering":8235,"Ġdeclined":8236,"Ġtort":8237,"Ġliberal":8238,"Ġambul":8239,"Ġpuddle":8240,"Ġunusual":8241,"PU":8242,"uable":8243,"ĠMax":8244,"Ġblueberries":8245,"Ġbrownwood":8246,"Ġcoaches":8247,"ĠThree":8248,"Ġreaders":8249,"Ġcheek":8250,"Ġsignal":8251,"Ġbrew":8252,"Ġdistribution":8253,"ruption":8254,"Ġconfront":8255,"Ġclosing":8256,"Ġcorrespond":8257,"Ġcostume":8258,"Ġcrackers":8259,"Ġlinks":8260,"Ġolivia":8261,"Ġpolls":8262,"Ð¾Ð":8263,"Ġpowder":8264,"Ġrooster":8265,"ĠMichigan":8266,"ĠBuddh":8267,"ho":8268,"uy":8269,"Ġcig":8270,"Ġcel":8271,"Ġblame":8272,"Ġsoil":8273,"apy":8274,"Ġbackyard":8275,"Ġtheme":8276,"angers":8277,"ials":8278,"Ġfallen":8279,"Ġpatches":8280,"Ġjoint":8281,"Ġtaxi":8282,"Ġstronger":8283,"Ġcalcul":8284,"ĠISIS":8285,"ĠWHITE":8286,"Ġfuzzy":8287,"FA":8288,"ja":8289,"Ġought":8290,"Ġbatt":8291,"oured":8292,"Ġpit":8293,"ashes":8294,"âĢĲ":8295,"Ġsty":8296,"ĠSEC":8297,"owned":8298,"umes":8299,"Ġalcohol":8300,"Ġalgorith":8301,"Ġscored":8302,"Ġdistinct":8303,"ĠWeek":8304,"Ġpublicly":8305,"Ġlois":8306,"ĠAdv":8307,"ĠEngine":8308,"Ġtargets":8309,"Ġdisappe":8310,"hetic":8311,"Ġschedule":8312,"Ġchoices":8313,"ĠJewish":8314,"jo":8315,"mother":8316,"ÂĴ":8317,"Ġmoral":8318,"inky":8319,"Ġcomic":8320,"Ġflavor":8321,"Ġscare":8322,"Ġgloom":8323,"Ġopens":8324,"Ġnighttime":8325,"ĠFront":8326,"Ġsuffering":8327,"Ġarrange":8328,"Ġfrozen":8329,"ĠLinux":8330,"Ġconsequences":8331,"Ġutensils":8332,"Ġphenomen":8333,"yes":8334,"Ġdyn":8335,"Ġwhale":8336,"left":8337,"Ġjill":8338,"ĠBE":8339,"Ġfluffy":8340,"Ġmode":8341,"Ġelev":8342,"Ġemissions":8343,"Ġmonkeys":8344,"Ġboost":8345,"Ġgrocery":8346,"Ġcriticism":8347,"Ġexperiences":8348,"ĠRoad":8349,"ollywood":8350,"43":8351,"UR":8352,"long":8353,"Ġtires":8354,"Ġaqu":8355,"reen":8356,"Ġbones":8357,"Ġfasc":8358,"Ġlies":8359,"Ġatm":8360,"Ġsuc":8361,"ĠMount":8362,"ĠWatch":8363,"ĠRon":8364,"Ġoverwhel":8365,"ĠKelly":8366,"Ġdisag":8367,"Ġappeal":8368,"Ġfilms":8369,"Ġtrading":8370,"ĠBarack":8371,"Ġlobster":8372,"sembly":8373,"Ġcircumstances":8374,"mal":8375,"rey":8376,"Ġbert":8377,"Ġnative":8378,"Ġrides":8379,"cho":8380,"ĠPR":8381,"Ġkne":8382,"ĠHard":8383,"ĠRod":8384,"Ġflour":8385,"Ġmarks":8386,"ĠBrother":8387,"ĠSpain":8388,"ĠTurkey":8389,"ìĿ´":8390,"ĠColorado":8391,"Le":8392,"SE":8393,"ko":8394,"ĠiPh":8395,"esse":8396,"icate":8397,"Ġrider":8398,"otic":8399,"ĠTri":8400,"abase":8401,"gend":8402,"ĠFinally":8403,"Ġdesper":8404,"Ġevil":8405,"Ġcombat":8406,"market":8407,"Ġestimates":8408,"Ġterritory":8409,"SC":8410,"zo":8411,"Ġtroll":8412,"icide":8413,"alo":8414,"ĠTake":8415,"aby":8416,"olve":8417,"Ġchat":8418,"ĠFort":8419,"ĠLife":8420,"ĠJoseph":8421,"Ġreads":8422,"Ġvisual":8423,"Ġcamer":8424,"Ġstruck":8425,"Ġmemor":8426,"Ġsteep":8427,"Ġawesome":8428,"Ġstrongly":8429,"Ġpacked":8430,"Ġaudio":8431,"ĠNext":8432,"Ġprinted":8433,"Ġprincess":8434,"Ġimmediate":8435,"ĠContin":8436,"ĠCNN":8437,"Ġauthors":8438,"dit":8439,"Ġlane":8440,"Ġinch":8441,"add":8442,"Ġhabit":8443,"Ġkay":8444,"andal":8445,"Ġskies":8446,"Ġfinds":8447,"erella":8448,"Ġload":8449,"mingly":8450,"Ġthreats":8451,"Ġbricks":8452,"Ġcompete":8453,"Ġkicking":8454,"Ġacademic":8455,"Ġregistered":8456,"Ġcherry":8457,"Ġcolleagues":8458,"aire":8459,"rum":8460,"word":8461,"rehens":8462,"ether":8463,"Ġgolf":8464,"ĠMID":8465,"Ġclut":8466,"ĠFour":8467,"ĠLew":8468,"aret":8469,"ĠUnit":8470,"Ġcurious":8471,"Ġchickens":8472,"Ġmessages":8473,"Ġgenetic":8474,"Ġquarterback":8475,"Ġenclosure":8476,"ĠLatin":8477,"Ġscheduled":8478,"atos":8479,"Ġyuck":8480,"Ġlone":8481,"ĠIT":8482,"ilty":8483,"ĠCow":8484,"ĠWay":8485,"Ġacts":8486,"ĠView":8487,"Ġcreative":8488,"Ġpreschool":8489,"undy":8490,"Ġsquirt":8491,"Ġprotests":8492,"Ġunderstood":8493,"Ġorganized":8494,"Ġagenda":8495,"Ġ1998":8496,"Ġillust":8497,"Ġvacuum":8498,"Ġpuppies":8499,"Ġcoalition":8500,"ĠIrish":8501,"ĠArizona":8502,"Ġpavement":8503,"Re":8504,"mic":8505,"iner":8506,"Ġonion":8507,"Ġren":8508,"ĠSky":8509,"Ġwashed":8510,"ĠGeor":8511,"ĠList":8512,"ĠLove":8513,"Ġgoods":8514,"Ġspilled":8515,"pth":8516,"Ġunw":8517,"ĠKn":8518,"Ġsliding":8519,"Ġretail":8520,"Ġversions":8521,"Ġobserved":8522,"Ġimmigrants":8523,"Our":8524,"backs":8525,"Ġtiled":8526,"Ġbay":8527,"Ġmart":8528,"owa":8529,"Ġsequ":8530,"Ġweeds":8531,"allas":8532,"ĠTOP":8533,"ĠCD":8534,"ĠMiami":8535,"ĠPan":8536,"ĠWOM":8537,"ĠWisconsin":8538,"ĠRED":8539,"ĠLook":8540,"Ġariel":8541,"Ġspank":8542,"ĠVal":8543,"Ġdesire":8544,"Ġembr":8545,"Ġending":8546,"Ġfoundation":8547,"Ġsubway":8548,"Ġsimpl":8549,"Ġreporting":8550,"Ġofficially":8551,"Ġartific":8552,"Ġcontrols":8553,"Ġnewslet":8554,"Ġmeetings":8555,"Ġnecklace":8556,"aska":8557,"Ġprimarily":8558,"Ġobserv":8559,"Ġconsistent":8560,"ĠOhio":8561,"ĠForeign":8562,"ĠRoger":8563,"Get":8564,"UE":8565,"hire":8566,"va":8567,"uter":8568,"Ġrim":8569,"ira":8570,"Ġsuv":8571,"ĠMajor":8572,"ĠBull":8573,"ĠNa":8574,"Ġguest":8575,"Ġmyth":8576,"Ġstruggle":8577,"pson":8578,"Ġdefence":8579,"Ġrocket":8580,"Ġfireplace":8581,"Ġapproved":8582,"Ġmarketing":8583,"Ġvolume":8584,"Ġskinny":8585,"Ġhistorical":8586,"Ġdetailed":8587,"ĠPremier":8588,"fight":8589,"Ġcents":8590,"Ġpir":8591,"ĠCivil":8592,"ĠWhere":8593,"ĠDark":8594,"ĠEr":8595,"ĠESP":8596,"Ġdiff":8597,"ĠJay":8598,"Ġagents":8599,"ĠChair":8600,"Ġsigning":8601,"Ġcreep":8602,"Ġdefined":8603,"Ġapproval":8604,"ĠOrange":8605,"Ġsoldier":8606,"Ġsustain":8607,"GE":8608,"Ġcater":8609,"Ġdozens":8610,"Ġkit":8611,"chain":8612,"abeth":8613,"Ġsole":8614,"Ġworm":8615,"Ġpersons":8616,"Ġphase":8617,"Ġbottoms":8618,"Ġchairman":8619,"Ġmarked":8620,"ĠArm":8621,"Ġsteam":8622,"Ġsteak":8623,"ĠMarc":8624,"ĠDesign":8625,"Ġrequirements":8626,"Ġarchitect":8627,"Ġcommitment":8628,"Ġrefugees":8629,"Ġsubsid":8630,"list":8631,"alia":8632,"ceived":8633,"ĠMat":8634,"Ġclar":8635,"ĠWalk":8636,"Ġprohib":8637,"Ġpear":8638,"Ġcoke":8639,"Ġspaces":8640,"ĠJordan":8641,"Ġremem":8642,"under":8643,"Ġsquares":8644,"Ġpops":8645,"Ġfacts":8646,"Ġpromote":8647,"Ġchecked":8648,"Ġdefinition":8649,"Ġproperties":8650,"Ġupdated":8651,"Ġdepends":8652,"Ġhonestly":8653,"Ġtackle":8654,"Ġpancakes":8655,"Ġfolks":8656,"Ġbathtub":8657,"ĠESPN":8658,"Pro":8659,"nies":8660,"ped":8661,"Ġcave":8662,"Ġhits":8663,"oster":8664,"Ġpoly":8665,"Ġzip":8666,"ãģŁ":8667,"Ġraising":8668,"Ġmotorcycles":8669,"Ġimproved":8670,"Ġmatching":8671,"Ġtitles":8672,"Ġelectricity":8673,"Ġhorned":8674,"ĠConstitution":8675,"Ġrepeatedly":8676,"Ġshovel":8677,"ĠSquare":8678,"Ġdelivery":8679,"31":8680,"power":8681,"swe":8682,"Ġ\\":8683,"Ġgoo":8684,"igers":8685,"Ġrhy":8686,"urger":8687,"ĠFull":8688,"Ġmayor":8689,"ĠNE":8690,"agan":8691,"izabeth":8692,"Ġunem":8693,"Ġhanded":8694,"Ġ---":8695,"Ġsnoopy":8696,"Ġforever":8697,"aturally":8698,"Ġauto":8699,"Ġmachines":8700,"ĠCheck":8701,"Ġfrequently":8702,"Ġapolog":8703,"hemat":8704,"ĠBLACK":8705,"eath":8706,"net":8707,"Ġtang":8708,"Ġaver":8709,"Ġdub":8710,"Ġsto":8711,"ĠTurn":8712,"Ġjunk":8713,"ĠCall":8714,"Ġplot":8715,"ĠDCS":8716,"Ġhandles":8717,"ĠKat":8718,"Ġcoloring":8719,"Ġserver":8720,"Ġdiscount":8721,"Ġengines":8722,"Ġrupee":8723,"Ġutil":8724,"Ġzoomed":8725,"ĠDefense":8726,"Ġdedicated":8727,"Ġsquirrel":8728,"ĠGIRL":8729,"Ġcinderella":8730,"Ġscheme":8731,",[":8732,"DA":8733,"Ġais":8734,"omin":8735,"Ġselection":8736,"ĠSon":8737,"ĠSports":8738,"ĠOld":8739,"Ġintention":8740,"ĠStand":8741,"obile":8742,"Ġbitcoin":8743,"Ġsandbox":8744,"ifications":8745,"Ġpenal":8746,"Ġsweetheart":8747,"Ġlandsc":8748,"Ġclaiming":8749,"Ġperformed":8750,"iffy":8751,"Ġreplaced":8752,"Ġpreparing":8753,"Ġpurposes":8754,"ĠStephen":8755,"Ġentertainment":8756,"Ġwriters":8757,"Ġchampion":8758,"Ġhelicopter":8759,"ĠiPhone":8760,"New":8761,"Pad":8762,"VE":8763,"hus":8764,"rup":8765,"Ġq":8766,"encing":8767,"Ġsending":8768,"ilit":8769,"Ġchosen":8770,"apse":8771,"ĠWater":8772,"ĠHas":8773,"ĠDid":8774,"ĠGen":8775,"ĠLanders":8776,"ĠEduc":8777,"ĠJersey":8778,"Ġquit":8779,"ĠKong":8780,"Ġelbow":8781,"Ġlawn":8782,"Ġcreation":8783,"Ġconscious":8784,"Ġdrove":8785,"Ġdescription":8786,"ATE":8787,"ORE":8788,"Ġvirtual":8789,"uilding":8790,"Ġtournament":8791,"Ġatmosp":8792,"ĠWOMAN":8793,"42":8794,"85":8795,"fall":8796,"Ġvert":8797,"Ġsaturday":8798,"Ġwo":8799,"Ġtheo":8800,"oric":8801,"Ġlime":8802,"ĠAD":8803,"ĠWomen":8804,"essica":8805,"Ġsaved":8806,"ĠGM":8807,"Ġ47":8808,"ultural":8809,"ĠIts":8810,"boys":8811,"Ġsunlight":8812,"Ġslope":8813,"Ġsym":8814,"âĢĶâĢĶ":8815,"ĠClub":8816,"Ġstays":8817,"Ġreturning":8818,"Ġgrover":8819,"Ġsurrounded":8820,"Ġregulations":8821,"ĠTurk":8822,"ĠPutin":8823,"ĠColumbia":8824,"Ġgloomy":8825,"300":8826,"American":8827,"Man":8828,"Pe":8829,"rations":8830,"Ġsom":8831,"Ġpanda":8832,"esc":8833,"Ġgoof":8834,"utation":8835,"Ġlip":8836,"Ġgrain":8837,"Ġguilty":8838,"Ġfounder":8839,"Ġstepped":8840,"Ġthread":8841,"Ġruled":8842,"Ġcaptured":8843,"Ġcrossed":8844,"ĠAmong":8845,"ĠPalestinian":8846,"ĠCruz":8847,"Ġexplanation":8848,"Ġadvertising":8849,"fire":8850,"pher":8851,"then":8852,"ushes":8853,"ĠSP":8854,"ctic":8855,"inkle":8856,"inder":8857,"ĠFAR":8858,"ĠNOT":8859,"Ġworn":8860,"ishment":8861,"ccup":8862,"ĠItalian":8863,"Ġtrevor":8864,"ĠVis":8865,"Ġfewer":8866,"Ġregularly":8867,"prise":8868,"Ġinspired":8869,"Ġoccas":8870,"Ġarguments":8871,"Ġdeeply":8872,"Ġrisks":8873,"ĠEmail":8874,"Ġassistance":8875,"Ġincredibly":8876,"Ġaspects":8877,"Ġsurveillance":8878,"Ġambulance":8879,"Ġtopp":8880,"Ġgam":8881,"aron":8882,"Ġric":8883,"Ġcongress":8884,"essor":8885,"resent":8886,"ĠFam":8887,"ĠEric":8888,"Ġdivers":8889,"ĠJul":8890,"Ġproof":8891,"ifest":8892,"ĠInvest":8893,"Ġnewly":8894,"Ġhandful":8895,"ĠChapter":8896,"Ġdried":8897,"Ġpassion":8898,"ika":8899,"Ġdirections":8900,"Ġcondem":8901,"Ġanswers":8902,"Ġolive":8903,"Ġvegetable":8904,"Ġorders":8905,"ĠBoard":8906,"âĸĪâĸĪ":8907,"Ġinstrument":8908,"Ġlaundry":8909,"03":8910,"OC":8911,"iy":8912,"uz":8913,"Ġwoke":8914,"Ġcakes":8915,"ician":8916,"Ġstones":8917,"ĠAp":8918,"Ġupcoming":8919,"Ġdeploy":8920,"Ġdepth":8921,"Ġproved":8922,"Ġexcess":8923,"Ġspoons":8924,"Ġtex":8925,"Ġads":8926,"Ġscoring":8927,"Ġrecon":8928,"obs":8929,"ĠReuters":8930,"ĠClick":8931,"Ġroads":8932,"Ġawoh":8933,"viously":8934,"Ġlimits":8935,"ĠSeattle":8936,"Ġhonor":8937,"colored":8938,"Ġridic":8939,"Ġreferred":8940,"Ġdiplom":8941,"hall":8942,"³ł":8943,"atus":8944,"Ġcable":8945,"Ġdent":8946,"Ġmc":8947,"etts":8948,"Ġgreens":8949,"Ġroast":8950,"Ġenorm":8951,"Ġdrone":8952,"Ġinvited":8953,"Ġpossession":8954,"everal":8955,"Ġideology":8956,"Ġassert":8957,"Ġsupports":8958,"Ġposter":8959,"Ġcontinuing":8960,"Ġamounts":8961,"Ġcomplicated":8962,"ĠAttorney":8963,"Ġaccurate":8964,"Ġburgundy":8965,"Ġsucceed":8966,"DLE":8967,"cod":8968,"oub":8969,"Ġmos":8970,"igure":8971,"ami":8972,"sea":8973,"ĠAL":8974,"Ġtries":8975,"Ġallies":8976,"Ġshed":8977,"ĠHong":8978,"ĠFood":8979,"ĠLake":8980,"ĠKhan":8981,"Ġpolo":8982,"cluding":8983,"ologists":8984,"Ġstrikes":8985,"Ġladybug":8986,"Ġmarg":8987,"ĠShare":8988,"Ġdebut":8989,"ĠPolicy":8990,"ATO":8991,"osaurus":8992,"Ġmaximum":8993,"Ġindicate":8994,"Ġ1960":8995,"ĠKingdom":8996,"ĠKorean":8997,"ĠHistory":8998,"ĠScotland":8999,"hunh":9000,"41":9001,"VER":9002,"ĠÎ":9003,"Ġpunch":9004,"Ġfred":9005,"Ġrival":9006,"Ġformed":9007,"Ġjen":9008,"Ġjennifer":9009,"ĠIQ":9010,"Ġkent":9011,"Ġfriday":9012,"hesis":9013,"pected":9014,"Ġworldwide":9015,"ĠBrad":9016,"Ġmenu":9017,"Ġmustache":9018,"Ġsquad":9019,"igeant":9020,"Ġexposed":9021,"Ġextension":9022,"ĠIndeed":9023,"Ġnormally":9024,"nesota":9025,"EST":9026,"Ġclubs":9027,"ĠSteven":9028,"Ġintellect":9029,"Ġfifteen":9030,"Ġafric":9031,"Ġselected":9032,"Ġscenario":9033,"Ġtoddler":9034,"SL":9035,"bal":9036,"sk":9037,"zing":9038,"Ġnomine":9039,"Ġfraud":9040,"ĠCL":9041,"Ġneur":9042,"Ġoutcome":9043,"ĠPot":9044,"ĠGi":9045,"Ġ49":9046,"Ġuniverse":9047,"Ġpover":9048,"ĠVol":9049,"ĠVigeant":9050,"Ġelsewhere":9051,"ooray":9052,"Ġmainstream":9053,"Ġdealing":9054,"Ġcomputers":9055,"Ġattacked":9056,"Ġdescribes":9057,"Ġtroub":9058,"Ġassuming":9059,"Ġprecise":9060,"ĠRomney":9061,"Ġastron":9062,"Ġabandoned":9063,"Ġphotographer":9064,"gian":9065,"Ġsed":9066,"Ġsizes":9067,"Ġyield":9068,"Ġpens":9069,"Ġlamps":9070,"Ġfuck":9071,"Ġnoisy":9072,"igen":9073,"Ġrif":9074,"imp":9075,"ĠBOTT":9076,"ĠHollywood":9077,"aste":9078,"ĠFred":9079,"ĠThus":9080,"Ġcompens":9081,"ĠVideo":9082,"Ġdriven":9083,"ĠBridge":9084,"Ġcurly":9085,"Ġcupcake":9086,"Ġstops":9087,"Ġopponent":9088,"Ġadvis":9089,"Ġclassroom":9090,"Ġfranklin":9091,"vania":9092,"Ġgravel":9093,"ĠPacific":9094,"Ġwal":9095,"Ġwolf":9096,"Ġfoss":9097,"Ġhooray":9098,"ĠABC":9099,"ĠCross":9100,"Ġsufficient":9101,"style":9102,"ĠBi":9103,"ĠHR":9104,"ĠRoyal":9105,"ĠDri":9106,"eline":9107,"Ġapps":9108,"Ġdisaster":9109,"Ġcomprom":9110,"Ġsituations":9111,"Ġasks":9112,"enerative":9113,"Ġkissing":9114,"Ġbathing":9115,"syl":9116,"Ġnetworks":9117,"Ġvolunte":9118,"Ġhistoric":9119,"Ġrusty":9120,"Ġroster":9121,"Ġkneeling":9122,"hab":9123,"wan":9124,"Ġcot":9125,"Ġcuc":9126,"Ġmiffy":9127,"oration":9128,"usse":9129,"ĠSin":9130,"Ġfranch":9131,"inking":9132,"stract":9133,"ĠWal":9134,"ĠRoman":9135,"ĠDallas":9136,"agle":9137,"Ġwhenever":9138,"Ġcrank":9139,"type":9140,"ĠKim":9141,"Ġindex":9142,"Ġinstalled":9143,"ĠYouT":9144,"Ġbreaks":9145,"Ġartists":9146,"Ġdiscover":9147,"Ġrolls":9148,"Ġconstit":9149,"Ġconstant":9150,"Ġengineer":9151,"Ġminds":9152,"Ġtastes":9153,"Ġfarmers":9154,"Ġruby":9155,"Ġconservatives":9156,"Ġregardless":9157,"ographic":9158,"Ġtantric":9159,"ĠCatholic":9160,"ĠMIDDLE":9161,"elect":9162,"rain":9163,"Ġ//":9164,"Ġwick":9165,"Ġpans":9166,"Ġpier":9167,"Ġfault":9168,"eda":9169,"Ġrattle":9170,"Ġsear":9171,"ilarly":9172,"ĠBrian":9173,"umer":9174,"Ġclue":9175,"Ġalien":9176,"Ġgram":9177,"ĠHen":9178,"asts":9179,"ĠFord":9180,"Ġscoop":9181,"Ġ41":9182,"Ġ43":9183,"ĠKar":9184,"ĠStory":9185,"Ġsweets":9186,"Ġreporter":9187,"Ġtechniques":9188,"ĠMinistry":9189,"Ġcartoon":9190,"Ġmaisy":9191,"bel":9192,"hou":9193,"ĠTony":9194,"Ġanx":9195,"ĠSeveral":9196,"iece":9197,"Ġbrace":9198,"Ġcone":9199,"ittany":9200,"Ġuncom":9201,"ĠKings":9202,"ĠKey":9203,"iana":9204,"Ġheading":9205,"ĠReview":9206,"Ġconfused":9207,"Ġextensive":9208,"Ġstaying":9209,"Ġinfect":9210,"Ġdirected":9211,"Ġprize":9212,"regon":9213,"ĠGuardian":9214,"()":9215,"How":9216,"lined":9217,"ìĹ":9218,"Ġpm":9219,"Ġnail":9220,"Ġing":9221,"usetts":9222,"Ġroses":9223,"ĠSuch":9224,"Ġchant":9225,"Ġchalk":9226,"Ġmanage":9227,"aka":9228,"ĠNHL":9229,"ĠLord":9230,"achusetts":9231,"ogether":9232,"Ġdiscipl":9233,"Ġdrunk":9234,"Ġump":9235,"Ġwarming":9236,"ternal":9237,"ĠAnna":9238,"Ġpatio":9239,"Ġresulting":9240,"Ġreceiving":9241,"ĠConference":9242,"Ġestimate":9243,"Ġprofession":9244,"Ġutility":9245,"Ġdepending":9246,"ĠMcCain":9247,"Ġponytail":9248,"Ġpoverty":9249,"86":9250,"DS":9251,"Ġtips":9252,"Ġgathered":9253,"Ġwelf":9254,"acking":9255,"ĠMain":9256,"essed":9257,"Ġarrow":9258,"ĠJason":9259,"Ġintense":9260,"Ġphr":9261,"ĠStart":9262,"rene":9263,"ĠAsian":9264,"Ġentrance":9265,"ucing":9266,"Ġlowest":9267,"Ġemerged":9268,"Ġenjoyed":9269,"Ġreveal":9270,"Ġchewing":9271,"Ġlosses":9272,"Ġnarrative":9273,"Ġhunhunh":9274,"Ġcontributions":9275,"Ð¸Ð":9276,"Ġdestroyed":9277,"ĠDevelopment":9278,"Ġwiggle":9279,"sylvania":9280,"Ġwelfare":9281,"lar":9282,"ystem":9283,"Ġoval":9284,"Ġhockey":9285,"isan":9286,"Ġefficient":9287,"Ġweener":9288,"ĠSk":9289,"ĠSab":9290,"ĠAN":9291,"Ġbrows":9292,"ĠRoll":9293,"Ġscattered":9294,"claim":9295,"Ġspeakers":9296,"Ġslipper":9297,"ĠValley":9298,"Ġemily":9299,"Ġcounting":9300,"Ġlanded":9301,"Ġracial":9302,"Ġversus":9303,"Ġprotected":9304,"Ġharass":9305,"Ġemployee":9306,"Ġphysics":9307,"ĠRights":9308,"ĠModi":9309,"Ġencourage":9310,"ĠFormula":9311,"Ġpermanent":9312,"Ġparallel":9313,"04":9314,"::":9315,"TA":9316,"afe":9317,"woman":9318,"à¸":9319,"Ġcos":9320,"ingly":9321,"Ġchoke":9322,"ĠPy":9323,"Ġconver":9324,"Ġconven":9325,"ĠHans":9326,"ĠNight":9327,"Ġswall":9328,"Ġdrives":9329,"Ġcourts":9330,"Ġpicks":9331,"Ġfields":9332,"Ġtaxpay":9333,"Ġpriority":9334,"----------------":9335,"Ġclifford":9336,"Ġfavour":9337,"KE":9338,"Un":9339,"game":9340,"sen":9341,"zard":9342,"reat":9343,"Ġwid":9344,"Ġwigg":9345,"eration":9346,"Ġmars":9347,"ĠSouthern":9348,"abled":9349,"Ġchlor":9350,"ĠPay":9351,"ounder":9352,"Ġmanner":9353,"ĠDam":9354,"ĠDie":9355,"ĠNY":9356,"Ġcontem":9357,"Ġstrict":9358,"Ġgreyish":9359,"Ġregional":9360,"Ġrelative":9361,"Ġbeneath":9362,"Ġinsight":9363,"Ġjumps":9364,"Ġfeedback":9365,"ĠMedic":9366,"Ġtargeted":9367,"Ġbehavi":9368,"Ġscenes":9369,"Ġcrawl":9370,"Ġdominant":9371,"ĠDNA":9372,"Al":9373,"An":9374,"She":9375,"oil":9376,"ëĬ":9377,"Ġber":9378,"Ġlens":9379,"Ġrip":9380,"Ġanonym":9381,"Ġorient":9382,"Ġchase":9383,"ĠNations":9384,"ĠNBC":9385,"ĠJr":9386,"ilda":9387,"Ġprote":9388,"ordon":9389,"Ġspeaker":9390,"Ġcamel":9391,"Ġrooms":9392,"ggie":9393,"Ġevolution":9394,"Ġfacilities":9395,"Ġresulted":9396,"Ġconstitutional":9397,"Ġreasonable":9398,"Ġbeauty":9399,"Ġfolded":9400,"ĠCompany":9401,"Ġearned":9402,"Ġsanctions":9403,"Ġrapidly":9404,"ĠHindu":9405,"Ġcousin":9406,"Ġwithdraw":9407,"ĠEducation":9408,"MS":9409,"TC":9410,"mons":9411,"Ġmitt":9412,"Ġnerv":9413,"ĠSony":9414,"ĠMen":9415,"Ġyea":9416,"Ġchop":9417,"aping":9418,"ĠHol":9419,"ĠLo":9420,"Ġfeat":9421,"ĠUse":9422,"Ġserves":9423,"Ġintersection":9424,"Ġideal":9425,"Ġretrie":9426,"ikes":9427,"Ġcountertop":9428,"Ġformation":9429,"ĠOrgan":9430,"Ġencoun":9431,"Ġcelebrate":9432,"Ġcommunications":9433,"Ġpartnership":9434,"burgh":9435,"Ġmuffin":9436,"Ġcannabis":9437,"ĠLewis":9438,"Oh":9439,"ji":9440,"xit":9441,"Ġsin":9442,"Ġdar":9443,"Ġpound":9444,"Ġpork":9445,"Ġmild":9446,"Ġfought":9447,"Ġeffic":9448,"Ġstim":9449,"ĠCast":9450,"Ġbrushing":9451,"Ġpeak":9452,"ĠKen":9453,"Ġcompare":9454,"def":9455,"Ġdeficit":9456,"Ġenthus":9457,"const":9458,"Ġconcert":9459,"ĠAdminist":9460,"Ġpatty":9461,"ĠBlock":9462,"Ġprominent":9463,"lights":9464,"Ġblankets":9465,"Ġcatching":9466,"ĠAustin":9467,"ĠKeep":9468,"Ġhamburger":9469,"Ġartificial":9470,"ĠYouTube":9471,"08":9472,"II":9473,"lings":9474,"xual":9475,"iches":9476,"Ġstamp":9477,"sect":9478,"ĠAng":9479,"umbs":9480,"ĠDaniel":9481,"ĠLu":9482,"Ġfloors":9483,"Ġpron":9484,"Ġcreates":9485,"Ġaccomp":9486,"Ġhighway":9487,"Ġengaged":9488,"Ġlocations":9489,"Ġpayments":9490,"ãģ«":9491,"Ġhearts":9492,"Ġcardboard":9493,"block":9494,"Ġdeputy":9495,"ĠAgency":9496,"Ġladies":9497,"Ġfrequency":9498,"Ġvirtually":9499,"Ġfantastic":9500,"GBT":9501,"Den":9502,"cers":9503,"iat":9504,"rass":9505,"ê³ł":9506,"Ġsi":9507,"Ġbills":9508,"Ġdies":9509,"Ġmike":9510,"Ġinqu":9511,"Ġhaired":9512,"ĠSum":9513,"ĠCost":9514,"Ġsue":9515,"udes":9516,"Ġimper":9517,"Ġcromer":9518,"Ġsometime":9519,"Ġ52":9520,"Ġregions":9521,"Ġwalks":9522,"Ġeastern":9523,"Ġpastry":9524,"cover":9525,"Ġ1999":9526,"oebe":9527,"Ġcollected":9528,"Ġdecline":9529,"Ġcyber":9530,"Ġsamples":9531,"Ġrecognition":9532,"Ġdecorations":9533,"Ġattended":9534,"Ġawareness":9535,"Ġflew":9536,"Ġenemies":9537,"Ġcameras":9538,"98":9539,"MA":9540,"Ġtut":9541,"Ġwil":9542,"Ġgeor":9543,"Ġheh":9544,"Ġrag":9545,"Ġstew":9546,"ima":9547,"celer":9548,"âĢĻ.":9549,"illar":9550,"Ġneon":9551,"Ġbrittany":9552,"Ġclient":9553,"Ġmanip":9554,"pel":9555,"icket":9556,"Ġoffices":9557,"ĠOnt":9558,"Ġhardware":9559,"Ġamend":9560,"Ġpresum":9561,"Ġrocky":9562,"ĠTele":9563,"Ġcapture":9564,"Ġmonsters":9565,"Ġcontributed":9566,"Ġkatie":9567,"07":9568,"vard":9569,"esame":9570,"Ġfir":9571,"Ġflex":9572,"Ġrend":9573,"ĠSU":9574,"ĠMak":9575,"ĠBro":9576,"unning":9577,"ĠWr":9578,"ĠWars":9579,"Ġexists":9580,"ĠNever":9581,"Ġfees":9582,"ĠKenn":9583,"ogen":9584,"Ġswish":9585,"Ġeyeb":9586,"ounced":9587,"ĠProgram":9588,"Ġtickets":9589,"Ġassociation":9590,"Ġburned":9591,"Ð°Ð":9592,"Ġassistant":9593,"Ġtransportation":9594,"Ġrejected":9595,"don":9596,"Ġaer":9597,"Ġloyal":9598,"Ġreward":9599,"Ġseal":9600,"ĠBO":9601,"Ġbrun":9602,"Ġtopics":9603,"Ġcontribute":9604,"Ġsideways":9605,"Ġheadband":9606,"portion":9607,"Ġassets":9608,"Ġengage":9609,"ĠMcK":9610,"Ġdeeper":9611,"Ġrepresented":9612,"ĠLabor":9613,"Ġbegun":9614,"Ġadopted":9615,"Ġemotional":9616,"Ġvulnerable":9617,"Ġsatellite":9618,"ĠMormon":9619,"uine":9620,"Ġsoul":9621,"Ġtheat":9622,"Ġinev":9623,"Ġelder":9624,"Ġblah":9625,"Ġjur":9626,"ĠAff":9627,"Ġfried":9628,"olis":9629,"ĠBR":9630,"Ġchrome":9631,"Ġalumin":9632,"Ġelite":9633,"olli":9634,"Ġsyn":9635,"Ġentering":9636,"Ġexplicit":9637,"Ġvaluable":9638,"ĠSenator":9639,"Ġethnic":9640,"Ġlawyers":9641,"ĠSnow":9642,"Ġfeathers":9643,"ĠUkraine":9644,"Ġbah":9645,"Ġcough":9646,"Ġpads":9647,"Ġmaker":9648,"Ġhip":9649,"aroni":9650,"ĠBottom":9651,"ĠPoint":9652,"inding":9653,"Ġdeer":9654,"ĠDO":9655,"orship":9656,"Ġ46":9657,"Ġphoebe":9658,"bod":9659,"ructor":9660,"Ġentit":9661,"Ġcleaner":9662,"Ġmarie":9663,"Ġextrem":9664,"Ġdemands":9665,"Ġfigured":9666,"Ġ1996":9667,"apple":9668,"Ġmoderate":9669,"Ġreplied":9670,"ivalent":9671,"Ġpeanuts":9672,"Ġignore":9673,"ubbard":9674,"driver":9675,"Ġallegations":9676,"Ġrecipe":9677,"Ġdiscrimination":9678,"Ġscholars":9679,"Ġscooter":9680,"Ġdugout":9681,"SU":9682,"sing":9683,"Ġbored":9684,"Ġlinda":9685,"ito":9686,"Ġjim":9687,"ĠCopy":9688,"Ġchugg":9689,"ĠPen":9690,"Ġgranted":9691,"ĠFC":9692,"ĠNATO":9693,"Ġoverse":9694,"Ġflies":9695,"Ġhandling":9696,"alend":9697,"ancou":9698,"ernand":9699,"Ġbarrels":9700,"Ġmusical":9701,"Ġreturns":9702,"Ġpropag":9703,"Ġtasty":9704,"black":9705,"ĠGlobal":9706,"Ġshrubs":9707,"Ġporch":9708,"Ġdatabase":9709,"ĠAcadem":9710,"Ġobtained":9711,"ĠUpdate":9712,"CL":9713,"TH":9714,"je":9715,"xic":9716,"Ġsesame":9717,"Ġroots":9718,"osis":9719,"Ġanger":9720,"stand":9721,"Ġbrave":9722,"cky":9723,"ĠLow":9724,"ĠEnd":9725,"ĠEarlier":9726,"Ġpercy":9727,"Ġvisited":9728,"Ġwaff":9729,"azi":9730,"bridge":9731,"ĠFormer":9732,"Ġviewers":9733,"Ġconstantly":9734,"Ġelectronic":9735,"Ġchecking":9736,"ĠGreg":9737,"Ġinvolving":9738,"Ġdiscussions":9739,"Ġrelationships":9740,"ĠSometimes":9741,"Ġcushion":9742,"Ġenormous":9743,"ĠBOTTOM":9744,"FP":9745,"gener":9746,"pal":9747,"ridge":9748,"Ġtube":9749,"Ġcited":9750,"Ġthroat":9751,"Ġgerman":9752,"otte":9753,"Ġlips":9754,"Ġforks":9755,"iev":9756,"Ġgraff":9757,"Ġdip":9758,"ĠUt":9759,"ampa":9760,"Ġ150":9761,"Ġcollective":9762,"Ġprisoners":9763,"Ġroutine":9764,"ĠDisney":9765,"Ġvoices":9766,"ĠRadio":9767,"Ġkoala":9768,"++":9769,"will":9770,"herent":9771,"Ġwre":9772,"Ġft":9773,"Ġnah":9774,"Ġginger":9775,"Ġripe":9776,"Ġell":9777,"ammed":9778,"Ġnotable":9779,"Ġchances":9780,"ulu":9781,"ĠRose":9782,"icks":9783,"ĠEver":9784,"Ġspit":9785,"gery":9786,"Ġpasses":9787,"Ġrepair":9788,"Ġsolutions":9789,"scale":9790,"anned":9791,"Ġfreight":9792,"ĠMinnesota":9793,"ĠAbu":9794,"Ġresponses":9795,"Ġmacaroni":9796,"Ġjournalists":9797,"Ġcorporations":9798,"ĠCamer":9799,"Ġbagel":9800,"ĠOntario":9801,"ait":9802,"Ġvel":9803,"rell":9804,"Ġgently":9805,"Ġwhit":9806,"Ġbeak":9807,"Ġchunk":9808,"Ġmans":9809,"Ġgrid":9810,"rible":9811,"istent":9812,"agh":9813,"ĠEls":9814,"ĠOs":9815,"Ġembar":9816,"Ġsword":9817,"Ġsandwiches":9818,"Ġkisses":9819,"haust":9820,"Ġthreatened":9821,"ĠIraqi":9822,"Ġdispens":9823,"ihad":9824,"Ġsuspended":9825,"Ġatmosphere":9826,"ancouver":9827,"Ar":9828,"MP":9829,"Ġpounds":9830,"Ġmixture":9831,"Ġfestival":9832,"Ġbend":9833,"Ġstroller":9834,"ĠTal":9835,"elligence":9836,"ila":9837,"ĠBern":9838,"ria":9839,"ĠRet":9840,"ĠLGBT":9841,"ĠIns":9842,"Ġrecover":9843,"ĠHead":9844,"Ġpictured":9845,"Ġcounty":9846,"ĠWhich":9847,".\"[":9848,"Ġbroom":9849,"inson":9850,"ĠReal":9851,"Ġgrounds":9852,"Ġcollapse":9853,"ĠArch":9854,"Ġgenerate":9855,"Ġrounds":9856,"Ġrequests":9857,"Ġhumanity":9858,"Ġhorns":9859,"Ġinnoc":9860,"Ġjournalist":9861,"Ġliterature":9862,"Ġordinary":9863,"ĠServices":9864,"Ġtabby":9865,"Ġconcluded":9866,"Ġphilosophy":9867,"ëĬĶ":9868,"',":9869,"Be":9870,"bus":9871,"nuts":9872,"Ġicon":9873,"Ġcalf":9874,"erving":9875,"encer":9876,"idency":9877,"Ġrely":9878,"Ġblouse":9879,"Ġkil":9880,"ĠGiven":9881,"ĠOR":9882,"Ġpregn":9883,"ifies":9884,"irect":9885,"ebook":9886,"Ġdolls":9887,"Ġconfig":9888,"Ġpatrick":9889,"Ġsolve":9890,"Ġpromises":9891,"Ġcrypt":9892,"Ġcrowded":9893,"Ġterrorists":9894,"ĠRegenerative":9895,"Ġsurvive":9896,"Ġaimed":9897,"Ġprinciples":9898,"Ġalphabet":9899,"Ġpenalty":9900,"Ġingred":9901,"lay":9902,"las":9903,"rac":9904,"rison":9905,"Ġboston":9906,"Ġduty":9907,"Ġrating":9908,"Ġrape":9909,"ĠAst":9910,"Ġdeals":9911,"Ġdiagn":9912,"Ġzipper":9913,"Ġreputation":9914,"Ġdeveloper":9915,"Ġcorrel":9916,"Ġjoining":9917,"ĠDoes":9918,"ĠResp":9919,"Ġdreams":9920,"Ġconcentrating":9921,"Ġbaaee":9922,"Ġcrucial":9923,"ĠSweden":9924,"Ġsympt":9925,"02":9926,"corn":9927,"donald":9928,"har":9929,"Ġtas":9930,"Ġay":9931,"Ġee":9932,"amber":9933,"ĠIowa":9934,"opes":9935,"ĠBernie":9936,"Ġknives":9937,"ĠHell":9938,"asty":9939,"aky":9940,"ĠFoot":9941,"Ġarthur":9942,"Ġmole":9943,"wear":9944,"Ġvisiting":9945,"ĠVancouver":9946,"Ġinterior":9947,"Ġpottie":9948,"ĠSov":9949,"Ġcounsel":9950,"Ġtechnique":9951,"Ġdrops":9952,"Ġparas":9953,"Ġoperate":9954,"ĠChristie":9955,"ĠCoast":9956,"iscal":9957,"green":9958,"Ġimprovement":9959,"Ġimplementation":9960,"ĠFollowing":9961,"68":9962,"On":9963,"boo":9964,"dah":9965,"sized":9966,"Ġwore":9967,"Ġoscar":9968,"Ġnonna":9969,"Ġbluish":9970,"imm":9971,"ĠID":9972,"ĠBang":9973,"ĠPett":9974,"ĠHot":9975,"ĠJava":9976,"Ġadvertisement":9977,"pled":9978,"Ġpersonnel":9979,"ultane":9980,"Ġshortly":9981,"Ġfinance":9982,"gging":9983,"Ġpickup":9984,"Ġdresser":9985,"Ġpractical":9986,"loaded":9987,"ĠEdward":9988,"ĠEnvironment":9989,"Ġprepare":9990,"anchester":9991,"Ġterrific":9992,"Ġnervous":9993,"TT":9994,"cow":9995,"lah":9996,"pool":9997,"Ġbure":9998,"err":9999,"Ġpuff":10000,"orough":10001,"enance":10002,"igible":10003,"ĠTen":10004,"ĠTem":10005,"ĠCu":10006,"andel":10007,"oret":10008,"ĠPoly":10009,"ĠField":10010,"agram":10011,"ipes":10012,"Ġ53":10013,"Ġunders":10014,"Ġrecovery":10015,"Ġsla":10016,"Ġwatermel":10017,"Ġemma":10018,"Ġdistract":10019,"Ġlegos":10020,"Ġpickle":10021,"Ġfeelings":10022,"Ġbanned":10023,"Ġprovince":10024,"ĠAnne":10025,"Ġpayment":10026,"Ġtechnologies":10027,"Ġhopefully":10028,"Ġvisitors":10029,"Ġpockets":10030,"Ġsmartphone":10031,"Ġindependence":10032,"Ġpouring":10033,"ĠMexican":10034,"Ġreduction":10035,"Ġsupplies":10036,"Ġcaterp":10037,"Ġgraffiti":10038,"09":10039,"=\"":10040,"pread":10041,"Ġbul":10042,"inter":10043,"ouri":10044,"Ġdying":10045,"Ġpaws":10046,"Ġmamm":10047,"Ġfert":10048,"asant":10049,"asters":10050,"Ġrush":10051,"otal":10052,"ĠManchester":10053,"ĠBad":10054,"ĠHubbard":10055,"ĠRs":10056,"Ġexhaust":10057,"quet":10058,"ĠLady":10059,"Ġoverhead":10060,"Ġ54":10061,"ĠChild":10062,"Ġlego":10063,"Ġinvent":10064,"Ġrelief":10065,"Ġsquash":10066,"Ġdeliber":10067,"Ġyoga":10068,"Ġprogressive":10069,"Ġachieved":10070,"Ġstruggling":10071,"Ġgoofy":10072,"EB":10073,"auc":10074,"Ġpace":10075,"Ġfaded":10076,"Ġtoad":10077,"acement":10078,"Ġrom":10079,"Ġfrag":10080,"cend":10081,"âĢĻ,":10082,"abin":10083,"gender":10084,"Ġoutput":10085,"Ġdeleg":10086,"Ġgrant":10087,"Ġgrill":10088,"ĠNorm":10089,"Ġhers":10090,"ĠEastern":10091,"Ġdiapers":10092,"ouses":10093,"Ġ44":10094,"Ġresign":10095,"Ġ1950":10096,"Ġretired":10097,"Ġloaded":10098,"Ġengineering":10099,"Ġgenuine":10100,"ĠOlympic":10101,"ao":10102,"aun":10103,"mate":10104,"mont":10105,"world":10106,"Ġboring":10107,"inator":10108,"Ġmun":10109,"utive":10110,"Ġjoy":10111,"ĠIP":10112,"ĠSud":10113,"ĠAge":10114,"ĠAmend":10115,"opus":10116,"ĠBest":10117,"Ġconclusion":10118,"Ġspar":10119,"Ġcrown":10120,"Ġsilverware":10121,"Ġsyrup":10122,"Ġbenches":10123,"ĠBloom":10124,"Ġanticip":10125,"Ġargues":10126,"Ġaffili":10127,"Ġdivided":10128,"Ġreferring":10129,"Ġchallenging":10130,"ĠRelated":10131,"iveness":10132,"ĠCurrent":10133,"íķĺ":10134,"Ġhypot":10135,"ĠYeah":10136,"Ġdisappeared":10137,"59":10138,"88":10139,"GA":10140,"cro":10141,"fare":10142,"hill":10143,"Ġtails":10144,"Ġax":10145,"rec":10146,"aton":10147,"Ġgains":10148,"Ġandrew":10149,"ĠThing":10150,"ĠSand":10151,"ĠFal":10152,"icking":10153,"ciences":10154,"Ġamid":10155,"Ġslippers":10156,"Ġhelpful":10157,"Ġdistur":10158,"shot":10159,"idespread":10160,"Ġtestim":10161,"Ġprogramming":10162,"ĠOrig":10163,"Ġequivalent":10164,"ĠTech":10165,"ĠWithout":10166,"ĠExec":10167,"Ġarrive":10168,"ALL":10169,"Ġnursing":10170,"ĠUsing":10171,"ĠStudies":10172,"ĠSherlock":10173,"ĠMatthew":10174,"Ġuniversal":10175,"Ġappreciate":10176,"Ġfoggy":10177,"Ġcluttered":10178,"alendar":10179,"JP":10180,"dge":10181,"Ġwider":10182,"Ġpets":10183,"Ġheaven":10184,"Ġnotion":10185,"olk":10186,"Ġvases":10187,"apore":10188,"ĠHay":10189,"ĠHave":10190,"Ġcomedy":10191,"Ġproven":10192,"Ġletting":10193,"rav":10194,"Ġdialog":10195,"onda":10196,"ĠKent":10197,"Ġcomponent":10198,"Ġrunway":10199,"Ġsimultane":10200,"ussy":10201,"aints":10202,"Ġsnowy":10203,"Ġprofit":10204,"Ġ1994":10205,"Ġsuccessfully":10206,"Ġattempting":10207,"Ġparticipate":10208,"Ġwaters":10209,"Ġseesaw":10210,"Ġrarely":10211,"Ġprinciple":10212,"Ġaggressive":10213,"Ġaluminum":10214,"dis":10215,"epend":10216,"Ñĸ":10217,"ìĦ":10218,"Ġtu":10219,"Ġbamb":10220,"onge":10221,"Ġmath":10222,"Ġfences":10223,"itals":10224,"Ġnan":10225,"Ġnails":10226,"Ġgained":10227,"lete":10228,"leton":10229,"igrew":10230,"idy":10231,"Ġbeating":10232,"ĠAR":10233,"Ġgobble":10234,"ĠMill":10235,"Ġalert":10236,"ĠRaf":10237,"ĠDC":10238,"ĠDog":10239,"Ġpermission":10240,"Ġdrill":10241,"Ġacceler":10242,"Ġpotatos":10243,"Ġfootage":10244,"Ġtallest":10245,"ĠAdam":10246,"ĠZeal":10247,"Ġfreezer":10248,"Ġinformed":10249,"ĠBeach":10250,"ĠMayor":10251,"ijing":10252,"Ġaffairs":10253,"Ġadmit":10254,"Ġenjoying":10255,"ĠLarry":10256,"Ġninet":10257,"ĠQueen":10258,"Ġinstructions":10259,"swered":10260,"Ġlandscape":10261,"Ġfranchise":10262,"ĠElsa":10263,"PP":10264,"away":10265,"kers":10266,"making":10267,"Ġtin":10268,"Ġwool":10269,"onies":10270,"Ġlists":10271,"Ġnaturally":10272,"aria":10273,"Ġbees":10274,"Ġseated":10275,"ĠTable":10276,"ĠMoh":10277,"Ġmanifest":10278,"ĠFight":10279,"Ġexternal":10280,"Ġnowhere":10281,"Ġ400":10282,"orne":10283,"Ġactor":10284,"Ġfounded":10285,"archy":10286,"Ġhired":10287,"they":10288,"Ġprocesses":10289,"Ġmaggie":10290,"Ġcampaigns":10291,"Ġscrewdriver":10292,"Ġstructures":10293,"Ġcategories":10294,"Ġmigrants":10295,"People":10296,"ĠSoviet":10297,"core":10298,"cription":10299,"gage":10300,"mus":10301,"°Ģ":10302,"ouston":10303,"Ġlun":10304,"Ġloop":10305,"Ġnick":10306,"Ġtoss":10307,"asury":10308,"Ġblast":10309,"Ġjames":10310,"ĠIron":10311,"tering":10312,"ĠMir":10313,"Ġhispanic":10314,"ĠHur":10315,"Ġexch":10316,"ĠNon":10317,"Ġcarries":10318,"ĠStadium":10319,"Ġcurb":10320,"Ġcleaned":10321,"Ġreceiver":10322,"Ġ1997":10323,"ĠDemocrat":10324,"Ġapartments":10325,"ĠìĿ":10326,"Ġdestruction":10327,"Ġrecognized":10328,"Ġfrogs":10329,"Ġpocketbook":10330,"Ġplatforms":10331,"Ġfloating":10332,"Ġresource":10333,"Ġcontroversy":10334,"Ġadvocates":10335,"ĠCommunity":10336,"Ġbeliefs":10337,"Ġunemployment":10338,"ĠPettigrew":10339,"'.":10340,"56":10341,"father":10342,"iens":10343,"rage":10344,"yo":10345,"yr":10346,"heast":10347,"Ġwrench":10348,"Ġwww":10349,"Ġbumble":10350,"eted":10351,"âĢĺ":10352,"ental":10353,"amac":10354,"Ġjapan":10355,"ĠSanta":10356,"ĠAction":10357,"ĠPence":10358,"ĠJac":10359,"ĠUber":10360,"ĠKr":10361,"Ġglare":10362,"Ġunderground":10363,"Ġattitude":10364,"Ġsilhou":10365,"ĠBeijing":10366,"Ġsuggesting":10367,"Ġkicked":10368,"Ġneighbour":10369,"Ġmaintained":10370,"ĠSpecial":10371,"Ġunfortunately":10372,"Ġrichard":10373,"Ġminority":10374,"Ġsophie":10375,"Ġuncertainty":10376,"Ġconvinced":10377,"Ġcelery":10378,"Ġvertical":10379,"Ġridiculous":10380,"Ġcotton":10381,"97":10382,"?)":10383,"gun":10384,"Ġwidespread":10385,"erk":10386,"Ġtoaster":10387,"adel":10388,"ĠSams":10389,"ĠPass":10390,"ĠWik":10391,"ĠHor":10392,"Ġbacked":10393,"ĠRh":10394,"ĠRos":10395,"quarters":10396,"aga":10397,"ĠLight":10398,"redit":10399,"ĠOregon":10400,"ĠInformation":10401,"Ġrecall":10402,"ĠVeg":10403,"Ġ72":10404,"iversary":10405,"Ġformat":10406,"Ġvalent":10407,"Ġparrot":10408,"Ġfighter":10409,"Ġracist":10410,"Ġstudying":10411,"Ġgarlic":10412,"Ġinvestigations":10413,"Ġabsor":10414,"vertisements":10415,"Ġmistakes":10416,"Ġcitizen":10417,"Ġimplemented":10418,"Ġsuffer":10419,"Ġquantum":10420,"ĠMassachusetts":10421,"Ġveteran":10422,"ĠSpring":10423,"ĠPennsylvania":10424,"Ġefficiency":10425,"53":10426,"dr":10427,"eer":10428,"ĠiPad":10429,"only":10430,"orious":10431,"ookie":10432,"Ġshops":10433,"cker":10434,"ĠHon":10435,"ĠDet":10436,"Ġ($":10437,"ĠLittle":10438,"ĠEp":10439,"Ġskating":10440,"Ġtrends":10441,"Ġlawmakers":10442,"Ġpublication":10443,"Ġbadly":10444,"Ġrainy":10445,"Ġwireless":10446,"Ġsenator":10447,"Ġtorn":10448,"ĠAssociated":10449,"Ġmanufacturing":10450,"Ġjungle":10451,"Ġtactics":10452,"rendum":10453,"Ġnominee":10454,"ernandez":10455,"bn":10456,"cat":10457,"lon":10458,"Ġbail":10459,"Ġnoo":10460,"acc":10461,"eters":10462,"abama":10463,"Ġsuicide":10464,"ĠBACK":10465,"Ġtrillion":10466,"umbers":10467,"Ġgrazing":10468,"ĠDE":10469,"ĠLand":10470,"cia":10471,"Ġbund":10472,"ĠUnt":10473,"Ġprince":10474,"Ġenable":10475,"olds":10476,"Ġ51":10477,"Ġelastic":10478,"Ġvisor":10479,"Ġhomemade":10480,"Ġdisting":10481,"Ġsurgery":10482,"Ġgenerated":10483,"Ġsteering":10484,"rett":10485,"Ġloan":10486,"Ġlayers":10487,"Ġtouchdown":10488,"Ġclimbed":10489,"Ġprivile":10490,"Ġcontaining":10491,"Ġtemporary":10492,"Ġrepresentative":10493,"prof":10494,"Ġindicated":10495,"Ġcrocod":10496,"ĠPatrick":10497,"ĠIII":10498,"ĠSeries":10499,"Ġpineapple":10500,"Ġfantasy":10501,"ĠMoscow":10502,"Ġroyal":10503,"ĠGeorgia":10504,"Ġchugga":10505,"lahoma":10506,"57":10507,"TER":10508,"after":10509,"post":10510,"sters":10511,"Ġ;":10512,"itol":10513,"Ġriv":10514,"Ġstations":10515,"Ġstages":10516,"Ġseemingly":10517,"ĠIC":10518,"ĠSource":10519,"ĠBa":10520,"apot":10521,"Ġgrade":10522,"riers":10523,"ĠRay":10524,"ĠFil":10525,"ĠFund":10526,"Ġexit":10527,"ĠGov":10528,"ĠLive":10529,"Ġfee":10530,"ĠJer":10531,"Ġcarn":10532,"ĠInf":10533,"Ġactively":10534,"Ġcomponents":10535,"Ġbreath":10536,"Ġhalfway":10537,"ĠArk":10538,"ĠDead":10539,"Ġlesson":10540,"ova":10541,"happy":10542,"Ġdriveway":10543,"Ġaddressed":10544,"Ġconversations":10545,"ĠEveryone":10546,"ĠTechnology":10547,"Ġincorpor":10548,"67":10549,"At":10550,"hour":10551,"uan":10552,"Ã¼":10553,"Ġbol":10554,"Ġborders":10555,"Ġfiction":10556,"aylor":10557,"Ġalike":10558,"ĠHit":10559,"ĠNavy":10560,"ĠUlt":10561,"ateral":10562,"ĠVR":10563,"Ġbehalf":10564,"Ġincidents":10565,"Ġseth":10566,"Ġscreaming":10567,"Ġexposure":10568,"Ġwebsites":10569,"Ġtricky":10570,"Ġpadding":10571,"ĠAnth":10572,"ĠPlayer":10573,"Ġproposals":10574,"Ġtags":10575,"Ġfarther":10576,"Ġbeanie":10577,"Ġexclusive":10578,"ipedia":10579,"Ġpenguin":10580,"Ġodds":10581,"gust":10582,"month":10583,"ni":10584,"Ġil":10585,"rer":10586,"Ġlu":10587,"Ġloo":10588,"Ġinner":10589,"etary":10590,"ĠTest":10591,"Ġforfe":10592,"ĠRS":10593,"ĠEvent":10594,"ĠOl":10595,"izer":10596,"Ġrode":10597,"ĠUr":10598,"Ġprey":10599,"active":10600,"ĠThrough":10601,"Ġactors":10602,"Ġcomprehens":10603,"Ġbites":10604,"Ġendorse":10605,"Ġmonthly":10606,"ĠMarco":10607,"Ġequally":10608,"Ġsurfer":10609,"ĠSea":10610,"Ġmathemat":10611,"Ġhoped":10612,"Ġimmune":10613,"coln":10614,"Ġsettlement":10615,"Ġreflected":10616,"Ġcontrolled":10617,"Ġautomatic":10618,"Ġmechanism":10619,"Ġbonk":10620,"ography":10621,"Ġnegotiations":10622,"ĠAuthority":10623,"otype":10624,"Ġretirement":10625,"ĠMakabe":10626,"400":10627,"52":10628,"87":10629,"Every":10630,"dem":10631,"Ġbust":10632,"Ġbaked":10633,"inem":10634,"Ġys":10635,"Ġfulf":10636,"igent":10637,"uto":10638,"etime":10639,"Ġanswered":10640,"Ġjan":10641,"ĠBatter":10642,"ĠBAR":10643,"ateur":10644,"ĠRoy":10645,"Ġwanting":10646,"ĠDisc":10647,"agger":10648,"rait":10649,"ĠJosh":10650,"Ġscope":10651,"Ġperpet":10652,"interest":10653,"intend":10654,"ĠChannel":10655,"Ġspeck":10656,"veland":10657,"Ġbreast":10658,"Ġmarkings":10659,"who":10660,"ãģ¦":10661,"Ġanalog":10662,"Ġintroduce":10663,"Ġspeaks":10664,"Ġforgotten":10665,"Ġautomatically":10666,"ĠStanford":10667,"ĠSingapore":10668,"ĠPLAY":10669,"Ġlegitimate":10670,"Ġbracelet":10671,"Ġembarrass":10672,")|":10673,"All":10674,"Ob":10675,"crib":10676,"gi":10677,"late":10678,"ml":10679,"ns":10680,"ĠTerry":10681,"Ġnotebook":10682,"Ġshaking":10683,"ĠCore":10684,"Ġasph":10685,"ĠBan":10686,"Ġbrut":10687,"Ġvet":10688,"Ġconce":10689,"Ġbacking":10690,"ĠRick":10691,"ĠFive":10692,"ĠGulf":10693,"assy":10694,"Ġunex":10695,"Ġsilence":10696,"Ġhorrible":10697,"Ġconspir":10698,"itches":10699,"These":10700,"Ġdoorway":10701,"ĠShort":10702,"2017":10703,"Ġbooth":10704,"ĠPhotos":10705,"Ġfighters":10706,"Ġinvestigate":10707,"Ġharold":10708,"Ġcorrectly":10709,"Ġreviews":10710,"Ġrespectively":10711,"Ġbullet":10712,"Ġrailroad":10713,"Ġrecommended":10714,"Ġsuspected":10715,"ĠFROM":10716,"Photo":10717,"celona":10718,"Ġremarkable":10719,"Ġexpanded":10720,"Ġresistance":10721,"Ġlonely":10722,"Ġremembered":10723,"ĠAmendment":10724,"ĠSamsung":10725,"%.":10726,"96":10727,"bors":10728,"met":10729,"Ãł":10730,"ĠâĢĻ":10731,"Ġsisters":10732,"Ġcalendar":10733,"Ġmood":10734,"ĠSi":10735,"Ġsovere":10736,"ĠMS":10737,"ĠBrew":10738,"ules":10739,"Ġgrav":10740,"ĠHal":10741,"Ġtwist":10742,"Ġagric":10743,"Ġcrashed":10744,"Ġelector":10745,"ĠLeon":10746,"Ġroller":10747,"Ġexpectations":10748,"Ġviolations":10749,"Ġattacking":10750,"Ġburied":10751,"Ġdamn":10752,"Ġinterviews":10753,"profit":10754,"Ġvacc":10755,"Ġextraord":10756,"Ġdecorative":10757,"Ġburning":10758,"Ġriders":10759,"ĠBrexit":10760,"Ġsuburban":10761,"Ġtouched":10762,"Ġsubsequent":10763,"amacare":10764,"Im":10765,"dney":10766,"Ġborrow":10767,"Ġdut":10768,"Ġhilda":10769,"igate":10770,"Ġrevers":10771,"Ġroles":10772,"Ġstake":10773,"ĠTR":10774,"Ġjilly":10775,"ĠSL":10776,"ĠSav":10777,"ĠSix":10778,"ĠAND":10779,"ĠCir":10780,"ĠChel":10781,"itty":10782,"Ġcomfor":10783,"ĠNorthern":10784,"ĠLine":10785,"Ġteapot":10786,"Ġsmoking":10787,"this":10788,"Ġsmallest":10789,"feld":10790,"Ġaccents":10791,"Ġdifferently":10792,"ĠUnlike":10793,"itched":10794,"Ġbasement":10795,"Ġsandals":10796,"Ġfourteen":10797,"ĠDev":10798,"Ġ1995":10799,"ĠMcD":10800,"Ġdevast":10801,"Ġsettings":10802,"Ġpersu":10803,"Ġpeaceful":10804,"Ġmechanics":10805,"Ġgraduate":10806,"Ġratio":10807,"ĠCaption":10808,"Ġprocedure":10809,"HS":10810,"there":10811,"Ġware":10812,"inations":10813,"Ġfel":10814,"isons":10815,"Ġreven":10816,"Ġrhet":10817,"Ġstall":10818,"Ġnoting":10819,"Ġjury":10820,"Ġabroad":10821,"Ġcounts":10822,"Ġstripped":10823,"ĠLevel":10824,"Ġvend":10825,"Ġpopcorn":10826,"Ġextract":10827,"ĠPrince":10828,"Ġactivist":10829,"Ġburnt":10830,"Ġsuitcases":10831,"Ġthirteen":10832,"ilipp":10833,"Ġscientist":10834,"Ġsettle":10835,"Ġultimate":10836,"Ġpremium":10837,"ĠProfessor":10838,"Ġfrustrated":10839,"Ġsubstantial":10840,"âĪĴ":10841,"54":10842,"Ex":10843,"With":10844,"mid":10845,"maker":10846,"turn":10847,"Ñķ":10848,"hent":10849,"erd":10850,"Ġmant":10851,"Ġfue":10852,"Ġfaint":10853,"Ġblur":10854,"Ġforties":10855,"Ġjessica":10856,"Ġkim":10857,"ĠSound":10858,"ĠPope":10859,"itts":10860,"ĠHD":10861,"Ġpride":10862,"Ġpersonality":10863,"ĠKy":10864,"uckle":10865,"ensity":10866,"Ġstrings":10867,"Ġcounted":10868,"Ġattach":10869,"Ġdistributed":10870,"Ġcenters":10871,"Ġdefine":10872,"Ġwarrant":10873,"Ġlands":10874,"Ġblankie":10875,"Ġportray":10876,"Ġburger":10877,"Ġplacem":10878,"ĠAbb":10879,"Ġgrocer":10880,"OWN":10881,"ĠBerlin":10882,"Ġrestrictions":10883,"Ġinnocent":10884,"Ġasphalt":10885,"bet":10886,"bara":10887,"eenth":10888,"eries":10889,"Ġtoler":10890,"achers":10891,"Ġecho":10892,"Ġcans":10893,"Ġshield":10894,"ĠAvenue":10895,"ĠCra":10896,"opt":10897,"ĠPok":10898,"Ġalmond":10899,"ĠLA":10900,"Ġoverly":10901,"ources":10902,"Ġcoco":10903,"Ġprepar":10904,"ĠKas":10905,"Ġ63":10906,"Ġballot":10907,"Ġcenturies":10908,"ĠAlan":10909,"ĠIndust":10910,"Ġestate":10911,"Ġprotecting":10912,"Ġcompeting":10913,"Ġscramb":10914,"Ġimproving":10915,"Ġjudges":10916,"Ġpuzzles":10917,"Ġpopularity":10918,"ĠType":10919,"Ġstacked":10920,"Ġflee":10921,"Ġestablishment":10922,"ĠWalker":10923,"ĠAdministration":10924,"Ġbrunette":10925,"hal":10926,"log":10927,"pres":10928,"sit":10929,"Ġhulk":10930,"Ġgut":10931,"Ġgerry":10932,"Ġink":10933,"Ġinput":10934,"Ġrevel":10935,"Ġships":10936,"ĠCA":10937,"Ġash":10938,"ĠBru":10939,"Ġtrigger":10940,"Ġdeem":10941,"ĠWel":10942,"Ġcomed":10943,"Ġexport":10944,"plus":10945,"Ġunited":10946,"Ġpod":10947,"Ġslacks":10948,"Ġtrained":10949,"gged":10950,"Ġstreaming":10951,"ĠClark":10952,"Ġsurfing":10953,"Ġarguing":10954,"umbled":10955,"ĠExam":10956,"ĠMedical":10957,"rolled":10958,"Ġtempl":10959,"ĠBarcelona":10960,"Ġacceptable":10961,"Ġsnakes":10962,"ĠWhether":10963,"Ġskept":10964,"Ġtoppings":10965,"Ġfirms":10966,"51":10967,"62":10968,"74":10969,"CR":10970,"fund":10971,"jan":10972,"mony":10973,"Ġwah":10974,"Ġwages":10975,"Ġbolt":10976,"enz":10977,"Ġrasp":10978,"ĠTown":10979,"olen":10980,"opard":10981,"Ġbrill":10982,"Ġconsole":10983,"esty":10984,"ĠData":10985,"ĠGall":10986,"ĠOtt":10987,"Ġ2020":10988,"Ġfears":10989,"Ġtears":10990,"ĠStudy":10991,"Ġambit":10992,"Ġstrap":10993,"Ġpresidency":10994,"Ġedition":10995,"Ġdressing":10996,"lessly":10997,"Ġviewed":10998,"ãģĦ":10999,"Ġprocessing":11000,"Ġperforming":11001,"Ġconsideration":11002,"Ġfocusing":11003,"Ġbells":11004,"ĠHarry":11005,"ĠJustin":11006,"Ġoliver":11007,"Ġtravell":11008,"Ġdisplayed":11009,"Ġparticipation":11010,"inois":11011,"Ġsearching":11012,"ĠIranian":11013,"Ġsensitive":11014,"Ġopinions":11015,"Ġtweeted":11016,"Ġreferendum":11017,"ĠJews":11018,"Ġwealthy":11019,"Ġtadah":11020,"ĠTurkish":11021,"Ġintellectual":11022,"Ġgeorgie":11023,"even":11024,"now":11025,"pin":11026,"Ġtint":11027,"Ġsher":11028,"Ġwaving":11029,"athing":11030,"Ġcass":11031,"Ġyell":11032,"Ġdumb":11033,"Ġpose":11034,"uten":11035,"Ġstored":11036,"Ġlegend":11037,"ĠBeng":11038,"ulating":11039,"Ġouter":11040,"ĠParliament":11041,"Ġalarm":11042,"ĠDutch":11043,"ques":11044,"Ġreducing":11045,"osexual":11046,"ĠGDP":11047,"ĠLim":11048,"Ġcoins":11049,"ĠJun":11050,"Ġflav":11051,"Ġscan":11052,"ĠVice":11053,"Ġhomeless":11054,"Ġreprodu":11055,"Ġdemanding":11056,"Ġannoy":11057,"ĠObamacare":11058,"Ġcycl":11059,"ĠMarket":11060,"Ġpleased":11061,"Ġpredicted":11062,"Ġgraphics":11063,"Ġtherapy":11064,"reprene":11065,"Ġappointed":11066,"onnell":11067,"ĠRuby":11068,"Ġphenomenon":11069,"ioc":11070,"mers":11071,"oir":11072,"aning":11073,"Ġpup":11074,"Ġmop":11075,"Ġfer":11076,"ori":11077,"Ġseag":11078,"ching":11079,"ante":11080,"Ġgoats":11081,"ĠBes":11082,"ĠBall":11083,"Ġchopped":11084,"ĠWales":11085,"Ġmane":11086,"ĠRa":11087,"Ġovercome":11088,"Ġspy":11089,"ĠThom":11090,"iances":11091,"phia":11092,"Ġministers":11093,"shine":11094,"Ġproducing":11095,"brid":11096,"ikh":11097,"Ġpopulations":11098,"Ġfilter":11099,"Ġsolo":11100,"Ġsupermarket":11101,"Ġpanels":11102,"Ġharry":11103,"ĠAbd":11104,"graphy":11105,"shirts":11106,"Ġmonitoring":11107,"Ġescal":11108,"ylum":11109,"Ġnursery":11110,"Ġdiseases":11111,"Ġraisin":11112,"ĠBLUE":11113,"Ġhighlights":11114,"Ġspiritual":11115,"Ġbrocolli":11116,"ĠOklahoma":11117,"Ġangel":11118,"pherd":11119,"Ġelderly":11120,"Ġtestimony":11121,"ĠExecutive":11122,"%)":11123,"06":11124,"good":11125,"produ":11126,"inction":11127,"Ġlining":11128,"eding":11129,"leen":11130,"Ġstere":11131,"ooked":11132,"urd":11133,"Ġshipping":11134,"ĠIR":11135,"ĠSure":11136,"ĠCase":11137,"step":11138,"ĠMuch":11139,"Ġvital":11140,"ĠWW":11141,"ĠRather":11142,"Ġcogn":11143,"Ġadequ":11144,"pton":11145,"Ġmock":11146,"clair":11147,"intage":11148,"Ġclever":11149,"Ġtablet":11150,"Ġwax":11151,"Ġinteraction":11152,"Ġ85":11153,"ĠLeader":11154,"ricane":11155,"Ġcounterpart":11156,"ĠCentre":11157,"Ġcivilians":11158,"Ġstrengthen":11159,"ippi":11160,"Ġimplications":11161,"Ġshocked":11162,"Ġremarks":11163,"Ġstrategic":11164,"Ġeurope":11165,"ĠFurthermore":11166,"Ġoctopus":11167,"Ġfossil":11168,"Ġfeaturing":11169,"Ġcaterpillar":11170,"IE":11171,"Not":11172,"One":11173,"nan":11174,"wa":11175,"Ġ__":11176,"onial":11177,"Ġdict":11178,"Ġdya":11179,"Ġdoodle":11180,"Ġranks":11181,"ackers":11182,"Ġshame":11183,"ĠSir":11184,"Ġframes":11185,"ĠMake":11186,"uma":11187,"ĠHaving":11188,"ĠFO":11189,"Ġsaving":11190,"ĠLater":11191,"ĠJere":11192,"ĠJudge":11193,"Ġtwinkle":11194,"Ġfled":11195,"atern":11196,"Ġsurely":11197,"merica":11198,"Ġteammates":11199,"Ġsynt":11200,"Ġbunk":11201,"othy":11202,"Ġdiscovery":11203,"Ġstudied":11204,"Ġsteal":11205,"Ġavoc":11206,"Ġprogramme":11207,"ĠConf":11208,"ĠExpl":11209,"blue":11210,"Ġtoothp":11211,"Ġcontracts":11212,"ĠReserve":11213,"ĠIndiana":11214,"Ġpurchased":11215,"ĠTrek":11216,"equality":11217,"Ġuniversities":11218,"Ġsociet":11219,"========":11220,"ĠEconomic":11221,"ĠZealand":11222,"adelphia":11223,"BN":11224,"drop":11225,"including":11226,"Ġyawn":11227,"Ġling":11228,"Ġnp":11229,"icon":11230,"idd":11231,"entagon":11232,"amon":11233,"Ġblade":11234,"ĠTher":11235,"ĠTok":11236,"tery":11237,"ulpt":11238,"ĠDave":11239,"Ġwhereas":11240,"Ġ(\"":11241,"ĠOK":11242,"ĠOper":11243,"Ġroar":11244,"ĠJose":11245,"ictions":11246,"Ġdisgust":11247,"Ġpoison":11248,"Ġbuilds":11249,"Ġ62":11250,"Ġintervention":11251,").[":11252,"Ġkittens":11253,"Ġcamping":11254,"Ġinspect":11255,"Ġsaddle":11256,"Ġtraveling":11257,"Ġimprovements":11258,"Ġepisodes":11259,"ĠCleveland":11260,"Ġhurting":11261,"Ġgraphic":11262,"ĠMontreal":11263,"ĠCarlos":11264,"Ġgigi":11265,"Ġathletic":11266,"Ġdramatic":11267,"Ġastronaut":11268,"Ġphrase":11269,"Ġtasks":11270,"ĠFootball":11271,"Ġcrocodile":11272,"lad":11273,"she":11274,"Ã±":11275,"heim":11276,"Ġcul":11277,"Ġdell":11278,"Ġpins":11279,"Ġfiscal":11280,"lee":11281,"aya":11282,"acher":11283,"adian":11284,"ĠSa":11285,"ĠSus":11286,"ĠAhm":11287,"inks":11288,"ĠBalt":11289,"Ġouts":11290,"ardon":11291,"iley":11292,"Ġquoted":11293,"iping":11294,"ĠKu":11295,"ĠKansas":11296,"ocks":11297,"Ġ56":11298,"Ġdisrupt":11299,"issippi":11300,"Ġlazy":11301,"Ġdrones":11302,"hman":11303,"connect":11304,"ĠArgent":11305,"ĠShah":11306,"Ġforecast":11307,"Ġfireman":11308,"Ġprotocol":11309,"Ġsalary":11310,"screen":11311,"Ġidentical":11312,"anguage":11313,"Ġillness":11314,"Ġpatterned":11315,"ESS":11316,"Ġurinal":11317,"Ġthreatening":11318,"Ġindicates":11319,"Ġmaintenance":11320,"Ġsettled":11321,"ĠTreasury":11322,"ĠArabia":11323,"Ġprosecutor":11324,"Ġsymptoms":11325,"Ġcomforter":11326,"Pl":11327,"Ġale":11328,"Ġsake":11329,"Ġmonday":11330,"Ġfier":11331,"arre":11332,"Ġshamp":11333,"Ġlect":11334,"ĠCR":11335,"ĠCare":11336,"andra":11337,"star":11338,"ĠMu":11339,"ĠBry":11340,"Ġally":11341,"Ġvig":11342,"ĠParent":11343,"ĠFair":11344,"quo":11345,"ĠOS":11346,"Ġcoc":11347,"Ġscandal":11348,"Ġenh":11349,"through":11350,"ogan":11351,"Ġskater":11352,"Ġreserve":11353,"Ġrecre":11354,"Ġcloseup":11355,"irds":11356,"Ġbiting":11357,"Ġrelation":11358,"Ġ99":11359,"Ġinfo":11360,"Ġanniversary":11361,"Ġloading":11362,"Ġsixth":11363,"ĠProp":11364,"Ġquestioned":11365,"Ġinvestigating":11366,"Ġconnections":11367,"Ġbanking":11368,"Ġinflation":11369,"Ġlanguages":11370,"Ġdamaged":11371,"Ġbroader":11372,"Ġdivide":11373,"ĠIntelligence":11374,"Ġrequested":11375,"Ġencouraged":11376,"Ġdemonstrate":11377,"piration":11378,"Ġemotion":11379,"Ġacknowledge":11380,"ĠCycling":11381,"ĠMaryland":11382,"Ġcomplaints":11383,"ĠHawaiian":11384,"ĠGalaxy":11385,"Ġbumper":11386,"igenous":11387,"Ġwatermelon":11388,"ĠUntil":11389,"ĠChelsea":11390,"ittsburgh":11391,"Con":11392,"oard":11393,"ĠÑģ":11394,"Ġwounded":11395,"Ġmim":11396,"Ġinher":11397,"acious":11398,"ethe":11399,"Ġstained":11400,"Ġank":11401,"Ġjug":11402,"ĠIce":11403,"ĠBir":11404,"ĠHoll":11405,"ĠHouston":11406,"ĠDoug":11407,"Ġ(âĢľ":11408,"rystal":11409,"ĠOak":11410,"ĠOccup":11411,"Ġspat":11412,"Ġprev":11413,"ĠYOU":11414,"Ġdrama":11415,"ributes":11416,"attan":11417,"Ġcaf":11418,"ancer":11419,"Ġimportantly":11420,"Ġdropping":11421,"Ġmixing":11422,"Ġengineers":11423,"Ġrestaurants":11424,"ĠDoctor":11425,"Ġhallway":11426,"Ġcivilian":11427,"ĠAnton":11428,"ĠHaiti":11429,"Ġguarantee":11430,"ĠDiego":11431,"WS":11432,"dad":11433,"high":11434,"mind":11435,"Å¡":11436,"Ġoak":11437,"Ġmash":11438,"Ġger":11439,"usal":11440,"kee":11441,"ĠSem":11442,"chu":11443,"ĠAG":11444,"ctive":11445,"olves":11446,"ĠBurn":11447,"unes":11448,"ĠDal":11449,"ĠDeb":11450,"ĠEs":11451,"ĠObs":11452,"Ġreader":11453,"Ġmidfield":11454,"ĠHeart":11455,"Ġmining":11456,"ĠAlabama":11457,"iko":11458,"Ġinsisted":11459,"Ġmuscle":11460,"Ġjoe":11461,"ĠBeing":11462,"Ġmixer":11463,"Ġmounted":11464,"Ġfundra":11465,"Ġinvolves":11466,"ĠEdition":11467,"ĠSean":11468,"Ġliberals":11469,"ĠCorpor":11470,"Ġfauc":11471,"ĠSTL":11472,"Ġsurprisingly":11473,"Ġvirus":11474,"Ġchimney":11475,"ĠKennedy":11476,"ĠAnthony":11477,"89":11478,"aug":11479,"rows":11480,"âĶ":11481,"Ġti":11482,"Ġbilly":11483,"Ġnat":11484,"Ġjul":11485,"ĠSat":11486,"ĠMoo":11487,"Ġbron":11488,"Ġabstract":11489,"Ġsauc":11490,"ĠNone":11491,"ags":11492,"Ġusage":11493,"Ġcarrier":11494,"Ġunions":11495,"Ġphot":11496,"Ġcreature":11497,"Ġswings":11498,"Ġacid":11499,"ĠClass":11500,"oko":11501,"Ġcorruption":11502,"Ġsalty":11503,"Ġvoter":11504,"Ġbatting":11505,"Ġmembership":11506,"ĠSydney":11507,"Ġdifficulty":11508,"Ġhyper":11509,"Ġtitled":11510,"Ġconvicted":11511,"Ġbulldo":11512,"Ġintroduction":11513,"Ġconsumption":11514,"ICE":11515,"Ġliberty":11516,"Ġpencils":11517,"Ġdemanded":11518,"Ġgrabbed":11519,"ĠGolden":11520,"Ġtemperatures":11521,"Ġchoppy":11522,"Ġnaught":11523,"Ġconventional":11524,"ĠMurray":11525,"Ġgathering":11526,"Ġinvolvement":11527,"ĠUtah":11528,"ĠVegas":11529,"69":11530,"CT":11531,"Cont":11532,"Some":11533,"bury":11534,"Ġtheories":11535,"atched":11536,"Ġdates":11537,"Ġpc":11538,"Ġni":11539,"Ġsections":11540,"Ġcant":11541,"Ġblues":11542,"Ġkaren":11543,"child":11544,"Ġfright":11545,"ilton":11546,"oline":11547,"stri":11548,"Ġsoy":11549,"Ġasylum":11550,"ainment":11551,"Ġchina":11552,"Ġvintage":11553,"ems":11554,"Ġexceed":11555,"ĠGR":11556,"ĠLas":11557,"Ġspare":11558,"Ġpreced":11559,"Ġsculpt":11560,"angles":11561,"Ġcontribution":11562,"alem":11563,"Ġpopped":11564,"Ġslip":11565,"itionally":11566,"Ġsignals":11567,"Ġregulation":11568,"Ġhorror":11569,"Ġbases":11570,"Ġsquat":11571,"ĠIndepend":11572,"ãģ¯":11573,"Ġpresentation":11574,"Ġpracticing":11575,"Ġlaptops":11576,"Ġfunded":11577,"Ġimprov":11578,"ĠXbox":11579,"Ġdisappear":11580,"Ġshelter":11581,"Ġpipeline":11582,"Ġownership":11583,"Ġjamie":11584,"Ġinitiative":11585,"ĠDenver":11586,"Ġgorilla":11587,"Ġvitamin":11588,"Ġanalysts":11589,"Ġtransparent":11590,"ĠDivision":11591,"Ġchantilly":11592,"Ġwreck":11593,"Ġingredients":11594,"Ġseagull":11595,".),":11596,"61":11597,"Do":11598,"Win":11599,"effect":11600,"has":11601,"iary":11602,"lical":11603,"Ġfilling":11604,"icity":11605,"immer":11606,"Ġants":11607,"oples":11608,"Ġorch":11609,"ĠMun":11610,"ĠBak":11611,"Ġchord":11612,"atever":11613,"Ġwherever":11614,"Ġskip":11615,"Ġtremend":11616,"Ġsnows":11617,"ĠAsh":11618,"ĠBron":11619,"Ġpizzas":11620,"Ġprofits":11621,"Ġburst":11622,"Ġmeasuring":11623,"Ġstatist":11624,"flies":11625,"Ġcircular":11626,"Ġblew":11627,"ĠOthers":11628,"Ġimpressed":11629,"Ġranked":11630,"looking":11631,"Ġwrestling":11632,"Ġalgorithm":11633,"\".[":11634,">/":11635,"AA":11636,"BO":11637,"hot":11638,"jack":11639,"wid":11640,"Ġí":11641,"Ġtune":11642,"Ġbisc":11643,"instein":11644,"oning":11645,"oned":11646,"onic":11647,"Ġlanes":11648,"Ġmaps":11649,"Ġtoken":11650,"Ġshy":11651,"ĠAS":11652,"ĠCO":11653,"open":11654,"Ġoutstanding":11655,"ĠDer":11656,"ĠDig":11657,"agu":11658,"Ġflap":11659,"Ġcouples":11660,"Ġcrane":11661,"Ġcontained":11662,"comes":11663,"Ġlately":11664,"Ġengagement":11665,"rette":11666,"Ġdawn":11667,"Ġoperator":11668,"Ġsuperior":11669,"Ġfailing":11670,"Ġstatistics":11671,"Ġframework":11672,"Ġcracked":11673,"Ġdishwas":11674,"ĠReddit":11675,"colm":11676,"Ġhunting":11677,"Ġsubstance":11678,"ĠDelhi":11679,"Ġrosie":11680,"Ġnumerals":11681,"ĠMissouri":11682,"Ġacknowledged":11683,"ĠContinue":11684,"\":":11685,"58":11686,"bi":11687,"bu":11688,"bul":11689,"dale":11690,"iety":11691,"kh":11692,"size":11693,"tes":11694,"writ":11695,"Ġsore":11696,"Ġfiring":11697,"Ġwhites":11698,"igious":11699,"Ġec":11700,"Ġweigh":11701,"Ġstolen":11702,"allic":11703,"ĠSarah":11704,"chief":11705,"ĠBu":11706,"Ġupright":11707,"agr":11708,"arks":11709,"Ġarray":11710,"ĠJam":11711,"Ġdoggies":11712,"yscr":11713,"Ġwindy":11714,"Ġconsensus":11715,"Ġbask":11716,"shield":11717,"Ġpressing":11718,"Ġtechnological":11719,"ĠPhilipp":11720,"ĠConc":11721,"Ġlogic":11722,"Ġemployed":11723,"Ġabsence":11724,"guard":11725,"Ġbiological":11726,"Ġmattress":11727,"ĠCambod":11728,"Ġflights":11729,"ĠAtlantic":11730,"ĠSwedish":11731,"cosystem":11732,"ĠIllinois":11733,"ĠBuddhist":11734,"ĠAcademy":11735,"800":11736,"TE":11737,"bra":11738,"base":11739,"obe":11740,"Ġtum":11741,"Ġox":11742,"Ġcust":11743,"Ġcinn":11744,"Ġpaw":11745,"leans":11746,"owered":11747,"enter":11748,"ĠTissue":11749,"ĠTaylor":11750,"Ġues":11751,"iler":11752,"ĠBud":11753,"Ġventure":11754,"Ġclients":11755,"Ġalter":11756,"Ġdiverse":11757,"Ġbitter":11758,"minute":11759,"Ġdiscour":11760,"ĠTherefore":11761,"Ġadviser":11762,"Ġavo":11763,"theless":11764,"Ġorganisation":11765,"Ġerr":11766,"Ġwhoopsie":11767,"Ġviolation":11768,"Ġpackages":11769,"Ġindustries":11770,"Ġdefeated":11771,"Ġdiscussing":11772,"ĠSmall":11773,"uko":11774,"Ġrailing":11775,"ĠBelow":11776,"ĠCampbell":11777,"Ġpursue":11778,"Ġinterpretation":11779,"Ġrifle":11780,"Ġpaddington":11781,"Ġshampoo":11782,"Can":11783,"PC":11784,"Script":11785,"Ġtuck":11786,"Ġtigers":11787,"Ġdanny":11788,"Ġpige":11789,"Ġloll":11790,"Ġnasty":11791,"Ġtoxic":11792,"Ġgail":11793,"Ġinject":11794,"hero":11795,"Ġpledge":11796,"ĠBM":11797,"Ġchapter":11798,"apolis":11799,"ĠWould":11800,"Ġgrate":11801,"ĠHernandez":11802,"agic":11803,"Ġsponge":11804,"ĠKirk":11805,"ector":11806,"Ġskull":11807,"Ġamateur":11808,"Ġsled":11809,"obb":11810,"Ġminimal":11811,"Ġwinds":11812,"Ġcutie":11813,"Ġslept":11814,"Ġsetup":11815,"Ġsymp":11816,"arner":11817,"Ġcurve":11818,"Ġproducer":11819,"Ġmovements":11820,"Ġjeep":11821,"Ġstepping":11822,"Ġtowers":11823,"Ġapproached":11824,"Ġequality":11825,"Ġantib":11826,"Ġburden":11827,"Ġinvestigators":11828,"Ġreplacement":11829,"Ġblender":11830,"Ġlaughed":11831,"ĠAga":11832,"Ġdepartments":11833,"Ġbikini":11834,"Ġoveralls":11835,"Ġglobe":11836,"Ġgranola":11837,"ãĢĤ":11838,"Ġlaminate":11839,"Ġconsciousness":11840,"Ġvalentine":11841,"Ġunexpected":11842,"Ġdishwasher":11843,"!)":11844,"63":11845,"UN":11846,"bably":11847,"cs":11848,"iate":11849,"test":11850,"Ġtrop":11851,"Ġawhile":11852,"oux":11853,"oust":11854,"Ġporn":11855,"Ġlos":11856,"Ġmp":11857,"itage":11858,"itzer":11859,"Ġgee":11860,"isk":11861,"omi":11862,"Ġsegment":11863,"string":11864,"ĠMove":11865,"Ġwhoever":11866,"ichol":11867,"Ġcocon":11868,"Ġspan":11869,"Ġintim":11870,"actions":11871,"plete":11872,"Ġcrumbs":11873,"Ġ57":11874,"obby":11875,"Ġwallet":11876,"Ġinvasion":11877,"Ġstriking":11878,"Ġentreprene":11879,"Ġassign":11880,"Ġbanner":11881,"ĠSoft":11882,"Ġdresses":11883,"Ġdollie":11884,"Ġpriest":11885,"Ġerase":11886,"Ġcalifornia":11887,"ĠMcG":11888,"Ġsuspic":11889,"Ġcasually":11890,"ãĥ¼":11891,"ĠCollins":11892,"Ġquietly":11893,"Ġimpression":11894,"Ġpromoting":11895,"ĠGreece":11896,"ĠPriv":11897,"Ġmuddy":11898,"CAA":11899,"Ġassessment":11900,"Ġinstruments":11901,"ĠCharlie":11902,"Ġobscured":11903,"Ġhorizont":11904,"ĠEngineering":11905,"ĠCowboys":11906,"Ġsustainable":11907,"Ġdiversity":11908,"Ġberries":11909,"Ġentitled":11910,"Ġoverseas":11911,"croft":11912,".:":11913,"oz":11914,"rition":11915,"Ġtel":11916,"Ġwand":11917,"Ġtheater":11918,"erver":11919,"Ġhose":11920,"orous":11921,"Ġnoises":11922,"Ġreverse":11923,"Ġrows":11924,"Ġarena":11925,"ĠTai":11926,"ĠSant":11927,"ĠCBS":11928,"ieve":11929,"ĠMoon":11930,"ĠBh":11931,"ĠPi":11932,"ĠPubl":11933,"ĠHad":11934,"ĠLy":11935,"pling":11936,"Ġcricket":11937,"ĠStri":11938,"Ġperceived":11939,"Ġresort":11940,"Ġspecul":11941,"Ġassigned":11942,"Ġweekly":11943,"break":11944,"ennes":11945,"ĠPrice":11946,"Ġmirrors":11947,"ĠExper":11948,"Ġconvince":11949,"Ġrepresentatives":11950,"Ġhosted":11951,"Star":11952,"Ġtricks":11953,"ĠSpeaking":11954,"ĠMalcolm":11955,"Ġconsistently":11956,"Ġaccommod":11957,"icipal":11958,"ĠAlexander":11959,"Ġhenry":11960,"Ġdisappointed":11961,"ĠConservative":11962,"Ġtorture":11963,"Ġstopping":11964,"ĠFamily":11965,"ĠSinclair":11966,"ĠArkansas":11967,"Ġrhetoric":11968,"Ġcinnamon":11969,"cre":11970,"dro":11971,"lest":11972,"lph":11973,"lower":11974,"pit":11975,"rine":11976,"rator":11977,"Ġtac":11978,"Ġmam":11979,"Ġhire":11980,"omot":11981,"Ġsect":11982,"ĠTed":11983,"ĠAle":11984,"ĠAud":11985,"ĠCAR":11986,"stration":11987,"Ġchasing":11988,"Ġups":11989,"ĠPir":11990,"ounding":11991,"Ġmanaging":11992,"ĠHero":11993,"ĠGerm":11994,"ĠLam":11995,"arson":11996,"ĠEnt":11997,"Ġintend":11998,"Ġunhappy":11999,"Ġskyscr":12000,"Ġ66":12001,"Ġcamps":12002,"Ġwindshield":12003,"izzy":12004,"Ġproducers":12005,"Ġpolitically":12006,"Ġsounded":12007,"ãģĹ":12008,"ĠProdu":12009,"Ġclocks":12010,"ĠEdit":12011,"Ġdefender":12012,"ASTL":12013,"Ġseparated":12014,"***":12015,"Ġcommonly":12016,"Ġdivor":12017,"ĠInterview":12018,"ĠCapitol":12019,"ĠSupport":12020,"ĠRevolution":12021,"ĠGiants":12022,"Ġcranky":12023,"Ġdarling":12024,"Ġgroceries":12025,"ĠPokÃ©":12026,"Ġnaughty":12027,"%,":12028,"CN":12029,"ben":12030,"election":12031,"gate":12032,"giving":12033,"oen":12034,"pre":12035,"uction":12036,"wall":12037,"Ġbaking":12038,"Ġyelling":12039,"Ġpail":12040,"Ġmile":12041,"inge":12042,"arity":12043,"omo":12044,"acles":12045,"Ġrake":12046,"Ġripped":12047,"urie":12048,"Ġjokes":12049,"ĠMuseum":12050,"ĠBure":12051,"ĠBroad":12052,"ĠRome":12053,"ĠRand":12054,"ĠDun":12055,"ĠDick":12056,"ĠNob":12057,"ĠLind":12058,"Ġunlock":12059,"Ġours":12060,"Ġincom":12061,"Ġlegacy":12062,"Ġfacilit":12063,"elson":12064,"Ġexplaining":12065,"Ġposting":12066,"Ġclassified":12067,"Ġgrandmother":12068,"ANT":12069,"ĠConnect":12070,"Ġchecks":12071,"Ġswims":12072,"arthy":12073,"Ġspinning":12074,"ĠÃ¨":12075,"Ġratings":12076,"Ġpsychological":12077,"Ġprosec":12078,"ĠOfficer":12079,"Ġnomination":12080,"Ġmanufacturers":12081,"Ġcongressional":12082,"Ġtexas":12083,"ussels":12084,"Ġencounter":12085,"Ġconspiracy":12086,"ĠMoore":12087,".-":12088,"78":12089,"Bl":12090,"CE":12091,"MB":12092,"MF":12093,"VD":12094,"pot":12095,"papers":12096,"worth":12097,"Ġtam":12098,"Ġtshirt":12099,"Ġoy":12100,"Ġpardon":12101,"Ġlas":12102,"organ":12103,"asa":12104,"icious":12105,"Ġbeings":12106,"Ġstance":12107,"rock":12108,"Ġvague":12109,"ĠPD":12110,"Ġgrip":12111,"Ġpeoples":12112,"Ġblueberry":12113,"Ġboing":12114,"Ġguests":12115,"Ġcoaching":12116,"Ġspiders":12117,"Ġspoken":12118,"Ġscout":12119,"portation":12120,"Ġdrank":12121,"Ġminnie":12122,"odd":12123,"shop":12124,"ãģĮ":12125,"Ġinsult":12126,"Ġviolin":12127,"Ġobjective":12128,"Ġairplanes":12129,"Ġdenim":12130,"Ġneighbors":12131,"ADY":12132,"Ġsmells":12133,"ĠGovernor":12134,"Ġdistricts":12135,"ĠMerkel":12136,"Ġpreferred":12137,"Ġstrategies":12138,"ĠPalestinians":12139,"Ġsacrif":12140,"Ġbrowser":12141,"Ġjuris":12142,"ĠJeremy":12143,"IV":12144,"Qu":12145,"cular":12146,"antern":12147,"onia":12148,"Ġduh":12149,"Ġgab":12150,"Ġhah":12151,"ĠSaf":12152,"Ġgodd":12153,"ĠMetro":12154,"Ġgrilled":12155,"ĠGri":12156,"bery":12157,"onder":12158,"Ġ58":12159,"ĠChange":12160,"ollo":12161,"Ġincent":12162,"Ġwallpaper":12163,"Ġsimba":12164,"Ġpickles":12165,"Ġarts":12166,"Ġkitties":12167,"Ġinsist":12168,"Ġconstitution":12169,"ĠHarvard":12170,"Ġjudging":12171,"flix":12172,"Ġtargeting":12173,"Ġinterviewed":12174,"ropri":12175,"ĠLibrary":12176,"Ġlegislative":12177,"Ġrepeat":12178,"Ġpuppets":12179,"Ġfashioned":12180,"Ġawarded":12181,"ĠBrotherhood":12182,"Ġnewsletter":12183,"Ġtaxpayers":12184,"intendo":12185,"Ġcoconut":12186,"79":12187,"AG":12188,"App":12189,"Well":12190,"di":12191,"ping":12192,"ĠâĤ¬":12193,"Ġwednesday":12194,"Ġbass":12195,"Ġlux":12196,"Ġthorough":12197,"aro":12198,"orr":12199,"orial":12200,"Ġhehe":12201,"htt":12202,"ĠTes":12203,"imore":12204,"olid":12205,"ĠMORE":12206,"ĠBol":12207,"ĠâĢĿ":12208,"Ġgrows":12209,"Ġbold":12210,"ĠGer":12211,"izarre":12212,"ensed":12213,"Ġreminds":12214,"Ġdeserve":12215,"Ġopenly":12216,"Ġcamo":12217,"veless":12218,"ĠAnderson":12219,"Ġnights":12220,"Ġsurge":12221,"Ġinterrog":12222,"Ġmetallic":12223,"Ġowns":12224,"itsu":12225,"ĠLeices":12226,"Ġcollaps":12227,"Ġtransit":12228,"Ġpennies":12229,"Ġlineup":12230,"enders":12231,"Ġparad":12232,"Ġresemb":12233,"Ġsleeveless":12234,"Ġmeasured":12235,"Ġdestination":12236,"Ġfunctional":12237,"Ġreveals":12238,"Ġtourists":12239,"Ġdecoration":12240,"ĠInterest":12241,"Ġcelebration":12242,"Ġcontacted":12243,"Ġspokesperson":12244,"Ġsurvival":12245,"Ġassumed":12246,"Ġtiming":12247,"Ġpunishment":12248,"ĠDanny":12249,"Ġguidelines":12250,"Ġfoil":12251,"Ġsubscrib":12252,"ĠAgainst":12253,"Ġemphasis":12254,"Ġmystery":12255,"Ġgramma":12256,"Ġbureauc":12257,"ĠThings":12258,"Ġsimultaneously":12259,"Ġextraordinary":12260,"ĠTokyo":12261,"De":12262,"EG":12263,"PL":12264,"may":12265,"ynt":12266,"ê°Ģ":12267,"held":12268,"Ġdual":12269,"adow":12270,"Ġstating":12271,"Ġlizard":12272,"Ġshred":12273,"chy":12274,"secut":12275,"ĠCooper":12276,"ĠBab":12277,"ĠBible":12278,"ĠBuff":12279,"Ġbra":12280,"orton":12281,"Ġconvert":12282,"Ġshepherd":12283,"ĠRoss":12284,"ĠFigure":12285,"ĠEASTL":12286,"Ġenfor":12287,"Ġafterwards":12288,"Ġremo":12289,"Ġunderlying":12290,"Ġemp":12291,"Ġchildhood":12292,"Ġkidding":12293,"Ġmarkers":12294,"Ġgreatly":12295,"Ġdefic":12296,"ĠLev":12297,"anche":12298,"ĠAdams":12299,"Ġinspiration":12300,"Ġapproaches":12301,"Ġracism":12302,"ĠChristopher":12303,"Ġautonom":12304,"Ġdeadly":12305,"Ġphysically":12306,"Ġimmun":12307,"ãĤĭ":12308,"Ġarrival":12309,"ĠLiberal":12310,"ĠAssad":12311,"Ġbonus":12312,"Ġreforms":12313,"Ġstruggled":12314,"Ġregistration":12315,"Ġprosecutors":12316,"Ġclinical":12317,"ĠFreedom":12318,"Ġbattles":12319,"Ġdentist":12320,"ĠHenry":12321,"Ġinquir":12322,"ĠCopyright":12323,"Ġpropaganda":12324,"Ġdialogue":12325,"Ġavocado":12326,"Ġbaskets":12327,"Cl":12328,"bur":12329,"bian":12330,"iac":12331,"lib":12332,"piece":12333,"wich":12334,"Ġtatt":12335,"Ġcu":12336,"Ġpussy":12337,"Ġlions":12338,"Ġfate":12339,"orable":12340,"Ġinequality":12341,"amel":12342,"urrent":12343,"Ġforcing":12344,"Ġanne":12345,"ĠCS":12346,"ĠCould":12347,"ĠMess":12348,"Ġchann":12349,"ĠPerry":12350,"quest":12351,"ĠLt":12352,"Ġspanish":12353,"Ġunve":12354,"ĠVery":12355,"Ġ61":12356,"Ġunderwear":12357,"Ġmeanwhile":12358,"Ġsubmitted":12359,"Ġfacial":12360,"ĠClimate":12361,"Ġdiscont":12362,"pending":12363,"icycle":12364,"Ġ250":12365,"Ġtrapped":12366,"umbling":12367,"ATCH":12368,"ĠChristians":12369,"Ġdemonstration":12370,"Ġfloat":12371,"Ġattending":12372,"Ġcriticized":12373,"Ġconcepts":12374,"!!!!":12375,"ĠLawrence":12376,"Ġneighborhoods":12377,"Ġbombing":12378,"Ġoccupied":12379,"Ġobtain":12380,"Ġcheerios":12381,"Ġoblig":12382,"Ġtangled":12383,"Ġafrican":12384,"Ġharassment":12385,"ĠSnowden":12386,"ĠTalib":12387,"Ġsilhouette":12388,"ĠGermans":12389,"ĠLeicester":12390,".]":12391,"pants":12392,"ĠÅ":12393,"Ġtigger":12394,"helf":12395,"ancial":12396,"Ġfires":12397,"arms":12398,"Ġinsect":12399,"etics":12400,"alling":12401,"amy":12402,"Ġmeets":12403,"ĠHo":12404,"ĠHan":12405,"ĠHope":12406,"ĠReds":12407,"ĠLeb":12408,"ĠExt":12409,"Ġrod":12410,"Ġunsc":12411,"ĠThird":12412,"Ġquarters":12413,"Ġhandled":12414,"ĠKin":12415,"ĠKoch":12416,"Ġtreating":12417,"Ġcreatures":12418,"Ġfinishing":12419,"Ġsilent":12420,"ruit":12421,"Ġrefers":12422,"Ġcharity":12423,"Ġsinger":12424,"Ġtransgender":12425,"Ġexpanding":12426,"ĠShould":12427,"Ġinvestments":12428,"Ġbookshelf":12429,"Ġfairy":12430,"ĠText":12431,"linn":12432,"ãĤĴ":12433,"Ġdependent":12434,"Ġshooter":12435,"Ġmaple":12436,"Ġmeaningful":12437,"Ġaims":12438,"Ġribbit":12439,"Ġintegrity":12440,"ĠStephan":12441,"Ġdecker":12442,"Ġacquired":12443,"Ġsailboat":12444,"Ġweakness":12445,"Ġsophistic":12446,"Ġgorge":12447,"Ġdismissed":12448,"Ġshouted":12449,"ĠBrooklyn":12450,"Ġexplosion":12451,"Ġconstitu":12452,"ĠCameron":12453,"âĶĢ":12454,"cu":12455,"Ġbam":12456,"Ġbands":12457,"inite":12458,"Ġciting":12459,"Ġmint":12460,"arium":12461,"ighed":12462,"Ġhedge":12463,"Ġeater":12464,"Ġecosystem":12465,"Ġshrim":12466,"Ġtraged":12467,"istant":12468,"Ġproportion":12469,"ĠEb":12470,"Ġtwins":12471,"ĠThink":12472,"Ġskunk":12473,"Ġpoke":12474,"text":12475,"Ġwatering":12476,"Ġaccus":12477,"Ġpinkish":12478,"Ġflooring":12479,"Ġmissus":12480,"Ġinfant":12481,"Ġfirefight":12482,"Ġbarrette":12483,"Ġsumm":12484,"Ġraises":12485,"ĠSpir":12486,"Ġ1993":12487,"cific":12488,"Ġsentences":12489,"Ġrabbits":12490,"Ġcollecting":12491,"Ġbillions":12492,"ĠLibya":12493,"ĠJean":12494,"Ġdemonstrated":12495,"Ġcooperation":12496,"Ġinnovation":12497,"rophy":12498,"Ġcompensation":12499,"Ġpresumably":12500,"ĠKentucky":12501,"Ġdeemed":12502,"quoise":12503,"ennessee":12504,"73":12505,"700":12506,"Ind":12507,"hol":12508,"mn":12509,"range":12510,"rise":12511,"some":12512,"Ã¨":12513,"ê²":12514,"Ġ~":12515,"Ġcube":12516,"Ġpoured":12517,"Ġhunt":12518,"idance":12519,"ĠTrib":12520,"Ġanc":12521,"olo":12522,"Ġcondu":12523,"ĠFOR":12524,"ĠGun":12525,"ĠGRE":12526,"agen":12527,"ĠLADY":12528,"ĠOcean":12529,"achine":12530,"ucker":12531,"Ġheadquarters":12532,"Ġopio":12533,"Ġsnacks":12534,"Ġwalkway":12535,"ĠLeaf":12536,"Ġconfusion":12537,"Ġengaging":12538,"Ġpiglet":12539,"ĠQB":12540,"ĠTwin":12541,"ĠMarvel":12542,"Ġcaboose":12543,"Ġteenage":12544,"Ġpetition":12545,"Ġjudgment":12546,"Ġtriple":12547,"Ġcopies":12548,"Ġpolling":12549,"Ġvolunt":12550,"fortable":12551,"ynn":12552,"Ġinfluential":12553,"Ġpinch":12554,"ĠRegard":12555,"Ġdispos":12556,"Ġholy":12557,"Ġunfair":12558,"Ġislands":12559,"Ġconcentration":12560,"Ġchaos":12561,"Ġtalented":12562,"ĠPhiladelphia":12563,"Ġprospects":12564,"Ġsavings":12565,"Ġrhin":12566,"Ġdecreased":12567,"Ġwispy":12568,"Ġoccasionally":12569,"Ġdisagree":12570,"Ġdesperate":12571,"Ġaislinn":12572,"Ġdiesel":12573,"Ġdispenser":12574,"ĠBureau":12575,"\")":12576,"VP":12577,"coon":12578,"overs":12579,"yer":12580,"ĠiOS":12581,"Ġdorm":12582,"Ġdull":12583,"Ġmum":12584,"itudes":12585,"Ġgest":12586,"armed":12587,"Ġreck":12588,"aders":12589,"Ġjew":12590,"Ġleash":12591,"inker":12592,"ĠCome":12593,"ĠCub":12594,"ĠCredit":12595,"Ġorn":12596,"ĠBor":12597,"Ġvirgin":12598,"ĠRen":12599,"ĠRap":12600,"ĠRosen":12601,"ĠNSA":12602,"ĠLad":12603,"ĠLiver":12604,"Ġdial":12605,"ĠJud":12606,"grade":12607,"Ġprost":12608,"ocument":12609,"weet":12610,"Ġcompat":12611,"ĠYellow":12612,"Ġinterven":12613,"Ġ74":12614,"Ġassass":12615,"ceptions":12616,"Ġscream":12617,"Ġtransaction":12618,"Ġdrawers":12619,"ĠShar":12620,"coat":12621,"ãģ¨":12622,"Ġinsert":12623,"ĠPhys":12624,"ifty":12625,"Ġelectrical":12626,"ĠNothing":12627,"Ġbankrupt":12628,"Ġtowns":12629,"ĠInstagram":12630,"from":12631,"Ġtempor":12632,"Ġìŀ":12633,"Ġscrews":12634,"ĠEmpire":12635,"ĠConsider":12636,"Ġtaping":12637,"Ġinteractions":12638,"Ġrecruit":12639,"ĠHawaii":12640,"Ġspeculation":12641,"Ġsequence":12642,"Ġcompromise":12643,"Ġexplicitly":12644,"Ġjapanese":12645,"Ġscrambled":12646,"ĠThompson":12647,"Ġbulldozer":12648,"LL":12649,"\\/":12650,"bes":12651,"bows":12652,"fo":12653,"pg":12654,"uity":12655,"Ñĩ":12656,"Ġtents":12657,"Ġpac":12658,"Ġfet":12659,"Ġharn":12660,"Ġgard":12661,"Ġheels":12662,"Ġreign":12663,"Ġrational":12664,"Ġkate":12665,"teria":12666,"inked":12667,"ĠCit":12668,"Ġvine":12669,"Ġabilities":12670,"aha":12671,"Ġdeaf":12672,"ĠRou":12673,"Ġexclud":12674,"Ġlets":12675,"Ġovernight":12676,"Ġcoinc":12677,"arer":12678,"Ġrecy":12679,"Ġvisits":12680,"Ġservers":12681,"Ġlegally":12682,"Ġsecondary":12683,"Ġbasil":12684,"Ġbowling":12685,"Ġblockchain":12686,"Ġprovin":12687,"ancell":12688,"Ġawfully":12689,"Ġadventure":12690,"works":12691,"ĠMrs":12692,"ĠManagement":12693,"ĠObviously":12694,"Ġchoosing":12695,"ĠWithin":12696,"Ġreleases":12697,"Ġconsiderable":12698,"ĠHarris":12699,"Ġdeny":12700,"oids":12701,"Ġbumped":12702,"ĠElizabeth":12703,"Ġcontrollers":12704,"ĠNetflix":12705,"Ġreferences":12706,"ĠArticle":12707,"Ġeditorial":12708,"Ġjunior":12709,"ĠStanley":12710,"Ġexclusively":12711,"Ġaltogether":12712,"Ġterminal":12713,"Ġanxiety":12714,"ìĹĲ":12715,"ĠMedicare":12716,"Ġprotein":12717,"orneys":12718,"Ġforfeiture":12719,"ĠCirc":12720,"etheless":12721,"Ġtremendous":12722,"Ġjurisd":12723,"Ġbureaucr":12724,"âĶĢâĶĢ":12725,"94":12726,"AV":12727,"AIR":12728,"Craft":12729,"Don":12730,"dles":12731,"Ġtil":12732,"Ġtheoret":12733,"ativity":12734,"Ġcens":12735,"eria":12736,"Ġpars":12737,"Ġlisa":12738,"ingle":12739,"itary":12740,"Ġhars":12741,"Ġgy":12742,"aration":12743,"isible":12744,"Ġram":12745,"Ġranging":12746,"Ġstability":12747,"urf":12748,"ĠSel":12749,"Ġleaked":12750,"Ġmeg":12751,"ĠBased":12752,"Ġmanagers":12753,"ĠRT":12754,"ĠUnd":12755,"plex":12756,"ĠKenny":12757,"ĠStat":12758,"ugu":12759,"Ġreserved":12760,"Ġ67":12761,"Ġmargin":12762,"Ġfollowers":12763,"Ġmonitors":12764,"Ġoppose":12765,"Ġappearances":12766,"Ġlessons":12767,"oval":12768,"Ġexamine":12769,"Ġcostumes":12770,"Ġ1992":12771,"Ġwondered":12772,"ĠÂ§":12773,"Ġurged":12774,"ĠCoal":12775,"Ġexecution":12776,"Ġturquoise":12777,"ĠWarren":12778,"Ġbias":12779,"iosity":12780,"Ġsuspects":12781,"Ġignored":12782,"security":12783,"onomic":12784,"Ġeliminate":12785,"Ġprocedures":12786,"Ġisolated":12787,"Ġdynamic":12788,"ĠApollo":12789,"Ġwicker":12790,"Ġbehaviour":12791,"Ġenthusi":12792,")(":12793,"jud":12794,"lu":12795,"mig":12796,"million":12797,"zes":12798,"Ġtale":12799,"Ġsack":12800,"Ġbak":12801,"income":12802,"Ġmisc":12803,"Ġfare":12804,"Ġrookie":12805,"Ġeager":12806,"illo":12807,"Ġoutrage":12808,"ĠNCAA":12809,"ĠGa":12810,"ĠGra":12811,"ĠLes":12812,"ĠOil":12813,"ptr":12814,"thon":12815,"Ġquote":12816,"ĠStaff":12817,"issues":12818,"Ġprobability":12819,"Ġrecount":12820,"Ġstartup":12821,"Ġmeters":12822,"Ġevac":12823,"ĠTrade":12824,"ĠLearn":12825,"ĠAlber":12826,"Ġmarry":12827,"ussion":12828,"Ġexperiments":12829,"Ġgenerations":12830,"Ġstef":12831,"ĠIndones":12832,"2016":12833,"Ġpressed":12834,"Ġerrors":12835,"OND":12836,"ASE":12837,"ĠNeur":12838,"Ġledge":12839,"Ġdigging":12840,"ĠQuest":12841,"ĠSpeaker":12842,"Ġlifted":12843,"Ġsensor":12844,"Ġcrops":12845,"Ġencouraging":12846,"Ġpajama":12847,"Ġmagnet":12848,"celain":12849,"ĠCapital":12850,"Ġrefugee":12851,"Ġseventh":12852,"Ġcertific":12853,"Ġlifetime":12854,"********":12855,"Ġplayoffs":12856,"Ġfascinating":12857,"Ġcontemporary":12858,"Ġaccompan":12859,"ĠBloomberg":12860,"Ġbrilliant":12861,"Ġtoothpaste":12862,"Ġfaucet":12863,"91":12864,"aeda":12865,"cakes":12866,"dam":12867,"pat":12868,"supp":12869,"Â®":12870,"Ġbizarre":12871,"Ġcops":12872,"ington":12873,"itivity":12874,"Ġease":12875,"Ġearl":12876,"iration":12877,"ione":12878,"Ġsting":12879,"Ġstabil":12880,"ĠId":12881,"ĠSense":12882,"ĠSection":12883,"ĠCook":12884,"Ġsoggy":12885,"Ġassembly":12886,"ĠBat":12887,"ĠBase":12888,"Ġoutlets":12889,"Ġcluster":12890,"ĠHud":12891,"ĠDu":12892,"ĠDian":12893,"ĠNic":12894,"Ġguidance":12895,"ĠEarly":12896,"ĠJane":12897,"ĠUFC":12898,"Ġreserv":12899,"rencies":12900,"Ġoldest":12901,"ixon":12902,"mann":12903,"ĠWhatever":12904,"cedented":12905,"Ġinstant":12906,"Ġ95":12907,"Ġimposed":12908,"Ġcupboard":12909,"ĠAlaska":12910,"ĠRepresent":12911,"ĠManager":12912,"Ġsupposedly":12913,"ASS":12914,"Ġdeadline":12915,"Ġsusp":12916,"Ġtanks":12917,"Ġadmission":12918,"Ġemerging":12919,"Ġbeaten":12920,"Ġignor":12921,"bourne":12922,"Ġsquishy":12923,"ĠLiberty":12924,"ĠMPs":12925,"ĠStandard":12926,"Ġuncomfortable":12927,"Ġchannels":12928,"ĠTaliban":12929,"72":12930,"CP":12931,"apping":12932,"burn":12933,"cap":12934,"hard":12935,"hattan":12936,"map":12937,"mble":12938,"Ġot":12939,"Ġdating":12940,"omial":12941,"leading":12942,"usive":12943,"amine":12944,"imb":12945,"ĠSK":12946,"ĠAccess":12947,"ĠAaron":12948,"ilight":12949,"Ġorang":12950,"ĠMaster":12951,"Ġmex":12952,"Ġdelight":12953,"Ġpears":12954,"ĠFather":12955,"ĠFinal":12956,"rypt":12957,"ĠOpp":12958,"Ġpreference":12959,"aval":12960,"Ġcrude":12961,"Ġhugging":12962,"Ġlaurie":12963,"Ġsunshine":12964,"Ġlongest":12965,"Ġlongtime":12966,"Ġstrain":12967,"Ġfuneral":12968,"Ġreliable":12969,"blem":12970,"Ġinstitution":12971,"conf":12972,"ounce":12973,"ĠArctic":12974,"Ġtransmission":12975,"Ġdesigners":12976,"Ġsteady":12977,"Ġchicks":12978,"zza":12979,"Ġmodified":12980,"ĠGraham":12981,"Ġbutterflies":12982,"Ġlogs":12983,"rogen":12984,"Ġtracking":12985,"Ġhonk":12986,"Ġgenes":12987,"Ġopposing":12988,"Ġpolly":12989,"Ġceremony":12990,"Ġinfluenced":12991,"Ġexecutives":12992,"ĠContact":12993,"Ġtuna":12994,"holders":12995,"Ġdimly":12996,"ĠCatal":12997,"ĠLouisiana":12998,"Ġappointment":12999,"ĠRemember":13000,"Ġnickel":13001,"Ġmotivated":13002,"Ġathletes":13003,"Ġmysterious":13004,"Ã³n":13005,"Ġhorizon":13006,"Ġvarying":13007,"Ġupgrade":13008,"Ġoccasional":13009,"Ġstimul":13010,"Ġlucy":13011,"Ġintimid":13012,"93":13013,"DC":13014,"iors":13015,"eros":13016,"Ġdive":13017,"Ġpause":13018,"Ġseized":13019,"osit":13020,"ĠTry":13021,"ĠTax":13022,"imize":13023,"Ġanth":13024,"ĠAzer":13025,"Ġframed":13026,"Ġdonna":13027,"umper":13028,"Ġvoid":13029,"ĠPI":13030,"ĠHospital":13031,"ĠRaj":13032,"Ġpeaches":13033,"ĠEqu":13034,"ĠOx":13035,"ocation":13036,"Ġcontents":13037,"omething":13038,"Ġpopping":13039,"Ġministry":13040,"Ġaccum":13041,"Ġsnort":13042,"Ġregret":13043,"Ġrealistic":13044,"Ġhorrif":13045,"Ġsubtle":13046,"Ġgirafe":13047,"Ġmissions":13048,"Ġprovision":13049,"ĠCloud":13050,"Ġforehead":13051,"Ġsixteen":13052,"ĠProv":13053,"Ġfastest":13054,"Ġorigin":13055,"Ġcabbage":13056,"ĠEditor":13057,"ĠÂ©":13058,"ĠHarper":13059,"ĠCourse":13060,"innati":13061,"Ġdefendant":13062,"incinnati":13063,"ĠMagic":13064,"Ġsymbols":13065,"ĠAdditionally":13066,"ĠKurdish":13067,"ĠCaptain":13068,"ĠEntert":13069,"ĠMotor":13070,"Ġdisagre":13071,"Ġtrolley":13072,"Ġmcdonald":13073,"ĠBiology":13074,"Ġmittens":13075,"Ġwarehouse":13076,"ĠPokÃ©mon":13077,"Ġshrimp":13078,"ĠLiverpool":13079,"71":13080,"Of":13081,"Pr":13082,"Why":13083,"XT":13084,"gs":13085,"hoo":13086,"low":13087,"rators":13088,"Ġsill":13089,"Ġwise":13090,"Ġiter":13091,"amus":13092,"ĠTar":13093,"ĠAward":13094,"ĠCrim":13095,"ĠCPU":13096,"ĠBon":13097,"ahu":13098,"ahoo":13099,"ĠPsych":13100,"ĠRice":13101,"ĠDream":13102,"ĠNak":13103,"ĠGand":13104,"ĠGaza":13105,"ĠLess":13106,"Ġtends":13107,"iflower":13108,"Ġmodu":13109,"ĠKa":13110,"ĠKid":13111,"ailing":13112,"Ġperception":13113,"Ġ59":13114,"Ġpopp":13115,"deep":13116,"Ġempire":13117,"gets":13118,"ebra":13119,"Ġfootprint":13120,"Ġmissile":13121,"Ġlineback":13122,"Ġsummit":13123,"Ġexamined":13124,"Ġnewspapers":13125,"Ġsalmon":13126,"Ġshallow":13127,"ĠImam":13128,"Ġanalys":13129,"Ġknocking":13130,"Ġaffair":13131,"Ġvariation":13132,"Ġvariable":13133,"ĠStein":13134,"Ġdescribing":13135,"Ġtrays":13136,"alties":13137,"Ġregarded":13138,"Ġdoughnuts":13139,"Ġfolding":13140,"Ġfrosted":13141,"Ġfrequent":13142,"ĠMorgan":13143,"Ġintegrated":13144,"Ġsubscribe":13145,"ĠEnterprise":13146,"ĠPolitical":13147,"Getty":13148,"Ġswallow":13149,"Ġcocoa":13150,"Ġbronze":13151,"Ġsaucer":13152,"Ġmodule":13153,"PM":13154,"TM":13155,"bai":13156,"cor":13157,"cht":13158,"card":13159,"eat":13160,"vas":13161,"Ġdizzy":13162,"Ġlulu":13163,"Ġthursday":13164,"Ġfoo":13165,"Ġhosp":13166,"Ġgid":13167,"ishers":13168,"Ġsew":13169,"Ġdolph":13170,"addy":13171,"ĠTa":13172,"ĠTennessee":13173,"ĠSciences":13174,"Ġdonors":13175,"ĠMother":13176,"Ġplum":13177,"Ġva":13178,"Ġvent":13179,"Ġabund":13180,"Ġaboard":13181,"Ġoutlined":13182,"ĠPo":13183,"ĠPict":13184,"Ġbackside":13185,"Ġpending":13186,"quer":13187,"being":13188,"Ġcoup":13189,"Ġimpr":13190,"Ġcolin":13191,"ulti":13192,"onsense":13193,"ixed":13194,"Ġpreserve":13195,"Ġrunner":13196,"azor":13197,"lando":13198,"Ġcafe":13199,"Ġrequiring":13200,"2013":13201,"ronics":13202,"Ġexamination":13203,"Ġformally":13204,"Ġreasonably":13205,"Ġtraded":13206,"ttes":13207,"Ġlabels":13208,"Ġamongst":13209,"ĠDrug":13210,"Ġutter":13211,"Ġpollution":13212,"Ġdepression":13213,"ĠMusic":13214,"Ġblend":13215,"Ġcommentary":13216,"Ġtweets":13217,"Ġcapitalism":13218,"ĠStarCraft":13219,"Ġtourist":13220,"Ġspectrum":13221,"Ġpleasant":13222,"Ġattractive":13223,"Ġpromotion":13224,"Ġheroes":13225,"Ġcrawling":13226,"________________":13227,"keeper":13228,"Ġdeployed":13229,"Ġsparse":13230,"ĠSioux":13231,"76":13232,"Br":13233,"LC":13234,"sa":13235,"vory":13236,"Ġyo":13237,"ndy":13238,"Ġhier":13239,"eting":13240,"usalem":13241,"otch":13242,"acker":13243,"Ġjihad":13244,"abs":13245,"ĠCe":13246,"Ġassemb":13247,"ĠBey":13248,"Ġbrid":13249,"Ġtrump":13250,"Ġgraham":13251,"ĠRow":13252,"ĠFind":13253,"ĠNep":13254,"Ġguards":13255,"assador":13256,"ĠEmer":13257,"Ġspencer":13258,"Ġcontrary":13259,"Ġperm":13260,"phant":13261,"Ġeligible":13262,"Ġspeeds":13263,"Ġ68":13264,"ĠUnivers":13265,"ĠAssembly":13266,"Ġevident":13267,"ĠRecent":13268,"ĠAli":13269,"commun":13270,"Ġproduces":13271,"Ġcaution":13272,"ĠHoward":13273,"Ġpromising":13274,"Ġhealthcare":13275,"ĠGray":13276,"Ġoccurs":13277,"ĠMycroft":13278,"Ġrepresenting":13279,"ettle":13280,"ĠMoreover":13281,"Ġintelligent":13282,"Ġdecorated":13283,"Ġtrials":13284,"Ġexercises":13285,"Ġappliances":13286,"Ġstretched":13287,"Ġshells":13288,"ĠOlympics":13289,"ĠEgyptian":13290,"ĠJonathan":13291,"Ġguaranteed":13292,"Ġcollaboration":13293,"Trump":13294,"senal":13295,"Ġkilomet":13296,"Ġpregnant":13297,"latex":13298,"leenex":13299,"ĠEntertainment":13300,"UP":13301,"ëı":13302,"Ġâ":13303,"Ġcrop":13304,"ouched":13305,"Ġdora":13306,"Ġmashed":13307,"Ġrit":13308,"irls":13309,"Ġweh":13310,"Ġbloom":13311,"Ġjets":13312,"Ġkleenex":13313,"ĠSet":13314,"about":13315,"ilateral":13316,"gel":13317,"olph":13318,"Ġsuite":13319,"Ġalliance":13320,"Ġoutta":13321,"arts":13322,"ĠHum":13323,"Ġbackdrop":13324,"ĠRun":13325,"ĠGary":13326,"ĠLocal":13327,"Ġarbit":13328,"Ġcopper":13329,"arettes":13330,"iva":13331,"ubby":13332,"ĠStew":13333,"Ġinvisible":13334,"Ġrestr":13335,"Ġrestore":13336,"Ġcourses":13337,"Ġparks":13338,"Ġcaul":13339,"Ġdesigner":13340,"Ġ''":13341,"chers":13342,"Ġloaf":13343,"Ġjoey":13344,"Ġorganic":13345,"ĠPlace":13346,"Ġtradem":13347,"Ġraccoon":13348,"ublin":13349,"Ġproductivity":13350,"Ġpanic":13351,"Ġdominated":13352,"Ġexceptions":13353,"Ġpoorly":13354,"Ġpainful":13355,"Ġperiods":13356,"Ġassociate":13357,"Ġsafely":13358,"Ġdispute":13359,"Ġspokeswoman":13360,"Ġcommunicate":13361,"ĠModel":13362,"ĠEvans":13363,"Ġporcelain":13364,"Ġarranged":13365,"Ġpudding":13366,"Ġadvocate":13367,"Ġwashington":13368,"Ġwitnesses":13369,"helle":13370,"Ġsubsequently":13371,"Ġprecisely":13372,"Ġcucumbers":13373,"Ġprofessionals":13374,"Ġnineteen":13375,"Ġcomprehensive":13376,"Ġcafeter":13377,"Ġgoddess":13378,"Ġharness":13379,"92":13380,"Just":13381,"ders":13382,"fi":13383,"half":13384,"uating":13385,"·¸":13386,"Ġtheft":13387,"anke":13388,"Ġdil":13389,"Ġdated":13390,"ndall":13391,"Ġfails":13392,"uting":13393,"uture":13394,"Ġheel":13395,"Ġbecky":13396,"Ġstd":13397,"urches":13398,"ĠIsh":13399,"chron":13400,"ctuary":13401,"ĠMust":13402,"ĠBattle":13403,"Ġchains":13404,"ahn":13405,"ĠPul":13406,"ĠPentagon":13407,"Ġclunk":13408,"ĠNut":13409,"ĠEPA":13410,"izon":13411,"Ġflick":13412,"grad":13413,"Ġcomposed":13414,"Ġpoet":13415,"Ġheadphones":13416,"Ġslot":13417,"formed":13418,"Ġ81":13419,"Ġairline":13420,"Ġrefuse":13421,"ĠAlice":13422,"ĠDeath":13423,"Ġconfusing":13424,"Ġawk":13425,"Ġdemo":13426,"ĠPrin":13427,"Ġexpecting":13428,"Ġsinks":13429,"oxide":13430,"Ġeighteen":13431,"INK":13432,"ĠGuide":13433,"Ġscrut":13434,"value":13435,"Ġbelle":13436,"Ġcomplained":13437,"ãĤĮ":13438,"Ġvolat":13439,"Ġtexts":13440,"Ġskateboarder":13441,"ĠParker":13442,"Ġpleasure":13443,"truck":13444,"Ġturtles":13445,"ÐµÐ":13446,"ipples":13447,"Ġadopt":13448,"Ġaccomplish":13449,"Ġaccomplished":13450,"Ġanonymous":13451,"Ġwaffle":13452,"Ġcorrelation":13453,"Ġexchanges":13454,"Ġnoodle":13455,"ĠAbbott":13456,"ĠCraig":13457,"ĠGriff":13458,"ĠTesla":13459,"secutive":13460,"Ġgiddy":13461,"Ġcafeteria":13462,"130":13463,"Now":13464,"Yes":13465,"bin":13466,"eh":13467,"mill":13468,"pace":13469,"uah":13470,"zed":13471,"ì§":13472,"herence":13473,"Ġssh":13474,"Ġdre":13475,"Ġlump":13476,"Ġkm":13477,"ĠAk":13478,"ersion":13479,"oren":13480,"ĠMap":13481,"Ġchamber":13482,"ĠHide":13483,"rians":13484,"ĠDav":13485,"beat":13486,"ĠOz":13487,"Ġgreenhouse":13488,"uburn":13489,"week":13490,"Ġgirlfriend":13491,"ĠCha":13492,"note":13493,"Ġendors":13494,"Ġincons":13495,"Ġinterface":13496,"Ġpossess":13497,"Ġswitched":13498,"ĠTrust":13499,"Ġpulls":13500,"Ġcounters":13501,"Ġgeneric":13502,"ĠBlood":13503,"Ġfreeze":13504,"Ġmothers":13505,"ĠProgress":13506,"ĠProduct":13507,"ĠOrleans":13508,"Ġpractically":13509,"Ġantique":13510,"Ġpaintings":13511,"player":13512,"Ġcooler":13513,"Ġsignificance":13514,"Ġprinting":13515,"Ġ1975":13516,"Ġindication":13517,"Ġmurky":13518,"spread":13519,"Ġbicycles":13520,"ĠEverything":13521,"ĠPatri":13522,"Ġbriefly":13523,"Ġearthqu":13524,"ĠArabic":13525,"ĠTyndall":13526,"Ġstems":13527,"ĠAtlanta":13528,"ENTER":13529,"written":13530,"Ġarrangement":13531,"Ġaqua":13532,"Ġmarginal":13533,"Ġinevitable":13534,"Ġbamboo":13535,"ĠJerusalem":13536,"ĠHitler":13537,"ĠBruce":13538,"Ġenhance":13539,"Ġhorizontal":13540,"Ġtragedy":13541,"Ġcauliflower":13542,"250":13543,"PH":13544,"Up":13545,"km":13546,"watch":13547,"recedented":13548,"Ġmature":13549,"eness":13550,"Ġinaug":13551,"alysis":13552,"ĠTour":13553,"Ġker":13554,"ĠSom":13555,"stan":13556,"store":13557,"Ġbru":13558,"Ġvib":13559,"ĠPop":13560,"Ġknot":13561,"Ġovers":13562,"ĠJerry":13563,"Ġprest":13564,"ĠKl":13565,"Ġresidence":13566,"Ġresolve":13567,"Ġcleared":13568,"Ġdrain":13569,"Ġaccord":13570,"Ġcommander":13571,"ĠAndre":13572,"Ġreluct":13573,"Ġmarker":13574,"underst":13575,"Ġviewing":13576,"Ġinfection":13577,"party":13578,"Ġfiling":13579,"Ġorganis":13580,"ĠOrlando":13581,"ĠCommon":13582,"ARD":13583,"ĠCentury":13584,"Ġìķ":13585,"Ġrespondents":13586,"Ġrespected":13587,"Ġbleachers":13588,"Ġbloody":13589,"Ġgeese":13590,"Ġrequirement":13591,"Ġrecommendations":13592,"ĠOverall":13593,"Ġugh":13594,"two":13595,"Ġrestricted":13596,"Ġunprecedented":13597,"OOD":13598,"Ġvenue":13599,"Ġelevator":13600,"ĠOttawa":13601,"Ġtropical":13602,"Ġsophisticated":13603,"('":13604,"bull":13605,"bons":13606,"cope":13607,"rons":13608,"Ġtapes":13609,"hered":13610,"Ġsip":13611,"Ġwound":13612,"erning":13613,"Ġyarn":13614,"Ġthri":13615,"Ġinex":13616,"lem":13617,"Ġbeaver":13618,"Ġstair":13619,"amer":13620,"ĠTel":13621,"Ġjay":13622,"Ġjane":13623,"ĠSty":13624,"aba":13625,"ĠCincinnati":13626,"ĠBarn":13627,"Ġoutcomes":13628,"ĠHE":13629,"ĠHoly":13630,"istol":13631,"akota":13632,"ĠNash":13633,"ĠNiger":13634,"ĠGh":13635,"ĠGos":13636,"Ġbabe":13637,"Ġpermit":13638,"phy":13639,"Ġpoin":13640,"Ġslipped":13641,"ĠVill":13642,"Ġembed":13643,"oded":13644,"Ġinterrupt":13645,"cedes":13646,"Ġ73":13647,"Ġgameplay":13648,"Ġcupcakes":13649,"aji":13650,"Ġsorta":13651,"ĠUSC":13652,"ãģ§":13653,"Ġmodest":13654,"ĠManhattan":13655,"Ġperformances":13656,"aukee":13657,"Ġpublish":13658,"Ġmomentum":13659,"Ġaccessible":13660,"Ġcomplain":13661,"Ġ1986":13662,"Ġ1989":13663,"limited":13664,"Ġsqueez":13665,"Ġreflecting":13666,"Ġrebels":13667,"ĠKeith":13668,"Ġhooked":13669,"Ġê·¸":13670,"ĠSheriff":13671,"Ġmigration":13672,"Ġquantity":13673,"ĠElectric":13674,"borne":13675,"Ġmanufacturer":13676,"Ġprompted":13677,"Ġspanking":13678,"Ġembrace":13679,"Ġpirate":13680,"Ġcreepy":13681,"Ġdiplomatic":13682,"Ġplacemat":13683,"ĠOccupy":13684,"ĠTaiwan":13685,"ancellor":13686,"Ġaccompanied":13687,"Go":13688,"IF":13689,"ME":13690,"Mar":13691,"cus":13692,"tails":13693,"western":13694,"¸°":13695,"Ã¥":13696,"Ġtul":13697,"Ġave":13698,"Ġsessions":13699,"Ġyall":13700,"Ġpy":13701,"Ġreind":13702,"Ġriot":13703,"Ġanch":13704,"ĠIV":13705,"ĠSE":13706,"ĠCa":13707,"ĠCorn":13708,"Ġchris":13709,"ĠPAC":13710,"Ġdeed":13711,"Ġconsecutive":13712,"ĠWright":13713,"ĠHaven":13714,"estyle":13715,"ĠRah":13716,"nty":13717,"ĠLi":13718,"Ġshirtless":13719,"fferent":13720,"Ġscales":13721,"cco":13722,"ective":13723,"Ġneedle":13724,"Ġthrows":13725,"Ġrecalled":13726,"Ġdeserves":13727,"ollar":13728,"psy":13729,"Ġdrip":13730,"Ġ800":13731,"Ġcapabilities":13732,"Ġsubmit":13733,"ĠFriend":13734,"breaking":13735,"Ġcorrupt":13736,"glect":13737,"Ġinvested":13738,"coins":13739,"Ġeconomics":13740,"ĠPhone":13741,"Ġdescript":13742,"Ġbanging":13743,"strong":13744,"Ġcircuit":13745,"Ġrobust":13746,"IDE":13747,"Ġbouncy":13748,"Ġdocumentary":13749,"Ġordin":13750,"Ġattracted":13751,"ĠMagazine":13752,"Ġwrapping":13753,"Ġoccupation":13754,"ĠBetween":13755,"ĠAuto":13756,"Ġhouseholds":13757,"Ġhabitat":13758,"Ġreconst":13759,"Ġbrutal":13760,"ĠLeonard":13761,"Ġpreparation":13762,"ĠOakland":13763,"Ġsquatting":13764,"Ġancest":13765,"ëıĦ":13766,"GS":13767,"MAN":13768,"chest":13769,"fy":13770,"iated":13771,"rust":13772,"whe":13773,"waukee":13774,"Äį":13775,"äº":13776,"Ġawards":13777,"Ġsang":13778,"Ġdick":13779,"Ġandy":13780,"Ġinbox":13781,"edia":13782,"accept":13783,"Ġrene":13784,"Ġew":13785,"Ġdod":13786,"ĠTan":13787,"ĠCas":13788,"ando":13789,"Ġdonation":13790,"ĠBah":13791,"Ġalley":13792,"Ġpeer":13793,"ĠDuke":13794,"ĠLD":13795,"grown":13796,"Ġmidnight":13797,"hedral":13798,"Ġdarkness":13799,"Ġheadboard":13800,"ĠVlad":13801,"Ġcapability":13802,"azines":13803,"Ġsandwhich":13804,"Ġbunches":13805,"ethod":13806,"Ġhummus":13807,"Ġtommy":13808,"Ġtechnically":13809,"Ġreceives":13810,"Ġexpects":13811,"Ġviolated":13812,"ĠPoland":13813,"Ġdefending":13814,"Ġcrowds":13815,"Ġruin":13816,"ĠPeace":13817,"Ġtraveled":13818,"Ġrespective":13819,"Ġgeomet":13820,"ĠRichards":13821,"Ġmagnets":13822,"Ġadoption":13823,"Ġcoordinator":13824,"Ġconstructed":13825,"Ġparameters":13826,"gregation":13827,"Ġaveraged":13828,"Ġrivals":13829,"Ġcocaine":13830,"Ġlollip":13831,"Ġbakery":13832,"DN":13833,"URE":13834,"cup":13835,"opp":13836,"Ġtes":13837,"Ġtoug":13838,"Ġsab":13839,"Ġbake":13840,"Ġbulk":13841,"inch":13842,"Ġlondon":13843,"Ġfount":13844,"Ġfisher":13845,"Ġhatch":13846,"Ġgene":13847,"arios":13848,"idi":13849,"adada":13850,"Ġweas":13851,"terror":13852,"Ġlemons":13853,"ĠCond":13854,"ĠCON":13855,"ĠCrit":13856,"Ġorbit":13857,"ĠBenn":13858,"Ġtrap":13859,"Ġvalley":13860,"Ġvocal":13861,"Ġupwards":13862,"Ġabol":13863,"ĠHand":13864,"ĠRest":13865,"Ġbrowns":13866,"Ġoverd":13867,"inea":13868,"Ġintr":13869,"icts":13870,"Ġmakeup":13871,"ulty":13872,"ĠKer":13873,"ĠKell":13874,"ĠStorm":13875,"Ġbetty":13876,"ools":13877,"Ġkeen":13878,"Ġdrought":13879,"Ġsniff":13880,"Ġdrift":13881,"Ġconsent":13882,"Ġwaited":13883,"ĠBrandon":13884,"ribly":13885,"ĠDeep":13886,"Ġpossibilities":13887,"Ġdevelopments":13888,"Ġadvent":13889,"Ġbarrier":13890,"Ġcourtesy":13891,"Ġmagazines":13892,"ĠGrant":13893,"Ġlistened":13894,"eges":13895,"Ġcriteria":13896,"Ġcrystal":13897,"Ġprotective":13898,"Ġinvestigated":13899,"ĠSeason":13900,"Ġabsent":13901,"Ġearning":13902,"ĠSteel":13903,"Ġeducational":13904,"clusive":13905,"OSS":13906,"Ġmelted":13907,"Ġspreading":13908,"ĠCheney":13909,"ĠGlass":13910,"Ġkiller":13911,"UST":13912,"Ġregulatory":13913,"ĠMalays":13914,"ĠCanadians":13915,"ĠCrime":13916,"ĠArea":13917,"ermont":13918,"Ġpowdered":13919,"Ġveggie":13920,"ĠMississippi":13921,"Ġplugin":13922,"Ġbombs":13923,"ĠLincoln":13924,"ĠSubsc":13925,"Ġtransformed":13926,"Ġinitiatives":13927,"Ġfolk":13928,"Ġdramatically":13929,"Ġoverwhelming":13930,"Ġsearched":13931,"Ġduties":13932,"ĠBaltimore":13933,"minded":13934,"Ġluxury":13935,"ĠLeban":13936,"77":13937,"84":13938,"Hz":13939,"OD":13940,"Pass":13941,"fers":13942,"oj":13943,"uccess":13944,"ìŀ":13945,"Ġtidy":13946,"Ġivory":13947,"rele":13948,"inished":13949,"Ġcinem":13950,"Ġponies":13951,"Ġlitt":13952,"Ġfurry":13953,"Ġhuckle":13954,"Ġnib":13955,"isive":13956,"omy":13957,"Ġreass":13958,"Ġbeet":13959,"Ġseiz":13960,"ĠToy":13961,"Ġliver":13962,"ĠSessions":13963,"ĠCB":13964,"Ġdonations":13965,"ĠMana":13966,"Ġbrian":13967,"Ġtrips":13968,"Ġchilly":13969,"Ġgrace":13970,"ĠDue":13971,"ĠNap":13972,"ĠNex":13973,"ivan":13974,"Ġmomm":13975,"ported":13976,"Ġ1920":13977,"Ġ1930":13978,"Ġbreathing":13979,"Ġcountless":13980,"odge":13981,"Ġbedspread":13982,"ĠWear":13983,"Ġ82":13984,"Ġairlines":13985,"eez":13986,"ĠShield":13987,"Ġforefront":13988,"Ġpaste":13989,"2012":13990,"ãģ£":13991,"Ġapproaching":13992,"ĠConferences":13993,"appropri":13994,"Ġreleasing":13995,"Ġmilitants":13996,"Ġauthent":13997,"ĠCode":13998,"Ġdisplays":13999,"Ġcasting":14000,"Ġdeparture":14001,"Ġverb":14002,"ĠSimilarly":14003,"Ġfatal":14004,"Ġwetsuits":14005,"Ġpalace":14006,"Ġalternatives":14007,"ĠAPI":14008,"Ġranking":14009,"Ġgifts":14010,"Ġaffordable":14011,"Ġphotographs":14012,"Ġseventeen":14013,"Ġsweaters":14014,"Ġpraised":14015,"Ġrenewable":14016,"Ġexhibit":14017,"ĠVictor":14018,"escope":14019,"ĠAzerbai":14020,"->":14021,"CAD":14022,"city":14023,"jamin":14024,"park":14025,"Ġtug":14026,"Ġtuesday":14027,"Ġtissues":14028,"Ġsar":14029,"Ġbip":14030,"erick":14031,"Ġdw":14032,"Ġlass":14033,"Ġluke":14034,"Ġmoose":14035,"Ġhike":14036,"orig":14037,"igo":14038,"Ġbeast":14039,"Ġray":14040,"Ġrushed":14041,"Ġsem":14042,"amins":14043,"urities":14044,"Ġnotably":14045,"Ġjer":14046,"stop":14047,"ĠBuilding":14048,"Ġbrands":14049,"Ġtricycle":14050,"ĠWant":14051,"ĠWolf":14052,"riages":14053,"ĠRonald":14054,"Ġsafer":14055,"ĠGene":14056,"Ġoverh":14057,"ĠEss":14058,"Ġappet":14059,"Ġdiving":14060,"Ġcarol":14061,"Ġcolour":14062,"ĠInside":14063,"Ġdisabled":14064,"obi":14065,"Ġ69":14066,"ĠAndy":14067,"Ġassists":14068,"Ġsimilarly":14069,"century":14070,"comp":14071,"Ġhumpty":14072,"Ġpolitician":14073,"Ġavail":14074,"ĠZak":14075,"oleum":14076,"Ġoperational":14077,"ĠNev":14078,"Ġfingerna":14079,"Ġreplacing":14080,"Ġcycles":14081,"Ġrepresentation":14082,"Ġfunctionality":14083,"check":14084,"Ġlifting":14085,"ĠSimon":14086,"ĠNether":14087,"Ġprosper":14088,"Ġderived":14089,"Ġwhisper":14090,"Ġstruggles":14091,"Ġhomosexual":14092,"Ġreminded":14093,"ĠWildstein":14094,"Ġincorrect":14095,"Ġpenguins":14096,"ĠHunter":14097,"Ġcigarettes":14098,"ĠAdvanced":14099,"arette":14100,"Ġ\\(":14101,"Ġamendment":14102,"ĠSudan":14103,"ìĦľ":14104,"ĠNobel":14105,"UC":14106,"aq":14107,"aque":14108,"founder":14109,"ipt":14110,"Ġapril":14111,"Ġoxy":14112,"Ġdun":14113,"Ġpi":14114,"Ġwha":14115,"isp":14116,"Ġhesit":14117,"adi":14118,"Ġstats":14119,"aman":14120,"amous":14121,"uroy":14122,"ĠTam":14123,"ĠTef":14124,"imir":14125,"ĠSD":14126,"chio":14127,"ĠAz":14128,"olving":14129,"ĠCustom":14130,"ĠMas":14131,"ĠBIG":14132,"Ġvoc":14133,"Ġvamp":14134,"ĠPed":14135,"Ġknit":14136,"ĠHamps":14137,"ĠRab":14138,"Ġhash":14139,"ĠDJ":14140,"ĠNature":14141,"ĠEC":14142,"ĠEth":14143,"ĠJets":14144,"acts":14145,"ressing":14146,"Ġcontrad":14147,"wegian":14148,"hester":14149,"Ġtreasure":14150,"Ġcheaper":14151,"athon":14152,"Ġattorneys":14153,"Ġcorners":14154,"ĠAlmost":14155,"Ġ120":14156,"Ġexploring":14157,"Ġdemol":14158,"ĠIndians":14159,"Ġtestified":14160,"ĠConvention":14161,"ĠSpider":14162,"ĠMarine":14163,"former":14164,"ventions":14165,"Ġlogos":14166,"Ġharvest":14167,"Ġsidewalks":14168,"ĠEdwards":14169,"Ġdefeats":14170,"Ġbeneficial":14171,"ĠNeed":14172,"Ġexisted":14173,"Ġdestro":14174,"Ġacceptance":14175,"Ġindicating":14176,"Ġtorso":14177,"Ġmaintaining":14178,"Ġreflects":14179,"ĠIntel":14180,"Ġcontrolling":14181,"Ġroutes":14182,"Ġscenarios":14183,"ìĿĦ":14184,"Ġleafy":14185,"Ġsnail":14186,"Ġsatisfied":14187,"Ġlinoleum":14188,"olitical":14189,"Ġcheeks":14190,"Ġnewsletters":14191,"Ġobservations":14192,"Ġpopsicle":14193,"Ġoccasions":14194,"ĠJavaScript":14195,"ĠEnvironmental":14196,"ĠWikipedia":14197,"Ġfierce":14198,"83":14199,"BM":14200,"Cha":14201,"ais":14202,"pad":14203,"piring":14204,"sub":14205,"zels":14206,"Ġbax":14207,"atism":14208,"Ġps":14209,"Ġthump":14210,"Ġfencing":14211,"itative":14212,"Ġnancy":14213,"Ġga":14214,"Ġinherent":14215,"Ġrex":14216,"ights":14217,"Ġliam":14218,"Ġjars":14219,"Ġjingle":14220,"Ġkettle":14221,"ĠAmy":14222,"Ġlend":14223,"Ġleopard":14224,"ceeds":14225,"opot":14226,"ĠMaine":14227,"Ġchili":14228,"Ġviable":14229,"Ġupward":14230,
[...]
