!
"
#
$
%
&
'
(
)
*
+
,
-
.
/
0
1
2
3
4
5
6
7
8
9
:
;
<
=
>
?
@
A
B
C
D
E
F
G
H
I
J
K
L
M
N
O
P
Q
R
S
T
U
V
W
X
Y
Z
[
\
]
^
_
`
a
b
c
d
e
f
g
h
i
j
k
l
m
n
o
p
q
r
s
t
u
v
w
x
y
z
{
|
}
~
¡
¢
£
¤
¥
¦
§
¨
©
ª
«
¬
®
¯
°
±
²
³
´
µ
¶
·
¸
¹
º
»
¼
½
¾
¿
À
Á
Â
Ã
Ä
Å
Æ
Ç
È
É
Ê
Ë
Ì
Í
Î
Ï
Ð
Ñ
Ò
Ó
Ô
Õ
Ö
×
Ø
Ù
Ú
Û
Ü
Ý
Þ
ß
à
á
â
ã
ä
å
æ
ç
è
é
ê
ë
ì
í
î
ï
ð
ñ
ò
ó
ô
õ
ö
÷
ø
ù
ú
û
ü
ý
þ
ÿ
Ā
ā
Ă
ă
Ą
ą
Ć
ć
Ĉ
ĉ
Ċ
ċ
Č
č
Ď
ď
Đ
đ
Ē
ē
Ĕ
ĕ
Ė
ė
Ę
ę
Ě
ě
Ĝ
ĝ
Ğ
ğ
Ġ
ġ
Ģ
ģ
Ĥ
ĥ
Ħ
ħ
Ĩ
ĩ
Ī
ī
Ĭ
ĭ
Į
į
İ
ı
Ĳ
ĳ
Ĵ
ĵ
Ķ
ķ
ĸ
Ĺ
ĺ
Ļ
ļ
Ľ
ľ
Ŀ
ŀ
Ł
ł
Ń
Ġt
he
Ġa
Ġi
Ġs
re
Ġw
Ġthe
Ġo
Ġb
in
at
Ġc
ou
Ġ.
an
er
Ġy
on
Ġd
Ġp
Ġl
Ġm
es
nd
Ġth
Ġ?
ing
Ġf
it
Ġh
ll
Ġn
Ġto
Ġg
ar
or
en
Ġyou
Ġit
Ġand
Ġin
ed
Ġwh
is
Ġno
Ġof
om
le
's
Ġis
ay
as
Ġon
ow
ic
Ġthat
oo
ig
ac
ut
et
Ġhe
al
id
Ġre
us
ve
Ġbe
Ġr
ĠĊ
Ġe
Ġse
âĢ
Ġcan
ke
ir
ot
't
ht
Ġdo
ion
ad
ight
Ġwe
ld
Ġwhat
Ġare
ent
ver
ly
Ġst
ack
os
Ġsee
ook
all
am
Ġbl
ith
ur
ĠT
Ġli
ite
Ġwith
Ġu
Ġnot
Ġfor
Ġthere
Ġyes
im
Ġha
Ġ1
Ġan
Ġlook
ell
Ġj
Ġsh
ĠI
ome
Ġk
her
Ġwhite
Ġlike
ĠS
ro
ter
ch
Ġthis
se
ĠA
Ġle
ant
Ġthey
ct
Ġright
Ġgo
Ġfr
ce
âĢĻ
ab
ers
ust
il
ink
ge
pp
Ġat
ol
Ġbut
Ġhave
ĠC
ie
and
Ġ2
own
Ġsu
ill
op
st
Ġdon
Ġwas
ould
ore
Ġor
Ġso
Ġwhe
Ġas
ĠM
ain
Ġoh
Ġtell
Ġme
Ġye
Ġpl
ue
Ġne
Ġblack
ft
ĠB
Ġbr
ation
Ġyour
Ġtr
Ġch
um
Ġjust
out
ood
Ġsome
ĠThe
ate
Ġone
Ġthink
un
Ġall
Ġok
ul
Ġv
Ġokay
Ġup
Ġab
Ġlooks
ah
ally
ap
ĠâĢ
ide
Ġout
ĠP
art
ind
Ġcl
Ġde
ard
ort
ound
Ġhere
Ġcon
itt
Ġleft
ck
Ġshe
Ġal
ĠW
Ġhis
Ġkn
ff
ake
Ġfrom
Ġman
Ġgr
ess
ĠH
est
ri
Ġdid
na
ist
Ġback
very
res
Ġcom
Ġpro
pe
ĠR
Ġhas
're
Ġgre
Ġyeah
Ġby
Ġwho
Ġpe
Ġwant
nt
ast
ĠD
Ġget
ther
Ġ!
Ġabout
ak
em
ive
ĠF
one
Ġknow
Ġsa
Ġblue
ies
Ġex
Ġsay
irt
Ġwhere
qu
el
Ġmay
ost
Ġred
ĠN
ose
Ġbrown
ice
Ġbo
oug
Ġthem
hing
ure
be
Ġ(
Ġput
ity
ĠG
Ġother
Ġmore
ag
ĠL
ment
Ġus
Ġlet
ame
Ġwould
ark
Ġdoes
ĠâĢľ
Ġar
ick
âĢĿ
ong
red
Ġover
Ġgu
Ġ3
ople
ittle
Ġher
Ġany
ep
Ġgood
Ġwor
dy
Ġhow
Ġlittle
Ġvery
ass
Ġpeople
ars
ĠE
Ġwill
Ġoff
ry
Ġplay
our
ĠO
ime
Ġnow
Ġ20
ine
ich
age
Ġco
Ġ"
ra
Ġmaybe
ont
able
Ġbot
Ġonly
ib
Ġsp
Ġmy
Ġfe
Ġsaid
ough
Ġtoo
iz
Ġif
ud
ans
Ġdown
ber
Ġte
are
Ġtheir
Ġgreen
onna
Ġpart
Ġthan
ace
Ġapp
Ġwell
Ġro
Ġdi
ĠJ
Ġgonna
Ġint
use
ci
Ġreally
Ġshirt
Ġwere
Ġad
ild
ven
Ġbu
Ġtw
'll
Ġfl
Ġbec
Ġhim
Ġbig
ĠU
Ġag
ater
Ġday
ict
Ġsm
ous
Ġwhen
ffe
ond
side
ase
ause
erson
Ġcould
Ġhad
Ġgoing
gr
way
ish
Ġcar
ign
Ġpre
Ġtop
Ġcou
'm
ors
Ġgir
pt
air
Ġpr
Ġguy
act
Ġcome
pl
ings
ile
Ġsc
ree
ions
Ġen
iv
Ġwhich
Ġ4
if
Ġun
Ġperson
av
Ġsure
ple
ub
th
Ġmake
cc
ellow
Ġim
Ġfar
Ġtime
so
my
oss
ang
00
Ġmo
other
Ġwom
Ġbecause
ĠTh
Ġcol
Ġgot
ance
Ġcr
alk
ult
Ġyellow
Ġqu
Ġthen
ĠIn
ange
Ġmom
ress
oc
ip
Ġnew
ach
day
ia
Ġfront
ated
ty
Ġhand
mer
ny
ĠK
Ġtwo
uck
Ġbeen
og
Ġcont
ord
Ġits
Ġhu
omet
Ġlight
ect
Ġway
Ġbott
Ġph
cl
ail
urn
Ġread
fter
ĠSt
Ġwork
Ġlot
Ġsk
Ġmid
old
Ġah
per
ence
anna
we
Ġgirl
irst
ock
ary
ale
orn
Ġneed
Ġbab
ens
Ġwanna
Ġsomet
ug
Ġmost
Ġper
Ġ5
Ġtake
Ġthese
int
Ġsmall
ible
orm
Ġthose
Ġbet
ire
les
Ġkind
Ġhard
Ġund
ull
Ġgl
Ġalso
up
ial
Ġstand
Ġres
Ġinto
ian
ade
Ġdis
Ġpict
Ġbook
Ġthr
Ġcle
Ġwhy
ouse
dle
Ġcat
ph
Ġeat
Ġfirst
Ġaround
Ġside
Ġwoman
Ġbaby
Ġafter
Ġmany
Ġhel
Ġact
ting
iss
Ġcomp
Ġprob
Ġagain
Ġtable
Ġpo
ĠIt
ical
Ġmommy
bo
Ġdoing
Ġshould
hed
ory
Ġsomething
Ġshow
ove
Ġrem
Ġdark
Ġboy
ground
ons
ool
Ġel
Ġ0
ĠY
Ġbus
te
Ġbottom
Ġour
ren
Ġla
Ġrec
Ġam
uch
ations
Ġ-
Ġsun
Ġlong
Ġhuh
Ġwr
Ġhapp
Ġhead
ving
port
Ġbuild
ĠHe
Ġdad
ĠCh
Ġspe
Ġaway
ants
Ġ201
Ġvis
not
Ġanother
Ġpol
Ġsl
hes
Ġop
Ġele
Ġtre
aring
rent
Ġpicture
xt
Ġwater
Ġcolor
ump
ms
Ġdog
Ġcall
Ġappe
Ġevery
Ġold
Ġbackground
Ġmiddle
Ġche
Ġhm
Ġshort
Ġclose
ĠV
Ġdoesn
fe
ave
de
Ġchair
Ġbeh
oney
Ġgray
Ġdes
Ġmuch
ix
ird
Ġaha
Ġind
Ġcannot
ates
Ġsec
ath
aking
ob
Ġbel
ank
ably
Ġsays
Ġfew
lf
Ġturn
ction
ition
Ġz
ne
Ġpret
atch
Ġ6
ents
als
Ġhold
Ġeven
Ġke
Ġdr
Ġdaddy
Ġunder
ious
hm
Ġorange
Ġboth
Ġem
ady
Ġpretty
Ġlar
arly
Ġopen
Ġhelp
.âĢĿ
Ġball
Ġcam
Ġbehind
right
Ġtry
wn
ces
vel
get
Ġwood
igh
Ġsign
ush
lic
Ġelse
ew
Ġ19
vers
Ġlooking
Ġdidn
Ġmhm
Ġnice
Ġmight
ually
Ġbre
ower
Ġdiffe
Ġsupp
Ġstr
fore
ved
Ġmin
Ġcount
Ġinside
Ġprobably
od
itting
Ġsit
Ġoutside
ek
Ġthrough
Ġfind
ys
ves
ise
Ġcre
Ġwearing
Ġser
Ġacc
,âĢĿ
Ġyears
Ġhome
oto
oot
Ġuse
Ġisn
Ġmade
ng
atter
du
ful
Ġhouse
Ġroom
Ġgive
Ġatt
Ġvisible
Ġsn
Ġgrey
Ġum
Ġbit
ĠBut
ets
Ġhat
Ġthree
Ġstanding
Ġthank
Ġface
Ġtrees
oll
Ġlast
Ġwind
Ġnext
man
Ġfun
Ġtrain
ĠWh
Ġcut
form
Ġdist
Ġcomm
ows
Ġstill
hen
Ġlarge
iew
cy
ount
Ġalright
Ġthings
ought
ĠThis
ike
thing
Ġbed
Ġfin
Ġpres
Ġglass
Ġend
Ġtalk
gg
Ġcent
Ġnum
Ġbear
Ġmed
Ġ10
Ġclou
chool
Ġbeing
ward
Ġreg
Ġsil
ps
."
Ġsitting
ual
Ġstre
Ġthing
Ġdifferent
ember
Ġhair
Ġwa
ert
ĠAnd
Ġinc
ident
Ġstart
oor
Ġbefore
ating
Ġpie
ning
Ġnight
eb
cial
Ġsur
Ġyear
Ġsame
Ġpink
oh
ily
Ġwall
'd
Ġleg
Ġinter
Ġsunny
ced
Ġpur
Ġphoto
Ġ7
aper
ied
ters
Ġname
Ġdec
self
Ġchild
ather
ĠâĢĵ
uff
oon
ese
Ġbox
Ġhappen
Ġnope
Ġsecond
Ġsle
Ġmale
Ġkid
clud
ublic
Ġ30
Ġbird
Ġinv
ject
ru
ize
Ġfood
Ġposs
Ġwhile
Ġsilver
ĠUn
Ġadd
Ġreal
Ġrun
Ġgame
meric
raw
Ġtruck
Ġbelie
ane
Ġ$
Ġbro
cle
Ġrel
Ġhigh
Ġpants
ope
,"
ĠAs
io
Ġschool
Ġbetter
ĠWe
Ġsw
ative
osed
Ġmm
Ġdri
Ġsky
Ġmet
Ġappears
Ġhor
pect
Ġhoney
Ġ8
Ġset
ere
ason
Ġev
ĠâĢĶ
urt
akes
oy
ger
Ġgoes
ats
lease
Ġwatch
Ġuh
Ġguess
Ġcons
Ġswe
ince
Ġwait
der
ĠTr
Ġwalk
Ġmark
itc
Ġbas
Ġrest
Ġclear
ork
ute
Ġcook
Ġown
Ġtoday
Ġ[
Ġac
Ġmil
ier
olog
ins
Ġed
Ġteam
ular
Ġair
ures
ited
ics
Ġanim
Ġask
und
ational
imes
vern
Ġremember
Ġcare
Ġthough
time
Ġbuilding
Ġstri
alf
Ġpoint
Ġgrass
ama
uring
Ġcap
ds
ween
its
Ġgreat
Ġsy
Ġinclud
ash
ax
Ġfull
ĠRe
Ġwent
Ġstate
arn
..
ium
Ġfloor
Ġdef
Ġmean
owl
outh
era
ever
Ġbetween
Ġsuch
az
Ġyoung
).
ities
ton
ĠAmeric
owing
Ġsand
ape
Ġfound
Ġpot
ble
ither
ener
ues
Ġide
Ġcalled
Ġent
most
've
Ġactually
Ġsub
ments
ĠNew
me
Ġhorse
Ġref
pr
Ġcour
Ġpark
Ġfour
Ġkeep
ote
Ġjack
The
Ġfac
Ġworld
ized
Ġob
Ġagainst
arch
ĠBr
Ġstreet
Ġass
Ġsim
Ġeleph
Ġeach
pped
Ġused
Ġey
izz
Ġweek
ec
Ġhalf
Ġinst
ield
led
amp
Ġreport
rect
Ġcorn
Ġter
),
Ġtan
Ġpick
Ġgovern
Ġty
Ġhi
Ġfeel
sh
ames
aw
Ġchar
Ġcur
ĠLe
Ġban
Ġ200
Ġ9
Ġmen
cept
Ġimp
oup
Ġpaper
Ġground
gan
Ġbun
Ġearly
Ġclean
Ġseems
ility
Ġlady
iend
ness
Ġcup
Ġlots
Ġfall
Ġready
Ġbelieve
ner
Ġseen
land
Ġstory
Ġdistance
Ġholding
Ġcow
cent
illion
Ġcamera
Ġplate
Ġmust
--
Ġdone
Ġsing
ĠAl
ists
ices
com
Ġlead
ĠYou
con
rib
Ġdoor
Ġenough
Ġtold
Ġcoll
ĠSo
ared
Ġleast
Ġnever
ored
body
Ġwon
Ġsho
Ġhot
cess
ĠIf
aim
Ġprodu
ana
Ġnumber
Ġgetting
Ġwar
stem
ĠFr
âĢĶ
Ġmar
uss
oun
ism
Ġdrink
Ġcenter
Ġelephant
Ġscre
Ġlate
Ġpiece
ric
Ġpizz
Ġhands
Ġsleep
Ġcloudy
Ġdress
Ġhey
eter
aint
Ġshorts
any
Ġfem
ines
Ġthought
ee
Ġhappened
ffic
que
Ġplaying
Ġnothing
Ġsqu
Ġret
med
Ġsever
bers
Ġve
aj
Ġplease
Ġsince
Ġfam
Ġbowl
Ġfoot
Ġmaking
ina
Ġlist
oth
less
Ġsnow
Ġben
att
Ġanything
Ġwhole
ired
Ġfriend
br
ense
board
Ġdaytime
Ġsort
ball
Ġseveral
Ġpass
Ġpizza
Ġblock
Ġplace
here
uc
Ġmove
Ġlove
Ġbreak
Ġdirt
ik
Ġje
Ġoffic
Ġlaw
Ġbring
ished
Ġgira
Ġeither
ically
onth
ĠFor
Ġca
Ġrecord
Ġpop
Ġzeb
Ġtoget
Ġtogether
ots
Ġquest
ĠAr
Ġcorner
Ġcars
Ġstuff
Ġtrans
key
Ġmem
ways
tern
aur
iam
Ġdraw
ator
Ġgovernment
eth
Ġjob
Ġbye
min
room
Ġhum
Ġyet
ĠIs
Ġpurple
els
Ġwindow
ige
ĠThey
ling
wh
Ġwow
ages
Ġjacket
Ġstop
Ġfeet
Ġmiss
ution
velop
gy
Ġnear
iting
Ġfact
Ġpublic
uth
Ġlater
Ġcity
Ġdoll
Ġalmost
Ġart
Ġexp
Ġcoming
oors
Ġpull
ffect
Ġidea
ains
Ġprov
ased
Ġbag
pper
Ġfive
ror
ĠSh
Ġmostly
Ġcame
Ġmoney
ĠCl
Ġsize
Ġphone
Ġdisc
Ġfoll
ific
Ġmonth
Ġfore
000
ready
Ġtree
Ġones
erest
ĠAn
ĠThere
orning
Ġmon
Ġview
Ġwomen
ĠThat
Ġbike
ives
Ġbest
Ġcake
ĠDe
Ġmot
Ġsystem
Ġalready
Ġsupport
Ġconf
Ġduring
Ġeas
by
Ġplayer
Ġpos
Ġexper
Ġmorning
ĠTrump
iness
ider
ok
Ġadult
Ġ12
cast
Ġpen
Ġstick
Ġpush
.[
Ġext
anc
Ġpossib
Ġdin
Ġcomes
Ġstore
ister
Ġstay
Ġinf
Ġresp
Ġroad
Ġstrip
Ġunt
owers
Ġarea
Ġwin
Ġrock
Ġfire
alth
Ġdirect
Ġpolit
Ġiss
Ġopp
Ġcoun
Ġju
ĠCom
ries
Ġexpl
arl
Ġfemale
Ġclos
Ġdesign
hip
bre
ey
Ġrep
Ġzebra
Ġcomple
orth
Ġgiraffe
iding
acks
Ġeng
Ġprot
Ġbad
Ġdevelop
uit
Ġcountry
Ġmilk
Ġtall
Ġwithout
Ġstud
Ġeating
Ġgener
Ġinterest
Ġcheese
Ġsaw
Ġpower
row
Ġproble
Ġpast
Ġpri
Ġcontin
Ġplan
Ġbeige
Ġsweet
Ġ'
Ġever
Ġaren
Ġmouth
ear
Ġkitt
Ġconc
cher
Ġhell
Ġste
Ġboat
Ġpu
Ġfix
ides
Ġalways
Ġtook
Ġcouple
Ġcase
Ġlife
Ġcor
part
ertain
ĠOn
Ġanimals
ention
ret
Ġhear
Ġcontro
Ġaw
ern
ma
Ġcamp
Ġjeans
ĠHow
Ġfil
ision
Ġmedium
Ġtrying
Ġsomeone
ex
gle
Ġgroup
Ġboard
view
ature
Ġ40
aves
ital
apt
ross
Ġdem
ety
Ġduck
head
Ġinvest
Ġchick
Ġround
enn
ately
Ġhaving
Ġpost
Ġann
ĠAt
Ġrequ
ĠUS
Ġtow
Ġappear
Ġchange
ology
illy
Ġcir
ĠâĢĺ
ording
Ġlo
Ġmain
Ġloc
Ġpartic
erst
Ġline
Ġcommun
Ġusing
rist
Ġeyes
Ġtaking
orry
ised
end
rence
Ġquite
ivers
tend
co
ĠAd
ten
Ġuntil
Ġimage
Ġadv
zz
unch
Ġothers
let
ata
Ġless
ta
Ġpossibly
ĠRep
Ġbar
iver
Ġ15
Ġleave
Ġabove
ged
ouch
ĠInd
aps
Ġtom
chn
Ġcouch
pping
Ġpat
Ġfield
Ġmult
ife
ffee
Ġchildren
ming
20
erv
Ġthrow
Ġpercent
Ġhello
Ġegg
Ġpolice
Ġmic
Ġav
Ġpay
Ġboo
Ġmakes
Ġimport
Ġsound
urry
Ġwalking
ãģ
Ġresult
ctor
ura
ops
Ġcream
Ġyep
Ġins
Ġapple
Ġbright
Ġfunny
Ġjump
verage
gram
Ġsorry
ron
ral
Ġcoffee
Ġbuy
Ġmess
Ġgi
conom
Ġeverything
ĠBl
Ġincluding
lla
Ġblond
where
ov
Ġsheep
Ġbuildings
Ġable
ĠZ
Ġbusiness
used
ered
Ġsix
wards
inal
Ġsol
Ġjuice
Ġsaying
ement
atur
the
Ġhit
Ġtest
Ġrecent
gie
Ġseason
ald
Ġpig
Ġmillion
ined
Ġincre
Ġsum
Ġexam
Ġsandw
Ġarm
to
ohn
Ġfree
Ġalong
unk
Ġbath
Ġmetal
ls
Ġprof
Ġtype
pend
Ġhappy
ases
Ġnews
Ġfish
Ġappro
line
Ġda
Ġworking
Ġroll
urs
ering
Ġvar
ially
Ġclot
aken
Ġovercast
ency
Ġ11
ained
Ġacross
Ġgold
Ġparty
Ġunderst
Ġminute
ung
Ġumbre
Ġflowers
bs
Ġwooden
Ġbase
Ġra
ĠAmerican
Ġsal
icy
Ġ18
Ġcounter
Ġmother
Ġshoes
Ġcost
ĠShe
ĠPro
ract
Ġ50
Ġform
ER
Ġ&
Ġmatter
Ġnose
irth
Ġbatter
ony
Ġlevel
oman
Ġmeans
ole
ts
Ġwhoo
Ġhurt
Ġclass
idge
Ġtalking
Ġglasses
ef
Ġpress
Ġfence
ajor
ĠWhen
Ġinform
Ġrain
Ġpresent
Ġes
Ġmus
Ġjo
ato
vious
Ġquestion
ided
Ġfamily
We
Ġdays
ught
sc
ocr
Ġeconom
Ġwants
Ġprom
Ġeffect
Ġval
Ġmod
10
Ġkey
ppy
Ġlay
Ġliving
ones
Ġwanted
ration
Ġsandwich
Ġbirth
eng
Ġbooks
Ġland
Ġcold
Ġserv
Ġtouch
Ġconst
phone
Ġmama
Ġchang
Ġbody
atic
Ġplane
itchen
Ġwasn
Ġlaura
Ġexc
Ġtechn
arent
Ġgrand
icle
Ġshall
ead
ude
avor
Ġkitchen
uthor
Ġmotor
ards
Ġscreen
ĠBe
oof
Ġprogram
Ġfing
Ġasked
Ġfair
Ġcurrent
Ġcertain
ĠWhat
Ġpresident
uce
gin
ched
ring
Ġbottle
ians
ience
Ġcompany
Ġonce
Ġgone
Ġshot
Ġplayers
work
lect
ional
Ġimportant
Ġdonut
Ġdro
bit
Ġpar
iling
aid
ury
ĠQ
Ġblonde
ĠMr
Ġlive
Ġunderstand
Ġhelm
ories
ief
Ġfacing
aph
Ġid
AN
ĠPh
Ġcover
ĠMan
ift
Ġprocess
Ġlikely
Ġcourt
iny
Ġrece
Ġmarket
ĠOne
Ġorgan
Ġoffice
ior
ĠTo
ocol
Ġumbrella
Ġtax
ĠPr
Ġwords
une
illed
Ġelect
Ġtoys
avy
Ġtape
Ġpage
Ġclouds
ĠPl
noon
Ġmag
Ġcookie
ĠUnited
It
Ġtaken
Ġthre
Ġfoc
Ġmeet
ches
mi
aut
Ġafternoon
oli
Ġclosed
Ġhang
ĠCan
Ġdet
Ġmir
vered
Ġer
Ġolder
Ġclaim
Ġmajor
Ġexpect
Ġsong
ĠCon
utes
astic
Ġhealth
Ġorder
Ġletter
ĠSp
Ġpossible
Ġrese
Ġproject
Ġwrite
ĠAll
Ġlegs
itor
Ġhist
lex
Ġtimes
acy
Ġice
Ġfight
ĠOb
Ġtot
Ġcovered
Ġest
Ġcareful
Ġwrong
Ġdata
Ġword
Ġcolors
Ġreturn
light
ĠEur
ĠPres
ising
son
arah
Ġlower
Ġneeds
Ġkids
Ġcourse
aign
owed
Ġwindows
Ġoutd
Ġsweetie
ying
Ġthird
Ġfly
Ġproblem
Ġblurry
airs
ĠGr
sel
Ġyay
Ġaverage
Ġahead
Ġbirthday
ted
ploy
Ġtwent
Ġlow
Ġclock
Ġ--
Ġ25
Ġchoo
Ġvide
eral
Ġwriting
Ġsilly
Ġanimal
ĠTw
Ġbunny
ient
ĠMar
Ġfell
Ġhuman
iol
Ġhour
Ġclothes
Ġseem
ler
Ġtick
Ġdeal
ĠJohn
ality
Ġregular
Ġta
Ġbanana
Ġmix
ene
30
Ġclim
cient
Ġpolitical
Ġsummer
Ġage
ĠOr
ured
Ġequ
Ġdeb
Ġdirty
ued
Ġbecome
Ġmulti
Ġ,
ison
Ġcarr
Ġrunning
Ġkiss
Ġlearn
Ġgames
Ġchocol
Ġcheck
Ġintern
aster
aul
Ġbread
ators
Ġspecial
Ġleaves
Ġfur
ĠNo
Ġsurf
Ġofficial
ĠTe
Ġfit
Ġstrong
Ġoften
Ġcampaign
ummy
Ġlisten
Ġooh
Ġpract
raft
Ġant
Ġinformation
udy
Ġbutter
Ġdel
ery
ĠDem
ĠRepublic
Ġchocolate
Ġkittie
af
Ġnon
ccess
Ġpic
Ġmonths
Ġride
Ġvot
Ġoper
ails
Ġblank
Ġindoors
Ġdesk
Ġfavor
ĠMay
Ġprop
Ġtie
Ġreason
Ġsink
Ġgave
for
itch
ption
Ġstarted
Ġsarah
Ġstep
Ġnorm
idence
Ġhig
Ġcolored
Ġsuit
ĠPresident
kes
Ġmount
Ġfig
Ġlapt
pty
Ġfund
Ġpaint
Ġbench
ON
Ġdou
Ġwhether
Ġ199
gest
Ġlit
Ġwilliam
Ġhope
Ġquick
ley
den
erman
Ġformer
Ġtv
Ġocc
Ġsoon
Ġwhoops
ox
Ġeight
Ġcharac
Ġyourself
Ġevent
urity
Ġwond
Ġtrad
app
Ġago
Ġrather
Ġcond
iversity
book
Ġengine
Ġhelmet
tt
Ġcomput
mber
ization
ĠGre
Ġtoile
Ġauthor
ĠYork
Ġpriv
Ġtra
ney
par
ĠEurope
Ġbelow
Ġturned
Ġdefin
ensive
eg
cil
walk
amb
amed
Ġbrocc
ential
Ġarg
Ġperform
ales
itions
Ġsupposed
Ġfriends
Ġcomplete
Ġrac
Ġshad
__
oice
Ġbeach
iel
Ġmind
ague
Ġcrit
Ġpictures
Ġmusic
Ġbrick
Ġrestaur
ables
Ġlab
ĠIm
lo
Ġnap
iving
Ġsigns
Ġcomb
Ġspace
Ġslee
nect
Ġguys
Ġfut
cif
osh
ĠWith
Ġmov
Ġcatch
Ġmotorcy
ĠAfter
Ġbare
rest
Ġseat
Ġswim
Ġcry
Ġross
Ġchicken
Ġtele
year
Ġmirror
Ġmouse
ĠSc
aged
Ġsingle
ortun
Ġtoilet
ks
Ġaccording
itter
umb
Ġcal
Ġputting
Ġactiv
Ġport
Ġsent
ann
Ġentire
Ġwear
IN
ken
Ġviol
empt
Ġlim
Ġspoon
Ġbroccoli
Ġfre
ĠMc
Ġfast
Ġdoggie
ubl
Ġlights
ĠEx
ified
Ġrow
vert
Ġlaptop
Ġexact
nding
Ġwatching
ites
Ġveh
ĠHowever
Ġvers
ÂŃ
oke
âĢ¦
ada
ume
ai
Ġsuper
Ġcause
haps
ivid
iet
Ġwi
Ġcoat
Ġmoder
Ġstar
Ġnumbers
Ġproduct
Ġrele
Ġseven
Ġwithin
ĠComm
Ġclosest
Ġstudy
Ġtail
Ġsour
ĠObama
Ġhors
Ġsocial
ument
ried
Ġsometimes
ggest
Ġprotect
Ġident
Ġnet
Ġsuggest
play
Ġadam
vent
50
Ġ13
ĠDemocr
cing
gress
Ġgar
ĠPol
Ġbat
Ġpill
ĠRuss
Ġdesc
itive
Ġpan
ugg
Ġexample
AR
ĠCent
Ġgotta
Ġpeek
Ġ=
Ġlost
Ġbeaut
Ġwouldn
soci
Ġminutes
ges
though
Ġmembers
Ġcand
Ġmedia
Ġwalls
Ġsquare
reme
Ġsuccess
ĠGu
go
Ġapart
Ġmilit
Ġcool
Ġcompet
Ġbased
come
ĠStates
Ġinstead
Ġknown
Ġannoun
Th
Ġ16
Ġgets
kin
back
ference
AT
Ġrestaurant
aff
Ġalone
arth
Ġanyone
fast
oint
what
cially
Ġvideo
Ġlocal
Ġ14
Ġdeep
Ġcatcher
ket
ilar
ands
itional
ĠChrist
Ġce
ashing
Ġdev
por
ĠSy
Ġfuture
Ġstriped
Ġattack
Ġreported
ached
Ġtrue
ips
rew
Ġpieces
Ġstra
Ġspot
Ġbur
Ġedge
Ġwhoa
Ġlog
Ġrul
Ġsoft
ware
ott
Ġorig
ĠState
Ġempty
Ġgrow
Ġgiven
Ġamong
osp
ĠWhile
ully
Ġcell
Ġinvestig
Ġtyp
selves
urch
Ġhar
Ġindivid
Ġpack
ourn
Ġcontrol
19
Ġcarry
Ġsidewalk
Ġinvol
Ġtoy
ha
Ġmicro
orld
Ġoops
ĠMin
Ġeveryone
Ġcab
Ġplastic
Ġfurther
ilt
sw
ruct
Ġbutton
unt
rog
IG
Ġdom
Ġfollowing
oop
Ġten
Ġwhose
Ġissue
Ġproper
Ġstraight
Ġblocks
Ġplac
hest
ulation
Ġtar
Ġ#
Ġow
osaur
Ġprofess
aima
Ġabe
Ġnomi
Ġindust
Ġfail
Ġnaima
uct
ze
rel
ances
ination
ived
ailable
Ġscr
Ġhuge
Ġtrack
ĠEd
Ġhimself
ager
oom
Ġwee
Ġbegin
ĠSe
Ġexcept
fficult
la
iger
Ġfed
ission
ills
Ġmeat
Ġdefe
11
Ġplayed
iday
Ġbreakfast
lish
Ġpoor
Ġcapt
Ġcommunity
ĠSen
Ġimpro
Ġnational
Ġsomewhat
Ġeth
Ġzoo
ĠAmerica
Ġeasy
ream
Ġcross
Ġmeas
Ġwide
Ġdifficult
Ġamount
ris
ĠHouse
Ġdry
AS
Ġski
mb
Ġchairs
Ġfather
âĢĵ
Ġstat
Ġpoints
angu
icles
Ġaut
Ġslight
Ġmat
anas
ĠNow
ĠÂ
Ġsized
Ġhappens
Ġframe
Ġbirds
Ġadded
Ġwarm
ober
eds
Ġ2016
Ġdriver
ien
Ġplant
Ġmotorcycle
Ġfruit
Ġtea
read
Ġcontain
Ġbunch
Ġneck
Ġfinish
Ġdrive
...
Ġgun
Ġtiny
Ġhy
itely
Ġitself
Ġconnect
iful
Ġworks
Ġham
ĠSec
ĠNot
iff
Ġanal
agon
12
Ġbasket
ĠAb
ĠCal
Ġspecif
Ġtile
Ġheart
Ġ17
Ġshare
Ġbank
Ġstripes
Ġnormal
Ġris
Ġdiscuss
Ġcomputer
Ġcrow
Ġoutdoors
rodu
----
Ġstuck
ply
Ġ100
Ġdead
.,
zy
Ġmatch
Ġsomebody
ĠGerman
Ġsurpr
Ġteac
fully
ege
ffort
Ġill
Ġwild
lection
Ġrepres
Ġring
terday
nes
Ġrad
Ġtowards
Ġconsider
Ġobject
Ġfocus
Ġsimilar
Ġteen
ĠLE
Ġtotal
eor
ability
Ġbite
oud
erry
ĠEng
attern
Ġsex
Ġshows
Ġavailable
ĠX
Ġwet
Ġheard
iron
ĠDon
Ġfinished
Ġfavorite
Ġsus
yle
Ġvase
Ġhowever
Ġseries
Ġeffort
Ġserious
Ġcard
Ġtown
Ġperhaps
Ġet
Ġreading
ural
Ġmoving
Ġbud
Ġwonder
au
Ġpubl
Ġstates
ennis
ustom
Ġbrush
Ġattempt
ĠFl
val
Ġhistory
Ġitem
Ġaccount
sy
ĠCity
got
minist
oe
graph
Ġexactly
Ġhung
pecially
ĠUniversity
Ġbeautiful
Ġexperience
Ġinfl
Ġfairly
Ġdue
Ġbell
Ġmovie
Ġyesterday
aker
Ġbigger
Ġcouldn
Ġbananas
more
Ġgoodness
Ġmilitary
Ġtool
Ġrab
Ġlunch
pet
Ġsat
Ġcray
Ġemploy
15
viron
Ġhon
Ġabs
Ġhop
Ġfeed
Ġpattern
ĠBrit
uly
Ġ2015
Ġparked
mon
aving
Ġfilm
Ġbang
Ġsuitc
lin
uation
nder
Ġkinda
Ġblanket
ael
ĠThese
Ġinde
Ġmodern
avid
Ġwrote
ĠChina
Ġbroken
Ġfootball
omas
inton
ran
Ġhaven
oph
ĠMed
Ġteeth
asing
Ġboys
hood
Ġhous
Ġvict
Ġtakes
ĠAust
rael
rete
ES
Ġdeath
Ġeye
Ġsad
Ġ]
ĠWorld
Ġpretend
FT
Ġur
ĠHis
Ġflower
Ġaud
Ġwine
cies
ster
ept
//
Ġbenef
Ġfine
Ġ2014
Ġhigher
Ġletters
Ġalex
Ġcountries
Ġcircle
ĠSome
Ġprevious
Ġbaseball
Ġvan
IT
Ġpolicy
Ġdefinitely
orrow
ently
Ġsmaller
Ġcollect
Ġpet
Ġtast
arlier
Ġconcern
ĠDr
Ġmach
ĠCo
gl
akers
Ġresearch
een
Ġposition
ĠHar
Ġupper
ĠCar
ĠNe
Ġrelig
IR
Ġcrack
Ġmoment
rench
Ġeggs
Ġted
Ġairpl
aniel
Ġflat
Ġriding
Ġroman
Ġansw
ĠWhite
anies
Ġlonger
Ġedit
Ġtennis
Ġwheel
Ġfinger
ault
ĠNorth
shirt
Ġsmiling
Ġslice
Ġopt
Ġcult
ĠClinton
anger
Ġsimply
Ġexist
Ġdinosaur
off
ĠPart
Ã©
Ġthirt
ĠAcc
ĠInst
vision
Ġself
ask
Ġthinking
cience
isc
Ġarms
Ġbug
Ġaccess
Ġdeter
Ġlangu
Ġphys
Ġbill
Ġcas
Ġdecl
Ġener
Ġconcrete
Ġtit
ĠJust
Ġtank
Ġimm
Ġcookies
Ġdinner
Ġlines
Ġforward
vironment
gar
ĠSu
roll
Ġcute
IS
Ġmine
Ġlives
Ġbrought
OR
Ġgas
Ġsock
Ġagre
ray
Ġtired
ĠWill
Ġknife
Ġsignific
Ġbarely
Ġru
Ġlooked
Ġsecurity
ging
ãĥ
Ġjud
Ġwash
Ġissues
Ġrepl
Ġshowing
itten
iform
attle
Ġband
Ġrace
Ġstation
ĠAf
ĠBy
Ġprice
Ġespecially
.)
fect
omes
Ġcompl
rict
Ġtomato
hel
ili
over
ãĤ
Ġoil
Ġdude
fl
Ġhours
Ġknew
ĠIsrael
HT
Ġlink
ĠApp
Ġcy
Ġparent
Ġfork
ĠMy
Ġcrowd
set
ĠTH
Ġgirls
Ġforeign
Ġtarget
ify
angle
Ġlikes
Ġthemselves
Ġdam
Ġyours
Ġadults
fr
elt
ogn
Ġparking
Ġinit
itted
ding
Ġbegan
Ġkick
Ġbrother
Ġwaiting
Ġservice
pite
Ġheld
Ġgeneral
Ġut
Ġtem
ĠCol
Ġknock
ively
Ġcarrots
Ġcharacter
cean
ining
Ġweeks
Ġinteresting
Ġmass
Ġclearly
ashington
like
iles
str
apan
Ġevidence
atural
mas
Ġcustom
Ġslightly
ij
Ġdoc
Ġcompanies
Ġstove
Ġfan
Ġpolic
Ġquestions
AC
Ġdogs
obal
Ġnine
ĠWashington
Ġuniform
Ġden
Ġconv
Ġbecame
Ġcirc
ees
ivil
ival
Ġinterview
Ġchall
Ġneeded
Ġ2017
ises
oups
Ġshown
Ġdecision
Ġexec
Ġrole
IGHT
Ġdevelopment
Ġmicrophone
arter
Ġsepar
Ġstudents
Ġaction
Ġhanging
Ġear
oots
Ġteddy
cer
zen
Ġsam
Ġtraffic
Ġenergy
oid
ĠON
Ġrespons
Ġbillion
ciety
Ġcontinue
**
Ġnoise
Ġstories
Ġvisit
Ġrelations
Ġcandid
lam
uh
Ġsuitcase
atures
ĠNational
Ġyup
Ġ60
Ġsleeping
Ġtri
Ġ198
bb
fer
Ġol
Ġenc
Ġhungry
Ġpuzz
Ġpain
Ġgen
ĠAm
ĠBar
ĠJan
LE
Ġaff
onse
Ġrights
aining
ularly
wood
apes
ĠLEFT
Ġrabbit
Ġton
BC
pack
ĠIntern
Ġoppos
Ġvote
ĠEn
Ġlaying
Ġx
aboo
Ġvarious
ades
Ġwel
Ġairplane
Ġì
Ġfarm
Ġsubject
Ġfinal
ula
Ġvari
Ġsense
Ġpap
Ġcreate
Ġwheels
Ġclub
Ġusually
Ġskate
Ġrepresent
Ġtight
14
ique
Ġplain
ĠDep
Ġprivate
Ġcommon
Ġleaders
han
acebook
Ġsell
Ġbathroom
Ġfederal
Ġsignificant
ires
iod
ned
ruction
oseph
Ġadminist
Ġtreat
Ġdriving
Ġdressed
Ġeconomic
Ġsecret
Ġdest
Ġdish
Ġfres
Ġpersonal
Ġslow
rop
Ġgroups
Ġfaces
Ġ:
Ġparts
Ġversion
Ġlily
Ġcop
Ġpock
aterial
Ġlegal
ĠSouth
istic
Ġ2012
Ġrecently
Ġtur
Ġquack
18
ĠPe
ological
uary
Ġstatement
Ġneigh
Ġgiving
aming
Ġhandle
Ġhole
ishing
ett
ode
Ġinclude
ateg
ĠRIGHT
ribut
gn
Ġshape
oles
Ġprovide
opped
Ġelection
16
Ġbuilt
Ġinj
ament
Ġcompletely
Ġshut
Ġrecogn
ĠCour
13
Ġsauce
Ġstone
Ġled
Ġsold
Ġtrave
Ġ2013
Ġexpress
Ġlanguage
ĠFacebook
Ġpotential
Ġearlier
ĠMe
Ġaccept
ĠWest
Ġpoll
Ġmodel
ĠAccording
ww
Ġpus
Ġpred
Ġboom
lim
ndred
Ġstraw
Ġhundred
Ġbabies
Ġfigure
Ġpeter
Ġsite
ichael
Ġteams
ĠTwitter
iced
Ġpuppy
Ġthanks
Ġproblems
Ġbeer
Ġ24
onday
Ġtomorrow
rit
Ġocean
asons
Ġblow
Ġreleased
ĠWar
bl
uts
Ġheavy
Ġteens
lt
atives
Ġsomewhere
Ġchanges
bed
gre
Ġdig
ĠSm
ĠNews
Ġtower
Ġbes
clear
dd
bor
ky
Ġmonkey
Ġmonitor
Ġrocks
Ġbutt
Ġsweater
Ġpeekaboo
Ġprint
Ġdoctor
Ġperiod
Ġnearly
Ġpopular
Ġarticle
Ġcases
Ġgoal
Ġprim
ospital
Ġgosh
Ġep
Ġtried
Ġperfect
ength
Ġquickly
Ġaddress
illing
uesday
medi
pire
anta
Ġnetwork
ĠSte
Ġmeant
Ġbackpack
ĠSund
iforn
Ġresults
itution
ppers
Ġrob
Ġeverybody
Ġshirts
Ġways
Ġenvironment
Ġeduc
://
Ġspring
Ġopportun
Ġvalue
Ġthreat
Ġrelease
ĠPaul
Ġswing
mend
Ġrub
olution
Ġvol
ript
okes
Ġreach
Ġdirectly
ences
Ġcontent
Ġextreme
Ġdescrib
fort
Ġlaws
ournal
ĠRed
Ġpartly
ples
99
joy
hern
Ġslide
Ġevening
Ġindustry
ĠâĢ¢
Ġveget
inese
Ġmaterial
Ġmons
Ġworked
Ġsounds
ĠGo
Ġarri
Ġcorrect
Ġmax
ads
Ġwebs
ĠSept
Ġtechnology
Ġofficials
Ġtoward
Ġreview
ĠDo
ĠHere
Ġbump
Ġcart
Ġterror
Ġscrew
Ġrecorder
Ġtowel
Ġ|
17
Ġplants
Ġfelt
iled
aging
ĠRepublican
Ġethan
Ġstandard
Ġdisplay
Ġstruct
Ġbroad
Ġrespond
pro
Ġnatural
ests
Ġdrug
OM
Ġnina
Ġcreated
Ġtwenties
OT
ĠCong
Ġtooth
Ġtwenty
Ġannounced
Ġtub
Ġangle
Ġcutting
Ġpractice
Ġapples
ipe
Ġ21
ifornia
uk
Ġsport
Ġparticip
stairs
Ġanymore
Ġmoon
ĠJapan
40
Ġscene
ĠOct
Ġanswer
Ġbal
ils
Ġcabin
Ġadm
artment
Ġresponse
Ġgrandma
Ġwoo
Ġcast
Ġfunction
ev
Ġnath
Ġemer
Ġsugar
Ġchance
ĠDes
Ġfingers
oose
ĠMore
anges
Ġsimple
ednes
Ġonline
Ġdecided
Ġcurrently
Ġcere
Ġintell
pril
Ġrug
aded
Ġtray
Ġ197
Ġcred
Ġbiggest
aturday
Ġsource
Ġfresh
ednesday
Ġdep
ĠGod
action
Ġfinan
Ġcarpet
Ġrespect
yn
Ġcurt
Ġhost
ittee
Ġyog
Ġtrou
Ġstaff
ilities
Ġknows
Ġdoub
ĠCenter
isy
Ġnecess
Ġfrog
Ġwire
Ġplates
Ġsmart
asses
Ġque
ino
Ġindic
Ġbull
Ġshoe
Ġpublished
Ġhall
ucky
Ġwritten
Ġmissing
Ġears
Ġforce
Ġpoo
Ġdirector
Ġservices
Ġswimming
Ġwelcome
ĠMus
Ġble
Ġplat
Ġbridge
Ġallow
Ġflag
Ġoriginal
EN
Ġnamed
ĠJune
Ġexpected
Ġinternational
riage
ĠAustral
ners
Ġworth
Ġlength
Ġworkers
ĠAmericans
Ġenjoy
isl
anders
Ġsen
ĠIN
Ġpepper
Ġprep
ĠSunday
Ġpump
ica
Ġpartially
Ġtoast
cles
Ġglobal
ĠIndia
Ġincrease
Ġsituation
Ġmr
Ġcommer
Ġinflu
Ġcomment
Ġmember
Ġflying
Ġmachine
Ġnation
Ġtrunk
Ġupd
Ġspell
ĠIslam
ĠCongress
Ġsides
Ġfans
Ġreve
Ġgrowing
ID
Ġfift
25
Ġ2011
Ġrack
ĠTuesday
Ġshake
Ġrev
Ġpuzzle
Ġmis
ĠEven
Ġmeth
Ġanti
Ġhtt
Ġcontract
Ġstarting
Ġmeeting
ĠTHE
enger
ients
Ġbusy
Ġprin
Ġcivil
Ġimmedi
Ġhorses
Ġhospital
Ġblood
Ġchrist
Ġexecut
);
Ġsque
Ġhill
oring
Ġquarter
clus
Ġdrinking
Ġran
hers
Ġintrodu
duct
Ġobs
ech
izing
berry
Ġrisk
ĠFriday
Ġitems
ĠRes
aching
alt
Ġtwe
Ġpole
Ġpocket
kn
ero
Ġhood
Ġimpact
St
bing
ara
ĠCont
Ġassoci
aked
Ġ196
Ġterms
Ġnathaniel
Ġscient
ĠAug
Ġscore
Ġcit
idents
ĠSw
gu
Ġlion
ĠMonday
ĠLib
Ġskin
Ġshower
imate
anding
Ġchurch
Ġtext
Ġcollege
Ġindividual
rd
Ġtun
ams
Ġtrick
Ġspr
ĠDepartment
Ġoink
Ġsafe
oogle
raq
Ġreports
Ġkeyboard
ED
Ġconserv
OS
Ġlat
Ġalthough
Ġconsum
".
ading
Ġareas
aped
ancing
ursday
Ġrect
Ġbears
irm
Ġlaug
Ġpillow
sey
rences
rim
Ġ*
Ġcertainly
Ġchew
Ġoven
mine
Ġ/
Ġthous
Ġtor
Ġstyle
cloth
Ġvehicles
atory
Ġbroke
Ġdollars
Ġreceived
Ġrules
âĢĿ.
Ġspl
Ġinvolved
Ġarrest
order
Ġsolid
Ġdanger
Ġnames
Ġfully
Ġplans
king
ĠMarch
Ġmail
Ġstring
Ġrelationship
OP
Ġrate
ondon
box
Ġhouses
round
Ġbi
aches
Ġplaid
ucas
Ġplatform
AD
ares
cut
Ġaf
In
Ġbuck
Ġwinter
Ġperformance
Ġkilled
cember
ĠDavid
estern
ĠBritish
ĠJanuary
Ġ22
Ġability
ĠQu
rem
Ġusers
Ġlarger
nel
Ġloss
Ġbelong
Ġaffect
Ġtrim
Ġtracks
Ġprogress
Ġspin
sidered
aa
Ġreflection
Ġach
Ġmill
uments
Ġallowed
hy
ĠIraq
Ġskirt
Ġregard
Ġparents
Ġboats
Ġdepend
Ġtickle
ĠCourt
ĠCanada
Ġjoseph
Ġvia
Ġsoup
Ġweather
Ġcomplex
Ġcapital
Ġdouble
64
Ġmel
Ġfollow
igence
iter
Ġwhatever
Ġeconomy
icine
olute
ĠRight
Ġmultiple
ĠSeptember
rant
Ġsick
ĠSch
ĠAg
Ġgrown
Ġrange
ĠPal
Ġconsidered
Ġparticular
Ġsleeve
mo
yond
Ġrice
Ġeve
imum
ĠEuropean
anda
Ġkinds
ux
Ġopened
Ġattention
Ġevents
of
Ġson
Ġriver
kend
Ġweap
Ġvac
Ġfeature
Ġextra
vertis
aled
Ġchanged
Ġemail
ipped
Ġpin
ĠEm
eorge
Ġyummy
Ġdoo
Ġleader
Ġproduction
IC
ico
Ġbeyond
Ġroof
imately
ĠFirst
ĠStar
Ġtraining
ĠCalifornia
Ġadministration
Ġdepart
Ġ2010
Ġpotato
uf
Ġshoo
aud
Ġwave
ban
top
Ġtour
arily
Ġbrand
Ġterri
][
Ġsearch
ĠWednesday
iction
Ġfinancial
ĠIran
ĠJuly
Ġmethod
che
Ġthin
Ġtrip
Ġcloth
Ġdiaper
Ġcareer
Ġmountain
Ġskateboard
ened
ĠApril
Ġ28
ĠHill
Ġspeak
Ġparticularly
oni
Ġdream
Ġnu
Ġapplic
ays
Ġliber
reet
Ġcoach
tered
Ġcasual
ĠAct
Ġspent
Ġdiv
Ġimag
Ġincluded
rection
Ġge
ĠOf
Ġforgot
ĠPer
band
wise
Ġpath
oral
Ġpencil
Ġestab
lebr
Ġfalling
Ġmaint
Ġtrade
ING
Ġcommercial
Ġmention
ĠSpe
ovember
Ġsocks
Ġlift
Ġ35
Ġmovement
Ġnar
Ġtablecloth
",
Ġboun
erc
Ġclick
Ġassume
orters
Ġspread
Ġindepend
Ġspecific
You
Ġpool
Ġdemon
This
mark
Ġsne
Ġstopped
Ġlap
Ġmur
Ġvoice
anch
Ġlegisl
bon
uses
ĠTV
ĠThen
Ġetc
yan
Ġang
Ġdropped
ĠRussia
vey
Ġflo
ĠSyri
Ġess
Ġupon
ously
Ġfinally
Ġoffer
ĠAfric
Ġmonster
oses
Ġmyself
force
Ġprofessional
cul
field
illa
ibility
Ġdefense
ĠBlack
glasses
ucasian
col
ĠGoogle
ĠUK
Ġbeginning
bow
Ġnobody
Ġgrowth
Ġimprove
istan
Ġdisapp
Ġcalls
ĠFrom
Ġsurface
Ġpour
aly
Ġtelling
Ġchoice
Ġvehicle
Ġsaf
Ġuns
Ġrequire
200
Ġdance
ida
Ġscar
Ġspect
Ġofficers
Ġdifference
ctions
ĠChe
ĠColl
Ġmarky
Ġyounger
Ġobvious
Ġdrop
kins
Ġbarn
Ġlack
Ġneither
Ġspeed
Ġpurp
Ġstripe
Ġwebsite
Ġrough
Ġneat
Ġshelf
Ġmoo
Ġrepe
Ġshowed
Ġtonight
ĠNovember
Ġhappening
Ġsett
Ġdough
Ġate
Ġconvers
ampions
Ġcalm
ĠAugust
elly
known
iers
iment
Ġchristmas
based
erve
Ġspots
ĠReg
ĠDecember
itar
ĠMark
Ġdecor
Ġclimate
Ġdisp
Ġbehav
Ġ@
Ġ23
ĠThursday
Ġsunglasses
Ġtrucks
Ð¾
zer
ios
ube
Ġremote
Ġweekend
hold
Ġhiding
ĠPark
ĠGet
ĠKing
Ġkept
Ġofficer
AL
ĠFeb
Ġpainted
oin
urred
ĠIS
Ġsociety
Ġbik
Ġcaucasian
down
Ġver
ĠPolice
ĠCor
ĠEl
Ġsens
Ġbeat
Ġlean
Ġtools
Ġtaste
ĠOctober
uals
Ġsister
Ġthomas
urg
agement
Ġstudies
ĠSenate
?âĢĿ
ĠCount
Ġpartial
Ġcris
Ġquiet
Ġelectric
orter
Ġdoors
Ġguessing
Ġcaught
Ġgro
bee
berries
Ġreflect
Ġprior
Ġburn
Ġple
Ġforget
ĠInt
ĠPerson
Ġoverall
Ġcalling
Ġmist
alled
Ġrid
Ġshoulder
tr
Ġcra
Ġattend
ession
Ġtitle
Ġding
Ġsection
ĠHer
Ġhelped
ka
Ġboots
Ġfold
Ġconduct
Ġadditional
Ġmessage
Ġabsolute
Ġho
enty
useum
Ġturning
Ġplaces
Ġaged
Ġcrying
Ġonto
Ġmoved
Ð°
Ġturt
nds
Ġsea
Ġsoap
ĠGl
ĠÂ£
Ġcrayons
amm
Ġwife
Ġbought
inary
Ġconference
Ġdespite
Ġdemand
Ġcelebr
sequ
Ġunf
Ġquality
Ġlibr
Ġtelevision
Ġcitiz
do
aries
uel
ĠLondon
ĠUp
azine
ĠWilliam
Ġgives
ĠStreet
anks
ĠMart
Ġcontact
Ġtelephone
FL
ros
Ġleading
Ġmap
Ġstands
Ġcovering
Ġcarrot
Ġcereal
Ġlake
entially
Ġanyway
Ġsmell
Ġhats
Ġpressure
==
Ġpers
isions
Ġbeans
ification
Ġjumping
ĠRepublicans
sp
omb
ĠPost
Ġbushes
Ġpositive
Ġcontroll
Ġmeasure
Ġasian
atively
Ġsleepy
men
ĠTimes
Ġrefr
Ġtrouble
Ġmac
Ġ26
Ġsetting
Ġportion
Ġdim
Ġlose
Ġdelic
Ġsteel
Ġlevels
Ġgarage
Ġseparate
rast
ĠSan
ĠMid
Ġcrim
Ġeducation
Wh
uing
ĠSaturday
Ġmixed
hew
Ġkite
ĠWell
Ġspeech
Ġpopulation
Ġvictim
Ġopportunity
ĠRich
Ġchest
He
Ðµ
Ġforces
house
aced
ĠOther
32
Ġ27
ĠPar
ĠWhy
mp
Ġdate
edom
plement
Ġpulled
Ġstage
Ġcode
ruary
just
ids
Ġfeatures
while
da
Ġwaves
Ġpair
Ġlamp
Ġfridge
Ġsave
Ġdump
ĠSim
no
Ġcows
Ġ2009
Ġjobs
Ġapproach
omp
adem
Ġking
Ġfeeling
Ġdolly
rick
ceed
ĠNet
ĠLet
RE
Ġdozen
Ġspokes
ĠCons
Ġcritic
hib
Ġ+
Ġuses
Ġactual
Ġwoof
Ġaddition
Ġmajority
ĠDemocratic
ette
Ġremains
Ġdocument
Ġlol
ado
Ġculture
ya
Ġfile
Ġship
ĠDonald
pa
Ġrail
Ġcommunic
Ġshadow
Ġmales
arm
Ġterm
Ġlatest
Ġachie
mit
Ġscience
inn
Ġhorn
Ġreb
ĠMost
ysis
azing
Ġdrawing
fa
otos
Ġens
Ġ2008
Ġepis
ked
Ġtables
Ġbubb
ĠDemocrats
ĠChinese
Ġsurround
Ġcosts
ĠMcC
Ġproperty
Ġwake
Ġpitc
iring
chan
Ġconcept
ĠLab
Ġpassenger
Ġfa
ache
Ġfris
Ġpupp
Ġrequired
craft
egr
Ġcontainer
ĠParty
Ġnote
Ġremain
Ġheads
ĠGermany
Ġlock
archer
oming
Ġinvestigation
Ġschools
Ġesc
arning
Ġinn
using
Ġgrab
Ġassist
Ġneighbor
Ġdirection
Ġlargest
Ġsafety
ext
het
Ġvoters
If
bage
Ġaunt
inally
Ġhun
aces
ĠSince
Ġrecom
Ġwat
Ġjournal
eman
overed
Ġeasier
Ġdebate
____
!!
ĠBre
Ġpean
Ġmountains
ss
Ġwish
iture
Ġcomfort
Ġ(@
Ġdescribed
Ġreasons
irl
Ġshar
Ġleague
Ġfrost
Ġpee
Ġimplement
ening
Ġshop
ĠAM
ĠRese
Ġforest
Ġproducts
oons
Ġleaving
ĠLeague
ĠMuslim
Ġlad
Ġweird
Ġult
Ġkill
Ġchief
Ġprison
Ġresour
Ġlugg
Ġcandy
ander
actor
Ġcups
Ġexperien
Ġhistor
Ġbudget
ford
inds
Ġimmig
Ġbeg
EC
anced
Ġfocused
Ġclaims
ĠMinister
Ġasking
Ġlob
ĠBel
ĠBec
Ġclown
place
ĠEnglish
45
US
orida
Ġnotice
Ġgod
ivity
Ġumpire
sych
Ġimmediately
Ġrefriger
osing
Ġwipe
22
Ġlying
Ġment
ension
reng
There
Ġrequest
Ġreligious
Ġphysical
Ġpaid
Ġpeace
Ġopening
Ġinterested
IA
Ġbicy
Ġpad
Ġseeing
Ġoranges
ĠBush
ĠJe
Ġcorpor
dish
nic
Ġmush
Ġtoes
Ġstock
Ġdied
ĠKe
Ġcontinued
Ġlimited
Ġsoftware
Ġautom
Ġplenty
Ġcomments
Ġ70
Ġdear
ĠIndian
Ġë
Ġoop
icated
Ġreality
Ġsalad
Ġhide
Ġlett
Ġanywhere
ĠEvery
Ġweren
Ġmeaning
ĠRussian
ĠFebruary
Ġtrail
Ġunable
Ġcentury
Ġideas
ĠComp
Ġdetails
yl
azz
Ġhotel
Ġfollowed
Ġeffects
Ġefforts
Ġrecommend
Ġattacks
rupt
Ġrelated
Ġyogurt
ufact
35
CS
Ġscared
Ġincreasing
Ġfrequ
Ġdoubt
60
AM
Ġmatt
ĠCoun
Ġmedical
Ġfixed
uits
Ġnone
ĠGener
avis
Ġpurch
ĠAssoci
Ġimpress
Ġhorsie
ĠMany
Ġlaunch
Ġreceive
ĠGreen
Ĥ¬
Ġestim
Ġdelicious
ari
Ġshel
Ġcondition
Ġsanta
Ġcards
Ġsend
ĠKore
Ġsubst
Ġpassed
ham
Ġ)
Ġiron
Ġcement
ĠAnt
Ġvill
Ġcats
Ġopin
Ġmissed
Ġconditions
Ġcarrying
Ġlettuce
Ġtrust
Ġuser
ĠJames
Ġcooking
Ġeasily
Ġstudent
ini
aling
Ġupside
ĠDuring
Ġarch
Ġattached
Ġincreased
Ġfrisbee
Ġisland
issue
Ġregul
Ġliter
vertisement
Ġfat
ago
Ġunc
Ġthroughout
ĠPlay
ona
Ġthick
ĠTom
Ġwets
Ġcro
ashed
Ġprevent
Ġwii
Ġradio
Ġstructure
Ġluggage
Ġsystems
Ġpolitics
Ġrout
ĠEast
Ġprovided
Ġcloser
Ġconstruction
Ġcharacters
paper
Ġborn
enny
Ġselect
Ġsofa
ĠPat
Ġraised
Ġsteps
uzz
Ġtire
omen
Ġspider
Ġviolence
ĠOur
Ġcontribut
Ġglo
ĠBrown
ĠLeft
Ġsuspect
Ġnuclear
Ġnature
Ġnurs
arden
ribe
ĠOff
Ġtomatoes
Ġvegetables
bum
ties
Ġtiger
amas
ĠMal
ughter
Ġhammer
Ġfeels
Ġlibrary
?"
utions
ĠOver
itute
ooper
Ġbrownish
Ġcompared
neath
Ġteacher
Ġbow
inated
ĠII
ĠMichael
ĠCanad
Ġtypes
Ġdefend
Ġrefrigerator
ras
Ġspir
Ġsurv
Ġlearned
Ġpapers
Ġpal
ĠMod
aine
Ġcash
Ġnorth
Ġmechan
Ġhasn
Ġextend
ĠEU
Ġunderneath
ĠAlthough
Ġbeside
Ġord
Ġapparent
Ġinches
Ġhealthy
Ġaudience
ĠSuper
Ġmeow
load
Ġintelligence
Ġtweet
bble
fit
Ġloud
ĠCam
andom
merican
Ġhttp
Ġthousands
28
Ġearn
ille
Ġhug
Ġspending
Ġfailed
Ġcrisis
ĠLast
Ġsciss
Ġ...
Ġma
Ġreached
Ġlie
Ġconfir
Ġchallen
Ġbuttons
Ġign
ĠTre
Ġbottles
Ġdesigned
Ġpresidential
Ġmagazine
ĠSmith
ĠCounty
Ġtong
Ġhook
Ġhee
Ġstreng
OW
aus
Ġnavy
adium
ĠâĢ¦
Ġbasic
Ġpony
Ġmuseum
iti
Ġbattle
Ġsees
berg
Ġshooting
ule
Ġbrief
Ġgran
Ġspend
Ġregion
Ġactivity
Ġtruth
Ġincludes
Ġchoose
Ġnapkin
Ġrule
Ġdangerous
Ġ<
aser
Ġweb
ĠTrans
Ġpredict
lines
ĠTur
ĠMic
Ġcrime
Ġceiling
Ġbubbles
Ġaim
ooth
Ġrich
ĠTex
roy
iolet
host
erved
Ġpipe
Ġforeground
Ġdetail
ĠTeam
ĠRober
ĠFR
Ġballs
Ġminister
AP
lock
inate
icit
Ġlearning
Ġvest
Ġorganization
fly
Ġoption
Ġpaul
Ġhelping
Ġattract
Ġsnake
ended
Ġfighting
Ġ00
Ġknee
ender
Ġraining
Ġresearcher
Ġpropos
Ġencour
ĠScient
ola
ports
Ġruns
ĠFlorida
Ġap
Ġagency
Ġcandidate
Ġwhom
Ġconcent
Ġaltern
ĠFrench
Ġtend
Ġmob
Ġpotty
Ġowl
Ġsexual
Ġdemonstr
Ġforced
ĠDay
Ġeventually
Ġtriangle
Ġsan
Ġstars
ĠPhoto
ĠInternational
Ġextremely
iance
Ġtag
Ġyum
elling
Ġneg
Ġconsist
Ġassum
Ġpromot
Ġdamage
Ġlid
Ġseemed
Ġchain
Ġgrad
ĠDis
Ġplays
Ġcrash
Ġloves
Ġturtle
Ġmad
Ġshr
Ġsmile
Ġturns
Ġindividuals
Ġabsolutely
dom
Ġrt
Ġearth
Ġended
ĠRead
Ġelephants
ledge
Ġpumpkin
ĠÃ
Ġrib
ĠFed
ĠLike
ords
Ġrefer
Ġ2007
Ġcopy
Ġcriminal
ĠResearch
Ġmer
ĠArab
Ġprojects
Ġexecutive
ala
Ġweight
Ġbrain
Ġguard
Ġeverywhere
Ġaware
Ġcrayon
ez
Ġtim
igg
ĠTy
Ġbedroom
Ġhomes
Ġ45
ĠStr
Ġminor
Ġcentral
ipp
oved
Ġlic
see
Ġmanufact
Ġdeveloped
Ġlogo
Ġscissors
orney
boy
Ġtravel
Ġtee
ĠAss
Ġpicked
reg
Ġstack
Ġpros
Ġboxes
Ġpolicies
pir
Ġrear
Ġrust
ĠST
Ġupstairs
aks
Ġknowledge
Ġsched
Ġtotally
ĠAustralia
oul
Ġdancing
Ġrise
amps
ĠSer
ĠEv
Ġscen
ampionship
hem
Ġborder
Ġtrial
Ġexerc
Ġavoid
Ġcompetition
Ġcrazy
ĠBecause
Ġfle
ĠMex
ĠBo
Ġwilling
Ġcharge
Ġblog
change
antage
uela
Ġotherwise
ET
rated
Ġoo
Ġbeep
Ġlil
ounds
Ġmedicine
Ġincident
Ġenter
Ġconfl
Ġdining
ga
Ġnut
Ġ29
Ġalle
ĠLaw
Ġanalysis
Ġbelly
Ð¸
eno
umn
Ġappeared
Ġballoon
Ġswitch
aven
ki
uge
Ġtummy
icago
osure
ĠSanders
ĠBra
udd
Ġunique
Ġhighest
Ġprimary
Ġsenior
Ġangry
Ġcitizens
Ġpun
Ġrat
ĠRo
Ġflip
edy
ĠMor
ategy
Ġviolet
Ġredu
Ġdise
issa
Ġincome
ĠAlso
Ġhyd
Ġpushing
rants
town
Ġbald
Ġfart
icol
road
venue
Ġstarts
Ġoutdoor
Ġtough
Ġpor
amic
ĠCup
Ġtells
Ġappl
Ġunless
Ġclimb
ersey
Ġyard
Ġfake
Ġshoot
Ġsight
term
Ġyeh
Ġplayd
izes
Ġtunnel
encies
Ġtrains
Ġstatus
bar
rs
Ġlamb
ĠTor
Ġnoted
ĠAir
Ġaccident
Ġfourth
anches
Ġmessy
ACK
Ġbac
etic
Ġalbum
Ġanaly
Ġnecessary
ĠBill
Ġvs
Ġanybody
iber
ĠInter
Ġbattery
Ġagreement
ìĿ
Ġbout
ĠCr
istry
Ġjoin
Ġcredit
Ġmister
Ġrare
Ġstairs
Ġleather
ste
ĠBitc
Ġworry
Ġdishes
ĠApple
ĠGovern
Ġdraft
Ġfilled
ĠSH
Ġthrowing
Ġactions
Ġexcited
Ġtraditional
Ġdum
Ġpil
Ġpages
Ġgent
Ġshift
Ġsuff
Ġhighly
Ġsinging
Ġcontinues
Ġilleg
Ġtheory
Ġvirt
Ġmanager
Ġamb
Ġmemory
Ġpowerful
ortunately
Ġfreedom
Ġreligion
OU
inc
ilies
ection
new
Ġfinding
Ġmainly
Ġbenefits
Ġthirty
Ġpaj
Ġleaf
Ġstret
Ġprinci
ĠTexas
Ġalleged
asc
ĠSchool
roid
Ġgoat
aved
They
Ġpainting
ĠPeople
Ġmushroom
21
oft
Ġpsych
Ġfal
Ġonions
Ġrandom
Ġprose
Ġexplain
annel
Ġgarbage
Ġsuccessful
Ġpurpose
Ġbon
uty
rial
Ġcoal
Ġfear
Ġintegr
Ġshouldn
idden
Ġunknown
Ġimpl
Ġdecades
ĠServ
ĠMil
ossible
Ġ80
Ġcaused
Ġmission
ipping
put
ĠDel
Ġagree
ĠStep
Ġtreatment
Ġbehavior
night
Ġ{
Ġcateg
ĠGold
Ġbags
Ġdetermin
Ġsna
ĠPM
ernie
Ġteenager
Ġagreed
Ġtemper
Ġsharp
ota
ĠAre
ĠDa
Ġserved
Ġdollar
Ġpillows
Ġdevice
Ġtoothbr
ĠGree
RA
ym
Ġdie
ĠWall
EL
Ġsally
vere
verse
antly
ĠHigh
Ġstreets
Ġorganiz
ĠTwo
Ġchalleng
80
dies
oston
ĠEarth
Ġcaption
Ġsurprise
Ġcabinet
Ġconflict
Ġplaydoh
Ġpeppers
eling
ĠUs
Ġproduce
--------
ĠCouncil
EO
uana
Ġros
Ġcho
ĠPri
Ġworse
Ġlaun
ĠChris
Ġairport
ancis
Ġinternet
Ġepisode
Ġped
Ġug
Ġtrash
ĠFoll
Ġmicrow
Ġgrandpa
Ġtongue
lor
âĤ¬
Ġpreviously
Ġleaning
Ġchallenge
ipper
ĠÐ
erm
itness
ĠMike
ccer
Ġzoom
Ġstrange
Ġcloud
ĠAnge
95
Ġna
Ġgoals
iller
Ġgreater
Ġnumer
Ġcritical
iliar
Ġwetsuit
Ġpatients
ERS
ston
ĠGeorge
Ġparties
Ġdrinks
Ġprograms
Ġhonest
Ġthirties
BI
Ġprem
Ġpointing
Ġnearby
Ġshadows
Ġhundreds
Ġweapons
100
ĠMag
Ġarr
raid
Ġincred
ribution
Ġsch
onents
Ġnoon
irgin
ĠTop
ĠRel
ups
Ġequip
ĠImage
Ġcustomers
24
ba
Ġoat
etro
ĠBig
Ġkitty
Ġgolden
Ġrais
mbol
ĠDan
Ġserve
Ġentirely
Ġapartment
Ġconfirmed
Ph
wide
Ġsouth
Ġpine
ĠAP
Ġhipp
Ġgiant
dden
ograph
edge
asion
Ġmagn
Ġindeed
Ġbenefit
Ġcurtain
Ġbicycle
Ġfaster
itude
Ġscale
Ġoptions
Ġnor
ĠYes
Ġkeys
Ġsigned
Ġmarriage
Ġsticky
vest
Ġwarn
Ġtractor
Ġpoliceman
Ġinfluence
].
but
iest
iqu
Ġmud
Ġrap
Ġseats
ĠThomas
Ġposted
ĠBitcoin
asp
Ġhero
Ġrank
Ġarmy
Ġflight
Ġexcell
how
Ġpow
Ġheight
ĠWoman
Ġherself
Ġauthorities
ructure
Ġsports
Ġmillions
pan
Ġfirm
leep
Ġstain
Ġliqu
Ġsudden
Ġreddish
uffy
ĠChristian
Ġmicrowave
Ġfurn
alent
Ġteach
Ġphotos
Ġstrategy
Ġrectangle
Ġê
aroo
Ġheat
ĠBL
Ġthinks
Ġspecies
Ġslices
Ġminimum
fficient
Ġfamilies
Ġstuffed
Ġauthority
Ġsources
Ġdetermine
Ġafraid
33
ĠBen
Ġallows
ription
Ġprotest
Ġclaimed
ijuana
olf
umble
Ġadop
ĠUN
Ġsupper
Ġlawy
Ġexplained
Ġclothing
Ġexcuse
ca
Ġbacks
Ġmodels
Ġfunding
Ġsprink
eed
gency
Ġbaa
Ġshared
cious
Ġshopping
Ġmassive
Ġturkey
nut
Ġfellow
iders
outhern
ĠRob
ĠLou
ĠOh
Ġpointed
Ġsurfboard
Ġlimit
Ġsurprised
Ġvariety
Ġbob
Ġprices
Ġcreating
ĠUnion
Ġindependent
!"
nie
Ġcities
Ġspill
Ġuncle
dered
Ġcells
ĠInternet
Ġtap
Ġgate
ario
iro
rian
igned
Ġowners
That
Ġpepperoni
ĠSyria
Ġresources
Ġgentle
Ġcharges
Ġimpossible
ĠAnother
Ġqueen
hi
tw
Ġnotes
Ġkang
Ġresident
Ġsites
Ġsymbol
iation
Ġfro
oops
ĠMad
ĠMah
ĠChurch
Ġowner
Ġproduced
Ġmagic
ĠSecret
Ġjudge
But
ĠAny
ĠFar
Ġimages
Ġinitial
Ġarrived
Ġconservative
ĠMartin
Ġequipment
cr
pri
ĠMAN
ĠHall
agers
ression
which
Ġdebt
Ġneighborhood
dog
Ġgay
ĠCle
andon
ibly
ias
Ġcore
icians
urse
ĠBer
outs
ĠChicago
coming
ĠDef
27
equ
Ġhus
Ġshock
orthern
Ġrelatively
Ġrainbow
ĠJapanese
miss
oly
Ġmanuela
Ġsmooth
Ġenem
Ġbringing
Ġtransport
Ġprovides
Ġgenerally
Ġthrew
Ġbucket
Ġconversation
29
Ġqual
Ġcompar
Ġ2018
Ġvegg
Ġdepartment
rom
Ġhate
ĠMac
ĠLar
ashion
Ġbutterfly
Ġimagine
Ġresearchers
ville
Ġfab
Ġramp
ĠHaw
ĠNFL
Ġbecoming
Ġaccom
Ġmulticol
wing
itz
ĠSee
ĠWestern
Ġoffered
Ġdrum
arliam
Ġdaughter
OL
etch
ĠMiss
ĠLa
Ġtwel
Ġrecords
Ġbugs
Ġscarf
ĠMiddle
Ġpeanut
ader
Ġemot
Ġtouching
Ġcandidates
Ġopposition
Ġopinion
gers
mission
ye
Ġwra
Ġrefe
ĠIr
âĢĿ,
rency
Ġbelieved
Ġlettering
):
cel
Ġwinning
ĠAdd
Ġfrosting
inct
Ġpud
Ġroo
ĠBank
Ġshell
Ġscary
Ġresidents
Ġpurse
Ġ90
ĠAtt
Ġunderstanding
ĠScott
Ġaid
ora
Ġreform
apers
ĠPress
ĠFrance
Ġsales
Ġlegislation
ãĢ
ano
Ġvroom
ĠWil
ĠCommittee
Ġracket
Ġassociated
Ġbounce
Ġbikes
Ġtent
Ġtissue
estic
Ġworst
ĠChar
aws
Ġcontrovers
ĠGeneral
Ġgloves
nowl
Ġder
urance
ĠWin
ĠYour
Ġdefensive
Ġinvestment
ĠGuy
Ġexcellent
uild
Ġmug
inger
isation
ĠMars
Ġsupporters
Ġpooh
Ġpitcher
iot
Ġgarden
icip
uries
ĠBay
Ġcommittee
Ġadvoc
ĠPalest
ĠHillary
Ġhur
Ġshore
Ġplus
ĠStud
Ġoperations
arliament
37
AY
ih
point
Ġfits
Ġremark
Ġdaisy
Ġkangaroo
onent
Ġdonkey
ĠJew
ĠJohnson
.âĢĻ
39
iven
org
iser
Ġjam
Ġshaped
Ġasleep
Ġgraph
ĠGe
Ġcommunities
ita
ĠPort
aki
Ġresponsible
Ġ}
ĠCap
Ġsheet
Ġadding
Ġassault
Ġopposite
Ġtoothbrush
mm
ĸĪ
Ġtruly
uman
Ġcru
Ġcuts
Ġbusinesses
Ġnegative
Ġrates
Ġlived
Ġwashing
Ġdecide
ĠCanadian
Ġfurniture
Ġir
Ġthus
Ġjar
Ġjune
Ġplug
Ġacadem
Ġpulling
Ġdemocr
Ġconcerns
ĠInstead
What
ĠRobert
lie
anes
Ġseeds
Ġdoct
ĠSol
Ġenforce
oyal
Ġmaroon
Ġsolution
Ġbalance
Ġfalse
Ġtack
athe
Ġdat
Ġfox
ĠMon
Ġgrapes
Ġrolling
ĠIsraeli
ĠIslamic
Ġestabl
ĠJeff
Ġstorm
Ġjohn
umm
Ġdeck
ĠWH
Ġunlike
Ġhoodie
ushing
sec
Ġtwice
Ġcather
Ġcommit
Ġfamiliar
Ġexperiment
Ġdaily
Ġemployees
Ġmentioned
And
real
ancy
ĠArt
ĠOnce
Ġducks
Ġensure
Ġfill
isters
Ġbranch
ĠOF
Ġelmo
Ġbelt
Ġstores
Ġrevealed
rie
Ġbom
lying
Ġjazz
ĠSher
ĠCell
ĠGood
Ġhighlight
ĠProf
Ġargument
stein
nam
Ġcha
isted
ĠGame
ubs
Ġserving
ĠAdvertisement
IL
UT
Ġtiles
Ġsale
Ġacqu
Ġconcerned
Ġcomfortable
Ġcraw
ĠFound
Ġprec
Ġmarble
Ġtwelve
Ġannounce
Ġcatherine
Ġcrew
Ġbirdie
Ġtests
uke
ĠSup
ĠPlease
Ġlighting
ship
Ġarrested
alie
Ġsail
Ġkeeps
ĠFrancis
ĠUSA
Ġdigital
cont
Ġmig
Ġhearing
ĠTim
ĠHa
Ġguide
Ġoffers
Ġpartners
Ġmarijuana
Ġnewspaper
ĠToday
ram
onald
ĠBack
ĠNy
Ġoffensive
Ġsticking
Ġlistening
Ġlabel
Ġodd
Ġwhis
igan
acity
Ġwealth
abor
Ġ32
Ġdistrict
Ġrefuge
Ġoccup
ses
Ġpile
Ġstated
Ġbackwards
Ġsurvey
Ġwalked
Ġmiles
44
vant
Ġfant
Ġeh
Ġpartner
Ġglad
Ġ195
BA
ĠTO
ĠTheir
ĠYet
Ġchem
Ġpaying
Ġapparently
Ġstrength
Ġillegal
Ġmut
Ġreaching
grap
Ġactive
Ġspeaking
Ġhelps
Ġstrugg
Ġseconds
Ġapprox
Ġscratch
ĠSecurity
www
Ġther
Ġcord
Ġsoccer
ĠNor
Ġtops
Ġeffective
goti
Ġtied
Ġded
Ġbeef
aren
Ġgiraff
Ġadvantage
Ġpackage
anish
ĠSam
Ġwheat
Ġ31
Ġjackets
Ġsticker
ĠOffice
Ġmichael
Ġnest
Ġliked
ĠMatt
Ġquant
Ġdecisions
Ġdesigns
Ġsuggested
Ġintroduced
Ġurs
Ġwings
Ġbee
Ġjet
Ġlemon
Ġmere
Ġbodies
ĠGU
Ġpoles
ĠFrank
Ġdiscovered
Ġcloset
Ġsalt
Ġwhoop
Ġvalues
Ġlabor
Ġplaced
ĠInstitute
ker
Ġgear
kel
alley
apter
ĠFe
Ġmomma
Ġphil
Ġregist
Ġvictory
Ġstainless
ani
Ġlosing
lement
antic
Ġresc
Ġdarker
Ġchanging
Ġproposed
Ġdestroy
vention
rep
Ġfrench
Ġbeard
Ġtherefore
ĠSn
Ġgrew
ĠDire
Ġbecomes
ifying
Ġamazing
Ġdecent
Ġdecade
Ġposing
Ġexpert
ĠConst
Ġreturned
Ġcurtains
Ġspokesman
Ġachieve
Ġbegins
70
Ġ>
Ġdess
Ġhidden
Ġshade
ĠLin
Ġspoke
Ġbuses
Ġuseful
Ġrestrict
ception
Ġfancy
iable
Ġnovel
Ġfrank
Ġjustice
resp
Ġadjust
ubb
Ġkeeping
Ġgift
ĠGreat
Ġdocuments
ĠDespite
pen
well
Ġpitch
isf
uster
keys
Ġshapes
ĠMont
ĠBob
Ġguitar
Ġskier
iano
Ġeditor
Ġcleaning
Ġbean
ortion
ĠGirl
Ġsnack
Ġmeter
ĠCommun
Ġbanks
Ġpapa
ĠRichard
SP
gree
Ġwing
Ġwitness
asy
Ġzone
Ġaccur
Ġtowels
ĠSecond
Ġenvironmental
itation
Ġgender
enced
ĠAlex
Ġclip
Ġmarkets
Ġbasis
white
Ġshades
Ġrepeated
look
ulf
Ġsaus
Ġlargely
Ġbasically
Ġpushed
Ch
uate
Ġdot
acing
Ġstadium
olic
Ġaspect
Ġallowing
Ġunp
Ġsupply
Ġtalked
Ġfailure
Ġconnected
itutional
CH
ixt
ÑĤ
Ġwed
Ġmummy
Ġbless
ĠCamp
ĠBoth
Ġrecording
Ġexpand
Ġexpensive
Ġplanning
Ġrequires
Ġdiscussion
Ġselling
ĠWilliams
Ġursula
Ġdessert
tle
ëĭ
Ġcher
ĠCat
cknowl
emen
Ġcovers
Ġelements
Ġsleeves
Ġsneakers
ĠLouis
23
usion
Ġath
ĠFur
Ġ2006
Ġsnowboard
Ġterrible
500
atically
Ġdownstairs
ĠThose
Ġmotion
Ġraise
related
ĠEngland
ĠMedia
Ġstrawberry
Ġapplication
Ġmulticolored
ND
hell
nda
orse
ella
ĠWind
Ġawake
Ġsongs
Ġactivities
Ġidentify
Ġdinosaurs
Ġrecognize
Ġpajamas
Ġlaunched
mond
ĠSaud
Ġmanagement
ĠNAS
Ġunit
Ġcontext
clock
ĠImages
Ġpanel
rary
za
Ġholes
Ġgain
Ġchips
Ġappoint
Ġcarried
Ġtransfer
ĠCollege
Ġspirit
rative
Ġdots
Ġthumb
Ġseek
Ġbelieves
Ġcollar
Ġsupported
ĠBritain
66
Ġkalie
ĠAc
ĠCarl
ĠCEO
ugh
olly
Ġends
Ġlocation
ĠCarol
Ġscientists
Ġmelissa
ius
Ġgogg
ĠMer
Ġflash
Ġprefer
Ġdrivers
Ġequal
Ġsuggests
burg
ĠSub
ĠCH
ĠRem
Ġdifferences
Ġpurs
Ġgeneration
34
rating
Ġsets
Ġyards
Ġreject
Ġweak
Ġclay
Ġclap
Ġencl
ĠAndroid
meal
Ġtransform
Ġissued
Ġmatches
ĠAfrican
RI
cript
hirt
Ġfashion
Ġnurse
amin
semb
ĠPC
Ġcoverage
ĠJim
ĠHealth
Ġstrateg
Ġtalks
Ġfemales
Ġfigures
ĠCommission
Ġroughly
ĠSupreme
Ġpa
season
andy
ĠWork
pective
Ġobt
Ġexisting
spe
Ġfo
Ġhom
uters
Ġjelly
ĠSil
ĠStem
Ġaccused
print
Ġhumans
Ġplanes
van
yard
zil
Ġpatch
Ġlucky
esus
Ġfrust
ifer
ressed
Ġskills
Ġcolorful
Ġwaist
Ġcowboy
Ġzebras
Ġproviding
Ġpossibility
Ġmistake
Ġgiraffes
Ġwagon
Ġsemi
ĠCre
Ġnegoti
Ġvast
Ġcarriage
Ġshoulders
....
Ġdonuts
Ġteaching
Ġobjects
Ġslowly
ĠAssociation
ĠScientology
Ġgoggles
.'
HL
upp
Ġhol
Ġnin
arant
ications
Ġkh
ĠWeb
Ġsmoke
Ġinterp
Ġspecifically
Ġinjury
Ġvillage
Ġnic
osen
ĠRE
ĠKh
ĠSociety
Ġinfrast
Ġjoined
ĠQue
going
Ġdomin
Ġconvention
gen
âĸĪ
Ġhurry
Ġhen
Ġforth
ĠRom
Ġcock
Ġunivers
Ġuniversity
ĠWho
Ġstickers
Ġdeliver
Ġidentified
Ġwonderful
Ġiniti
Ġmurder
38
As
CA
aver
imal
ĠFore
Ġdiam
Ġskis
Ġbelief
Ġinterests
ĠSpace
ĠGroup
Ġmovies
Ġbasketball
Ġolives
Ġliquid
Ġtab
anted
ĠBus
ĠBowl
Ġoutfit
onto
aze
Ġinstall
dri
Ġacknowl
icing
usk
Ġstem
Ġclaus
ĠFire
Ġ2000
enses
Ġpresents
Ġfalls
Ġjumped
Ġappropri
Ġpete
Ġprepared
Ñģ
reci
Ġcracker
Ġyork
ĠFin
Ġbroc
Ġpassing
Ġfundament
Ġhousing
ĠMean
Ġsqueak
Ġfaith
lymp
Ġalleg
ĠFox
ĠLat
Ġremoved
cake
Ġrings
elled
rier
istics
ĠDi
ĠLos
Ġindoor
Ġzero
Ġdragon
Ġcooked
Ġaircraft
Ġstrike
ĠIsland
ĠBlue
Ġupdate
enoord
Ġdisease
Ġhusband
Ġinfrastructure
Ġamerican
Ġhitting
oms
Ġreact
Ġmanaged
ĠUnder
coin
Ġprofessor
friend
Ġlaughing
55
90
SA
fish
win
Ġtip
Ġsoph
Ġeur
rif
ĠGOP
ĠOk
Ġtransl
Ġviews
front
rad
Ġrope
ĠCy
ĠCur
Ġreduce
arko
uggle
Ġmustard
ONT
Ġcandles
Ġtypical
Ġemergency
ghan
ÑĢ
Ġapr
Ġnuts
oween
Ġreci
ĠSur
Ġputs
Ġfloral
Ġproud
ĠVirgin
Ġmarried
Ġprotection
Ġaccounts
Ġurban
Ġjun
ĠElect
Ġeleven
azed
Ġmeasures
FC
hand
li
Ġtalent
Ġbib
Ġpond
isher
Ġstir
ĠBook
Ġconsequ
angular
Ġsubsc
bye
Ġdeveloping
Ġtesting
Ġdomestic
Ġbesides
Ġoatmeal
ST
arian
Ġremind
Ġcurrency
Ġplanet
ĠAtl
Ġexpression
Ġfloppy
Ġhay
Ġghost
Ġharder
Ġstandards
Ġcommand
Ġinteract
Ġblocked
gypt
ronic
ĠJustice
Ġafford
Ġmatthew
ĠKorea
bour
can
Ġconclud
Ġassess
Ġinstr
Ġpilot
26
Ġast
ĠSun
Ġleftmost
Ġ2019
Ġcommitted
Ġfaced
Ġoccur
Ġexercise
Ġtask
Ġsust
igator
teen
Ġpiggy
rosoft
Ġmushrooms
ĠPalestin
ĠGUY
OO
Ġdavid
Ġtoot
uls
ulated
ĠWhe
rawn
Ġholds
Ġsticks
Ġpigs
Ġnarrow
Ġprosecut
Ġfabric
case
vis
ication
Ġrural
ĠBet
Ġexchange
Ġsuppl
Ġtaller
Ġhurts
Ġoccurred
Ġparticipants
ĠAfrica
Ġrapid
Ġenforcement
íķ
Ġfamous
Ġpositions
ĠSwed
Ġveggies
GB
eze
Ġgig
alls
ulate
Ġdada
Ġsliced
oking
Ġvotes
Ġidentity
Ġresponsibility
Ã¡
Ġdu
Ġmal
Ġmaster
Ġgrave
Ġstream
Ġinstance
Ġplanned
Ġba
Ġcer
Ġpanc
Ġstool
Ġshiny
ĠMet
ĠMary
ĠRyan
ĠOut
Ġpresence
ĠYoung
Ġannual
ĠPrime
Ġsleeved
Ġharm
Ġlaugh
Ġvictims
Ġladder
Ġestablished
Ġwhist
ishes
Ġheav
Ġhaw
Ġshining
ores
Ġsquir
Ġaward
Ġrose
otes
Ġvo
ĠGar
ĠKur
Ġwrites
Ġsuppose
Ġpresented
ĠPhil
Ġpicnic
Ġconnection
clusion
Ġestablish
Ġobviously
Ġbacon
Ġorganizations
mar
Ġwest
utch
ĠDist
ĠChief
Ġbreaking
Ġphotograph
Ġloved
Ġtaught
ĠGuard
Ġdetermined
ĠGreek
ĠAngeles
Ġske
Ġcooper
Ġmuff
Ġtoe
ican
Ġdock
olt
Ġsoda
ĠPre
ĠDen
Ġsquish
Ġelections
Ġcomplaint
Ġleadership
ĠGovernment
made
onom
Ġfol
ĠRiver
Ġcolumn
Ġcharged
ĠArmy
Ġdevices
Ġskiing
ĠAfghan
ĠSecretary
stone
Ġwaste
Ġsoci
ums
umber
Ġgoodbye
ĠSocial
Ġfiles
Ġhelmets
Ġtaxes
ENT
Ġapproximately
born
makers
Ġdrew
ĠCN
Ġ34
Ġrecorded
Ġarticles
Ġvoted
Ġfuel
Ġnana
Ġnoticed
ĠScience
Ġbranches
Ġknees
Ġremained
Ġbowls
Ġcircles
iverse
Ġattempts
Ġaffected
Ġregarding
Ġmobile
rough
ÃŃ
agn
ĠOffic
that
Ġentertain
Ġ2003
Ġexperts
Ġrocking
Ġdesktop
ĠNyarko
CC
ded
pm
Ġtant
Ġtact
acle
Ġsevent
ĠTer
ĠSign
Ġdaylight
Ġsurve
Ġkitten
Ġbuying
onym
Ġfunds
ĠBrazil
Ġsausage
!âĢĿ
car
âĢľ
Ġcann
Ġshh
agues
ĠOlymp
Ġbreed
Ġsweats
Ġexciting
Ġdomain
Ġwidely
des
uous
Ġjenny
Ġabandon
ource
Ġdowntown
Ġvision
Ġregister
Ġrealize
Ġinstruct
Ġhyp
Ġcircus
Ġshelves
Ã¤
Ġbin
Ġcert
Ġfishing
Ġfuzz
orage
leg
alian
Ġraw
Ġstood
opy
Ġcliff
ĠGIR
Ġcheap
Ġpotentially
Ġ2005
ribute
Ġfactors
Ġvoting
Ġknocked
Ġbelongs
Ġfarthest
Ġceramic
rome
war
onn
Ġalloc
Ġabuse
Ġclin
Ġdegree
ements
Ġ37
arest
ffered
Ġskill
Ġsubur
Ġjoke
Ġsoldiers
Ġstretch
mes
overy
erg
ĠLong
bert
Ġflow
Ġsnap
Ġpicking
Ġstudio
ãģ®
ĠBefore
ĠMaybe
Ġwatched
Ġultimately
Ġraisins
ĠWindows
47
PA
cons
inals
Ġpale
Ġpowers
Ġhack
Ġvul
ansas
icted
Ġchef
Ġrefused
Ġcollection
Ġcycle
Ġstrawberries
When
gor
Ġseasons
ĠAuthor
ĠRog
ĠDN
Ġworried
ĠJones
Ġfarmer
irsty
Ġtradition
ĠCentral
ITH
Ġdrugs
Ġspinach
ĠBoy
Ġknowing
Ġ2001
Ġcouncil
Ġposts
Ġconsidering
Ġsatisf
Ġcircum
49
die
ena
Ġforms
ĠSl
ĠMel
Ġalive
Ġgrape
Ġ36
Ġcapacity
Ġleads
Ġpenny
Ġmickey
Ġsolar
Ġeric
ployment
ĠSystem
Ġindustrial
Ġcorporate
Ġalternative
ĠMexico
Ġugly
36
iant
Ġloose
Ġmask
Ġcoord
Ġ65
Ġargued
Ġguns
Ġbuddy
ĠToronto
mitted
Ġeast
oted
Ġkilling
Ġupset
ĠFey
Ġcarbon
ĠInc
ĠStan
Ġcommission
Ġappearance
Ġelected
ĠDaily
Ð½
Ġtad
Ġfav
Ġhoo
ented
Ġsharing
ĠMa
ĠMass
Ġfeather
ocal
Ġphones
Ġresist
phas
Ġbush
Ġinstit
Ġcustomer
IP
reland
Ġshove
Ġneut
Ġsweat
Ġlayer
Ġdetect
ĠSaudi
01
For
wr
ĠSing
ĠAri
standing
ĠWas
Ġappreci
Ġintended
weight
Ġmotiv
porary
Ġoriginally
Ġseriously
Ġsuddenly
ĠCarolina
Sh
uations
Ġdust
Ġsuffered
ĠEgypt
Ġspark
Ġaggress
phones
ĠSteve
Ġspectators
====
Ġtrailer
Ġresidential
ua
Ġernie
Ġlin
Ġstable
ĠCapt
stick
stream
ĠMur
Ġusual
ours
pay
Ġera
Ġwage
oma
Ġlif
ĠCard
Ġchin
ĠRub
ĠNote
Ġunclear
ockey
Ġremaining
Ġblocking
Ġdiscrim
Ġpoliticians
Ġhydrant
Ġaccompl
mail
ront
Ġicing
Ġgum
Ġnomin
Ġfries
ĠBBC
ĠPut
ĠJack
Ġattorney
Ġphotograp
ĠShow
Ġpromise
Ġwedding
Ġdiamond
ĠMeanwhile
48
EE
with
Ġyucky
Ġnations
igger
Ġhaha
rol
umin
ivia
ferences
Ġdrag
Ġcombination
Ġowls
ĠFoundation
Ġpra
alog
eller
Ġshark
Ġtroops
unction
Ġveter
ĠFree
Ġcoast
Ġprospect
IM
Ġcancer
Ġseeking
Ġketch
aham
Ġoffering
Ġdiet
Ġstayed
Ġinsurance
Ġcrossing
Ġphilos
Ġmary
isa
ĠWITH
ĠThank
Ġstatements
Ġrubber
Ġcabinets
Ġincreasingly
Ġliterally
cos
Ġmice
Ġgal
igation
Ġjail
char
ĠRock
Ġscript
Ġelim
Ġsurprising
Ġdisappoint
ĠUpd
ĠMicrosoft
Ġproposal
Ġchallenges
Ġketchup
tail
Ġcraft
Ġyer
Ġmall
Ġreference
Ġrot
ĠPac
Ġproced
ĠJon
Ġlocated
Ġscores
Ġweapon
Ġconducted
Ġimmigration
Ġpurchase
gent
tie
uish
ati
Ġgor
Ġrum
Ġblinds
Ġkat
ĠCath
ĠPublic
orders
Ġwrit
Ġgrayish
lets
Ġpractices
Ġruling
ĠAbout
ĠAgain
ĠFederal
Ġbone
itors
oos
Ġruff
ĠTra
olit
stal
Ġalligator
ĠPS
Ġadapt
Ġeaten
Ġcolle
ĠOnly
Ġpatient
Ġprofile
ĠSupp
Ġbroadcast
ĠAustralian
Ġdoughnut
Ġnumerous
Ġdusk
ushed
Ġchamp
ĠRad
Ġguarant
Ġtear
Ġapply
Ġmatty
IRT
ĠEnter
ĠNASA
ĠVirginia
05
bell
life
Ġpaved
Ġspons
Ġintent
Ġagencies
Ġ42
Ġ500
ĠCharl
Ġterrit
Ġtechnical
Ġutens
Ġrobin
anny
osition
ello
ĠMiller
ĠBoston
inda
ĠWood
Ġsecure
Ġsits
Ġprotes
Ġsample
Ġmrs
ĠService
BS
No
awn
Ġties
ĠSqu
udge
Ġunus
ĠVer
hens
Ġeval
ĠRec
Ġgovernments
ĠLeg
Ġoperation
Ġinnov
Is
coh
rot
Ġbars
Ġblurred
Ġuna
Ġkites
sex
ĠEach
Ġflood
ava
Ġmoves
issions
Ġwriter
Ġentry
Ġsupporting
Ġmental
Ġsweatshirt
ĠFeyenoord
kr
heart
Ġdrawn
Ġthirsty
arters
omer
Ġtravis
ĠHam
ĠHist
pee
Ġbubble
ĠThough
Ġwrap
Ġbeds
Ġcarefully
Ġgrassy
Ġsubs
ĠDevelop
ietnam
Ġrectangular
Ġcomplexity
ëĭ¤
itable
Ġgap
lyn
Ġsup
ĠEner
Ġrecru
Ġpolar
Ġgovernor
Ġfeeding
Ġsecretary
Ġscientific
Ġpotatoes
ĠHawai
Ġathlet
hett
Ġmor
Ġgym
Ġsector
itect
ulk
ĠHind
Ġexclus
Ġremove
Ġourselves
Ġsandy
Ġmatters
Ġinternal
Ġprivacy
Ġproperly
Ġsurrounding
Ġexperienced
Ġfired
Ġhint
Ġseed
lder
Ġwhee
ĠMich
ĠBas
ĠFre
azon
Ġawful
ITE
ributed
Ġterrorism
ĠNetwork
Ġschedul
ĠFurther
mod
vin
asure
Ġjour
abe
Ġchug
Ġdownload
Ġpray
cling
Ġhardwood
Ġdesert
Ġ75
Ġlovely
Ġconfidence
Ġextent
ĠColor
Ġinterpret
75
DP
foot
Ġtourn
Ġpiano
Ġgather
Ġfraser
Ġsund
ĠGal
Ġcontrast
Ġdismiss
Ġobsc
Ġfriendly
Ġfactor
engers
Ġvanilla
Ġhttps
Ġsplit
ĠParis
Ġlobby
Ġsubstant
ĠMahiro
Ġcircumst
Ġpoop
Ġdee
Ġentered
Ġcompleted
Ġinvestors
Ġsuspend
Ġcontroller
ĠFollow
mates
attered
abet
ĠCIA
Ġsuck
Ġvit
ĠHy
ĠJoe
Ġnewer
Ġlaund
Ġclosely
scar
Ġvideos
Ġtypically
Ġpatterns
Ġmethods
tion
Ġboot
Ġcous
Ġfurt
enture
abilities
Ġnearest
ulous
ĠPak
Ġ33
Ġtech
Ġgotten
iped
ĠYemen
oked
Ġadvance
ĠProt
Ġnecessarily
Ġterrif
Ġdingo
Ġdoctors
iw
lly
Ġjersey
ĠSal
ounded
essions
ĠFBI
Ġbits
Ġrelax
Ġcombined
Ġdeclared
rich
Ġpant
Ġgeorge
abil
ĠCru
ĠWild
Ġgreenish
ĠJo
Ġcontest
Ġhardly
ggy
ĠGrand
roller
****
Ġperspective
rels
Ġwins
Ġoct
inent
Ġshots
ĠHel
ĠDar
Ġbuzz
Ġsnowing
Ġdevelopers
Ġracing
Ġinvolve
Ġfifty
Ġpuppet
Ġmanufacture
Ġtemperature
py
pic
pired
Ġcandle
Ġsuits
ĠMos
Ġmegan
Ġbrings
ĠGames
anged
Ġelement
ologies
iki
Ġdrawer
Ġexpans
Ġfixing
ĠTechn
Ġexpressed
athered
Ġcind
esome
Ġancient
ĠAut
oodle
orted
ĠNov
Ġheavily
west
Ġauth
inating
Ġlick
astern
icial
iments
ĠSomet
ĠMs
ĠHuman
upid
Ġmini
Ġopposed
Ġfiled
Ġincreases
Ġmaintain
Ġessential
Ġapron
TS
run
Ġcush
Ġpure
esh
ĠPL
estival
ĠOpen
Ġregime
Ġgreatest
Ġfollows
Ġ1990
Ġhopes
Ġresponded
Ġschol
bie
rate
Ġouch
Ġnorthern
oria
oty
cha
ĠPower
Ġgross
ĠJournal
Ġglue
ĠYe
Ġemphas
Ġoptim
Ġrobot
Ġestimated
Ġpalm
PS
rig
Äģ
Ġsought
Ġwears
thur
Ġacting
Ġdistant
Ġexplan
Ġlanding
Ġerror
ĠColumb
Ġlawsuit
Ġribbon
ION
eal
vor
Ġparliament
Ġrent
Ġrenew
ulations
Ġprove
Ġpeach
ĠForm
Ġ55
ĠAsia
Ġ2004
Ġretire
Ġpassengers
Ġjean
Ġconstruct
Ġnapkins
Ġhalloween
________
rors
rance
Ġcried
Ġgaming
Ġbending
olved
Ġsomehow
Ġoffense
Ġmyster
Ġlighter
Ġcheer
Ġumbrell
Ġparade
Ġrachel
Ġsentence
Ġcontainers
Ġbrothers
Ġlicense
Ġlawyer
Ġvulner
Ġfurthest
PD
So
free
gment
person
Ġbond
Ġordered
ĠBudd
Ġvice
ĠHome
Ġexhib
ensions
odes
ĠAndrew
Ġclimbing
Ġstatue
Ġteenagers
Ġuniforms
Ġapplications
ĠConserv
Ġauntie
Ġwhistle
Ġinstitutions
lers
Ġongoing
Ġstom
uration
ĠBur
Ġchannel
Ġvir
Ġflu
Ġcontains
ĠVict
Ġscreens
Ġrolled
Ġargue
Ġinjured
ĠGetty
Ġreduced
respond
EM
],
fortunately
pass
Ġpats
Ġreaction
kered
Ġchim
ĠPrem
Ġsav
ĠThanks
class
ĠVietnam
Ġfunctions
Ġincor
Ġconsult
Ġartist
Ġ1980
Ġsignificantly
Ġopportunities
ĠLiber
Ġwarned
Ġsprinkles
law
Ġtou
Ġwrest
Ġmort
Ġfog
Ġhamb
Ġhills
Ġtodd
Ġrevenue
Ġrig
Ġrally
Ġstorage
Ġwithd
ĠIreland
Ġchart
Ġadvert
Ġdiss
Ġparam
Ġdiscussed
Ġterrorist
Ġconsumers
Ġvacation
ĠSHIRT
iency
vy
xy
Ġstress
Ġproceed
ĠEll
Ġplayoff
Ġ48
Ġpasta
ĠChristmas
Ġessentially
Ġanalyst
etroit
ippers
Ġbark
Ġmerry
Ġblind
Ġaside
ĠMot
Ġchinese
Ġalt
Ġ38
Ġscoo
Ġfemin
oken
ĠPolit
Ġreportedly
Ġexistence
Ġdemocracy
ĠFrancisco
ixture
face
mun
you
Ġbid
ĠTime
abis
Ġtrib
ĠDown
bec
Ġ300
Ġspag
Ġteal
ĠJesus
Ġprime
Ġsubsequ
Ġ2002
Ġwarning
ackson
Ġexamples
Ġsatell
Ġextended
Ġholiday
press
Ã³
roph
ĠMo
ĠBell
ideo
Ġdivision
Ġperman
boat
Ġwoods
Ġhousehold
Ġlegit
ennifer
Ġimportance
Ġparall
ĠPakistan
Ġumbrellas
My
gies
Ġwig
Ġbum
Ġlam
Ġnav
Ġgall
icop
uted
ĠIll
ĠSC
Ġrightmost
Ġdonald
Ġchip
Ġchampionship
Ġpeel
Ġunits
ulture
Ġeveryday
Ġballoons
Ġsweep
Ġedges
Ġexplo
Ġduckie
Ġpiggie
Ġoperating
Ġinitially
ĠFRONT
Ġneutral
/âĤ¬
FF
Ġbage
ali
Ġange
Ġshares
Ġfindings
Ġcaps
Ġdefault
ĠForce
ĠProject
ottom
Ġteachers
Ġperfectly
Ġ1970
Ġcopyright
Ġpedest
cohol
TL
och
uj
Ġtill
enth
Ġshout
opher
Ġbride
ĠPet
Ġagent
Ġtopic
Ġsche
Ġcrimes
Ġdram
duc
Ġthoughts
Ġticket
Ġexception
Ġadmitted
Ġsplash
ĠWilson
Ġchemical
Ġspaghett
/$
To
Ġbio
Ġmarch
Ġroot
irk
ĠAv
Ġpeas
ivered
Ġpersonally
ĠItaly
Ġtreated
Ġemb
Ġowned
Ġcauses
Ġpengu
Ġreporters
AND
Ġdescribe
Ġcultural
Ġmerely
ĠDirector
gorith
Ġstomach
uum
Ġsouthern
Ġcage
Ġrising
Ġko
Ġven
Ġalph
ĠJackson
Ġobl
Ġcollabor
ĠPlus
ĠAmazon
,'
ii
lace
rical
whel
level
Ġsheets
eless
Ġbother
ĠUkr
onsin
Ġviolent
isconsin
Ġspells
Ġunsure
ĠCharles
Ġunlikely
Ġfundamental
rr
âĪ
Ġboss
Ġrh
Ġstaring
state
ĠEconom
ordan
Ġhoriz
Ġobst
Ġbarrel
Ġvalid
Ġemployment
ĠMedicine
Ġswinging
Ġtrunks
Ġcategory
ĠAfghanistan
Ġjourney
Tr
pes
sm
Ġsession
Ġhazy
Ġshorter
Ġfruits
ĠMem
Ġcargo
Ġunion
ĠYear
Ġconfirm
Ġadvice
Ġadvanced
Ġboop
Ġbatteries
Ġdelay
Ġwires
Ġlinked
OTT
Ġfeatured
Ġimpressive
Ġprotesters
zona
Ġmas
Ġgang
Ġyouth
Ġryan
Ġbuff
Ġages
Ġspec
Ġcentre
Ġhotdog
Ġcausing
Ġtransp
Ġcampus
Ġraces
Ġactivists
Ġburg
evin
Ġrevolution
Ġthousand
Ġincredible
Ġbent
Ġbound
Ġcub
ĠCole
ĠMorm
ĠNick
ĠStone
Ġhelicop
Ġamanda
Ġemails
Ġdecre
awa
Ġexplore
Ġalongside
Ġinjuries
Ġupdates
Ġcommunication
ĠMuslims
Ġuncertain
ERSON
ãĢģ
Ġkhaki
ĠBusiness
Ġpatsy
zens
Ġtons
Ġain
Ġluck
Ġfool
ĠMP
Ġ39
ĠEle
Ġtwin
ucks
ĠStill
ĠVan
Ġholder
Ġcapable
Ġtermin
Ġfactory
Ġclassic
Ġcompetitive
Ġdeaths
Ġpretending
greg
Ġsqueeze
itarian
Ġappropriate
LS
water
Ġsac
rend
Ġwitch
unte
Ġpeep
ĠDetroit
Ġspray
Ġyellowish
Ġindian
athan
formation
ĠUnfortunately
ĠLee
iami
Ġprompt
Ġdenied
Ġflags
Ġfifth
Ġenemy
TV
bits
Ġsevere
Ġblowing
Ġfort
ĠNation
anging
Ġglazed
Ġdeli
Ġrelevant
Ġbatht
Ġaccepted
ĠSyrian
ĠDistrict
,,
,âĢĻ
AB
zel
Ġtone
Ġwars
Ġhal
ador
Ġstupid
Ġsunset
Ġresting
Ġfacility
Ġconfident
Ġexplains
Ġboards
ĠScot
Ġhoping
Ġescape
Ġroute
Ġhippo
Ġrescue
bug
Ġdug
Ġlou
esy
Ġnaked
edged
Ġnood
keep
Ġmeal
ĠNBA
cipl
Ġhadn
Ġworker
Ġdiscl
Ġcharlie
Ġpercentage
Ġclasses
ĠPlan
Ġrepresents
ĠPerhaps
iques
care
cery
gia
Ġsir
Ġwis
chair
Ġabortion
ĠPeter
Ġdegre
Ġcrab
Ġlaid
ĠChampionship
ologist
Ġpots
ĠBrook
ĠSpanish
oopy
Ġlocked
Ġgranite
Ġapplied
Ġcontroversial
Ġphilosoph
Ġdegrees
ckered
hun
name
page
Ġblk
illance
Ġvary
bered
sole
Ġcrust
ensus
Ġpolka
Ġtrend
axy
ĠAnn
Ġwinner
Ġformal
Ġoccasion
Ġspotted
Ġreplace
ĠLabour
Ġexpansion
65
Ñĥ
Ġforty
ĠAT
ĠDec
Ġresolution
Ġ64
iously
Ġnicely
Ġadds
aza
Ġsorts
ĠReport
Ġcastle
panic
Ġannouncement
rus
uated
Ã¶
Ġod
Ġphen
Ġlatter
Ġisol
Ġarmed
iper
Ġglove
Ġheaded
Ġtransition
Ġeaster
ĠAllen
Ġdelivered
Ġmaterials
twitter
Ġcomparison
Ġwrapped
called
po
Ġbomb
Ġles
Ġlined
Ġrein
ĠTit
ĠSpr
Ġchose
Ġupgr
ĠPERSON
ĠHun
Ġmoments
Ġmidday
Ġfoods
Ġrealized
lands
Ġlisted
Ġopponents
ĠManning
Ġradical
Ġconvin
Ġsubjects
Ġspaghetti
mel
rid
Ġcrib
Ġpave
Ġmand
Ġgoose
Ġbeads
section
Ġdipl
Ġthrown
Ġwrist
Ġcheckered
Ġdefeat
Ġattempted
Ġconsumer
Ġsunday
Ġnoodles
PR
was
inity
Ġgroom
roat
ĠGL
Ġcrunch
ĠKevin
Ġeats
ĠRev
Ġeffectively
Ġtraditions
Ġcritics
Ġscrub
Ġcaptain
Ġallegedly
ĠEnergy
46
ae
mat
ody
Ġwestern
erves
isms
elle
Ġshit
ĠPenn
ĠRam
ĠDiv
ĠDavis
Ġcoats
Ġroy
athy
Ġjudy
Ġexplos
Ġenglish
Ġtested
Ġpromised
Ġerin
Ġwondering
Ġdeclined
Ġtort
Ġliberal
Ġambul
Ġpuddle
Ġunusual
PU
uable
ĠMax
Ġblueberries
Ġbrownwood
Ġcoaches
ĠThree
Ġreaders
Ġcheek
Ġsignal
Ġbrew
Ġdistribution
ruption
Ġconfront
Ġclosing
Ġcorrespond
Ġcostume
Ġcrackers
Ġlinks
Ġolivia
Ġpolls
Ð¾Ð
Ġpowder
Ġrooster
ĠMichigan
ĠBuddh
ho
uy
Ġcig
Ġcel
Ġblame
Ġsoil
apy
Ġbackyard
Ġtheme
angers
ials
Ġfallen
Ġpatches
Ġjoint
Ġtaxi
Ġstronger
Ġcalcul
ĠISIS
ĠWHITE
Ġfuzzy
FA
ja
Ġought
Ġbatt
oured
Ġpit
ashes
âĢĲ
Ġsty
ĠSEC
owned
umes
Ġalcohol
Ġalgorith
Ġscored
Ġdistinct
ĠWeek
Ġpublicly
Ġlois
ĠAdv
ĠEngine
Ġtargets
Ġdisappe
hetic
Ġschedule
Ġchoices
ĠJewish
jo
mother
ÂĴ
Ġmoral
inky
Ġcomic
Ġflavor
Ġscare
Ġgloom
Ġopens
Ġnighttime
ĠFront
Ġsuffering
Ġarrange
Ġfrozen
ĠLinux
Ġconsequences
Ġutensils
Ġphenomen
yes
Ġdyn
Ġwhale
left
Ġjill
ĠBE
Ġfluffy
Ġmode
Ġelev
Ġemissions
Ġmonkeys
Ġboost
Ġgrocery
Ġcriticism
Ġexperiences
ĠRoad
ollywood
43
UR
long
Ġtires
Ġaqu
reen
Ġbones
Ġfasc
Ġlies
Ġatm
Ġsuc
ĠMount
ĠWatch
ĠRon
Ġoverwhel
ĠKelly
Ġdisag
Ġappeal
Ġfilms
Ġtrading
ĠBarack
Ġlobster
sembly
Ġcircumstances
mal
rey
Ġbert
Ġnative
Ġrides
cho
ĠPR
Ġkne
ĠHard
ĠRod
Ġflour
Ġmarks
ĠBrother
ĠSpain
ĠTurkey
ìĿ´
ĠColorado
Le
SE
ko
ĠiPh
esse
icate
Ġrider
otic
ĠTri
abase
gend
ĠFinally
Ġdesper
Ġevil
Ġcombat
market
Ġestimates
Ġterritory
SC
zo
Ġtroll
icide
alo
ĠTake
aby
olve
Ġchat
ĠFort
ĠLife
ĠJoseph
Ġreads
Ġvisual
Ġcamer
Ġstruck
Ġmemor
Ġsteep
Ġawesome
Ġstrongly
Ġpacked
Ġaudio
ĠNext
Ġprinted
Ġprincess
Ġimmediate
ĠContin
ĠCNN
Ġauthors
dit
Ġlane
Ġinch
add
Ġhabit
Ġkay
andal
Ġskies
Ġfinds
erella
Ġload
mingly
Ġthreats
Ġbricks
Ġcompete
Ġkicking
Ġacademic
Ġregistered
Ġcherry
Ġcolleagues
aire
rum
word
rehens
ether
Ġgolf
ĠMID
Ġclut
ĠFour
ĠLew
aret
ĠUnit
Ġcurious
Ġchickens
Ġmessages
Ġgenetic
Ġquarterback
Ġenclosure
ĠLatin
Ġscheduled
atos
Ġyuck
Ġlone
ĠIT
ilty
ĠCow
ĠWay
Ġacts
ĠView
Ġcreative
Ġpreschool
undy
Ġsquirt
Ġprotests
Ġunderstood
Ġorganized
Ġagenda
Ġ1998
Ġillust
Ġvacuum
Ġpuppies
Ġcoalition
ĠIrish
ĠArizona
Ġpavement
Re
mic
iner
Ġonion
Ġren
ĠSky
Ġwashed
ĠGeor
ĠList
ĠLove
Ġgoods
Ġspilled
pth
Ġunw
ĠKn
Ġsliding
Ġretail
Ġversions
Ġobserved
Ġimmigrants
Our
backs
Ġtiled
Ġbay
Ġmart
owa
Ġsequ
Ġweeds
allas
ĠTOP
ĠCD
ĠMiami
ĠPan
ĠWOM
ĠWisconsin
ĠRED
ĠLook
Ġariel
Ġspank
ĠVal
Ġdesire
Ġembr
Ġending
Ġfoundation
Ġsubway
Ġsimpl
Ġreporting
Ġofficially
Ġartific
Ġcontrols
Ġnewslet
Ġmeetings
Ġnecklace
aska
Ġprimarily
Ġobserv
Ġconsistent
ĠOhio
ĠForeign
ĠRoger
Get
UE
hire
va
uter
Ġrim
ira
Ġsuv
ĠMajor
ĠBull
ĠNa
Ġguest
Ġmyth
Ġstruggle
pson
Ġdefence
Ġrocket
Ġfireplace
Ġapproved
Ġmarketing
Ġvolume
Ġskinny
Ġhistorical
Ġdetailed
ĠPremier
fight
Ġcents
Ġpir
ĠCivil
ĠWhere
ĠDark
ĠEr
ĠESP
Ġdiff
ĠJay
Ġagents
ĠChair
Ġsigning
Ġcreep
Ġdefined
Ġapproval
ĠOrange
Ġsoldier
Ġsustain
GE
Ġcater
Ġdozens
Ġkit
chain
abeth
Ġsole
Ġworm
Ġpersons
Ġphase
Ġbottoms
Ġchairman
Ġmarked
ĠArm
Ġsteam
Ġsteak
ĠMarc
ĠDesign
Ġrequirements
Ġarchitect
Ġcommitment
Ġrefugees
Ġsubsid
list
alia
ceived
ĠMat
Ġclar
ĠWalk
Ġprohib
Ġpear
Ġcoke
Ġspaces
ĠJordan
Ġremem
under
Ġsquares
Ġpops
Ġfacts
Ġpromote
Ġchecked
Ġdefinition
Ġproperties
Ġupdated
Ġdepends
Ġhonestly
Ġtackle
Ġpancakes
Ġfolks
Ġbathtub
ĠESPN
Pro
nies
ped
Ġcave
Ġhits
oster
Ġpoly
Ġzip
ãģŁ
Ġraising
Ġmotorcycles
Ġimproved
Ġmatching
Ġtitles
Ġelectricity
Ġhorned
ĠConstitution
Ġrepeatedly
Ġshovel
ĠSquare
Ġdelivery
31
power
swe
Ġ\
Ġgoo
igers
Ġrhy
urger
ĠFull
Ġmayor
ĠNE
agan
izabeth
Ġunem
Ġhanded
Ġ---
Ġsnoopy
Ġforever
aturally
Ġauto
Ġmachines
ĠCheck
Ġfrequently
Ġapolog
hemat
ĠBLACK
eath
net
Ġtang
Ġaver
Ġdub
Ġsto
ĠTurn
Ġjunk
ĠCall
Ġplot
ĠDCS
Ġhandles
ĠKat
Ġcoloring
Ġserver
Ġdiscount
Ġengines
Ġrupee
Ġutil
Ġzoomed
ĠDefense
Ġdedicated
Ġsquirrel
ĠGIRL
Ġcinderella
Ġscheme
,[
DA
Ġais
omin
Ġselection
ĠSon
ĠSports
ĠOld
Ġintention
ĠStand
obile
Ġbitcoin
Ġsandbox
ifications
Ġpenal
Ġsweetheart
Ġlandsc
Ġclaiming
Ġperformed
iffy
Ġreplaced
Ġpreparing
Ġpurposes
ĠStephen
Ġentertainment
Ġwriters
Ġchampion
Ġhelicopter
ĠiPhone
New
Pad
VE
hus
rup
Ġq
encing
Ġsending
ilit
Ġchosen
apse
ĠWater
ĠHas
ĠDid
ĠGen
ĠLanders
ĠEduc
ĠJersey
Ġquit
ĠKong
Ġelbow
Ġlawn
Ġcreation
Ġconscious
Ġdrove
Ġdescription
ATE
ORE
Ġvirtual
uilding
Ġtournament
Ġatmosp
ĠWOMAN
42
85
fall
Ġvert
Ġsaturday
Ġwo
Ġtheo
oric
Ġlime
ĠAD
ĠWomen
essica
Ġsaved
ĠGM
Ġ47
ultural
ĠIts
boys
Ġsunlight
Ġslope
Ġsym
âĢĶâĢĶ
ĠClub
Ġstays
Ġreturning
Ġgrover
Ġsurrounded
Ġregulations
ĠTurk
ĠPutin
ĠColumbia
Ġgloomy
300
American
Man
Pe
rations
Ġsom
Ġpanda
esc
Ġgoof
utation
Ġlip
Ġgrain
Ġguilty
Ġfounder
Ġstepped
Ġthread
Ġruled
Ġcaptured
Ġcrossed
ĠAmong
ĠPalestinian
ĠCruz
Ġexplanation
Ġadvertising
fire
pher
then
ushes
ĠSP
ctic
inkle
inder
ĠFAR
ĠNOT
Ġworn
ishment
ccup
ĠItalian
Ġtrevor
ĠVis
Ġfewer
Ġregularly
prise
Ġinspired
Ġoccas
Ġarguments
Ġdeeply
Ġrisks
ĠEmail
Ġassistance
Ġincredibly
Ġaspects
Ġsurveillance
Ġambulance
Ġtopp
Ġgam
aron
Ġric
Ġcongress
essor
resent
ĠFam
ĠEric
Ġdivers
ĠJul
Ġproof
ifest
ĠInvest
Ġnewly
Ġhandful
ĠChapter
Ġdried
Ġpassion
ika
Ġdirections
Ġcondem
Ġanswers
Ġolive
Ġvegetable
Ġorders
ĠBoard
âĸĪâĸĪ
Ġinstrument
Ġlaundry
03
OC
iy
uz
Ġwoke
Ġcakes
ician
Ġstones
ĠAp
Ġupcoming
Ġdeploy
Ġdepth
Ġproved
Ġexcess
Ġspoons
Ġtex
Ġads
Ġscoring
Ġrecon
obs
ĠReuters
ĠClick
Ġroads
Ġawoh
viously
Ġlimits
ĠSeattle
Ġhonor
colored
Ġridic
Ġreferred
Ġdiplom
hall
³ł
atus
Ġcable
Ġdent
Ġmc
etts
Ġgreens
Ġroast
Ġenorm
Ġdrone
Ġinvited
Ġpossession
everal
Ġideology
Ġassert
Ġsupports
Ġposter
Ġcontinuing
Ġamounts
Ġcomplicated
ĠAttorney
Ġaccurate
Ġburgundy
Ġsucceed
DLE
cod
oub
Ġmos
igure
ami
sea
ĠAL
Ġtries
Ġallies
Ġshed
ĠHong
ĠFood
ĠLake
ĠKhan
Ġpolo
cluding
ologists
Ġstrikes
Ġladybug
Ġmarg
ĠShare
Ġdebut
ĠPolicy
ATO
osaurus
Ġmaximum
Ġindicate
Ġ1960
ĠKingdom
ĠKorean
ĠHistory
ĠScotland
hunh
41
VER
ĠÎ
Ġpunch
Ġfred
Ġrival
Ġformed
Ġjen
Ġjennifer
ĠIQ
Ġkent
Ġfriday
hesis
pected
Ġworldwide
ĠBrad
Ġmenu
Ġmustache
Ġsquad
igeant
Ġexposed
Ġextension
ĠIndeed
Ġnormally
nesota
EST
Ġclubs
ĠSteven
Ġintellect
Ġfifteen
Ġafric
Ġselected
Ġscenario
Ġtoddler
SL
bal
sk
zing
Ġnomine
Ġfraud
ĠCL
Ġneur
Ġoutcome
ĠPot
ĠGi
Ġ49
Ġuniverse
Ġpover
ĠVol
ĠVigeant
Ġelsewhere
ooray
Ġmainstream
Ġdealing
Ġcomputers
Ġattacked
Ġdescribes
Ġtroub
Ġassuming
Ġprecise
ĠRomney
Ġastron
Ġabandoned
Ġphotographer
gian
Ġsed
Ġsizes
Ġyield
Ġpens
Ġlamps
Ġfuck
Ġnoisy
igen
Ġrif
imp
ĠBOTT
ĠHollywood
aste
ĠFred
ĠThus
Ġcompens
ĠVideo
Ġdriven
ĠBridge
Ġcurly
Ġcupcake
Ġstops
Ġopponent
Ġadvis
Ġclassroom
Ġfranklin
vania
Ġgravel
ĠPacific
Ġwal
Ġwolf
Ġfoss
Ġhooray
ĠABC
ĠCross
Ġsufficient
style
ĠBi
ĠHR
ĠRoyal
ĠDri
eline
Ġapps
Ġdisaster
Ġcomprom
Ġsituations
Ġasks
enerative
Ġkissing
Ġbathing
syl
Ġnetworks
Ġvolunte
Ġhistoric
Ġrusty
Ġroster
Ġkneeling
hab
wan
Ġcot
Ġcuc
Ġmiffy
oration
usse
ĠSin
Ġfranch
inking
stract
ĠWal
ĠRoman
ĠDallas
agle
Ġwhenever
Ġcrank
type
ĠKim
Ġindex
Ġinstalled
ĠYouT
Ġbreaks
Ġartists
Ġdiscover
Ġrolls
Ġconstit
Ġconstant
Ġengineer
Ġminds
Ġtastes
Ġfarmers
Ġruby
Ġconservatives
Ġregardless
ographic
Ġtantric
ĠCatholic
ĠMIDDLE
elect
rain
Ġ//
Ġwick
Ġpans
Ġpier
Ġfault
eda
Ġrattle
Ġsear
ilarly
ĠBrian
umer
Ġclue
Ġalien
Ġgram
ĠHen
asts
ĠFord
Ġscoop
Ġ41
Ġ43
ĠKar
ĠStory
Ġsweets
Ġreporter
Ġtechniques
ĠMinistry
Ġcartoon
Ġmaisy
bel
hou
ĠTony
Ġanx
ĠSeveral
iece
Ġbrace
Ġcone
ittany
Ġuncom
ĠKings
ĠKey
iana
Ġheading
ĠReview
Ġconfused
Ġextensive
Ġstaying
Ġinfect
Ġdirected
Ġprize
regon
ĠGuardian
()
How
lined
ìĹ
Ġpm
Ġnail
Ġing
usetts
Ġroses
ĠSuch
Ġchant
Ġchalk
Ġmanage
aka
ĠNHL
ĠLord
achusetts
ogether
Ġdiscipl
Ġdrunk
Ġump
Ġwarming
ternal
ĠAnna
Ġpatio
Ġresulting
Ġreceiving
ĠConference
Ġestimate
Ġprofession
Ġutility
Ġdepending
ĠMcCain
Ġponytail
Ġpoverty
86
DS
Ġtips
Ġgathered
Ġwelf
acking
ĠMain
essed
Ġarrow
ĠJason
Ġintense
Ġphr
ĠStart
rene
ĠAsian
Ġentrance
ucing
Ġlowest
Ġemerged
Ġenjoyed
Ġreveal
Ġchewing
Ġlosses
Ġnarrative
Ġhunhunh
Ġcontributions
Ð¸Ð
Ġdestroyed
ĠDevelopment
Ġwiggle
sylvania
Ġwelfare
lar
ystem
Ġoval
Ġhockey
isan
Ġefficient
Ġweener
ĠSk
ĠSab
ĠAN
Ġbrows
ĠRoll
Ġscattered
claim
Ġspeakers
Ġslipper
ĠValley
Ġemily
Ġcounting
Ġlanded
Ġracial
Ġversus
Ġprotected
Ġharass
Ġemployee
Ġphysics
ĠRights
ĠModi
Ġencourage
ĠFormula
Ġpermanent
Ġparallel
04
::
TA
afe
woman
à¸
Ġcos
ingly
Ġchoke
ĠPy
Ġconver
Ġconven
ĠHans
ĠNight
Ġswall
Ġdrives
Ġcourts
Ġpicks
Ġfields
Ġtaxpay
Ġpriority
----------------
Ġclifford
Ġfavour
KE
Un
game
sen
zard
reat
Ġwid
Ġwigg
eration
Ġmars
ĠSouthern
abled
Ġchlor
ĠPay
ounder
Ġmanner
ĠDam
ĠDie
ĠNY
Ġcontem
Ġstrict
Ġgreyish
Ġregional
Ġrelative
Ġbeneath
Ġinsight
Ġjumps
Ġfeedback
ĠMedic
Ġtargeted
Ġbehavi
Ġscenes
Ġcrawl
Ġdominant
ĠDNA
Al
An
She
oil
ëĬ
Ġber
Ġlens
Ġrip
Ġanonym
Ġorient
Ġchase
ĠNations
ĠNBC
ĠJr
ilda
Ġprote
ordon
Ġspeaker
Ġcamel
Ġrooms
ggie
Ġevolution
Ġfacilities
Ġresulted
Ġconstitutional
Ġreasonable
Ġbeauty
Ġfolded
ĠCompany
Ġearned
Ġsanctions
Ġrapidly
ĠHindu
Ġcousin
Ġwithdraw
ĠEducation
MS
TC
mons
Ġmitt
Ġnerv
ĠSony
ĠMen
Ġyea
Ġchop
aping
ĠHol
ĠLo
Ġfeat
ĠUse
Ġserves
Ġintersection
Ġideal
Ġretrie
ikes
Ġcountertop
Ġformation
ĠOrgan
Ġencoun
Ġcelebrate
Ġcommunications
Ġpartnership
burgh
Ġmuffin
Ġcannabis
ĠLewis
Oh
ji
xit
Ġsin
Ġdar
Ġpound
Ġpork
Ġmild
Ġfought
Ġeffic
Ġstim
ĠCast
Ġbrushing
Ġpeak
ĠKen
Ġcompare
def
Ġdeficit
Ġenthus
const
Ġconcert
ĠAdminist
Ġpatty
ĠBlock
Ġprominent
lights
Ġblankets
Ġcatching
ĠAustin
ĠKeep
Ġhamburger
Ġartificial
ĠYouTube
08
II
lings
xual
iches
Ġstamp
sect
ĠAng
umbs
ĠDaniel
ĠLu
Ġfloors
Ġpron
Ġcreates
Ġaccomp
Ġhighway
Ġengaged
Ġlocations
Ġpayments
ãģ«
Ġhearts
Ġcardboard
block
Ġdeputy
ĠAgency
Ġladies
Ġfrequency
Ġvirtually
Ġfantastic
GBT
Den
cers
iat
rass
ê³ł
Ġsi
Ġbills
Ġdies
Ġmike
Ġinqu
Ġhaired
ĠSum
ĠCost
Ġsue
udes
Ġimper
Ġcromer
Ġsometime
Ġ52
Ġregions
Ġwalks
Ġeastern
Ġpastry
cover
Ġ1999
oebe
Ġcollected
Ġdecline
Ġcyber
Ġsamples
Ġrecognition
Ġdecorations
Ġattended
Ġawareness
Ġflew
Ġenemies
Ġcameras
98
MA
Ġtut
Ġwil
Ġgeor
Ġheh
Ġrag
Ġstew
ima
celer
âĢĻ.
illar
Ġneon
Ġbrittany
Ġclient
Ġmanip
pel
icket
Ġoffices
ĠOnt
Ġhardware
Ġamend
Ġpresum
Ġrocky
ĠTele
Ġcapture
Ġmonsters
Ġcontributed
Ġkatie
07
vard
esame
Ġfir
Ġflex
Ġrend
ĠSU
ĠMak
ĠBro
unning
ĠWr
ĠWars
Ġexists
ĠNever
Ġfees
ĠKenn
ogen
Ġswish
Ġeyeb
ounced
ĠProgram
Ġtickets
Ġassociation
Ġburned
Ð°Ð
Ġassistant
Ġtransportation
Ġrejected
don
Ġaer
Ġloyal
Ġreward
Ġseal
ĠBO
Ġbrun
Ġtopics
Ġcontribute
Ġsideways
Ġheadband
portion
Ġassets
Ġengage
ĠMcK
Ġdeeper
Ġrepresented
ĠLabor
Ġbegun
Ġadopted
Ġemotional
Ġvulnerable
Ġsatellite
ĠMormon
uine
Ġsoul
Ġtheat
Ġinev
Ġelder
Ġblah
Ġjur
ĠAff
Ġfried
olis
ĠBR
Ġchrome
Ġalumin
Ġelite
olli
Ġsyn
Ġentering
Ġexplicit
Ġvaluable
ĠSenator
Ġethnic
Ġlawyers
ĠSnow
Ġfeathers
ĠUkraine
Ġbah
Ġcough
Ġpads
Ġmaker
Ġhip
aroni
ĠBottom
ĠPoint
inding
Ġdeer
ĠDO
orship
Ġ46
Ġphoebe
bod
ructor
Ġentit
Ġcleaner
Ġmarie
Ġextrem
Ġdemands
Ġfigured
Ġ1996
apple
Ġmoderate
Ġreplied
ivalent
Ġpeanuts
Ġignore
ubbard
driver
Ġallegations
Ġrecipe
Ġdiscrimination
Ġscholars
Ġscooter
Ġdugout
SU
sing
Ġbored
Ġlinda
ito
Ġjim
ĠCopy
Ġchugg
ĠPen
Ġgranted
ĠFC
ĠNATO
Ġoverse
Ġflies
Ġhandling
alend
ancou
ernand
Ġbarrels
Ġmusical
Ġreturns
Ġpropag
Ġtasty
black
ĠGlobal
Ġshrubs
Ġporch
Ġdatabase
ĠAcadem
Ġobtained
ĠUpdate
CL
TH
je
xic
Ġsesame
Ġroots
osis
Ġanger
stand
Ġbrave
cky
ĠLow
ĠEnd
ĠEarlier
Ġpercy
Ġvisited
Ġwaff
azi
bridge
ĠFormer
Ġviewers
Ġconstantly
Ġelectronic
Ġchecking
ĠGreg
Ġinvolving
Ġdiscussions
Ġrelationships
ĠSometimes
Ġcushion
Ġenormous
ĠBOTTOM
FP
gener
pal
ridge
Ġtube
Ġcited
Ġthroat
Ġgerman
otte
Ġlips
Ġforks
iev
Ġgraff
Ġdip
ĠUt
ampa
Ġ150
Ġcollective
Ġprisoners
Ġroutine
ĠDisney
Ġvoices
ĠRadio
Ġkoala
++
will
herent
Ġwre
Ġft
Ġnah
Ġginger
Ġripe
Ġell
ammed
Ġnotable
Ġchances
ulu
ĠRose
icks
ĠEver
Ġspit
gery
Ġpasses
Ġrepair
Ġsolutions
scale
anned
Ġfreight
ĠMinnesota
ĠAbu
Ġresponses
Ġmacaroni
Ġjournalists
Ġcorporations
ĠCamer
Ġbagel
ĠOntario
ait
Ġvel
rell
Ġgently
Ġwhit
Ġbeak
Ġchunk
Ġmans
Ġgrid
rible
istent
agh
ĠEls
ĠOs
Ġembar
Ġsword
Ġsandwiches
Ġkisses
haust
Ġthreatened
ĠIraqi
Ġdispens
ihad
Ġsuspended
Ġatmosphere
ancouver
Ar
MP
Ġpounds
Ġmixture
Ġfestival
Ġbend
Ġstroller
ĠTal
elligence
ila
ĠBern
ria
ĠRet
ĠLGBT
ĠIns
Ġrecover
ĠHead
Ġpictured
Ġcounty
ĠWhich
."[
Ġbroom
inson
ĠReal
Ġgrounds
Ġcollapse
ĠArch
Ġgenerate
Ġrounds
Ġrequests
Ġhumanity
Ġhorns
Ġinnoc
Ġjournalist
Ġliterature
Ġordinary
ĠServices
Ġtabby
Ġconcluded
Ġphilosophy
ëĬĶ
',
Be
bus
nuts
Ġicon
Ġcalf
erving
encer
idency
Ġrely
Ġblouse
Ġkil
ĠGiven
ĠOR
Ġpregn
ifies
irect
ebook
Ġdolls
Ġconfig
Ġpatrick
Ġsolve
Ġpromises
Ġcrypt
Ġcrowded
Ġterrorists
ĠRegenerative
Ġsurvive
Ġaimed
Ġprinciples
Ġalphabet
Ġpenalty
Ġingred
lay
las
rac
rison
Ġboston
Ġduty
Ġrating
Ġrape
ĠAst
Ġdeals
Ġdiagn
Ġzipper
Ġreputation
Ġdeveloper
Ġcorrel
Ġjoining
ĠDoes
ĠResp
Ġdreams
Ġconcentrating
Ġbaaee
Ġcrucial
ĠSweden
Ġsympt
02
corn
donald
har
Ġtas
Ġay
Ġee
amber
ĠIowa
opes
ĠBernie
Ġknives
ĠHell
asty
aky
ĠFoot
Ġarthur
Ġmole
wear
Ġvisiting
ĠVancouver
Ġinterior
Ġpottie
ĠSov
Ġcounsel
Ġtechnique
Ġdrops
Ġparas
Ġoperate
ĠChristie
ĠCoast
iscal
green
Ġimprovement
Ġimplementation
ĠFollowing
68
On
boo
dah
sized
Ġwore
Ġoscar
Ġnonna
Ġbluish
imm
ĠID
ĠBang
ĠPett
ĠHot
ĠJava
Ġadvertisement
pled
Ġpersonnel
ultane
Ġshortly
Ġfinance
gging
Ġpickup
Ġdresser
Ġpractical
loaded
ĠEdward
ĠEnvironment
Ġprepare
anchester
Ġterrific
Ġnervous
TT
cow
lah
pool
Ġbure
err
Ġpuff
orough
enance
igible
ĠTen
ĠTem
ĠCu
andel
oret
ĠPoly
ĠField
agram
ipes
Ġ53
Ġunders
Ġrecovery
Ġsla
Ġwatermel
Ġemma
Ġdistract
Ġlegos
Ġpickle
Ġfeelings
Ġbanned
Ġprovince
ĠAnne
Ġpayment
Ġtechnologies
Ġhopefully
Ġvisitors
Ġpockets
Ġsmartphone
Ġindependence
Ġpouring
ĠMexican
Ġreduction
Ġsupplies
Ġcaterp
Ġgraffiti
09
="
pread
Ġbul
inter
ouri
Ġdying
Ġpaws
Ġmamm
Ġfert
asant
asters
Ġrush
otal
ĠManchester
ĠBad
ĠHubbard
ĠRs
Ġexhaust
quet
ĠLady
Ġoverhead
Ġ54
ĠChild
Ġlego
Ġinvent
Ġrelief
Ġsquash
Ġdeliber
Ġyoga
Ġprogressive
Ġachieved
Ġstruggling
Ġgoofy
EB
auc
Ġpace
Ġfaded
Ġtoad
acement
Ġrom
Ġfrag
cend
âĢĻ,
abin
gender
Ġoutput
Ġdeleg
Ġgrant
Ġgrill
ĠNorm
Ġhers
ĠEastern
Ġdiapers
ouses
Ġ44
Ġresign
Ġ1950
Ġretired
Ġloaded
Ġengineering
Ġgenuine
ĠOlympic
ao
aun
mate
mont
world
Ġboring
inator
Ġmun
utive
Ġjoy
ĠIP
ĠSud
ĠAge
ĠAmend
opus
ĠBest
Ġconclusion
Ġspar
Ġcrown
Ġsilverware
Ġsyrup
Ġbenches
ĠBloom
Ġanticip
Ġargues
Ġaffili
Ġdivided
Ġreferring
Ġchallenging
ĠRelated
iveness
ĠCurrent
íķĺ
Ġhypot
ĠYeah
Ġdisappeared
59
88
GA
cro
fare
hill
Ġtails
Ġax
rec
aton
Ġgains
Ġandrew
ĠThing
ĠSand
ĠFal
icking
ciences
Ġamid
Ġslippers
Ġhelpful
Ġdistur
shot
idespread
Ġtestim
Ġprogramming
ĠOrig
Ġequivalent
ĠTech
ĠWithout
ĠExec
Ġarrive
ALL
Ġnursing
ĠUsing
ĠStudies
ĠSherlock
ĠMatthew
Ġuniversal
Ġappreciate
Ġfoggy
Ġcluttered
alendar
JP
dge
Ġwider
Ġpets
Ġheaven
Ġnotion
olk
Ġvases
apore
ĠHay
ĠHave
Ġcomedy
Ġproven
Ġletting
rav
Ġdialog
onda
ĠKent
Ġcomponent
Ġrunway
Ġsimultane
ussy
aints
Ġsnowy
Ġprofit
Ġ1994
Ġsuccessfully
Ġattempting
Ġparticipate
Ġwaters
Ġseesaw
Ġrarely
Ġprinciple
Ġaggressive
Ġaluminum
dis
epend
Ñĸ
ìĦ
Ġtu
Ġbamb
onge
Ġmath
Ġfences
itals
Ġnan
Ġnails
Ġgained
lete
leton
igrew
idy
Ġbeating
ĠAR
Ġgobble
ĠMill
Ġalert
ĠRaf
ĠDC
ĠDog
Ġpermission
Ġdrill
Ġacceler
Ġpotatos
Ġfootage
Ġtallest
ĠAdam
ĠZeal
Ġfreezer
Ġinformed
ĠBeach
ĠMayor
ijing
Ġaffairs
Ġadmit
Ġenjoying
ĠLarry
Ġninet
ĠQueen
Ġinstructions
swered
Ġlandscape
Ġfranchise
ĠElsa
PP
away
kers
making
Ġtin
Ġwool
onies
Ġlists
Ġnaturally
aria
Ġbees
Ġseated
ĠTable
ĠMoh
Ġmanifest
ĠFight
Ġexternal
Ġnowhere
Ġ400
orne
Ġactor
Ġfounded
archy
Ġhired
they
Ġprocesses
Ġmaggie
Ġcampaigns
Ġscrewdriver
Ġstructures
Ġcategories
Ġmigrants
People
ĠSoviet
core
cription
gage
mus
°Ģ
ouston
Ġlun
Ġloop
Ġnick
Ġtoss
asury
Ġblast
Ġjames
ĠIron
tering
ĠMir
Ġhispanic
ĠHur
Ġexch
ĠNon
Ġcarries
ĠStadium
Ġcurb
Ġcleaned
Ġreceiver
Ġ1997
ĠDemocrat
Ġapartments
ĠìĿ
Ġdestruction
Ġrecognized
Ġfrogs
Ġpocketbook
Ġplatforms
Ġfloating
Ġresource
Ġcontroversy
Ġadvocates
ĠCommunity
Ġbeliefs
Ġunemployment
ĠPettigrew
'.
56
father
iens
rage
yo
yr
heast
Ġwrench
Ġwww
Ġbumble
eted
âĢĺ
ental
amac
Ġjapan
ĠSanta
ĠAction
ĠPence
ĠJac
ĠUber
ĠKr
Ġglare
Ġunderground
Ġattitude
Ġsilhou
ĠBeijing
Ġsuggesting
Ġkicked
Ġneighbour
Ġmaintained
ĠSpecial
Ġunfortunately
Ġrichard
Ġminority
Ġsophie
Ġuncertainty
Ġconvinced
Ġcelery
Ġvertical
Ġridiculous
Ġcotton
97
?)
gun
Ġwidespread
erk
Ġtoaster
adel
ĠSams
ĠPass
ĠWik
ĠHor
Ġbacked
ĠRh
ĠRos
quarters
aga
ĠLight
redit
ĠOregon
ĠInformation
Ġrecall
ĠVeg
Ġ72
iversary
Ġformat
Ġvalent
Ġparrot
Ġfighter
Ġracist
Ġstudying
Ġgarlic
Ġinvestigations
Ġabsor
vertisements
Ġmistakes
Ġcitizen
Ġimplemented
Ġsuffer
Ġquantum
ĠMassachusetts
Ġveteran
ĠSpring
ĠPennsylvania
Ġefficiency
53
dr
eer
ĠiPad
only
orious
ookie
Ġshops
cker
ĠHon
ĠDet
Ġ($
ĠLittle
ĠEp
Ġskating
Ġtrends
Ġlawmakers
Ġpublication
Ġbadly
Ġrainy
Ġwireless
Ġsenator
Ġtorn
ĠAssociated
Ġmanufacturing
Ġjungle
Ġtactics
rendum
Ġnominee
ernandez
bn
cat
lon
Ġbail
Ġnoo
acc
eters
abama
Ġsuicide
ĠBACK
Ġtrillion
umbers
Ġgrazing
ĠDE
ĠLand
cia
Ġbund
ĠUnt
Ġprince
Ġenable
olds
Ġ51
Ġelastic
Ġvisor
Ġhomemade
Ġdisting
Ġsurgery
Ġgenerated
Ġsteering
rett
Ġloan
Ġlayers
Ġtouchdown
Ġclimbed
Ġprivile
Ġcontaining
Ġtemporary
Ġrepresentative
prof
Ġindicated
Ġcrocod
ĠPatrick
ĠIII
ĠSeries
Ġpineapple
Ġfantasy
ĠMoscow
Ġroyal
ĠGeorgia
Ġchugga
lahoma
57
TER
after
post
sters
Ġ;
itol
Ġriv
Ġstations
Ġstages
Ġseemingly
ĠIC
ĠSource
ĠBa
apot
Ġgrade
riers
ĠRay
ĠFil
ĠFund
Ġexit
ĠGov
ĠLive
Ġfee
ĠJer
Ġcarn
ĠInf
Ġactively
Ġcomponents
Ġbreath
Ġhalfway
ĠArk
ĠDead
Ġlesson
ova
happy
Ġdriveway
Ġaddressed
Ġconversations
ĠEveryone
ĠTechnology
Ġincorpor
67
At
hour
uan
Ã¼
Ġbol
Ġborders
Ġfiction
aylor
Ġalike
ĠHit
ĠNavy
ĠUlt
ateral
ĠVR
Ġbehalf
Ġincidents
Ġseth
Ġscreaming
Ġexposure
Ġwebsites
Ġtricky
Ġpadding
ĠAnth
ĠPlayer
Ġproposals
Ġtags
Ġfarther
Ġbeanie
Ġexclusive
ipedia
Ġpenguin
Ġodds
gust
month
ni
Ġil
rer
Ġlu
Ġloo
Ġinner
etary
ĠTest
Ġforfe
ĠRS
ĠEvent
ĠOl
izer
Ġrode
ĠUr
Ġprey
active
ĠThrough
Ġactors
Ġcomprehens
Ġbites
Ġendorse
Ġmonthly
ĠMarco
Ġequally
Ġsurfer
ĠSea
Ġmathemat
Ġhoped
Ġimmune
coln
Ġsettlement
Ġreflected
Ġcontrolled
Ġautomatic
Ġmechanism
Ġbonk
ography
Ġnegotiations
ĠAuthority
otype
Ġretirement
ĠMakabe
400
52
87
Every
dem
Ġbust
Ġbaked
inem
Ġys
Ġfulf
igent
uto
etime
Ġanswered
Ġjan
ĠBatter
ĠBAR
ateur
ĠRoy
Ġwanting
ĠDisc
agger
rait
ĠJosh
Ġscope
Ġperpet
interest
intend
ĠChannel
Ġspeck
veland
Ġbreast
Ġmarkings
who
ãģ¦
Ġanalog
Ġintroduce
Ġspeaks
Ġforgotten
Ġautomatically
ĠStanford
ĠSingapore
ĠPLAY
Ġlegitimate
Ġbracelet
Ġembarrass
)|
All
Ob
crib
gi
late
ml
ns
ĠTerry
Ġnotebook
Ġshaking
ĠCore
Ġasph
ĠBan
Ġbrut
Ġvet
Ġconce
Ġbacking
ĠRick
ĠFive
ĠGulf
assy
Ġunex
Ġsilence
Ġhorrible
Ġconspir
itches
These
Ġdoorway
ĠShort
2017
Ġbooth
ĠPhotos
Ġfighters
Ġinvestigate
Ġharold
Ġcorrectly
Ġreviews
Ġrespectively
Ġbullet
Ġrailroad
Ġrecommended
Ġsuspected
ĠFROM
Photo
celona
Ġremarkable
Ġexpanded
Ġresistance
Ġlonely
Ġremembered
ĠAmendment
ĠSamsung
%.
96
bors
met
Ãł
ĠâĢĻ
Ġsisters
Ġcalendar
Ġmood
ĠSi
Ġsovere
ĠMS
ĠBrew
ules
Ġgrav
ĠHal
Ġtwist
Ġagric
Ġcrashed
Ġelector
ĠLeon
Ġroller
Ġexpectations
Ġviolations
Ġattacking
Ġburied
Ġdamn
Ġinterviews
profit
Ġvacc
Ġextraord
Ġdecorative
Ġburning
Ġriders
ĠBrexit
Ġsuburban
Ġtouched
Ġsubsequent
amacare
Im
dney
Ġborrow
Ġdut
Ġhilda
igate
Ġrevers
Ġroles
Ġstake
ĠTR
Ġjilly
ĠSL
ĠSav
ĠSix
ĠAND
ĠCir
ĠChel
itty
Ġcomfor
ĠNorthern
ĠLine
Ġteapot
Ġsmoking
this
Ġsmallest
feld
Ġaccents
Ġdifferently
ĠUnlike
itched
Ġbasement
Ġsandals
Ġfourteen
ĠDev
Ġ1995
ĠMcD
Ġdevast
Ġsettings
Ġpersu
Ġpeaceful
Ġmechanics
Ġgraduate
Ġratio
ĠCaption
Ġprocedure
HS
there
Ġware
inations
Ġfel
isons
Ġreven
Ġrhet
Ġstall
Ġnoting
Ġjury
Ġabroad
Ġcounts
Ġstripped
ĠLevel
Ġvend
Ġpopcorn
Ġextract
ĠPrince
Ġactivist
Ġburnt
Ġsuitcases
Ġthirteen
ilipp
Ġscientist
Ġsettle
Ġultimate
Ġpremium
ĠProfessor
Ġfrustrated
Ġsubstantial
âĪĴ
54
Ex
With
mid
maker
turn
Ñķ
hent
erd
Ġmant
Ġfue
Ġfaint
Ġblur
Ġforties
Ġjessica
Ġkim
ĠSound
ĠPope
itts
ĠHD
Ġpride
Ġpersonality
ĠKy
uckle
ensity
Ġstrings
Ġcounted
Ġattach
Ġdistributed
Ġcenters
Ġdefine
Ġwarrant
Ġlands
Ġblankie
Ġportray
Ġburger
Ġplacem
ĠAbb
Ġgrocer
OWN
ĠBerlin
Ġrestrictions
Ġinnocent
Ġasphalt
bet
bara
eenth
eries
Ġtoler
achers
Ġecho
Ġcans
Ġshield
ĠAvenue
ĠCra
opt
ĠPok
Ġalmond
ĠLA
Ġoverly
ources
Ġcoco
Ġprepar
ĠKas
Ġ63
Ġballot
Ġcenturies
ĠAlan
ĠIndust
Ġestate
Ġprotecting
Ġcompeting
Ġscramb
Ġimproving
Ġjudges
Ġpuzzles
Ġpopularity
ĠType
Ġstacked
Ġflee
Ġestablishment
ĠWalker
ĠAdministration
Ġbrunette
hal
log
pres
sit
Ġhulk
Ġgut
Ġgerry
Ġink
Ġinput
Ġrevel
Ġships
ĠCA
Ġash
ĠBru
Ġtrigger
Ġdeem
ĠWel
Ġcomed
Ġexport
plus
Ġunited
Ġpod
Ġslacks
Ġtrained
gged
Ġstreaming
ĠClark
Ġsurfing
Ġarguing
umbled
ĠExam
ĠMedical
rolled
Ġtempl
ĠBarcelona
Ġacceptable
Ġsnakes
ĠWhether
Ġskept
Ġtoppings
Ġfirms
51
62
74
CR
fund
jan
mony
Ġwah
Ġwages
Ġbolt
enz
Ġrasp
ĠTown
olen
opard
Ġbrill
Ġconsole
esty
ĠData
ĠGall
ĠOtt
Ġ2020
Ġfears
Ġtears
ĠStudy
Ġambit
Ġstrap
Ġpresidency
Ġedition
Ġdressing
lessly
Ġviewed
ãģĦ
Ġprocessing
Ġperforming
Ġconsideration
Ġfocusing
Ġbells
ĠHarry
ĠJustin
Ġoliver
Ġtravell
Ġdisplayed
Ġparticipation
inois
Ġsearching
ĠIranian
Ġsensitive
Ġopinions
Ġtweeted
Ġreferendum
ĠJews
Ġwealthy
Ġtadah
ĠTurkish
Ġintellectual
Ġgeorgie
even
now
pin
Ġtint
Ġsher
Ġwaving
athing
Ġcass
Ġyell
Ġdumb
Ġpose
uten
Ġstored
Ġlegend
ĠBeng
ulating
Ġouter
ĠParliament
Ġalarm
ĠDutch
ques
Ġreducing
osexual
ĠGDP
ĠLim
Ġcoins
ĠJun
Ġflav
Ġscan
ĠVice
Ġhomeless
Ġreprodu
Ġdemanding
Ġannoy
ĠObamacare
Ġcycl
ĠMarket
Ġpleased
Ġpredicted
Ġgraphics
Ġtherapy
reprene
Ġappointed
onnell
ĠRuby
Ġphenomenon
ioc
mers
oir
aning
Ġpup
Ġmop
Ġfer
ori
Ġseag
ching
ante
Ġgoats
ĠBes
ĠBall
Ġchopped
ĠWales
Ġmane
ĠRa
Ġovercome
Ġspy
ĠThom
iances
phia
Ġministers
shine
Ġproducing
brid
ikh
Ġpopulations
Ġfilter
Ġsolo
Ġsupermarket
Ġpanels
Ġharry
ĠAbd
graphy
shirts
Ġmonitoring
Ġescal
ylum
Ġnursery
Ġdiseases
Ġraisin
ĠBLUE
Ġhighlights
Ġspiritual
Ġbrocolli
ĠOklahoma
Ġangel
pherd
Ġelderly
Ġtestimony
ĠExecutive
%)
06
good
produ
inction
Ġlining
eding
leen
Ġstere
ooked
urd
Ġshipping
ĠIR
ĠSure
ĠCase
step
ĠMuch
Ġvital
ĠWW
ĠRather
Ġcogn
Ġadequ
pton
Ġmock
clair
intage
Ġclever
Ġtablet
Ġwax
Ġinteraction
Ġ85
ĠLeader
ricane
Ġcounterpart
ĠCentre
Ġcivilians
Ġstrengthen
ippi
Ġimplications
Ġshocked
Ġremarks
Ġstrategic
Ġeurope
ĠFurthermore
Ġoctopus
Ġfossil
Ġfeaturing
Ġcaterpillar
IE
Not
One
nan
wa
Ġ__
onial
Ġdict
Ġdya
Ġdoodle
Ġranks
ackers
Ġshame
ĠSir
Ġframes
ĠMake
uma
ĠHaving
ĠFO
Ġsaving
ĠLater
ĠJere
ĠJudge
Ġtwinkle
Ġfled
atern
Ġsurely
merica
Ġteammates
Ġsynt
Ġbunk
othy
Ġdiscovery
Ġstudied
Ġsteal
Ġavoc
Ġprogramme
ĠConf
ĠExpl
blue
Ġtoothp
Ġcontracts
ĠReserve
ĠIndiana
Ġpurchased
ĠTrek
equality
Ġuniversities
Ġsociet
========
ĠEconomic
ĠZealand
adelphia
BN
drop
including
Ġyawn
Ġling
Ġnp
icon
idd
entagon
amon
Ġblade
ĠTher
ĠTok
tery
ulpt
ĠDave
Ġwhereas
Ġ("
ĠOK
ĠOper
Ġroar
ĠJose
ictions
Ġdisgust
Ġpoison
Ġbuilds
Ġ62
Ġintervention
).[
Ġkittens
Ġcamping
Ġinspect
Ġsaddle
Ġtraveling
Ġimprovements
Ġepisodes
ĠCleveland
Ġhurting
Ġgraphic
ĠMontreal
ĠCarlos
Ġgigi
Ġathletic
Ġdramatic
Ġastronaut
Ġphrase
Ġtasks
ĠFootball
Ġcrocodile
lad
she
Ã±
heim
Ġcul
Ġdell
Ġpins
Ġfiscal
lee
aya
acher
adian
ĠSa
ĠSus
ĠAhm
inks
ĠBalt
Ġouts
ardon
iley
Ġquoted
iping
ĠKu
ĠKansas
ocks
Ġ56
Ġdisrupt
issippi
Ġlazy
Ġdrones
hman
connect
ĠArgent
ĠShah
Ġforecast
Ġfireman
Ġprotocol
Ġsalary
screen
Ġidentical
anguage
Ġillness
Ġpatterned
ESS
Ġurinal
Ġthreatening
Ġindicates
Ġmaintenance
Ġsettled
ĠTreasury
ĠArabia
Ġprosecutor
Ġsymptoms
Ġcomforter
Pl
Ġale
Ġsake
Ġmonday
Ġfier
arre
Ġshamp
Ġlect
ĠCR
ĠCare
andra
star
ĠMu
ĠBry
Ġally
Ġvig
ĠParent
ĠFair
quo
ĠOS
Ġcoc
Ġscandal
Ġenh
through
ogan
Ġskater
Ġreserve
Ġrecre
Ġcloseup
irds
Ġbiting
Ġrelation
Ġ99
Ġinfo
Ġanniversary
Ġloading
Ġsixth
ĠProp
Ġquestioned
Ġinvestigating
Ġconnections
Ġbanking
Ġinflation
Ġlanguages
Ġdamaged
Ġbroader
Ġdivide
ĠIntelligence
Ġrequested
Ġencouraged
Ġdemonstrate
piration
Ġemotion
Ġacknowledge
ĠCycling
ĠMaryland
Ġcomplaints
ĠHawaiian
ĠGalaxy
Ġbumper
igenous
Ġwatermelon
ĠUntil
ĠChelsea
ittsburgh
Con
oard
ĠÑģ
Ġwounded
Ġmim
Ġinher
acious
ethe
Ġstained
Ġank
Ġjug
ĠIce
ĠBir
ĠHoll
ĠHouston
ĠDoug
Ġ(âĢľ
rystal
ĠOak
ĠOccup
Ġspat
Ġprev
ĠYOU
Ġdrama
ributes
attan
Ġcaf
ancer
Ġimportantly
Ġdropping
Ġmixing
Ġengineers
Ġrestaurants
ĠDoctor
Ġhallway
Ġcivilian
ĠAnton
ĠHaiti
Ġguarantee
ĠDiego
WS
dad
high
mind
Å¡
Ġoak
Ġmash
Ġger
usal
kee
ĠSem
chu
ĠAG
ctive
olves
ĠBurn
unes
ĠDal
ĠDeb
ĠEs
ĠObs
Ġreader
Ġmidfield
ĠHeart
Ġmining
ĠAlabama
iko
Ġinsisted
Ġmuscle
Ġjoe
ĠBeing
Ġmixer
Ġmounted
Ġfundra
Ġinvolves
ĠEdition
ĠSean
Ġliberals
ĠCorpor
Ġfauc
ĠSTL
Ġsurprisingly
Ġvirus
Ġchimney
ĠKennedy
ĠAnthony
89
aug
rows
âĶ
Ġti
Ġbilly
Ġnat
Ġjul
ĠSat
ĠMoo
Ġbron
Ġabstract
Ġsauc
ĠNone
ags
Ġusage
Ġcarrier
Ġunions
Ġphot
Ġcreature
Ġswings
Ġacid
ĠClass
oko
Ġcorruption
Ġsalty
Ġvoter
Ġbatting
Ġmembership
ĠSydney
Ġdifficulty
Ġhyper
Ġtitled
Ġconvicted
Ġbulldo
Ġintroduction
Ġconsumption
ICE
Ġliberty
Ġpencils
Ġdemanded
Ġgrabbed
ĠGolden
Ġtemperatures
Ġchoppy
Ġnaught
Ġconventional
ĠMurray
Ġgathering
Ġinvolvement
ĠUtah
ĠVegas
69
CT
Cont
Some
bury
Ġtheories
atched
Ġdates
Ġpc
Ġni
Ġsections
Ġcant
Ġblues
Ġkaren
child
Ġfright
ilton
oline
stri
Ġsoy
Ġasylum
ainment
Ġchina
Ġvintage
ems
Ġexceed
ĠGR
ĠLas
Ġspare
Ġpreced
Ġsculpt
angles
Ġcontribution
alem
Ġpopped
Ġslip
itionally
Ġsignals
Ġregulation
Ġhorror
Ġbases
Ġsquat
ĠIndepend
ãģ¯
Ġpresentation
Ġpracticing
Ġlaptops
Ġfunded
Ġimprov
ĠXbox
Ġdisappear
Ġshelter
Ġpipeline
Ġownership
Ġjamie
Ġinitiative
ĠDenver
Ġgorilla
Ġvitamin
Ġanalysts
Ġtransparent
ĠDivision
Ġchantilly
Ġwreck
Ġingredients
Ġseagull
.),
61
Do
Win
effect
has
iary
lical
Ġfilling
icity
immer
Ġants
oples
Ġorch
ĠMun
ĠBak
Ġchord
atever
Ġwherever
Ġskip
Ġtremend
Ġsnows
ĠAsh
ĠBron
Ġpizzas
Ġprofits
Ġburst
Ġmeasuring
Ġstatist
flies
Ġcircular
Ġblew
ĠOthers
Ġimpressed
Ġranked
looking
Ġwrestling
Ġalgorithm
".[
>/
AA
BO
hot
jack
wid
Ġí
Ġtune
Ġbisc
instein
oning
oned
onic
Ġlanes
Ġmaps
Ġtoken
Ġshy
ĠAS
ĠCO
open
Ġoutstanding
ĠDer
ĠDig
agu
Ġflap
Ġcouples
Ġcrane
Ġcontained
comes
Ġlately
Ġengagement
rette
Ġdawn
Ġoperator
Ġsuperior
Ġfailing
Ġstatistics
Ġframework
Ġcracked
Ġdishwas
ĠReddit
colm
Ġhunting
Ġsubstance
ĠDelhi
Ġrosie
Ġnumerals
ĠMissouri
Ġacknowledged
ĠContinue
":
58
bi
bu
bul
dale
iety
kh
size
tes
writ
Ġsore
Ġfiring
Ġwhites
igious
Ġec
Ġweigh
Ġstolen
allic
ĠSarah
chief
ĠBu
Ġupright
agr
arks
Ġarray
ĠJam
Ġdoggies
yscr
Ġwindy
Ġconsensus
Ġbask
shield
Ġpressing
Ġtechnological
ĠPhilipp
ĠConc
Ġlogic
Ġemployed
Ġabsence
guard
Ġbiological
Ġmattress
ĠCambod
Ġflights
ĠAtlantic
ĠSwedish
cosystem
ĠIllinois
ĠBuddhist
ĠAcademy
800
TE
bra
base
obe
Ġtum
Ġox
Ġcust
Ġcinn
Ġpaw
leans
owered
enter
ĠTissue
ĠTaylor
Ġues
iler
ĠBud
Ġventure
Ġclients
Ġalter
Ġdiverse
Ġbitter
minute
Ġdiscour
ĠTherefore
Ġadviser
Ġavo
theless
Ġorganisation
Ġerr
Ġwhoopsie
Ġviolation
Ġpackages
Ġindustries
Ġdefeated
Ġdiscussing
ĠSmall
uko
Ġrailing
ĠBelow
ĠCampbell
Ġpursue
Ġinterpretation
Ġrifle
Ġpaddington
Ġshampoo
Can
PC
Script
Ġtuck
Ġtigers
Ġdanny
Ġpige
Ġloll
Ġnasty
Ġtoxic
Ġgail
Ġinject
hero
Ġpledge
ĠBM
Ġchapter
apolis
ĠWould
Ġgrate
ĠHernandez
agic
Ġsponge
ĠKirk
ector
Ġskull
Ġamateur
Ġsled
obb
Ġminimal
Ġwinds
Ġcutie
Ġslept
Ġsetup
Ġsymp
arner
Ġcurve
Ġproducer
Ġmovements
Ġjeep
Ġstepping
Ġtowers
Ġapproached
Ġequality
Ġantib
Ġburden
Ġinvestigators
Ġreplacement
Ġblender
Ġlaughed
ĠAga
Ġdepartments
Ġbikini
Ġoveralls
Ġglobe
Ġgranola
ãĢĤ
Ġlaminate
Ġconsciousness
Ġvalentine
Ġunexpected
Ġdishwasher
!)
63
UN
bably
cs
iate
test
Ġtrop
Ġawhile
oux
oust
Ġporn
Ġlos
Ġmp
itage
itzer
Ġgee
isk
omi
Ġsegment
string
ĠMove
Ġwhoever
ichol
Ġcocon
Ġspan
Ġintim
actions
plete
Ġcrumbs
Ġ57
obby
Ġwallet
Ġinvasion
Ġstriking
Ġentreprene
Ġassign
Ġbanner
ĠSoft
Ġdresses
Ġdollie
Ġpriest
Ġerase
Ġcalifornia
ĠMcG
Ġsuspic
Ġcasually
ãĥ¼
ĠCollins
Ġquietly
Ġimpression
Ġpromoting
ĠGreece
ĠPriv
Ġmuddy
CAA
Ġassessment
Ġinstruments
ĠCharlie
Ġobscured
Ġhorizont
ĠEngineering
ĠCowboys
Ġsustainable
Ġdiversity
Ġberries
Ġentitled
Ġoverseas
croft
.:
oz
rition
Ġtel
Ġwand
Ġtheater
erver
Ġhose
orous
Ġnoises
Ġreverse
Ġrows
Ġarena
ĠTai
ĠSant
ĠCBS
ieve
ĠMoon
ĠBh
ĠPi
ĠPubl
ĠHad
ĠLy
pling
Ġcricket
ĠStri
Ġperceived
Ġresort
Ġspecul
Ġassigned
Ġweekly
break
ennes
ĠPrice
Ġmirrors
ĠExper
Ġconvince
Ġrepresentatives
Ġhosted
Star
Ġtricks
ĠSpeaking
ĠMalcolm
Ġconsistently
Ġaccommod
icipal
ĠAlexander
Ġhenry
Ġdisappointed
ĠConservative
Ġtorture
Ġstopping
ĠFamily
ĠSinclair
ĠArkansas
Ġrhetoric
Ġcinnamon
cre
dro
lest
lph
lower
pit
rine
rator
Ġtac
Ġmam
Ġhire
omot
Ġsect
ĠTed
ĠAle
ĠAud
ĠCAR
stration
Ġchasing
Ġups
ĠPir
ounding
Ġmanaging
ĠHero
ĠGerm
ĠLam
arson
ĠEnt
Ġintend
Ġunhappy
Ġskyscr
Ġ66
Ġcamps
Ġwindshield
izzy
Ġproducers
Ġpolitically
Ġsounded
ãģĹ
ĠProdu
Ġclocks
ĠEdit
Ġdefender
ASTL
Ġseparated
***
Ġcommonly
Ġdivor
ĠInterview
ĠCapitol
ĠSupport
ĠRevolution
ĠGiants
Ġcranky
Ġdarling
Ġgroceries
ĠPokÃ©
Ġnaughty
%,
CN
ben
election
gate
giving
oen
pre
uction
wall
Ġbaking
Ġyelling
Ġpail
Ġmile
inge
arity
omo
acles
Ġrake
Ġripped
urie
Ġjokes
ĠMuseum
ĠBure
ĠBroad
ĠRome
ĠRand
ĠDun
ĠDick
ĠNob
ĠLind
Ġunlock
Ġours
Ġincom
Ġlegacy
Ġfacilit
elson
Ġexplaining
Ġposting
Ġclassified
Ġgrandmother
ANT
ĠConnect
Ġchecks
Ġswims
arthy
Ġspinning
ĠÃ¨
Ġratings
Ġpsychological
Ġprosec
ĠOfficer
Ġnomination
Ġmanufacturers
Ġcongressional
Ġtexas
ussels
Ġencounter
Ġconspiracy
ĠMoore
.-
78
Bl
CE
MB
MF
VD
pot
papers
worth
Ġtam
Ġtshirt
Ġoy
Ġpardon
Ġlas
organ
asa
icious
Ġbeings
Ġstance
rock
Ġvague
ĠPD
Ġgrip
Ġpeoples
Ġblueberry
Ġboing
Ġguests
Ġcoaching
Ġspiders
Ġspoken
Ġscout
portation
Ġdrank
Ġminnie
odd
shop
ãģĮ
Ġinsult
Ġviolin
Ġobjective
Ġairplanes
Ġdenim
Ġneighbors
ADY
Ġsmells
ĠGovernor
Ġdistricts
ĠMerkel
Ġpreferred
Ġstrategies
ĠPalestinians
Ġsacrif
Ġbrowser
Ġjuris
ĠJeremy
IV
Qu
cular
antern
onia
Ġduh
Ġgab
Ġhah
ĠSaf
Ġgodd
ĠMetro
Ġgrilled
ĠGri
bery
onder
Ġ58
ĠChange
ollo
Ġincent
Ġwallpaper
Ġsimba
Ġpickles
Ġarts
Ġkitties
Ġinsist
Ġconstitution
ĠHarvard
Ġjudging
flix
Ġtargeting
Ġinterviewed
ropri
ĠLibrary
Ġlegislative
Ġrepeat
Ġpuppets
Ġfashioned
Ġawarded
ĠBrotherhood
Ġnewsletter
Ġtaxpayers
intendo
Ġcoconut
79
AG
App
Well
di
ping
ĠâĤ¬
Ġwednesday
Ġbass
Ġlux
Ġthorough
aro
orr
orial
Ġhehe
htt
ĠTes
imore
olid
ĠMORE
ĠBol
ĠâĢĿ
Ġgrows
Ġbold
ĠGer
izarre
ensed
Ġreminds
Ġdeserve
Ġopenly
Ġcamo
veless
ĠAnderson
Ġnights
Ġsurge
Ġinterrog
Ġmetallic
Ġowns
itsu
ĠLeices
Ġcollaps
Ġtransit
Ġpennies
Ġlineup
enders
Ġparad
Ġresemb
Ġsleeveless
Ġmeasured
Ġdestination
Ġfunctional
Ġreveals
Ġtourists
Ġdecoration
ĠInterest
Ġcelebration
Ġcontacted
Ġspokesperson
Ġsurvival
Ġassumed
Ġtiming
Ġpunishment
ĠDanny
Ġguidelines
Ġfoil
Ġsubscrib
ĠAgainst
Ġemphasis
Ġmystery
Ġgramma
Ġbureauc
ĠThings
Ġsimultaneously
Ġextraordinary
ĠTokyo
De
EG
PL
may
ynt
ê°Ģ
held
Ġdual
adow
Ġstating
Ġlizard
Ġshred
chy
secut
ĠCooper
ĠBab
ĠBible
ĠBuff
Ġbra
orton
Ġconvert
Ġshepherd
ĠRoss
ĠFigure
ĠEASTL
Ġenfor
Ġafterwards
Ġremo
Ġunderlying
Ġemp
Ġchildhood
Ġkidding
Ġmarkers
Ġgreatly
Ġdefic
ĠLev
anche
ĠAdams
Ġinspiration
Ġapproaches
Ġracism
ĠChristopher
Ġautonom
Ġdeadly
Ġphysically
Ġimmun
ãĤĭ
Ġarrival
ĠLiberal
ĠAssad
Ġbonus
Ġreforms
Ġstruggled
Ġregistration
Ġprosecutors
Ġclinical
ĠFreedom
Ġbattles
Ġdentist
ĠHenry
Ġinquir
ĠCopyright
Ġpropaganda
Ġdialogue
Ġavocado
Ġbaskets
Cl
bur
bian
iac
lib
piece
wich
Ġtatt
Ġcu
Ġpussy
Ġlions
Ġfate
orable
Ġinequality
amel
urrent
Ġforcing
Ġanne
ĠCS
ĠCould
ĠMess
Ġchann
ĠPerry
quest
ĠLt
Ġspanish
Ġunve
ĠVery
Ġ61
Ġunderwear
Ġmeanwhile
Ġsubmitted
Ġfacial
ĠClimate
Ġdiscont
pending
icycle
Ġ250
Ġtrapped
umbling
ATCH
ĠChristians
Ġdemonstration
Ġfloat
Ġattending
Ġcriticized
Ġconcepts
!!!!
ĠLawrence
Ġneighborhoods
Ġbombing
Ġoccupied
Ġobtain
Ġcheerios
Ġoblig
Ġtangled
Ġafrican
Ġharassment
ĠSnowden
ĠTalib
Ġsilhouette
ĠGermans
ĠLeicester
.]
pants
ĠÅ
Ġtigger
helf
ancial
Ġfires
arms
Ġinsect
etics
alling
amy
Ġmeets
ĠHo
ĠHan
ĠHope
ĠReds
ĠLeb
ĠExt
Ġrod
Ġunsc
ĠThird
Ġquarters
Ġhandled
ĠKin
ĠKoch
Ġtreating
Ġcreatures
Ġfinishing
Ġsilent
ruit
Ġrefers
Ġcharity
Ġsinger
Ġtransgender
Ġexpanding
ĠShould
Ġinvestments
Ġbookshelf
Ġfairy
ĠText
linn
ãĤĴ
Ġdependent
Ġshooter
Ġmaple
Ġmeaningful
Ġaims
Ġribbit
Ġintegrity
ĠStephan
Ġdecker
Ġacquired
Ġsailboat
Ġweakness
Ġsophistic
Ġgorge
Ġdismissed
Ġshouted
ĠBrooklyn
Ġexplosion
Ġconstitu
ĠCameron
âĶĢ
cu
Ġbam
Ġbands
inite
Ġciting
Ġmint
arium
ighed
Ġhedge
Ġeater
Ġecosystem
Ġshrim
Ġtraged
istant
Ġproportion
ĠEb
Ġtwins
ĠThink
Ġskunk
Ġpoke
text
Ġwatering
Ġaccus
Ġpinkish
Ġflooring
Ġmissus
Ġinfant
Ġfirefight
Ġbarrette
Ġsumm
Ġraises
ĠSpir
Ġ1993
cific
Ġsentences
Ġrabbits
Ġcollecting
Ġbillions
ĠLibya
ĠJean
Ġdemonstrated
Ġcooperation
Ġinnovation
rophy
Ġcompensation
Ġpresumably
ĠKentucky
Ġdeemed
quoise
ennessee
73
700
Ind
hol
mn
range
rise
some
Ã¨
ê²
Ġ~
Ġcube
Ġpoured
Ġhunt
idance
ĠTrib
Ġanc
olo
Ġcondu
ĠFOR
ĠGun
ĠGRE
agen
ĠLADY
ĠOcean
achine
ucker
Ġheadquarters
Ġopio
Ġsnacks
Ġwalkway
ĠLeaf
Ġconfusion
Ġengaging
Ġpiglet
ĠQB
ĠTwin
ĠMarvel
Ġcaboose
Ġteenage
Ġpetition
Ġjudgment
Ġtriple
Ġcopies
Ġpolling
Ġvolunt
fortable
ynn
Ġinfluential
Ġpinch
ĠRegard
Ġdispos
Ġholy
Ġunfair
Ġislands
Ġconcentration
Ġchaos
Ġtalented
ĠPhiladelphia
Ġprospects
Ġsavings
Ġrhin
Ġdecreased
Ġwispy
Ġoccasionally
Ġdisagree
Ġdesperate
Ġaislinn
Ġdiesel
Ġdispenser
ĠBureau
")
VP
coon
overs
yer
ĠiOS
Ġdorm
Ġdull
Ġmum
itudes
Ġgest
armed
Ġreck
aders
Ġjew
Ġleash
inker
ĠCome
ĠCub
ĠCredit
Ġorn
ĠBor
Ġvirgin
ĠRen
ĠRap
ĠRosen
ĠNSA
ĠLad
ĠLiver
Ġdial
ĠJud
grade
Ġprost
ocument
weet
Ġcompat
ĠYellow
Ġinterven
Ġ74
Ġassass
ceptions
Ġscream
Ġtransaction
Ġdrawers
ĠShar
coat
ãģ¨
Ġinsert
ĠPhys
ifty
Ġelectrical
ĠNothing
Ġbankrupt
Ġtowns
ĠInstagram
from
Ġtempor
Ġìŀ
Ġscrews
ĠEmpire
ĠConsider
Ġtaping
Ġinteractions
Ġrecruit
ĠHawaii
Ġspeculation
Ġsequence
Ġcompromise
Ġexplicitly
Ġjapanese
Ġscrambled
ĠThompson
Ġbulldozer
LL
\/
bes
bows
fo
pg
uity
Ñĩ
Ġtents
Ġpac
Ġfet
Ġharn
Ġgard
Ġheels
Ġreign
Ġrational
Ġkate
teria
inked
ĠCit
Ġvine
Ġabilities
aha
Ġdeaf
ĠRou
Ġexclud
Ġlets
Ġovernight
Ġcoinc
arer
Ġrecy
Ġvisits
Ġservers
Ġlegally
Ġsecondary
Ġbasil
Ġbowling
Ġblockchain
Ġprovin
ancell
Ġawfully
Ġadventure
works
ĠMrs
ĠManagement
ĠObviously
Ġchoosing
ĠWithin
Ġreleases
Ġconsiderable
ĠHarris
Ġdeny
oids
Ġbumped
ĠElizabeth
Ġcontrollers
ĠNetflix
Ġreferences
ĠArticle
Ġeditorial
Ġjunior
ĠStanley
Ġexclusively
Ġaltogether
Ġterminal
Ġanxiety
ìĹĲ
ĠMedicare
Ġprotein
orneys
Ġforfeiture
ĠCirc
etheless
Ġtremendous
Ġjurisd
Ġbureaucr
âĶĢâĶĢ
94
AV
AIR
Craft
Don
dles
Ġtil
Ġtheoret
ativity
Ġcens
eria
Ġpars
Ġlisa
ingle
itary
Ġhars
Ġgy
aration
isible
Ġram
Ġranging
Ġstability
urf
ĠSel
Ġleaked
Ġmeg
ĠBased
Ġmanagers
ĠRT
ĠUnd
plex
ĠKenny
ĠStat
ugu
Ġreserved
Ġ67
Ġmargin
Ġfollowers
Ġmonitors
Ġoppose
Ġappearances
Ġlessons
oval
Ġexamine
Ġcostumes
Ġ1992
Ġwondered
ĠÂ§
Ġurged
ĠCoal
Ġexecution
Ġturquoise
ĠWarren
Ġbias
iosity
Ġsuspects
Ġignored
security
onomic
Ġeliminate
Ġprocedures
Ġisolated
Ġdynamic
ĠApollo
Ġwicker
Ġbehaviour
Ġenthusi
)(
jud
lu
mig
million
zes
Ġtale
Ġsack
Ġbak
income
Ġmisc
Ġfare
Ġrookie
Ġeager
illo
Ġoutrage
ĠNCAA
ĠGa
ĠGra
ĠLes
ĠOil
ptr
thon
Ġquote
ĠStaff
issues
Ġprobability
Ġrecount
Ġstartup
Ġmeters
Ġevac
ĠTrade
ĠLearn
ĠAlber
Ġmarry
ussion
Ġexperiments
Ġgenerations
Ġstef
ĠIndones
2016
Ġpressed
Ġerrors
OND
ASE
ĠNeur
Ġledge
Ġdigging
ĠQuest
ĠSpeaker
Ġlifted
Ġsensor
Ġcrops
Ġencouraging
Ġpajama
Ġmagnet
celain
ĠCapital
Ġrefugee
Ġseventh
Ġcertific
Ġlifetime
********
Ġplayoffs
Ġfascinating
Ġcontemporary
Ġaccompan
ĠBloomberg
Ġbrilliant
Ġtoothpaste
Ġfaucet
91
aeda
cakes
dam
pat
supp
Â®
Ġbizarre
Ġcops
ington
itivity
Ġease
Ġearl
iration
ione
Ġsting
Ġstabil
ĠId
ĠSense
ĠSection
ĠCook
Ġsoggy
Ġassembly
ĠBat
ĠBase
Ġoutlets
Ġcluster
ĠHud
ĠDu
ĠDian
ĠNic
Ġguidance
ĠEarly
ĠJane
ĠUFC
Ġreserv
rencies
Ġoldest
ixon
mann
ĠWhatever
cedented
Ġinstant
Ġ95
Ġimposed
Ġcupboard
ĠAlaska
ĠRepresent
ĠManager
Ġsupposedly
ASS
Ġdeadline
Ġsusp
Ġtanks
Ġadmission
Ġemerging
Ġbeaten
Ġignor
bourne
Ġsquishy
ĠLiberty
ĠMPs
ĠStandard
Ġuncomfortable
Ġchannels
ĠTaliban
72
CP
apping
burn
cap
hard
hattan
map
mble
Ġot
Ġdating
omial
leading
usive
amine
imb
ĠSK
ĠAccess
ĠAaron
ilight
Ġorang
ĠMaster
Ġmex
Ġdelight
Ġpears
ĠFather
ĠFinal
rypt
ĠOpp
Ġpreference
aval
Ġcrude
Ġhugging
Ġlaurie
Ġsunshine
Ġlongest
Ġlongtime
Ġstrain
Ġfuneral
Ġreliable
blem
Ġinstitution
conf
ounce
ĠArctic
Ġtransmission
Ġdesigners
Ġsteady
Ġchicks
zza
Ġmodified
ĠGraham
Ġbutterflies
Ġlogs
rogen
Ġtracking
Ġhonk
Ġgenes
Ġopposing
Ġpolly
Ġceremony
Ġinfluenced
Ġexecutives
ĠContact
Ġtuna
holders
Ġdimly
ĠCatal
ĠLouisiana
Ġappointment
ĠRemember
Ġnickel
Ġmotivated
Ġathletes
Ġmysterious
Ã³n
Ġhorizon
Ġvarying
Ġupgrade
Ġoccasional
Ġstimul
Ġlucy
Ġintimid
93
DC
iors
eros
Ġdive
Ġpause
Ġseized
osit
ĠTry
ĠTax
imize
Ġanth
ĠAzer
Ġframed
Ġdonna
umper
Ġvoid
ĠPI
ĠHospital
ĠRaj
Ġpeaches
ĠEqu
ĠOx
ocation
Ġcontents
omething
Ġpopping
Ġministry
Ġaccum
Ġsnort
Ġregret
Ġrealistic
Ġhorrif
Ġsubtle
Ġgirafe
Ġmissions
Ġprovision
ĠCloud
Ġforehead
Ġsixteen
ĠProv
Ġfastest
Ġorigin
Ġcabbage
ĠEditor
ĠÂ©
ĠHarper
ĠCourse
innati
Ġdefendant
incinnati
ĠMagic
Ġsymbols
ĠAdditionally
ĠKurdish
ĠCaptain
ĠEntert
ĠMotor
Ġdisagre
Ġtrolley
Ġmcdonald
ĠBiology
Ġmittens
Ġwarehouse
ĠPokÃ©mon
Ġshrimp
ĠLiverpool
71
Of
Pr
Why
XT
gs
hoo
low
rators
Ġsill
Ġwise
Ġiter
amus
ĠTar
ĠAward
ĠCrim
ĠCPU
ĠBon
ahu
ahoo
ĠPsych
ĠRice
ĠDream
ĠNak
ĠGand
ĠGaza
ĠLess
Ġtends
iflower
Ġmodu
ĠKa
ĠKid
ailing
Ġperception
Ġ59
Ġpopp
deep
Ġempire
gets
ebra
Ġfootprint
Ġmissile
Ġlineback
Ġsummit
Ġexamined
Ġnewspapers
Ġsalmon
Ġshallow
ĠImam
Ġanalys
Ġknocking
Ġaffair
Ġvariation
Ġvariable
ĠStein
Ġdescribing
Ġtrays
alties
Ġregarded
Ġdoughnuts
Ġfolding
Ġfrosted
Ġfrequent
ĠMorgan
Ġintegrated
Ġsubscribe
ĠEnterprise
ĠPolitical
Getty
Ġswallow
Ġcocoa
Ġbronze
Ġsaucer
Ġmodule
PM
TM
bai
cor
cht
card
eat
vas
Ġdizzy
Ġlulu
Ġthursday
Ġfoo
Ġhosp
Ġgid
ishers
Ġsew
Ġdolph
addy
ĠTa
ĠTennessee
ĠSciences
Ġdonors
ĠMother
Ġplum
Ġva
Ġvent
Ġabund
Ġaboard
Ġoutlined
ĠPo
ĠPict
Ġbackside
Ġpending
quer
being
Ġcoup
Ġimpr
Ġcolin
ulti
onsense
ixed
Ġpreserve
Ġrunner
azor
lando
Ġcafe
Ġrequiring
2013
ronics
Ġexamination
Ġformally
Ġreasonably
Ġtraded
ttes
Ġlabels
Ġamongst
ĠDrug
Ġutter
Ġpollution
Ġdepression
ĠMusic
Ġblend
Ġcommentary
Ġtweets
Ġcapitalism
ĠStarCraft
Ġtourist
Ġspectrum
Ġpleasant
Ġattractive
Ġpromotion
Ġheroes
Ġcrawling
________________
keeper
Ġdeployed
Ġsparse
ĠSioux
76
Br
LC
sa
vory
Ġyo
ndy
Ġhier
eting
usalem
otch
acker
Ġjihad
abs
ĠCe
Ġassemb
ĠBey
Ġbrid
Ġtrump
Ġgraham
ĠRow
ĠFind
ĠNep
Ġguards
assador
ĠEmer
Ġspencer
Ġcontrary
Ġperm
phant
Ġeligible
Ġspeeds
Ġ68
ĠUnivers
ĠAssembly
Ġevident
ĠRecent
ĠAli
commun
Ġproduces
Ġcaution
ĠHoward
Ġpromising
Ġhealthcare
ĠGray
Ġoccurs
ĠMycroft
Ġrepresenting
ettle
ĠMoreover
Ġintelligent
Ġdecorated
Ġtrials
Ġexercises
Ġappliances
Ġstretched
Ġshells
ĠOlympics
ĠEgyptian
ĠJonathan
Ġguaranteed
Ġcollaboration
Trump
senal
Ġkilomet
Ġpregnant
latex
leenex
ĠEntertainment
UP
ëı
Ġâ
Ġcrop
ouched
Ġdora
Ġmashed
Ġrit
irls
Ġweh
Ġbloom
Ġjets
Ġkleenex
ĠSet
about
ilateral
gel
olph
Ġsuite
Ġalliance
Ġoutta
arts
ĠHum
Ġbackdrop
ĠRun
ĠGary
ĠLocal
Ġarbit
Ġcopper
arettes
iva
ubby
ĠStew
Ġinvisible
Ġrestr
Ġrestore
Ġcourses
Ġparks
Ġcaul
Ġdesigner
Ġ''
chers
Ġloaf
Ġjoey
Ġorganic
ĠPlace
Ġtradem
Ġraccoon
ublin
Ġproductivity
Ġpanic
Ġdominated
Ġexceptions
Ġpoorly
Ġpainful
Ġperiods
Ġassociate
Ġsafely
Ġdispute
Ġspokeswoman
Ġcommunicate
ĠModel
ĠEvans
Ġporcelain
Ġarranged
Ġpudding
Ġadvocate
Ġwashington
Ġwitnesses
helle
Ġsubsequently
Ġprecisely
Ġcucumbers
Ġprofessionals
Ġnineteen
Ġcomprehensive
Ġcafeter
Ġgoddess
Ġharness
92
Just
ders
fi
half
uating
·¸
Ġtheft
anke
Ġdil
Ġdated
ndall
Ġfails
uting
uture
Ġheel
Ġbecky
Ġstd
urches
ĠIsh
chron
ctuary
ĠMust
ĠBattle
Ġchains
ahn
ĠPul
ĠPentagon
Ġclunk
ĠNut
ĠEPA
izon
Ġflick
grad
Ġcomposed
Ġpoet
Ġheadphones
Ġslot
formed
Ġ81
Ġairline
Ġrefuse
ĠAlice
ĠDeath
Ġconfusing
Ġawk
Ġdemo
ĠPrin
Ġexpecting
Ġsinks
oxide
Ġeighteen
INK
ĠGuide
Ġscrut
value
Ġbelle
Ġcomplained
ãĤĮ
Ġvolat
Ġtexts
Ġskateboarder
ĠParker
Ġpleasure
truck
Ġturtles
ÐµÐ
ipples
Ġadopt
Ġaccomplish
Ġaccomplished
Ġanonymous
Ġwaffle
Ġcorrelation
Ġexchanges
Ġnoodle
ĠAbbott
ĠCraig
ĠGriff
ĠTesla
secutive
Ġgiddy
Ġcafeteria
130
Now
Yes
bin
eh
mill
pace
uah
zed
ì§
herence
Ġssh
Ġdre
Ġlump
Ġkm
ĠAk
ersion
oren
ĠMap
Ġchamber
ĠHide
rians
ĠDav
beat
ĠOz
Ġgreenhouse
uburn
week
Ġgirlfriend
ĠCha
note
Ġendors
Ġincons
Ġinterface
Ġpossess
Ġswitched
ĠTrust
Ġpulls
Ġcounters
Ġgeneric
ĠBlood
Ġfreeze
Ġmothers
ĠProgress
ĠProduct
ĠOrleans
Ġpractically
Ġantique
Ġpaintings
player
Ġcooler
Ġsignificance
Ġprinting
Ġ1975
Ġindication
Ġmurky
spread
Ġbicycles
ĠEverything
ĠPatri
Ġbriefly
Ġearthqu
ĠArabic
ĠTyndall
Ġstems
ĠAtlanta
ENTER
written
Ġarrangement
Ġaqua
Ġmarginal
Ġinevitable
Ġbamboo
ĠJerusalem
ĠHitler
ĠBruce
Ġenhance
Ġhorizontal
Ġtragedy
Ġcauliflower
250
PH
Up
km
watch
recedented
Ġmature
eness
Ġinaug
alysis
ĠTour
Ġker
ĠSom
stan
store
Ġbru
Ġvib
ĠPop
Ġknot
Ġovers
ĠJerry
Ġprest
ĠKl
Ġresidence
Ġresolve
Ġcleared
Ġdrain
Ġaccord
Ġcommander
ĠAndre
Ġreluct
Ġmarker
underst
Ġviewing
Ġinfection
party
Ġfiling
Ġorganis
ĠOrlando
ĠCommon
ARD
ĠCentury
Ġìķ
Ġrespondents
Ġrespected
Ġbleachers
Ġbloody
Ġgeese
Ġrequirement
Ġrecommendations
ĠOverall
Ġugh
two
Ġrestricted
Ġunprecedented
OOD
Ġvenue
Ġelevator
ĠOttawa
Ġtropical
Ġsophisticated
('
bull
bons
cope
rons
Ġtapes
hered
Ġsip
Ġwound
erning
Ġyarn
Ġthri
Ġinex
lem
Ġbeaver
Ġstair
amer
ĠTel
Ġjay
Ġjane
ĠSty
aba
ĠCincinnati
ĠBarn
Ġoutcomes
ĠHE
ĠHoly
istol
akota
ĠNash
ĠNiger
ĠGh
ĠGos
Ġbabe
Ġpermit
phy
Ġpoin
Ġslipped
ĠVill
Ġembed
oded
Ġinterrupt
cedes
Ġ73
Ġgameplay
Ġcupcakes
aji
Ġsorta
ĠUSC
ãģ§
Ġmodest
ĠManhattan
Ġperformances
aukee
Ġpublish
Ġmomentum
Ġaccessible
Ġcomplain
Ġ1986
Ġ1989
limited
Ġsqueez
Ġreflecting
Ġrebels
ĠKeith
Ġhooked
Ġê·¸
ĠSheriff
Ġmigration
Ġquantity
ĠElectric
borne
Ġmanufacturer
Ġprompted
Ġspanking
Ġembrace
Ġpirate
Ġcreepy
Ġdiplomatic
Ġplacemat
ĠOccupy
ĠTaiwan
ancellor
Ġaccompanied
Go
IF
ME
Mar
cus
tails
western
¸°
Ã¥
Ġtul
Ġave
Ġsessions
Ġyall
Ġpy
Ġreind
Ġriot
Ġanch
ĠIV
ĠSE
ĠCa
ĠCorn
Ġchris
ĠPAC
Ġdeed
Ġconsecutive
ĠWright
ĠHaven
estyle
ĠRah
nty
ĠLi
Ġshirtless
fferent
Ġscales
cco
ective
Ġneedle
Ġthrows
Ġrecalled
Ġdeserves
ollar
psy
Ġdrip
Ġ800
Ġcapabilities
Ġsubmit
ĠFriend
breaking
Ġcorrupt
glect
Ġinvested
coins
Ġeconomics
ĠPhone
Ġdescript
Ġbanging
strong
Ġcircuit
Ġrobust
IDE
Ġbouncy
Ġdocumentary
Ġordin
Ġattracted
ĠMagazine
Ġwrapping
Ġoccupation
ĠBetween
ĠAuto
Ġhouseholds
Ġhabitat
Ġreconst
Ġbrutal
ĠLeonard
Ġpreparation
ĠOakland
Ġsquatting
Ġancest
ëıĦ
GS
MAN
chest
fy
iated
rust
whe
waukee
Äį
äº
Ġawards
Ġsang
Ġdick
Ġandy
Ġinbox
edia
accept
Ġrene
Ġew
Ġdod
ĠTan
ĠCas
ando
Ġdonation
ĠBah
Ġalley
Ġpeer
ĠDuke
ĠLD
grown
Ġmidnight
hedral
Ġdarkness
Ġheadboard
ĠVlad
Ġcapability
azines
Ġsandwhich
Ġbunches
ethod
Ġhummus
Ġtommy
Ġtechnically
Ġreceives
Ġexpects
Ġviolated
ĠPoland
Ġdefending
Ġcrowds
Ġruin
ĠPeace
Ġtraveled
Ġrespective
Ġgeomet
ĠRichards
Ġmagnets
Ġadoption
Ġcoordinator
Ġconstructed
Ġparameters
gregation
Ġaveraged
Ġrivals
Ġcocaine
Ġlollip
Ġbakery
DN
URE
cup
opp
Ġtes
Ġtoug
Ġsab
Ġbake
Ġbulk
inch
Ġlondon
Ġfount
Ġfisher
Ġhatch
Ġgene
arios
idi
adada
Ġweas
terror
Ġlemons
ĠCond
ĠCON
ĠCrit
Ġorbit
ĠBenn
Ġtrap
Ġvalley
Ġvocal
Ġupwards
Ġabol
ĠHand
ĠRest
Ġbrowns
Ġoverd
inea
Ġintr
icts
Ġmakeup
ulty
ĠKer
ĠKell
ĠStorm
Ġbetty
ools
Ġkeen
Ġdrought
Ġsniff
Ġdrift
Ġconsent
Ġwaited
ĠBrandon
ribly
ĠDeep
Ġpossibilities
Ġdevelopments
Ġadvent
Ġbarrier
Ġcourtesy
Ġmagazines
ĠGrant
Ġlistened
eges
Ġcriteria
Ġcrystal
Ġprotective
Ġinvestigated
ĠSeason
Ġabsent
Ġearning
ĠSteel
Ġeducational
clusive
OSS
Ġmelted
Ġspreading
ĠCheney
ĠGlass
Ġkiller
UST
Ġregulatory
ĠMalays
ĠCanadians
ĠCrime
ĠArea
ermont
Ġpowdered
Ġveggie
ĠMississippi
Ġplugin
Ġbombs
ĠLincoln
ĠSubsc
Ġtransformed
Ġinitiatives
Ġfolk
Ġdramatically
Ġoverwhelming
Ġsearched
Ġduties
ĠBaltimore
minded
Ġluxury
ĠLeban
77
84
Hz
OD
Pass
fers
oj
uccess
ìŀ
Ġtidy
Ġivory
rele
inished
Ġcinem
Ġponies
Ġlitt
Ġfurry
Ġhuckle
Ġnib
isive
omy
Ġreass
Ġbeet
Ġseiz
ĠToy
Ġliver
ĠSessions
ĠCB
Ġdonations
ĠMana
Ġbrian
Ġtrips
Ġchilly
Ġgrace
ĠDue
ĠNap
ĠNex
ivan
Ġmomm
ported
Ġ1920
Ġ1930
Ġbreathing
Ġcountless
odge
Ġbedspread
ĠWear
Ġ82
Ġairlines
eez
ĠShield
Ġforefront
Ġpaste
2012
ãģ£
Ġapproaching
ĠConferences
appropri
Ġreleasing
Ġmilitants
Ġauthent
ĠCode
Ġdisplays
Ġcasting
Ġdeparture
Ġverb
ĠSimilarly
Ġfatal
Ġwetsuits
Ġpalace
Ġalternatives
ĠAPI
Ġranking
Ġgifts
Ġaffordable
Ġphotographs
Ġseventeen
Ġsweaters
Ġpraised
Ġrenewable
Ġexhibit
ĠVictor
escope
ĠAzerbai
->
CAD
city
jamin
park
Ġtug
Ġtuesday
Ġtissues
Ġsar
Ġbip
erick
Ġdw
Ġlass
Ġluke
Ġmoose
Ġhike
orig
igo
Ġbeast
Ġray
Ġrushed
Ġsem
amins
urities
Ġnotably
Ġjer
stop
ĠBuilding
Ġbrands
Ġtricycle
ĠWant
ĠWolf
riages
ĠRonald
Ġsafer
ĠGene
Ġoverh
ĠEss
Ġappet
Ġdiving
Ġcarol
Ġcolour
ĠInside
Ġdisabled
obi
Ġ69
ĠAndy
Ġassists
Ġsimilarly
century
comp
Ġhumpty
Ġpolitician
Ġavail
ĠZak
oleum
Ġoperational
ĠNev
Ġfingerna
Ġreplacing
Ġcycles
Ġrepresentation
Ġfunctionality
check
Ġlifting
ĠSimon
ĠNether
Ġprosper
Ġderived
Ġwhisper
Ġstruggles
Ġhomosexual
Ġreminded
ĠWildstein
Ġincorrect
Ġpenguins
ĠHunter
Ġcigarettes
ĠAdvanced
arette
Ġ\(
Ġamendment
ĠSudan
ìĦľ
ĠNobel
UC
aq
aque
founder
ipt
Ġapril
Ġoxy
Ġdun
Ġpi
Ġwha
isp
Ġhesit
adi
Ġstats
aman
amous
uroy
ĠTam
ĠTef
imir
ĠSD
chio
ĠAz
olving
ĠCustom
ĠMas
ĠBIG
Ġvoc
Ġvamp
ĠPed
Ġknit
ĠHamps
ĠRab
Ġhash
ĠDJ
ĠNature
ĠEC
ĠEth
ĠJets
acts
ressing
Ġcontrad
wegian
hester
Ġtreasure
Ġcheaper
athon
Ġattorneys
Ġcorners
ĠAlmost
Ġ120
Ġexploring
Ġdemol
ĠIndians
Ġtestified
ĠConvention
ĠSpider
ĠMarine
former
ventions
Ġlogos
Ġharvest
Ġsidewalks
ĠEdwards
Ġdefeats
Ġbeneficial
ĠNeed
Ġexisted
Ġdestro
Ġacceptance
Ġindicating
Ġtorso
Ġmaintaining
Ġreflects
ĠIntel
Ġcontrolling
Ġroutes
Ġscenarios
ìĿĦ
Ġleafy
Ġsnail
Ġsatisfied
Ġlinoleum
olitical
Ġcheeks
Ġnewsletters
Ġobservations
Ġpopsicle
Ġoccasions
ĠJavaScript
ĠEnvironmental
ĠWikipedia
Ġfierce
83
BM
Cha
ais
pad
piring
sub
zels
Ġbax
atism
Ġps
Ġthump
Ġfencing
itative
Ġnancy
Ġga
Ġinherent
Ġrex
ights
Ġliam
Ġjars
Ġjingle
Ġkettle
ĠAmy
Ġlend
Ġleopard
ceeds
opot
ĠMaine
Ġchili
Ġviable
Ġupward
Ġcomics
agles
ĠEve
izations
Ġadj
ptions
ocur
Ġdisorder
Ġcompelling
Ġheadlines
Ġslim
ĠVP
Ġsignature
Ġaccent
Ġhighchair
ĠReagan
economic
Ġexped
Ġexpense
Ġposters
ĠOnline
Ġfilming
Ġparticles
ervice
ãģĭ
Ġcombine
Ġringing
Ġpublishing
Ġabsurd
ophob
Ġjudicial
Ġvariables
Ġ1965
Ġarrests
Ġterrier
Ġclicking
Ġpaddle
Ġdefended
ĠModern
Ġconcentrated
Ġdumptr
Ġshocking
Ġscratchy
ĠFinance
lihood
olitan
iwi
âĢĶâĢĶâĢĶâĢĶ
Ġtroubles
ĠBesides
ĠArgentina
writer
icholas
oenix
Ġunscrew
ĠRouge
ĠIndonesia
Ġawkward
AF
TON
UD
first
pur
ser
Ã¢
Ġtal
Ġtens
Ġaug
atar
Ġcd
Ġdandel
Ġpope
Ġholl
Ġnike
Ġinhab
Ġbeers
Ġcanc
ĠTalk
Ġshook
Ġlikelihood
ĠSier
gered
ĠMLS
Ġneglect
ĠBaker
una
ĠPink
ĠPizz
ĠHold
ĠRBI
Ġpeck
icken
Ġworship
ĠEinstein
plo
ifier
ĠKerry
ĠKnight
ogy
Ġelizabeth
ĠHey
ĠChampions
Ġundert
inski
ĠRef
Ġpassage
Ġtransactions
Ġproviders
Ġdirectors
Ġcloses
Ġsteve
ãģª
Ġfreezing
Ġ110
Ġunderstands
Ġprojected
loading
ortunate
Ġcalico
Ġsentenced
Ġproductive
valid
ãĥ³
Ġ1988
ĠSteam
Ġparticipated
Ġbouncing
Ġsensitivity
Ġmeasurements
ĠBreak
ĠëĤ
ĠRoberts
Ġdumpty
news
ĠScottish
ĠMarshall
ĠJefferson
Ġpitching
Ġfrustrating
ĠFinancial
Ġpancake
Ġclinic
Ġpraise
Ġsponsor
Ġsweeping
claimed
aghdad
Ġmunicipal
ĠSoftware
ĠCoalition
ĠVladimir
Com
Net
Rep
SD
\-
big
bac
jar
rin
such
vals
words
Ġcort
anim
Ġdan
Ġpies
Ġposed
Ġpipes
Ġgordon
Ġish
ignty
utter
Ġrushing
amation
ĠTib
Ġyess
ĠSM
Ġorg
Ġplatter
ĠBox
ĠBoe
Ġoutline
arten
ardi
Ġmanual
Ġgravy
ĠHorse
ĠRoom
ĠDublin
ĠNatural
ĠNintendo
redict
Ġdioxide
ĠUPD
Ġpreview
Ġune
0000
Ġmold
Ġlightly
Ġresigned
Ġremotes
ĠChad
Ġbedtime
Ġevolved
Ġconcerning
Ġfishies
enez
ĠGreens
Ġtraff
Ġ=>
Ġdevoted
Ġ1984
uki
Ġbalcon
Ġnationwide
ĠSpeed
cules
Ġdocumented
Ġwatches
Ġarchae
Ġtendency
Ġprincipal
Ġqualified
Ġexperimental
ĠNorwegian
specific
ĠOkay
ĠTerror
ĠBrazilian
ĠVictoria
Ġgallery
Ġdelayed
Ġsolely
Ġimperial
ĠAffairs
ĠRafael
Ġdistinguish
Ġankle
widget
Ġharsh
150
IKE
fits
fruit
mitt
rag
vet
vation
ws
aters
Ġfuss
Ġfiber
Ġhub
Ġtopped
icia
acht
uson
Ġblown
ims
Ġkab
terior
chini
ĠAFP
antom
Ġnemo
Ġbrushes
Ġvans
Ġsheer
riors
pered
akis
emption
ĠLang
Ġunst
avia
Ġcran
ocus
ĠStore
Ġ->
Ġsliver
Ġhmm
ĠVen
Ġdesp
Ġbreathe
Ġcounties
Ġcreator
Ġcutter
Ġbelieving
Ġinstances
Ġcurved
Ġcurled
Ġexpenses
Ġprovider
Ġprofound
ĠQual
ĠAlliance
Ġoperators
ĠExpress
Ġconnecting
Ġradar
Ġemployers
Ġvanity
ĠPartners
Ġcharacteristics
Ġaddresses
Ġreviewed
Ġhosts
Ġrevealing
Ġmailman
Ġmillenn
Ġtripod
Ġspiderman
Ġpilots
Ġdemocratic
arency
ĠSilver
ĠQuebec
friendly
Ġghosts
Ġintentions
Ġdynam
ĠWayne
Reuters
Ġsedan
Ġwhitish
ĠResponse
Image
Ġambitious
ĠWWE
Ġadequate
Ġgorgeous
Ġconductor
ĠStewart
GL
Ye
bound
js
rank
wage
Ñı
Ġari
Ġore
Ġya
Ġpension
essel
Ġgown
iche
Ġbeats
Ġstab
osl
Ġseeks
Ġanime
ĠSoul
ĠML
ĠMoney
Ġmelt
ĠBond
Ġtrace
Ġalign
ĠWord
Ġgrind
Ġgrampa
astically
ĠNat
ĠNie
ĠLie
ĠLions
ickr
Ġaging
Ġscoot
Ġcrad
Ġworkforce
weed
Ġampl
Ġappearing
Ġpretzels
Ġdistinction
atson
Ġconsists
vernment
---
anyahu
Ġretain
ĠArts
hips
Ġbooboo
ĠZebra
Ġfreely
Ġcourtney
ĠPrint
Ġ1991
Ġprotections
Ġsuggestions
ãĤī
Ġgenre
Ġbalanced
Ġaffects
Ġessay
Ġrepeal
ĠIntrodu
Ġsurviv
Ġsurvived
ĠEvie
Ġrankings
Ġfroggie
ĠLaure
Ġcorduroy
Ġfoam
Ġreactions
ĠKurd
erguson
Ġhacking
ĠMelbourne
Ġmotivation
ĠCharlotte
Ġpedestrians
Ġaquarium
Ġcucumber
Ġslippery
Ġchlorine
Ġconfiguration
Ġprivilege
Ġmathematical
Ġgravity
Ġtinted
Ġdiscontin
Ġopioid
Ġweasel
81
May
Sports
cam
fix
iar
rill
´ì
ë¡
Ġ%
Ġsib
Ġdare
Ġmit
Ġtoll
Ġincl
isode
idal
Ġseas
Ġhaul
ĠSite
chi
seud
Ġleak
Ġfraction
ĠBJP
Ġchill
Ġchronic
Ġprobe
people
ĠFall
ĠGil
ĠLaur
ĠEffect
Ġoffseason
ĠOt
Ġbuh
Ġsmiled
Ġenact
clip
Ġbeta
Ġglob
Ġcatast
Ġ600
Ġinterim
Ġgrassho
Ġcape
ĠReid
quel
Ġvector
ĠCommer
Ġannie
Ġloving
ĠMario
Ġdealt
Ġportable
Ġsuggestion
Ġannouncing
Ġhybrid
Ġfocuses
ĠCarter
ĠNeither
ĠBarry
Ġshuttle
Ġmeantime
Ġstructural
Ġtoasted
Station
Ġachoo
Ġattendance
Ġcriminals
Ġgrabbing
Ġnurses
ĠMilwaukee
Ġhippopot
Ġdrums
Ġemotions
ĠStudio
Ġhighlighted
Ġaccuracy
Ġcherries
handed
Ġsustained
sticks
Ġgalaxy
Ġrelaxed
because
Ġstyles
Ġdiscipline
Ġconvenient
Ġdisgusting
ĠMovement
Ġskyscrapers
Ġremoving
Ġinquiry
Ġjewel
Ġsuspension
Ġhospitals
"]
600
By
Let
cour
count
found
hh
rah
school
wah
ĠâĪĴ
Ġwaking
Ġowe
Ġlush
Ġhips
arians
Ġbeverage
Ġsealed
Ġjello
ĠSO
ĠSak
Ġfry
ĠMov
Ġblacks
ĠBanks
ĠPH
ĠWii
rix
isting
Ġbackup
ĠRR
ĠReb
ĠDur
ĠDude
ĠFA
agine
Ġarc
ĠEst
Ġcozy
Ġquilt
Ġworkplace
upiter
Ġdispar
Ġbookcase
Ġcompact
Ġcomparing
Ġelabor
Ġrecovered
ĠVenez
Ġzones
necess
odox
ĠButler
ĠUniverse
Ġaddiction
ĠAsked
Ġrefusal
Ġcourage
ĠBrussels
Ġcharging
ounge
Ġsleeps
Ġartic
Ġposes
Ġjuven
Ġprototype
urai
Ġbrightly
udeau
Ġstrongest
Ġportf
INE
Ġsuperhero
Ġlogical
Ġoopsie
ĠEdge
Ġdifficulties
ĠNotes
Ġpublisher
ĠCoach
Ġtriangles
etti
Ġaccepting
Ġaddressing
ĠGodd
Ġfifties
OST
ĠNetanyahu
ĠEvil
Ġdoctrine
ĠSolar
Ġmutt
ĠCampaign
ĠJimmy
Ġmuffins
Ġsuburbs
lynn
Ġcigarette
ĠMountain
Ġarchitecture
Ġpronounced
Ġcryptocur
ĠAntonio
agraph
Ġprosecution
ĠAlberta
Ġanalyses
Ġreindeer
Ad
Os
RL
SH
bas
fold
kk
mart
nn
tra
uced
Ġtus
heastern
Ġsings
Ġbats
inst
Ġpairs
Ġluc
Ġmesh
ndra
Ġferry
Ġnapp
Ġeey
Ġstro
Ġstressed
itement
ĠIan
opa
stock
ĠMind
Ġchampions
ĠPage
Ġdebr
Ġdelet
Ġcones
ĠRaven
ĠED
ĠElection
ĠOw
Ġsplin
Ġdownward
ubble
Ġcontend
Ġgloria
Ġcattle
Ġtreats
Ġcheep
Ġzuc
odies
Ġmedian
Ġterr
shore
Ġrecordings
Ġgenerous
Ġstead
Ġlesser
ouching
Ġpatri
Ġformula
Ġquestionable
Ġkissed
Ġnorman
Ġfigur
Ġpaints
IND
Ġdevil
-----
ĠHaram
ĠNeil
Ġarriving
Ġcredits
Ġpumpkins
ICK
Ġkingdom
Ġjournalism
Ġexperiencing
Ġmerch
Ġmagnitude
Ġcomparable
azeera
OOK
ulsion
ĠKurds
Ġsurveys
Ġsponsored
Ġfluid
Ġmortgage
Ġdubbed
ĠTurner
Ġcondemned
Ġwilson
Ġdisturbing
profile
Ġsovereignty
Ġtemplate
ĠCircuit
ĠNetherlands
ĠHampshire
Ġdumptruck
ĠKurdistan
IES
Me
Work
dep
vo
Ġbou
itably
Ġhiring
omed
icut
Ġrats
Ġsept
html
uro
ĠSandy
ĠCarn
iere
ieved
ĠBal
ĠBaghdad
Ġchurches
Ġvow
ĠPa
Ġconced
Ġaltered
ĠWAS
ĠRoth
ĠRaid
ĠDom
ĠFestival
ĠFerguson
ĠNelson
ĠGordon
ĠLog
âĢĿ)
ĠUb
ensen
Ġbuilder
ĠChuck
Ġslower
ĠVik
velope
Ġsupporter
Ġinvite
Ġanimated
Ġasset
Ġinstruction
minth
ĠAnaly
Ġpenalties
Ġinfer
2015
ĠPlanned
Ġthreads
annon
Ġethical
Ġskiers
ĠÂ«
Ġbandana
Ġadministrative
Ġturf
great
Ġsporting
Ġadmits
Ġcarpeted
Ġbleep
Ġsenators
Ġbuckle
Ġpinstri
Ġmechanical
Ġdemonstrations
Ġintegration
Ġconflicts
ĠPrix
Ġtransferred
Ġcertification
ĠSystems
Ġveterans
Ġprayer
ĠProtection
Ġseverely
,,,,
Ġcrunchy
Ġjillian
ĠDrive
ĠCurrently
Ġraspberries
ĠParenthood
ĠBroncos
Ġoxygen
clipse
Ġzucchini
?!
UI
cott
dig
hin
ju
via
´ë
¿½
ä¸
Ġwavy
inery
initely
ouble
onk
oner
Ġdash
arious
acent
Ġranges
Ġeagle
Ġcanoe
Ġstalk
Ġstunning
Ġthereby
ellers
olio
ĠCold
anded
ĠMack
Ġtrium
Ġjustify
Ġgrowl
ĠHab
ĠHOR
ĠRac
ĠDraft
ĠFI
eled
ĠGore
ĠUpper
Ġpreval
Ġscroll
Ġcolonial
Ġcrashing
ĠKir
ĠStation
Ġcompass
boats
Ġremoval
ountered
Ġstreak
Ġ71
Ġ76
ĠTrudeau
Ġanimation
Ġmemories
ĠComb
Ġcorro
ĠAdvertisements
2010
rones
Ġformica
ĠConn
ĠMarg
Ġcompetitors
Ġinflamm
Ġpetting
Ġseparately
Ġencountered
Ġprinter
Ġ1967
Ġneatly
Ġstocks
Ġnaomi
ĠLarge
Ġacquis
Ġwitnessed
Ġenclosed
ĠCommissioner
Ġfrustration
Ġdelivering
ĠDieter
Ġflowered
Ġvitamins
Ġnavigate
ĠCambodia
ĠBMW
Ġgabby
ĠGandhi
AW
Bel
Fi
Gr
gence
mos
named
á¹
ï¿½
ðŁ
Ġ_
Ġtempt
Ġcott
oufl
Ġheck
Ġreception
Ġweaken
Ġstap
ĠTotal
Ġleap
ĠCBC
Ġpledged
ĠBoo
Ġbrains
Ġtragic
Ġjustified
outheast
ĠPE
ĠPun
Ġconj
ĠWatson
ĠHung
ĠRangers
ĠDON
ĠFL
ĠFant
ĠFun
ĠFlynn
Ġexempt
ĠNumber
Ġthemes
Ġplayground
ĠOscar
Ġintact
Ġtwisted
ĠUm
Ġpricing
ivic
cca
oche
achi
Ġlightning
Ġsketch
Ġglaze
Ġglimp
Ġcompos
tech
Ġrecession
Ġhappily
Ġhappiness
Ġcommod
owski
Ġconsiders
ologically
Ġfaculty
Ġinstantly
Ġbunnies
ĠArsenal
Ġhumor
Ġartwork
Ġmonarch
Ġawa
Ġrounded
Ġmessed
ĠBlog
Ġraft
Ġgrandfather
ĠCann
Ġeru
Ġhumanitarian
Ġeighth
Ġmusicians
Ġpeeking
Ã©s
Ġmailbox
Ġimagination
Ġindependently
Ġcelebrated
ĠBelg
Ġstocking
ĠTransl
Ġliquor
missions
ĠPalestine
Ġtranslate
ĠElective
ĠPhilip
Ġtadi
ĠHamilton
Ġtransparency
Ġwisdom
ĠLooking
Ġdiffer
large
ĠRolling
Ġiconic
ĠEventually
Ġsocieties
ĠDigital
Ġcustody
ĠEbola
Ġsummary
Ġstefan
Ġlollipop
ĠSubscribe
ĠNevada
ĠTeflon
ĠSierra
Ġglimpse
82
Data
Hey
La
bid
cal
nik
uates
ï¼
ĠÏ
reach
Ġdime
Ġpouch
Ġlung
Ġloos
Ġfond
Ġgn
arma
ede
icorn
Ġsends
verages
imens
Ġjon
Ġkathy
ĠSW
ĠAlf
Ġleagues
ĠBills
ĠBaby
ulp
ĠPu
ĠPittsburgh
ĠWy
ĠRic
ĠDate
ĠDod
ĠNS
ĠNixon
Ġboil
ĠLot
ĠELE
Ġfever
Ġadoles
thm
ailed
Ġresume
Ġboyfriend
ĠYahoo
Ġaccidents
Ġendless
aintiff
Ġdollies
Ġreply
mingham
2018
ĠZEB
Ġjoanna
Ġlayout
ĠBeaver
ĠExp
ĠRussians
Ġtyped
Ġcrosswalk
Ġradiation
Ġbalancing
clusions
Ġimpacts
ĠQuick
Ġlibert
Ġfolder
ĠSimpson
Ġlaunching
Ġbriefcase
Ġaccidentally
Ġheroin
Ġlaboratory
Ġachievement
speed
ĠAtlas
ulsory
Ġsupplied
Ġgrapefruit
Ġlifestyle
Ġproceedings
munition
ĠTriple
Ġlipstick
ĠOrganization
ĠReturn
Ġhypothesis
cribed
ĠIndependent
Ġbiscuit
Ġdivorce
ĠRegardless
Ġrhinoc
ĠBeyond
Ġtusks
Ġeeyore
Lin
gary
human
lash
natural
vol
Ġsou
Ġcoo
Ġhid
orical
eday
isco
omatic
icc
igs
igher
iddle
Ġsean
Ġsewing
Ġstella
Ġblamed
Ġblitz
ĠCarson
oper
uming
Ġvi
Ġaliens
Ġgrin
ĠHunt
Ġprol
pection
Ġpea
ĠDest
emeter
ĠFuture
quality
Ġboiled
ĠGill
ĠLoc
ĠLuck
ĠET
cip
Ġflaw
Ġcouches
Ġenvelope
Ġunnecess
Ġlightweight
ĠStock
Ġacted
Ġelbows
umpy
Ġdesynt
Ġmedic
Ġinval
Ġswift
shake
awk
Ġ911
Ġprovisions
ĠClose
Ġwinnie
Ġloans
Ġadvant
Ġsummar
ERE
ĠPhill
ĠExchange
uggling
Ġtyping
ĠAustria
Ġaudit
ĠHarrison
Ġeditors
Ġdeclare
Ġtreaty
Ġpredec
ĠSmart
Ġchristopher
ĠResources
Ġunfortunate
Ġdumped
Ġensuring
ĠGeneration
Ġnursie
Ġdefenders
Ġpunish
Ġwarnings
Ġcruise
Ġlemonade
Ġexpertise
ĠKhmer
Ġeuros
Ġconclude
Ġharmful
ÃŃa
Ġcushions
Ġchemicals
ĠElephant
ĠTitle
iraffe
Ġapologize
Ġvolunteers
ĠPython
Ġretriever
ĠBOY
Ġtossed
Ġcognitive
Ġcounterparts
Ġlecture
Ġphotosh
Ġgardens
Ġscrutiny
Ġembedded
acceptable
Ġfountain
Ġbalcony
Ġhippopotamus
))
?âĢĻ
DAY
RT
mans
rous
Ġbatch
Ġbaker
Ġcords
Ġdor
Ġpoodle
Ġlantern
Ġmg
itic
Ġnort
eder
oosh
acon
uscript
keley
aments
ĠTower
Ġforum
Ġjosh
ĠSoon
ĠAB
olan
ĠMail
ĠBren
ĠBear
ĠRank
astics
ĠDomin
ĠDVD
ĠFried
bey
bean
ĠGAM
ĠGhost
agus
icky
icked
Ġcoin
izard
arendra
Ġsmiles
ishop
plant
Ġquad
angelical
Ġglory
Ġdispro
Ġprobabilities
Ġheader
Ġcamoufl
Ġbreach
yster
Ġinterference
ĠTrue
Ġworlds
Ġcharter
Ġimpose
Ġwarmer
Ġwarfare
Ġretained
balls
Ġmonument
Ġstorefront
Ġcontinuous
Ġadvances
ĠZe
Ġpressures
Ġmodes
ĠBeck
Ġequipped
Ġdebbie
Ġdesks
Ġprivately
Ġviolate
Ġdryer
ĠÂĵ
Ġhamster
Ġcultures
offs
flu
Ġgenius
hanced
Ġparticipating
ĠContent
Ġsprouts
ĠPalin
Ġskateboarding
Ġsneez
Ġverify
ĠPosts
ĠPlayStation
Ġprevented
Ġconcentrations
Ġassumption
Ġnutri
Ġadvocacy
second
ughs
Ġbrocoli
Ġevaluate
Ġprayers
Ġsubstantially
Ġlambs
Ġmandate
Ġafrica
ĠCLOS
ĠHRV
Ġsearches
Ġinfected
Ġorientation
Ġaerial
Ġromantic
Ġdelegates
monton
Ġendorsement
ĠCorporation
ĠSafety
Ġtrademark
ĠTibet
Ġcradle
Ġdebris
Se
See
ZA
call
date
fre
gh
jpg
norm
san
uably
ÂĶ
Ġtide
hee
Ġbould
Ġcad
Ġyikes
Ġdur
Ġdab
Ġlite
Ġmol
Ġhorton
Ġny
around
eded
etta
idas
user
Ġrumm
Ġstyl
acked
Ġshine
terdam
ĠAI
Ġatop
ĠCrow
ĠCOU
ande
Ġtrig
ĠPig
ĠPub
Ġdece
Ġalice
ĠWard
Ġgrasp
ĠHz
ĠHart
rily
Ġpeac
Ġpeers
ĠDor
ĠFame
ĠGard
agne
ĠEither
Ġspices
Ġintrig
Ġintrus
Ġflush
Ġflaming
ĠUP
Ġcaramel
placed
ifiable
Ġpolish
ĠVW
ĠVermont
Ġempir
ĠReferences
Ġkeeper
Ġcolleges
etern
brown
Ġrespiration
Ġengland
Ġannually
Ġgiants
Ġquestioning
Ġfights
ĠOrder
Ġpropeller
Ġstarfish
Ġtenure
iences
ORN
Ġcyl
Ġexecute
Ġ1987
bbles
Ġsecrets
Ġsmartphones
marks
Ġspectac
urgers
Ġcrisp
Ġlibraries
ĠMcConnell
!!!
Ġhistorically
ĠBelgian
Ġenterprise
ĠMorris
ELL
ĠRobin
ĠProfile
Ġacquire
Ġwhiskey
ĠMontana
ĠCommunications
Ġflashlight
Ġhence
winning
Ġsquirrels
Ġallocated
IME
Ġfeminist
ĠSECOND
ĠKatie
Ġfucking
Ġconverted
Ġeyebrows
Ġchunks
ĠBattery
Ġrevenues
Ġsheriff
ĠBirmingham
Ġsculpture
Ġsnowsuit
ĠPhilippines
Ġtucked
ĠZakaria
ĠUPDATE
Ġseptember
Mr
bled
eem
hr
mac
math
roots
Ñĭ
Įë
Ġsons
Ġoz
Ġdaniel
Ġdwar
Ġlag
Ġnun
aram
Ġitalian
Ġwhales
Ġheating
alous
iden
Ġrecept
Ġripples
Ġstole
Ġblows
urora
ĠTodd
Ġshaving
Ġshaved
Ġlegg
ĠCENTER
ĠMitt
ĠMons
ĠMeg
ĠBand
ĠBuck
ĠBird
ĠBuy
Ġchuck
Ġclues
ĠWade
Ġgrants
Ġgrizz
essional
ĠHem
ĠDyn
ĠFisher
beit
ĠLisa
Ġspitting
uded
Ġrobe
Ġdiver
Ġdiale
ĠJoint
onduct
Ġimpe
Ġcruel
ressive
oco
occhio
ailand
Ġdisorders
Ġcatalog
Ġactress
Ġcomposition
Ġprobable
ixel
Ġindirect
Ġunderway
Ġsupplement
Ġhairy
Ġstartups
Ġinvented
azer
amped
Ġbreakdown
ĠAround
Ġmemo
ĠShin
Ġinvesting
Ġbuyers
Ġhitter
Ġconstr
ĠBeh
Ġproblematic
ĠJohnny
Ġdebates
books
Ġarguably
Ġspacecraft
Ġportrait
Ġcease
AST
Ġdenial
Ġ1983
Ġvariations
Ġepide
Ġhostile
Ġworthy
ĠControl
ĠSwift
Ġconservation
Ġconservatism
Ġbiology
trans
Ġsanctuary
Ġpromoted
ĠAssange
Ġfleet
Ġbacteria
Ġorganizers
Ġbobby
ĠAnyone
Ġpursuing
Ġninth
ĠForest
Ġreminder
Ġhawk
Ġinnovative
Ġobscure
Ġlobbying
Ġlicking
ĠSomething
Ġpurely
ĠConservatives
Ġpedestal
Ġalgorithms
Ġdesperately
Ġragged
ĠNevertheless
Ġmolecules
Ġbulb
Ġagricultural
Ġelectoral
ĠBryan
Ġspatula
ĠJamie
Ġearliest
Ġignorance
Ġorangish
ĠOxford
Ġlinebacker
ĠNexus
Ġadvantages
Ed
function
hu
home
lan
su
ti
vised
Ġtensions
Ġamerica
Ġwan
Ġwired
Ġwiped
atin
Ġcache
Ġdense
Ġmast
Ġnonsense
Ġtock
Ġtopping
aru
Ġinhib
edges
icient
iga
Ġheated
Ġreaches
Ġseals
Ġcanada
ĠTak
ĠTigers
ĠSide
ustral
ĠMVP
ĠBamb
ĠPier
ĠPAR
ĠWiki
ĠWarner
ĠWATCH
Ġgrim
ĠRu
Ġexpend
ĠGiraffe
Ġworms
Ġspout
Ġgreenery
Ġapplying
Ġunicorn
ĠKal
ĠKID
Ġreserves
Ġvisa
Ġze
Ġattributed
Ġ86
Ġhandsome
lessness
Ġexploration
Ġbarbara
Ġpatent
ĠBlu
ĠPhoenix
Ġmagical
Ġtickling
ĠNoah
forward
Ġsentiment
government
ATED
ructive
ĠEddie
ĠSelect
Ġwildlife
vironments
Ġbangs
ITT
Ġgasoline
ĠColin
ACE
Ġpushes
Ġmisleading
Ġspiral
Ġdrafted
Ġdumbo
Ġqualifying
ĠPortland
Ġplugged
ĠFranklin
Ġaccurately
Ġathlete
ĠREAD
Ġeuro
Ġoccurring
ĠBetter
Ġevaluation
ĠLegisl
Ġfeminism
ĠDownload
Ġpeeled
Ġisolation
Ġcondemn
Ġexcessive
ĠBradley
Ġrendering
Ġloyalty
Ġmantra
Ġeuropean
heimer
Ġfundraising
Ġgrateful
Ġunveiled
ĠSpirit
Ġjurisdiction
ankees
Ġearthquake
NY
RC
View
bah
iop
site
sign
something
ÃĤ
Ġtension
Ġwishes
Ġostr
anium
Ġmound
Ġfixture
Ġhut
Ġgaining
aying
Ġrazor
Ġstinky
urb
urk
Ġhabits
ĠAmb
geant
gends
ĠMethod
fty
Ġchap
Ġvessel
Ġoutlet
Ġoutfield
ĠPers
ĠPinterest
ortions
Ġknick
ĠHir
ista
ĠFors
Ġboiling
ĠLate
Ġoverl
ĠEX
Ġtender
ĠJu
Ġenabled
ĠInn
ometer
Ġdisney
Ġcleans
never
Ġstraps
Ġdripping
Ġdribble
undred
Ġentities
prising
comm
etermin
Ġlisting
Ġdraws
ĠDean
Ġmainland
Ġadvised
Ġbarriers
Ġmicros
ughters
ĠProse
Ġelectronics
ĠNobody
Ġauthorized
ĠMcM
ĠRussell
ĠLED
ĠFlash
Ġurge
Ġurgent
Ġwheelchair
Ġbillionaire
Ġsells
ropolitan
Ġeducated
Ġresponding
Ġtorto
Ġaffecting
hyd
Ġpleaded
ombie
Ġdocumentation
Ġescaped
Ġchallenged
Ġgranny
Ġmanufactured
Ġpsychiat
ĠPrior
ĠWinter
Ġacademy
ĠIncre
Ġsparked
charge
Ġgymn
ĠBasic
ĠVietnamese
Ġconfirmation
Ġmascul
ĠAnnual
Ġobservation
ĠBulls
ĠMarcus
ĠPoints
ĠNorman
Ġdevastating
Ġannoying
ioca
Ġseagulls
Ġaccusations
Ġcertificate
Ġimprison
ĠBennett
emetery
Ġintrusive
CO
City
FS
Ne
Red
Tw
bucks
five
hist
pol
wart
ÏĤ
Ġ`
Ġaired
atre
ervers
Ġhan
orient
Ġinappropri
icism
acie
uther
Ġreun
Ġrewards
Ġsemin
oting
Ġstomp
Ġforums
Ġji
Ġshave
ĠSad
ĠSport
abad
ĠCM
ĠMoss
ĠMix
ĠBuild
Ġchrom
esthood
Ġcomfy
ĠRoc
ĠNav
ĠGab
ĠâĢľ[
ĠEagles
ibilities
Ġspike
Ġspilling
ĠJi
Ġtwitter
Ġflaws
Ġflounder
Ġprecious
reek
Ġenvironments
ifully
ĠKill
Ġdisad
ĠVeter
Ġbrewing
Ġsurrog
Ġreli
Ġ88
Ġconsolid
itchell
Ġassured
Ġhiking
Ġcurrencies
Ġbuns
Ġpassive
Ġartistic
Ġdesignated
bread
ĠHowe
Ġinvestor
Ġbarg
Ġpays
ĠShel
Ġraincoat
ĠMarines
Ġsooner
ĠGreene
Ġidentifying
Ġprofessors
ĠEdmonton
Ġrises
Ġimmense
Ġthanksgiving
ĠGoing
Ġemerge
Ġcommented
Ġexecuted
Ġ1968
ĠLibert
Ġsprint
ĠCorby
Ġpriorities
ĠIntegr
archers
ĠBreaking
Ġultra
Ġearnings
Ġminorities
Ġshifts
Ġpowered
Ġtapioca
iasm
ĠAdditional
ĠNorway
ĠCHAIR
ĠOfficials
Ġaggression
Ġeliminated
ĠRecord
Ġoptimistic
Ġparliamentary
ĠLiberals
Ġpedestrian
ĠBuddhism
Ġjimmy
Ġfertility
ĠMohammed
yrics
Ġinherit
Ġcollapsed
Ġshredded
Ġinsects
Ġornate
Ġbankruptcy
ĠSensex
ĠUniversal
ĠChaCha
DR
NC
bird
df
gt
kind
language
mouth
rates
xx
zilla
Î¿
Ġetern
Ġwag
Ġdoug
Ġdunk
Ġduration
Ġpiled
Ġpseud
Ġmi
Ġfest
Ġnit
Ġwholes
isies
lend
acies
Ġrecl
Ġrin
ĠIde
ĠIMF
Ġkills
ĠSaint
rod
ĠAld
ieval
ĠME
ĠMaking
ĠMitch
ĠMulti
Ġmeals
Ġoutfits
ĠPast
Ġclash
Ġclips
Ġdean
ardo
Ġcongr
Ġconvey
ĠWake
ĠDays
ĠNDP
ĠNazi
ĠGem
agag
ĠLiving
ongs
Ġadmin
Ġaguh
Ġscrib
ĠKyle
Ġbaba
Ġhardest
iani
Ġcompound
Ġammunition
Ġwrink
Ġheadline
Ġspends
Ġslate
Ġindia
Ġsecured
Ġzbra
Ġattitudes
Ġ700
Ġmetres
Ġideological
ĠBrain
Ġinstitutional
Ġterribly
Ġmarvel
Ġseverity
atts
Ġinsane
Ġgoldfish
Ġeffectiveness
Ġcomputing
Ġplacing
Ġconsiderably
Ġsexy
ĠHarvey
ãĥĪ
Ġconviction
Ġ:)
Ġrobbery
Ġconsumed
Ġlegislature
Ġconducting
Ġcelebrating
Ġmeasurement
Ġpitchers
Ġcorporation
Ġuncovered
ĠTransportation
ĠStrong
Ġnutcr
Ġswitching
Ġporridge
Ġapplies
ĠCrown
ĠMadison
ILL
Ġmutual
ĠDirect
ergarten
âĪ·
Ġfortun
ĠStarting
Ġflexible
Ġresignation
ĠEpisode
ê²Į
ĠLeafs
Ġavailability
ĠPizza
Yeah
Ġrhinoceros
AK
PT
aft
author
hole
kok
nesty
ÑĮ
Ġamy
Ġaston
Ġcables
Ġdign
Ġmph
Ġhind
Ġcane
Ġstiff
Ġblades
ĠTag
Ġforg
Ġjac
ĠSar
rob
ĠAj
ĠAFL
Ġfrancis
ilst
Ġorchest
ĠPA
ĠPont
ĠPale
ĠHu
estone
ĠGarden
Ġguh
ĠOp
ĠOpt
izable
udin
area
ĠJazz
ĠThai
ĠIniti
ĠKick
Ġresolved
Ġdisgu
Ġhelminth
Ġheadlights
Ġslides
Ġholders
Ġsnaps
Ġcutoff
uffle
ĠBrand
ĠDecl
Ġpenet
Ġwinners
Ġbarney
ovic
Ġsixty
Ġsalaries
Ġmuscles
Ġfitness
Ġreasoning
Ġtraders
âĢ¦.
Ġautumn
ĠCohen
Ġagrees
Ġkicks
ĠONE
Ġepic
Ġdoubled
Ġqueer
Ġ1969
ĠCorps
Ġclowns
Ġtrusted
Ġmechanisms
Ġextending
Ġsexuality
Ġanalyt
Ġillegally
OUND
ĠUser
Ġlimitations
Ġqualities
Ġbagels
ĠGLASS
Ġarrangements
Ġwoah
ĠVisual
Ġflexibility
ĠCuuko
Ġdeliberately
ãģ¦ãģĦ
Ġfuels
Ġtravelling
connected
Ġmidfielder
ĠGREEN
ì§Ģ
Ġreluctant
Ġdestroying
ë¡ľ
Ġportfolio
ĠHORSE
ĠZEBRA
</
John
del
jab
jani
powered
rics
uously
Ġ);
Ġtaped
Ġbree
Ġbapt
eri
Ġyah
Ġlyrics
Ġms
Ġhush
Ġgamb
isandy
igators
Ġbeverages
Ġstump
ĠTot
ĠAbr
Ġfract
Ġdong
ĠBC
ĠPick
ĠPip
Ġmanuscript
istically
Ġproc
Ġreds
Ġredist
ĠNO
ĠGay
ĠGib
ĠLock
ĠLiqu
ĠLTL
Ġworries
ryption
Ġdownhill
Ġteasing
ĠJav
Ġadvertisements
airy
Ġunanim
Ġgoth
Ġcrooked
Ġcrouching
ĠKate
ĠKrist
Ġpermitted
Ġdism
Ġbabys
Ġcompr
Ġcomply
Ġcompiled
Ġ-----
Ġpolite
ĠVin
Ġbeloved
Ġpretzel
Ġ1945
oda
ĠWhit
Ġdeciding
Ġswept
Ġmetaph
Ġrefusing
Ġinstinct
ĠAlong
comed
Ġfirearms
ĠBlake
Ġsolved
Ġdetection
Ġoperates
Ġfavorites
Ġsuitable
Ġhopeful
Ġdefining
Ġdefinitive
Ġlabour
ĠCommand
Ġharley
Ġdrying
Ġskipped
Ġplanted
Ġteeny
ĠNearly
Ġvariant
Ġthreaten
Ġbumpity
Ġ1979
Ġlengthy
Ġcitations
Ġtuned
Ġrebell
Ġvillain
ĠFederation
Ġpsychology
Ġsnapped
ĠWallace
ĠChristianity
ĠRobinson
Ġqualify
ĠMercedes
ĠSurvey
Ġadaptation
Ġparameter
Ġsatellites
Ġbuffer
ABY
Ġsubsidies
Ġricche
Ġpassionate
Ġsucceeded
ĠALL
Ġvolunteer
Ġenthusiasm
Ġwaffles
ĠBangkok
Ġmammals
Ġfertil
Ġstatistical
Ġsectors
Ġtemporarily
ĠUnderst
ĠCriminal
ĠGriffin
Ġorganisations
Ġoverhaul
ĠRaiders
Ġtriumph
']
??
After
Box
Eur
His
HING
Or
Ps
Wr
aic
bart
fill
four
gon
sch
æľ
ê¸°
ë¥
Ħ¢
Ġtush
Ġtux
Ġicons
Ġcries
Ġyelled
onz
Ġpacks
Ġll
Ġfib
Ġfitted
Ġhorm
Ġhalt
Ġtod
Ġnode
acre
Ġsequel
Ġcanal
Ġanten
Ġleaks
stage
Ġashes
ĠMitchell
ĠBit
ĠBash
ĠBuzz
Ġchor
Ġchords
Ġoutright
ĠPur
ĠPoll
Ġdeployment
Ġmanga
rien
Ġdiddle
ĠRot
ĠRain
ĠDR
qual
ĠLower
Ġanytime
ĠEEG
Ġoffended
Ġspite
Ġspoil
Ġdownloaded
Ġpartisan
ĠJazeera
Ġenroll
Ġunrest
ĠThous
Ġgotcha
Ġcrush
ugosl
Ġlaa
dev
Ġminus
Ġdistribut
Ġboxing
Ġmetab
Ġ84
oyd
Ġrestroom
Ġcooker
Ġcareers
energy
ĠNewton
ecause
awks
Ġcollie
ĠShakes
Ġmaine
Ġbarber
Ġdaughters
arently
Ġmotorb
Ġelectro
Ġdetention
ĠImp
ĠCommons
ĠNotice
aux
Ġurging
Ġtreatments
Ġcarts
Ġobserve
Step
Ġtorrent
ĠQuinn
Ġtrimmed
Ġspectacle
Ġconversion
ĠResearchers
Ġimmigrant
Ġregulators
ĠPlayers
Ġgraduated
Ġloveseat
ĠÃĹ
ĠAssistant
Ġpursuit
Ġfundamentally
íķľ
ĠOfficers
Ġallocator
sexual
Ġrelaxing
Ġembassy
Ġrevolutionary
Ġboundaries
oubted
Ġjenell
believ
Ġfavourite
Ġinevitably
ĠHotel
ĠChildren
Ġaffiliate
Ġvendors
ĠFOX
ĠAhmed
ĠMueller
Ġpigeons
Ġsacrifice
Ġtattoo
Ġdisposal
Ġarbitrary
Ġjewelry
Ġcorrobor
ĠBelgium
ĠCorbyn
âĪ·âĪ·
Ġricchezza
2000
Because
Des
RO
VA
bles
kens
offic
pound
parent
vd
zan
Ġsire
Ġbb
Ġcuz
Ġdamp
Ġlb
Ġlynn
Ġmunch
ester
Ġfitting
Ġfenced
lli
Ġgad
oro
isen
Ġnod
omic
asm
igm
utan
Ġbeam
Ġruth
Ġsep
Ġshaky
Ġkiwi
story
Ġpliers
Ġneo
Ġtract
Ġviny
ĠPin
Ġconclusions
ĠWol
Ġgracious
ĠHouth
Ġpeeling
Ġpebbles
ĠDS
ĠDOWN
ĠFan
ĠFunction
quire
Ġovert
Ġintens
Ġflops
Ġfluct
Ġbecca
Ġsmashed
Ġgirra
ĠInvalid
ocl
ocide
ĠKarl
Ġpharm
ĠStay
orns
Ġcatches
Ġaftermath
ĠYugosl
Ġbehave
Ġunderwater
Ġpreserved
Ġincoming
Ġsurplus
Ġfounding
eches
shire
ĠAlt
ĠForum
ĠForces
ĠArthur
Ġmissiles
Ġexpose
Ġinfring
Ġclosure
Ġcountryside
Ġcontinent
ĠUSD
zzie
ĠZero
Ġprofiles
Ġdaisies
Ġequity
eryl
ĠImmig
Ġstarter
Ġowie
Ġfailures
Ġscratched
Ġsadly
Ġdeclaration
Ġ1982
Ġcartoons
Ġstaffers
Ġspelling
Ġpinocchio
ĠActually
Ġmurdered
ĠChem
Ġmistaken
Ġpitches
Ġinnings
Ġrecommendation
Ġalternate
ĠGoldman
ĠRelations
Ġbomber
UTERS
Ġchemistry
Ġrecip
ĠGarcia
Ġsuburb
ĠLegal
Ġrecruiting
ĠPolitics
Ġmarching
Ġbothering
Ġdecrease
essels
Ġsomeday
ĠSummer
Ġgenuinely
ĠHurricane
ĠPLAYER
Ġskeptical
utenant
Ġthoroughly
ĠBuffalo
Ġcensorship
Ġseizure
Ġmommies
ĠGoddess
Ġleggings
''
/.
FO
List
Te
UL
bag
dling
iah
iator
lit
length
rm
ÃĹ
Ġtinker
Ġapt
Ġcure
Ġmakers
Ġthigh
inging
Ġfoster
Ġhated
Ġhilar
Ġinclusion
acer
Ġbearing
Ġration
Ġrash
ldow
Ġwhats
amo
Ġjesus
ĠAqu
storm
orer
ĠMaur
Ġplural
ĠBurt
ĠBuc
unted
Ġabused
Ġabusive
idel
ĠPant
ĠWals
Ġdidldow
istance
Ġmayonna
ĠNik
Ġbozo
bek
Ġoverturn
ĠEmb
Ġspine
izoph
Ġflames
ictional
ousing
Ġhandy
ĠKind
Ġcontam
Ġitsy
Ġlotta
Ġbetray
Ġreson
team
Ġheadset
Ġslug
Ġelep
Ġappealing
Ġindef
neys
Ġunderpants
hmall
attering
Ġsnuggle
Ġhatred
Ġcommands
Ġende
Ġthingy
Ġincumb
Ġreloc
Ġ83
inster
Ġsynd
Ġcurls
Ġmarine
ussia
boards
Ġsystematic
Ġ128
Ġplanets
Ġcorrection
Ġlinear
ĠAdvert
2011
ãģĵ
Ġeconomies
Ġparach
ĠConcept
ONE
Ġbatman
backed
zech
Ġstatues
agonal
Ġsexually
ĠXL
Ġvictories
ĠDragon
Ġselfie
flower
Ġ1981
Ġ1985
dded
ynch
Ġ1966
Ġtexture
ĠQuant
Ġmillisandy
2009
Ġmacro
ÐµÐ½
Ġrebel
Ġhunger
Ġmentions
Ġpurchasing
Ġvillages
ĠBrowns
Ġgradually
Ġribbons
ĠArena
Ġê±
Ġsmoothie
Ġwrapper
ĠStudios
ĠSolid
Ġtackles
Ġnovels
Ġdominance
Ġtactical
abetes
Ġrenewed
Ġviral
Ġconvincing
VERT
Ġtouchdowns
ĠExample
ĠGROSS
Ġsubscribing
ĠTribune
Ġtheoretical
1305
ĠManafort
Ġkaboom
ĠCarnival
ĠMargaret
Ġantenna
Ġmayonnaise
izophren
FW
NS
Page
cuff
dar
fil
len
mitter
sur
wind
Â°
Ð»
âĦ¢
Ġwished
Ġott
erals
Ġmate
icer
alds
Ġreplay
Ġweaker
Ġstark
Ġstamps
Ġ1000
elli
Ġjeez
Ġkits
ĠSave
ĠSaints
ĠAJ
ĠAV
Ġathe
ĠCT
Ġaster
Ġplun
ĠBUS
ĠBABY
ĠTheatre
Ġvag
ĠâĢĭ
arded
ĠHuff
rium
resh
peare
ĠRasp
asted
ĠFle
ĠFab
ĠFact
ĠFerr
ĠGian
ĠLuke
mented
asso
ĠEV
Ġcobb
Ġ"[
Ġflakes
thodox
ocy
Ġnewest
ogue
Ġskates
Ġmidst
Ġattributes
cycl
Ġregards
Ġ77
Ġyoungest
proof
Ġ96
Ġ98
Ġsteamed
Ġfilth
Ġboarding
Ġhitch
Ġfishy
ĠProbably
ocracy
Ġexcitement
ĠPhantom
Ġreceipt
Ġmarketplace
Ġoperated
Ġcondiments
Ġprivat
Ġbarefoot
Ġethics
Ġfeeder
ophone
IST
Ġruined
adesh
Ġwelcomed
ĠìĦ
Ġsubjected
Ġtighten
Ġ1976
END
iterator
Ġsafari
ĠGetting
ĠCorp
track
Ġmentally
Ġhugs
ĠPhotograph
ĠPrize
ĠMadrid
ĠHalloween
ĠBerkeley
Ġreferen
ĠSolo
Ġjohnny
respons
ĠCommunist
Ġninety
Ġcockpit
Ġtranslation
Ġstirring
ĠAuthorities
Ġdetected
Ġsharks
Ġrotation
ĠVerizon
ĠRecords
runner
Ġbonds
Ġexploit
ujitsu
ABLE
Ġmartin
ĠChairman
Ġmarshmall
Ġstrictly
aternal
Ġavoided
oustache
Ġtelescope
ocumented
Ġjuvenile
oubtedly
Ġvinyl
AFF
FR
gal
have
houses
mare
rat
rament
Ġ^
Ġ).
Ġtones
hey
ref
Ġloses
Ġlaser
Ġml
Ġthunder
Ġhem
Ġrall
Ġweathered
ĠTant
ĠTory
Ġnotorious
Ġjoking
abl
orean
Ġaspir
ĠMA
Ġplaus
ĠBY
Ġallerg
Ġabc
ahan
Ġbackward
Ġcombo
Ġprox
ĠRaw
ĠDat
ĠDoc
ĠNar
ĠGO
Ġusa
arkar
ĠEight
ĠOwn
Ġcoherence
ĠJake
Ġadorable
Ġflowing
plug
ĠThailand
Ġcrap
ocity
ĠKam
ĠStars
Ġskilled
Ġhelper
ĠHend
Ġdescend
Ġundermine
Ġopener
Ġattire
Ġbitsy
Ġtrainer
Ġprescription
Ġkidna
Ġache
insula
Ġstrips
shaped
Ġsnowfl
Ġcares
Ġunto
coal
ĠZub
ĠZwill
Ġeconomist
Ġparagraph
ĠMann
Ġorganizing
ĠConway
ĠTwilight
Ġeventual
Ġmusician
ĠDemocracy
Ġcellphone
oopers
Ġaccounting
ĠSomeone
Ġdamaging
Ġexpressions
Ġbumpy
Ġdoubts
ICH
Ġsneeze
ĠRegional
Ġlocker
Ġforests
Ġpurchases
Ġpreventing
Ġassumptions
Ġtimer
Ġalbums
ĠDawn
Ġarrows
Ġachievements
Ġunpredict
Ġtransformation
Ġconsequence
writing
ĠCardinals
Ġdragged
Ġdisappointing
Ġadapted
Islam
Ġsupreme
Ġelementary
ĠCDC
News
Ġtaxpayer
ĠFilm
Ġcarnival
Ġvendor
funded
ĠCasey
ĠConnecticut
Ġautonomous
ĠLaden
Ġmexican
Ġnappie
Ġsplinter
Ġunnecessary
ĠBrennan
Ġtriggered
Ġdialect
Ġostrich
Ġtoddy
CAR
NE
Pal
aired
best
bank
fu
hat
jou
mines
uv
uer
Ä«
Ðº
ĠðŁ
Ġts
Ġaest
anor
Ġdutch
Ġpuffy
Ġlord
Ġmul
itbart
Ġng
orph
Ġwhipped
Ġhears
Ġhealing
alph
Ġerect
âĢ³
Ġcancel
Ġdose
ĠTD
ĠTell
Ġshag
ĠSac
ĠSex
ĠSumm
Ġfrt
ĠCass
ĠCrew
andem
ĠBent
ĠBour
unal
unct
Ġabrupt
ĠPack
ĠPINK
ĠWrest
Ġgrouch
Ġgrumpy
ĠHop
rior
Ġgren
ĠFT
ĠName
ĠNine
ĠNHS
Ġcob
Ġspicy
Ġflatt
Ġflipped
ingsb
Ġunbeliev
Ġcola
Ġcrushed
angered
ĠKle
Ġlotion
pert
ensing
Ġglac
ĠHeavy
Ġsecular
Ġfinancing
Ġcentered
Ġ79
Ġrunny
Ġrelatives
ashi
Ġdefines
Ġentity
Ġentries
ĠBrady
ĠAlger
Ġartif
Ġpenn
Ġjuly
Ġstealing
ĠUSB
ĠIndigenous
2014
Ġvaries
Ġvaried
Ġwording
Ġdealers
loads
Ġburgl
Ġruler
Ġpacking
ĠSenior
Ġpublishers
Ġdeclining
Ġagreements
Ġdamages
frame
Ġvegetation
Ġhosting
Ġcivilization
Ġintroducing
ĠResult
guy
Ġreflections
Ġcelebrity
ĠUpon
Ġspirits
Ġextends
ĠCambridge
Ġhooks
Ġaiming
Ġapology
Ġmobil
ĠTyler
Ġcitizenship
Ġreduces
ĠMilan
Ġschizophren
Ġê²
Ġsprinkle
Ġreferee
Ġwhiskers
Ġadjusted
Ġsubscription
Ġtraditionally
Ġsatisfy
Ġtournaments
Ġcousins
Ġexhibition
EMENT
ĠUkrain
Ġgamers
ussein
Ġsippy
ĠTelegraph
Ġtheatre
Ġjanet
Ġagriculture
Ġaccommodate
http
Ġparsley
Ġpointy
Ġadjacent
ĠCommerce
ĠSakurai
ĠShakespeare
IO
Sim
ZZA
cot
gments
kar
lift
oes
rab
science
when
Ġíķĺ
Ńãĥ
Ġtier
Ġsacks
Ġome
Ġbind
Ġborr
atable
Ġcoug
Ġdys
Ġpistol
Ġmoustache
Ġfus
Ġfoli
enas
Ġnodded
icating
alach
usters
Ġseam
otion
verted
Ġhazard
ĠIl
ĠSA
ĠAuburn
ĠCad
ĠCher
ĠMes
unci
unzel
ĠPew
ĠPorter
Ġclam
ĠHi
ĠHalf
ĠHussein
ĠRy
ĠDakota
ĠFalk
ela
ĠNaz
ĠNPR
Ġbock
Ġbobb
ĠGB
ĠGPU
Ġtearing
Ġflows
Ġcarl
Ġcarriers
Ġprelim
ivy
Ġunacceptable
thirds
ĠStatus
Ġperce
Ġdisruption
Ġslam
Ġappeals
Ġdesired
Ġempower
Ġwooded
ushi
forest
Ġpresidents
Ġmedal
erto
Ġnightstand
Ġrelating
Ġdrizz
Ġmarking
Ġcapris
.....
Ġpotter
prot
Ġgovernance
ĠAlb
ĠSoccer
Ġhotels
Ġmarriages
ussian
Ġfriendship
Ġpopul
Ġdrawings
Ġsummon
Ġexcav
ANGE
Ġprocessor
Ġmiriam
ĠEuro
Ġtickles
Ġspecialist
annah
Ġlimiting
Ġ140
Ġskiier
Ġjudo
ĠìĤ¬
Ġfreshman
Ġarrives
Ġresponds
Ġfunctioning
Ġ1971
Ġcredited
Ġfreshly
Ġfinancially
Ġqueens
Ġrevised
Ġcasualties
Ġdivisions
forcement
Ġunsuccess
holder
Ġdingy
ammad
space
ĠLetter
USA
Ġdefendants
Ġdemonstrates
Ġpunished
Ġimplies
Ġlaunches
ĠDefence
Ġlabeled
Ġsnowboarding
ĠWorks
ĠREUTERS
Ġtranslated
Ġinteractive
Ġphotography
Ġcolumns
onymous
Ġstretching
Ġdisappointment
Ġflooded
Ġcharts
Ġcubes
Ġhalves
Ġdisclose
Ġmandatory
Ġaveraging
âĸĪâĸĪâĸĪ
Ġcosm
Ġwithdrawal
Ġrevenge
midt
Ġpodcast
Ġflavors
ĠSusan
Ġentrepreneur
Ġobligations
ĠÅļ
Ġpermits
Ġoversight
ĠToyota
ĠAzerbaijan
Ġglobally
Ġcamouflage
ĠBambi
ĠWalsh
VERTIS
ĠZwillingsb
900
AE
Even
GR
coll
dor
full
gov
hurt
hai
packs
ril
rings
Ġaide
Ġsatur
Ġbinary
Ġcared
Ġloops
Ġmuah
itan
itamin
Ġnanny
orum
utic
Ġrails
Ġcance
Ġcanopy
irable
Ġweed
Ġstatic
osures
ĠTap
Ġforming
Ġjerry
ĠSS
ĠSales
semble
Ġlever
anth
abul
ĠCape
ĠCertain
ĠMD
ĠMom
ĠMans
ĠMew
ĠMason
ĠMorning
ĠBart
ĠBoko
oodoo
ĠHug
rik
Ġbacklash
ĠRio
ĠRules
ĠDOS
ĠFDA
Ġuseless
âĢĿâĢĶ
Ġguided
inez
ĠJen
Ġaggreg
Ġschem
think
ĠInit
iao
Ġpert
Ġ528
ullah
Ġtablets
ĠYang
neapolis
Ġdrilling
Ġlasted
Ġsurre
Ġ78
Ġdecides
Ġmeteor
Ġcurves
Ġretro
lington
Ġmonetary
Ġfireworks
Ġfiretruck
Ġbadji
Ġgenerating
Ġmouths
Ġduckies
ending
Ġtomb
Ġpatrol
ĠBlues
Ġpiggies
Ġexamining
Ġidk
Ġorganisms
Ġnonprofit
oshi
ieties
ATION
Ġstraighten
ienna
Ġobjectives
Ġ].
Ġphysic
ĠMyth
ĠBarron
Ġtightly
Ġprediction
blog
Ġ1973
Ġcredibility
ĠCongressional
Ġbiom
Ġtourism
Ġunfold
irlines
Ġnoticeable
Ġuncons
Ġcontributing
Ġproposition
ĠScientists
Ġshifted
Ġambassador
Ġhippos
Ġsurfboards
Ġestablishing
Ġoddly
Ġsqueaky
Ġseventy
Ġbreeding
Ġdiamonds
Israel
Ġsuprem
Ġinterpreted
Ġscholar
Ġtouches
Ġbarking
ĠMembers
Ġconfrontation
Ġelevated
Ġclarity
Ġrhyme
ĠADVERTIS
ĠLoading
Ġanticipated
Ġfulfill
Object
Ġcyclists
ĠSemin
Ġincentive
ĠPIZZA
Ġutterly
Ġendorsed
ĠLebanon
original
Ġelaborate
ĠFantasy
Ġraggedy
Europe
Ġsepia
?'
Book
GP
Id
Live
bro
bars
crow
gos
gue
hair
kay
pard
wick
yellow
íĺ
hene
Ġaids
Ġwounds
Ġbart
Ġcuck
Ġdread
Ġlounge
Ġmerc
Ġfame
Ġgau
also
Ġri
Ġrang
Ġratt
Ġrained
Ġsegregation
ĠTaking
ĠTampa
Ġ130
Ġsham
ĠAirlines
ilib
ĠCOM
Ġsued
opular
ĠMission
Ġplaintiff
ften
ĠBow
Ġvessels
ĠPret
ĠPract
ĠParth
Ġclaws
ĠWE
ĠWine
Ġknob
ĠHoman
ĠHonda
ĠREL
ĠDiam
ĠFortunately
Ġbok
Ġbobo
ĠGive
Ġguac
Ġ350
Ġ360
Ġheritage
Ġoffset
Ġoffshore
Ġspawn
Ġfeared
berger
pted
actic
Ġcracks
Ġquotes
Ġhanding
Ġreadily
ugar
Ġcathy
Ġlaure
Ġheadache
Ġoposs
ĠViol
fend
Ġundergo
Ġcommuter
Ġfines
Ġhaircut
Ġinterfe
Ġbirdies
rawer
ĠTricia
ĠReyn
Ġsandra
Ġsimulation
Ġinstructor
Ġtying
ĠIsmail
Ġmilkshake
Ġcontinually
Ġducky
Ġcreamy
Ġinsists
ĠZion
Ġapprove
Ġpresenting
Ġpromin
Ġpropri
Ġtoilets
Ġtrauma
Ġperformers
annie
Ġfreak
ĠMcN
Ġhorsies
ĠGuinea
ĠSyn
Ġtarp
Ġexceptional
Ġmatched
agonist
ĠCalif
Ġaudiences
Ġpetals
Ġreligions
flowers
ĠAppalach
ĠColomb
Ġresponsibilities
Ġlawsuits
ĠIslamist
Ġmelting
Ġimagined
Ġmaintains
2007
Ġlacking
ĠSimilar
Ġfrequencies
Ġcropped
Ġignoring
Ġmerit
Ġlicensed
Ġrusted
Ġtoothbrushes
ĠBenjamin
ĠLaroche
OLD
ĠBobby
Ġnegotiate
Ġkhakis
rador
ĠBeta
ĠOutside
ĠGIRAFF
ĠSingh
Ġwritings
Ġcolleague
ĠJoined
ĠYears
Ġangels
Ġdisclosure
Ġgoog
Ġconvenience
--------------------------------
ĠJacob
Ġdistingu
Ġembarrassing
Ġveto
Ġrevelations
effective
itzerland
Ġfacilitate
ĠInterestingly
Ġcompatible
Ġmisconduct
ĠBatman
Ġritual
ĠNigeria
Ġordinance
relevant
Ġcottage
Ġinappropriate
Ab
Em
PG
Ty
building
cell
mir
rap
sung
Ø§
Ġ000
Ġtah
reason
atches
Ġpug
Ġlace
itability
Ġtore
arming
Ġitchy
edi
edo
omat
ayer
acter
vell
Ġron
Ġracks
ĠeSports
Ġseating
âĢ¢
Ġlied
ĠAbs
ĠAstr
ilia
ppel
Ġdonate
ĠMold
ĠBAN
unting
ĠPend
Ġcler
Ġmango
ĠDaw
Ġexagger
ĠNarendra
ĠGate
ĠGPS
Ġoverlook
ĠEcu
ibbean
ĠJoh
Ġbuggy
Ġsmoked
ĠKik
ĠKaren
ĠStop
perform
Ġneedles
ĠChap
Ġspear
Ġspeeches
Ġcheesy
Ġzoe
neck
Ġstranger
ounts
psi
Ġnamely
ufficient
aneous
Ġrelish
ĠReading
Ġtanned
aware
ĠAlph
comb
ainted
atories
Ġbaggage
Ġinfamous
although
Ġexploded
Ġpriests
Ġlocally
Ġinspection
Ġpiglets
101
Ġreceivers
Item
Ġlowly
ĠMarx
Ġspecialized
Ġpracticed
Ġmindset
ĠImagine
Ġcombing
Ġcooling
Ġdomains
Ġscrap
Ġrisen
Ġuranium
Ġtanker
Ġcharacterized
Ġlegalization
ettes
Ġrugs
Ġmisunderst
Ġranch
remlin
ĠMartinez
Ġhistorian
ĠAnti
ĠMichelle
Ġattraction
Ġpromotional
Ġwillingness
ĠRoch
ĠAirport
Ġdetermination
Ġcomparisons
.âĢĻâĢĿ
ughright
ĠWorking
ĠCreative
Ġinstallation
ĠBooks
ĠWheaton
Ġskeleton
Ġchefs
ĠBasically
lawful
ĠPakistani
ĠPete
ĠMormons
Ġsacred
ĠPlanet
Ġreinfor
Leaks
Ġmemorial
Ġembraced
ĠNaughright
Ġmosqu
Ġrifles
ĠMedicaid
Ġaccompany
ĠCuomo
Ġunderside
Ġmathematics
Ġsovereign
ĠWelcome
Ġemotionally
ĠPirate
Ġinterrogation
ĠHopefully
Ġbeetle
Ġfingernails
Ġdandelion
Ġspectacular
Ġtortoise
Ġcongrat
ĠThousands
ĠRaspberry
ĠReynolds
Are
IVE
Sp
Sem
file
fox
his
hran
lies
lied
sl
sis
viol
wuh
Â»
Ê»
health
inates
Ġdal
Ġpuck
Ġpiles
Ġly
especially
ndon
Ġfist
itis
Ġhobby
Ġnaming
Ġgag
owell
iguous
irmed
Ġstu
Ġstun
ĠTucker
Ġliability
Ġford
imo
ellar
Ġjamm
Ġjumper
Ġshipped
ĠAgre
antha
ĠCzech
ĠMaz
ĠMobile
Ġpluto
Ġchased
Ġuphold
Ġoutbreak
ĠPere
ĠWang
ĠRing
ĠRout
asting
akh
Ġsau
ĠNin
ĠNort
ĠGT
Ġarche
Ġguilt
Ġherbs
Ġcod
Ġflown
Ġcolours
Ġworkout
Ġundoubtedly
Ġglow
ĠHeat
Ġindie
Ġindigenous
Ġbreeds
oding
Ġ87
Ġrestored
ologna
Ġstriker
Ġsubmar
prises
ĠBros
ĠAltern
ĠAlban
Ġjealous
ĠSharks
ĠClin
ĠAnimal
Ġcompletion
Ġpastries
Ġpostp
ĠAdvent
ĠAdvis
Ġadvancing
ĠProper
ĠBeat
Ġorganize
ĠSpot
Ġsurfers
ĠTehran
Ġnorms
ĠGreater
ĠExcept
Ġstarters
ĠPolish
ugging
1918
Ġstraightforward
uctions
ĠEdmond
Ġoptional
Ġcasino
ãĥ«
ĠApparently
ĠDeputy
Ġturb
ĠWarriors
Ġthreatens
Ġbroadc
Ġ1977
ĠMusk
Ġobsessed
Ġsplashing
olutely
Ġgeek
ĠPerl
ĠCountry
ĠPosted
Ġrebuild
Ġcontributor
Ġsurviving
APT
Ġlicenses
ĠPriesthood
Ġhurricane
Ġirrit
ĠMonitor
Ġnicer
driving
Ġfaithful
Ġhawai
Ġdocked
Ġinstructed
Ġhacked
Ġterritories
Ġminiature
Ġconsultant
Ġmasks
Ġlouder
keeping
Ġchatty
ĠContinued
Ġpirates
Ġutilized
Ġtexting
Ġwidth
Ġbundled
ĠOliver
ĠSavarkar
presso
Ġrecreational
Ġantibodies
Ġfirefighter
Ġvaivy
Ġassembled
Ġbridges
ĠFriends
ĠKermit
ĠVenezuela
Ġcryptocurrency
Ġsteadily
Ġdorothy
Ġempirical
ë¥¼
Ġfoliage
ĠZwillingsbiber
.âĢľ
Bar
LO
LY
Look
Mus
OK
UM
bottom
gow
grav
selling
Ã§
Äĥ
Äĩ
ëŀ
Ġwives
Ġbing
Ġberry
Ġcum
Ġcudd
Ġcubs
Ġpp
Ġmaid
Ġfont
Ġnoun
Ġandroid
isi
ayed
ighing
Ġrender
ioned
Ġstaged
amole
ĠTol
seen
ĠAw
ĠAy
ĠCro
ĠCult
ĠCurry
ĠCox
Ġwasted
Ġplag
ĠBio
ĠBeryl
Ġbrushed
Ġtrot
Ġtrio
ĠPV
ĠPey
Ġclapping
Ġconcess
essa
ĠHAND
resa
ĠRange
Ġpeg
Ġpepsi
Ġsaves
Ġsails
ĠNRA
ĠGaw
ĠLiter
ĠEP
ĠOm
ĠOri
Ġcoca
izers
Ġdiabetes
cials
ĠUz
Ġcomeback
Ġunle
Ġunlimited
than
Ġcrashes
issan
Ġcompan
Ġpoking
Ġhappier
ĠChip
Ġchees
ĠVa
ĠVic
ĠVac
Ġindict
Ġ1940
Ġsuppress
Ġcreativity
manuel
ggle
Ġeyed
ĠFrances
ricia
Ġviewer
Ġuntie
Ġbadge
Ġfixes
Ġdemographic
Ġpatting
Ġarmad
Ġcostly
ĠShell
Ġespresso
Ġquestionna
Ġchooses
Ġdelivers
itching
Ġportal
Ġidentification
Ġpaneling
Ġbeautifully
Ġharmon
Ġpackaging
Ġtarmac
Ġfathers
ĠCalgary
Ġspecified
Ġaccounted
Ġhonored
Ġsecretly
Ġexpressing
Ġbumps
uka
Ġdreaming
Ġpaths
Ġnarr
Ġsneak
color
Ġpositively
Ġmacbook
While
REE
ECT
ylan
Ġtimeline
Ġnutrition
ĠMoro
ìĿĺ
Ġworrying
Ġrandomly
Ġpremier
Ġpuddy
Ġprecision
controlled
Ġscratching
ĠFinland
ĠIslands
Ġmalware
ĠMetall
Ġsocio
Ġcommissioner
rigley
Ġhamburgers
Ġcorresponding
ĠBEH
Ġprohibited
Ġswallowed
Ġproteins
ĠDOG
ĠLowen
generation
Ġbolts
Ġrevelation
Ġentrepreneurs
ĠPrivacy
Ġtamar
ĠCitiz
Ġtilted
Ġstimulus
Ġdolphin
PHANT
stanbul
Ġtougher
ãģ£ãģŁ
Ġbipart
Ġtrafficking
Ġdeleted
Linux
Ġdwarf
Ġpreliminary
ĠADVERTISEMENT
Ġguacamole
ĠAppalachian
Big
Ms
Mod
OA
bud
cano
iating
oi
tit
tier
vro
would
your
Ã¹
ĠÃ©
Ġtony
Ġauster
Ġiced
Ġbinding
infl
Ġcemetery
Ġyacht
Ġdella
Ġpul
Ġlenses
isman
aydah
ici
igel
Ġropes
ampton
Ġblink
Ġjesse
ĠSent
ĠSie
robe
seat
semin
ĠAIR
Ġleverage
Ġfrance
abling
ĠCort
Ġdonor
ĠMB
Ġbrack
Ġtramp
Ġsomeplace
ulatory
ĠPas
Ġclause
Ġalbeit
ĠWur
ĠWire
ĠWrigley
Ġmanages
Ġproving
ĠDust
empl
ĠFitz
ĠFalls
quote
ĠNu
ĠNag
Ġputt
ĠGing
ĠGas
Ġusher
ickets
Ġplayback
ĠOT
ĠOudin
Ġteasp
arella
ĠJACK
Ġbuys
Ġcaring
third
Ġfarms
soever
Ġnewborn
ĠKR
ĠKath
ĠStra
wealth
ugal
Ġkindergarten
Ġresid
Ġclearing
teenth
Ġvisibly
Ġslap
Ġ1944
Ġcommitting
Ġfinals
Ġrealm
opez
Ġmetro
apeutic
Ġrefuses
sharing
Ġcharcoal
Ġ91
Ġ92
Ġ93
Ġ97
aju
Ġbreakthrough
ĠForbes
Ġhumming
Ġmonop
Ġeasiest
Ġprizes
headed
Ġpatience
ovation
Ġ115
Ġraid
Ġeconomists
Ġmodify
Ġmodifications
ĠBea
ĠCanon
ĠTea
Ġauthoritarian
entials
cifically
Ġmoderately
Ġidentities
ARY
Ġcompetitor
haired
ĠMinor
ĠMinneapolis
untu
auer
Ġhonour
Ġauditor
Ġcracking
ĠSuite
frost
Ġutilities
Ġtemple
Ġgoalkeeper
prov
Ġdepri
Ġobservers
Ġscoreboard
Ġessence
2006
2008
Ð¾ÑĢ
Ġverbal
Ġsensors
ĠPersonal
ĠHeritage
Ġdimin
Ġdelicate
ĠBreitbart
Ġë§
ĠMilitary
Ġsouthwest
ĠAttack
Ġsailboats
Ġdotted
Ġniche
ĠQueens
Ġcooperative
Ġsatisfaction
ĠUpdated
Ġtribes
Ġholidays
Ġgangs
Ġupgrades
Ġexplosive
Ġconfronted
Ġoverwhelmed
Ġwiggles
Ġbehaviors
Ġexhausted
ĠFalcons
ĠUltimately
Ġborrowed
Ġlegendary
ĠLtd
Ġfootprints
Ġhierarch
ĠVillage
Ġinhabit
ĠMovie
ĠELEPHANT
ĠPiggy
Ġcuckoo
ĠParthas
ĠGIRAFFE
ĠRochdale
ĠGawker
vrolet
America
Bre
NAS
['
[/
cost
mith
non
pos
pod
service
zai
Ã¸
Ġtrophy
Ġwiping
inomial
athetic
Ġfills
Ġnerve
Ġtoby
educ
Ġwhining
ido
Ġrud
Ġseaf
Ġweighed
Ġstan
uru
ĠTogether
Ġanarch
Ġjog
ĠIstanbul
ĠSax
ĠSana
ĠAch
ilant
olar
olutions
ĠCC
ĠMaj
ĠMend
ĠMoses
ĠBun
ĠBright
ĠBilly
Ġbrow
umen
ulin
ulum
Ġvic
apa
Ġclo
Ġclashes
ĠWR
ĠHorn
ĠHTC
resident
ĠDame
ĠDale
ĠDix
ĠFa
ĠFo
ĠFIR
ĠNeb
ĠGross
ĠGlo
ĠLane
ĠJor
Ġintensity
Ġflorida
group
isha
Ġenhanced
three
Ġfarming
001
ocaly
Ġcontempt
phan
ĠChamp
Ġslave
ĠWhats
Ġmedieval
Ġsurpass
ĠUnreal
Ġswir
Ġmeta
Ġconsume
Ġcowboys
Ġcollared
Ġsincere
Ġfamously
Ġpassword
iked
Ġfactories
ificant
ĠAnalysis
Ġdirectory
Ġdesigning
brew
Ġcheesecake
Ġhearings
ernel
mafrost
covery
Ġbarbec
ctoral
Ġblondish
Ġprofitable
Ġcertainty
Ġprocessed
Ġnonetheless
Ġpropose
Ġmounting
Ġeighty
Ġtraits
ĠImport
Ġactivated
Ġattacker
Ġburp
Ġsoftly
Ġharbor
Ġanswering
ĠBarbara
ĠìĹ
Ġtighter
Ġturkeys
Ġhandlebars
Ġbroadband
process
Ġimpacted
Ġbelonged
ĠActiv
Ð°ÑĤ
Ġsurroundings
Ġregulate
Ġmechanic
ipple
ĠMorrison
Ġporcup
Ġfirmly
Ġgentleman
Ġcommitments
ĠTODAY
Ġrescued
Ġsnowboarder
ĠCreate
........
Ġtactic
ĠRogers
Ġcoordinate
Ġtribute
Ġpermanently
Ġrhino
Ġobstacle
Ġobstacles
Ġprompting
ĠTitan
Ġcorrespondent
ĠRodrig
Ġmemorable
Ġrhymes
ĠSonic
Ġmosque
ĠBROWN
Ġroutinely
Ġelliot
ĠBernard
ĠRhode
ĠUrban
ĠThroughout
steps
aternity
================
Ġculmin
ĠDouglas
Ġtippy
ĠBudget
Ġavoiding
ĠExperts
ĠProduction
Ġvaguely
Ġexcluded
ĠHEAD
ĠMalaysia
Ġacquisition
Ġdisproportion
official
ĠZubaydah
ĠMewes
ĠGingrich
Int
RY
bone
cill
dict
hop
hum
hoe
occup
sky
take
table
yum
zee
¹Ģ
ëĿ
ìł
Ġtro
Ġaustral
information
aty
Ġdarth
Ġdye
Ġpiv
Ġmaj
Ġgarn
Ġgays
arak
Ġinmates
isure
asures
owitz
iciary
Ġreactor
Ġrelying
Ġcanadian
verning
Ġstale
Ġstalls
oscope
Ġbloc
ĠTask
ĠTalent
ĠSold
ĠSear
ĠAth
antis
ersen
gey
ĠCut
ĠChen
ĠCelt
starter
Ġoral
ĠMob
Ġblackish
ĠBP
ĠBie
Ġchubby
ĠTheory
Ġvowed
Ġupr
Ġabortions
ittees
ĠHigher
ripp
Ġbackpacks
reshold
ĠRi
ĠRus
ĠRush
ĠFarm
ĠNathan
ĠLopez
asser
Ġcodes
Ġrover
ĠJessica
cium
Ġflesh
Ġscal
Ġunch
ipers
ullivan
Ġhelen
ĠYale
Ġamber
ĠVim
ĠVirt
Ġindians
Ġstrangers
Ġserum
Ġintercept
atherine
Ġrealise
Ġrealised
ĠTraining
Ġeddie
Ġteammate
ĠReally
ĠReform
Ġterrain
Ġscreamed
Ġthoughtful
Ġcauc
Ġpenis
Ġrepublic
Ġpostseason
tenham
lett
ĠZimmer
Ġbusinessman
Ġ180
Ġclassical
working
ĠQaeda
Ġidiot
Ġbenchmark
Ġlitigation
Ġformerly
Ġlimb
reli
Ġteaches
lining
Ġoptimal
Ġdeterior
Ġdeclaring
ISA
Ġcompliance
ĠApplic
Ġcharacteristic
Ġseparation
Ġrecognised
Ġdigest
Ġvegetarian
Ġyoghurt
Ġindicators
Ġlifts
culus
Ġbiker
Ġleaned
Ġpriorit
Ġdumping
Ġrebounds
ĠMcCarthy
Ġsharply
Ġarchive
Ġcrore
Ġnursies
Ġbriefing
Ġmobility
Ġshrub
Ġambition
Ġdetermining
ĠAngela
Ġpremise
Ġpremiere
ĠMadonna
ĠClearly
ĠStudents
Ġfrankly
ĠRemoved
ĠSilicon
Ġnegotiating
Ã¡n
ĠMetal
Ġcooperate
Ġdusty
Ġsponsorship
Ġutensil
Ġevaluated
ĠProtest
Ġexploited
Ġshouting
Ġfoolish
ĠReports
Ġsimplicity
Ġfrederick
Ð¸Ð¼
Ġcontempl
Ġchopsticks
daho
Ġfragile
ĠMatthews
Ġbambi
aggering
ĠShortly
Ġelectorate
ĠMcDonald
Ġprecedent
Ġvoluntarily
Ġprovincial
ĠBaseball
ĠPatriots
Ġdeedee
ĠRavens
Works
ĠWikiLeaks
Ġchromos
Ġfortunate
Ġrebellion
Ġopossum
ĠAgreement
ĠMetallica
Ġausterity
Any
ML
Pac
TF
bach
hik
ieth
iology
ois
pict
spr
tf
Ð¼
Ġawn
rea
Ġbury
atche
Ġcivic
outer
erting
Ġyoy
Ġdensity
Ġdairy
Ġparl
Ġmuzz
Ġfoul
Ġtokens
Ġgates
Ġgases
Ġgigg
orange
orrent
Ġrye
Ġcanon
Ġwhatsoever
Ġstubb
urring
ĠTM
ĠTs
Ġshoots
ĠSR
ĠSalt
ols
Ġbutcher
ĠCraw
ĠCabin
ieu
Ġsulf
Ġdonated
Ġsocially
Ġchir
Ġchilling
ulates
Ġuphill
ĠWinn
ĠWonder
ĠRandy
ĠDylan
ĠFast
ĠFem
ĠFlight
ĠLen
ĠLanguage
ĠLuther
Ġoffence
Ġspice
Ġdire
ĠJar
ĠJoin
ĠJobs
ciously
Ġflashing
ondo
Ġpreferences
Ġprejud
Ġprisons
ifi
ĠThor
Ġcrumb
Ġquo
Ġhandcuff
ĠKoh
ĠStories
ĠStanding
perial
Ġsmallish
Ġcompiler
Ġrecalls
ĠChall
ĠChron
Ġshortage
anka
Ġmines
Ġminim
Ġmineral
Ġwinding
Ġ101
Ġswan
Ġediting
Ġcarey
ĠRelease
eneration
Ġsubmission
Ġcuriosity
Ġ94
Ġcaut
Ġtranscript
Ġ125
Ġinfilt
Ġpasture
Ġchicka
Ġcommunist
letter
Ġbarbed
Ġinsurg
Ġmessing
ovich
lsen
Ġraids
Ġconstitute
Ġconstructor
ĠBeast
ANA
ĠConsole
ĠEdith
Ġstatute
Ġspecify
Ġaccountable
liner
ĠHispanic
Ġopted
Ġselfish
ĠAppend
Ġseparating
Ġsammy
Ġtribe
Ġrecognise
Ġprints
Ġtubes
Ġadmitting
Ġdepos
Ġnationally
ĠSwitzerland
Ġbuckets
Ġliberties
Ġbounces
Ġspectator
Ġdisputed
ĠGlenn
Ġcriticised
Ġassisted
Ġencourages
Ġdemonstrators
ĠInterior
Ġshifting
Ġcategor
Ġmulticolor
Ġrooft
ĠCarlton
Ġteachings
Ġduo
Ġdupl
Ġappreciated
ĠRubio
ĠJackie
ĠTravel
ĠSalman
Ġemphasized
Ġproceeding
Ġtribal
Ġchampionships
Ġcrabs
ĠTitans
ĠVisit
Ġroasted
ĠRosechu
ĠORANGE
ĠTemple
Ġreversed
Ġfelony
ĠIndustry
Ġstereoty
ĠAhmad
Ġfrightened
Ġorchids
ĠPublished
Ġvoluntary
ĠCuba
ĠRepresentatives
ĠCatalonia
ĠRecently
ĠIshaq
Ġpoetry
ĠSteelers
Ġcancelled
Ġllama
ĠìĦľ
Ġunpredictable
ĠUkrainian
ĠBEHIND
Comp
Line
Mobile
NBC
Over
PLE
apped
bark
bling
hub
local
ogram
sic
vi
ÄĽ
ä½
ìľ
Ġiphone
Ġsci
Ġward
Ġwishing
Ġwizard
Ġoath
Ġbilateral
atisf
Ġmowed
Ġges
Ġitch
Ġthats
igma
Ġbead
Ġrated
Ġstakes
ĠTW
ĠToo
ĠTab
Ġjaw
Ġshaker
ĠSay
ĠSikh
choo
chch
ĠAx
Ġlee
Ġgoverning
abelle
ĠCos
ĠCrystal
illou
Ġaspar
ĠBard
ĠBiko
Ġjustin
Ġjustification
Ġvests
Ġvicious
ĠPel
Ġclaw
Ġleftest
ĠHamm
Ġproves
ĠRound
ĠDim
ĠFS
Ġexterior
irts
ĠNB
ĠNi
ĠNord
becca
ĠLynch
Ġoverview
ichi
Ġspying
Ġdiandra
ĠJS
ĠJuan
Ġcarved
Ġpreseason
pless
angled
Ġmoist
Ġquart
ĠKremlin
oga
Ġglance
Ġthrone
Ġcompounds
Ġamen
Ġdadada
ĠChrome
ĠChamber
Ġwatermark
Ġdoggy
ĠVienna
Ġbelts
nered
Ġstreams
Ġevolve
Ġgrassroots
ĠReich
Ġtyran
Ġbanning
Ġsingles
Ġcollision
ĠSoci
Ġpassport
Ġjeff
Ġcaillou
Ġpublicity
Ġfirearm
Ġcomplement
Ġgenerates
Ġlocals
zzy
Ġeconomically
Ġservant
Ġoutdated
ĠGracie
ĠGrey
ĠYorker
ksw
Ġannounces
Ġharvey
ĠSeven
Ġsusie
glass
ĠAppe
Ġcycling
iji
Ġgenocide
Ġwelcoming
Ġìł
greens
Ġcarton
Ġ1974
Ġdepot
Ġinfluences
ictionary
Ġremotely
Ġseaweed
Ġpersist
Ġpersistent
Ġconceptual
ĠAMD
indsay
Ġmentality
Ġanalyze
ĠChargers
points
ĠHappy
ĠNASCAR
Ġentertaining
Ġpanties
ĠMotors
Ġobstruction
Ġbuffalo
Ġdisclosed
Ġleslie
Ġlesbian
ĠWeekly
ĠBEAR
Ġadvisers
Ġadvisory
Ġsufficiently
ĠWalter
Ġwicked
ĠHinduism
ĠWriting
Ġextremist
Ġpigeon
Ġincomplete
Ġintervene
ĠìŀĪ
ĠTarget
ĠGospel
Ġprosperity
ĠVPN
Ġsiblings
Ġgrasshopper
Ġcompassion
Ġcommodity
ĠDodgers
Ġphotoshopped
normal
Ġgrizzly
undreds
ĠProsecut
oriented
Ġfrancisco
ĠInitiative
Ġschizophrenia
Ġsurrender
Ġstubborn
Ġasparagus
Dr
Donald
NA
Turk
Us
draw
every
hazi
iq
kreli
lasses
nish
pse
pret
sim
Å¾
ä»
heit
Ġauction
Ġom
Ġoof
Ġcope
Ġchester
Ġpiss
Ġfictional
itated
arr
isb
isdom
Ġheap
adad
Ġblob
urate
Ġlia
imated
ĠIdaho
Ġkam
Ġkale
Ġkris
heric
ĠSard
ĠSpect
ĠSLS
ĠSIDE
choice
ĠAms
cending
ustre
ĠCris
owner
Ġsudo
ĠMang
ĠMach
ĠMonth
ĠMAD
ĠBB
ĠBomb
Ġcham
Ġvivid
Ġoutlook
ĠPred
ĠRX
ĠRAM
ĠDub
ĠDuter
ĠFine
irty
ĠNG
ĠNZ
ĠNir
Ġherb
Ġcoff
Ġcarp
Ġunity
achment
Ġhandgun
ometimes
Ġworkshop
adequ
Ġcompartment
ĠHein
Ġpolished
Ġcheet
Ġcheating
ĠVS
ĠVe
develop
Ġdescent
Ġsecurities
Ġserial
atterson
Ġconscience
Ġrestoration
Ġdefenses
azy
Ġpotted
ĠBrun
ampy
ships
Ġcharities
Ġsupportive
ĠComic
ĠComment
Ġcorrelated
Ġinspire
Ġesp
Ġunderstandable
ĠPrison
Ġdetained
Ġmiracle
Ġeraser
ĠSpencer
ĠSche
playing
Ġspotlight
Ġdominate
Ġhugely
Ġillusion
ĠMedium
Ġmasses
ijenoord
Ġearrings
Ġsamsung
olester
Ġpredomin
Ġdigger
Ġcredible
String
Ġ1963
Ġbelonging
Ġburner
doing
Ġcontacts
Ġimplementations
Ġbudgets
ĠMalz
ĠTransit
ĠÃ¢
ĠSchools
ĠAnyway
ĠClean
ĠJeffrey
ĠFeijenoord
lementary
Ġadjusting
ĠWorkers
ÑģÑĤ
Ġrecipes
Ġconcludes
Ġhackers
Ġrumor
Ġbroadcasting
Ġsuperst
Ġobligation
matism
Ġcalculated
Ġclarify
Ġspaceship
Ġremembers
Ġintentionally
Ġinfections
ĠAngular
Ġwilbur
Ġmammoth
Ġdeliberate
Ġincorporate
ĠAbdul
Ġyawning
ĠObserv
omotive
ĠSelf
Ġhorrific
ĠCelebr
ĠStyle
ìŀĲ
Ġhomosexuality
ĠpiÃ¹
Ġcranberry
ĠTibetan
Ġastonishing
Ġbreeze
ĠBurton
ĠPeyton
Ġquestionnaire
Ġbipartisan
ĠParthasarthy
ëĿ¼
ĠDuterte
Cal
Right
SN
Sept
bad
cond
efficient
fin
gant
master
ritional
vine
wire
ÙĦ
Ġtales
heed
rehe
Ġoun
anan
erland
Ġdy
Ġlakes
Ġlacks
Ġmous
Ġmumm
Ġthreshold
Ġnests
Ġnerd
Ġgaps
Ġinadequ
Ġwhilst
lements
aco
Ġrains
Ġdoi
Ġwendy
alle
Ġbloss
ĠTE
ĠTu
ĠTro
ĠTool
Ġlivest
Ġforwards
imeter
role
ĠAh
ĠAgr
ĠAAP
ĠCAT
ĠCulture
ĠMatter
Ġplop
ĠBAT
ĠBishop
Ġtriv
Ġtraces
umed
ĠPorn
orting
ĠWrit
ĠHack
estly
Ġpearl
ĠDolph
ĠFig
Ġsailing
ĠNissan
ĠGP
ĠGot
ĠGates
ĠLG
ĠLink
ĠLives
ĠLamb
ĠERA
Ġspills
Ġfeas
Ġappar
Ġrobb
ĠUC
ĠURI
ĠUCL
Ġsmily
orsche
plash
Ġuncon
Ġunlawful
Ġpermafrost
php
ĠVide
Ġsecuring
Ġdrool
Ġlasting
many
Ġdistribute
Ġfinale
Ġnightmare
mericans
Ġrelies
Ġrelieved
ĠAsk
ĠWere
Ġedited
Ġgrasses
izzard
ĠLearning
brook
Ġtransmitter
ĠShang
ĠClar
ificent
Ġmonarchy
Ġexplored
Ġcorps
Ġcorrid
Ġducklings
Ġbooster
ĠZone
Ġvalued
Ġexcer
ĠBeer
aids
ĠSpurs
ployed
Ġ256
Ġinternally
ĠPresidential
Ġtrades
Ġtraum
ĠScript
ĠMcL
âĢ¦"
Ġ="
Ġ160
Ġplanting
ĠNotre
system
ĠParticip
ORK
Ġdenies
Ġdenying
Ġsubjective
ĠSunderland
Ġrobots
Ġcorrected
Ġbroadly
Ġ1972
Ġnecessity
Ġ1962
Ġlegislators
Ġunfinished
Who
ĠOtherwise
Ġpitched
Ġpredictable
Ġpromotions
Ġimplicit
baugh
Ġtransported
ĠAdded
Ġmugs
Ġbombers
grapher
ĠLouisville
Ġhawks
Ġrumors
Ġchampagne
Ġterrifying
Ġnavigation
Ġrooted
Ġbosses
ĠBrothers
Ġunwilling
Ġprohibition
ĠNEW
Ġtroubled
Ġgrammy
ĠKarim
Ġanxious
Ġwiggily
ogenic
Ġellie
ĠEverton
Ġdistracted
Ġnickname
Ġneighbouring
ĠDEA
Ġbundle
Ġelasticity
cribing
Ġportrayed
Ġcomedian
Ġastronauts
Ġtumor
Ġdiscourse
Ġintends
https
Ġassassination
âĶĢâĶĢâĶĢâĶĢ
Ġabundance
Ġvolatile
ĠDavies
terrorism
Ġadventures
Password
UCK
ĠSoulkey
Ġsurvivors
ĠDONUT
Ġlibertarian
Ġhilarious
Ġparachute
Ġfilthy
ĠRELATED
ĠPendleton
ĠEdmonds
ĠAppendix
kswagen
ĠMalzahn
Car
En
Med
Note
Qaeda
Res
Spe
Source
Test
XX
cop
ciss
citation
disc
far
fam
girl
lene
raged
vil
wald
ÂĿ
Ġavenue
Ġsara
Ġwedge
Ġwolves
Ġost
Ġbour
Ġbows
inis
Ġyolk
Ġdangers
Ġlent
Ġmuf
Ġnn
Ġreiter
Ġbeets
Ġbeagle
Ġeld
