[PAD]
[UNK]
[CLS]
[SEP]
[MASK]
!
"
#
$
%
&
'
(
)
*
+
,
-
.
/
0
1
2
3
4
5
6
7
8
9
:
;
<
=
>
?
@
[
\
]
^
_
`
a
b
c
d
e
f
g
h
i
j
k
l
m
n
o
p
q
r
s
t
u
v
w
x
y
z
{
|
}
~












¡
¢
£
¥
¦
§
©
«
­
®
¯
°
±
²
³
´
µ
¶
·
¸
¹
º
»
¼
½
×
ß
à
á
â
ã
ä
å
æ
ç
è
é
ê
ë
ì
í
î
ï
ð
ñ
ò
ó
ô
õ
ö
÷
ø
ù
ú
û
ü
ý
þ
ā
ă
ć
č
đ
ē
ę
ě
ğ
ī
ı
ł
ō
œ
ř
ś
ş
š
ţ
ū
ů
ž
ɐ
ə
ɛ
ʒ
ʔ
ʻ
ˈ
ː
˜
̇
ά
έ
ή
ί
α
β
γ
δ
ε
η
θ
ι
κ
λ
μ
ν
ξ
ο
π
ρ
ς
σ
τ
υ
φ
χ
ω
ό
ύ
ώ
а
б
в
г
д
е
ж
з
и
й
к
л
м
н
о
п
р
с
т
у
ф
х
ц
ч
ш
щ
ы
ь
э
ю
я
ё
ѕ
і
،
ا
ب
ة
ت
ح
د
ر
ز
س
ش
ط
ظ
ع
ف
ق
ك
ل
م
ن
ه
و
ي
ی
द
य
र
ल
ि
े
्
ก
ข
ง
ด
ท
น
ป
ม
ย
ร
ล
ว
ห
อ
ั
า
ี
ู
เ
ไ
่
้
๋
ა
ი
ḍ
ḷ
ṃ
ṇ
ṛ
ṣ
ṭ
ἀ
ἰ
ὀ
ὐ
ὴ
ῖ
ῶ
​
‎
‐
‑
–
—
―
‘
’
‚
“
”
„
‡
•
․
…
′
″
›
※
⁄
₂
€
™
→
↓
⇓
−
∞
∥
∷
∼
≥
─
┃
█
■
▪
►
▼
◊
★
♦
❤
➜
ⵓ
、
。
々
〈
〉
「
」
『
』
あ
い
う
え
お
か
が
き
く
け
げ
こ
さ
し
じ
す
ず
そ
ぞ
た
だ
ち
っ
つ
て
で
と
ど
な
に
の
は
ば
び
へ
べ
ま
め
も
や
よ
ら
り
る
れ
ろ
わ
を
ん
ァ
ア
ィ
イ
ゥ
ウ
ェ
エ
ォ
オ
カ
キ
ギ
ク
グ
ゲ
コ
ゴ
サ
シ
ジ
ス
ズ
セ
ソ
ゾ
タ
ダ
チ
ッ
ツ
テ
デ
ト
ド
ナ
ニ
ネ
ノ
バ
ヒ
ビ
ピ
フ
ブ
プ
ヘ
ホ
ボ
マ
ミ
ム
メ
モ
ャ
ヤ
ュ
ユ
ョ
ラ
リ
ル
レ
ロ
ワ
ン
ヴ
・
ー
ㅋ
一
上
下
不
中
主
事
亡
京
人
他
以
件
位
低
体
何
作
係
側
傷
先
光
入
全
公
兵
内
出
分
切
初
判
別
前
力
助
動
北
原
可
同
名
向
告
命
員
問
営
因
在
地
域
報
場
外
多
夜
大
失
始
姿
子
存
学
定
実
家
容
密
察
審
対
射
小
局
履
山
峠
崩
州
工
常
年
度
式
引
当
彼
征
後
性
想
意
態
所
折
持
捜
探
接
撃
放
数
文
料
斜
新
方
日
明
時
書
最
月
有
服
木
本
東
査
森
検
極
機
次
死
残
気
渓
温
点
無
然
版
物
牲
特
状
現
球
理
生
画
症
発
登
的
目
直
県
真
着
研
示
社
科
究
立
筆
級
索
終
結
続
線
編
置
考
者
能
脱
自
至
色
落
著
行
衣
裂
要
見
解
言
記
設
証
語
説
調
謎
識
谷
象
負
財
資
起
足
跡
軍
近
述
送
通
連
道
遠
遭
遺
部
都
量
長
開
間
関
隊
集
離
難
雪
面
靴
頭
風
験
骨
高
가
각
간
갔
같
개
거
건
걸
검
겁
것
게
겠
겨
견
결
경
계
고
공
과
관
광
구
국
권
그
극
글
금
기
긴
김
까
께
끝
나
난
날
남
났
내
냐
너
년
노
놓
누
눈
뉴
느
는
늘
능
니
다
단
담
당
대
더
던
데
도
독
돈
동
됐
되
된
두
드
득
든
들
등
디
딸
때
떳
떻
또
라
람
랑
래
러
런
렇
레
려
로
론
루
르
른
를
름
리
린
마
만
많
말
매
먼
며
면
모
몰
못
무
문
묻
물
뭐
미
민
바
박
밖
반
받
발
밝
버
번
벌
범
법
변
별
병
보
복
본
봤
부
분
불
뷰
비
빠
사
살
상
생
서
석
선
세
소
속
손
송
수
순
숨
스
슬
시
식
신
실
싫
심
싶
싸
씨
아
안
않
알
았
애
야
약
양
어
억
언
얼
엄
없
었
에
여
연
열
였
영
예
오
온
올
와
왔
왜
요
용
우
운
울
워
원
웠
위
유
으
은
을
음
응
의
이
인
일
있
자
작
잘
장
재
저
적
전
정
제
져
조
좀
주
죽
준
중
증
지
진
질
집
쪽
차
찰
처
청
체
추
취
친
키
타
터
테
판
편
평
표
하
한
할
함
해
했
행
혀
현
혐
혜
호
혹
혼
화
확
활
황
회
후
훈
흥
히
힘
️
﻿
（
）
：
＝
�
🐒
😉
🙂
##a
##b
##n
##m
##t
##0
##s
##e
##l
##i
##o
##r
##v
##y
##c
##p
##u
##d
##k
##g
##­
##w
##h
##q
##6
##j
##8
##z
##í
##7
##x
##f
##°
##1
##é
##2
##‎
##5
##3
##4
##™
##래
##는
##リ
##ヴ
##ォ
##ニ
##シ
##ェ
##ン
##コ
##と
##б
##а
##т
##у
##р
##е
##작
##자
##로
##서
##의
##œ
##
##이
##속
##노
##조
##δ
##ρ
##高
##い
##線
##量
##の
##放
##射
##能
##で
##さ
##れ
##て
##た
##9
##면
##️
##н
##ч
##и
##è
##因
##審
##問
##は
##年
##月
##に
##公
##式
##終
##し
##ă
##ţ
##했
##다
##고
##ά
##μ
##ο
##ς
##よ
##っ
##人
##が
##死
##至
##ö
##ā
##ー
##デ
##ィ
##아
##ò
##국
##어
##о
##в
##й
##수
##해
##ã
##č
##
##리
##를
##도
##ѕ
##단
##을
##ж
##ä
##©
##ó
##²
##송
##ア
##ト
##ロ
##フ
##う
##げ
##じ
##け
##ん
##ʒ
##ˈ
##인
##데
##エ
##ワ
##á
##﻿
##д
##시
##에
##
##º
##르
##σ
##я
##ι
##α
##으
##ṇ
##م
##د
##ة
##호
##장
##검
##증
##ü
##を
##脱
##ば
##ど
##니
##까
##š
##처
##분
##ř
##後
##軍
##察
##上
##ě
##г
##ë
##な
##研
##究
##者
##間
##出
##り
##始
##め
##람
##ø
##던
##가
##ν
##θ
##ε
##러
##웠
##정
##ṣ
##사
##ō
##🐒
##ß
##щ
##к
##か
##후
##기
##하
##두
##ズ
##ジ
##イ
##저
##м
##も
##常
##力
##え
##ら
##あ
##こ
##ب
##ل
##오
##운
##진
##崩
##説
##定
##す
##る
##ū
##ク
##ョ
##거
##나
##ⵓ
##п
##з
##ю
##ə
##ɐ
##ʔ
##с
##ы
##л
##ь
##±
##一
##行
##捜
##索
##動
##や
##렇
##게
##€
##연
##​
##놓
##대
##局
##最
##的
##調
##査
##結
##ω
##ṃ
##지
##광
##석
##씨
##ё
##х
##à
##彼
##検
##謎
##バ
##ッ
##�
##화
##現
##象
##密
##兵
##実
##験
##ま
##ː
##お
##실
##家
##機
##ا
##ر
##س
##ی
##보
##⁄
##ф
##번
##었
##â
##
##
##ñ
##ボ
##遺
##体
##発
##見
##і
##ç
##件
##資
##料
##牲
##ち
##日
##記
##간
##만
##→
##έ
##은
##ύ
##π
##표
##真
##ć
##事
##ů
##物
##山
##斜
##面
##キ
##ャ
##プ
##設
##営
##域
##級
##년
##−
##県
##ù
##ž
##ï
##ت
##対
##側
##̇
##ṛ
##스
##く
##傷
##テ
##라
##夜
##각
##ś
##ي
##々
##原
##び
##つ
##持
##ʻ
##ه
##特
##았
##느
##들
##๋
##ว
##ย
##เ
##ี
##─
##회
##원
##상
##ц
##×
##야
##디
##무
##때
##チ
##ş
##ı
##ğ
##®
##э
##ł
##ý
##å
##금
##要
##小
##차
##ī
##送
##발
##뉴
##ṭ
##隊
##森
##ず
##大
##き
##ヒ
##マ
##ラ
##ヤ
##ス
##ギ
##下
##ル
##ド
##州
##著
##述
##ナ
##ユ
##양
##과
##려
##드
##물
##제
##우
##혜
##
##光
##별
##한
##ピ
##開
##目
##질
##적
##時
##ゥ
##ビ
##足
##ウ
##切
##살
##λ
##있
##마
##向
##ム
##生
##γ
##υ
##ό
##峠
##응
##할
##전
##병
##났
##部
##分
##열
##自
##然
##름
##ع
##و
##わ
##식
##õ
##신
##며
##メ
##ш
##ô
##レ
##ュ
##タ
##복
##█
##η
##κ
##ì
##र
##ल
##ि
##य
##ú
##못
##되
##道
##オ
##ホ
##손
##ð
##当
##難
##度
##極
##ί
##주
##ê
##순
##性
##¼
##ن
##행
##편
##⇓
##변
##내
##関
##多
##数
##히
##β
##æ
##渓
##谷
##中
##ろ
##位
##置
##場
##跡
##残
##울
##語
##以
##内
##低
##温
##症
##意
##識
##失
##起
##걸
##냐
##đ
##¹
##ა
##書
##¢
##球
##약
##늘
##겨
##学
##민
##든
##カ
##画
##ɛ
##ḷ
##랑
##そ
##他
##文
##้
##ม
##였
##겠
##ブ
##点
##財
##혀
##경
##혹
##ḍ
##モ
##立
##집
##京
##都
##靴
##履
##른
##견
##科
##初
##助
##考
##容
##공
##˜
##û
##황
##า
##ร
##ด
##ก
##ง
##요
##음
##억
##接
##示
##타
##½
##τ
##亡
##น
##登
##地
##長
##雪
##루
##버
##선
##건
##일
##난
##ή
##문
##미
##ネ
##더
##解
##外
##直
##通
##อ
##ั
##ป
##ล
##セ
##明
##ك
##말
##₂
##ق
##부
##
##없
##와
##ู
##재
##구
##ῖ
##´
##
##온
##別
##可
##報
##告
##่
##言
##∞
##왔
##ห
##론
##예
##돈
##떻
##本
##次
##存
##在
##だ
##全
##법
##생
##능
##혼
##衣
##服
##반
##극
##당
##不
##気
##遭
##밖
##비
##용
##証
##ゲ
##독
##ę
##離
##ไ
##ท
##긴
##심
##作
##命
##入
##サ
##된
##친
##청
##모
##¸
##ㅋ
##불
##찰
##갔
##¦
##ゾ
##名
##骨
##折
##동
##빠
##많
##판
##애
##係
##워
##ミ
##현
##्
##द
##여
##版
##소
##引
##裂
##頭
##負
##î
##관
##떳
##木
##先
##개
##혐
##工
##子
##받
##ァ
##ノ
##前
##連
##런
##ط
##遠
##征
##＝
##겁
##담
##集
##올
##探
##린
##所
##χ
##체
##활
##테
##北
##へ
##ē
##姿
##状
##態
##方
##됐
##범
##권
##위
##社
##ダ
##ი
##風
##ώ
##何
##안
##有
##落
##続
##터
##뷰
##÷
##ح
##グ
##色
##중
##着
##봤
##져
##날
##레
##너
##想
##判
##撃
##理
##東
##ぞ
##無
##新
##ῶ
##े
##ὐ
##主
##ソ
##ツ
##ξ
##흥
##ヘ
##べ
##매
##득
##준
##❤
##함
##ゴ
##벌
##∷
##세
##먼
##등
##훈
##확
##筆
##φ
##³
##員
##결
##近
##ز
##ظ
##ف
##쪽
##것
##
##께
##◊
##♦
##
##
th
the
##er
##in
##at
##ou
##re
##an
##on
##es
##nd
##ing
##it
##ll
to
##en
wh
##ar
##or
you
##ed
it
in
and
no
##is
of
##om
##le
is
##ay
on
##as
##ow
##ic
that
##ig
##oo
##et
##ac
##ut
##al
##id
re
be
se
##st
can
##ve
##ir
##ht
##ot
do
##ke
sh
he
##ion
st
##se
##ight
##ad
what
##ld
##ent
are
##ly
we
##ack
see
##ook
bl
##all
##am
##ith
##ere
li
for
with
##ur
there
not
##ite
##ver
yes
an
ha
##ch
##im
look
##ell
##ro
this
le
##ome
white
##ers
##th
like
go
ch
they
fr
right
but
##ant
##ter
##ct
su
##ce
at
##ab
##ust
##il
so
##ink
##pp
##ge
have
mo
##ie
don
as
##own
##ill
or
##and
ne
##ol
was
##op
tr
br
##ould
pl
me
ye
oh
##ain
tell
black
##ue
##ft
de
your
##ation
##us
##um
just
one
all
some
ab
up
con
##est
##ood
cl
##ate
think
ok
##ul
okay
##un
al
looks
out
##ah
##ap
##ally
left
man
here
##ide
she
##ind
##ard
com
##ound
his
##out
##ck
##itt
gr
kn
pro
##art
##os
from
ma
##ort
##ff
sp
back
##na
##res
gre
##ess
did
##ist
##ri
who
pe
by
has
yeah
get
ex
sa
##ast
want
about
bo
##her
may
know
blue
##one
##ive
red
##ies
say
where
ar
##ment
co
brown
##ice
##oug
them
more
##ther
##el
put
##irt
##ure
##ity
wor
how
fe
let
##be
##ery
gu
##ose
##nt
ta
would
##ame
does
her
##ark
over
if
##ick
other
20
te
off
will
good
any
peop
people
now
litt
play
cou
little
very
##dy
##ong
##ra
##ars
##are
##ass
##au
ro
##ich
##ore
##ry
my
##ine
##ime
bot
##ect
us
maybe
##ish
only
##ag
ad
un
bu
##able
##age
##ber
##ough
said
too
di
part
tw
##iz
app
down
green
##ep
en
##ib
their
well
than
shirt
ll
##hing
fl
##ans
when
sc
##ace
##em
##onna
##king
gonna
ag
bec
really
new
sm
car
##ild
day
##ven
pre
big
##ip
were
am
him
##ud
##ach
##ater
##ict
pr
##ial
##ase
top
gir
##ont
im
##ond
pers
##ous
po
could
had
##ause
going
int
##if
guy
##way
##ign
##act
##gr
person
##pt
##ors
##side
far
comp
come
##cc
##our
which
ph
##air
##ile
##ings
col
##ree
time
##ions
lo
qu
sure
wom
##ak
make
##ence
##iv
af
ah
res
because
then
##qu
##ire
##ellow
##so
##av
cont
##ang
##ub
##pe
got
yellow
cr
##ia
##my
two
front
mom
##ance
##ult
##ange
##ress
hand
hu
##other
##pl
read
mid
##ated
been
##atch
its
bott
sk
ho
way
##nder
##ty
light
ever
per
##day
these
##uck
girl
##omet
##ny
most
lot
##urn
fir
##les
##per
##ord
after
somet
##ens
bab
##anna
gl
need
##ph
##ary
##orn
take
bet
wanna
those
act
small
first
why
##we
also
hard
ind
##ible
stand
##gg
kind
cle
dis
inc
woman
##int
book
mu
many
thr
##orm
pol
pict
##dle
##ian
el
bus
under
rec
into
hel
la
##ade
side
eat
around
baby
##ouse
##ull
again
our
prob
table
inter
rem
ve
show
##ting
boy
##iss
work
should
##ple
em
dark
old
##bo
ele
sec
something
wr
##ical
doing
bottom
mommy
##ory
sl
201
long
##og
sun
tre
##ground
rep
head
##oc
op
##ving
des
spe
every
##ool
another
##ock
##ail
build
jo
##ations
vis
happ
##up
middle
##ath
call
huh
dad
pret
##oss
color
10
away
water
##ants
picture
bel
##ms
appe
##aring
##xt
even
##ump
comm
chair
short
cann
background
close
beh
hm
##alk
##vel
diff
gray
min
doesn
cam
much
##oney
dr
cre
##ird
ke
aha
turn
cannot
##ious
##ates
bre
che
lar
19
##ix
few
ear
##ably
both
says
orange
acc
pres
##lf
hold
ser
cent
##ition
open
mon
##igh
sch
##uct
##ons
house
str
##als
daddy
##hm
att
count
ball
##wn
sign
pretty
help
##ady
wa
wood
##ush
##lic
behind
cat
try
year
##ise
##de
face
##ents
##ces
looking
supp
##get
stre
med
##ower
else
dog
nice
didn
differ
might
sn
dec
mhm
bit
phot
##ually
through
probably
thank
fin
inside
home
##ank
find
##ek
##ved
##right
last
use
30
imp
##kes
outside
##itting
sit
##ake
##fore
ed
reg
mar
made
##ves
while
wind
wearing
years
def
um
three
##oot
isn
dist
##ys
room
next
##end
grey
##man
give
fun
end
standing
##atter
##ful
visible
cons
still
hat
ob
train
cut
##ets
sil
trees
high
##ds
##ave
photo
##io
large
##ps
##ee
sy
##00
glass
things
##form
##aff
bed
before
num
being
##ows
fo
wall
bear
state
start
##iew
sur
clear
alright
clou
##thing
##ss
##ward
##ought
##cy
rel
sw
leg
night
bas
hair
ev
sitting
second
##ember
thing
different
pie
##ma
pink
pur
##te
##ug
##ular
##ident
##der
##ual
##cial
inv
game
##ating
##ger
##ning
##mo
met
child
watch
same
name
exp
mark
##ert
school
##ci
kid
cap
bro
##ied
sunny
##ily
##vers
flo
##ced
box
real
##aper
food
add
run
air
##oth
##eric
sle
##self
world
##ction
bird
cur
team
male
##ather
dri
happen
nope
##lud
hor
##mer
silver
ref
##ublic
mil
ac
##ash
inst
war
##ren
poss
today
##ject
##ount
sky
sand
set
##ize
truck
belie
americ
cour
##ane
ter
better
##raw
pants
##ike
great
stu
##cle
mm
though
##ope
point
##oon
gen
##ative
##osed
appears
swe
honey
##fe
own
rest
remember
##ason
wait
care
park
cook
uh
##lease
goes
guess
full
mean
found
stri
anim
##ng
sim
ass
##itch
jack
char
##ese
includ
##ier
building
##wh
sub
street
##ute
##ats
hal
##ince
ty
such
##ures
##olog
##ited
##ton
##ational
##ics
##imes
grass
##az
##vern
##alking
center
##ween
##uring
report
pot
between
200
##ama
went
##its
##ments
je
called
govern
##ins
##ium
##unch
##outh
floor
four
bar
##ead
bow
##co
coll
##rect
##br
city
horse
keep
ide
ban
cup
each
##ities
##ific
actually
week
conf
##owing
fac
##led
##ues
near
##ble
##ither
ask
dem
##ross
ey
against
half
##ape
##ork
eleph
cover
ben
men
##ove
camer
corn
##ever
lady
used
##most
tan
##za
##ized
pick
grou
eng
conc
##time
##pped
young
story
##ield
feel
sing
early
prod
fall
since
##ne
sho
ste
cow
resp
lead
##red
ground
ap
clean
##gan
eff
##ames
paper
##ness
hi
aut
##ote
list
##ric
##cept
lots
trans
law
seems
ready
hot
must
please
never
##ility
talk
##iend
ju
offic
##arch
believe
##sp
pa
ze
seen
12
holding
bowl
##land
##sh
distance
foot
squ
art
ret
plate
camera
##ken
number
done
ext
president
late
##ider
##ner
hum
miss
scre
##illion
hey
fam
place
getting
won
door
piz
enough
sever
main
elephant
told
##urt
support
least
block
government
yet
post
nothing
win
drink
during
##cess
friend
##stem
police
foll
##aim
piece
pass
love
making
##body
snow
fire
##ana
hands
several
dress
##ared
playing
sleep
thought
mem
det
##rib
##ism
shorts
##ists
##min
cloudy
record
public
##ices
move
pizza
##oy
happened
cor
chr
pop
##con
##uss
break
##amp
fore
##ored
##med
##bers
whole
anything
mot
pen
##ina
push
sort
either
quest
cars
##ines
gener
##ball
15
system
corner
coun
##ense
##board
bring
##ling
daytime
dirt
ra
five
fact
toget
together
job
compan
draw
later
stuff
giraff
stop
##ished
view
prov
inf
month
best
almost
bag
women
direct
par
purple
eas
ge
pri
##ways
player
phone
jacket
##att
window
doll
stud
size
##ator
wow
##key
bye
money
power
polit
##ired
rock
feet
coming
##room
prot
##ots
##bra
##ige
pull
##ution
##ister
##velop
##less
mostly
road
pu
##iam
##iting
exper
##ient
trump
catch
idea
nor
design
##ror
tree
came
##ages
bike
##ains
morn
##els
develop
40
ones
life
cake
disc
11
cal
##pper
##ready
already
morning
unt
##do
tom
image
camp
##str
area
plan
##aur
expl
contin
opp
bad
adult
mus
##by
iss
stick
group
##oun
##cast
##ives
ent
stay
strip
without
##uc
court
hell
din
##uit
zebra
##iness
##ience
clos
comple
commun
possib
interest
##gy
party
dep
contro
comes
fil
fema
suit
giraffe
ann
apple
gi
female
mr
##ries
uni
case
aw
board
past
##ned
##cent
adv
##ically
prof
country
tech
##owers
free
ten
##me
tall
line
proble
pet
mic
##ho
pos
##und
000
sweet
##hip
fix
##alth
av
loc
saw
cheese
eating
invest
##sc
##iding
milk
##bre
intern
##uce
boat
however
news
##cl
50
pain
pat
aren
mouth
##ts
##aug
cir
round
always
kitt
##ted
gold
beige
american
##ta
18
hear
having
someone
##ouch
whe
har
sol
mod
##ten
animals
##ides
change
couple
took
medium
using
##ention
pay
##aves
fish
##thers
##view
tow
##ected
duck
jeans
sal
trying
states
partic
requ
until
walk
less
sound
chick
##ature
field
business
store
accord
others
serv
##ety
##ital
couch
arm
##ster
elect
fur
##ision
test
taking
press
mult
appear
bun
##que
ce
sum
##ately
##ik
ir
type
sor
level
##ology
form
##row
land
quite
cloth
##illy
season
##stand
val
dat
class
mess
eyes
boo
above
##iver
times
coff
lap
leave
including
according
import
children
cond
everything
##rent
##acks
base
id
##zz
##ised
buy
possibly
result
lear
roll
hello
exam
##conom
cert
da
##lla
jump
product
sorry
percent
##ura
bright
once
throw
egg
##hn
##pping
cost
walking
##top
sheep
makes
##bs
ca
cream
25
recent
tv
econom
##wich
yep
auth
coffee
vi
hit
##ung
funny
var
incre
inform
star
del
blond
grand
##aps
##wards
##gram
pig
##ming
along
national
techn
million
six
key
##line
batter
working
buildings
able
##ral
minute
touch
appro
##ato
happy
metal
sandwich
saying
office
juice
##gress
spec
##atur
bir
rese
exc
##ased
oo
research
bath
william
##where
##ined
##pr
christ
blur
family
##used
counter
rain
spr
##phone
order
umbre
##ged
effect
across
net
eur
health
maj
step
based
##ases
20s
mag
prom
current
flowers
##ony
##ially
overcast
##ew
##ency
john
check
page
chang
program
lay
er
fair
wooden
##ald
lab
sen
##ls
shoes
present
##icy
living
days
glasses
mother
13
means
company
##anc
card
##tain
nose
##ones
talking
##ops
##unk
cold
##inal
motor
body
hurt
question
##idge
live
hist
whoo
clock
super
##gle
organ
market
screen
##ret
prev
windows
fence
ger
major
##tern
aver
project
##let
consider
birth
##ob
##ided
wants
sar
##aph
laura
asked
plane
certain
tax
##ocr
wanted
vide
14
human
mama
players
est
mir
third
wasn
tot
##ale
donut
united
fav
##atic
aff
dro
indo
shall
ham
##ey
fight
important
understand
fing
shot
kitch
##icle
##ife
univers
ice
##gin
bottle
process
##iling
games
gone
kitchen
16
##ggie
foc
##oof
##dd
thre
ant
##ugg
helm
fre
hour
##ional
##ude
facing
rece
##ppy
##ians
low
##ences
words
##mi
data
umbrella
books
fro
##ether
##ef
regular
blonde
gar
meet
word
fly
author
age
likely
port
##itor
lower
space
special
hang
matter
york
##ration
##bit
return
song
##oli
##go
##ocol
toys
##ief
##son
course
##iny
letter
taken
write
tape
##arent
ins
aftern
##avy
##illed
claim
democr
clim
clouds
cookie
##ior
##ges
rom
non
##une
equ
closed
fig
afternoon
##ract
prop
older
mount
deb
political
##work
oper
bill
fed
fund
legs
##ered
##aw
wrong
hill
opt
bench
information
bur
twent
possible
covered
engine
ur
norm
##lex
kids
##utes
animal
##erv
problem
##astic
writing
##ering
colored
instead
##sel
mix
occ
##ying
social
tick
official
former
##acy
carr
needs
micro
average
pan
colors
careful
##ern
choo
blurry
strong
north
##ories
ahead
##ising
199
banana
2nd
##aut
listen
##eth
media
whether
##aign
surf
cell
fell
running
fit
deal
sweetie
campaign
##ploy
##urs
beach
birthday
event
sarah
vot
yay
arg
lit
europe
##book
##ury
##owed
often
##airs
##ained
pract
bunny
summer
mind
sour
republic
match
lett
hope
pic
quick
silly
rather
become
kiss
##ler
chocol
dirty
17
##od
clothes
##ality
adam
priv
outdo
seem
trad
dou
below
##artment
tele
bread
##ued
##ison
butter
hy
chocolate
##ensive
eight
leaves
tie
reason
favor
##ators
comput
den
blank
desk
ride
##lish
soon
cho
months
ooh
##raft
perform
##ummy
tail
sometimes
##cut
laptop
wond
music
square
crit
##nding
lim
sink
dev
kittie
fut
started
cry
conn
indoors
es
##aster
comb
##ley
##ured
gave
video
##aking
shad
nap
row
sou
##idence
defin
ross
friends
sam
mov
further
##ene
moder
##pty
mal
brocc
vers
study
sto
wear
complete
activ
yourself
##orts
##cil
##ift
ago
secur
whoops
##ential
dom
turned
toile
viol
helmet
fast
known
pictures
bank
##gest
orig
##ified
enter
##iously
among
##uary
within
##ilar
sent
##af
single
tur
bush
colle
##ization
seat
supposed
slee
given
restaur
ru
##sw
brick
veh
30s
local
rad
##eral
chicken
motorcy
##amed
deep
00
guys
mirror
bare
bi
100
##itions
signs
south
soft
##iel
profess
##ables
desc
university
broccoli
seven
##0s
tar
##tt
putting
##ov
swim
ident
##ccess
everyone
mouse
spo
closest
toilet
cy
general
reach
##walk
ill
grow
entire
bat
dish
##eng
dav
##light
pack
##ection
exact
stra
watching
lights
alex
rele
stat
obama
cause
##mber
edge
following
pub
milit
example
particular
##lect
wild
##itter
spoon
security
members
circ
##aught
true
cross
fail
indust
doggie
washing
##ks
anyone
doct
lost
##ches
##empt
##umb
##ague
##uction
numbers
similar
future
compet
beaut
canad
attack
investig
pill
coat
tra
cool
hors
##nes
sugg
##aces
cand
rul
##ites
cab
control
##ney
##par
bell
community
##haps
spot
##ivid
perhaps
suggest
minutes
addition
##ument
sex
##ume
success
typ
anal
share
announ
wouldn
##lo
eth
##port
toy
##ipe
alone
##ortun
dead
gotta
walls
##itive
catcher
except
track
##soci
paul
striped
gets
eye
ow
const
russ
bask
german
restaurant
##iff
america
##erence
vict
finish
dre
vo
##iving
##reme
##fl
alth
heart
reported
although
individ
gun
proper
rob
plant
mich
service
empty
##cially
van
##com
ener
history
poor
series
associ
pieces
sized
##unt
scr
whoa
bunch
mass
##ze
##ips
##por
##fast
wash
##lin
town
tor
##ware
wide
invol
et
carry
##rest
issue
straight
whose
secret
wee
international
hon
pal
##case
##ails
lang
peek
sidewalk
impro
jud
oops
tit
zoo
sty
avail
##selves
##cket
standard
drive
begin
brush
abe
repres
points
button
scient
policy
##vert
##ried
21
plastic
##app
huge
god
##ilt
tem
##kin
sat
easy
bang
meas
blocks
##ourn
##icult
chur
total
dam
##ript
father
goo
2016
env
##ully
west
mill
frame
##ulation
crow
added
san
##ances
tea
played
answ
naim
ris
##osaur
computer
himself
king
nomi
##iger
##what
aust
meat
naima
china
works
breakfast
soci
football
cult
roman
foreign
mach
due
wed
aud
band
dry
ep
##ha
death
somewhat
difficult
##ination
##ager
contain
abs
driver
ski
##iday
ring
rich
##graph
slight
cop
mat
object
mer
normal
sad
##play
hop
hung
amount
motorcycle
discuss
fruit
capt
focus
cust
hall
birds
warm
##zy
##inc
reading
rab
##lished
##oop
##ived
chairs
modern
ted
tool
beautif
basket
##nis
##amb
neck
teen
link
federal
hig
energy
##ires
learn
wonder
tiny
imm
happens
##come
earl
22
ut
thom
##anas
##icles
infl
##akes
haven
edit
account
surpr
tile
vase
item
itself
moving
feed
##minist
##gs
employ
price
##rod
movie
available
##itely
somebody
upd
##nel
stripes
towards
twitter
action
access
military
lou
stuck
##uced
hous
film
june
div
relig
exe
favorite
league
##ended
upper
brit
2015
outdoors
patter
##ission
shows
speak
langu
ol
##ply
rights
heard
thanks
##acter
phys
wine
##to
chin
church
init
yester
development
cas
wet
yesterday
bite
que
##ron
club
specific
doc
attempt
##een
finished
flower
exactly
fine
##fully
24
higher
##ability
conv
committ
beautiful
experience
department
liber
rub
##for
##ural
bananas
wheel
##iron
baseball
lunch
stone
jan
##aged
rac
##gl
bigger
boys
washington
##got
##use
natur
##ax
self
oil
traff
2014
vol
bud
##back
fairly
espe
##ii
couldn
broken
especially
desp
benef
dude
##gar
##ently
exist
clint
peter
position
goodness
led
deter
##ru
kinda
interview
wrote
definitely
gas
kick
cray
educ
parked
letters
takes
##iple
blanket
circle
economic
environ
teeth
station
wel
continue
##iet
##uation
repl
countries
simply
max
smaller
college
tast
custom
35
bal
rev
slice
##osp
civ
sund
final
crack
network
lat
lives
##rael
tank
race
thirt
note
moment
fan
##aching
interesting
tennis
oct
##ands
mel
thinking
jose
dig
##rete
arms
flat
##sy
israel
##enc
target
mine
administ
##uel
##ective
election
signific
geor
clinton
##ael
clearly
airpl
earlier
riding
glob
finger
forward
sense
david
##orrow
2017
##ij
advert
longer
nine
##asing
kill
smiling
ran
##bb
##aniel
represent
pretend
girls
##he
##aid
##ify
hours
##mon
evidence
thomas
review
concrete
figure
##rench
issues
dinner
dinosaur
lines
parent
##ault
constr
unif
march
common
ver
minister
director
plain
uk
coach
198
force
barely
held
knife
relations
ton
dest
dra
chall
showing
##oom
cute
cookies
tomato
brought
tired
students
oce
visit
##more
##den
##han
looked
bes
##pet
character
##ott
companies
eggs
environment
role
agree
farm
##anger
launch
dogs
##ask
medic
express
cast
stories
##itten
crowd
fel
nation
pap
parking
##attle
bull
term
questions
##omes
##auc
spring
pattern
fork
conserv
language
##mb
likes
weeks
respons
model
billion
waiting
create
yours
##cks
knew
expect
mor
slightly
carrots
knock
##read
sunday
usually
print
driving
doctor
fres
themselves
2013
legal
suitcase
adults
river
sell
traffic
began
needed
source
mis
mac
vari
mater
##ili
##angle
version
##lection
##fer
##eds
stove
enc
2012
uniform
article
private
candid
teddy
despite
vote
##aming
oppos
site
separ
personal
pitch
##mas
ocean
##gn
##apan
treat
##ees
hosp
subject
shirts
decision
technology
leaders
##eg
congress
became
japan
champ
civil
shown
suff
intell
perf
terror
##ino
shut
##ival
##ett
hanging
noise
##ises
##zen
related
bridge
mad
recently
slow
follow
hungry
global
significant
mur
poll
microphone
society
heavy
content
28
yup
##oots
sold
hund
earth
cit
##rict
text
facebook
sleeping
anti
sna
##ding
##atures
various
rabbit
laying
puzz
services
##arter
value
tight
broad
moon
##ula
##ogn
monitor
apart
skate
tower
airplane
east
##pend
friday
click
sept
built
##cover
son
##yn
beer
##apes
cred
protest
parts
include
neigh
##ging
##wood
inj
##aboo
dressed
nearly
calif
##oint
search
brother
groups
ba
htt
##ucture
wheels
23
potential
giving
##pack
release
email
mond
##onse
##ades
faces
bathroom
natural
60
handle
drug
chief
prim
statement
style
##iles
provide
hole
recogn
joseph
changes
flor
everybody
teams
lily
tri
shape
goal
##istic
finan
accept
brand
hol
boom
extreme
mail
serious
staff
popular
science
regard
instit
du
quack
##ological
tomorrow
execut
completely
online
##ental
butt
straw
guard
inde
threat
host
function
##ateg
arch
results
##ribut
##hood
emer
jer
sauce
officials
nut
##lam
problems
material
defense
adm
laws
released
mc
response
cart
currently
##roll
puppy
obs
industry
cases
unf
address
christmas
perio
##ining
opportun
moo
somewhere
##eter
babies
smart
blow
##aving
##iced
ul
teens
describ
display
rocks
##bed
##aced
plat
monkey
decl
journ
jen
nu
tim
##rel
##asons
##ston
blood
finally
commer
monday
enj
sweater
##ength
michael
los
pin
##lim
webs
nath
##over
##atives
correct
particip
perfect
##set
fresh
##ril
quickly
satur
ways
aug
##bor
hur
multi
yard
tried
pred
twenty
27
peekaboo
gosh
##anta
cabin
india
published
introd
remain
swing
sounds
##men
##spect
hospital
backpack
created
welcome
tues
meant
wire
tuesday
197
practice
45
respond
##ppers
afric
challen
republican
austral
californ
ach
sugar
veget
internet
plants
workers
##load
length
island
arri
evening
member
paint
partly
simple
ang
cutting
##medi
directly
slide
answer
mart
named
written
french
yog
##clear
nina
original
ble
twe
machine
toward
progress
imag
worked
ethan
leader
apples
starting
twenties
tub
##ushing
worth
##olution
scene
consum
capital
screw
approach
risk
growing
bump
##ners
donald
tooth
comment
journal
prep
americans
protect
tun
2011
travel
angle
tray
flag
doub
chinese
##ban
##epend
quarter
towel
administration
enjoy
recorder
felt
whatever
biggest
string
solid
islam
trou
spl
dece
announced
laug
range
woo
hood
##ring
196
tour
spell
##pire
european
web
missing
cro
26
fans
speed
weather
chance
safe
obv
##iled
allow
indic
independ
pump
anymore
rice
thous
##ept
cere
##stairs
pepper
fingers
influ
california
rug
##uth
trade
decided
grandma
flying
bey
##thern
september
reports
rules
wednes
saturday
april
wednesday
##ales
knows
impact
conference
carpet
necess
shoe
shar
lake
increase
##xic
contract
winter
##isy
meeting
education
immedi
instr
demand
financial
##val
plates
canada
##ilities
expected
ears
##ai
##ively
situation
refer
january
via
studies
certainly
path
asian
tradition
swimming
danger
pocket
99
pad
toast
images
skin
mountain
rack
fox
english
ess
sides
##ils
indian
complex
period
cra
##ked
partially
saf
lion
central
deliver
sea
users
##akers
##ucky
##riage
drinking
beyond
##berry
google
##ka
##fort
reve
trick
pole
platform
dan
shake
trunk
double
ira
##ba
bears
production
constit
british
unl
performance
individual
map
committee
vac
busy
keyboard
intellig
burn
metho
climate
horses
##oring
items
##bing
trip
sque
##isl
terms
puzzle
poo
bob
##box
##action
july
rate
##sey
##agon
disp
##coin
rect
2010
nar
nobody
##ients
##asses
movement
##ien
request
##anges
fully
loss
plans
arrest
training
officer
##da
surve
##izing
nathaniel
eve
extra
parents
und
confir
##uff
section
ber
cauc
names
##gu
weap
shower
areas
houses
##rupt
##bur
##oid
plaid
feature
chew
vehicles
advertise
relationship
##idents
contact
involved
##cing
bran
estim
trim
received
pillow
oven
libr
frank
ability
oink
legisl
##pa
thurs
neither
dollars
##cloth
##aped
upon
##ancing
lu
ry
estab
iraq
##ares
##ray
spin
electric
ult
thursday
applic
larger
multiple
dream
bord
grown
events
commercial
##bc
##atory
##ky
teach
scar
reflection
concern
choice
##nie
economy
##rd
killed
log
discover
##onstr
##ondon
40s
##asc
##mine
##rew
nove
##ica
council
particularly
tracks
##aked
belong
##off
quality
voice
overall
soup
##estern
december
sens
##fr
##ened
skirt
broke
ren
uns
officers
ny
##oke
allowed
spect
army
conduct
doo
london
century
professional
29
haw
##uments
attention
hun
##kend
crim
title
gro
matt
##ech
boats
aged
tex
considered
august
sick
##enger
tickle
telev
vir
terri
iran
date
career
mention
##ode
thin
changed
sleeve
pool
amaz
crash
wave
november
wish
beat
code
steel
prior
controll
growth
etc
absol
lift
compl
dim
opened
potato
radio
roof
##isc
lean
kinds
monster
minim
communic
additional
james
lad
medicine
file
forgot
magaz
surface
drop
fa
rand
##elly
##anda
plus
##rant
partial
included
##glasses
george
yummy
cele
skateboard
##gon
##aled
##imately
offer
vehicle
improve
casual
##verse
spread
##iction
cris
attach
##bi
##rection
corpor
sett
falling
bom
rough
assist
russia
##ipped
spent
diaper
website
boun
lack
none
santa
##arily
save
beginning
medical
purp
previous
stem
##itted
absolute
##20
##asian
syri
pencil
shoo
democratic
dance
##bert
message
citiz
##bow
##nger
##ham
repe
justice
resour
socks
behav
photos
tonight
phil
tablecloth
barn
celebr
vill
##mp
convers
calls
pour
##ober
disapp
reb
october
##hy
assume
daily
copy
##etic
sports
peace
##bon
##sa
##cer
require
connect
rid
quiet
county
weekend
ple
born
stopped
##force
ros
##band
##ties
##ero
agency
load
##oni
myself
dropped
ko
##ida
forces
user
analys
epis
telling
bug
remote
##ledge
frog
##itar
inn
anyway
dough
##ado
ange
calling
mist
younger
##zer
##iter
stage
##ibility
calm
##ession
caucasian
wife
##kins
##erson
##ker
##wise
shr
fris
intelligence
forget
##istan
iron
##ids
skill
difference
stripe
tools
document
television
mob
decor
fold
senate
safety
lol
sister
##fa
concept
spir
union
send
##aging
showed
reflect
2009
software
champions
fal
##uf
trust
marky
kept
neat
wake
leading
jobs
navy
##ga
select
##uses
shelf
gard
##ios
##craft
ate
sunglasses
majority
culture
immig
prem
happening
painted
hide
places
spots
muse
western
##acher
##enty
library
##rop
##usion
shoulder
switch
##field
features
horn
##iers
rail
stock
bitcoin
trucks
pressure
histor
defe
hiding
##omm
moved
manage
pee
forest
cru
speech
taste
32
die
##bee
turning
boots
caught
tal
turt
##ament
positive
victim
ding
esc
nature
setting
opportunity
autom
mike
rap
##gre
##erve
##ctions
dear
shadow
##rast
##ples
measure
budget
pm
doors
soap
2008
indeed
redd
guessing
garage
##uals
##berries
crying
turkey
fat
##cs
shel
schools
##ener
helped
freed
mixed
republicans
bought
covering
notice
commission
systems
executive
prison
hats
muslim
telephone
dut
lose
rt
##old
##orter
jumping
wer
onto
occur
carrot
museum
ital
beans
ship
spider
demonstr
liter
crayons
lamp
chest
politics
trouble
gives
delic
largest
germany
fill
psy
##sequ
smell
investigation
##gh
##ws
dar
wing
##ki
fridge
refr
effort
population
levels
http
battle
pair
##entially
imple
stands
kh
##ously
lock
hotel
property
latest
31
wii
ens
actual
##ification
cereal
bay
jam
kite
dozen
bushes
##round
sleepy
continued
mountains
psych
defend
effects
portion
critic
limited
##ara
alb
feeling
separate
ord
##atively
richard
magazine
##uing
##illa
grab
crime
update
tiss
##mark
##isions
dump
##aries
mech
achie
opening
hyd
caption
##mit
pupp
drawing
pulled
waves
##ca
brain
mexic
span
tend
bubb
voters
fift
patch
si
##ada
febr
install
meaning
500
der
lie
uses
3rd
comments
spokes
february
##oura
##aker
##hold
cows
shop
surround
religious
cash
mush
rout
##ube
##ette
umpire
district
basic
passenger
container
dolly
products
domin
secretary
paid
costs
implement
attacks
details
bon
loo
mary
seeing
##ceed
structure
reality
explain
##lines
weird
income
remains
salad
frequ
males
described
ign
recomm
spend
debate
physical
advertisement
woof
comfort
democrats
trail
grad
heads
accom
throughout
regul
neighbor
tables
##hib
apparent
attorn
cups
focused
propos
texas
freedom
eu
stars
leaving
purch
fixed
##ko
insp
cards
frost
immediately
lugg
mcc
##pan
reasons
##ension
required
sev
alle
inte
lob
glo
credit
kore
wil
##adem
sup
aunt
mars
hero
direction
condition
russian
scale
authority
eventually
thousands
command
golden
gay
##house
increasing
strugg
register
surv
organization
thus
candy
leaf
depend
easier
student
origin
ri
ww
##ford
##anut
##oming
chan
70
bicy
##ening
peanut
core
195
claims
lam
lying
construction
##nut
arab
associated
##che
queen
coo
##kn
altern
coal
tweet
##bage
asking
manager
##while
ideas
violence
doubt
##lly
beg
##oles
prec
interested
conditions
criminal
gal
##inary
##iture
ped
##thest
impress
roy
scen
contribut
subst
presidential
oranges
nuclear
truth
plenty
chris
learning
unit
opin
designed
vs
vest
anywhere
died
hammer
prime
rule
florida
analysis
draft
##head
clown
exch
refriger
hook
academ
efforts
status
fu
tiger
wipe
prevent
crisis
unable
smith
charl
followed
fighting
analy
eric
##nam
polic
##ught
##nic
compared
increased
labor
hus
nurs
tong
toes
##ache
cats
ryan
frisbee
##using
cooking
promot
mechan
judge
fle
##ago
ath
thick
streng
cloud
provided
luggage
oop
##uits
download
carrying
minor
attached
weren
##uh
scared
2007
cement
steps
yogurt
strength
lic
easily
senior
receive
papers
##ufact
integr
region
damage
33
chic
princ
assum
unlike
rise
spill
teacher
spending
passed
ine
##acters
##place
characters
conservative
delicious
ken
##bble
##erc
unless
battery
healthy
horsie
dangerous
border
absolutely
37
lamb
sofa
amb
lettuce
upside
manufact
gran
ended
raised
tough
appl
magic
types
##aint
missed
choose
blind
closer
36
tomatoes
constitution
jaz
na
brief
loud
predict
34
tire
hasn
##oe
##ya
prose
otherwise
maintain
determin
pac
wets
##la
trial
##ivity
feels
activity
vegetables
virt
sharp
##gers
##gie
shoot
beside
japanese
fake
pony
##ris
knowledge
speaking
terr
triangle
jim
##ini
sne
aware
##aughter
episode
sus
knee
##berg
learned
option
##aling
detail
failed
bald
brownish
underne
join
underneath
por
##ule
##utions
neg
sexual
shooting
refrigerator
rat
rose
asp
sciss
occup
candidate
audience
extremely
pil
inches
rear
agre
sched
agreement
australia
categ
adj
buttons
citizens
theory
remo
transport
aim
##rim
meow
##actor
confl
mission
tissue
stad
cowbo
crazy
##ille
unc
snake
80
##anced
hee
weight
attract
includes
reached
ram
stack
unkn
turns
fourth
developed
bubbles
fi
smile
foreground
projects
album
lid
bottles
consist
individuals
fer
chain
balls
avoid
competition
yum
##64
sees
helping
##encies
ms
##icient
##ggy
experim
ceiling
shift
totally
encoura
55
##reds
notes
bedroom
association
independent
pumpkin
##aser
highest
airport
napkin
laugh
rust
greater
concent
owl
www
rib
liqu
turtle
homes
##ays
cla
dise
dollar
kat
wal
##ona
flight
score
unique
stadium
unknown
hom
whom
sher
forced
primary
ip
plays
##iolet
graph
raining
filled
loves
runs
potty
dum
##oud
winning
religion
cabinet
##ux
##ooth
respect
bout
seemed
exerc
elephants
memory
traditional
resources
##erved
##icol
##brush
magn
policies
##tered
logo
everywhere
charge
honest
lil
##roy
##ribe
flip
incident
expand
picked
matth
gent
sight
authorities
scissors
cath
rank
posted
tunnel
method
random
mah
violet
##rick
willing
boxes
hundreds
75
##iders
reform
##ads
leather
keys
scratch
rum
attend
crayon
dancing
foundation
##aded
therefore
appeared
finding
hundred
angry
championship
sport
fear
illeg
unfortun
rare
##iance
advant
attorney
pun
tap
##nn
heat
upstairs
newsp
sanders
famil
dining
organiz
##dden
conflict
cord
gate
thirty
martin
imagine
purpose
chicago
pages
##venue
impl
concer
outdoor
critical
fab
hid
fort
editor
highly
politic
pushing
##cles
balloon
matthew
hay
sally
beep
guide
mainly
leaning
storm
goat
##ustr
previously
canadian
minimum
behavior
##down
anybody
accident
temper
##aren
sources
belly
##uela
treatment
blog
##umn
throwing
alleged
tummy
tells
peppers
powerful
researchers
franc
##ategy
##osh
actions
strategy
starts
records
height
noted
yeh
minist
jes
##rants
ther
sudden
##apt
worry
strange
trains
continues
necessary
weapons
fellow
mister
worse
tee
shouldn
stret
excited
climb
challenge
garden
nan
##ented
##ola
generation
messy
emerg
lin
mud
##icit
##ortion
photograph
painting
benefits
digital
##fly
chem
##oph
##osure
streets
produced
##jam
partners
scott
2018
singing
giant
sales
rolling
caused
##po
decades
dishes
nations
pine
##cr
##roid
incred
collect
garbage
professor
successful
jersey
mushroom
gather
pip
stairs
france
qual
device
fant
math
##bl
##ores
##cul
onions
esp
coast
##issa
parl
obviously
management
noon
goals
trash
##aks
##ggies
hate
##izes
patients
kitty
murder
##ste
parties
limit
90
jar
creating
cities
zoom
##ext
sale
hug
served
bags
excell
equip
surprise
customers
african
flash
resident
##doh
shadows
42
95
pound
194
species
teenager
initial
pud
symb
owner
microw
pillows
toothbrush
influence
39
aid
##dies
##etch
##ota
shaped
signed
programs
millions
benefit
agreed
francis
##bar
##dom
arr
generally
christian
environmental
jazz
families
kal
wig
grant
imposs
marriage
produce
rainbow
massive
tongue
##town
carol
pointing
grandpa
roo
##ses
tru
drinks
bicycle
65
hen
##imate
##host
confirmed
adop
uncle
breaking
serve
jeff
kr
##amic
playdoh
##ccer
produc
lawy
##ipp
shell
usa
owners
##vin
shock
stain
nearby
thirties
##put
##eno
##iring
cha
boston
defensive
options
##inate
rais
entirely
furn
faster
clot
backs
quant
remind
occas
opposition
38
wit
##tains
##uge
##any
weak
hipp
stuffed
##iliar
wetsuit
##10
numer
adding
survey
craw
gain
##cel
brew
understanding
banks
64
gy
##iences
##fs
##fit
residents
##aved
apartment
debt
spirit
master
oat
wol
##gen
enforce
recover
##ribution
models
funding
##no
##onents
enem
prices
compar
sticky
virgin
impossible
ramp
sect
soccer
##others
profile
affect
operations
apparently
pc
shared
firm
curtain
wheat
reddish
recommend
symbol
era
nest
##raid
salt
initi
variety
microwave
ec
rh
##enth
herself
twel
policeman
excuse
panel
equipment
##itude
seats
cells
mig
tractor
allows
explained
insur
##iju
baa
false
cooper
clothing
bum
mont
##dog
slices
sprink
stretch
43
cub
##ala
assault
convention
ell
shopping
afraid
subsc
investment
determine
rectangle
##sters
worst
emot
basically
advoc
claimed
##arm
##usive
mobile
gentle
48
ii
kang
org
thinks
active
england
surfboard
conversation
##ijuana
android
poly
supper
transl
##ription
zero
##ex
chap
##antly
robert
sites
bringing
hillary
##ih
##aroo
smooth
resc
pointed
supporters
neighborhood
bol
##ville
charges
surprised
establish
relatively
besides
syria
opinion
wra
lived
offensive
drum
pepperoni
pow
andrew
prefer
controvers
palest
islamic
##uch
sav
partner
becoming
curren
provides
southern
award
gig
zone
##ici
##aine
##estic
##rial
bucket
bugs
##ario
##iro
butterfly
bikes
arrived
branch
scarf
##lor
##iti
belt
highlight
hack
odd
protection
ducks
touching
ghost
susp
##agers
serving
cather
refuge
entertain
vroom
##ann
manuela
sheet
scary
transform
candidates
wings
dism
##zzy
threw
daughter
fash
nfl
wars
whis
deg
remark
gear
johnson
channel
49
eh
jet
offered
excellent
nick
##ari
maroon
northern
scientists
ari
joe
penn
multicol
changing
employees
dot
lind
mut
##inct
##elling
unp
communities
##goti
balance
pitcher
legislation
fits
nas
cher
purse
2006
gender
optim
responsible
bounce
supreme
parliam
catherine
gall
##iest
meter
believed
racket
pooh
frosting
advantage
hind
tack
suspect
##ander
marijuana
meanwhile
fashion
stream
annual
lettering
52
nin
beard
supply
daisy
effective
announce
amazing
tab
##resp
sail
dragon
concerns
negative
adjust
twelve
wo
acqu
motion
planet
businesses
victory
exchange
##now
planned
solution
louis
gloves
unfortunately
hidden
wealth
donkey
buff
glad
keeping
paying
label
israeli
institute
witness
kangaroo
vice
wage
##ipping
##outs
diam
elements
trend
cuts
instruct
##uters
reaching
seeds
##amm
joined
pulling
##leep
##acon
shore
hearing
twice
crew
strateg
marble
argument
truly
##asp
bean
seek
##uries
raw
expert
africa
furniture
parliament
44
ps
##tle
commit
village
doughnut
os
rates
##hi
##onent
##iser
bee
##ibly
familiar
listening
gross
asleep
deck
2000
perm
decide
governor
studio
stores
destroy
opposite
revealed
mentioned
##ram
##gly
specifically
removed
illegal
ded
nur
ron
tant
pete
failure
replace
##vant
##pri
clay
buck
skier
falls
steve
posts
##coming
hoodie
arrested
concentr
concerned
##stein
41
cu
iv
##ez
grapes
decent
application
cer
##ita
novel
excl
##ression
miles
planning
tests
approx
tip
##eless
values
construct
selling
ack
pra
jew
mrs
solar
##aver
guitar
tag
urban
comfortable
jon
##enced
elmo
centre
package
##mm
##hol
stan
flav
##aki
markets
##pm
##isation
lighting
193
seconds
ensure
tiles
trib
offers
liquid
newspaper
emergency
braz
keeps
division
atl
drivers
introduced
ox
sir
##mond
##hen
##aters
react
negoti
placed
jean
sticking
discussion
nic
task
##don
##ques
jackets
afford
connected
documents
mere
tied
liked
appoint
birdie
##ship
gift
existing
achieve
dub
beef
useful
##apers
##ifer
poles
##iano
300
cleaning
transfer
williams
faith
bib
lemon
comed
bodies
helps
collar
walked
piggy
pile
soph
backwards
mayor
mug
accur
housing
obvious
##wide
##acity
shade
stated
prin
restrict
designs
equal
proposed
revolution
papa
sin
##yl
bless
closet
melissa
prosecut
nav
resist
buses
decisions
##ashed
recording
industrial
losing
47
bern
##kel
alt
peach
apply
tops
sticker
discovered
tent
##gging
interp
darker
decade
strike
experts
urs
suggested
stainless
bin
fol
##anes
sharing
clin
fem
location
repeated
66
##abor
momma
supported
spokesman
enforcement
nurse
dess
##11
becomes
mall
##ns
##igan
allowing
##aud
joke
coverage
whoop
shades
hoo
kar
##ructure
##antic
saus
##ifying
largely
expensive
50s
requires
ultimately
begins
aspect
fest
grew
getty
returned
spoke
fancy
roughly
les
mummy
##li
##iation
##oons
##rem
##sty
covers
carl
basis
##cient
curtains
activities
liberal
copyright
dust
pipe
sets
shark
shapes
teaching
context
friendly
posing
techni
domestic
terrible
rot
##ano
consequ
dada
schem
syn
talked
infrast
royal
charlie
ker
rach
gop
saud
snack
snap
pale
songs
tig
thumb
differences
pushed
figures
identify
holes
strawberry
##jamas
53
54
lucky
rings
ash
clip
snowboard
raise
testing
scientology
launched
ursula
dessert
veter
##tr
##ora
sov
##ulf
sandy
towels
domain
robin
rush
chips
interact
purs
appropri
slowly
disappe
##uate
faced
files
elections
britain
sneakers
degree
acknow
kent
mi
##isf
reject
reuters
asse
##soft
##ups
basketball
disease
dots
py
sust
greek
carried
##issions
accused
talks
matches
sleeves
drew
dinosaurs
recognize
participants
craft
pond
##ters
##ipper
##ograph
guest
##igned
##ption
zebr
humans
mexico
pilot
infrastructure
kim
##atically
##keys
smoke
identified
multicolored
vul
##inated
semi
twin
downstairs
pajamas
awake
movies
injury
yards
prepared
hub
jelly
##ata
stress
script
smo
ends
blocked
providing
issued
suggests
spanish
bond
cock
##onto
eleven
2003
passing
skills
ske
##lock
stir
forth
troo
believes
assess
standards
rapid
princip
bio
vast
gogg
clap
suppl
jumped
democracy
objects
jenny
colorful
2005
planes
wonderful
originally
kalie
jul
##ae
coord
encl
aircraft
subm
squish
articles
eastern
developing
advanced
donuts
operation
mistake
husband
females
##bie
##omp
fran
captain
##ception
claus
hitting
##elle
famous
zebras
mand
pir
##rie
dele
##eline
column
shoulders
waist
obtain
possibility
##meal
desktop
identity
expression
https
corporate
cowboy
wrest
wagon
##hirt
##itz
sock
owned
giraffes
sleeved
leadership
01
ven
cancer
##alley
##ulate
views
interests
scientific
immigration
##rative
##ulated
carriage
proud
broadcast
hurry
goggles
ment
oly
##wr
##how
alloc
outfit
prince
presents
olives
regarding
established
gor
##ivers
##oned
##ading
managed
skis
suppose
stickers
typical
accounts
athlet
currency
diamond
powers
alleg
diet
downtown
collection
ruby
suddenly
jun
ly
##ena
amend
recall
2019
privacy
jesus
palestin
lif
appre
swed
cooked
senator
46
bid
rang
todd
##icing
plug
reduce
struct
harm
indoor
responsibility
laughing
squeak
innov
witch
##ji
##icip
trav
vision
seriously
married
mustard
toronto
cracker
victims
wilson
dw
abuse
cliff
leftmost
carbon
glaz
2001
voting
korea
exercise
chapter
olymp
##ius
##ream
neut
##oses
buzz
##enses
considering
measures
##iw
##cake
##ghan
toe
stor
candles
##encing
determined
fabric
51
jones
sac
##istics
##eling
contest
watched
recorded
##enoord
fif
kur
tact
##ole
##uk
##gb
##inger
##stone
alph
killing
terrorism
carolina
egy
rope
rural
vit
##ashing
##oween
##elled
spons
puts
conclud
discrim
labour
committed
customer
floral
narrow
angeles
gam
wid
whist
presence
holds
patrick
electron
connection
##gor
##icated
##arko
budd
loved
taller
cycle
brazil
ast
ray
shiny
mickey
summ
buying
racing
##etti
purchase
oatmeal
virginia
##itation
##isher
rod
##angular
earn
floppy
##going
halloween
maxim
mushrooms
bacon
ire
luck
##rog
harder
eval
charged
potentially
sticks
devices
philos
fuel
##bour
##nda
##itory
##lement
writ
sliced
capacity
##bye
affected
votes
guns
##uffy
organizations
assemb
egypt
##usk
##icted
muff
treas
pigs
linked
alternative
1st
bound
mort
##va
##wor
heav
pear
knowing
breed
param
technical
presented
hurts
panc
till
wik
anth
##road
##rif
engage
internal
microsoft
approximately
tourn
wound
soda
##rier
afghan
cheap
evil
sample
powder
lau
##uous
##acing
seed
shining
spark
taught
polar
bowls
depart
positions
##onym
layer
videos
voted
attempts
occurred
dyn
una
##ye
##uish
##arian
waste
scot
veggies
toot
##arant
chip
instance
taxes
palm
ladder
gum
jay
##ias
##ded
##fish
stool
##ella
neur
##olic
goodbye
writes
factor
circum
soldiers
ore
rs
allig
farthest
compr
subur
picking
squir
factors
elected
ceo
drugs
sector
entertainment
##asy
ancient
aband
aggress
##gged
penny
appearance
picnic
circus
complexity
francisco
insurance
cel
mun
mental
nana
##mat
##oh
##cher
brothers
knees
buddy
politicians
ot
sab
##illing
##aham
consult
widely
nuts
literally
nasa
sausage
##hl
##uster
complic
interf
reference
fishing
promise
helmets
funds
skiing
nyarko
batt
jail
som
aside
supporting
cultural
osc
##cious
seasons
shh
noticed
##roph
persp
joint
mini
founder
paris
exciting
hyp
publish
circles
satisf
branches
travis
bent
bik
##rad
##real
armed
writer
sweats
subs
rocking
entry
australian
ugly
nomin
##oms
##agh
daylight
remained
element
fired
kitten
coalition
bbc
##acle
lee
alive
realize
motiv
rachel
thir
##icial
forms
fraser
##isted
farmer
emph
steam
knocked
weapon
spinach
ceramic
bars
##ani
stood
##agues
penal
typically
gaming
##makers
grape
##arest
##izz
##phones
governments
profit
ernie
methods
##ienced
belongs
shelves
lobby
saudi
85
pure
##die
##inn
chart
brian
worried
guarant
drawer
surprising
bul
boot
ky
vent
##wa
##ards
##ansas
emp
visual
cannab
refused
located
jenn
split
raisins
gym
appreci
bone
bark
##kers
stable
asia
intended
elim
desert
tempor
strawberries
premier
proposal
##18
##ico
prospect
##essions
flood
##ivia
extend
loose
increasingly
ministry
linux
residential
cind
##isa
##oma
shares
seeking
flu
concl
leads
engineering
owls
trailer
aqu
upset
usual
phones
charles
parall
ireland
cd
ft
gap
tad
##ox
##imp
proced
wrap
blocking
##ribute
patient
argued
wedding
complain
fifty
jour
mask
pak
##aa
##32
fries
woods
disappoint
rig
##fc
##enn
haha
agent
pray
quot
secure
combined
miller
patterns
numerous
icing
##ront
inch
dock
fey
offering
schol
confidence
artist
ticket
ruff
speaker
remaining
bomb
italy
analyst
wolf
troops
fred
mice
od
##night
exhib
unclear
default
statements
2002
classic
error
combination
controller
cia
lord
##30
##edge
##stal
dial
2004
suffered
spectators
jav
##uations
unus
bubble
columb
hoc
##athers
investors
practices
crossing
accompl
category
400
##stream
acting
hills
robot
audio
terrorist
bure
ketch
wis
youth
deploy
abortion
scores
retire
hydrant
piano
##mes
revenue
intent
holder
defence
greatest
essential
gang
hint
yer
yucky
flow
agencies
##pending
remove
emb
marg
viet
ruling
initially
challenges
matters
punch
wins
anne
moves
##umin
##uls
tear
myth
##weight
chairman
horiz
feeding
experiment
alligator
ketchup
eld
il
ya
clar
bother
eaten
stayed
harry
doctors
consumer
schedul
3d
ale
rising
valley
##point
##19
