{"version":"1.0","truncation":null,"padding":null,"added_tokens":[{"id":0,"special":true,"content":"[PAD]","single_word":false,"lstrip":false,"rstrip":false,"normalized":false},{"id":1,"special":true,"content":"[UNK]","single_word":false,"lstrip":false,"rstrip":false,"normalized":false},{"id":2,"special":true,"content":"[CLS]","single_word":false,"lstrip":false,"rstrip":false,"normalized":false},{"id":3,"special":true,"content":"[SEP]","single_word":false,"lstrip":false,"rstrip":false,"normalized":false},{"id":4,"special":true,"content":"[MASK]","single_word":false,"lstrip":false,"rstrip":false,"normalized":false}],"normalizer":{"type":"BertNormalizer","clean_text":false,"handle_chinese_chars":false,"strip_accents":false,"lowercase":true},"pre_tokenizer":{"type":"BertPreTokenizer"},"post_processor":null,"decoder":{"type":"WordPiece","prefix":"##","cleanup":true},"model":{"type":"WordPiece","unk_token":"[UNK]","continuing_subword_prefix":"##","max_input_chars_per_word":100,"vocab":{"[PAD]":0,"[UNK]":1,"[CLS]":2,"[SEP]":3,"[MASK]":4,"!":5,"\"":6,"#":7,"$":8,"%":9,"&":10,"'":11,"(":12,")":13,"*":14,"+":15,",":16,"-":17,".":18,"/":19,"0":20,"1":21,"2":22,"3":23,"4":24,"5":25,"6":26,"7":27,"8":28,"9":29,":":30,";":31,"<":32,"=":33,">":34,"?":35,"@":36,"[":37,"\\":38,"]":39,"^":40,"_":41,"`":42,"a":43,"b":44,"c":45,"d":46,"e":47,"f":48,"g":49,"h":50,"i":51,"j":52,"k":53,"l":54,"m":55,"n":56,"o":57,"p":58,"q":59,"r":60,"s":61,"t":62,"u":63,"v":64,"w":65,"x":66,"y":67,"z":68,"{":69,"|":70,"}":71,"~":72,"":73,"":74,"":75,"":76,"":77,"":78,"":79,"":80,"":81,"":82,"":83,"":84,"¡":85,"¢":86,"£":87,"¥":88,"¦":89,"§":90,"©":91,"«":92,"­":93,"®":94,"¯":95,"°":96,"±":97,"²":98,"³":99,"´":100,"µ":101,"¶":102,"·":103,"¸":104,"¹":105,"º":106,"»":107,"¼":108,"½":109,"×":110,"ß":111,"à":112,"á":113,"â":114,"ã":115,"ä":116,"å":117,"æ":118,"ç":119,"è":120,"é":121,"ê":122,"ë":123,"ì":124,"í":125,"î":126,"ï":127,"ð":128,"ñ":129,"ò":130,"ó":131,"ô":132,"õ":133,"ö":134,"÷":135,"ø":136,"ù":137,"ú":138,"û":139,"ü":140,"ý":141,"þ":142,"ā":143,"ă":144,"ć":145,"č":146,"đ":147,"ē":148,"ę":149,"ě":150,"ğ":151,"ī":152,"ı":153,"ł":154,"ō":155,"œ":156,"ř":157,"ś":158,"ş":159,"š":160,"ţ":161,"ū":162,"ů":163,"ž":164,"ɐ":165,"ə":166,"ɛ":167,"ʒ":168,"ʔ":169,"ʻ":170,"ˈ":171,"ː":172,"˜":173,"̇":174,"ά":175,"έ":176,"ή":177,"ί":178,"α":179,"β":180,"γ":181,"δ":182,"ε":183,"η":184,"θ":185,"ι":186,"κ":187,"λ":188,"μ":189,"ν":190,"ξ":191,"ο":192,"π":193,"ρ":194,"ς":195,"σ":196,"τ":197,"υ":198,"φ":199,"χ":200,"ω":201,"ό":202,"ύ":203,"ώ":204,"а":205,"б":206,"в":207,"г":208,"д":209,"е":210,"ж":211,"з":212,"и":213,"й":214,"к":215,"л":216,"м":217,"н":218,"о":219,"п":220,"р":221,"с":222,"т":223,"у":224,"ф":225,"х":226,"ц":227,"ч":228,"ш":229,"щ":230,"ы":231,"ь":232,"э":233,"ю":234,"я":235,"ё":236,"ѕ":237,"і":238,"،":239,"ا":240,"ب":241,"ة":242,"ت":243,"ح":244,"د":245,"ر":246,"ز":247,"س":248,"ش":249,"ط":250,"ظ":251,"ع":252,"ف":253,"ق":254,"ك":255,"ل":256,"م":257,"ن":258,"ه":259,"و":260,"ي":261,"ی":262,"द":263,"य":264,"र":265,"ल":266,"ि":267,"े":268,"्":269,"ก":270,"ข":271,"ง":272,"ด":273,"ท":274,"น":275,"ป":276,"ม":277,"ย":278,"ร":279,"ล":280,"ว":281,"ห":282,"อ":283,"ั":284,"า":285,"ี":286,"ู":287,"เ":288,"ไ":289,"่":290,"้":291,"๋":292,"ა":293,"ი":294,"ḍ":295,"ḷ":296,"ṃ":297,"ṇ":298,"ṛ":299,"ṣ":300,"ṭ":301,"ἀ":302,"ἰ":303,"ὀ":304,"ὐ":305,"ὴ":306,"ῖ":307,"ῶ":308,"​":309,"‎":310,"‐":311,"‑":312,"–":313,"—":314,"―":315,"‘":316,"’":317,"‚":318,"“":319,"”":320,"„":321,"‡":322,"•":323,"․":324,"…":325,"′":326,"″":327,"›":328,"※":329,"⁄":330,"₂":331,"€":332,"™":333,"→":334,"↓":335,"⇓":336,"−":337,"∞":338,"∥":339,"∷":340,"∼":341,"≥":342,"─":343,"┃":344,"█":345,"■":346,"▪":347,"►":348,"▼":349,"◊":350,"★":351,"♦":352,"❤":353,"➜":354,"ⵓ":355,"、":356,"。":357,"々":358,"〈":359,"〉":360,"「":361,"」":362,"『":363,"』":364,"あ":365,"い":366,"う":367,"え":368,"お":369,"か":370,"が":371,"き":372,"く":373,"け":374,"げ":375,"こ":376,"さ":377,"し":378,"じ":379,"す":380,"ず":381,"そ":382,"ぞ":383,"た":384,"だ":385,"ち":386,"っ":387,"つ":388,"て":389,"で":390,"と":391,"ど":392,"な":393,"に":394,"の":395,"は":396,"ば":397,"び":398,"へ":399,"べ":400,"ま":401,"め":402,"も":403,"や":404,"よ":405,"ら":406,"り":407,"る":408,"れ":409,"ろ":410,"わ":411,"を":412,"ん":413,"ァ":414,"ア":415,"ィ":416,"イ":417,"ゥ":418,"ウ":419,"ェ":420,"エ":421,"ォ":422,"オ":423,"カ":424,"キ":425,"ギ":426,"ク":427,"グ":428,"ゲ":429,"コ":430,"ゴ":431,"サ":432,"シ":433,"ジ":434,"ス":435,"ズ":436,"セ":437,"ソ":438,"ゾ":439,"タ":440,"ダ":441,"チ":442,"ッ":443,"ツ":444,"テ":445,"デ":446,"ト":447,"ド":448,"ナ":449,"ニ":450,"ネ":451,"ノ":452,"バ":453,"ヒ":454,"ビ":455,"ピ":456,"フ":457,"ブ":458,"プ":459,"ヘ":460,"ホ":461,"ボ":462,"マ":463,"ミ":464,"ム":465,"メ":466,"モ":467,"ャ":468,"ヤ":469,"ュ":470,"ユ":471,"ョ":472,"ラ":473,"リ":474,"ル":475,"レ":476,"ロ":477,"ワ":478,"ン":479,"ヴ":480,"・":481,"ー":482,"ㅋ":483,"一":484,"上":485,"下":486,"不":487,"中":488,"主":489,"事":490,"亡":491,"京":492,"人":493,"他":494,"以":495,"件":496,"位":497,"低":498,"体":499,"何":500,"作":501,"係":502,"側":503,"傷":504,"先":505,"光":506,"入":507,"全":508,"公":509,"兵":510,"内":511,"出":512,"分":513,"切":514,"初":515,"判":516,"別":517,"前":518,"力":519,"助":520,"動":521,"北":522,"原":523,"可":524,"同":525,"名":526,"向":527,"告":528,"命":529,"員":530,"問":531,"営":532,"因":533,"在":534,"地":535,"域":536,"報":537,"場":538,"外":539,"多":540,"夜":541,"大":542,"失":543,"始":544,"姿":545,"子":546,"存":547,"学":548,"定":549,"実":550,"家":551,"容":552,"密":553,"察":554,"審":555,"対":556,"射":557,"小":558,"局":559,"履":560,"山":561,"峠":562,"崩":563,"州":564,"工":565,"常":566,"年":567,"度":568,"式":569,"引":570,"当":571,"彼":572,"征":573,"後":574,"性":575,"想":576,"意":577,"態":578,"所":579,"折":580,"持":581,"捜":582,"探":583,"接":584,"撃":585,"放":586,"数":587,"文":588,"料":589,"斜":590,"新":591,"方":592,"日":593,"明":594,"時":595,"書":596,"最":597,"月":598,"有":599,"服":600,"木":601,"本":602,"東":603,"査":604,"森":605,"検":606,"極":607,"機":608,"次":609,"死":610,"残":611,"気":612,"渓":613,"温":614,"点":615,"無":616,"然":617,"版":618,"物":619,"牲":620,"特":621,"状":622,"現":623,"球":624,"理":625,"生":626,"画":627,"症":628,"発":629,"登":630,"的":631,"目":632,"直":633,"県":634,"真":635,"着":636,"研":637,"示":638,"社":639,"科":640,"究":641,"立":642,"筆":643,"級":644,"索":645,"終":646,"結":647,"続":648,"線":649,"編":650,"置":651,"考":652,"者":653,"能":654,"脱":655,"自":656,"至":657,"色":658,"落":659,"著":660,"行":661,"衣":662,"裂":663,"要":664,"見":665,"解":666,"言":667,"記":668,"設":669,"証":670,"語":671,"説":672,"調":673,"謎":674,"識":675,"谷":676,"象":677,"負":678,"財":679,"資":680,"起":681,"足":682,"跡":683,"軍":684,"近":685,"述":686,"送":687,"通":688,"連":689,"道":690,"遠":691,"遭":692,"遺":693,"部":694,"都":695,"量":696,"長":697,"開":698,"間":699,"関":700,"隊":701,"集":702,"離":703,"難":704,"雪":705,"面":706,"靴":707,"頭":708,"風":709,"験":710,"骨":711,"高":712,"가":713,"각":714,"간":715,"갔":716,"같":717,"개":718,"거":719,"건":720,"걸":721,"검":722,"겁":723,"것":724,"게":725,"겠":726,"겨":727,"견":728,"결":729,"경":730,"계":731,"고":732,"공":733,"과":734,"관":735,"광":736,"구":737,"국":738,"권":739,"그":740,"극":741,"글":742,"금":743,"기":744,"긴":745,"김":746,"까":747,"께":748,"끝":749,"나":750,"난":751,"날":752,"남":753,"났":754,"내":755,"냐":756,"너":757,"년":758,"노":759,"놓":760,"누":761,"눈":762,"뉴":763,"느":764,"는":765,"늘":766,"능":767,"니":768,"다":769,"단":770,"담":771,"당":772,"대":773,"더":774,"던":775,"데":776,"도":777,"독":778,"돈":779,"동":780,"됐":781,"되":782,"된":783,"두":784,"드":785,"득":786,"든":787,"들":788,"등":789,"디":790,"딸":791,"때":792,"떳":793,"떻":794,"또":795,"라":796,"람":797,"랑":798,"래":799,"러":800,"런":801,"렇":802,"레":803,"려":804,"로":805,"론":806,"루":807,"르":808,"른":809,"를":810,"름":811,"리":812,"린":813,"마":814,"만":815,"많":816,"말":817,"매":818,"먼":819,"며":820,"면":821,"모":822,"몰":823,"못":824,"무":825,"문":826,"묻":827,"물":828,"뭐":829,"미":830,"민":831,"바":832,"박":833,"밖":834,"반":835,"받":836,"발":837,"밝":838,"버":839,"번":840,"벌":841,"범":842,"법":843,"변":844,"별":845,"병":846,"보":847,"복":848,"본":849,"봤":850,"부":851,"분":852,"불":853,"뷰":854,"비":855,"빠":856,"사":857,"살":858,"상":859,"생":860,"서":861,"석":862,"선":863,"세":864,"소":865,"속":866,"손":867,"송":868,"수":869,"순":870,"숨":871,"스":872,"슬":873,"시":874,"식":875,"신":876,"실":877,"싫":878,"심":879,"싶":880,"싸":881,"씨":882,"아":883,"안":884,"않":885,"알":886,"았":887,"애":888,"야":889,"약":890,"양":891,"어":892,"억":893,"언":894,"얼":895,"엄":896,"없":897,"었":898,"에":899,"여":900,"연":901,"열":902,"였":903,"영":904,"예":905,"오":906,"온":907,"올":908,"와":909,"왔":910,"왜":911,"요":912,"용":913,"우":914,"운":915,"울":916,"워":917,"원":918,"웠":919,"위":920,"유":921,"으":922,"은":923,"을":924,"음":925,"응":926,"의":927,"이":928,"인":929,"일":930,"있":931,"자":932,"작":933,"잘":934,"장":935,"재":936,"저":937,"적":938,"전":939,"정":940,"제":941,"져":942,"조":943,"좀":944,"주":945,"죽":946,"준":947,"중":948,"증":949,"지":950,"진":951,"질":952,"집":953,"쪽":954,"차":955,"찰":956,"처":957,"청":958,"체":959,"추":960,"취":961,"친":962,"키":963,"타":964,"터":965,"테":966,"판":967,"편":968,"평":969,"표":970,"하":971,"한":972,"할":973,"함":974,"해":975,"했":976,"행":977,"혀":978,"현":979,"혐":980,"혜":981,"호":982,"혹":983,"혼":984,"화":985,"확":986,"활":987,"황":988,"회":989,"후":990,"훈":991,"흥":992,"히":993,"힘":994,"️":995,"﻿":996,"（":997,"）":998,"：":999,"＝":1000,"�":1001,"🐒":1002,"😉":1003,"🙂":1004,"##a":1005,"##b":1006,"##n":1007,"##m":1008,"##t":1009,"##0":1010,"##s":1011,"##e":1012,"##l":1013,"##i":1014,"##o":1015,"##r":1016,"##v":1017,"##y":1018,"##c":1019,"##p":1020,"##u":1021,"##d":1022,"##k":1023,"##g":1024,"##­":1025,"##w":1026,"##h":1027,"##q":1028,"##6":1029,"##j":1030,"##8":1031,"##z":1032,"##í":1033,"##7":1034,"##x":1035,"##f":1036,"##°":1037,"##1":1038,"##é":1039,"##2":1040,"##‎":1041,"##5":1042,"##3":1043,"##4":1044,"##™":1045,"##래":1046,"##는":1047,"##リ":1048,"##ヴ":1049,"##ォ":1050,"##ニ":1051,"##シ":1052,"##ェ":1053,"##ン":1054,"##コ":1055,"##と":1056,"##б":1057,"##а":1058,"##т":1059,"##у":1060,"##р":1061,"##е":1062,"##작":1063,"##자":1064,"##로":1065,"##서":1066,"##의":1067,"##œ":1068,"##":1069,"##이":1070,"##속":1071,"##노":1072,"##조":1073,"##δ":1074,"##ρ":1075,"##高":1076,"##い":1077,"##線":1078,"##量":1079,"##の":1080,"##放":1081,"##射":1082,"##能":1083,"##で":1084,"##さ":1085,"##れ":1086,"##て":1087,"##た":1088,"##9":1089,"##면":1090,"##️":1091,"##н":1092,"##ч":1093,"##и":1094,"##è":1095,"##因":1096,"##審":1097,"##問":1098,"##は":1099,"##年":1100,"##月":1101,"##に":1102,"##公":1103,"##式":1104,"##終":1105,"##し":1106,"##ă":1107,"##ţ":1108,"##했":1109,"##다":1110,"##고":1111,"##ά":1112,"##μ":1113,"##ο":1114,"##ς":1115,"##よ":1116,"##っ":1117,"##人":1118,"##が":1119,"##死":1120,"##至":1121,"##ö":1122,"##ā":1123,"##ー":1124,"##デ":1125,"##ィ":1126,"##아":1127,"##ò":1128,"##국":1129,"##어":1130,"##о":1131,"##в":1132,"##й":1133,"##수":1134,"##해":1135,"##ã":1136,"##č":1137,"##":1138,"##리":1139,"##를":1140,"##도":1141,"##ѕ":1142,"##단":1143,"##을":1144,"##ж":1145,"##ä":1146,"##©":1147,"##ó":1148,"##²":1149,"##송":1150,"##ア":1151,"##ト":1152,"##ロ":1153,"##フ":1154,"##う":1155,"##げ":1156,"##じ":1157,"##け":1158,"##ん":1159,"##ʒ":1160,"##ˈ":1161,"##인":1162,"##데":1163,"##エ":1164,"##ワ":1165,"##á":1166,"##﻿":1167,"##д":1168,"##시":1169,"##에":1170,"##":1171,"##º":1172,"##르":1173,"##σ":1174,"##я":1175,"##ι":1176,"##α":1177,"##으":1178,"##ṇ":1179,"##م":1180,"##د":1181,"##ة":1182,"##호":1183,"##장":1184,"##검":1185,"##증":1186,"##ü":1187,"##を":1188,"##脱":1189,"##ば":1190,"##ど":1191,"##니":1192,"##까":1193,"##š":1194,"##처":1195,"##분":1196,"##ř":1197,"##後":1198,"##軍":1199,"##察":1200,"##上":1201,"##ě":1202,"##г":1203,"##ë":1204,"##な":1205,"##研":1206,"##究":1207,"##者":1208,"##間":1209,"##出":1210,"##り":1211,"##始":1212,"##め":1213,"##람":1214,"##ø":1215,"##던":1216,"##가":1217,"##ν":1218,"##θ":1219,"##ε":1220,"##러":1221,"##웠":1222,"##정":1223,"##ṣ":1224,"##사":1225,"##ō":1226,"##🐒":1227,"##ß":1228,"##щ":1229,"##к":1230,"##か":1231,"##후":1232,"##기":1233,"##하":1234,"##두":1235,"##ズ":1236,"##ジ":1237,"##イ":1238,"##저":1239,"##м":1240,"##も":1241,"##常":1242,"##力":1243,"##え":1244,"##ら":1245,"##あ":1246,"##こ":1247,"##ب":1248,"##ل":1249,"##오":1250,"##운":1251,"##진":1252,"##崩":1253,"##説":1254,"##定":1255,"##す":1256,"##る":1257,"##ū":1258,"##ク":1259,"##ョ":1260,"##거":1261,"##나":1262,"##ⵓ":1263,"##п":1264,"##з":1265,"##ю":1266,"##ə":1267,"##ɐ":1268,"##ʔ":1269,"##с":1270,"##ы":1271,"##л":1272,"##ь":1273,"##±":1274,"##一":1275,"##行":1276,"##捜":1277,"##索":1278,"##動":1279,"##や":1280,"##렇":1281,"##게":1282,"##€":1283,"##연":1284,"##​":1285,"##놓":1286,"##대":1287,"##局":1288,"##最":1289,"##的":1290,"##調":1291,"##査":1292,"##結":1293,"##ω":1294,"##ṃ":1295,"##지":1296,"##광":1297,"##석":1298,"##씨":1299,"##ё":1300,"##х":1301,"##à":1302,"##彼":1303,"##検":1304,"##謎":1305,"##バ":1306,"##ッ":1307,"##�":1308,"##화":1309,"##現":1310,"##象":1311,"##密":1312,"##兵":1313,"##実":1314,"##験":1315,"##ま":1316,"##ː":1317,"##お":1318,"##실":1319,"##家":1320,"##機":1321,"##ا":1322,"##ر":1323,"##س":1324,"##ی":1325,"##보":1326,"##⁄":1327,"##ф":1328,"##번":1329,"##었":1330,"##â":1331,"##":1332,"##":1333,"##ñ":1334,"##ボ":1335,"##遺":1336,"##体":1337,"##発":1338,"##見":1339,"##і":1340,"##ç":1341,"##件":1342,"##資":1343,"##料":1344,"##牲":1345,"##ち":1346,"##日":1347,"##記":1348,"##간":1349,"##만":1350,"##→":1351,"##έ":1352,"##은":1353,"##ύ":1354,"##π":1355,"##표":1356,"##真":1357,"##ć":1358,"##事":1359,"##ů":1360,"##物":1361,"##山":1362,"##斜":1363,"##面":1364,"##キ":1365,"##ャ":1366,"##プ":1367,"##設":1368,"##営":1369,"##域":1370,"##級":1371,"##년":1372,"##−":1373,"##県":1374,"##ù":1375,"##ž":1376,"##ï":1377,"##ت":1378,"##対":1379,"##側":1380,"##̇":1381,"##ṛ":1382,"##스":1383,"##く":1384,"##傷":1385,"##テ":1386,"##라":1387,"##夜":1388,"##각":1389,"##ś":1390,"##ي":1391,"##々":1392,"##原":1393,"##び":1394,"##つ":1395,"##持":1396,"##ʻ":1397,"##ه":1398,"##特":1399,"##았":1400,"##느":1401,"##들":1402,"##๋":1403,"##ว":1404,"##ย":1405,"##เ":1406,"##ี":1407,"##─":1408,"##회":1409,"##원":1410,"##상":1411,"##ц":1412,"##×":1413,"##야":1414,"##디":1415,"##무":1416,"##때":1417,"##チ":1418,"##ş":1419,"##ı":1420,"##ğ":1421,"##®":1422,"##э":1423,"##ł":1424,"##ý":1425,"##å":1426,"##금":1427,"##要":1428,"##小":1429,"##차":1430,"##ī":1431,"##送":1432,"##발":1433,"##뉴":1434,"##ṭ":1435,"##隊":1436,"##森":1437,"##ず":1438,"##大":1439,"##き":1440,"##ヒ":1441,"##マ":1442,"##ラ":1443,"##ヤ":1444,"##ス":1445,"##ギ":1446,"##下":1447,"##ル":1448,"##ド":1449,"##州":1450,"##著":1451,"##述":1452,"##ナ":1453,"##ユ":1454,"##양":1455,"##과":1456,"##려":1457,"##드":1458,"##물":1459,"##제":1460,"##우":1461,"##혜":1462,"##":1463,"##光":1464,"##별":1465,"##한":1466,"##ピ":1467,"##開":1468,"##目":1469,"##질":1470,"##적":1471,"##時":1472,"##ゥ":1473,"##ビ":1474,"##足":1475,"##ウ":1476,"##切":1477,"##살":1478,"##λ":1479,"##있":1480,"##마":1481,"##向":1482,"##ム":1483,"##生":1484,"##γ":1485,"##υ":1486,"##ό":1487,"##峠":1488,"##응":1489,"##할":1490,"##전":1491,"##병":1492,"##났":1493,"##部":1494,"##分":1495,"##열":1496,"##自":1497,"##然":1498,"##름":1499,"##ع":1500,"##و":1501,"##わ":1502,"##식":1503,"##õ":1504,"##신":1505,"##며":1506,"##メ":1507,"##ш":1508,"##ô":1509,"##レ":1510,"##ュ":1511,"##タ":1512,"##복":1513,"##█":1514,"##η":1515,"##κ":1516,"##ì":1517,"##र":1518,"##ल":1519,"##ि":1520,"##य":1521,"##ú":1522,"##못":1523,"##되":1524,"##道":1525,"##オ":1526,"##ホ":1527,"##손":1528,"##ð":1529,"##当":1530,"##難":1531,"##度":1532,"##極":1533,"##ί":1534,"##주":1535,"##ê":1536,"##순":1537,"##性":1538,"##¼":1539,"##ن":1540,"##행":1541,"##편":1542,"##⇓":1543,"##변":1544,"##내":1545,"##関":1546,"##多":1547,"##数":1548,"##히":1549,"##β":1550,"##æ":1551,"##渓":1552,"##谷":1553,"##中":1554,"##ろ":1555,"##位":1556,"##置":1557,"##場":1558,"##跡":1559,"##残":1560,"##울":1561,"##語":1562,"##以":1563,"##内":1564,"##低":1565,"##温":1566,"##症":1567,"##意":1568,"##識":1569,"##失":1570,"##起":1571,"##걸":1572,"##냐":1573,"##đ":1574,"##¹":1575,"##ა":1576,"##書":1577,"##¢":1578,"##球":1579,"##약":1580,"##늘":1581,"##겨":1582,"##学":1583,"##민":1584,"##든":1585,"##カ":1586,"##画":1587,"##ɛ":1588,"##ḷ":1589,"##랑":1590,"##そ":1591,"##他":1592,"##文":1593,"##้":1594,"##ม":1595,"##였":1596,"##겠":1597,"##ブ":1598,"##点":1599,"##財":1600,"##혀":1601,"##경":1602,"##혹":1603,"##ḍ":1604,"##モ":1605,"##立":1606,"##집":1607,"##京":1608,"##都":1609,"##靴":1610,"##履":1611,"##른":1612,"##견":1613,"##科":1614,"##初":1615,"##助":1616,"##考":1617,"##容":1618,"##공":1619,"##˜":1620,"##û":1621,"##황":1622,"##า":1623,"##ร":1624,"##ด":1625,"##ก":1626,"##ง":1627,"##요":1628,"##음":1629,"##억":1630,"##接":1631,"##示":1632,"##타":1633,"##½":1634,"##τ":1635,"##亡":1636,"##น":1637,"##登":1638,"##地":1639,"##長":1640,"##雪":1641,"##루":1642,"##버":1643,"##선":1644,"##건":1645,"##일":1646,"##난":1647,"##ή":1648,"##문":1649,"##미":1650,"##ネ":1651,"##더":1652,"##解":1653,"##外":1654,"##直":1655,"##通":1656,"##อ":1657,"##ั":1658,"##ป":1659,"##ล":1660,"##セ":1661,"##明":1662,"##ك":1663,"##말":1664,"##₂":1665,"##ق":1666,"##부":1667,"##":1668,"##없":1669,"##와":1670,"##ู":1671,"##재":1672,"##구":1673,"##ῖ":1674,"##´":1675,"##":1676,"##온":1677,"##別":1678,"##可":1679,"##報":1680,"##告":1681,"##่":1682,"##言":1683,"##∞":1684,"##왔":1685,"##ห":1686,"##론":1687,"##예":1688,"##돈":1689,"##떻":1690,"##本":1691,"##次":1692,"##存":1693,"##在":1694,"##だ":1695,"##全":1696,"##법":1697,"##생":1698,"##능":1699,"##혼":1700,"##衣":1701,"##服":1702,"##반":1703,"##극":1704,"##당":1705,"##不":1706,"##気":1707,"##遭":1708,"##밖":1709,"##비":1710,"##용":1711,"##証":1712,"##ゲ":1713,"##독":1714,"##ę":1715,"##離":1716,"##ไ":1717,"##ท":1718,"##긴":1719,"##심":1720,"##作":1721,"##命":1722,"##入":1723,"##サ":1724,"##된":1725,"##친":1726,"##청":1727,"##모":1728,"##¸":1729,"##ㅋ":1730,"##불":1731,"##찰":1732,"##갔":1733,"##¦":1734,"##ゾ":1735,"##名":1736,"##骨":1737,"##折":1738,"##동":1739,"##빠":1740,"##많":1741,"##판":1742,"##애":1743,"##係":1744,"##워":1745,"##ミ":1746,"##현":1747,"##्":1748,"##द":1749,"##여":1750,"##版":1751,"##소":1752,"##引":1753,"##裂":1754,"##頭":1755,"##負":1756,"##î":1757,"##관":1758,"##떳":1759,"##木":1760,"##先":1761,"##개":1762,"##혐":1763,"##工":1764,"##子":1765,"##받":1766,"##ァ":1767,"##ノ":1768,"##前":1769,"##連":1770,"##런":1771,"##ط":1772,"##遠":1773,"##征":1774,"##＝":1775,"##겁":1776,"##담":1777,"##集":1778,"##올":1779,"##探":1780,"##린":1781,"##所":1782,"##χ":1783,"##체":1784,"##활":1785,"##테":1786,"##北":1787,"##へ":1788,"##ē":1789,"##姿":1790,"##状":1791,"##態":1792,"##方":1793,"##됐":1794,"##범":1795,"##권":1796,"##위":1797,"##社":1798,"##ダ":1799,"##ი":1800,"##風":1801,"##ώ":1802,"##何":1803,"##안":1804,"##有":1805,"##落":1806,"##続":1807,"##터":1808,"##뷰":1809,"##÷":1810,"##ح":1811,"##グ":1812,"##色":1813,"##중":1814,"##着":1815,"##봤":1816,"##져":1817,"##날":1818,"##레":1819,"##너":1820,"##想":1821,"##判":1822,"##撃":1823,"##理":1824,"##東":1825,"##ぞ":1826,"##無":1827,"##新":1828,"##ῶ":1829,"##े":1830,"##ὐ":1831,"##主":1832,"##ソ":1833,"##ツ":1834,"##ξ":1835,"##흥":1836,"##ヘ":1837,"##べ":1838,"##매":1839,"##득":1840,"##준":1841,"##❤":1842,"##함":1843,"##ゴ":1844,"##벌":1845,"##∷":1846,"##세":1847,"##먼":1848,"##등":1849,"##훈":1850,"##확":1851,"##筆":1852,"##φ":1853,"##³":1854,"##員":1855,"##결":1856,"##近":1857,"##ز":1858,"##ظ":1859,"##ف":1860,"##쪽":1861,"##것":1862,"##":1863,"##께":1864,"##◊":1865,"##♦":1866,"##":1867,"##":1868,"th":1869,"the":1870,"##er":1871,"##in":1872,"##at":1873,"##ou":1874,"##re":1875,"##an":1876,"##on":1877,"##es":1878,"##nd":1879,"##ing":1880,"##it":1881,"##ll":1882,"to":1883,"##en":1884,"wh":1885,"##ar":1886,"##or":1887,"you":1888,"##ed":1889,"it":1890,"in":1891,"and":1892,"no":1893,"##is":1894,"of":1895,"##om":1896,"##le":1897,"is":1898,"##ay":1899,"on":1900,"##as":1901,"##ow":1902,"##ic":1903,"that":1904,"##ig":1905,"##oo":1906,"##et":1907,"##ac":1908,"##ut":1909,"##al":1910,"##id":1911,"re":1912,"be":1913,"se":1914,"##st":1915,"can":1916,"##ve":1917,"##ir":1918,"##ht":1919,"##ot":1920,"do":1921,"##ke":1922,"sh":1923,"he":1924,"##ion":1925,"st":1926,"##se":1927,"##ight":1928,"##ad":1929,"what":1930,"##ld":1931,"##ent":1932,"are":1933,"##ly":1934,"we":1935,"##ack":1936,"see":1937,"##ook":1938,"bl":1939,"##all":1940,"##am":1941,"##ith":1942,"##ere":1943,"li":1944,"for":1945,"with":1946,"##ur":1947,"there":1948,"not":1949,"##ite":1950,"##ver":1951,"yes":1952,"an":1953,"ha":1954,"##ch":1955,"##im":1956,"look":1957,"##ell":1958,"##ro":1959,"this":1960,"le":1961,"##ome":1962,"white":1963,"##ers":1964,"##th":1965,"like":1966,"go":1967,"ch":1968,"they":1969,"fr":1970,"right":1971,"but":1972,"##ant":1973,"##ter":1974,"##ct":1975,"su":1976,"##ce":1977,"at":1978,"##ab":1979,"##ust":1980,"##il":1981,"so":1982,"##ink":1983,"##pp":1984,"##ge":1985,"have":1986,"mo":1987,"##ie":1988,"don":1989,"as":1990,"##own":1991,"##ill":1992,"or":1993,"##and":1994,"ne":1995,"##ol":1996,"was":1997,"##op":1998,"tr":1999,"br":2000,"##ould":2001,"pl":2002,"me":2003,"ye":2004,"oh":2005,"##ain":2006,"tell":2007,"black":2008,"##ue":2009,"##ft":2010,"de":2011,"your":2012,"##ation":2013,"##us":2014,"##um":2015,"just":2016,"one":2017,"all":2018,"some":2019,"ab":2020,"up":2021,"con":2022,"##est":2023,"##ood":2024,"cl":2025,"##ate":2026,"think":2027,"ok":2028,"##ul":2029,"okay":2030,"##un":2031,"al":2032,"looks":2033,"out":2034,"##ah":2035,"##ap":2036,"##ally":2037,"left":2038,"man":2039,"here":2040,"##ide":2041,"she":2042,"##ind":2043,"##ard":2044,"com":2045,"##ound":2046,"his":2047,"##out":2048,"##ck":2049,"##itt":2050,"gr":2051,"kn":2052,"pro":2053,"##art":2054,"##os":2055,"from":2056,"ma":2057,"##ort":2058,"##ff":2059,"sp":2060,"back":2061,"##na":2062,"##res":2063,"gre":2064,"##ess":2065,"did":2066,"##ist":2067,"##ri":2068,"who":2069,"pe":2070,"by":2071,"has":2072,"yeah":2073,"get":2074,"ex":2075,"sa":2076,"##ast":2077,"want":2078,"about":2079,"bo":2080,"##her":2081,"may":2082,"know":2083,"blue":2084,"##one":2085,"##ive":2086,"red":2087,"##ies":2088,"say":2089,"where":2090,"ar":2091,"##ment":2092,"co":2093,"brown":2094,"##ice":2095,"##oug":2096,"them":2097,"more":2098,"##ther":2099,"##el":2100,"put":2101,"##irt":2102,"##ure":2103,"##ity":2104,"wor":2105,"how":2106,"fe":2107,"let":2108,"##be":2109,"##ery":2110,"gu":2111,"##ose":2112,"##nt":2113,"ta":2114,"would":2115,"##ame":2116,"does":2117,"her":2118,"##ark":2119,"over":2120,"if":2121,"##ick":2122,"other":2123,"20":2124,"te":2125,"off":2126,"will":2127,"good":2128,"any":2129,"peop":2130,"people":2131,"now":2132,"litt":2133,"play":2134,"cou":2135,"little":2136,"very":2137,"##dy":2138,"##ong":2139,"##ra":2140,"##ars":2141,"##are":2142,"##ass":2143,"##au":2144,"ro":2145,"##ich":2146,"##ore":2147,"##ry":2148,"my":2149,"##ine":2150,"##ime":2151,"bot":2152,"##ect":2153,"us":2154,"maybe":2155,"##ish":2156,"only":2157,"##ag":2158,"ad":2159,"un":2160,"bu":2161,"##able":2162,"##age":2163,"##ber":2164,"##ough":2165,"said":2166,"too":2167,"di":2168,"part":2169,"tw":2170,"##iz":2171,"app":2172,"down":2173,"green":2174,"##ep":2175,"en":2176,"##ib":2177,"their":2178,"well":2179,"than":2180,"shirt":2181,"ll":2182,"##hing":2183,"fl":2184,"##ans":2185,"when":2186,"sc":2187,"##ace":2188,"##em":2189,"##onna":2190,"##king":2191,"gonna":2192,"ag":2193,"bec":2194,"really":2195,"new":2196,"sm":2197,"car":2198,"##ild":2199,"day":2200,"##ven":2201,"pre":2202,"big":2203,"##ip":2204,"were":2205,"am":2206,"him":2207,"##ud":2208,"##ach":2209,"##ater":2210,"##ict":2211,"pr":2212,"##ial":2213,"##ase":2214,"top":2215,"gir":2216,"##ont":2217,"im":2218,"##ond":2219,"pers":2220,"##ous":2221,"po":2222,"could":2223,"had":2224,"##ause":2225,"going":2226,"int":2227,"##if":2228,"guy":2229,"##way":2230,"##ign":2231,"##act":2232,"##gr":2233,"person":2234,"##pt":2235,"##ors":2236,"##side":2237,"far":2238,"comp":2239,"come":2240,"##cc":2241,"##our":2242,"which":2243,"ph":2244,"##air":2245,"##ile":2246,"##ings":2247,"col":2248,"##ree":2249,"time":2250,"##ions":2251,"lo":2252,"qu":2253,"sure":2254,"wom":2255,"##ak":2256,"make":2257,"##ence":2258,"##iv":2259,"af":2260,"ah":2261,"res":2262,"because":2263,"then":2264,"##qu":2265,"##ire":2266,"##ellow":2267,"##so":2268,"##av":2269,"cont":2270,"##ang":2271,"##ub":2272,"##pe":2273,"got":2274,"yellow":2275,"cr":2276,"##ia":2277,"##my":2278,"two":2279,"front":2280,"mom":2281,"##ance":2282,"##ult":2283,"##ange":2284,"##ress":2285,"hand":2286,"hu":2287,"##other":2288,"##pl":2289,"read":2290,"mid":2291,"##ated":2292,"been":2293,"##atch":2294,"its":2295,"bott":2296,"sk":2297,"ho":2298,"way":2299,"##nder":2300,"##ty":2301,"light":2302,"ever":2303,"per":2304,"##day":2305,"these":2306,"##uck":2307,"girl":2308,"##omet":2309,"##ny":2310,"most":2311,"lot":2312,"##urn":2313,"fir":2314,"##les":2315,"##per":2316,"##ord":2317,"after":2318,"somet":2319,"##ens":2320,"bab":2321,"##anna":2322,"gl":2323,"need":2324,"##ph":2325,"##ary":2326,"##orn":2327,"take":2328,"bet":2329,"wanna":2330,"those":2331,"act":2332,"small":2333,"first":2334,"why":2335,"##we":2336,"also":2337,"hard":2338,"ind":2339,"##ible":2340,"stand":2341,"##gg":2342,"kind":2343,"cle":2344,"dis":2345,"inc":2346,"woman":2347,"##int":2348,"book":2349,"mu":2350,"many":2351,"thr":2352,"##orm":2353,"pol":2354,"pict":2355,"##dle":2356,"##ian":2357,"el":2358,"bus":2359,"under":2360,"rec":2361,"into":2362,"hel":2363,"la":2364,"##ade":2365,"side":2366,"eat":2367,"around":2368,"baby":2369,"##ouse":2370,"##ull":2371,"again":2372,"our":2373,"prob":2374,"table":2375,"inter":2376,"rem":2377,"ve":2378,"show":2379,"##ting":2380,"boy":2381,"##iss":2382,"work":2383,"should":2384,"##ple":2385,"em":2386,"dark":2387,"old":2388,"##bo":2389,"ele":2390,"sec":2391,"something":2392,"wr":2393,"##ical":2394,"doing":2395,"bottom":2396,"mommy":2397,"##ory":2398,"sl":2399,"201":2400,"long":2401,"##og":2402,"sun":2403,"tre":2404,"##ground":2405,"rep":2406,"head":2407,"##oc":2408,"op":2409,"##ving":2410,"des":2411,"spe":2412,"every":2413,"##ool":2414,"another":2415,"##ock":2416,"##ail":2417,"build":2418,"jo":2419,"##ations":2420,"vis":2421,"happ":2422,"##up":2423,"middle":2424,"##ath":2425,"call":2426,"huh":2427,"dad":2428,"pret":2429,"##oss":2430,"color":2431,"10":2432,"away":2433,"water":2434,"##ants":2435,"picture":2436,"bel":2437,"##ms":2438,"appe":2439,"##aring":2440,"##xt":2441,"even":2442,"##ump":2443,"comm":2444,"chair":2445,"short":2446,"cann":2447,"background":2448,"close":2449,"beh":2450,"hm":2451,"##alk":2452,"##vel":2453,"diff":2454,"gray":2455,"min":2456,"doesn":2457,"cam":2458,"much":2459,"##oney":2460,"dr":2461,"cre":2462,"##ird":2463,"ke":2464,"aha":2465,"turn":2466,"cannot":2467,"##ious":2468,"##ates":2469,"bre":2470,"che":2471,"lar":2472,"19":2473,"##ix":2474,"few":2475,"ear":2476,"##ably":2477,"both":2478,"says":2479,"orange":2480,"acc":2481,"pres":2482,"##lf":2483,"hold":2484,"ser":2485,"cent":2486,"##ition":2487,"open":2488,"mon":2489,"##igh":2490,"sch":2491,"##uct":2492,"##ons":2493,"house":2494,"str":2495,"##als":2496,"daddy":2497,"##hm":2498,"att":2499,"count":2500,"ball":2501,"##wn":2502,"sign":2503,"pretty":2504,"help":2505,"##ady":2506,"wa":2507,"wood":2508,"##ush":2509,"##lic":2510,"behind":2511,"cat":2512,"try":2513,"year":2514,"##ise":2515,"##de":2516,"face":2517,"##ents":2518,"##ces":2519,"looking":2520,"supp":2521,"##get":2522,"stre":2523,"med":2524,"##ower":2525,"else":2526,"dog":2527,"nice":2528,"didn":2529,"differ":2530,"might":2531,"sn":2532,"dec":2533,"mhm":2534,"bit":2535,"phot":2536,"##ually":2537,"through":2538,"probably":2539,"thank":2540,"fin":2541,"inside":2542,"home":2543,"##ank":2544,"find":2545,"##ek":2546,"##ved":2547,"##right":2548,"last":2549,"use":2550,"30":2551,"imp":2552,"##kes":2553,"outside":2554,"##itting":2555,"sit":2556,"##ake":2557,"##fore":2558,"ed":2559,"reg":2560,"mar":2561,"made":2562,"##ves":2563,"while":2564,"wind":2565,"wearing":2566,"years":2567,"def":2568,"um":2569,"three":2570,"##oot":2571,"isn":2572,"dist":2573,"##ys":2574,"room":2575,"next":2576,"##end":2577,"grey":2578,"##man":2579,"give":2580,"fun":2581,"end":2582,"standing":2583,"##atter":2584,"##ful":2585,"visible":2586,"cons":2587,"still":2588,"hat":2589,"ob":2590,"train":2591,"cut":2592,"##ets":2593,"sil":2594,"trees":2595,"high":2596,"##ds":2597,"##ave":2598,"photo":2599,"##io":2600,"large":2601,"##ps":2602,"##ee":2603,"sy":2604,"##00":2605,"glass":2606,"things":2607,"##form":2608,"##aff":2609,"bed":2610,"before":2611,"num":2612,"being":2613,"##ows":2614,"fo":2615,"wall":2616,"bear":2617,"state":2618,"start":2619,"##iew":2620,"sur":2621,"clear":2622,"alright":2623,"clou":2624,"##thing":2625,"##ss":2626,"##ward":2627,"##ought":2628,"##cy":2629,"rel":2630,"sw":2631,"leg":2632,"night":2633,"bas":2634,"hair":2635,"ev":2636,"sitting":2637,"second":2638,"##ember":2639,"thing":2640,"different":2641,"pie":2642,"##ma":2643,"pink":2644,"pur":2645,"##te":2646,"##ug":2647,"##ular":2648,"##ident":2649,"##der":2650,"##ual":2651,"##cial":2652,"inv":2653,"game":2654,"##ating":2655,"##ger":2656,"##ning":2657,"##mo":2658,"met":2659,"child":2660,"watch":2661,"same":2662,"name":2663,"exp":2664,"mark":2665,"##ert":2666,"school":2667,"##ci":2668,"kid":2669,"cap":2670,"bro":2671,"##ied":2672,"sunny":2673,"##ily":2674,"##vers":2675,"flo":2676,"##ced":2677,"box":2678,"real":2679,"##aper":2680,"food":2681,"add":2682,"run":2683,"air":2684,"##oth":2685,"##eric":2686,"sle":2687,"##self":2688,"world":2689,"##ction":2690,"bird":2691,"cur":2692,"team":2693,"male":2694,"##ather":2695,"dri":2696,"happen":2697,"nope":2698,"##lud":2699,"hor":2700,"##mer":2701,"silver":2702,"ref":2703,"##ublic":2704,"mil":2705,"ac":2706,"##ash":2707,"inst":2708,"war":2709,"##ren":2710,"poss":2711,"today":2712,"##ject":2713,"##ount":2714,"sky":2715,"sand":2716,"set":2717,"##ize":2718,"truck":2719,"belie":2720,"americ":2721,"cour":2722,"##ane":2723,"ter":2724,"better":2725,"##raw":2726,"pants":2727,"##ike":2728,"great":2729,"stu":2730,"##cle":2731,"mm":2732,"though":2733,"##ope":2734,"point":2735,"##oon":2736,"gen":2737,"##ative":2738,"##osed":2739,"appears":2740,"swe":2741,"honey":2742,"##fe":2743,"own":2744,"rest":2745,"remember":2746,"##ason":2747,"wait":2748,"care":2749,"park":2750,"cook":2751,"uh":2752,"##lease":2753,"goes":2754,"guess":2755,"full":2756,"mean":2757,"found":2758,"stri":2759,"anim":2760,"##ng":2761,"sim":2762,"ass":2763,"##itch":2764,"jack":2765,"char":2766,"##ese":2767,"includ":2768,"##ier":2769,"building":2770,"##wh":2771,"sub":2772,"street":2773,"##ute":2774,"##ats":2775,"hal":2776,"##ince":2777,"ty":2778,"such":2779,"##ures":2780,"##olog":2781,"##ited":2782,"##ton":2783,"##ational":2784,"##ics":2785,"##imes":2786,"grass":2787,"##az":2788,"##vern":2789,"##alking":2790,"center":2791,"##ween":2792,"##uring":2793,"report":2794,"pot":2795,"between":2796,"200":2797,"##ama":2798,"went":2799,"##its":2800,"##ments":2801,"je":2802,"called":2803,"govern":2804,"##ins":2805,"##ium":2806,"##unch":2807,"##outh":2808,"floor":2809,"four":2810,"bar":2811,"##ead":2812,"bow":2813,"##co":2814,"coll":2815,"##rect":2816,"##br":2817,"city":2818,"horse":2819,"keep":2820,"ide":2821,"ban":2822,"cup":2823,"each":2824,"##ities":2825,"##ific":2826,"actually":2827,"week":2828,"conf":2829,"##owing":2830,"fac":2831,"##led":2832,"##ues":2833,"near":2834,"##ble":2835,"##ither":2836,"ask":2837,"dem":2838,"##ross":2839,"ey":2840,"against":2841,"half":2842,"##ape":2843,"##ork":2844,"eleph":2845,"cover":2846,"ben":2847,"men":2848,"##ove":2849,"camer":2850,"corn":2851,"##ever":2852,"lady":2853,"used":2854,"##most":2855,"tan":2856,"##za":2857,"##ized":2858,"pick":2859,"grou":2860,"eng":2861,"conc":2862,"##time":2863,"##pped":2864,"young":2865,"story":2866,"##ield":2867,"feel":2868,"sing":2869,"early":2870,"prod":2871,"fall":2872,"since":2873,"##ne":2874,"sho":2875,"ste":2876,"cow":2877,"resp":2878,"lead":2879,"##red":2880,"ground":2881,"ap":2882,"clean":2883,"##gan":2884,"eff":2885,"##ames":2886,"paper":2887,"##ness":2888,"hi":2889,"aut":2890,"##ote":2891,"list":2892,"##ric":2893,"##cept":2894,"lots":2895,"trans":2896,"law":2897,"seems":2898,"ready":2899,"hot":2900,"must":2901,"please":2902,"never":2903,"##ility":2904,"talk":2905,"##iend":2906,"ju":2907,"offic":2908,"##arch":2909,"believe":2910,"##sp":2911,"pa":2912,"ze":2913,"seen":2914,"12":2915,"holding":2916,"bowl":2917,"##land":2918,"##sh":2919,"distance":2920,"foot":2921,"squ":2922,"art":2923,"ret":2924,"plate":2925,"camera":2926,"##ken":2927,"number":2928,"done":2929,"ext":2930,"president":2931,"late":2932,"##ider":2933,"##ner":2934,"hum":2935,"miss":2936,"scre":2937,"##illion":2938,"hey":2939,"fam":2940,"place":2941,"getting":2942,"won":2943,"door":2944,"piz":2945,"enough":2946,"sever":2947,"main":2948,"elephant":2949,"told":2950,"##urt":2951,"support":2952,"least":2953,"block":2954,"government":2955,"yet":2956,"post":2957,"nothing":2958,"win":2959,"drink":2960,"during":2961,"##cess":2962,"friend":2963,"##stem":2964,"police":2965,"foll":2966,"##aim":2967,"piece":2968,"pass":2969,"love":2970,"making":2971,"##body":2972,"snow":2973,"fire":2974,"##ana":2975,"hands":2976,"several":2977,"dress":2978,"##ared":2979,"playing":2980,"sleep":2981,"thought":2982,"mem":2983,"det":2984,"##rib":2985,"##ism":2986,"shorts":2987,"##ists":2988,"##min":2989,"cloudy":2990,"record":2991,"public":2992,"##ices":2993,"move":2994,"pizza":2995,"##oy":2996,"happened":2997,"cor":2998,"chr":2999,"pop":3000,"##con":3001,"##uss":3002,"break":3003,"##amp":3004,"fore":3005,"##ored":3006,"##med":3007,"##bers":3008,"whole":3009,"anything":3010,"mot":3011,"pen":3012,"##ina":3013,"push":3014,"sort":3015,"either":3016,"quest":3017,"cars":3018,"##ines":3019,"gener":3020,"##ball":3021,"15":3022,"system":3023,"corner":3024,"coun":3025,"##ense":3026,"##board":3027,"bring":3028,"##ling":3029,"daytime":3030,"dirt":3031,"ra":3032,"five":3033,"fact":3034,"toget":3035,"together":3036,"job":3037,"compan":3038,"draw":3039,"later":3040,"stuff":3041,"giraff":3042,"stop":3043,"##ished":3044,"view":3045,"prov":3046,"inf":3047,"month":3048,"best":3049,"almost":3050,"bag":3051,"women":3052,"direct":3053,"par":3054,"purple":3055,"eas":3056,"ge":3057,"pri":3058,"##ways":3059,"player":3060,"phone":3061,"jacket":3062,"##att":3063,"window":3064,"doll":3065,"stud":3066,"size":3067,"##ator":3068,"wow":3069,"##key":3070,"bye":3071,"money":3072,"power":3073,"polit":3074,"##ired":3075,"rock":3076,"feet":3077,"coming":3078,"##room":3079,"prot":3080,"##ots":3081,"##bra":3082,"##ige":3083,"pull":3084,"##ution":3085,"##ister":3086,"##velop":3087,"##less":3088,"mostly":3089,"road":3090,"pu":3091,"##iam":3092,"##iting":3093,"exper":3094,"##ient":3095,"trump":3096,"catch":3097,"idea":3098,"nor":3099,"design":3100,"##ror":3101,"tree":3102,"came":3103,"##ages":3104,"bike":3105,"##ains":3106,"morn":3107,"##els":3108,"develop":3109,"40":3110,"ones":3111,"life":3112,"cake":3113,"disc":3114,"11":3115,"cal":3116,"##pper":3117,"##ready":3118,"already":3119,"morning":3120,"unt":3121,"##do":3122,"tom":3123,"image":3124,"camp":3125,"##str":3126,"area":3127,"plan":3128,"##aur":3129,"expl":3130,"contin":3131,"opp":3132,"bad":3133,"adult":3134,"mus":3135,"##by":3136,"iss":3137,"stick":3138,"group":3139,"##oun":3140,"##cast":3141,"##ives":3142,"ent":3143,"stay":3144,"strip":3145,"without":3146,"##uc":3147,"court":3148,"hell":3149,"din":3150,"##uit":3151,"zebra":3152,"##iness":3153,"##ience":3154,"clos":3155,"comple":3156,"commun":3157,"possib":3158,"interest":3159,"##gy":3160,"party":3161,"dep":3162,"contro":3163,"comes":3164,"fil":3165,"fema":3166,"suit":3167,"giraffe":3168,"ann":3169,"apple":3170,"gi":3171,"female":3172,"mr":3173,"##ries":3174,"uni":3175,"case":3176,"aw":3177,"board":3178,"past":3179,"##ned":3180,"##cent":3181,"adv":3182,"##ically":3183,"prof":3184,"country":3185,"tech":3186,"##owers":3187,"free":3188,"ten":3189,"##me":3190,"tall":3191,"line":3192,"proble":3193,"pet":3194,"mic":3195,"##ho":3196,"pos":3197,"##und":3198,"000":3199,"sweet":3200,"##hip":3201,"fix":3202,"##alth":3203,"av":3204,"loc":3205,"saw":3206,"cheese":3207,"eating":3208,"invest":3209,"##sc":3210,"##iding":3211,"milk":3212,"##bre":3213,"intern":3214,"##uce":3215,"boat":3216,"however":3217,"news":3218,"##cl":3219,"50":3220,"pain":3221,"pat":3222,"aren":3223,"mouth":3224,"##ts":3225,"##aug":3226,"cir":3227,"round":3228,"always":3229,"kitt":3230,"##ted":3231,"gold":3232,"beige":3233,"american":3234,"##ta":3235,"18":3236,"hear":3237,"having":3238,"someone":3239,"##ouch":3240,"whe":3241,"har":3242,"sol":3243,"mod":3244,"##ten":3245,"animals":3246,"##ides":3247,"change":3248,"couple":3249,"took":3250,"medium":3251,"using":3252,"##ention":3253,"pay":3254,"##aves":3255,"fish":3256,"##thers":3257,"##view":3258,"tow":3259,"##ected":3260,"duck":3261,"jeans":3262,"sal":3263,"trying":3264,"states":3265,"partic":3266,"requ":3267,"until":3268,"walk":3269,"less":3270,"sound":3271,"chick":3272,"##ature":3273,"field":3274,"business":3275,"store":3276,"accord":3277,"others":3278,"serv":3279,"##ety":3280,"##ital":3281,"couch":3282,"arm":3283,"##ster":3284,"elect":3285,"fur":3286,"##ision":3287,"test":3288,"taking":3289,"press":3290,"mult":3291,"appear":3292,"bun":3293,"##que":3294,"ce":3295,"sum":3296,"##ately":3297,"##ik":3298,"ir":3299,"type":3300,"sor":3301,"level":3302,"##ology":3303,"form":3304,"##row":3305,"land":3306,"quite":3307,"cloth":3308,"##illy":3309,"season":3310,"##stand":3311,"val":3312,"dat":3313,"class":3314,"mess":3315,"eyes":3316,"boo":3317,"above":3318,"##iver":3319,"times":3320,"coff":3321,"lap":3322,"leave":3323,"including":3324,"according":3325,"import":3326,"children":3327,"cond":3328,"everything":3329,"##rent":3330,"##acks":3331,"base":3332,"id":3333,"##zz":3334,"##ised":3335,"buy":3336,"possibly":3337,"result":3338,"lear":3339,"roll":3340,"hello":3341,"exam":3342,"##conom":3343,"cert":3344,"da":3345,"##lla":3346,"jump":3347,"product":3348,"sorry":3349,"percent":3350,"##ura":3351,"bright":3352,"once":3353,"throw":3354,"egg":3355,"##hn":3356,"##pping":3357,"cost":3358,"walking":3359,"##top":3360,"sheep":3361,"makes":3362,"##bs":3363,"ca":3364,"cream":3365,"25":3366,"recent":3367,"tv":3368,"econom":3369,"##wich":3370,"yep":3371,"auth":3372,"coffee":3373,"vi":3374,"hit":3375,"##ung":3376,"funny":3377,"var":3378,"incre":3379,"inform":3380,"star":3381,"del":3382,"blond":3383,"grand":3384,"##aps":3385,"##wards":3386,"##gram":3387,"pig":3388,"##ming":3389,"along":3390,"national":3391,"techn":3392,"million":3393,"six":3394,"key":3395,"##line":3396,"batter":3397,"working":3398,"buildings":3399,"able":3400,"##ral":3401,"minute":3402,"touch":3403,"appro":3404,"##ato":3405,"happy":3406,"metal":3407,"sandwich":3408,"saying":3409,"office":3410,"juice":3411,"##gress":3412,"spec":3413,"##atur":3414,"bir":3415,"rese":3416,"exc":3417,"##ased":3418,"oo":3419,"research":3420,"bath":3421,"william":3422,"##where":3423,"##ined":3424,"##pr":3425,"christ":3426,"blur":3427,"family":3428,"##used":3429,"counter":3430,"rain":3431,"spr":3432,"##phone":3433,"order":3434,"umbre":3435,"##ged":3436,"effect":3437,"across":3438,"net":3439,"eur":3440,"health":3441,"maj":3442,"step":3443,"based":3444,"##ases":3445,"20s":3446,"mag":3447,"prom":3448,"current":3449,"flowers":3450,"##ony":3451,"##ially":3452,"overcast":3453,"##ew":3454,"##ency":3455,"john":3456,"check":3457,"page":3458,"chang":3459,"program":3460,"lay":3461,"er":3462,"fair":3463,"wooden":3464,"##ald":3465,"lab":3466,"sen":3467,"##ls":3468,"shoes":3469,"present":3470,"##icy":3471,"living":3472,"days":3473,"glasses":3474,"mother":3475,"13":3476,"means":3477,"company":3478,"##anc":3479,"card":3480,"##tain":3481,"nose":3482,"##ones":3483,"talking":3484,"##ops":3485,"##unk":3486,"cold":3487,"##inal":3488,"motor":3489,"body":3490,"hurt":3491,"question":3492,"##idge":3493,"live":3494,"hist":3495,"whoo":3496,"clock":3497,"super":3498,"##gle":3499,"organ":3500,"market":3501,"screen":3502,"##ret":3503,"prev":3504,"windows":3505,"fence":3506,"ger":3507,"major":3508,"##tern":3509,"aver":3510,"project":3511,"##let":3512,"consider":3513,"birth":3514,"##ob":3515,"##ided":3516,"wants":3517,"sar":3518,"##aph":3519,"laura":3520,"asked":3521,"plane":3522,"certain":3523,"tax":3524,"##ocr":3525,"wanted":3526,"vide":3527,"14":3528,"human":3529,"mama":3530,"players":3531,"est":3532,"mir":3533,"third":3534,"wasn":3535,"tot":3536,"##ale":3537,"donut":3538,"united":3539,"fav":3540,"##atic":3541,"aff":3542,"dro":3543,"indo":3544,"shall":3545,"ham":3546,"##ey":3547,"fight":3548,"important":3549,"understand":3550,"fing":3551,"shot":3552,"kitch":3553,"##icle":3554,"##ife":3555,"univers":3556,"ice":3557,"##gin":3558,"bottle":3559,"process":3560,"##iling":3561,"games":3562,"gone":3563,"kitchen":3564,"16":3565,"##ggie":3566,"foc":3567,"##oof":3568,"##dd":3569,"thre":3570,"ant":3571,"##ugg":3572,"helm":3573,"fre":3574,"hour":3575,"##ional":3576,"##ude":3577,"facing":3578,"rece":3579,"##ppy":3580,"##ians":3581,"low":3582,"##ences":3583,"words":3584,"##mi":3585,"data":3586,"umbrella":3587,"books":3588,"fro":3589,"##ether":3590,"##ef":3591,"regular":3592,"blonde":3593,"gar":3594,"meet":3595,"word":3596,"fly":3597,"author":3598,"age":3599,"likely":3600,"port":3601,"##itor":3602,"lower":3603,"space":3604,"special":3605,"hang":3606,"matter":3607,"york":3608,"##ration":3609,"##bit":3610,"return":3611,"song":3612,"##oli":3613,"##go":3614,"##ocol":3615,"toys":3616,"##ief":3617,"##son":3618,"course":3619,"##iny":3620,"letter":3621,"taken":3622,"write":3623,"tape":3624,"##arent":3625,"ins":3626,"aftern":3627,"##avy":3628,"##illed":3629,"claim":3630,"democr":3631,"clim":3632,"clouds":3633,"cookie":3634,"##ior":3635,"##ges":3636,"rom":3637,"non":3638,"##une":3639,"equ":3640,"closed":3641,"fig":3642,"afternoon":3643,"##ract":3644,"prop":3645,"older":3646,"mount":3647,"deb":3648,"political":3649,"##work":3650,"oper":3651,"bill":3652,"fed":3653,"fund":3654,"legs":3655,"##ered":3656,"##aw":3657,"wrong":3658,"hill":3659,"opt":3660,"bench":3661,"information":3662,"bur":3663,"twent":3664,"possible":3665,"covered":3666,"engine":3667,"ur":3668,"norm":3669,"##lex":3670,"kids":3671,"##utes":3672,"animal":3673,"##erv":3674,"problem":3675,"##astic":3676,"writing":3677,"##ering":3678,"colored":3679,"instead":3680,"##sel":3681,"mix":3682,"occ":3683,"##ying":3684,"social":3685,"tick":3686,"official":3687,"former":3688,"##acy":3689,"carr":3690,"needs":3691,"micro":3692,"average":3693,"pan":3694,"colors":3695,"careful":3696,"##ern":3697,"choo":3698,"blurry":3699,"strong":3700,"north":3701,"##ories":3702,"ahead":3703,"##ising":3704,"199":3705,"banana":3706,"2nd":3707,"##aut":3708,"listen":3709,"##eth":3710,"media":3711,"whether":3712,"##aign":3713,"surf":3714,"cell":3715,"fell":3716,"running":3717,"fit":3718,"deal":3719,"sweetie":3720,"campaign":3721,"##ploy":3722,"##urs":3723,"beach":3724,"birthday":3725,"event":3726,"sarah":3727,"vot":3728,"yay":3729,"arg":3730,"lit":3731,"europe":3732,"##book":3733,"##ury":3734,"##owed":3735,"often":3736,"##airs":3737,"##ained":3738,"pract":3739,"bunny":3740,"summer":3741,"mind":3742,"sour":3743,"republic":3744,"match":3745,"lett":3746,"hope":3747,"pic":3748,"quick":3749,"silly":3750,"rather":3751,"become":3752,"kiss":3753,"##ler":3754,"chocol":3755,"dirty":3756,"17":3757,"##od":3758,"clothes":3759,"##ality":3760,"adam":3761,"priv":3762,"outdo":3763,"seem":3764,"trad":3765,"dou":3766,"below":3767,"##artment":3768,"tele":3769,"bread":3770,"##ued":3771,"##ison":3772,"butter":3773,"hy":3774,"chocolate":3775,"##ensive":3776,"eight":3777,"leaves":3778,"tie":3779,"reason":3780,"favor":3781,"##ators":3782,"comput":3783,"den":3784,"blank":3785,"desk":3786,"ride":3787,"##lish":3788,"soon":3789,"cho":3790,"months":3791,"ooh":3792,"##raft":3793,"perform":3794,"##ummy":3795,"tail":3796,"sometimes":3797,"##cut":3798,"laptop":3799,"wond":3800,"music":3801,"square":3802,"crit":3803,"##nding":3804,"lim":3805,"sink":3806,"dev":3807,"kittie":3808,"fut":3809,"started":3810,"cry":3811,"conn":3812,"indoors":3813,"es":3814,"##aster":3815,"comb":3816,"##ley":3817,"##ured":3818,"gave":3819,"video":3820,"##aking":3821,"shad":3822,"nap":3823,"row":3824,"sou":3825,"##idence":3826,"defin":3827,"ross":3828,"friends":3829,"sam":3830,"mov":3831,"further":3832,"##ene":3833,"moder":3834,"##pty":3835,"mal":3836,"brocc":3837,"vers":3838,"study":3839,"sto":3840,"wear":3841,"complete":3842,"activ":3843,"yourself":3844,"##orts":3845,"##cil":3846,"##ift":3847,"ago":3848,"secur":3849,"whoops":3850,"##ential":3851,"dom":3852,"turned":3853,"toile":3854,"viol":3855,"helmet":3856,"fast":3857,"known":3858,"pictures":3859,"bank":3860,"##gest":3861,"orig":3862,"##ified":3863,"enter":3864,"##iously":3865,"among":3866,"##uary":3867,"within":3868,"##ilar":3869,"sent":3870,"##af":3871,"single":3872,"tur":3873,"bush":3874,"colle":3875,"##ization":3876,"seat":3877,"supposed":3878,"slee":3879,"given":3880,"restaur":3881,"ru":3882,"##sw":3883,"brick":3884,"veh":3885,"30s":3886,"local":3887,"rad":3888,"##eral":3889,"chicken":3890,"motorcy":3891,"##amed":3892,"deep":3893,"00":3894,"guys":3895,"mirror":3896,"bare":3897,"bi":3898,"100":3899,"##itions":3900,"signs":3901,"south":3902,"soft":3903,"##iel":3904,"profess":3905,"##ables":3906,"desc":3907,"university":3908,"broccoli":3909,"seven":3910,"##0s":3911,"tar":3912,"##tt":3913,"putting":3914,"##ov":3915,"swim":3916,"ident":3917,"##ccess":3918,"everyone":3919,"mouse":3920,"spo":3921,"closest":3922,"toilet":3923,"cy":3924,"general":3925,"reach":3926,"##walk":3927,"ill":3928,"grow":3929,"entire":3930,"bat":3931,"dish":3932,"##eng":3933,"dav":3934,"##light":3935,"pack":3936,"##ection":3937,"exact":3938,"stra":3939,"watching":3940,"lights":3941,"alex":3942,"rele":3943,"stat":3944,"obama":3945,"cause":3946,"##mber":3947,"edge":3948,"following":3949,"pub":3950,"milit":3951,"example":3952,"particular":3953,"##lect":3954,"wild":3955,"##itter":3956,"spoon":3957,"security":3958,"members":3959,"circ":3960,"##aught":3961,"true":3962,"cross":3963,"fail":3964,"indust":3965,"doggie":3966,"washing":3967,"##ks":3968,"anyone":3969,"doct":3970,"lost":3971,"##ches":3972,"##empt":3973,"##umb":3974,"##ague":3975,"##uction":3976,"numbers":3977,"similar":3978,"future":3979,"compet":3980,"beaut":3981,"canad":3982,"attack":3983,"investig":3984,"pill":3985,"coat":3986,"tra":3987,"cool":3988,"hors":3989,"##nes":3990,"sugg":3991,"##aces":3992,"cand":3993,"rul":3994,"##ites":3995,"cab":3996,"control":3997,"##ney":3998,"##par":3999,"bell":4000,"community":4001,"##haps":4002,"spot":4003,"##ivid":4004,"perhaps":4005,"suggest":4006,"minutes":4007,"addition":4008,"##ument":4009,"sex":4010,"##ume":4011,"success":4012,"typ":4013,"anal":4014,"share":4015,"announ":4016,"wouldn":4017,"##lo":4018,"eth":4019,"##port":4020,"toy":4021,"##ipe":4022,"alone":4023,"##ortun":4024,"dead":4025,"gotta":4026,"walls":4027,"##itive":4028,"catcher":4029,"except":4030,"track":4031,"##soci":4032,"paul":4033,"striped":4034,"gets":4035,"eye":4036,"ow":4037,"const":4038,"russ":4039,"bask":4040,"german":4041,"restaurant":4042,"##iff":4043,"america":4044,"##erence":4045,"vict":4046,"finish":4047,"dre":4048,"vo":4049,"##iving":4050,"##reme":4051,"##fl":4052,"alth":4053,"heart":4054,"reported":4055,"although":4056,"individ":4057,"gun":4058,"proper":4059,"rob":4060,"plant":4061,"mich":4062,"service":4063,"empty":4064,"##cially":4065,"van":4066,"##com":4067,"ener":4068,"history":4069,"poor":4070,"series":4071,"associ":4072,"pieces":4073,"sized":4074,"##unt":4075,"scr":4076,"whoa":4077,"bunch":4078,"mass":4079,"##ze":4080,"##ips":4081,"##por":4082,"##fast":4083,"wash":4084,"##lin":4085,"town":4086,"tor":4087,"##ware":4088,"wide":4089,"invol":4090,"et":4091,"carry":4092,"##rest":4093,"issue":4094,"straight":4095,"whose":4096,"secret":4097,"wee":4098,"international":4099,"hon":4100,"pal":4101,"##case":4102,"##ails":4103,"lang":4104,"peek":4105,"sidewalk":4106,"impro":4107,"jud":4108,"oops":4109,"tit":4110,"zoo":4111,"sty":4112,"avail":4113,"##selves":4114,"##cket":4115,"standard":4116,"drive":4117,"begin":4118,"brush":4119,"abe":4120,"repres":4121,"points":4122,"button":4123,"scient":4124,"policy":4125,"##vert":4126,"##ried":4127,"21":4128,"plastic":4129,"##app":4130,"huge":4131,"god":4132,"##ilt":4133,"tem":4134,"##kin":4135,"sat":4136,"easy":4137,"bang":4138,"meas":4139,"blocks":4140,"##ourn":4141,"##icult":4142,"chur":4143,"total":4144,"dam":4145,"##ript":4146,"father":4147,"goo":4148,"2016":4149,"env":4150,"##ully":4151,"west":4152,"mill":4153,"frame":4154,"##ulation":4155,"crow":4156,"added":4157,"san":4158,"##ances":4159,"tea":4160,"played":4161,"answ":4162,"naim":4163,"ris":4164,"##osaur":4165,"computer":4166,"himself":4167,"king":4168,"nomi":4169,"##iger":4170,"##what":4171,"aust":4172,"meat":4173,"naima":4174,"china":4175,"works":4176,"breakfast":4177,"soci":4178,"football":4179,"cult":4180,"roman":4181,"foreign":4182,"mach":4183,"due":4184,"wed":4185,"aud":4186,"band":4187,"dry":4188,"ep":4189,"##ha":4190,"death":4191,"somewhat":4192,"difficult":4193,"##ination":4194,"##ager":4195,"contain":4196,"abs":4197,"driver":4198,"ski":4199,"##iday":4200,"ring":4201,"rich":4202,"##graph":4203,"slight":4204,"cop":4205,"mat":4206,"object":4207,"mer":4208,"normal":4209,"sad":4210,"##play":4211,"hop":4212,"hung":4213,"amount":4214,"motorcycle":4215,"discuss":4216,"fruit":4217,"capt":4218,"focus":4219,"cust":4220,"hall":4221,"birds":4222,"warm":4223,"##zy":4224,"##inc":4225,"reading":4226,"rab":4227,"##lished":4228,"##oop":4229,"##ived":4230,"chairs":4231,"modern":4232,"ted":4233,"tool":4234,"beautif":4235,"basket":4236,"##nis":4237,"##amb":4238,"neck":4239,"teen":4240,"link":4241,"federal":4242,"hig":4243,"energy":4244,"##ires":4245,"learn":4246,"wonder":4247,"tiny":4248,"imm":4249,"happens":4250,"##come":4251,"earl":4252,"22":4253,"ut":4254,"thom":4255,"##anas":4256,"##icles":4257,"infl":4258,"##akes":4259,"haven":4260,"edit":4261,"account":4262,"surpr":4263,"tile":4264,"vase":4265,"item":4266,"itself":4267,"moving":4268,"feed":4269,"##minist":4270,"##gs":4271,"employ":4272,"price":4273,"##rod":4274,"movie":4275,"available":4276,"##itely":4277,"somebody":4278,"upd":4279,"##nel":4280,"stripes":4281,"towards":4282,"twitter":4283,"action":4284,"access":4285,"military":4286,"lou":4287,"stuck":4288,"##uced":4289,"hous":4290,"film":4291,"june":4292,"div":4293,"relig":4294,"exe":4295,"favorite":4296,"league":4297,"##ended":4298,"upper":4299,"brit":4300,"2015":4301,"outdoors":4302,"patter":4303,"##ission":4304,"shows":4305,"speak":4306,"langu":4307,"ol":4308,"##ply":4309,"rights":4310,"heard":4311,"thanks":4312,"##acter":4313,"phys":4314,"wine":4315,"##to":4316,"chin":4317,"church":4318,"init":4319,"yester":4320,"development":4321,"cas":4322,"wet":4323,"yesterday":4324,"bite":4325,"que":4326,"##ron":4327,"club":4328,"specific":4329,"doc":4330,"attempt":4331,"##een":4332,"finished":4333,"flower":4334,"exactly":4335,"fine":4336,"##fully":4337,"24":4338,"higher":4339,"##ability":4340,"conv":4341,"committ":4342,"beautiful":4343,"experience":4344,"department":4345,"liber":4346,"rub":4347,"##for":4348,"##ural":4349,"bananas":4350,"wheel":4351,"##iron":4352,"baseball":4353,"lunch":4354,"stone":4355,"jan":4356,"##aged":4357,"rac":4358,"##gl":4359,"bigger":4360,"boys":4361,"washington":4362,"##got":4363,"##use":4364,"natur":4365,"##ax":4366,"self":4367,"oil":4368,"traff":4369,"2014":4370,"vol":4371,"bud":4372,"##back":4373,"fairly":4374,"espe":4375,"##ii":4376,"couldn":4377,"broken":4378,"especially":4379,"desp":4380,"benef":4381,"dude":4382,"##gar":4383,"##ently":4384,"exist":4385,"clint":4386,"peter":4387,"position":4388,"goodness":4389,"led":4390,"deter":4391,"##ru":4392,"kinda":4393,"interview":4394,"wrote":4395,"definitely":4396,"gas":4397,"kick":4398,"cray":4399,"educ":4400,"parked":4401,"letters":4402,"takes":4403,"##iple":4404,"blanket":4405,"circle":4406,"economic":4407,"environ":4408,"teeth":4409,"station":4410,"wel":4411,"continue":4412,"##iet":4413,"##uation":4414,"repl":4415,"countries":4416,"simply":4417,"max":4418,"smaller":4419,"college":4420,"tast":4421,"custom":4422,"35":4423,"bal":4424,"rev":4425,"slice":4426,"##osp":4427,"civ":4428,"sund":4429,"final":4430,"crack":4431,"network":4432,"lat":4433,"lives":4434,"##rael":4435,"tank":4436,"race":4437,"thirt":4438,"note":4439,"moment":4440,"fan":4441,"##aching":4442,"interesting":4443,"tennis":4444,"oct":4445,"##ands":4446,"mel":4447,"thinking":4448,"jose":4449,"dig":4450,"##rete":4451,"arms":4452,"flat":4453,"##sy":4454,"israel":4455,"##enc":4456,"target":4457,"mine":4458,"administ":4459,"##uel":4460,"##ective":4461,"election":4462,"signific":4463,"geor":4464,"clinton":4465,"##ael":4466,"clearly":4467,"airpl":4468,"earlier":4469,"riding":4470,"glob":4471,"finger":4472,"forward":4473,"sense":4474,"david":4475,"##orrow":4476,"2017":4477,"##ij":4478,"advert":4479,"longer":4480,"nine":4481,"##asing":4482,"kill":4483,"smiling":4484,"ran":4485,"##bb":4486,"##aniel":4487,"represent":4488,"pretend":4489,"girls":4490,"##he":4491,"##aid":4492,"##ify":4493,"hours":4494,"##mon":4495,"evidence":4496,"thomas":4497,"review":4498,"concrete":4499,"figure":4500,"##rench":4501,"issues":4502,"dinner":4503,"dinosaur":4504,"lines":4505,"parent":4506,"##ault":4507,"constr":4508,"unif":4509,"march":4510,"common":4511,"ver":4512,"minister":4513,"director":4514,"plain":4515,"uk":4516,"coach":4517,"198":4518,"force":4519,"barely":4520,"held":4521,"knife":4522,"relations":4523,"ton":4524,"dest":4525,"dra":4526,"chall":4527,"showing":4528,"##oom":4529,"cute":4530,"cookies":4531,"tomato":4532,"brought":4533,"tired":4534,"students":4535,"oce":4536,"visit":4537,"##more":4538,"##den":4539,"##han":4540,"looked":4541,"bes":4542,"##pet":4543,"character":4544,"##ott":4545,"companies":4546,"eggs":4547,"environment":4548,"role":4549,"agree":4550,"farm":4551,"##anger":4552,"launch":4553,"dogs":4554,"##ask":4555,"medic":4556,"express":4557,"cast":4558,"stories":4559,"##itten":4560,"crowd":4561,"fel":4562,"nation":4563,"pap":4564,"parking":4565,"##attle":4566,"bull":4567,"term":4568,"questions":4569,"##omes":4570,"##auc":4571,"spring":4572,"pattern":4573,"fork":4574,"conserv":4575,"language":4576,"##mb":4577,"likes":4578,"weeks":4579,"respons":4580,"model":4581,"billion":4582,"waiting":4583,"create":4584,"yours":4585,"##cks":4586,"knew":4587,"expect":4588,"mor":4589,"slightly":4590,"carrots":4591,"knock":4592,"##read":4593,"sunday":4594,"usually":4595,"print":4596,"driving":4597,"doctor":4598,"fres":4599,"themselves":4600,"2013":4601,"legal":4602,"suitcase":4603,"adults":4604,"river":4605,"sell":4606,"traffic":4607,"began":4608,"needed":4609,"source":4610,"mis":4611,"mac":4612,"vari":4613,"mater":4614,"##ili":4615,"##angle":4616,"version":4617,"##lection":4618,"##fer":4619,"##eds":4620,"stove":4621,"enc":4622,"2012":4623,"uniform":4624,"article":4625,"private":4626,"candid":4627,"teddy":4628,"despite":4629,"vote":4630,"##aming":4631,"oppos":4632,"site":4633,"separ":4634,"personal":4635,"pitch":4636,"##mas":4637,"ocean":4638,"##gn":4639,"##apan":4640,"treat":4641,"##ees":4642,"hosp":4643,"subject":4644,"shirts":4645,"decision":4646,"technology":4647,"leaders":4648,"##eg":4649,"congress":4650,"became":4651,"japan":4652,"champ":4653,"civil":4654,"shown":4655,"suff":4656,"intell":4657,"perf":4658,"terror":4659,"##ino":4660,"shut":4661,"##ival":4662,"##ett":4663,"hanging":4664,"noise":4665,"##ises":4666,"##zen":4667,"related":4668,"bridge":4669,"mad":4670,"recently":4671,"slow":4672,"follow":4673,"hungry":4674,"global":4675,"significant":4676,"mur":4677,"poll":4678,"microphone":4679,"society":4680,"heavy":4681,"content":4682,"28":4683,"yup":4684,"##oots":4685,"sold":4686,"hund":4687,"earth":4688,"cit":4689,"##rict":4690,"text":4691,"facebook":4692,"sleeping":4693,"anti":4694,"sna":4695,"##ding":4696,"##atures":4697,"various":4698,"rabbit":4699,"laying":4700,"puzz":4701,"services":4702,"##arter":4703,"value":4704,"tight":4705,"broad":4706,"moon":4707,"##ula":4708,"##ogn":4709,"monitor":4710,"apart":4711,"skate":4712,"tower":4713,"airplane":4714,"east":4715,"##pend":4716,"friday":4717,"click":4718,"sept":4719,"built":4720,"##cover":4721,"son":4722,"##yn":4723,"beer":4724,"##apes":4725,"cred":4726,"protest":4727,"parts":4728,"include":4729,"neigh":4730,"##ging":4731,"##wood":4732,"inj":4733,"##aboo":4734,"dressed":4735,"nearly":4736,"calif":4737,"##oint":4738,"search":4739,"brother":4740,"groups":4741,"ba":4742,"htt":4743,"##ucture":4744,"wheels":4745,"23":4746,"potential":4747,"giving":4748,"##pack":4749,"release":4750,"email":4751,"mond":4752,"##onse":4753,"##ades":4754,"faces":4755,"bathroom":4756,"natural":4757,"60":4758,"handle":4759,"drug":4760,"chief":4761,"prim":4762,"statement":4763,"style":4764,"##iles":4765,"provide":4766,"hole":4767,"recogn":4768,"joseph":4769,"changes":4770,"flor":4771,"everybody":4772,"teams":4773,"lily":4774,"tri":4775,"shape":4776,"goal":4777,"##istic":4778,"finan":4779,"accept":4780,"brand":4781,"hol":4782,"boom":4783,"extreme":4784,"mail":4785,"serious":4786,"staff":4787,"popular":4788,"science":4789,"regard":4790,"instit":4791,"du":4792,"quack":4793,"##ological":4794,"tomorrow":4795,"execut":4796,"completely":4797,"online":4798,"##ental":4799,"butt":4800,"straw":4801,"guard":4802,"inde":4803,"threat":4804,"host":4805,"function":4806,"##ateg":4807,"arch":4808,"results":4809,"##ribut":4810,"##hood":4811,"emer":4812,"jer":4813,"sauce":4814,"officials":4815,"nut":4816,"##lam":4817,"problems":4818,"material":4819,"defense":4820,"adm":4821,"laws":4822,"released":4823,"mc":4824,"response":4825,"cart":4826,"currently":4827,"##roll":4828,"puppy":4829,"obs":4830,"industry":4831,"cases":4832,"unf":4833,"address":4834,"christmas":4835,"perio":4836,"##ining":4837,"opportun":4838,"moo":4839,"somewhere":4840,"##eter":4841,"babies":4842,"smart":4843,"blow":4844,"##aving":4845,"##iced":4846,"ul":4847,"teens":4848,"describ":4849,"display":4850,"rocks":4851,"##bed":4852,"##aced":4853,"plat":4854,"monkey":4855,"decl":4856,"journ":4857,"jen":4858,"nu":4859,"tim":4860,"##rel":4861,"##asons":4862,"##ston":4863,"blood":4864,"finally":4865,"commer":4866,"monday":4867,"enj":4868,"sweater":4869,"##ength":4870,"michael":4871,"los":4872,"pin":4873,"##lim":4874,"webs":4875,"nath":4876,"##over":4877,"##atives":4878,"correct":4879,"particip":4880,"perfect":4881,"##set":4882,"fresh":4883,"##ril":4884,"quickly":4885,"satur":4886,"ways":4887,"aug":4888,"##bor":4889,"hur":4890,"multi":4891,"yard":4892,"tried":4893,"pred":4894,"twenty":4895,"27":4896,"peekaboo":4897,"gosh":4898,"##anta":4899,"cabin":4900,"india":4901,"published":4902,"introd":4903,"remain":4904,"swing":4905,"sounds":4906,"##men":4907,"##spect":4908,"hospital":4909,"backpack":4910,"created":4911,"welcome":4912,"tues":4913,"meant":4914,"wire":4915,"tuesday":4916,"197":4917,"practice":4918,"45":4919,"respond":4920,"##ppers":4921,"afric":4922,"challen":4923,"republican":4924,"austral":4925,"californ":4926,"ach":4927,"sugar":4928,"veget":4929,"internet":4930,"plants":4931,"workers":4932,"##load":4933,"length":4934,"island":4935,"arri":4936,"evening":4937,"member":4938,"paint":4939,"partly":4940,"simple":4941,"ang":4942,"cutting":4943,"##medi":4944,"directly":4945,"slide":4946,"answer":4947,"mart":4948,"named":4949,"written":4950,"french":4951,"yog":4952,"##clear":4953,"nina":4954,"original":4955,"ble":4956,"twe":4957,"machine":4958,"toward":4959,"progress":4960,"imag":4961,"worked":4962,"ethan":4963,"leader":4964,"apples":4965,"starting":4966,"twenties":4967,"tub":4968,"##ushing":4969,"worth":4970,"##olution":4971,"scene":4972,"consum":4973,"capital":4974,"screw":4975,"approach":4976,"risk":4977,"growing":4978,"bump":4979,"##ners":4980,"donald":4981,"tooth":4982,"comment":4983,"journal":4984,"prep":4985,"americans":4986,"protect":4987,"tun":4988,"2011":4989,"travel":4990,"angle":4991,"tray":4992,"flag":4993,"doub":4994,"chinese":4995,"##ban":4996,"##epend":4997,"quarter":4998,"towel":4999,"administration":5000,"enjoy":5001,"recorder":5002,"felt":5003,"whatever":5004,"biggest":5005,"string":5006,"solid":5007,"islam":5008,"trou":5009,"spl":5010,"dece":5011,"announced":5012,"laug":5013,"range":5014,"woo":5015,"hood":5016,"##ring":5017,"196":5018,"tour":5019,"spell":5020,"##pire":5021,"european":5022,"web":5023,"missing":5024,"cro":5025,"26":5026,"fans":5027,"speed":5028,"weather":5029,"chance":5030,"safe":5031,"obv":5032,"##iled":5033,"allow":5034,"indic":5035,"independ":5036,"pump":5037,"anymore":5038,"rice":5039,"thous":5040,"##ept":5041,"cere":5042,"##stairs":5043,"pepper":5044,"fingers":5045,"influ":5046,"california":5047,"rug":5048,"##uth":5049,"trade":5050,"decided":5051,"grandma":5052,"flying":5053,"bey":5054,"##thern":5055,"september":5056,"reports":5057,"rules":5058,"wednes":5059,"saturday":5060,"april":5061,"wednesday":5062,"##ales":5063,"knows":5064,"impact":5065,"conference":5066,"carpet":5067,"necess":5068,"shoe":5069,"shar":5070,"lake":5071,"increase":5072,"##xic":5073,"contract":5074,"winter":5075,"##isy":5076,"meeting":5077,"education":5078,"immedi":5079,"instr":5080,"demand":5081,"financial":5082,"##val":5083,"plates":5084,"canada":5085,"##ilities":5086,"expected":5087,"ears":5088,"##ai":5089,"##ively":5090,"situation":5091,"refer":5092,"january":5093,"via":5094,"studies":5095,"certainly":5096,"path":5097,"asian":5098,"tradition":5099,"swimming":5100,"danger":5101,"pocket":5102,"99":5103,"pad":5104,"toast":5105,"images":5106,"skin":5107,"mountain":5108,"rack":5109,"fox":5110,"english":5111,"ess":5112,"sides":5113,"##ils":5114,"indian":5115,"complex":5116,"period":5117,"cra":5118,"##ked":5119,"partially":5120,"saf":5121,"lion":5122,"central":5123,"deliver":5124,"sea":5125,"users":5126,"##akers":5127,"##ucky":5128,"##riage":5129,"drinking":5130,"beyond":5131,"##berry":5132,"google":5133,"##ka":5134,"##fort":5135,"reve":5136,"trick":5137,"pole":5138,"platform":5139,"dan":5140,"shake":5141,"trunk":5142,"double":5143,"ira":5144,"##ba":5145,"bears":5146,"production":5147,"constit":5148,"british":5149,"unl":5150,"performance":5151,"individual":5152,"map":5153,"committee":5154,"vac":5155,"busy":5156,"keyboard":5157,"intellig":5158,"burn":5159,"metho":5160,"climate":5161,"horses":5162,"##oring":5163,"items":5164,"##bing":5165,"trip":5166,"sque":5167,"##isl":5168,"terms":5169,"puzzle":5170,"poo":5171,"bob":5172,"##box":5173,"##action":5174,"july":5175,"rate":5176,"##sey":5177,"##agon":5178,"disp":5179,"##coin":5180,"rect":5181,"2010":5182,"nar":5183,"nobody":5184,"##ients":5185,"##asses":5186,"movement":5187,"##ien":5188,"request":5189,"##anges":5190,"fully":5191,"loss":5192,"plans":5193,"arrest":5194,"training":5195,"officer":5196,"##da":5197,"surve":5198,"##izing":5199,"nathaniel":5200,"eve":5201,"extra":5202,"parents":5203,"und":5204,"confir":5205,"##uff":5206,"section":5207,"ber":5208,"cauc":5209,"names":5210,"##gu":5211,"weap":5212,"shower":5213,"areas":5214,"houses":5215,"##rupt":5216,"##bur":5217,"##oid":5218,"plaid":5219,"feature":5220,"chew":5221,"vehicles":5222,"advertise":5223,"relationship":5224,"##idents":5225,"contact":5226,"involved":5227,"##cing":5228,"bran":5229,"estim":5230,"trim":5231,"received":5232,"pillow":5233,"oven":5234,"libr":5235,"frank":5236,"ability":5237,"oink":5238,"legisl":5239,"##pa":5240,"thurs":5241,"neither":5242,"dollars":5243,"##cloth":5244,"##aped":5245,"upon":5246,"##ancing":5247,"lu":5248,"ry":5249,"estab":5250,"iraq":5251,"##ares":5252,"##ray":5253,"spin":5254,"electric":5255,"ult":5256,"thursday":5257,"applic":5258,"larger":5259,"multiple":5260,"dream":5261,"bord":5262,"grown":5263,"events":5264,"commercial":5265,"##bc":5266,"##atory":5267,"##ky":5268,"teach":5269,"scar":5270,"reflection":5271,"concern":5272,"choice":5273,"##nie":5274,"economy":5275,"##rd":5276,"killed":5277,"log":5278,"discover":5279,"##onstr":5280,"##ondon":5281,"40s":5282,"##asc":5283,"##mine":5284,"##rew":5285,"nove":5286,"##ica":5287,"council":5288,"particularly":5289,"tracks":5290,"##aked":5291,"belong":5292,"##off":5293,"quality":5294,"voice":5295,"overall":5296,"soup":5297,"##estern":5298,"december":5299,"sens":5300,"##fr":5301,"##ened":5302,"skirt":5303,"broke":5304,"ren":5305,"uns":5306,"officers":5307,"ny":5308,"##oke":5309,"allowed":5310,"spect":5311,"army":5312,"conduct":5313,"doo":5314,"london":5315,"century":5316,"professional":5317,"29":5318,"haw":5319,"##uments":5320,"attention":5321,"hun":5322,"##kend":5323,"crim":5324,"title":5325,"gro":5326,"matt":5327,"##ech":5328,"boats":5329,"aged":5330,"tex":5331,"considered":5332,"august":5333,"sick":5334,"##enger":5335,"tickle":5336,"telev":5337,"vir":5338,"terri":5339,"iran":5340,"date":5341,"career":5342,"mention":5343,"##ode":5344,"thin":5345,"changed":5346,"sleeve":5347,"pool":5348,"amaz":5349,"crash":5350,"wave":5351,"november":5352,"wish":5353,"beat":5354,"code":5355,"steel":5356,"prior":5357,"controll":5358,"growth":5359,"etc":5360,"absol":5361,"lift":5362,"compl":5363,"dim":5364,"opened":5365,"potato":5366,"radio":5367,"roof":5368,"##isc":5369,"lean":5370,"kinds":5371,"monster":5372,"minim":5373,"communic":5374,"additional":5375,"james":5376,"lad":5377,"medicine":5378,"file":5379,"forgot":5380,"magaz":5381,"surface":5382,"drop":5383,"fa":5384,"rand":5385,"##elly":5386,"##anda":5387,"plus":5388,"##rant":5389,"partial":5390,"included":5391,"##glasses":5392,"george":5393,"yummy":5394,"cele":5395,"skateboard":5396,"##gon":5397,"##aled":5398,"##imately":5399,"offer":5400,"vehicle":5401,"improve":5402,"casual":5403,"##verse":5404,"spread":5405,"##iction":5406,"cris":5407,"attach":5408,"##bi":5409,"##rection":5410,"corpor":5411,"sett":5412,"falling":5413,"bom":5414,"rough":5415,"assist":5416,"russia":5417,"##ipped":5418,"spent":5419,"diaper":5420,"website":5421,"boun":5422,"lack":5423,"none":5424,"santa":5425,"##arily":5426,"save":5427,"beginning":5428,"medical":5429,"purp":5430,"previous":5431,"stem":5432,"##itted":5433,"absolute":5434,"##20":5435,"##asian":5436,"syri":5437,"pencil":5438,"shoo":5439,"democratic":5440,"dance":5441,"##bert":5442,"message":5443,"citiz":5444,"##bow":5445,"##nger":5446,"##ham":5447,"repe":5448,"justice":5449,"resour":5450,"socks":5451,"behav":5452,"photos":5453,"tonight":5454,"phil":5455,"tablecloth":5456,"barn":5457,"celebr":5458,"vill":5459,"##mp":5460,"convers":5461,"calls":5462,"pour":5463,"##ober":5464,"disapp":5465,"reb":5466,"october":5467,"##hy":5468,"assume":5469,"daily":5470,"copy":5471,"##etic":5472,"sports":5473,"peace":5474,"##bon":5475,"##sa":5476,"##cer":5477,"require":5478,"connect":5479,"rid":5480,"quiet":5481,"county":5482,"weekend":5483,"ple":5484,"born":5485,"stopped":5486,"##force":5487,"ros":5488,"##band":5489,"##ties":5490,"##ero":5491,"agency":5492,"load":5493,"##oni":5494,"myself":5495,"dropped":5496,"ko":5497,"##ida":5498,"forces":5499,"user":5500,"analys":5501,"epis":5502,"telling":5503,"bug":5504,"remote":5505,"##ledge":5506,"frog":5507,"##itar":5508,"inn":5509,"anyway":5510,"dough":5511,"##ado":5512,"ange":5513,"calling":5514,"mist":5515,"younger":5516,"##zer":5517,"##iter":5518,"stage":5519,"##ibility":5520,"calm":5521,"##ession":5522,"caucasian":5523,"wife":5524,"##kins":5525,"##erson":5526,"##ker":5527,"##wise":5528,"shr":5529,"fris":5530,"intelligence":5531,"forget":5532,"##istan":5533,"iron":5534,"##ids":5535,"skill":5536,"difference":5537,"stripe":5538,"tools":5539,"document":5540,"television":5541,"mob":5542,"decor":5543,"fold":5544,"senate":5545,"safety":5546,"lol":5547,"sister":5548,"##fa":5549,"concept":5550,"spir":5551,"union":5552,"send":5553,"##aging":5554,"showed":5555,"reflect":5556,"2009":5557,"software":5558,"champions":5559,"fal":5560,"##uf":5561,"trust":5562,"marky":5563,"kept":5564,"neat":5565,"wake":5566,"leading":5567,"jobs":5568,"navy":5569,"##ga":5570,"select":5571,"##uses":5572,"shelf":5573,"gard":5574,"##ios":5575,"##craft":5576,"ate":5577,"sunglasses":5578,"majority":5579,"culture":5580,"immig":5581,"prem":5582,"happening":5583,"painted":5584,"hide":5585,"places":5586,"spots":5587,"muse":5588,"western":5589,"##acher":5590,"##enty":5591,"library":5592,"##rop":5593,"##usion":5594,"shoulder":5595,"switch":5596,"##field":5597,"features":5598,"horn":5599,"##iers":5600,"rail":5601,"stock":5602,"bitcoin":5603,"trucks":5604,"pressure":5605,"histor":5606,"defe":5607,"hiding":5608,"##omm":5609,"moved":5610,"manage":5611,"pee":5612,"forest":5613,"cru":5614,"speech":5615,"taste":5616,"32":5617,"die":5618,"##bee":5619,"turning":5620,"boots":5621,"caught":5622,"tal":5623,"turt":5624,"##ament":5625,"positive":5626,"victim":5627,"ding":5628,"esc":5629,"nature":5630,"setting":5631,"opportunity":5632,"autom":5633,"mike":5634,"rap":5635,"##gre":5636,"##erve":5637,"##ctions":5638,"dear":5639,"shadow":5640,"##rast":5641,"##ples":5642,"measure":5643,"budget":5644,"pm":5645,"doors":5646,"soap":5647,"2008":5648,"indeed":5649,"redd":5650,"guessing":5651,"garage":5652,"##uals":5653,"##berries":5654,"crying":5655,"turkey":5656,"fat":5657,"##cs":5658,"shel":5659,"schools":5660,"##ener":5661,"helped":5662,"freed":5663,"mixed":5664,"republicans":5665,"bought":5666,"covering":5667,"notice":5668,"commission":5669,"systems":5670,"executive":5671,"prison":5672,"hats":5673,"muslim":5674,"telephone":5675,"dut":5676,"lose":5677,"rt":5678,"##old":5679,"##orter":5680,"jumping":5681,"wer":5682,"onto":5683,"occur":5684,"carrot":5685,"museum":5686,"ital":5687,"beans":5688,"ship":5689,"spider":5690,"demonstr":5691,"liter":5692,"crayons":5693,"lamp":5694,"chest":5695,"politics":5696,"trouble":5697,"gives":5698,"delic":5699,"largest":5700,"germany":5701,"fill":5702,"psy":5703,"##sequ":5704,"smell":5705,"investigation":5706,"##gh":5707,"##ws":5708,"dar":5709,"wing":5710,"##ki":5711,"fridge":5712,"refr":5713,"effort":5714,"population":5715,"levels":5716,"http":5717,"battle":5718,"pair":5719,"##entially":5720,"imple":5721,"stands":5722,"kh":5723,"##ously":5724,"lock":5725,"hotel":5726,"property":5727,"latest":5728,"31":5729,"wii":5730,"ens":5731,"actual":5732,"##ification":5733,"cereal":5734,"bay":5735,"jam":5736,"kite":5737,"dozen":5738,"bushes":5739,"##round":5740,"sleepy":5741,"continued":5742,"mountains":5743,"psych":5744,"defend":5745,"effects":5746,"portion":5747,"critic":5748,"limited":5749,"##ara":5750,"alb":5751,"feeling":5752,"separate":5753,"ord":5754,"##atively":5755,"richard":5756,"magazine":5757,"##uing":5758,"##illa":5759,"grab":5760,"crime":5761,"update":5762,"tiss":5763,"##mark":5764,"##isions":5765,"dump":5766,"##aries":5767,"mech":5768,"achie":5769,"opening":5770,"hyd":5771,"caption":5772,"##mit":5773,"pupp":5774,"drawing":5775,"pulled":5776,"waves":5777,"##ca":5778,"brain":5779,"mexic":5780,"span":5781,"tend":5782,"bubb":5783,"voters":5784,"fift":5785,"patch":5786,"si":5787,"##ada":5788,"febr":5789,"install":5790,"meaning":5791,"500":5792,"der":5793,"lie":5794,"uses":5795,"3rd":5796,"comments":5797,"spokes":5798,"february":5799,"##oura":5800,"##aker":5801,"##hold":5802,"cows":5803,"shop":5804,"surround":5805,"religious":5806,"cash":5807,"mush":5808,"rout":5809,"##ube":5810,"##ette":5811,"umpire":5812,"district":5813,"basic":5814,"passenger":5815,"container":5816,"dolly":5817,"products":5818,"domin":5819,"secretary":5820,"paid":5821,"costs":5822,"implement":5823,"attacks":5824,"details":5825,"bon":5826,"loo":5827,"mary":5828,"seeing":5829,"##ceed":5830,"structure":5831,"reality":5832,"explain":5833,"##lines":5834,"weird":5835,"income":5836,"remains":5837,"salad":5838,"frequ":5839,"males":5840,"described":5841,"ign":5842,"recomm":5843,"spend":5844,"debate":5845,"physical":5846,"advertisement":5847,"woof":5848,"comfort":5849,"democrats":5850,"trail":5851,"grad":5852,"heads":5853,"accom":5854,"throughout":5855,"regul":5856,"neighbor":5857,"tables":5858,"##hib":5859,"apparent":5860,"attorn":5861,"cups":5862,"focused":5863,"propos":5864,"texas":5865,"freedom":5866,"eu":5867,"stars":5868,"leaving":5869,"purch":5870,"fixed":5871,"##ko":5872,"insp":5873,"cards":5874,"frost":5875,"immediately":5876,"lugg":5877,"mcc":5878,"##pan":5879,"reasons":5880,"##ension":5881,"required":5882,"sev":5883,"alle":5884,"inte":5885,"lob":5886,"glo":5887,"credit":5888,"kore":5889,"wil":5890,"##adem":5891,"sup":5892,"aunt":5893,"mars":5894,"hero":5895,"direction":5896,"condition":5897,"russian":5898,"scale":5899,"authority":5900,"eventually":5901,"thousands":5902,"command":5903,"golden":5904,"gay":5905,"##house":5906,"increasing":5907,"strugg":5908,"register":5909,"surv":5910,"organization":5911,"thus":5912,"candy":5913,"leaf":5914,"depend":5915,"easier":5916,"student":5917,"origin":5918,"ri":5919,"ww":5920,"##ford":5921,"##anut":5922,"##oming":5923,"chan":5924,"70":5925,"bicy":5926,"##ening":5927,"peanut":5928,"core":5929,"195":5930,"claims":5931,"lam":5932,"lying":5933,"construction":5934,"##nut":5935,"arab":5936,"associated":5937,"##che":5938,"queen":5939,"coo":5940,"##kn":5941,"altern":5942,"coal":5943,"tweet":5944,"##bage":5945,"asking":5946,"manager":5947,"##while":5948,"ideas":5949,"violence":5950,"doubt":5951,"##lly":5952,"beg":5953,"##oles":5954,"prec":5955,"interested":5956,"conditions":5957,"criminal":5958,"gal":5959,"##inary":5960,"##iture":5961,"ped":5962,"##thest":5963,"impress":5964,"roy":5965,"scen":5966,"contribut":5967,"subst":5968,"presidential":5969,"oranges":5970,"nuclear":5971,"truth":5972,"plenty":5973,"chris":5974,"learning":5975,"unit":5976,"opin":5977,"designed":5978,"vs":5979,"vest":5980,"anywhere":5981,"died":5982,"hammer":5983,"prime":5984,"rule":5985,"florida":5986,"analysis":5987,"draft":5988,"##head":5989,"clown":5990,"exch":5991,"refriger":5992,"hook":5993,"academ":5994,"efforts":5995,"status":5996,"fu":5997,"tiger":5998,"wipe":5999,"prevent":6000,"crisis":6001,"unable":6002,"smith":6003,"charl":6004,"followed":6005,"fighting":6006,"analy":6007,"eric":6008,"##nam":6009,"polic":6010,"##ught":6011,"##nic":6012,"compared":6013,"increased":6014,"labor":6015,"hus":6016,"nurs":6017,"tong":6018,"toes":6019,"##ache":6020,"cats":6021,"ryan":6022,"frisbee":6023,"##using":6024,"cooking":6025,"promot":6026,"mechan":6027,"judge":6028,"fle":6029,"##ago":6030,"ath":6031,"thick":6032,"streng":6033,"cloud":6034,"provided":6035,"luggage":6036,"oop":6037,"##uits":6038,"download":6039,"carrying":6040,"minor":6041,"attached":6042,"weren":6043,"##uh":6044,"scared":6045,"2007":6046,"cement":6047,"steps":6048,"yogurt":6049,"strength":6050,"lic":6051,"easily":6052,"senior":6053,"receive":6054,"papers":6055,"##ufact":6056,"integr":6057,"region":6058,"damage":6059,"33":6060,"chic":6061,"princ":6062,"assum":6063,"unlike":6064,"rise":6065,"spill":6066,"teacher":6067,"spending":6068,"passed":6069,"ine":6070,"##acters":6071,"##place":6072,"characters":6073,"conservative":6074,"delicious":6075,"ken":6076,"##bble":6077,"##erc":6078,"unless":6079,"battery":6080,"healthy":6081,"horsie":6082,"dangerous":6083,"border":6084,"absolutely":6085,"37":6086,"lamb":6087,"sofa":6088,"amb":6089,"lettuce":6090,"upside":6091,"manufact":6092,"gran":6093,"ended":6094,"raised":6095,"tough":6096,"appl":6097,"magic":6098,"types":6099,"##aint":6100,"missed":6101,"choose":6102,"blind":6103,"closer":6104,"36":6105,"tomatoes":6106,"constitution":6107,"jaz":6108,"na":6109,"brief":6110,"loud":6111,"predict":6112,"34":6113,"tire":6114,"hasn":6115,"##oe":6116,"##ya":6117,"prose":6118,"otherwise":6119,"maintain":6120,"determin":6121,"pac":6122,"wets":6123,"##la":6124,"trial":6125,"##ivity":6126,"feels":6127,"activity":6128,"vegetables":6129,"virt":6130,"sharp":6131,"##gers":6132,"##gie":6133,"shoot":6134,"beside":6135,"japanese":6136,"fake":6137,"pony":6138,"##ris":6139,"knowledge":6140,"speaking":6141,"terr":6142,"triangle":6143,"jim":6144,"##ini":6145,"sne":6146,"aware":6147,"##aughter":6148,"episode":6149,"sus":6150,"knee":6151,"##berg":6152,"learned":6153,"option":6154,"##aling":6155,"detail":6156,"failed":6157,"bald":6158,"brownish":6159,"underne":6160,"join":6161,"underneath":6162,"por":6163,"##ule":6164,"##utions":6165,"neg":6166,"sexual":6167,"shooting":6168,"refrigerator":6169,"rat":6170,"rose":6171,"asp":6172,"sciss":6173,"occup":6174,"candidate":6175,"audience":6176,"extremely":6177,"pil":6178,"inches":6179,"rear":6180,"agre":6181,"sched":6182,"agreement":6183,"australia":6184,"categ":6185,"adj":6186,"buttons":6187,"citizens":6188,"theory":6189,"remo":6190,"transport":6191,"aim":6192,"##rim":6193,"meow":6194,"##actor":6195,"confl":6196,"mission":6197,"tissue":6198,"stad":6199,"cowbo":6200,"crazy":6201,"##ille":6202,"unc":6203,"snake":6204,"80":6205,"##anced":6206,"hee":6207,"weight":6208,"attract":6209,"includes":6210,"reached":6211,"ram":6212,"stack":6213,"unkn":6214,"turns":6215,"fourth":6216,"developed":6217,"bubbles":6218,"fi":6219,"smile":6220,"foreground":6221,"projects":6222,"album":6223,"lid":6224,"bottles":6225,"consist":6226,"individuals":6227,"fer":6228,"chain":6229,"balls":6230,"avoid":6231,"competition":6232,"yum":6233,"##64":6234,"sees":6235,"helping":6236,"##encies":6237,"ms":6238,"##icient":6239,"##ggy":6240,"experim":6241,"ceiling":6242,"shift":6243,"totally":6244,"encoura":6245,"55":6246,"##reds":6247,"notes":6248,"bedroom":6249,"association":6250,"independent":6251,"pumpkin":6252,"##aser":6253,"highest":6254,"airport":6255,"napkin":6256,"laugh":6257,"rust":6258,"greater":6259,"concent":6260,"owl":6261,"www":6262,"rib":6263,"liqu":6264,"turtle":6265,"homes":6266,"##ays":6267,"cla":6268,"dise":6269,"dollar":6270,"kat":6271,"wal":6272,"##ona":6273,"flight":6274,"score":6275,"unique":6276,"stadium":6277,"unknown":6278,"hom":6279,"whom":6280,"sher":6281,"forced":6282,"primary":6283,"ip":6284,"plays":6285,"##iolet":6286,"graph":6287,"raining":6288,"filled":6289,"loves":6290,"runs":6291,"potty":6292,"dum":6293,"##oud":6294,"winning":6295,"religion":6296,"cabinet":6297,"##ux":6298,"##ooth":6299,"respect":6300,"bout":6301,"seemed":6302,"exerc":6303,"elephants":6304,"memory":6305,"traditional":6306,"resources":6307,"##erved":6308,"##icol":6309,"##brush":6310,"magn":6311,"policies":6312,"##tered":6313,"logo":6314,"everywhere":6315,"charge":6316,"honest":6317,"lil":6318,"##roy":6319,"##ribe":6320,"flip":6321,"incident":6322,"expand":6323,"picked":6324,"matth":6325,"gent":6326,"sight":6327,"authorities":6328,"scissors":6329,"cath":6330,"rank":6331,"posted":6332,"tunnel":6333,"method":6334,"random":6335,"mah":6336,"violet":6337,"##rick":6338,"willing":6339,"boxes":6340,"hundreds":6341,"75":6342,"##iders":6343,"reform":6344,"##ads":6345,"leather":6346,"keys":6347,"scratch":6348,"rum":6349,"attend":6350,"crayon":6351,"dancing":6352,"foundation":6353,"##aded":6354,"therefore":6355,"appeared":6356,"finding":6357,"hundred":6358,"angry":6359,"championship":6360,"sport":6361,"fear":6362,"illeg":6363,"unfortun":6364,"rare":6365,"##iance":6366,"advant":6367,"attorney":6368,"pun":6369,"tap":6370,"##nn":6371,"heat":6372,"upstairs":6373,"newsp":6374,"sanders":6375,"famil":6376,"dining":6377,"organiz":6378,"##dden":6379,"conflict":6380,"cord":6381,"gate":6382,"thirty":6383,"martin":6384,"imagine":6385,"purpose":6386,"chicago":6387,"pages":6388,"##venue":6389,"impl":6390,"concer":6391,"outdoor":6392,"critical":6393,"fab":6394,"hid":6395,"fort":6396,"editor":6397,"highly":6398,"politic":6399,"pushing":6400,"##cles":6401,"balloon":6402,"matthew":6403,"hay":6404,"sally":6405,"beep":6406,"guide":6407,"mainly":6408,"leaning":6409,"storm":6410,"goat":6411,"##ustr":6412,"previously":6413,"canadian":6414,"minimum":6415,"behavior":6416,"##down":6417,"anybody":6418,"accident":6419,"temper":6420,"##aren":6421,"sources":6422,"belly":6423,"##uela":6424,"treatment":6425,"blog":6426,"##umn":6427,"throwing":6428,"alleged":6429,"tummy":6430,"tells":6431,"peppers":6432,"powerful":6433,"researchers":6434,"franc":6435,"##ategy":6436,"##osh":6437,"actions":6438,"strategy":6439,"starts":6440,"records":6441,"height":6442,"noted":6443,"yeh":6444,"minist":6445,"jes":6446,"##rants":6447,"ther":6448,"sudden":6449,"##apt":6450,"worry":6451,"strange":6452,"trains":6453,"continues":6454,"necessary":6455,"weapons":6456,"fellow":6457,"mister":6458,"worse":6459,"tee":6460,"shouldn":6461,"stret":6462,"excited":6463,"climb":6464,"challenge":6465,"garden":6466,"nan":6467,"##ented":6468,"##ola":6469,"generation":6470,"messy":6471,"emerg":6472,"lin":6473,"mud":6474,"##icit":6475,"##ortion":6476,"photograph":6477,"painting":6478,"benefits":6479,"digital":6480,"##fly":6481,"chem":6482,"##oph":6483,"##osure":6484,"streets":6485,"produced":6486,"##jam":6487,"partners":6488,"scott":6489,"2018":6490,"singing":6491,"giant":6492,"sales":6493,"rolling":6494,"caused":6495,"##po":6496,"decades":6497,"dishes":6498,"nations":6499,"pine":6500,"##cr":6501,"##roid":6502,"incred":6503,"collect":6504,"garbage":6505,"professor":6506,"successful":6507,"jersey":6508,"mushroom":6509,"gather":6510,"pip":6511,"stairs":6512,"france":6513,"qual":6514,"device":6515,"fant":6516,"math":6517,"##bl":6518,"##ores":6519,"##cul":6520,"onions":6521,"esp":6522,"coast":6523,"##issa":6524,"parl":6525,"obviously":6526,"management":6527,"noon":6528,"goals":6529,"trash":6530,"##aks":6531,"##ggies":6532,"hate":6533,"##izes":6534,"patients":6535,"kitty":6536,"murder":6537,"##ste":6538,"parties":6539,"limit":6540,"90":6541,"jar":6542,"creating":6543,"cities":6544,"zoom":6545,"##ext":6546,"sale":6547,"hug":6548,"served":6549,"bags":6550,"excell":6551,"equip":6552,"surprise":6553,"customers":6554,"african":6555,"flash":6556,"resident":6557,"##doh":6558,"shadows":6559,"42":6560,"95":6561,"pound":6562,"194":6563,"species":6564,"teenager":6565,"initial":6566,"pud":6567,"symb":6568,"owner":6569,"microw":6570,"pillows":6571,"toothbrush":6572,"influence":6573,"39":6574,"aid":6575,"##dies":6576,"##etch":6577,"##ota":6578,"shaped":6579,"signed":6580,"programs":6581,"millions":6582,"benefit":6583,"agreed":6584,"francis":6585,"##bar":6586,"##dom":6587,"arr":6588,"generally":6589,"christian":6590,"environmental":6591,"jazz":6592,"families":6593,"kal":6594,"wig":6595,"grant":6596,"imposs":6597,"marriage":6598,"produce":6599,"rainbow":6600,"massive":6601,"tongue":6602,"##town":6603,"carol":6604,"pointing":6605,"grandpa":6606,"roo":6607,"##ses":6608,"tru":6609,"drinks":6610,"bicycle":6611,"65":6612,"hen":6613,"##imate":6614,"##host":6615,"confirmed":6616,"adop":6617,"uncle":6618,"breaking":6619,"serve":6620,"jeff":6621,"kr":6622,"##amic":6623,"playdoh":6624,"##ccer":6625,"produc":6626,"lawy":6627,"##ipp":6628,"shell":6629,"usa":6630,"owners":6631,"##vin":6632,"shock":6633,"stain":6634,"nearby":6635,"thirties":6636,"##put":6637,"##eno":6638,"##iring":6639,"cha":6640,"boston":6641,"defensive":6642,"options":6643,"##inate":6644,"rais":6645,"entirely":6646,"furn":6647,"faster":6648,"clot":6649,"backs":6650,"quant":6651,"remind":6652,"occas":6653,"opposition":6654,"38":6655,"wit":6656,"##tains":6657,"##uge":6658,"##any":6659,"weak":6660,"hipp":6661,"stuffed":6662,"##iliar":6663,"wetsuit":6664,"##10":6665,"numer":6666,"adding":6667,"survey":6668,"craw":6669,"gain":6670,"##cel":6671,"brew":6672,"understanding":6673,"banks":6674,"64":6675,"gy":6676,"##iences":6677,"##fs":6678,"##fit":6679,"residents":6680,"##aved":6681,"apartment":6682,"debt":6683,"spirit":6684,"master":6685,"oat":6686,"wol":6687,"##gen":6688,"enforce":6689,"recover":6690,"##ribution":6691,"models":6692,"funding":6693,"##no":6694,"##onents":6695,"enem":6696,"prices":6697,"compar":6698,"sticky":6699,"virgin":6700,"impossible":6701,"ramp":6702,"sect":6703,"soccer":6704,"##others":6705,"profile":6706,"affect":6707,"operations":6708,"apparently":6709,"pc":6710,"shared":6711,"firm":6712,"curtain":6713,"wheat":6714,"reddish":6715,"recommend":6716,"symbol":6717,"era":6718,"nest":6719,"##raid":6720,"salt":6721,"initi":6722,"variety":6723,"microwave":6724,"ec":6725,"rh":6726,"##enth":6727,"herself":6728,"twel":6729,"policeman":6730,"excuse":6731,"panel":6732,"equipment":6733,"##itude":6734,"seats":6735,"cells":6736,"mig":6737,"tractor":6738,"allows":6739,"explained":6740,"insur":6741,"##iju":6742,"baa":6743,"false":6744,"cooper":6745,"clothing":6746,"bum":6747,"mont":6748,"##dog":6749,"slices":6750,"sprink":6751,"stretch":6752,"43":6753,"cub":6754,"##ala":6755,"assault":6756,"convention":6757,"ell":6758,"shopping":6759,"afraid":6760,"subsc":6761,"investment":6762,"determine":6763,"rectangle":6764,"##sters":6765,"worst":6766,"emot":6767,"basically":6768,"advoc":6769,"claimed":6770,"##arm":6771,"##usive":6772,"mobile":6773,"gentle":6774,"48":6775,"ii":6776,"kang":6777,"org":6778,"thinks":6779,"active":6780,"england":6781,"surfboard":6782,"conversation":6783,"##ijuana":6784,"android":6785,"poly":6786,"supper":6787,"transl":6788,"##ription":6789,"zero":6790,"##ex":6791,"chap":6792,"##antly":6793,"robert":6794,"sites":6795,"bringing":6796,"hillary":6797,"##ih":6798,"##aroo":6799,"smooth":6800,"resc":6801,"pointed":6802,"supporters":6803,"neighborhood":6804,"bol":6805,"##ville":6806,"charges":6807,"surprised":6808,"establish":6809,"relatively":6810,"besides":6811,"syria":6812,"opinion":6813,"wra":6814,"lived":6815,"offensive":6816,"drum":6817,"pepperoni":6818,"pow":6819,"andrew":6820,"prefer":6821,"controvers":6822,"palest":6823,"islamic":6824,"##uch":6825,"sav":6826,"partner":6827,"becoming":6828,"curren":6829,"provides":6830,"southern":6831,"award":6832,"gig":6833,"zone":6834,"##ici":6835,"##aine":6836,"##estic":6837,"##rial":6838,"bucket":6839,"bugs":6840,"##ario":6841,"##iro":6842,"butterfly":6843,"bikes":6844,"arrived":6845,"branch":6846,"scarf":6847,"##lor":6848,"##iti":6849,"belt":6850,"highlight":6851,"hack":6852,"odd":6853,"protection":6854,"ducks":6855,"touching":6856,"ghost":6857,"susp":6858,"##agers":6859,"serving":6860,"cather":6861,"refuge":6862,"entertain":6863,"vroom":6864,"##ann":6865,"manuela":6866,"sheet":6867,"scary":6868,"transform":6869,"candidates":6870,"wings":6871,"dism":6872,"##zzy":6873,"threw":6874,"daughter":6875,"fash":6876,"nfl":6877,"wars":6878,"whis":6879,"deg":6880,"remark":6881,"gear":6882,"johnson":6883,"channel":6884,"49":6885,"eh":6886,"jet":6887,"offered":6888,"excellent":6889,"nick":6890,"##ari":6891,"maroon":6892,"northern":6893,"scientists":6894,"ari":6895,"joe":6896,"penn":6897,"multicol":6898,"changing":6899,"employees":6900,"dot":6901,"lind":6902,"mut":6903,"##inct":6904,"##elling":6905,"unp":6906,"communities":6907,"##goti":6908,"balance":6909,"pitcher":6910,"legislation":6911,"fits":6912,"nas":6913,"cher":6914,"purse":6915,"2006":6916,"gender":6917,"optim":6918,"responsible":6919,"bounce":6920,"supreme":6921,"parliam":6922,"catherine":6923,"gall":6924,"##iest":6925,"meter":6926,"believed":6927,"racket":6928,"pooh":6929,"frosting":6930,"advantage":6931,"hind":6932,"tack":6933,"suspect":6934,"##ander":6935,"marijuana":6936,"meanwhile":6937,"fashion":6938,"stream":6939,"annual":6940,"lettering":6941,"52":6942,"nin":6943,"beard":6944,"supply":6945,"daisy":6946,"effective":6947,"announce":6948,"amazing":6949,"tab":6950,"##resp":6951,"sail":6952,"dragon":6953,"concerns":6954,"negative":6955,"adjust":6956,"twelve":6957,"wo":6958,"acqu":6959,"motion":6960,"planet":6961,"businesses":6962,"victory":6963,"exchange":6964,"##now":6965,"planned":6966,"solution":6967,"louis":6968,"gloves":6969,"unfortunately":6970,"hidden":6971,"wealth":6972,"donkey":6973,"buff":6974,"glad":6975,"keeping":6976,"paying":6977,"label":6978,"israeli":6979,"institute":6980,"witness":6981,"kangaroo":6982,"vice":6983,"wage":6984,"##ipping":6985,"##outs":6986,"diam":6987,"elements":6988,"trend":6989,"cuts":6990,"instruct":6991,"##uters":6992,"reaching":6993,"seeds":6994,"##amm":6995,"joined":6996,"pulling":6997,"##leep":6998,"##acon":6999,"shore":7000,"hearing":7001,"twice":7002,"crew":7003,"strateg":7004,"marble":7005,"argument":7006,"truly":7007,"##asp":7008,"bean":7009,"seek":7010,"##uries":7011,"raw":7012,"expert":7013,"africa":7014,"furniture":7015,"parliament":7016,"44":7017,"ps":7018,"##tle":7019,"commit":7020,"village":7021,"doughnut":7022,"os":7023,"rates":7024,"##hi":7025,"##onent":7026,"##iser":7027,"bee":7028,"##ibly":7029,"familiar":7030,"listening":7031,"gross":7032,"asleep":7033,"deck":7034,"2000":7035,"perm":7036,"decide":7037,"governor":7038,"studio":7039,"stores":7040,"destroy":7041,"opposite":7042,"revealed":7043,"mentioned":7044,"##ram":7045,"##gly":7046,"specifically":7047,"removed":7048,"illegal":7049,"ded":7050,"nur":7051,"ron":7052,"tant":7053,"pete":7054,"failure":7055,"replace":7056,"##vant":7057,"##pri":7058,"clay":7059,"buck":7060,"skier":7061,"falls":7062,"steve":7063,"posts":7064,"##coming":7065,"hoodie":7066,"arrested":7067,"concentr":7068,"concerned":7069,"##stein":7070,"41":7071,"cu":7072,"iv":7073,"##ez":7074,"grapes":7075,"decent":7076,"application":7077,"cer":7078,"##ita":7079,"novel":7080,"excl":7081,"##ression":7082,"miles":7083,"planning":7084,"tests":7085,"approx":7086,"tip":7087,"##eless":7088,"values":7089,"construct":7090,"selling":7091,"ack":7092,"pra":7093,"jew":7094,"mrs":7095,"solar":7096,"##aver":7097,"guitar":7098,"tag":7099,"urban":7100,"comfortable":7101,"jon":7102,"##enced":7103,"elmo":7104,"centre":7105,"package":7106,"##mm":7107,"##hol":7108,"stan":7109,"flav":7110,"##aki":7111,"markets":7112,"##pm":7113,"##isation":7114,"lighting":7115,"193":7116,"seconds":7117,"ensure":7118,"tiles":7119,"trib":7120,"offers":7121,"liquid":7122,"newspaper":7123,"emergency":7124,"braz":7125,"keeps":7126,"division":7127,"atl":7128,"drivers":7129,"introduced":7130,"ox":7131,"sir":7132,"##mond":7133,"##hen":7134,"##aters":7135,"react":7136,"negoti":7137,"placed":7138,"jean":7139,"sticking":7140,"discussion":7141,"nic":7142,"task":7143,"##don":7144,"##ques":7145,"jackets":7146,"afford":7147,"connected":7148,"documents":7149,"mere":7150,"tied":7151,"liked":7152,"appoint":7153,"birdie":7154,"##ship":7155,"gift":7156,"existing":7157,"achieve":7158,"dub":7159,"beef":7160,"useful":7161,"##apers":7162,"##ifer":7163,"poles":7164,"##iano":7165,"300":7166,"cleaning":7167,"transfer":7168,"williams":7169,"faith":7170,"bib":7171,"lemon":7172,"comed":7173,"bodies":7174,"helps":7175,"collar":7176,"walked":7177,"piggy":7178,"pile":7179,"soph":7180,"backwards":7181,"mayor":7182,"mug":7183,"accur":7184,"housing":7185,"obvious":7186,"##wide":7187,"##acity":7188,"shade":7189,"stated":7190,"prin":7191,"restrict":7192,"designs":7193,"equal":7194,"proposed":7195,"revolution":7196,"papa":7197,"sin":7198,"##yl":7199,"bless":7200,"closet":7201,"melissa":7202,"prosecut":7203,"nav":7204,"resist":7205,"buses":7206,"decisions":7207,"##ashed":7208,"recording":7209,"industrial":7210,"losing":7211,"47":7212,"bern":7213,"##kel":7214,"alt":7215,"peach":7216,"apply":7217,"tops":7218,"sticker":7219,"discovered":7220,"tent":7221,"##gging":7222,"interp":7223,"darker":7224,"decade":7225,"strike":7226,"experts":7227,"urs":7228,"suggested":7229,"stainless":7230,"bin":7231,"fol":7232,"##anes":7233,"sharing":7234,"clin":7235,"fem":7236,"location":7237,"repeated":7238,"66":7239,"##abor":7240,"momma":7241,"supported":7242,"spokesman":7243,"enforcement":7244,"nurse":7245,"dess":7246,"##11":7247,"becomes":7248,"mall":7249,"##ns":7250,"##igan":7251,"allowing":7252,"##aud":7253,"joke":7254,"coverage":7255,"whoop":7256,"shades":7257,"hoo":7258,"kar":7259,"##ructure":7260,"##antic":7261,"saus":7262,"##ifying":7263,"largely":7264,"expensive":7265,"50s":7266,"requires":7267,"ultimately":7268,"begins":7269,"aspect":7270,"fest":7271,"grew":7272,"getty":7273,"returned":7274,"spoke":7275,"fancy":7276,"roughly":7277,"les":7278,"mummy":7279,"##li":7280,"##iation":7281,"##oons":7282,"##rem":7283,"##sty":7284,"covers":7285,"carl":7286,"basis":7287,"##cient":7288,"curtains":7289,"activities":7290,"liberal":7291,"copyright":7292,"dust":7293,"pipe":7294,"sets":7295,"shark":7296,"shapes":7297,"teaching":7298,"context":7299,"friendly":7300,"posing":7301,"techni":7302,"domestic":7303,"terrible":7304,"rot":7305,"##ano":7306,"consequ":7307,"dada":7308,"schem":7309,"syn":7310,"talked":7311,"infrast":7312,"royal":7313,"charlie":7314,"ker":7315,"rach":7316,"gop":7317,"saud":7318,"snack":7319,"snap":7320,"pale":7321,"songs":7322,"tig":7323,"thumb":7324,"differences":7325,"pushed":7326,"figures":7327,"identify":7328,"holes":7329,"strawberry":7330,"##jamas":7331,"53":7332,"54":7333,"lucky":7334,"rings":7335,"ash":7336,"clip":7337,"snowboard":7338,"raise":7339,"testing":7340,"scientology":7341,"launched":7342,"ursula":7343,"dessert":7344,"veter":7345,"##tr":7346,"##ora":7347,"sov":7348,"##ulf":7349,"sandy":7350,"towels":7351,"domain":7352,"robin":7353,"rush":7354,"chips":7355,"interact":7356,"purs":7357,"appropri":7358,"slowly":7359,"disappe":7360,"##uate":7361,"faced":7362,"files":7363,"elections":7364,"britain":7365,"sneakers":7366,"degree":7367,"acknow":7368,"kent":7369,"mi":7370,"##isf":7371,"reject":7372,"reuters":7373,"asse":7374,"##soft":7375,"##ups":7376,"basketball":7377,"disease":7378,"dots":7379,"py":7380,"sust":7381,"greek":7382,"carried":7383,"##issions":7384,"accused":7385,"talks":7386,"matches":7387,"sleeves":7388,"drew":7389,"dinosaurs":7390,"recognize":7391,"participants":7392,"craft":7393,"pond":7394,"##ters":7395,"##ipper":7396,"##ograph":7397,"guest":7398,"##igned":7399,"##ption":7400,"zebr":7401,"humans":7402,"mexico":7403,"pilot":7404,"infrastructure":7405,"kim":7406,"##atically":7407,"##keys":7408,"smoke":7409,"identified":7410,"multicolored":7411,"vul":7412,"##inated":7413,"semi":7414,"twin":7415,"downstairs":7416,"pajamas":7417,"awake":7418,"movies":7419,"injury":7420,"yards":7421,"prepared":7422,"hub":7423,"jelly":7424,"##ata":7425,"stress":7426,"script":7427,"smo":7428,"ends":7429,"blocked":7430,"providing":7431,"issued":7432,"suggests":7433,"spanish":7434,"bond":7435,"cock":7436,"##onto":7437,"eleven":7438,"2003":7439,"passing":7440,"skills":7441,"ske":7442,"##lock":7443,"stir":7444,"forth":7445,"troo":7446,"believes":7447,"assess":7448,"standards":7449,"rapid":7450,"princip":7451,"bio":7452,"vast":7453,"gogg":7454,"clap":7455,"suppl":7456,"jumped":7457,"democracy":7458,"objects":7459,"jenny":7460,"colorful":7461,"2005":7462,"planes":7463,"wonderful":7464,"originally":7465,"kalie":7466,"jul":7467,"##ae":7468,"coord":7469,"encl":7470,"aircraft":7471,"subm":7472,"squish":7473,"articles":7474,"eastern":7475,"developing":7476,"advanced":7477,"donuts":7478,"operation":7479,"mistake":7480,"husband":7481,"females":7482,"##bie":7483,"##omp":7484,"fran":7485,"captain":7486,"##ception":7487,"claus":7488,"hitting":7489,"##elle":7490,"famous":7491,"zebras":7492,"mand":7493,"pir":7494,"##rie":7495,"dele":7496,"##eline":7497,"column":7498,"shoulders":7499,"waist":7500,"obtain":7501,"possibility":7502,"##meal":7503,"desktop":7504,"identity":7505,"expression":7506,"https":7507,"corporate":7508,"cowboy":7509,"wrest":7510,"wagon":7511,"##hirt":7512,"##itz":7513,"sock":7514,"owned":7515,"giraffes":7516,"sleeved":7517,"leadership":7518,"01":7519,"ven":7520,"cancer":7521,"##alley":7522,"##ulate":7523,"views":7524,"interests":7525,"scientific":7526,"immigration":7527,"##rative":7528,"##ulated":7529,"carriage":7530,"proud":7531,"broadcast":7532,"hurry":7533,"goggles":7534,"ment":7535,"oly":7536,"##wr":7537,"##how":7538,"alloc":7539,"outfit":7540,"prince":7541,"presents":7542,"olives":7543,"regarding":7544,"established":7545,"gor":7546,"##ivers":7547,"##oned":7548,"##ading":7549,"managed":7550,"skis":7551,"suppose":7552,"stickers":7553,"typical":7554,"accounts":7555,"athlet":7556,"currency":7557,"diamond":7558,"powers":7559,"alleg":7560,"diet":7561,"downtown":7562,"collection":7563,"ruby":7564,"suddenly":7565,"jun":7566,"ly":7567,"##ena":7568,"amend":7569,"recall":7570,"2019":7571,"privacy":7572,"jesus":7573,"palestin":7574,"lif":7575,"appre":7576,"swed":7577,"cooked":7578,"senator":7579,"46":7580,"bid":7581,"rang":7582,"todd":7583,"##icing":7584,"plug":7585,"reduce":7586,"struct":7587,"harm":7588,"indoor":7589,"responsibility":7590,"laughing":7591,"squeak":7592,"innov":7593,"witch":7594,"##ji":7595,"##icip":7596,"trav":7597,"vision":7598,"seriously":7599,"married":7600,"mustard":7601,"toronto":7602,"cracker":7603,"victims":7604,"wilson":7605,"dw":7606,"abuse":7607,"cliff":7608,"leftmost":7609,"carbon":7610,"glaz":7611,"2001":7612,"voting":7613,"korea":7614,"exercise":7615,"chapter":7616,"olymp":7617,"##ius":7618,"##ream":7619,"neut":7620,"##oses":7621,"buzz":7622,"##enses":7623,"considering":7624,"measures":7625,"##iw":7626,"##cake":7627,"##ghan":7628,"toe":7629,"stor":7630,"candles":7631,"##encing":7632,"determined":7633,"fabric":7634,"51":7635,"jones":7636,"sac":7637,"##istics":7638,"##eling":7639,"contest":7640,"watched":7641,"recorded":7642,"##enoord":7643,"fif":7644,"kur":7645,"tact":7646,"##ole":7647,"##uk":7648,"##gb":7649,"##inger":7650,"##stone":7651,"alph":7652,"killing":7653,"terrorism":7654,"carolina":7655,"egy":7656,"rope":7657,"rural":7658,"vit":7659,"##ashing":7660,"##oween":7661,"##elled":7662,"spons":7663,"puts":7664,"conclud":7665,"discrim":7666,"labour":7667,"committed":7668,"customer":7669,"floral":7670,"narrow":7671,"angeles":7672,"gam":7673,"wid":7674,"whist":7675,"presence":7676,"holds":7677,"patrick":7678,"electron":7679,"connection":7680,"##gor":7681,"##icated":7682,"##arko":7683,"budd":7684,"loved":7685,"taller":7686,"cycle":7687,"brazil":7688,"ast":7689,"ray":7690,"shiny":7691,"mickey":7692,"summ":7693,"buying":7694,"racing":7695,"##etti":7696,"purchase":7697,"oatmeal":7698,"virginia":7699,"##itation":7700,"##isher":7701,"rod":7702,"##angular":7703,"earn":7704,"floppy":7705,"##going":7706,"halloween":7707,"maxim":7708,"mushrooms":7709,"bacon":7710,"ire":7711,"luck":7712,"##rog":7713,"harder":7714,"eval":7715,"charged":7716,"potentially":7717,"sticks":7718,"devices":7719,"philos":7720,"fuel":7721,"##bour":7722,"##nda":7723,"##itory":7724,"##lement":7725,"writ":7726,"sliced":7727,"capacity":7728,"##bye":7729,"affected":7730,"votes":7731,"guns":7732,"##uffy":7733,"organizations":7734,"assemb":7735,"egypt":7736,"##usk":7737,"##icted":7738,"muff":7739,"treas":7740,"pigs":7741,"linked":7742,"alternative":7743,"1st":7744,"bound":7745,"mort":7746,"##va":7747,"##wor":7748,"heav":7749,"pear":7750,"knowing":7751,"breed":7752,"param":7753,"technical":7754,"presented":7755,"hurts":7756,"panc":7757,"till":7758,"wik":7759,"anth":7760,"##road":7761,"##rif":7762,"engage":7763,"internal":7764,"microsoft":7765,"approximately":7766,"tourn":7767,"wound":7768,"soda":7769,"##rier":7770,"afghan":7771,"cheap":7772,"evil":7773,"sample":7774,"powder":7775,"lau":7776,"##uous":7777,"##acing":7778,"seed":7779,"shining":7780,"spark":7781,"taught":7782,"polar":7783,"bowls":7784,"depart":7785,"positions":7786,"##onym":7787,"layer":7788,"videos":7789,"voted":7790,"attempts":7791,"occurred":7792,"dyn":7793,"una":7794,"##ye":7795,"##uish":7796,"##arian":7797,"waste":7798,"scot":7799,"veggies":7800,"toot":7801,"##arant":7802,"chip":7803,"instance":7804,"taxes":7805,"palm":7806,"ladder":7807,"gum":7808,"jay":7809,"##ias":7810,"##ded":7811,"##fish":7812,"stool":7813,"##ella":7814,"neur":7815,"##olic":7816,"goodbye":7817,"writes":7818,"factor":7819,"circum":7820,"soldiers":7821,"ore":7822,"rs":7823,"allig":7824,"farthest":7825,"compr":7826,"subur":7827,"picking":7828,"squir":7829,"factors":7830,"elected":7831,"ceo":7832,"drugs":7833,"sector":7834,"entertainment":7835,"##asy":7836,"ancient":7837,"aband":7838,"aggress":7839,"##gged":7840,"penny":7841,"appearance":7842,"picnic":7843,"circus":7844,"complexity":7845,"francisco":7846,"insurance":7847,"cel":7848,"mun":7849,"mental":7850,"nana":7851,"##mat":7852,"##oh":7853,"##cher":7854,"brothers":7855,"knees":7856,"buddy":7857,"politicians":7858,"ot":7859,"sab":7860,"##illing":7861,"##aham":7862,"consult":7863,"widely":7864,"nuts":7865,"literally":7866,"nasa":7867,"sausage":7868,"##hl":7869,"##uster":7870,"complic":7871,"interf":7872,"reference":7873,"fishing":7874,"promise":7875,"helmets":7876,"funds":7877,"skiing":7878,"nyarko":7879,"batt":7880,"jail":7881,"som":7882,"aside":7883,"supporting":7884,"cultural":7885,"osc":7886,"##cious":7887,"seasons":7888,"shh":7889,"noticed":7890,"##roph":7891,"persp":7892,"joint":7893,"mini":7894,"founder":7895,"paris":7896,"exciting":7897,"hyp":7898,"publish":7899,"circles":7900,"satisf":7901,"branches":7902,"travis":7903,"bent":7904,"bik":7905,"##rad":7906,"##real":7907,"armed":7908,"writer":7909,"sweats":7910,"subs":7911,"rocking":7912,"entry":7913,"australian":7914,"ugly":7915,"nomin":7916,"##oms":7917,"##agh":7918,"daylight":7919,"remained":7920,"element":7921,"fired":7922,"kitten":7923,"coalition":7924,"bbc":7925,"##acle":7926,"lee":7927,"alive":7928,"realize":7929,"motiv":7930,"rachel":7931,"thir":7932,"##icial":7933,"forms":7934,"fraser":7935,"##isted":7936,"farmer":7937,"emph":7938,"steam":7939,"knocked":7940,"weapon":7941,"spinach":7942,"ceramic":7943,"bars":7944,"##ani":7945,"stood":7946,"##agues":7947,"penal":7948,"typically":7949,"gaming":7950,"##makers":7951,"grape":7952,"##arest":7953,"##izz":7954,"##phones":7955,"governments":7956,"profit":7957,"ernie":7958,"methods":7959,"##ienced":7960,"belongs":7961,"shelves":7962,"lobby":7963,"saudi":7964,"85":7965,"pure":7966,"##die":7967,"##inn":7968,"chart":7969,"brian":7970,"worried":7971,"guarant":7972,"drawer":7973,"surprising":7974,"bul":7975,"boot":7976,"ky":7977,"vent":7978,"##wa":7979,"##ards":7980,"##ansas":7981,"emp":7982,"visual":7983,"cannab":7984,"refused":7985,"located":7986,"jenn":7987,"split":7988,"raisins":7989,"gym":7990,"appreci":7991,"bone":7992,"bark":7993,"##kers":7994,"stable":7995,"asia":7996,"intended":7997,"elim":7998,"desert":7999,"tempor":8000,"strawberries":8001,"premier":8002,"proposal":8003,"##18":8004,"##ico":8005,"prospect":8006,"##essions":8007,"flood":8008,"##ivia":8009,"extend":8010,"loose":8011,"increasingly":8012,"ministry":8013,"linux":8014,"residential":8015,"cind":8016,"##isa":8017,"##oma":8018,"shares":8019,"seeking":8020,"flu":8021,"concl":8022,"leads":8023,"engineering":8024,"owls":8025,"trailer":8026,"aqu":8027,"upset":8028,"usual":8029,"phones":8030,"charles":8031,"parall":8032,"ireland":8033,"cd":8034,"ft":8035,"gap":8036,"tad":8037,"##ox":8038,"##imp":8039,"proced":8040,"wrap":8041,"blocking":8042,"##ribute":8043,"patient":8044,"argued":8045,"wedding":8046,"complain":8047,"fifty":8048,"jour":8049,"mask":8050,"pak":8051,"##aa":8052,"##32":8053,"fries":8054,"woods":8055,"disappoint":8056,"rig":8057,"##fc":8058,"##enn":8059,"haha":8060,"agent":8061,"pray":8062,"quot":8063,"secure":8064,"combined":8065,"miller":8066,"patterns":8067,"numerous":8068,"icing":8069,"##ront":8070,"inch":8071,"dock":8072,"fey":8073,"offering":8074,"schol":8075,"confidence":8076,"artist":8077,"ticket":8078,"ruff":8079,"speaker":8080,"remaining":8081,"bomb":8082,"italy":8083,"analyst":8084,"wolf":8085,"troops":8086,"fred":8087,"mice":8088,"od":8089,"##night":8090,"exhib":8091,"unclear":8092,"default":8093,"statements":8094,"2002":8095,"classic":8096,"error":8097,"combination":8098,"controller":8099,"cia":8100,"lord":8101,"##30":8102,"##edge":8103,"##stal":8104,"dial":8105,"2004":8106,"suffered":8107,"spectators":8108,"jav":8109,"##uations":8110,"unus":8111,"bubble":8112,"columb":8113,"hoc":8114,"##athers":8115,"investors":8116,"practices":8117,"crossing":8118,"accompl":8119,"category":8120,"400":8121,"##stream":8122,"acting":8123,"hills":8124,"robot":8125,"audio":8126,"terrorist":8127,"bure":8128,"ketch":8129,"wis":8130,"youth":8131,"deploy":8132,"abortion":8133,"scores":8134,"retire":8135,"hydrant":8136,"piano":8137,"##mes":8138,"revenue":8139,"intent":8140,"holder":8141,"defence":8142,"greatest":8143,"essential":8144,"gang":8145,"hint":8146,"yer":8147,"yucky":8148,"flow":8149,"agencies":8150,"##pending":8151,"remove":8152,"emb":8153,"marg":8154,"viet":8155,"ruling":8156,"initially":8157,"challenges":8158,"matters":8159,"punch":8160,"wins":8161,"anne":8162,"moves":8163,"##umin":8164,"##uls":8165,"tear":8166,"myth":8167,"##weight":8168,"chairman":8169,"horiz":8170,"feeding":8171,"experiment":8172,"alligator":8173,"ketchup":8174,"eld":8175,"il":8176,"ya":8177,"clar":8178,"bother":8179,"eaten":8180,"stayed":8181,"harry":8182,"doctors":8183,"consumer":8184,"schedul":8185,"3d":8186,"ale":8187,"rising":8188,"valley":8189,"##point":8190,"##19":8191}}}