[PAD]
[UNK]
[CLS]
[SEP]
[MASK]
!
"
#
$
%
&
'
(
)
*
+
,
-
.
/
0
1
2
3
4
5
6
7
8
9
:
;
<
=
>
?
@
[
\
]
^
_
`
a
b
c
d
e
f
g
h
i
j
k
l
m
n
o
p
q
r
s
t
u
v
w
x
y
z
{
|
}
~











¡
¢
£
¥
¦
§
©
«
­
®
¯
°
±
²
³
´
µ
¶
·
¸
¹
º
»
¼
½
¿
×
ß
à
á
â
ã
ä
å
æ
ç
è
é
ê
ë
ì
í
î
ï
ð
ñ
ò
ó
ô
õ
ö
÷
ø
ù
ú
û
ü
ý
þ
ā
ă
ć
č
đ
ē
ę
ě
ğ
ī
ı
ł
ń
ō
œ
ř
ś
ş
š
ţ
ū
ů
ž
ɐ
ə
ɛ
ʌ
ʒ
ʔ
ʻ
ˈ
ː
˜
̇
ά
έ
ή
ί
α
β
γ
δ
ε
η
θ
ι
κ
λ
μ
ν
ξ
ο
π
ρ
ς
σ
τ
υ
φ
χ
ω
ό
ύ
ώ
а
б
в
г
д
е
ж
з
и
й
к
л
м
н
о
п
р
с
т
у
ф
х
ц
ч
ш
щ
ы
ь
э
ю
я
ё
ѕ
і
י
ا
ب
ة
ت
ح
د
ر
ز
س
ش
ط
ظ
ع
ف
ق
ك
ل
م
ن
ه
و
ي
ی
र
ल
व
ि
्
ਾ
ก
ข
ง
ด
ท
น
ป
ม
ย
ร
ล
ว
ห
อ
า
ี
เ
ไ
่
้
๋
ა
ი
ḍ
ḷ
ṃ
ṇ
ṛ
ṣ
ṭ
ἀ
ἰ
ὀ
ὐ
ὴ
ῖ
ῶ
​
‎
‐
‑
–
—
―
‘
’
‚
“
”
„
‡
•
․
…
′
″
›
※
⁄
⁰
₂
€
™
→
↓
⇓
−
∞
∥
∷
∼
≤
≥
─
┃
█
■
▪
►
▼
◊
★
♦
➜
、
。
々
〈
〉
「
」
『
』
あ
い
う
え
お
か
が
き
く
け
げ
こ
さ
し
じ
す
ず
そ
た
だ
ち
っ
つ
て
で
と
ど
な
に
の
は
ば
び
へ
べ
ま
む
め
も
や
よ
ら
り
る
れ
ろ
わ
を
ん
ァ
ア
ィ
イ
ゥ
ウ
ェ
エ
ォ
オ
カ
キ
ギ
ク
グ
ゲ
コ
ゴ
サ
シ
ジ
ス
ズ
セ
ソ
ゾ
タ
ダ
チ
ッ
ツ
テ
デ
ト
ド
ナ
ニ
ネ
ノ
バ
ヒ
ビ
ピ
フ
ブ
プ
ヘ
ホ
ボ
マ
ミ
ム
メ
モ
ャ
ヤ
ュ
ユ
ョ
ラ
リ
ル
レ
ロ
ワ
ン
ヴ
・
ー
ㅋ
一
上
下
不
中
事
亡
京
人
他
代
以
件
位
低
体
何
作
係
側
傷
先
光
入
全
公
内
写
出
分
切
初
判
別
前
力
助
動
北
原
可
同
名
向
告
問
回
因
在
地
域
報
場
外
多
夜
大
失
始
姿
子
存
学
定
実
家
容
密
察
審
対
射
小
局
履
山
峠
崩
州
常
年
度
式
引
弾
当
彼
征
後
性
想
意
態
折
持
捜
探
接
推
撃
放
数
文
料
斜
新
方
日
明
時
書
最
月
有
服
木
本
東
果
査
森
検
極
機
次
死
残
気
渓
温
測
点
無
然
版
物
特
状
現
球
理
生
画
症
発
登
的
目
直
県
真
着
知
研
示
科
究
立
索
終
結
線
編
置
考
者
能
脱
自
至
色
落
著
行
衣
裂
要
覆
見
解
記
設
語
説
調
謎
谷
象
負
資
起
足
跡
軍
述
送
通
連
道
遠
遭
遺
部
都
量
長
開
間
関
陸
隊
集
離
難
雪
非
面
靴
風
験
骨
高
가
각
간
갔
같
개
거
건
걸
검
겁
것
게
겠
겨
견
결
경
계
고
공
과
관
광
구
국
굴
권
그
극
글
금
기
긴
김
까
끝
나
난
날
남
났
내
냐
너
년
노
놓
누
눈
뉴
느
는
늘
니
다
단
달
담
당
대
더
던
데
도
독
돈
동
됐
되
된
두
드
든
들
등
디
따
딸
때
떳
떻
또
라
락
람
랑
래
러
런
렇
레
려
로
론
루
르
른
를
름
리
린
마
만
많
말
매
먼
멋
며
면
모
몰
못
무
문
물
뭐
미
민
바
박
밖
반
받
발
밝
버
번
벌
범
법
변
별
병
보
복
본
봤
부
분
불
뷰
비
빠
사
살
상
생
서
석
선
세
소
손
송
수
순
숨
스
슬
습
시
식
신
실
싫
심
싶
싸
씨
아
안
않
알
았
애
야
약
양
어
억
언
얼
엄
없
었
에
여
연
열
였
영
예
오
온
올
와
왔
왜
외
요
용
우
운
울
워
원
웠
위
유
으
은
을
음
응
의
이
인
일
있
자
작
잘
장
재
저
적
전
점
정
제
져
조
좀
주
죽
준
중
증
지
직
진
질
집
쪽
차
찰
처
청
체
추
출
취
친
키
타
태
터
테
판
편
평
표
하
한
할
함
해
했
행
혀
현
혐
형
혜
호
혹
혼
화
확
활
황
회
후
훈
흥
히
힘
️
﻿
（
）
：
＝
＞
�
🐒
😉
🙂
##g
##a
##r
##w
##l
##i
##n
##e
##f
##d
##s
##b
##u
##y
##p
##t
##c
##으
##로
##당
##간
##하
##게
##h
##o
##j
##x
##m
##k
##3
##8
##7
##v
##각
##고
##z
##1
##4
##6
##2
##0
##у
##с
##т
##е
##м
##q
##거
##정
##이
##었
##다
##는
##ロ
##ボ
##デ
##ィ
##ン
##の
##人
##遺
##体
##を
##発
##見
##し
##た
##5
##지
##ί
##τ
##ρ
##ο
##ν
##ř
##é
##­
##а
##о
##п
##и
##н
##ы
##й
##ῶ
##ς
##람
##은
##ă
##9
##下
##か
##履
##い
##て
##な
##っ
##ッ
##チ
##물
##ب
##ك
##ة
##€
##˜
##ä
##ě
##道
##ā
##月
##日
##が
##連
##に
##も
##関
##わ
##ら
##ず
##ü
##č
##í
##à
##大
##陸
##間
##弾
##ミ
##サ
##イ
##ル
##射
##光
##で
##あ
##こ
##と
##μ
##α
##л
##р
##к
##і
##б
##á
##ý
##음
##두
##
##기
##를
##件
##す
##る
##新
##事
##実
##報
##告
##®
##™
##´
##오
##아
##나
##론
##습
##더
##라
##ţ
##데
##д
##ь
##빠
##가
##ѕ
##소
##시
##​
##⁄
##意
##→
##è
##구
##도
##에
##°
##崩
##や
##風
##ど
##自
##然
##現
##象
##原
##因
##解
##示
##
##
##ö
##分
##ち
##離
##れ
##場
##�
##は
##外
##さ
##â
##¦
##청
##할
##ó
##า
##ไ
##ท
##ย
##편
##개
##며
##ト
##内
##側
##引
##き
##裂
##足
##び
##出
##범
##을
##ц
##
##в
##×
##ž
##ュ
##ド
##ラ
##š
##별
##적
##자
##친
##외
##י
##의
##았
##면
##ა
##ი
##ı
##ч
##査
##ː
##ˈ
##ɐ
##ʔ
##우
##−
##＞
##ů
##워
##보
##억
##했
##å
##ɛ
##ə
##ق
##و
##ل
##냐
##カ
##ー
##著
##作
##ú
##د
##ي
##려
##ع
##ا
##م
##살
##ë
##ş
##ğ
##ر
##ی
##ō
##г
##‎
##う
##遠
##征
##数
##物
##だ
##め
##﻿
##験
##何
##度
##行
##述
##ヴ
##ォ
##当
##局
##公
##式
##以
##ī
##장
##검
##증
##재
##ṭ
##ल
##ि
##र
##연
##양
##과
##니
##였
##마
##된
##락
##호
##사
##
##실
##디
##까
##中
##️
##들
##민
##권
##위
##원
##회
##ś
##요
##要
##位
##置
##設
##定
##最
##初
##版
##者
##ø
##ァ
##ヤ
##ム
##リ
##ャ
##ェ
##ナ
##활
##래
##서
##傷
##負
##在
##ウ
##科
##学
##生
##ñ
##死
##直
##接
##結
##つ
##く
##り
##ʻ
##운
##²
##œ
##ć
##切
##年
##반
##
##λ
##함
##광
##석
##씨
##번
##주
##ç
##ж
##있
##存
##全
##容
##明
##я
##인
##ά
##렇
##ò
##フ
##ス
##ク
##州
##家
##ジ
##ユ
##特
##対
##비
##던
##ゥ
##ビ
##ニ
##一
##不
##気
##遭
##難
##안
##랑
##수
##신
##올
##靴
##跡
##õ
##्
##ô
##з
##만
##년
##ю
##時
##知
##書
##け
##起
##よ
##低
##キ
##プ
##彼
##█
##目
##的
##어
##와
##무
##리
##х
##÷
##ห
##ม
##終
##地
##コ
##エ
##화
##ば
##ṣ
##ę
##작
##분
##복
##長
##モ
##メ
##タ
##立
##シ
##ョ
##小
##説
##찰
##전
##병
##ṛ
##ṇ
##ι
##δ
##걸
##식
##亡
##衣
##服
##ṃ
##처
##失
##ま
##ろ
##落
##겨
##레
##真
##æ
##ï
##½
##ό
##β
##ã
##ш
##ア
##高
##検
##察
##ê
##집
##γ
##υ
##해
##극
##状
##ヘ
##ピ
##理
##想
##ه
##노
##조
##든
##ت
##ਾ
##ń
##응
##느
##ʌ
##非
##研
##究
##回
##始
##져
##お
##じ
##代
##性
##약
##щ
##別
##後
##ф
##단
##¼
##ʒ
##้
##ว
##ก
##่
##ł
##レ
##현
##르
##
##제
##공
##동
##체
##向
##グ
##斜
##面
##상
##런
##骨
##折
##쪽
##
##û
##点
##雪
##覆
##域
##야
##온
##đ
##残
##순
##η
##入
##文
##벌
##한
##助
##독
##そ
##木
##애
##못
##되
##긴
##ن
##放
##線
##謎
##κ
##脱
##ツ
##ノ
##겠
##송
##스
##금
##次
##バ
##³
##건
##山
##혼
##난
##ḷ
##着
##テ
##ブ
##날
##ω
##ū
##σ
##미
##ㅋ
##변
##것
##通
##考
##θ
##ε
##ύ
##渓
##谷
##울
##ソ
##捜
##オ
##ホ
##국
##可
##혹
##모
##ù
##¹
##⁰
##여
##흥
##테
##달
##料
##機
##密
##送
##ز
##─
##⇓
##県
##법
##軍
##上
##げ
##え
##φ
##웠
##ὐ
##ώ
##π
##ワ
##記
##写
##推
##名
##ん
##ゲ
##른
##審
##問
##持
##マ
##べ
##견
##峠
##왔
##姿
##多
##果
##方
##혀
##표
##前
##至
##無
##係
##撃
##일
##열
##î
##京
##都
##차
##ด
##̇
##態
##温
##症
##태
##없
##ネ
##อ
##린
##測
##밖
##º
##س
##ط
##球
##登
##ح
##러
##ダ
##굴
##
##버
##ギ
##森
##先
##심
##子
##부
##◊
##♦
##저
##部
##ì
##へ
##생
##調
##開
##量
##能
##≤
##출
##เ
##ร
##ี
##น
##터
##ё
##ð
##됐
##χ
##봤
##선
##๋
##용
##훈
##ป
##ง
##常
##力
##極
##혐
##발
##資
##©
##±
##探
##경
##진
##ล
##判
##夜
##有
##확
##너
##む
##내
##語
##직
##ゴ
##索
##動
##東
##ξ
##황
##준
##뷰
##히
##北
##集
##루
##＝
##결
##문
##々
##ή
##隊
##ヒ
##ḍ
##드
##담
##本
##대
##떳
##질
##후
##혜
##늘
##매
##겁
##色
##ズ
##ß
##∷
##관
##画
##갔
##セ
##먼
##때
##예
##ゾ
##他
##∞
##행
##¸
##놓
##
##뉴
##손
##¢
##말
##났
##ῖ
##э
##름
##₂
##받
##έ
##돈
##형
##🐒
##중
##불
##판
##등
##많
##ظ
##ف
##떻
##점
##ē
##타
##세
th
##er
the
##in
##on
##at
##en
##es
##or
##ed
##nd
##ing
##ar
##an
to
##ou
in
##it
##al
of
##is
and
##ic
##as
##re
##om
##ion
##le
##ent
##ll
re
be
##ly
##st
##ot
##ve
wh
##id
on
##ac
##ut
that
is
st
##ow
##et
for
##ay
##ur
it
##am
##ad
pr
##ig
##se
##ct
##ld
##ver
##im
##ir
##ter
as
he
##ch
##ith
##ation
##ol
an
##ce
with
de
##th
you
##ers
##il
con
##ere
we
was
se
##op
##ill
ha
sh
ch
##est
com
fr
at
ne
##ess
##ate
##od
su
##ag
##ke
##ul
this
tr
##ment
are
##igh
##ain
##os
ex
or
al
##ist
##pp
not
##us
##oc
by
##ore
##ab
have
##ity
##ould
##if
##ive
##um
##ant
##un
from
le
##and
but
##em
##ort
##ies
go
##art
ab
sp
##iv
sa
pl
##ie
##ight
##ust
they
##el
un
##ear
wor
##ap
##ally
his
has
##ack
##all
##ect
pro
do
##out
20
##ard
en
##ost
can
##gh
##ome
ar
all
##ud
##ak
##ast
will
##end
##our
so
ad
##ib
##ich
##ge
said
us
cl
##ok
##ial
out
who
up
me
te
one
their
br
##ip
##ough
more
##ans
##tr
gr
##ame
res
new
im
##ound
##ions
comp
##ice
##ue
##ike
##her
##ous
there
##act
##ff
##one
am
##oun
##ia
##ure
##og
##age
##ong
man
about
##ine
if
ac
year
ag
ev
off
##ated
tim
cr
which
##ence
##pt
had
were
would
pe
##iz
int
rep
no
exp
what
##ind
sc
##ake
##ide
##ub
like
##ther
per
when
been
some
inc
co
##ach
fe
dr
##au
##ign
##own
##ber
##qu
part
af
tw
over
##ays
dis
##ace
##so
##ary
than
bec
201
her
lo
how
##able
just
##ite
qu
app
##ople
##ord
##ire
##ical
people
inter
##ish
##ian
also
##ose
my
##ations
##ile
str
work
mar
kn
##ult
time
##ree
get
##ass
your
##av
##ens
she
them
bl
any
pol
##int
fir
rec
other
##ec
##are
##ond
after
##ick
comm
##orm
its
ind
act
##ance
##lic
##ail
##ase
imp
our
play
##aw
##00
ever
##ro
19
##reat
fo
##uc
pre
po
ro
into
##amp
##fer
##gr
##ink
##ings
acc
##ition
bo
##ory
##vel
first
##oss
cont
##ep
##uct
ser
##ors
##ang
em
##ause
two
##itt
##ates
only
could
now
coun
ph
mo
most
him
des
##ert
##ious
may
##ents
##lect
sec
pres
##ks
und
back
##ade
##lo
bet
even
##enc
jo
cons
##ied
these
##ft
##ild
##ery
dec
##hing
att
##urn
did
because
don
again
bu
thr
every
wr
##ict
op
state
sy
##form
under
see
def
##iver
##ater
car
ob
##uch
rel
##we
inv
add
##ons
##day
know
high
then
##ry
min
ass
supp
##ual
years
ke
##ock
want
##erm
right
##iss
##ident
##ise
need
##lud
##ning
fl
##ra
where
many
##sel
mon
##wn
world
reg
##ments
call
make
ed
##ublic
down
##les
gu
par
##eric
##ved
fu
col
way
rem
well
dif
while
last
bel
contr
think
look
##fore
##oth
gen
##ell
being
team
ear
sch
ve
##oup
sm
americ
##ational
end
fin
##ject
id
show
##olog
includ
much
form
through
stud
##vern
very
##iew
inst
##ath
##ating
##ys
200
govern
##anc
those
##ason
long
##ump
dem
##aking
##other
##ily
##ics
##urr
should
say
10
##xt
##sp
start
##uring
##ative
##ited
before
##ower
##ities
report
sim
cent
use
war
##ific
##ased
good
##cc
##ty
##atch
does
ma
##ible
sub
own
med
##ting
cour
##ange
game
char
prob
point
such
hel
##ug
##ts
##ward
wee
here
##omet
##ince
going
##ters
##get
resp
dep
##ues
prod
eff
law
made
pers
##eral
##io
##az
mod
disc
aut
##ism
##ually
lead
##ular
##ving
##ix
##ility
cap
##llow
against
##orn
differ
take
##air
found
set
day
though
##up
##ier
##its
##ife
read
president
still
##illion
help
##ful
offic
great
sl
trans
three
government
##let
says
##ood
##man
##ope
somet
##ists
##ween
##ee
sign
spec
##ress
between
##ently
soc
##stem
mem
countr
prov
group
big
during
##als
real
num
sur
lar
elect
run
##ked
bus
since
same
##gan
really
##ying
system
around
both
hand
##ives
##irect
##ah
follow
public
leg
##self
##con
wom
##ene
##bo
prop
##yp
##ote
##led
##ork
##land
polit
##cept
cle
el
compan
##hip
##cr
support
##ient
##iet
##uss
##ames
##ves
ret
sen
mark
direct
##ever
##read
##velop
let
##ution
trump
find
##ouse
ho
det
conf
used
week
##ures
tal
##ton
person
fact
##ather
art
red
develop
fam
##cent
##way
met
##ern
cor
cre
progr
prot
happ
##ool
power
win
##ivers
post
##ered
iss
contin
##ines
##ash
bre
far
inf
##pr
##ax
##ik
##lish
city
old
month
##ience
##ave
commun
camp
told
put
nor
ann
lot
another
##istr
##ph
##ale
open
##ank
top
head
##ices
av
eng
tech
000
invest
second
adv
quest
intern
each
##akes
plan
##gest
life
##erg
rev
few
##ially
hum
belie
##ize
##ording
why
##per
##ont
too
opp
police
fil
##ount
##str
never
news
ord
ins
##lem
##ages
##ically
turn
##ency
loc
##ision
things
##ins
bar
poss
however
best
pass
conc
school
stand
requ
##ants
something
12
##ized
come
next
val
##ott
curr
##ime
##ior
##br
states
##alth
different
hard
##ead
##ology
four
ll
##tern
mil
ide
##ger
##co
might
##bs
##ute
main
rele
proc
serv
##err
11
according
air
##ling
##thing
test
##ody
##iving
result
##bers
house
##med
15
##ets
build
home
partic
dat
season
sk
problem
prof
##ric
##ention
econ
percent
##ne
##ret
including
american
##ri
list
econom
##ark
full
without
auth
feel
child
incre
national
product
import
seem
chr
free
##iness
fun
expl
##ittle
sw
##res
##ull
less
pop
care
##ield
allow
##ness
##son
##ined
number
##king
million
##pl
left
exper
level
little
techn
spe
ref
##ected
##ced
ext
called
better
18
##ner
beh
inform
country
la
##ces
##earch
research
##ately
sol
pos
pat
##ably
keep
place
interest
near
mus
rest
pay
face
ir
##aim
effect
adm
sou
mat
##iting
cond
##osed
arr
prev
times
##red
got
##ina
##ama
##ways
book
using
design
eas
har
gre
##ering
case
##ital
bit
maj
##til
##ten
##ised
##ats
program
cal
consid
miss
didn
typ
##over
press
move
##oney
term
##ral
##ains
##ction
##eng
##ocr
eur
##ained
##uck
simp
sever
prom
stre
hist
later
##ds
story
based
star
white
change
business
attack
del
clear
##inal
women
mid
mr
##ned
major
court
ra
cost
small
##hn
company
##ived
##ends
ste
organ
aff
##ven
##ense
class
appear
##atur
mean
##ator
##atic
health
project
univers
author
gl
vis
##line
polic
human
##ister
##iven
united
net
phot
30
lib
money
today
data
cert
##less
process
always
pur
past
terr
bas
##ged
chang
##ared
sing
once
party
important
rece
est
must
##aff
record
democr
ent
tax
##ature
claim
##ren
##ided
thing
##ready
already
political
##ians
fund
black
tell
var
##wh
line
grow
vide
men
making
view
##used
pot
least
pa
until
##ury
deb
opt
vi
##stand
return
former
fri
social
##be
##aining
##me
##ample
john
water
##erv
##aph
large
hal
oper
##app
##ases
lear
199
##ences
official
##ending
mor
days
family
happen
land
##aign
information
edit
games
media
campaign
occ
sit
##loy
actually
youn
ap
##ether
appro
##oub
##att
market
13
##itch
hu
kill
##acy
night
vot
republic
foot
kind
able
enough
order
emp
##ley
##ode
es
gener
arg
##augh
##ew
wal
doesn
won
14
fac
five
name
##unch
##ired
##orts
fed
several
##ession
often
##mm
bill
ant
sug
become
##ief
working
away
non
##ium
yet
##ality
watch
exc
hour
early
came
having
equ
##ird
north
##ified
secur
crit
sure
fur
##gin
players
stop
##ued
trad
##ards
whether
europe
##ising
##ush
give
question
##sh
deal
fre
perform
16
lab
event
arm
##ball
ge
##ensive
fut
sour
##ipp
meet
##crib
##ides
##ential
ca
complet
cho
certain
##ison
cover
##iam
activ
york
priv
##els
vers
##ization
##ony
step
known
lim
short
##empt
##enn
among
took
25
##ember
##erman
##ove
##ither
local
##itions
##idence
asked
control
course
bro
##ov
seen
charac
##ru
low
##icle
doing
dev
orig
##aps
within
dom
##lex
university
alm
went
17
pract
along
side
esp
sn
##aken
love
given
pub
##iety
general
##inc
acr
likely
##te
##ories
##uary
example
succ
##iously
sal
depart
light
##aring
members
##ought
investig
##ended
possible
young
security
fail
##ots
strong
obama
##ones
christ
future
hold
tot
understand
video
##thers
ce
##side
viol
##ane
across
##lf
interv
children
enter
##que
space
##ann
##ured
##tt
##mber
##ateg
community
##urs
thought
reason
addition
##imate
announ
done
mind
##ivid
following
means
##work
film
##by
conn
south
sound
##une
const
further
##itter
##oci
00
months
success
believe
russ
##arch
##ilar
getting
indust
reported
others
office
almost
##ination
fight
##ware
half
mag
anal
super
creat
100
##fe
##ague
ident
series
##lished
vict
suggest
sex
makes
rul
##ted
##oph
compet
cut
fall
history
glo
ple
study
international
fire
##itive
bad
##ortun
invol
issue
associ
distr
mom
instead
started
america
policy
##por
##book
canad
##par
50
##vers
##ergy
milit
particular
repres
scient
avail
sho
food
tar
live
rather
looking
##com
try
2016
service
similar
area
ep
reach
individ
##osp
quick
key
idea
##lement
imm
fig
colle
##ars
##ulation
lat
##aged
env
den
toget
together
foc
sent
##ows
points
##ference
cult
##ai
cell
ris
##ators
bene
special
intr
impro
added
ban
close
six
wind
isn
death
##ape
anything
##uction
protect
tre
##ler
trying
##back
mass
##ances
##uce
federal
dist
front
stat
german
##imes
committ
aust
##fic
cam
center
individual
comes
port
pick
##eign
discuss
rad
ago
##utes
##bal
admin
present
twitter
secret
behind
cy
mult
taken
##ids
capt
recent
2015
jud
##ored
energy
complete
er
job
available
cop
west
##ogr
##uced
san
upd
rights
nothing
tit
vir
entire
21
relig
init
pret
##selves
##ission
someone
development
email
mess
current
##erc
##ability
ey
player
##wards
wa
god
employ
attempt
access
wanted
saying
probably
mot
taking
gun
experience
field
exec
hit
image
infl
either
jour
##though
dam
##igr
phys
although
2014
dav
single
##iron
##ument
##ps
china
##aper
match
##aster
##0s
third
fav
brit
##ls
action
##ald
enc
doub
##ges
cann
break
room
bi
aud
threat
exist
department
desp
aver
cust
##amed
coming
economic
bring
rich
##sw
che
doc
clint
##ands
##uly
educ
body
conv
interview
##vert
mill
league
concern
earl
due
environ
summ
washing
tra
##rael
final
everything
countries
continue
cand
##for
##leg
late
woman
##reme
chec
administr
israel
##gress
simply
price
lang
##ipt
2017
signific
election
hom
##oy
##ming
else
club
civ
tem
##nes
##sy
specific
meas
collect
##iter
clinton
##den
##aces
##uation
describ
ground
review
building
represent
begin
street
share
minister
track
everyone
vol
bud
below
issues
matter
ball
evidence
div
washington
bank
director
target
et
##old
deep
words
198
foreign
22
ur
relations
scre
companies
block
hope
##fl
coup
chall
role
##uff
wasn
abs
military
true
outside
cir
uk
##mb
launch
treat
conserv
24
billion
environment
common
##ij
position
saw
create
yes
legal
respons
jan
diffic
comb
repl
difficult
link
mal
squ
coach
2013
self
gold
2012
custom
force
espec
running
##yn
##ival
##dle
##ites
wrote
especially
##ring
##ule
sand
leaders
##use
whole
financ
green
despite
##urch
playing
led
agree
susp
higher
article
technology
neg
terror
##lling
##ault
character
vo
##ength
##ify
obs
students
earlier
pet
music
total
age
global
decision
##ogn
version
benef
##umb
circ
dest
##ney
significant
soft
candid
society
pretty
mc
pal
vote
suff
expect
seems
gir
hours
##ibility
detail
da
nation
coll
##ully
##af
became
civil
type
langu
dead
march
sense
board
value
facebook
pan
page
services
champ
answ
site
##ively
decl
pred
htt
##ional
needs
talk
engine
shoot
subject
consider
potential
bur
include
church
cit
##ana
##ological
release
##nal
##ench
drop
network
40
##lam
##orr
##oud
related
##ograph
provide
aw
began
mov
##onse
road
ill
statement
source
##asing
##iday
inj
##ental
advert
speak
##ural
above
##go
##body
##aft
itself
word
drug
object
shows
mich
nec
##esh
refer
##ibut
cred
played
instit
themselves
himself
football
pain
note
execut
lost
accept
online
heart
results
##ender
##und
popular
officials
broad
laws
questions
##ests
base
wall
##yle
norm
rob
wed
defense
changes
industry
connect
##fully
needed
released
##oring
staff
host
stay
##hood
recently
response
friends
##ped
chief
##iple
groups
corre
approach
opportun
photo
sund
anyone
nearly
consum
##iod
##port
ang
##istic
cur
soon
##action
##ilt
search
model
function
meth
paul
living
##ift
science
tele
sept
##oint
hill
##ster
heav
##elt
personal
period
ah
particip
sil
##rew
mic
##ms
pack
published
##lim
ul
##erty
address
east
mis
##omp
##atives
works
middle
private
oct
hot
prim
goal
anti
flo
forward
republican
moment
college
di
shot
draw
197
created
quite
scr
teams
respond
##asons
select
express
minutes
hon
##oll
held
##aced
strateg
##load
longer
hun
je
round
exact
##apan
weeks
cases
constr
introd
average
rock
content
problems
shar
regard
card
mater
tur
internet
focus
##urd
##ucture
japan
race
wrong
##attle
extr
natur
park
americans
learn
journal
##olution
chance
arch
text
administration
islam
##osing
pict
2011
leader
aug
webs
comment
calif
##haps
log
##lus
announced
28
##ades
perhaps
fem
que
##key
##epend
hop
oil
town
##ished
friend
risk
##ron
##atures
##okes
capital
easy
196
##iding
leave
23
##rop
##ises
##medi
austral
language
earth
influ
ver
son
##rupt
original
king
mond
independ
maybe
reports
sometimes
impact
account
member
june
congress
fair
increase
wide
worth
india
buy
bal
pie
##ugg
financial
##ream
demand
education
##ob
##arter
manag
currently
size
##ique
##arr
studies
inside
##thern
##sec
##itting
defin
ess
##ex
unf
comput
##ude
##na
recogn
##yr
dece
rac
##cil
users
##ellig
favor
ways
expected
finally
please
##ino
progress
check
##uth
via
contract
##ey
constit
##ops
goog
tues
ira
reve
##ested
committee
doll
27
production
tuesday
happened
method
##isl
##ips
##where
sunday
climate
intellig
##oke
google
dog
performance
sold
situation
david
dig
##ett
immedi
##anger
rules
worked
blood
##bc
2010
##gn
january
loss
##uit
##cript
li
rate
##lin
complex
99
ran
teach
emerg
friday
surve
fans
tool
##omm
turned
terms
cannot
necess
ten
european
##itten
famil
relationship
movement
##ees
determ
web
phil
legisl
anim
attr
##ried
except
received
apr
jack
surpr
material
monday
##lear
aren
ask
ability
standard
il
##ners
indic
central
##coin
speed
californ
##bert
couple
gar
weap
obv
involved
quickly
iraq
british
thous
##ese
##ores
workers
confir
##aming
amount
practice
september
lay
oh
##fect
contact
simple
becom
applic
modern
plans
estab
mach
economy
sun
leav
events
phone
cast
##ging
built
poll
cup
images
ok
takes
tradition
gave
sat
tv
##atory
trade
##idents
##ilities
heard
##of
enj
council
26
canada
figure
mart
unl
syr
camer
##ients
##iff
discover
april
pull
##ctor
chair
prem
insp
conference
respect
tom
poor
lack
separ
guard
ach
crim
iran
##izing
career
push
##onstr
century
sens
##amm
subs
decided
july
sup
expert
eight
fix
##eal
morning
ele
lives
slow
meeting
##oon
hear
travel
paper
##ael
prior
bir
felt
table
grand
##xic
nove
wednes
california
pen
color
communic
killed
growth
training
behav
huge
##ask
neigh
veh
extreme
considered
lower
##ams
remember
code
##tain
officers
neighb
##pect
mother
rom
range
##estern
whose
additional
wednesday
hall
serious
improve
father
wond
included
talking
goes
corpor
russia
fast
visit
democratic
##imum
december
fal
cross
perfect
purp
fear
compl
##eech
seven
quality
assist
dark
##ening
speech
resour
##raft
bott
satur
##osition
##ung
song
##ibly
november
hy
justice
##iction
unc
afric
quarter
numbers
august
hands
deliver
##ened
item
reading
##eed
##off
knew
##force
##orters
##ceed
imag
regular
eg
offer
require
medical
##ining
agency
choice
analys
epis
##20
guy
citiz
reb
user
daily
cause
hosp
##icles
##ober
forces
spent
box
movie
tried
website
bey
various
##iation
##omb
officer
intelligence
29
##to
plat
alb
gets
county
medic
skill
##ider
areas
senate
title
##cl
boy
##play
previous
hund
##etic
geor
champions
35
wild
writing
##light
##uk
##uf
reveal
2009
file
named
thurs
##ires
written
allowed
immigr
software
sort
##mp
##ctions
concept
clean
advertise
natural
##oid
##kn
##ledge
culture
hundred
island
##istan
certainly
october
date
inn
bitcoin
##bi
##ume
jobs
kh
prep
##idge
document
##owd
upon
thursday
union
##ubb
##ondon
victim
fill
brown
starting
conduct
beyond
sett
exactly
parents
interesting
opportunity
##cer
gas
stories
trust
budget
##atter
##dr
saf
2008
rap
##ux
touch
william
particularly
london
biggest
##aut
republicans
attention
##craft
usually
majority
##ification
pressure
completely
swe
##oles
commission
safe
brought
##itted
bush
ice
##agement
systems
schools
##arily
##ida
features
donald
politics
muslim
##eter
##essional
investigation
cele
hous
ow
cris
autom
executive
western
style
convers
##ounts
freed
http
mad
mention
##zz
##lly
answer
stuff
population
##iant
##sequ
amaz
histor
##aries
prison
saturday
ens
max
letter
fa
##ety
critic
message
continued
##bit
##ament
##uses
crime
##sych
##oo
drink
##encies
latest
update
alle
spir
effects
growing
achie
##inated
##isions
counter
wants
roll
thinking
demonstr
celebr
##sc
princ
##inese
voters
ny
looks
tor
##ously
looked
property
enjoy
deg
##enced
effort
chinese
##ha
appar
blue
##entially
cook
45
cat
comments
##aging
levels
kids
mob
##ugh
implement
leading
danger
pun
##erve
##ma
attacks
psych
spokes
##wor
##imately
democrats
debate
limited
secretary
income
##asc
##oses
attorn
60
##uments
peace
inte
remain
reality
frequ
germany
battle
alone
##come
district
religious
31
nuc
##fort
print
blog
emb
meaning
overall
english
described
required
purch
wouldn
disp
calls
remains
##adem
febr
write
authority
500
##enge
regul
mcc
sports
entr
ready
increasing
band
install
##aught
freedom
february
mount
##mon
army
summer
ult
thus
plant
click
nature
##uing
claims
bow
##eth
##ension
rand
wife
reasons
organization
physical
scene
experi
ii
store
recomm
flor
##anced
russian
path
indian
##ground
changed
bord
jer
spot
##reg
drive
command
products
contribut
presidential
surv
eventually
criminal
##mer
ut
brain
carry
violence
platform
safety
paid
traff
stra
strugg
fly
twe
immediately
exch
altern
##eless
throughout
estim
extra
analysis
james
##ky
efforts
profess
thousands
prime
couldn
status
mix
##erson
exam
gone
stage
sem
prec
conditions
liberal
walk
fit
kore
academ
multiple
kick
mac
surr
toward
difference
analy
nuclear
eth
pitch
costs
crisis
parts
bab
hair
increased
grad
subst
prevent
ign
##ham
ones
directly
hospital
download
happy
nom
rout
##field
thanks
manager
beat
positive
conservative
lines
ww
##ford
provided
labor
credit
integr
##cs
mech
draft
2007
##ables
brand
cars
promot
appears
stem
195
produc
associated
##enue
##astic
receive
ahead
pm
##iers
##sa
plus
##isc
showed
largest
dan
liter
region
##utions
##ga
##hib
perm
esc
measure
vs
tex
disapp
constitution
burn
eu
spending
moving
##inary
arab
student
##ban
guys
michael
designed
radio
##ufact
core
jaz
eyes
die
towards
hero
strength
clearly
damage
##ustr
smith
##he
##anch
unit
followed
beginning
tour
trial
repe
virt
challeng
lin
##oken
manufact
unlike
##ocks
##ze
scen
predict
episode
compared
sexual
candidate
details
correct
mer
##akers
truth
##ortion
##aker
thank
senior
advertisement
nav
##64
failed
whate
option
wood
##ara
beg
##ikes
whatever
categ
door
brother
agreement
micr
##ypt
theory
hell
save
opin
absol
moved
relative
ideas
citizens
hyp
##cast
##hold
section
marri
helped
restr
voice
origin
giving
32
der
vill
french
##face
ital
haven
coal
apple
projects
activity
hur
yourself
knowledge
ended
##box
shown
##aint
feed
##using
##ivity
mission
computer
##astr
defe
smart
screen
florida
od
consist
developed
normal
fan
van
notice
books
individuals
37
mexic
agre
includes
greater
occup
born
gives
murd
meant
association
independent
##ef
##wise
##ping
sched
australia
clos
scale
cool
photos
encour
telev
dream
dise
corn
dut
fine
cyc
album
www
religion
ben
rule
##ny
##ago
##phone
policies
basic
ath
##ero
feature
passed
heavy
resources
absolute
sle
chann
minor
reflect
piece
narr
rh
haw
slight
fully
wait
square
forced
spread
electric
authorities
judge
jump
##yan
##eration
##iny
prosec
uses
expand
incident
##ado
##ille
structure
mechan
sud
impress
shut
shooting
reform
remo
characters
##val
##arian
coff
experim
err
championship
##yal
##berg
##ios
attorney
hol
tick
##set
34
rise
##owers
lob
avoid
##ipped
sanders
map
##owing
crowd
join
conflic
##rim
##erved
willing
count
reached
aim
##orter
sell
supposed
editor
critical
chic
##apt
advant
eye
calling
primary
33
bay
ip
lif
wel
unique
learning
##ev
defend
highly
foundation
none
winning
researchers
girl
##enty
##ocked
larger
posted
chris
alleged
myself
previously
organiz
sources
treatment
texas
mike
##ona
##sey
noted
##unt
driving
actions
politic
condition
strategy
died
##aur
illeg
bottom
straight
wil
##iate
contain
continues
ms
thom
places
affect
benefits
behavior
speaking
double
##li
##ki
station
2018
apart
gh
gay
nice
therefore
produced
minimum
request
##istry
##eno
powerful
generation
necessary
mist
trib
adj
decades
highest
kept
pattern
challenge
mel
nations
compar
partners
easily
domin
weapons
gree
rare
weight
qual
indeed
female
leaving
##ula
spend
syn
caused
36
goals
##iance
propos
successful
##ici
##amb
weekend
angel
fat
80
kr
nut
tough
##rec
spr
chem
##room
picture
##lor
##ato
frank
destro
wonder
pac
tro
mostly
transport
seemed
industr
creating
bed
hus
##down
management
christian
influence
75
gal
lic
##unk
raised
etc
benefit
george
professor
jazz
fighting
environmental
##roid
##amples
flight
patients
appeared
initial
cities
notes
charge
fox
##while
confirmed
##iar
pair
opening
marriage
television
jew
##uana
programs
libr
##aughter
ec
tend
whom
194
knows
memory
sales
##ste
chap
machine
length
##iced
lawy
signed
opened
records
millions
traffic
##put
franc
defensive
opposition
lou
los
##iel
adop
grant
quant
species
send
recover
debt
thomas
nine
##hi
##ented
react
sea
fresh
##itely
happens
funding
95
rat
##ches
##ibution
brief
generally
chicago
rub
##iles
##iled
enforce
options
operations
survey
agreed
ali
uns
residents
parties
audience
hack
##ya
troub
magaz
dollars
families
anc
limit
banks
display
competition
massive
favorite
traditional
ber
##ba
##itz
score
mah
professional
male
rid
enem
##ube
owners
understanding
martin
##bon
##onents
##aked
brew
occurr
choose
##oft
feet
false
90
ye
##uge
fort
##ishing
infr
occas
spirit
64
70
vac
org
subm
allows
windows
japanese
mir
stick
adult
scott
adding
advoc
claimed
rank
##itness
whe
commerc
assault
investment
39
cas
river
wing
##agon
robert
switch
customers
floor
##itude
##ifying
spect
cru
firm
accomp
seeing
insur
solid
canadian
##ijuana
##band
incred
load
supporters
protest
cells
separate
du
spring
hillary
purpose
models
##ropri
syria
fif
##iring
bull
controver
snow
offensive
driver
parl
proper
islamic
##10
stock
trip
hundreds
comfort
graph
charges
produce
putting
interested
sites
attract
##iverse
provides
bag
sad
stone
explained
palest
establish
hor
math
##iest
##itor
beaut
served
unfortun
crew
southern
award
names
##iro
shared
instr
catch
era
##ario
android
shel
emot
transl
doubt
worse
negative
obviously
65
kar
##dom
feeling
cab
nfl
##zen
##icient
candidates
digital
birth
bomb
diet
##cing
france
exerc
active
extremely
coffee
##nn
##essed
poly
communities
legislation
camera
ther
amb
coast
finding
learned
device
scientists
richard
##ta
spl
cold
refuge
parliam
##yl
heat
worst
##cul
##vin
##ston
dism
marijuana
actual
assum
##apped
lose
2006
responsible
becoming
neighbor
commercial
mos
rough
##lied
beer
closed
offered
annual
believed
effective
johnson
##ipping
protection
concerns
vehicle
lad
##ext
##outh
iron
advantage
fant
sher
##odies
explain
israeli
border
##more
acqu
showing
owner
standing
employees
jeff
##vant
##eline
prefer
caption
institute
migr
northern
victory
items
dangerous
exchange
43
si
wage
##uries
##che
wealth
##estic
##aine
sport
plays
elements
prices
##uters
parliament
witness
register
optim
announce
entirely
nas
rates
##la
##ica
commit
supply
##board
##iber
##airs
construction
tools
magazine
master
##ville
##semb
solution
revealed
cash
luck
##cell
governor
arrested
apparently
49
horr
vice
##iling
##ounds
convention
temper
slightly
os
stad
planned
random
illegal
francis
300
cath
##gs
##inate
usa
##ipl
##izes
otherwise
transform
values
tests
batter
kid
##wood
shop
coop
watching
failure
holding
application
rang
ton
##ipe
joined
48
2000
##aves
fourth
##ospect
suspect
42
mail
##isation
##ota
##oted
fellow
flag
ensure
ko
##erry
advis
zone
##ushing
##umn
centre
supreme
channel
alex
bul
##olic
truly
##antly
easier
meanwhile
argument
##stein
ham
pc
sam
asking
frame
##oster
controll
glass
markets
listen
38
hate
laugh
##onent
##ano
span
farm
vari
existing
negot
storm
serve
division
achieve
bowl
dar
gather
profile
opinion
stadium
52
wish
##my
##icted
construct
surround
##bur
##ca
##house
braz
offers
fell
partner
discussion
virgin
concerned
replace
introduced
conversation
hind
mere
##da
##men
novel
string
transfer
##coming
pin
##wide
##inct
onto
sav
unp
proposed
##acity
##abb
bob
decisions
solar
initi
documents
recommend
##ih
##time
##11
bell
minute
##ancy
micros
44
waiting
definitely
##kin
mayor
revolution
spokesman
jim
wat
##rem
doct
apply
193
missing
types
afford
sounds
destroy
comed
athlet
adjust
enforcement
##fs
hearing
resist
breaking
55
pap
tant
##bl
aspect
clin
##know
ultimately
removed
louis
bern
gain
jose
tack
interp
fuel
supported
allowing
largely
repeated
getty
decade
planning
experts
medicine
mobile
murder
ju
##ingly
runs
tells
##works
infrastr
carol
detect
homes
gop
stated
highlight
direction
arrived
basis
housing
library
saud
surface
older
steph
scientology
williams
##eren
guess
requires
streets
coverage
domain
rain
consequ
train
context
edge
turns
sky
restaur
purs
focused
launched
fle
##ada
suc
acknow
seek
differences
elections
stopped
copyr
discovered
copyright
ps
rog
reuters
depend
becomes
ram
##ym
##odes
##abor
spoke
doctor
crash
accused
##azy
telling
activities
suggested
faith
pu
tow
##ige
##ils
atl
##issions
schem
useful
participants
infrastructure
ren
##gl
england
specifically
prosecut
rs
sust
appoint
strike
background
carl
absolutely
jes
vul
unless
britain
ded
yell
##ole
plants
attend
2003
issued
alternative
disease
66
##atically
##ulf
##igned
setting
african
tweet
na
reject
appeal
mont
miles
obvious
##eness
basically
identified
emergency
41
bon
ty
##ka
##ani
##olf
weak
democracy
##isf
##osen
interact
writ
providing
developing
domestic
injury
imagine
dim
eat
tun
##ius
##za
##cel
bridge
imposs
skin
feels
skills
##arm
##acher
earn
2005
articles
files
smaller
https
subscrib
conflict
las
vast
##uate
ship
##pper
##ption
believes
leadership
princip
degree
identity
balance
relatively
zero
##oom
##itable
hasn
crack
immigration
sleep
alloc
interests
healthy
suggests
hang
pil
assemb
returned
dropped
47
##usion
appropri
accounts
studio
##ression
corporate
rapid
rush
##gb
##ront
##equ
##aks
newsp
2019
advanced
keeping
honest
regarding
established
##oked
coord
standards
paying
scientific
girls
##ulated
cancer
photograph
operation
window
originally
palestin
rene
task
##gers
prospect
seed
reduce
##cription
victims
cart
cards
sitting
##ques
wars
currency
instruct
54
gard
consc
2001
senator
raise
ron
##nel
##ox
##irt
neither
drivers
testing
businesses
views
innov
ment
ox
rose
ryan
##osh
cloud
seconds
changing
sharp
##enoord
unfortunately
53
bond
resc
carbon
metal
terrorism
impossible
01
mary
tact
##ae
##ris
##ari
trick
abuse
afgh
twice
accur
owned
labour
steps
budd
responsibility
fol
gall
placed
proceed
managed
possibility
conclud
equal
privacy
committed
veter
stan
##ulate
discrim
location
##arko
exclus
dollar
pip
##onom
pool
presence
swed
##resp
korea
##icip
##istics
recall
##otten
mentioned
purchase
powers
aircraft
harm
voting
equip
dyn
ped
wear
##emen
broken
symb
flat
africa
organizations
chapter
vision
##ener
amend
eval
capacity
##ception
stars
measures
##going
yards
##inn
finished
##onto
votes
arms
yeah
ken
##antic
##roll
facing
losing
nick
sac
wik
##itory
intel
parent
bigger
internal
philos
angeles
brazil
lie
##ble
tourn
affected
##onym
presented
attempts
neighborhood
nh
helping
considering
sudden
aware
sides
##tained
variety
figures
greek
sector
##enses
buff
familiar
oly
##ata
##ola
neur
alleg
##erties
elected
factors
planet
patr
visual
taxes
ceo
mexico
rum
clar
charged
factor
technical
devices
##ophy
broadcast
complexity
toronto
occurred
dial
tight
killing
connection
afghan
46
mental
##iated
##inating
##agr
##ander
craft
guide
circum
lived
mas
sample
##ker
beach
weather
diss
struct
instance
protes
funds
cuts
linked
nyarko
daughter
jon
##pm
##awn
moon
potentially
publish
politicians
beautif
olymp
caught
mand
##gu
##aud
##kins
##arant
##outs
compr
seriously
founder
famous
penn
##ship
##town
##mas
##ania
param
voted
fi
fest
jones
rail
supporting
cultural
drugs
51
bbc
lake
concent
consult
positions
steve
appearance
recorded
faced
widely
coalition
microsoft
gi
horn
rod
##uel
##igan
prepared
insurance
bes
mort
wid
shape
##enda
assess
magic
motiv
hurt
##ken
##itation
alt
worry
remind
remained
governments
charl
passing
faster
tag
spons
clim
fired
signs
eastern
methods
liqu
baby
##nam
##aded
##uls
carr
##others
typically
cannab
penal
saudi
bodies
sor
##right
##head
##agn
##anta
armed
joint
throw
wrest
finish
arrest
videos
proposal
concentr
##hol
teen
resident
writer
starts
elim
weapon
satisf
egypt
increasingly
gender
gaming
jun
weren
##uous
##oned
##igg
nobody
emph
##well
ministry
refused
amazing
nasa
equipment
##lig
##lies
##uted
selling
##essions
collection
premier
din
##ding
carried
engineering
carolina
cow
ire
##enger
##agues
trail
covered
linux
husband
##18
##ibute
decide
seeking
guarant
talks
fixed
industrial
lu
##iot
agent
fey
forms
possibly
happening
copy
panel
analyst
##32
complic
statements
2002
argued
totally
sar
##fc
sharing
shift
intended
default
magn
corner
troops
85
##do
retr
wearing
orange
##emp
##ansion
2004
investors
practices
entertain
suffered
astr
bost
jav
tiss
reference
sequ
seasons
##ogen
recru
proced
bringing
shares
pak
##lock
##lines
##real
##tered
seg
##pped
schol
tempor
hawai
bid
##uations
rein
##iders
abortion
##gry
writes
defence
paris
retire
revenue
terrorist
filled
category
error
##aints
column
pointed
handle
lots
conclus
initially
challenges
iv
les
util
##gor
##aj
##ez
stret
##illing
agencies
confidence
ruling
combined
australian
400
aid
gap
ske
wire
##30
##stream
royal
guid
remaining
posts
consumer
essential
chairman
boston
fish
mun
##acing
##verse
expensive
joe
fing
rup
anth
plenty
nov
aftern
implic
deput
identify
updates
employment
motion
miller
customer
vehicles
conducted
ancient
oce
pic
##owed
##ocol
helps
schedul
breat
jail
pages
##bn
##omen
myth
marg
boost
secure
flash
maintain
grew
regardless
leaves
okay
cu
cia
ring
##ita
evil
scores
everybody
developers
conservatives
substant
virginia
##mark
examples
anyway
electron
exercise
3d
fake
kat
lit
mu
##any
##ales
shad
accident
belong
turning
matters
element
sale
tast
##isher
##stone
seat
##oking
brad
edition
remove
greatest
winter
excited
urban
hotel
animals
entry
roughly
##wr
##how
##erate
offering
##ords
##ensions
formula
plane
audio
feyenoord
ell
om
rot
tap
##gen
##osure
apprec
playoff
##ictions
perspect
encoun
determined
dismiss
renew
emphas
fbi
##19
##erous
isis
spell
universe
distance
circumst
##pass
topic
filed
increases
guns
pictures
soldiers
estimated
chemical
protesters
thread
##oma
##ette
##amental
##kel
##ighter
lee
columb
creative
determine
animal
interpret
afternoon
viet
forget
##ura
##ansas
crimes
##ucks
regime
subsequ
quarterback
experienced
closer
mahiro
vulner
56
native
yemen
##aver
##xual
##icated
frustr
##ours
##ucing
leads
advance
newslet
criticism
tiny
##der
##point
andrew
cry
herself
located
##atured
critics
declared
femin
ireland
ba
bure
##bre
##ini
congr
##ights
intent
mars
paral
personally
datab
jesus
bol
vent
##ati
##otyp
aside
involve
motor
##ography
essentially
communication
disappoint
youth
##abilities
ariz
featured
dram
evening
finance
extent
christmas
entered
micro
applications
##reh
forg
##uration
asia
comic
communications
gm
hat
ash
##atell
strange
humans
##loyment
updated
consumers
az
bound
mut
##ias
##yc
##ket
##isters
##ayed
discl
talent
admitted
observ
significantly
lawsuit
expressed
pulled
experiment
lock
nic
row
rally
##ss
ongoing
##urb
contrast
##othes
mode
findings
reduced
functions
connected
treas
turk
surprising
lawyer
trouble
beautiful
tissue
bureau
cnn
fash
tail
##enth
offense
explo
##ups
fundamental
completed
institutions
ghost
ol
sought
##aling
shock
##ager
valid
##standing
##ibuted
##inet
##oms
units
crazy
##izz
##roit
silver
jersey
francisco
battery
symbol
entertainment
##asy
##illa
prove
boys
advice
approx
broke
radical
yester
responded
hopes
village
controvers
gang
nba
rising
wake
wave
proud
resol
legit
corrupt
explan
classic
opportunities
teaching
pakistan
62
giant
satell
tear
reaction
reserve
phase
shouldn
thoughts
faces
emails
yesterday
##isted
##abe
scar
regional
wins
##place
reportedly
collabor
script
galax
negoti
fashion
bare
batt
gear
##ns
##onic
yout
shr
pled
reporters
joke
knowing
##ologies
capable
ukr
illustr
amazon
bought
##acle
teacher
detroit
150
importance
violent
academic
begins
pure
##arks
aband
sci
stress
married
decre
monit
opposed
operating
sugar
discussed
volume
kingdom
newspaper
##de
##amin
missed
stream
movies
package
enemy
stretch
##ador
hey
excell
gov
amp
scot
192
warning
realize
moral
activists
treated
declined
jackson
kir
##onna
resolution
perman
##encing
relevant
existence
wilson
merely
##ii
##rees
forest
chart
##ector
drag
phen
warr
ordered
affairs
argue
enterpr
champion
honor
pieces
muslims
virtual
welcome
papers
dynam
ocean
##tle
exhib
##anda
usual
upgr
flav
ends
warned
auto
readers
memor
promise
walking
italy
restaurant
bat
morm
##dp
##inent
##rel
##abil
##uster
charles
follows
surprise
wheel
##erb
##itect
##iture
cham
contains
##what
films
distribution
latter
destr
assistant
uncert
drinking
##respond
tournament
63
##makers
##icit
##ading
atm
algor
##aped
incor
reporting
talked
correspond
household
profit
causes
competitive
deaths
flood
dogs
syrian
literally
therap
afghanistan
fasc
hr
proof
agenda
expansion
sym
buildings
squad
injuries
route
algorith
##nic
forum
gross
opponents
slowly
py
ray
sick
theat
##iti
##ache
quiet
underst
defined
##lands
percentage
severe
injured
deputy
perspective
cens
muse
##otic
shots
unus
applied
ourselves
depth
numerous
electr
picked
heavily
turkey
architect
amendment
dad
mouth
ride
forth
desk
transition
milk
tested
correl
exception
defeat
comfortable
split
writers
youtube
cos
cole
driven
anywhere
##road
kevin
combat
objects
##draw
jewish
spanish
bench
neut
##usal
marc
serving
nearby
trading
traditions
unlikely
comparison
dipl
hoc
mi
##16
##edia
suit
bright
somewhat
thinks
prompt
causing
controversial
59
rend
##iration
weird
allen
manning
warm
confident
universal
younger
journey
historical
disappear
manufactur
occasion
conscious
hide
luc
ru
rif
raw
wound
##po
##lets
explains
soul
greg
basket
watched
links
peter
accepted
surveill
sustain
##pa
branch
##ached
dish
flow
campus
authors
denied
cheap
subjects
##iciency
mathem
fab
mm
##ml
##orage
##lying
shall
##osite
unable
adapt
loved
kelly
instru
artist
advent
bills
brook
moments
escape
mine
tree
##oul
isol
stable
pra
trend
alco
assert
##ologist
##whel
##iami
##known
announcement
##here
##oe
inher
##ayer
##ulations
grown
overse
flu
explos
effectively
1998
represents
inspired
allegedly
appropriate
surveillance
57
72
boss
gam
jord
lt
vit
##iques
##icing
sets
listed
steel
fairly
surprised
delivered
immigrants
sweet
estimates
schedule
buddh
races
##bor
stood
enh
acting
server
adds
minim
##elling
territory
marketing
label
multi
attempted
golden
michigan
mountain
uncertain
bin
ht
lord
session
tas
##era
##osph
plug
decent
medium
properties
config
harv
facility
##anny
impressive
registered
doctors
ast
##mates
##12
prince
alert
dozen
emissions
publicly
letters
funny
improved
cyber
davis
expression
progressive
ticket
bang
tan
tab
taught
##iable
thir
##itarian
##iger
counsel
remark
creation
approved
matches
speaker
friendly
teachers
ohio
experiences
constitutional
partnership
pacific
refugees
joseph
58
pir
##bel
button
##acks
ending
barack
victor
latin
institution
queen
confirm
guardian
transportation
adults
cannabis
rupee
pd
sin
voc
wisc
##pir
##min
##icul
lew
scored
scoring
targets
suffering
necessarily
subsid
flying
cooper
tantric
bio
kim
patch
##rison
##uable
spain
agents
somehow
fold
signing
stands
strongly
physics
baseball
selection
colorado
cycle
consequences
paralle
phenomen
diplom
cd
##taining
##idden
##etr
unknown
disag
imper
facts
protests
irish
walked
falling
threats
owls
carrying
scheme
miami
pock
##ien
##ek
##uated
##orted
##weight
genetic
redd
requirements
mechanism
suddenly
circumstances
ga
jay
kil
lies
##ko
##14
repr
overwhel
recording
embr
##onsin
guil
extended
captain
wisconsin
dcs
##wal
##sl
shif
prohib
meat
tea
evolution
drone
index
pover
classes
closely
regulations
galaxy
bath
coc
sister
chosen
aggress
evol
scand
contest
orders
cutting
materials
maximum
consistent
arizona
jul
rig
##rich
##iser
bear
##cher
chick
brian
acts
buying
downtown
##ternal
ideology
matt
approval
meetings
compete
definition
roger
scheduled
jam
sab
sight
##17
##erves
##icide
##char
sees
intention
reput
desire
desper
##ancing
depending
officially
continuing
heads
colleagues
assistance
adopt
palestinian
database
tort
##elines
unemp
reporter
apps
veget
valley
debut
##orrow
mistake
quantum
yellow
ble
##lv
##pan
##ck
##aled
storage
noticed
abc
cruc
struck
colon
directed
promised
acknowled
nhl
divers
jur
kings
sinc
##inity
##inals
##arters
disrupt
worldwide
##ashed
promote
networks
alongside
constant
falls
observed
houses
frequency
korean
fifth
alcohol
jordan
##pe
##arth
soil
manif
blame
holly
calcul
landers
versions
selected
frequently
struggle
##chester
commitment
tackle
succeed
museum
800
eric
likes
soph
##west
stuck
anonym
welf
orient
leaf
plot
moves
elite
winner
topics
espn
detailed
immediate
daniel
scenes
incredible
incredibly
poverty
loud
tel
upper
yog
##otes
angry
regener
##enny
stronger
tracks
drawn
polls
songs
welfare
74
jr
kong
ott
##col
##ingu
##unte
bloom
empt
handed
retail
fewer
opposite
harder
claiming
##apping
shortly
distinct
godd
volunte
recognize
controlled
repeatedly
intellect
liquid
sorry
foss
iq
mur
thin
stores
##asts
transm
passion
deeply
khan
italian
comedy
columbia
drew
liver
ta
tall
##uits
inqu
abd
brothers
mainstream
liberals
odd
cruz
festival
approximately
dub
pushing
rice
##oral
##cho
arts
allies
##ologists
putin
liberty
independence
catal
dedicated
assembly
discrimination
sacr
05
rival
ont
shield
cha
##apse
brut
compens
compreh
disaster
theme
remote
confront
raising
returning
kinds
excess
performed
limits
favour
hoping
narrative
rescue
guilty
dall
iphone
jason
##mond
##eda
##areness
sty
seattle
upcoming
somebody
backed
humanity
holds
titles
##exp
racial
fantasy
temperature
icon
kurd
##bed
##ito
somewhere
##ifications
infect
arguments
##ographic
awes
awareness
recognition
pushed
punish
contributions
mixed
excellent
dw
hen
fraud
unif
grass
crypt
extension
extrem
ruled
risks
elsewhere
navig
catholic
aspects
understood
98
hong
##rd
##ena
clock
client
strik
developer
possession
typical
fields
coaches
racing
degrees
scotland
bike
cere
dc
nar
rating
roster
##laim
##onn
##lla
truck
grav
##ogue
twin
disord
province
condem
dealing
references
romney
academy
hindu
02
fiction
nurs
sir
##night
##imm
chlor
1999
choices
messages
hopefully
conclusion
hollywood
eld
tank
tony
##ded
##sters
worried
proved
##otted
explor
solutions
occur
sanctions
scenario
granted
04
67
bom
bits
##oman
##illy
lean
spo
enth
rolling
earned
courts
headed
sentence
georg
horned
sending
##view
##inations
##illed
dry
##upid
artists
solo
harass
taxp
describe
resource
precise
feedback
properly
subscribe
pilot
explanation
68
61
eb
##aire
##dy
##cy
forec
franch
unw
adam
outcome
formed
extensive
patient
trees
describes
replaced
referred
layer
license
pi
vige
##fr
##hr
##mat
##rey
stim
##ilit
##agan
trig
perce
feat
breed
listening
attacked
exciting
controls
advertising
historic
mccain
nomine
dominant
folks
vigeant
dal
gaz
hubb
lind
pump
reward
whis
##chain
chose
brings
newly
##rete
techniques
250
targeted
priority
surrounding
comprom
hockey
dallas
merc
##aa
##een
##han
##repr
pros
withdraw
strict
goods
discount
technologies
funded
1996
captured
combination
thousand
purposes
duty
stephen
awesome
mak
pok
sid
sessions
##ties
##esy
##orse
##asion
##etime
conce
sole
output
##licit
founded
legend
patri
payments
clubs
representative
answers
owl
virtually
patterns
mirr
unusual
ak
flex
hans
##gg
height
agric
anna
##cover
keeps
musc
returns
regularly
literature
73
nbc
nato
ros
rape
##bell
##alf
##asp
chain
orch
alph
phr
resulting
receiving
minds
losses
emerged
behavi
hyd
ultimate
cycling
apartment
scholars
permanent
##osphere
82
cable
gate
hay
ku
yield
regions
##athan
realized
holy
situations
facilities
versus
replied
journalists
premium
complaint
lobby
alien
electronic
neutral
mathemat
parallel
reputation
agricult
eating
pul
pope
rav
ts
tied
vic
zeal
##va
##isa
ford
anger
outl
manip
marsh
##awa
mole
barr
payment
similarly
normally
lawyers
philosophy
bird
tone
##ws
##pg
ingr
##itar
hash
blocks
boat
contem
deficit
assume
supports
puts
ideal
arrange
entit
austin
templ
congressional
03
76
##lers
forfe
##ched
anx
alliance
sov
##ounced
marked
capit
protected
belief
valuable
resulted
creates
capture
contributed
encourage
bj
cad
dna
pound
sony
tip
##ico
conver
habit
fred
##ifies
abu
compare
amid
hadn
dress
assets
retired
reasonable
collective
enemies
initiative
lewis
##win
##die
##icial
##ayers
asian
weigh
seats
perp
simpl
terrible
circuit
primarily
emotional
tower
complicated
mormon
regenerative
enthus
69
aj
buck
##sen
##bar
##ighters
##usive
lev
fees
surg
locations
matth
biology
relationships
principles
##gbt
satellite
fought
lgbt
pod
##uts
##osis
enorm
loyal
decline
attended
hole
represented
recovery
rapidly
vietnam
vulnerable
enterprise
gym
pad
##40
##erd
##isan
stupid
##owa
manner
myst
guest
engage
hardware
terrorists
corporations
prisoners
installed
ethnic
minority
narrow
08
cod
dod
hurr
vr
ves
x64
##fall
inev
input
rear
prote
##sea
##iment
waste
unn
brows
component
manage
peak
actor
description
obtained
factory
mainly
viewers
anticip
equival
obser
allegations
empty
soviet
##ora
##rect
pron
##igen
suicide
grid
amounts
explicit
prepar
oblig
smo
propag
opponent
informed
affil
discussions
improvement
navy
ukraine
basketball
cited
dust
hidden
porn
samples
##anes
deleg
##keep
##abled
anymore
fool
##ucc
presum
registr
deploy
transpar
careful
1994
apolog
empire
representatives
screens
responses
naturally
iraqi
automatic
enjoyed
lucky
wrestling
aer
gotten
ky
naz
ted
vary
##gian
##rid
##33
##ares
disney
contribute
demands
weekly
reduction
airport
programming
salt
employee
reviews
introduction
celebrate
07
fc
hits
iowa
##uine
##hab
stead
shit
exists
alive
engaged
##riend
##iveness
deeper
strategic
bh
cree
ft
fault
som
thor
##esis
iter
chances
joining
parking
belt
efficient
finds
personnel
requests
raf
reaching
rejected
penalty
cosm
goddess
ale
gulf
##wart
##xit
##arked
conven
sev
frag
saved
outstanding
##acted
exposed
boom
minnes
monthly
1997
threatened
diagn
implementation
cabinet
accurate
exclusive
disagree
77
bunch
cub
gig
vanc
theor
##ouver
triple
modi
legacy
democrat
generate
lights
paint
journalist
elev
principle
manufacturing
begun
adopted
shadow
taste
ontario
minnesota
bak
germ
hud
nich
rick
sed
token
sum
##apol
##sole
blind
formation
shoulder
carefully
prominent
visible
involving
banned
blockchain
collapse
perfectly
utility
tickets
81
ties
tie
##rum
##esc
##ctic
deals
saving
##enders
ads
coins
invent
keys
warming
avenue
profession
practical
routine
nutr
destroyed
chamber
therapy
intellectual
bor
oz
pace
rent
uber
##tig
prize
outs
herit
beta
obam
legs
operate
christie
constantly
pleas
collected
voices
innoc
categories
sherlock
concluded
giants
sympt
vancouver
fert
kur
pill
tut
till
##pro
##celer
console
wash
strip
serves
whereas
busy
processing
covers
drawing
racist
extraord
mexican
ipad
##ihad
87
ax
dou
jac
kiss
##don
##ua
##inter
##inator
rely
##vereign
##pping
abb
sovereign
##iana
strikes
edward
##lete
societ
info
concrete
portion
blocked
ultr
unclear
survive
bernie
garden
sweden
newsletter
matthew
88
bubb
kent
pour
rational
santa
ven
##word
##part
##██
##rell
revel
##osexual
roy
##raid
##elled
signal
larry
handful
##phones
testim
technique
covering
liked
indicate
discovery
exchang
advocates
controversy
sheriff
retirement
unemployment
79
86
jokes
##aid
##ystem
##pu
##mo
##idency
trends
spots
190
publication
promises
footage
statistics
grounds
tomorrow
veteran
destruction
crucial
dir
hamm
ly
lists
##gas
##oric
acceler
##aws
root
boot
conspir
relief
monitor
simult
handling
win64
beliefs
hardly
iii
casual
olympic
hubbard
97
96
wides
##greg
##care
resign
amy
manchester
drones
consens
assass
lawmakers
protocol
1990s
investigators
threatening
citizen
clinical
appointed
equivalent
simultane
bac
fisc
ic
mile
ramp
tenn
##can
##hy
stack
##etts
fruit
gray
whenever
twenty
formal
soccer
elsa
brexit
campaigns
bias
suspended
sensitive
achieved
migrants
resistance
tactics
negotiations
600
cogn
gains
oreg
##fire
##jan
##oning
##vey
##opher
alter
##ivals
plastic
outr
bron
##iano
##ecess
##orship
depends
bars
passes
laid
solve
organized
hunt
islands
electricity
accompan
barely
uniform
hurric
oregon
dance
gained
lun
pent
##bour
beij
chel
##estr
external
uncon
uncom
##ibr
##ibilities
marks
##sels
genuine
offices
##inson
machines
recommended
aimed
industries
besides
atmosphere
reddit
beijing
sams
wine
##stal
spin
plain
doz
enable
##endum
closing
upset
scan
afraid
##icks
attitude
bug
define
smile
efficiency
anne
courtesy
processes
argues
physic
rounds
##aska
visitors
producing
holiday
fortun
horse
mosc
algorithm
uncertainty
franchise
83
84
dun
gor
gift
kin
pence
wages
##bec
##py
##pread
##15
##acare
##season
asks
ark
intense
ministers
format
absor
participate
challenging
##burg
patrick
pocket
obamacare
widespread
700
hired
lam
##fit
##su
confer
noting
notion
abstr
doors
crow
##auc
pregn
buzz
##ressed
##print
estate
1995
lowest
investigations
immune
##sylv
referring
##under
ranked
rarely
ruby
spiritual
pennsylv
monitoring
1st
78
gonna
lens
wis
##bing
##top
thick
##stit
##umin
plate
prey
inval
proven
explore
delay
organisation
landsc
generated
activist
privile
snap
entering
distributed
trek
suffer
delivery
implemented
producer
wonderful
chicken
moscow
bail
cul
dick
echo
fulf
hint
##iat
##inem
toy
##alia
##ashing
##ller
beating
shout
trillion
meg
components
##ounting
exposure
##aches
hern
interaction
shell
recipe
thrown
mini
monarch
seemingly
programme
successfully
massach
banking
pettig
engineers
permission
establishment
aggressive
enormous
pettigrew
09
waves
yard
##woman
##thr
chip
exceed
albert
##usetts
##apore
crown
actors
joy
reducing
universities
singapore
suspected
struggling
stanford
legitimate
warrant
incorpor
massachusetts
dur
punch
tay
tri
##umes
##actions
repair
marco
##uctive
presidency
throwing
avo
scientist
attempting
expectations
introduce
logic
recognized
inspect
settlement
graduate
ignore
horiz
temporary
surgery
pennsylvania
eag
hou
pit
roles
##born
##pool
##iner
toler
##etics
ups
incidents
personality
##otte
##engers
singing
##ova
devast
circle
silent
indicated
cameras
apparent
platforms
georgia
nominee
bass
jets
ri
ry
vl
##aria
##ione
##lyn
##ima
fee
##berry
rook
everywhere
regulation
transit
superior
benefic
summit
addressed
corporation
heroes
odds
proposals
##agram
dinner
subsequent
treasury
dave
hitting
josh
jihad
rus
terry
vital
vector
##wan
##oying
##ja
##olit
trave
##andez
brill
loan
marvel
containing
endorse
##ikh
swim
estimate
exclud
surely
convin
interviews
referendum
rocket
automatically
expanded
prosecutors
innovation
cowbo
##otype
featuring
dozens
cig
lying
tips
wolf
##ni
abroad
202
grade
polar
roots
invited
monster
studying
centers
heading
euro
ballot
engineer
touchdown
conversations
ridicul
farmers
rifle
fiscal
##lah
##east
##endo
grab
incomp
marine
phones
carn
assad
guitar
discip
elig
artific
extend
behalf
array
deliber
steam
visited
landing
divided
silence
websites
iranian
walker
berlin
vacc
bullet
gathered
prosecutor
pipeline
turkish
sciences
consciousness
reprod
smooth
gent
mit
x6
##eters
alan
##ipedia
drunk
partly
knife
##urray
barcel
feelings
189
violations
furthermore
suggesting
fallen
statist
stayed
participation
settings
cooking
dutch
ratio
skept
makabe
zealand
samsung
dict
jury
##ses
##och
inequ
revers
stun
forever
shah
tries
leon
##ials
recip
mining
fled
##aham
denver
temp
##umble
birds
scandal
92
cort
gut
hd
kitch
lane
oak
rab
##fast
##oot
##ala
stake
stages
anton
deaf
butt
anybody
economics
attacking
immun
restrictions
jews
fantastic
tonight
implications
substantial
corruption
overwhelming
convinced
94
jere
kl
mitch
ot
pale
vert
##rog
shipping
##udes
justin
interior
blow
desert
surf
harry
##tenance
importantly
argent
creator
judges
1980s
popularity
walls
robot
1970s
oklah
tweeted
analysts
javas
fel
mild
##ries
##uild
##met
chat
##iev
scope
worker
roof
##veland
colors
metro
cream
ordinary
admit
receiver
equally
equality
##feld
improving
respectively
fears
prepare
printed
entrance
borders
opinions
occupy
procedure
hawaiian
instrument
remarkable
yoga
trigger
testimony
cigar
barcelona
javascript
2nd
nod
##water
##50
infer
trained
2020
replic
drama
firing
##graph
centuries
persu
persons
proph
concert
glad
##lessly
rhet
finger
breath
forfeiture
awards
pel
tum
vet
##zy
prol
asyl
exit
clash
noise
##ensity
firms
opens
remarks
gene
autonom
cleveland
##ika
intervention
hung
managing
##arrass
commissioner
diseases
accomplish
acknowledge
carlos
guidelines
manifest
innocent
bind
kansas
qa
##bod
##80
inner
##oming
##see
deem
##ulating
lect
unions
syd
##ateral
studied
annivers
streaming
midfield
foods
epic
inflation
consideration
speaks
acceptable
embarrass
utah
sustainable
fossil
inquir
ingred
89
fisher
han
mp
tub
ug
##hd
##ji
##isons
##omes
sus
suite
spaces
##ouri
scout
##gression
underm
invasion
colour
##xture
reader
##leton
maintenance
populations
technological
calm
salary
investigate
sixth
protecting
disturb
portr
picks
sufficient
complaints
indiana
wealthy
framework
assessment
municip
venture
abandoned
oklahoma
asylum
dies
wise
##mun
##eria
inch
##uten
stations
##iler
##ills
shirt
exempt
alab
craw
quoted
blast
##athy
pointing
module
setup
delhi
firef
cycl
balt
contracts
legislative
roman
psychological
predicted
waters
encounter
dramatic
registration
consensus
chelsea
dump
hip
jet
mt
rou
vig
##vp
##24
20th
acid
overcome
##uces
moderate
transg
requested
arrive
entrepr
voter
wales
breaks
homosexual
eastl
demanding
improvements
episodes
brotherhood
pupp
maryland
structures
phenomenon
extraordinary
houston
entreprene
hed
hamp
lunch
por
toxic
##ali
stl
##abet
reserved
overs
attached
symp
flick
musical
viewed
globe
improv
declar
illness
mechanics
affordable
atlantic
appreciate
diversity
cbs
hes
lux
ml
nu
nur
osc
##je
theories
##ader
sean
lever
grabb
instant
depression
memo
headqu
profits
swift
fundra
competing
judg
biological
homeless
hybr
##haust
commander
producers
ownership
lady
montreal
kirk
sydney
anniversary
4th
fame
fighters
gem
gdp
##mate
##aron
##esty
##agger
drove
bold
designer
missile
questioned
trem
virus
urg
ranks
counterpart
arabia
encouraged
lobster
horror
dependent
wounded
tasks
cowboys
06
ka
mant
##dam
##dog
prest
haiti
##ipts
grind
compat
vegas
engagement
swing
arguing
failing
titled
civilian
consumption
##inois
survival
examination
semi
burning
mistakes
adviser
sarah
interpretation
involvement
imperial
capitol
71
bust
cav
citing
dos
dates
dating
gott
lyn
pink
rural
sr
ze
##fare
stored
exhaust
##aping
usage
drum
relation
relax
contribution
##bridge
##nedy
visiting
neck
broader
eggs
integrity
conventional
residential
anthony
manufacturers
mirror
nutrition
symptoms
conspiracy
dual
diam
maps
tape
ward
xbox
##39
##s
##inction
##icon
##ication
forb
##adel
##osc
notable
##unction
unr
unexp
##iah
export
displ
myster
indigen
contained
underground
politically
hook
membership
investigating
violation
millenn
civilians
connections
hoped
drinks
demonstrate
purchased
diego
temperatures
seeds
kennedy
contempor
inequality
alabama
gif
hire
ter
tes
um
wings
##ti
##etch
inclus
coin
loose
blank
startup
stepped
##backs
void
obsc
languages
demanded
arena
sweep
##kyo
expanding
##burgh
doctr
bonus
swedish
guarantee
indigenous
bour
ib
murray
nin
##iu
##kh
##itals
reverse
##acc
##imp
chord
una
resem
overt
preced
##angel
##iox
reads
hob
menu
involves
convicted
difficulty
strategies
computers
racism
ratings
submitted
replacement
charlie
emphasis
ee
pitt
vel
wol
##fol
##alo
nev
##eman
##oko
crop
interse
##away
##ucking
assigned
contrary
subur
powered
insert
designs
distingu
deadly
burden
roads
searching
towns
promoting
graphics
alexander
battles
buddhist
elder
phrase
mystery
conferences
unexpected
cm
dol
hub
locked
nerv
##dd
##13
##istent
butter
adequ
##ibutes
##iang
accomm
##anged
120
authent
libert
operator
antib
departments
presentation
employed
suspic
objective
hosted
functional
focusing
indicates
defeated
acknowledged
comprehensive
hernandez
taylor
accommod
diverse
pounds
sant
##yer
##person
stir
sect
shocked
chad
##uma
##elle
clients
aga
appe
interrog
nowhere
assign
investments
childhood
##ucky
facilit
##shop
illinois
1960s
neighbour
preparing
laboratory
container
emotion
junior
forgotten
occasionally
anonymous
perceived
poké
entitled
93
cats
fate
fuck
gn
nat
##lu
##cro
##olen
dear
abilities
spoken
##apher
##endous
clothes
intim
repeal
coh
defender
warn
communist
performing
picking
divor
absence
coaching
speakers
philipp
settle
ecos
cooperation
instructions
dialogue
flavor
overseas
rookie
jeremy
transgender
bump
bible
cous
ein
lift
##car
threw
anderson
##oto
stability
forcing
##ami
##ili
comics
unh
parks
lawr
##ierce
builds
missouri
cambod
commonly
collins
reveals
##uko
concepts
correctly
hypothes
ranking
taxpayers
invalid
landscape
kitchen
ecosystem
cauc
cinem
hence
pix
rome
rah
riot
##gar
inject
##aki
knee
campbell
filter
insisted
##riers
restore
irr
classified
1993
21st
volunt
targeting
contacted
greece
refugee
pursue
wireless
harvard
sincl
hurricane
artificial
bread
cs
gord
tang
torn
##lar
##theless
##ilton
arc
timing
##enson
##icking
discour
differently
##itsu
lets
nevertheless
movements
healthcare
1992
api
additionally
discussing
hunter
constitu
settled
editorial
spectrum
athletic
wikipedia
theatre
juris
arkansas
rhetoric
hybrid
borr
danny
ease
ric
tai
wider
##bul
##erce
##eries
tokyo
##itors
reign
##othing
std
pride
nel
aged
crick
##aching
counts
supplies
teammates
courses
senators
posting
sandbox
hearts
soldier
consistently
athletes
highlights
dynamic
fabric
chaos
brilliant
sinclair
dying
kit
lav
sorts
vamp
##arre
stere
##the
chuck
fro
adams
upload
coher
##ails
moore
opio
smoke
discont
##eney
corps
infant
secondary
maintained
productivity
summary
malcol
approaches
telephone
jacket
layout
tweets
sprint
unpre
honestly
upgrade
henry
malcolm
jar
lag
ng
ross
##wa
##lings
##zing
##oux
##ouch
stolen
##sell
shaped
notably
ages
incent
margin
mold
worlds
smell
legally
##iko
##phia
insight
releases
starcraft
lineback
dominated
publ
damaged
burst
legislature
inspiration
districts
embass
nomination
merkel
reforms
licens
loaded
graphic
bureaucr
html
torture
compensation
harassment
propaganda
theoret
##apolis
simultaneously
##croft
lawrence
nan
nsa
##list
##mail
##­t
##orious
##thood
shir
strain
sheet
everyday
transaction
openly
110
explaining
admission
1990
christopher
##comes
rooms
interviewed
emerging
promotion
defendant
awarded
bombing
preferred
segment
pledge
punishment
browser
abstract
headquarters
bam
golf
nca
tu
wo
##orous
##leans
delic
leices
##acking
enfor
arctic
adap
perry
