{"version":"1.0","truncation":null,"padding":null,"added_tokens":[{"id":0,"special":true,"content":"[PAD]","single_word":false,"lstrip":false,"rstrip":false,"normalized":false},{"id":1,"special":true,"content":"[UNK]","single_word":false,"lstrip":false,"rstrip":false,"normalized":false},{"id":2,"special":true,"content":"[CLS]","single_word":false,"lstrip":false,"rstrip":false,"normalized":false},{"id":3,"special":true,"content":"[SEP]","single_word":false,"lstrip":false,"rstrip":false,"normalized":false},{"id":4,"special":true,"content":"[MASK]","single_word":false,"lstrip":false,"rstrip":false,"normalized":false}],"normalizer":{"type":"BertNormalizer","clean_text":false,"handle_chinese_chars":false,"strip_accents":false,"lowercase":true},"pre_tokenizer":{"type":"BertPreTokenizer"},"post_processor":null,"decoder":{"type":"WordPiece","prefix":"##","cleanup":true},"model":{"type":"WordPiece","unk_token":"[UNK]","continuing_subword_prefix":"##","max_input_chars_per_word":100,"vocab":{"[PAD]":0,"[UNK]":1,"[CLS]":2,"[SEP]":3,"[MASK]":4,"!":5,"\"":6,"#":7,"$":8,"%":9,"&":10,"'":11,"(":12,")":13,"*":14,"+":15,",":16,"-":17,".":18,"/":19,"0":20,"1":21,"2":22,"3":23,"4":24,"5":25,"6":26,"7":27,"8":28,"9":29,":":30,";":31,"<":32,"=":33,">":34,"?":35,"@":36,"[":37,"\\":38,"]":39,"^":40,"_":41,"`":42,"a":43,"b":44,"c":45,"d":46,"e":47,"f":48,"g":49,"h":50,"i":51,"j":52,"k":53,"l":54,"m":55,"n":56,"o":57,"p":58,"q":59,"r":60,"s":61,"t":62,"u":63,"v":64,"w":65,"x":66,"y":67,"z":68,"{":69,"|":70,"}":71,"~":72,"":73,"":74,"":75,"":76,"":77,"":78,"":79,"":80,"":81,"":82,"":83,"¡":84,"¢":85,"£":86,"¥":87,"¦":88,"§":89,"©":90,"«":91,"­":92,"®":93,"¯":94,"°":95,"±":96,"²":97,"³":98,"´":99,"µ":100,"¶":101,"·":102,"¸":103,"¹":104,"º":105,"»":106,"¼":107,"½":108,"¿":109,"×":110,"ß":111,"à":112,"á":113,"â":114,"ã":115,"ä":116,"å":117,"æ":118,"ç":119,"è":120,"é":121,"ê":122,"ë":123,"ì":124,"í":125,"î":126,"ï":127,"ð":128,"ñ":129,"ò":130,"ó":131,"ô":132,"õ":133,"ö":134,"÷":135,"ø":136,"ù":137,"ú":138,"û":139,"ü":140,"ý":141,"þ":142,"ā":143,"ă":144,"ć":145,"č":146,"đ":147,"ē":148,"ę":149,"ě":150,"ğ":151,"ī":152,"ı":153,"ł":154,"ń":155,"ō":156,"œ":157,"ř":158,"ś":159,"ş":160,"š":161,"ţ":162,"ū":163,"ů":164,"ž":165,"ɐ":166,"ə":167,"ɛ":168,"ʌ":169,"ʒ":170,"ʔ":171,"ʻ":172,"ˈ":173,"ː":174,"˜":175,"̇":176,"ά":177,"έ":178,"ή":179,"ί":180,"α":181,"β":182,"γ":183,"δ":184,"ε":185,"η":186,"θ":187,"ι":188,"κ":189,"λ":190,"μ":191,"ν":192,"ξ":193,"ο":194,"π":195,"ρ":196,"ς":197,"σ":198,"τ":199,"υ":200,"φ":201,"χ":202,"ω":203,"ό":204,"ύ":205,"ώ":206,"а":207,"б":208,"в":209,"г":210,"д":211,"е":212,"ж":213,"з":214,"и":215,"й":216,"к":217,"л":218,"м":219,"н":220,"о":221,"п":222,"р":223,"с":224,"т":225,"у":226,"ф":227,"х":228,"ц":229,"ч":230,"ш":231,"щ":232,"ы":233,"ь":234,"э":235,"ю":236,"я":237,"ё":238,"ѕ":239,"і":240,"י":241,"ا":242,"ب":243,"ة":244,"ت":245,"ح":246,"د":247,"ر":248,"ز":249,"س":250,"ش":251,"ط":252,"ظ":253,"ع":254,"ف":255,"ق":256,"ك":257,"ل":258,"م":259,"ن":260,"ه":261,"و":262,"ي":263,"ی":264,"र":265,"ल":266,"व":267,"ि":268,"्":269,"ਾ":270,"ก":271,"ข":272,"ง":273,"ด":274,"ท":275,"น":276,"ป":277,"ม":278,"ย":279,"ร":280,"ล":281,"ว":282,"ห":283,"อ":284,"า":285,"ี":286,"เ":287,"ไ":288,"่":289,"้":290,"๋":291,"ა":292,"ი":293,"ḍ":294,"ḷ":295,"ṃ":296,"ṇ":297,"ṛ":298,"ṣ":299,"ṭ":300,"ἀ":301,"ἰ":302,"ὀ":303,"ὐ":304,"ὴ":305,"ῖ":306,"ῶ":307,"​":308,"‎":309,"‐":310,"‑":311,"–":312,"—":313,"―":314,"‘":315,"’":316,"‚":317,"“":318,"”":319,"„":320,"‡":321,"•":322,"․":323,"…":324,"′":325,"″":326,"›":327,"※":328,"⁄":329,"⁰":330,"₂":331,"€":332,"™":333,"→":334,"↓":335,"⇓":336,"−":337,"∞":338,"∥":339,"∷":340,"∼":341,"≤":342,"≥":343,"─":344,"┃":345,"█":346,"■":347,"▪":348,"►":349,"▼":350,"◊":351,"★":352,"♦":353,"➜":354,"、":355,"。":356,"々":357,"〈":358,"〉":359,"「":360,"」":361,"『":362,"』":363,"あ":364,"い":365,"う":366,"え":367,"お":368,"か":369,"が":370,"き":371,"く":372,"け":373,"げ":374,"こ":375,"さ":376,"し":377,"じ":378,"す":379,"ず":380,"そ":381,"た":382,"だ":383,"ち":384,"っ":385,"つ":386,"て":387,"で":388,"と":389,"ど":390,"な":391,"に":392,"の":393,"は":394,"ば":395,"び":396,"へ":397,"べ":398,"ま":399,"む":400,"め":401,"も":402,"や":403,"よ":404,"ら":405,"り":406,"る":407,"れ":408,"ろ":409,"わ":410,"を":411,"ん":412,"ァ":413,"ア":414,"ィ":415,"イ":416,"ゥ":417,"ウ":418,"ェ":419,"エ":420,"ォ":421,"オ":422,"カ":423,"キ":424,"ギ":425,"ク":426,"グ":427,"ゲ":428,"コ":429,"ゴ":430,"サ":431,"シ":432,"ジ":433,"ス":434,"ズ":435,"セ":436,"ソ":437,"ゾ":438,"タ":439,"ダ":440,"チ":441,"ッ":442,"ツ":443,"テ":444,"デ":445,"ト":446,"ド":447,"ナ":448,"ニ":449,"ネ":450,"ノ":451,"バ":452,"ヒ":453,"ビ":454,"ピ":455,"フ":456,"ブ":457,"プ":458,"ヘ":459,"ホ":460,"ボ":461,"マ":462,"ミ":463,"ム":464,"メ":465,"モ":466,"ャ":467,"ヤ":468,"ュ":469,"ユ":470,"ョ":471,"ラ":472,"リ":473,"ル":474,"レ":475,"ロ":476,"ワ":477,"ン":478,"ヴ":479,"・":480,"ー":481,"ㅋ":482,"一":483,"上":484,"下":485,"不":486,"中":487,"事":488,"亡":489,"京":490,"人":491,"他":492,"代":493,"以":494,"件":495,"位":496,"低":497,"体":498,"何":499,"作":500,"係":501,"側":502,"傷":503,"先":504,"光":505,"入":506,"全":507,"公":508,"内":509,"写":510,"出":511,"分":512,"切":513,"初":514,"判":515,"別":516,"前":517,"力":518,"助":519,"動":520,"北":521,"原":522,"可":523,"同":524,"名":525,"向":526,"告":527,"問":528,"回":529,"因":530,"在":531,"地":532,"域":533,"報":534,"場":535,"外":536,"多":537,"夜":538,"大":539,"失":540,"始":541,"姿":542,"子":543,"存":544,"学":545,"定":546,"実":547,"家":548,"容":549,"密":550,"察":551,"審":552,"対":553,"射":554,"小":555,"局":556,"履":557,"山":558,"峠":559,"崩":560,"州":561,"常":562,"年":563,"度":564,"式":565,"引":566,"弾":567,"当":568,"彼":569,"征":570,"後":571,"性":572,"想":573,"意":574,"態":575,"折":576,"持":577,"捜":578,"探":579,"接":580,"推":581,"撃":582,"放":583,"数":584,"文":585,"料":586,"斜":587,"新":588,"方":589,"日":590,"明":591,"時":592,"書":593,"最":594,"月":595,"有":596,"服":597,"木":598,"本":599,"東":600,"果":601,"査":602,"森":603,"検":604,"極":605,"機":606,"次":607,"死":608,"残":609,"気":610,"渓":611,"温":612,"測":613,"点":614,"無":615,"然":616,"版":617,"物":618,"特":619,"状":620,"現":621,"球":622,"理":623,"生":624,"画":625,"症":626,"発":627,"登":628,"的":629,"目":630,"直":631,"県":632,"真":633,"着":634,"知":635,"研":636,"示":637,"科":638,"究":639,"立":640,"索":641,"終":642,"結":643,"線":644,"編":645,"置":646,"考":647,"者":648,"能":649,"脱":650,"自":651,"至":652,"色":653,"落":654,"著":655,"行":656,"衣":657,"裂":658,"要":659,"覆":660,"見":661,"解":662,"記":663,"設":664,"語":665,"説":666,"調":667,"謎":668,"谷":669,"象":670,"負":671,"資":672,"起":673,"足":674,"跡":675,"軍":676,"述":677,"送":678,"通":679,"連":680,"道":681,"遠":682,"遭":683,"遺":684,"部":685,"都":686,"量":687,"長":688,"開":689,"間":690,"関":691,"陸":692,"隊":693,"集":694,"離":695,"難":696,"雪":697,"非":698,"面":699,"靴":700,"風":701,"験":702,"骨":703,"高":704,"가":705,"각":706,"간":707,"갔":708,"같":709,"개":710,"거":711,"건":712,"걸":713,"검":714,"겁":715,"것":716,"게":717,"겠":718,"겨":719,"견":720,"결":721,"경":722,"계":723,"고":724,"공":725,"과":726,"관":727,"광":728,"구":729,"국":730,"굴":731,"권":732,"그":733,"극":734,"글":735,"금":736,"기":737,"긴":738,"김":739,"까":740,"끝":741,"나":742,"난":743,"날":744,"남":745,"났":746,"내":747,"냐":748,"너":749,"년":750,"노":751,"놓":752,"누":753,"눈":754,"뉴":755,"느":756,"는":757,"늘":758,"니":759,"다":760,"단":761,"달":762,"담":763,"당":764,"대":765,"더":766,"던":767,"데":768,"도":769,"독":770,"돈":771,"동":772,"됐":773,"되":774,"된":775,"두":776,"드":777,"든":778,"들":779,"등":780,"디":781,"따":782,"딸":783,"때":784,"떳":785,"떻":786,"또":787,"라":788,"락":789,"람":790,"랑":791,"래":792,"러":793,"런":794,"렇":795,"레":796,"려":797,"로":798,"론":799,"루":800,"르":801,"른":802,"를":803,"름":804,"리":805,"린":806,"마":807,"만":808,"많":809,"말":810,"매":811,"먼":812,"멋":813,"며":814,"면":815,"모":816,"몰":817,"못":818,"무":819,"문":820,"물":821,"뭐":822,"미":823,"민":824,"바":825,"박":826,"밖":827,"반":828,"받":829,"발":830,"밝":831,"버":832,"번":833,"벌":834,"범":835,"법":836,"변":837,"별":838,"병":839,"보":840,"복":841,"본":842,"봤":843,"부":844,"분":845,"불":846,"뷰":847,"비":848,"빠":849,"사":850,"살":851,"상":852,"생":853,"서":854,"석":855,"선":856,"세":857,"소":858,"손":859,"송":860,"수":861,"순":862,"숨":863,"스":864,"슬":865,"습":866,"시":867,"식":868,"신":869,"실":870,"싫":871,"심":872,"싶":873,"싸":874,"씨":875,"아":876,"안":877,"않":878,"알":879,"았":880,"애":881,"야":882,"약":883,"양":884,"어":885,"억":886,"언":887,"얼":888,"엄":889,"없":890,"었":891,"에":892,"여":893,"연":894,"열":895,"였":896,"영":897,"예":898,"오":899,"온":900,"올":901,"와":902,"왔":903,"왜":904,"외":905,"요":906,"용":907,"우":908,"운":909,"울":910,"워":911,"원":912,"웠":913,"위":914,"유":915,"으":916,"은":917,"을":918,"음":919,"응":920,"의":921,"이":922,"인":923,"일":924,"있":925,"자":926,"작":927,"잘":928,"장":929,"재":930,"저":931,"적":932,"전":933,"점":934,"정":935,"제":936,"져":937,"조":938,"좀":939,"주":940,"죽":941,"준":942,"중":943,"증":944,"지":945,"직":946,"진":947,"질":948,"집":949,"쪽":950,"차":951,"찰":952,"처":953,"청":954,"체":955,"추":956,"출":957,"취":958,"친":959,"키":960,"타":961,"태":962,"터":963,"테":964,"판":965,"편":966,"평":967,"표":968,"하":969,"한":970,"할":971,"함":972,"해":973,"했":974,"행":975,"혀":976,"현":977,"혐":978,"형":979,"혜":980,"호":981,"혹":982,"혼":983,"화":984,"확":985,"활":986,"황":987,"회":988,"후":989,"훈":990,"흥":991,"히":992,"힘":993,"️":994,"﻿":995,"（":996,"）":997,"：":998,"＝":999,"＞":1000,"�":1001,"🐒":1002,"😉":1003,"🙂":1004,"##g":1005,"##a":1006,"##r":1007,"##w":1008,"##l":1009,"##i":1010,"##n":1011,"##e":1012,"##f":1013,"##d":1014,"##s":1015,"##b":1016,"##u":1017,"##y":1018,"##p":1019,"##t":1020,"##c":1021,"##으":1022,"##로":1023,"##당":1024,"##간":1025,"##하":1026,"##게":1027,"##h":1028,"##o":1029,"##j":1030,"##x":1031,"##m":1032,"##k":1033,"##3":1034,"##8":1035,"##7":1036,"##v":1037,"##각":1038,"##고":1039,"##z":1040,"##1":1041,"##4":1042,"##6":1043,"##2":1044,"##0":1045,"##у":1046,"##с":1047,"##т":1048,"##е":1049,"##м":1050,"##q":1051,"##거":1052,"##정":1053,"##이":1054,"##었":1055,"##다":1056,"##는":1057,"##ロ":1058,"##ボ":1059,"##デ":1060,"##ィ":1061,"##ン":1062,"##の":1063,"##人":1064,"##遺":1065,"##体":1066,"##を":1067,"##発":1068,"##見":1069,"##し":1070,"##た":1071,"##5":1072,"##지":1073,"##ί":1074,"##τ":1075,"##ρ":1076,"##ο":1077,"##ν":1078,"##ř":1079,"##é":1080,"##­":1081,"##а":1082,"##о":1083,"##п":1084,"##и":1085,"##н":1086,"##ы":1087,"##й":1088,"##ῶ":1089,"##ς":1090,"##람":1091,"##은":1092,"##ă":1093,"##9":1094,"##下":1095,"##か":1096,"##履":1097,"##い":1098,"##て":1099,"##な":1100,"##っ":1101,"##ッ":1102,"##チ":1103,"##물":1104,"##ب":1105,"##ك":1106,"##ة":1107,"##€":1108,"##˜":1109,"##ä":1110,"##ě":1111,"##道":1112,"##ā":1113,"##月":1114,"##日":1115,"##が":1116,"##連":1117,"##に":1118,"##も":1119,"##関":1120,"##わ":1121,"##ら":1122,"##ず":1123,"##ü":1124,"##č":1125,"##í":1126,"##à":1127,"##大":1128,"##陸":1129,"##間":1130,"##弾":1131,"##ミ":1132,"##サ":1133,"##イ":1134,"##ル":1135,"##射":1136,"##光":1137,"##で":1138,"##あ":1139,"##こ":1140,"##と":1141,"##μ":1142,"##α":1143,"##л":1144,"##р":1145,"##к":1146,"##і":1147,"##б":1148,"##á":1149,"##ý":1150,"##음":1151,"##두":1152,"##":1153,"##기":1154,"##를":1155,"##件":1156,"##す":1157,"##る":1158,"##新":1159,"##事":1160,"##実":1161,"##報":1162,"##告":1163,"##®":1164,"##™":1165,"##´":1166,"##오":1167,"##아":1168,"##나":1169,"##론":1170,"##습":1171,"##더":1172,"##라":1173,"##ţ":1174,"##데":1175,"##д":1176,"##ь":1177,"##빠":1178,"##가":1179,"##ѕ":1180,"##소":1181,"##시":1182,"##​":1183,"##⁄":1184,"##意":1185,"##→":1186,"##è":1187,"##구":1188,"##도":1189,"##에":1190,"##°":1191,"##崩":1192,"##や":1193,"##風":1194,"##ど":1195,"##自":1196,"##然":1197,"##現":1198,"##象":1199,"##原":1200,"##因":1201,"##解":1202,"##示":1203,"##":1204,"##":1205,"##ö":1206,"##分":1207,"##ち":1208,"##離":1209,"##れ":1210,"##場":1211,"##�":1212,"##は":1213,"##外":1214,"##さ":1215,"##â":1216,"##¦":1217,"##청":1218,"##할":1219,"##ó":1220,"##า":1221,"##ไ":1222,"##ท":1223,"##ย":1224,"##편":1225,"##개":1226,"##며":1227,"##ト":1228,"##内":1229,"##側":1230,"##引":1231,"##き":1232,"##裂":1233,"##足":1234,"##び":1235,"##出":1236,"##범":1237,"##을":1238,"##ц":1239,"##":1240,"##в":1241,"##×":1242,"##ž":1243,"##ュ":1244,"##ド":1245,"##ラ":1246,"##š":1247,"##별":1248,"##적":1249,"##자":1250,"##친":1251,"##외":1252,"##י":1253,"##의":1254,"##았":1255,"##면":1256,"##ა":1257,"##ი":1258,"##ı":1259,"##ч":1260,"##査":1261,"##ː":1262,"##ˈ":1263,"##ɐ":1264,"##ʔ":1265,"##우":1266,"##−":1267,"##＞":1268,"##ů":1269,"##워":1270,"##보":1271,"##억":1272,"##했":1273,"##å":1274,"##ɛ":1275,"##ə":1276,"##ق":1277,"##و":1278,"##ل":1279,"##냐":1280,"##カ":1281,"##ー":1282,"##著":1283,"##作":1284,"##ú":1285,"##د":1286,"##ي":1287,"##려":1288,"##ع":1289,"##ا":1290,"##م":1291,"##살":1292,"##ë":1293,"##ş":1294,"##ğ":1295,"##ر":1296,"##ی":1297,"##ō":1298,"##г":1299,"##‎":1300,"##う":1301,"##遠":1302,"##征":1303,"##数":1304,"##物":1305,"##だ":1306,"##め":1307,"##﻿":1308,"##験":1309,"##何":1310,"##度":1311,"##行":1312,"##述":1313,"##ヴ":1314,"##ォ":1315,"##当":1316,"##局":1317,"##公":1318,"##式":1319,"##以":1320,"##ī":1321,"##장":1322,"##검":1323,"##증":1324,"##재":1325,"##ṭ":1326,"##ल":1327,"##ि":1328,"##र":1329,"##연":1330,"##양":1331,"##과":1332,"##니":1333,"##였":1334,"##마":1335,"##된":1336,"##락":1337,"##호":1338,"##사":1339,"##":1340,"##실":1341,"##디":1342,"##까":1343,"##中":1344,"##️":1345,"##들":1346,"##민":1347,"##권":1348,"##위":1349,"##원":1350,"##회":1351,"##ś":1352,"##요":1353,"##要":1354,"##位":1355,"##置":1356,"##設":1357,"##定":1358,"##最":1359,"##初":1360,"##版":1361,"##者":1362,"##ø":1363,"##ァ":1364,"##ヤ":1365,"##ム":1366,"##リ":1367,"##ャ":1368,"##ェ":1369,"##ナ":1370,"##활":1371,"##래":1372,"##서":1373,"##傷":1374,"##負":1375,"##在":1376,"##ウ":1377,"##科":1378,"##学":1379,"##生":1380,"##ñ":1381,"##死":1382,"##直":1383,"##接":1384,"##結":1385,"##つ":1386,"##く":1387,"##り":1388,"##ʻ":1389,"##운":1390,"##²":1391,"##œ":1392,"##ć":1393,"##切":1394,"##年":1395,"##반":1396,"##":1397,"##λ":1398,"##함":1399,"##광":1400,"##석":1401,"##씨":1402,"##번":1403,"##주":1404,"##ç":1405,"##ж":1406,"##있":1407,"##存":1408,"##全":1409,"##容":1410,"##明":1411,"##я":1412,"##인":1413,"##ά":1414,"##렇":1415,"##ò":1416,"##フ":1417,"##ス":1418,"##ク":1419,"##州":1420,"##家":1421,"##ジ":1422,"##ユ":1423,"##特":1424,"##対":1425,"##비":1426,"##던":1427,"##ゥ":1428,"##ビ":1429,"##ニ":1430,"##一":1431,"##不":1432,"##気":1433,"##遭":1434,"##難":1435,"##안":1436,"##랑":1437,"##수":1438,"##신":1439,"##올":1440,"##靴":1441,"##跡":1442,"##õ":1443,"##्":1444,"##ô":1445,"##з":1446,"##만":1447,"##년":1448,"##ю":1449,"##時":1450,"##知":1451,"##書":1452,"##け":1453,"##起":1454,"##よ":1455,"##低":1456,"##キ":1457,"##プ":1458,"##彼":1459,"##█":1460,"##目":1461,"##的":1462,"##어":1463,"##와":1464,"##무":1465,"##리":1466,"##х":1467,"##÷":1468,"##ห":1469,"##ม":1470,"##終":1471,"##地":1472,"##コ":1473,"##エ":1474,"##화":1475,"##ば":1476,"##ṣ":1477,"##ę":1478,"##작":1479,"##분":1480,"##복":1481,"##長":1482,"##モ":1483,"##メ":1484,"##タ":1485,"##立":1486,"##シ":1487,"##ョ":1488,"##小":1489,"##説":1490,"##찰":1491,"##전":1492,"##병":1493,"##ṛ":1494,"##ṇ":1495,"##ι":1496,"##δ":1497,"##걸":1498,"##식":1499,"##亡":1500,"##衣":1501,"##服":1502,"##ṃ":1503,"##처":1504,"##失":1505,"##ま":1506,"##ろ":1507,"##落":1508,"##겨":1509,"##레":1510,"##真":1511,"##æ":1512,"##ï":1513,"##½":1514,"##ό":1515,"##β":1516,"##ã":1517,"##ш":1518,"##ア":1519,"##高":1520,"##検":1521,"##察":1522,"##ê":1523,"##집":1524,"##γ":1525,"##υ":1526,"##해":1527,"##극":1528,"##状":1529,"##ヘ":1530,"##ピ":1531,"##理":1532,"##想":1533,"##ه":1534,"##노":1535,"##조":1536,"##든":1537,"##ت":1538,"##ਾ":1539,"##ń":1540,"##응":1541,"##느":1542,"##ʌ":1543,"##非":1544,"##研":1545,"##究":1546,"##回":1547,"##始":1548,"##져":1549,"##お":1550,"##じ":1551,"##代":1552,"##性":1553,"##약":1554,"##щ":1555,"##別":1556,"##後":1557,"##ф":1558,"##단":1559,"##¼":1560,"##ʒ":1561,"##้":1562,"##ว":1563,"##ก":1564,"##่":1565,"##ł":1566,"##レ":1567,"##현":1568,"##르":1569,"##":1570,"##제":1571,"##공":1572,"##동":1573,"##체":1574,"##向":1575,"##グ":1576,"##斜":1577,"##面":1578,"##상":1579,"##런":1580,"##骨":1581,"##折":1582,"##쪽":1583,"##":1584,"##û":1585,"##点":1586,"##雪":1587,"##覆":1588,"##域":1589,"##야":1590,"##온":1591,"##đ":1592,"##残":1593,"##순":1594,"##η":1595,"##入":1596,"##文":1597,"##벌":1598,"##한":1599,"##助":1600,"##독":1601,"##そ":1602,"##木":1603,"##애":1604,"##못":1605,"##되":1606,"##긴":1607,"##ن":1608,"##放":1609,"##線":1610,"##謎":1611,"##κ":1612,"##脱":1613,"##ツ":1614,"##ノ":1615,"##겠":1616,"##송":1617,"##스":1618,"##금":1619,"##次":1620,"##バ":1621,"##³":1622,"##건":1623,"##山":1624,"##혼":1625,"##난":1626,"##ḷ":1627,"##着":1628,"##テ":1629,"##ブ":1630,"##날":1631,"##ω":1632,"##ū":1633,"##σ":1634,"##미":1635,"##ㅋ":1636,"##변":1637,"##것":1638,"##通":1639,"##考":1640,"##θ":1641,"##ε":1642,"##ύ":1643,"##渓":1644,"##谷":1645,"##울":1646,"##ソ":1647,"##捜":1648,"##オ":1649,"##ホ":1650,"##국":1651,"##可":1652,"##혹":1653,"##모":1654,"##ù":1655,"##¹":1656,"##⁰":1657,"##여":1658,"##흥":1659,"##테":1660,"##달":1661,"##料":1662,"##機":1663,"##密":1664,"##送":1665,"##ز":1666,"##─":1667,"##⇓":1668,"##県":1669,"##법":1670,"##軍":1671,"##上":1672,"##げ":1673,"##え":1674,"##φ":1675,"##웠":1676,"##ὐ":1677,"##ώ":1678,"##π":1679,"##ワ":1680,"##記":1681,"##写":1682,"##推":1683,"##名":1684,"##ん":1685,"##ゲ":1686,"##른":1687,"##審":1688,"##問":1689,"##持":1690,"##マ":1691,"##べ":1692,"##견":1693,"##峠":1694,"##왔":1695,"##姿":1696,"##多":1697,"##果":1698,"##方":1699,"##혀":1700,"##표":1701,"##前":1702,"##至":1703,"##無":1704,"##係":1705,"##撃":1706,"##일":1707,"##열":1708,"##î":1709,"##京":1710,"##都":1711,"##차":1712,"##ด":1713,"##̇":1714,"##態":1715,"##温":1716,"##症":1717,"##태":1718,"##없":1719,"##ネ":1720,"##อ":1721,"##린":1722,"##測":1723,"##밖":1724,"##º":1725,"##س":1726,"##ط":1727,"##球":1728,"##登":1729,"##ح":1730,"##러":1731,"##ダ":1732,"##굴":1733,"##":1734,"##버":1735,"##ギ":1736,"##森":1737,"##先":1738,"##심":1739,"##子":1740,"##부":1741,"##◊":1742,"##♦":1743,"##저":1744,"##部":1745,"##ì":1746,"##へ":1747,"##생":1748,"##調":1749,"##開":1750,"##量":1751,"##能":1752,"##≤":1753,"##출":1754,"##เ":1755,"##ร":1756,"##ี":1757,"##น":1758,"##터":1759,"##ё":1760,"##ð":1761,"##됐":1762,"##χ":1763,"##봤":1764,"##선":1765,"##๋":1766,"##용":1767,"##훈":1768,"##ป":1769,"##ง":1770,"##常":1771,"##力":1772,"##極":1773,"##혐":1774,"##발":1775,"##資":1776,"##©":1777,"##±":1778,"##探":1779,"##경":1780,"##진":1781,"##ล":1782,"##判":1783,"##夜":1784,"##有":1785,"##확":1786,"##너":1787,"##む":1788,"##내":1789,"##語":1790,"##직":1791,"##ゴ":1792,"##索":1793,"##動":1794,"##東":1795,"##ξ":1796,"##황":1797,"##준":1798,"##뷰":1799,"##히":1800,"##北":1801,"##集":1802,"##루":1803,"##＝":1804,"##결":1805,"##문":1806,"##々":1807,"##ή":1808,"##隊":1809,"##ヒ":1810,"##ḍ":1811,"##드":1812,"##담":1813,"##本":1814,"##대":1815,"##떳":1816,"##질":1817,"##후":1818,"##혜":1819,"##늘":1820,"##매":1821,"##겁":1822,"##色":1823,"##ズ":1824,"##ß":1825,"##∷":1826,"##관":1827,"##画":1828,"##갔":1829,"##セ":1830,"##먼":1831,"##때":1832,"##예":1833,"##ゾ":1834,"##他":1835,"##∞":1836,"##행":1837,"##¸":1838,"##놓":1839,"##":1840,"##뉴":1841,"##손":1842,"##¢":1843,"##말":1844,"##났":1845,"##ῖ":1846,"##э":1847,"##름":1848,"##₂":1849,"##받":1850,"##έ":1851,"##돈":1852,"##형":1853,"##🐒":1854,"##중":1855,"##불":1856,"##판":1857,"##등":1858,"##많":1859,"##ظ":1860,"##ف":1861,"##떻":1862,"##점":1863,"##ē":1864,"##타":1865,"##세":1866,"th":1867,"##er":1868,"the":1869,"##in":1870,"##on":1871,"##at":1872,"##en":1873,"##es":1874,"##or":1875,"##ed":1876,"##nd":1877,"##ing":1878,"##ar":1879,"##an":1880,"to":1881,"##ou":1882,"in":1883,"##it":1884,"##al":1885,"of":1886,"##is":1887,"and":1888,"##ic":1889,"##as":1890,"##re":1891,"##om":1892,"##ion":1893,"##le":1894,"##ent":1895,"##ll":1896,"re":1897,"be":1898,"##ly":1899,"##st":1900,"##ot":1901,"##ve":1902,"wh":1903,"##id":1904,"on":1905,"##ac":1906,"##ut":1907,"that":1908,"is":1909,"st":1910,"##ow":1911,"##et":1912,"for":1913,"##ay":1914,"##ur":1915,"it":1916,"##am":1917,"##ad":1918,"pr":1919,"##ig":1920,"##se":1921,"##ct":1922,"##ld":1923,"##ver":1924,"##im":1925,"##ir":1926,"##ter":1927,"as":1928,"he":1929,"##ch":1930,"##ith":1931,"##ation":1932,"##ol":1933,"an":1934,"##ce":1935,"with":1936,"de":1937,"##th":1938,"you":1939,"##ers":1940,"##il":1941,"con":1942,"##ere":1943,"we":1944,"was":1945,"se":1946,"##op":1947,"##ill":1948,"ha":1949,"sh":1950,"ch":1951,"##est":1952,"com":1953,"fr":1954,"at":1955,"ne":1956,"##ess":1957,"##ate":1958,"##od":1959,"su":1960,"##ag":1961,"##ke":1962,"##ul":1963,"this":1964,"tr":1965,"##ment":1966,"are":1967,"##igh":1968,"##ain":1969,"##os":1970,"ex":1971,"or":1972,"al":1973,"##ist":1974,"##pp":1975,"not":1976,"##us":1977,"##oc":1978,"by":1979,"##ore":1980,"##ab":1981,"have":1982,"##ity":1983,"##ould":1984,"##if":1985,"##ive":1986,"##um":1987,"##ant":1988,"##un":1989,"from":1990,"le":1991,"##and":1992,"but":1993,"##em":1994,"##ort":1995,"##ies":1996,"go":1997,"##art":1998,"ab":1999,"sp":2000,"##iv":2001,"sa":2002,"pl":2003,"##ie":2004,"##ight":2005,"##ust":2006,"they":2007,"##el":2008,"un":2009,"##ear":2010,"wor":2011,"##ap":2012,"##ally":2013,"his":2014,"has":2015,"##ack":2016,"##all":2017,"##ect":2018,"pro":2019,"do":2020,"##out":2021,"20":2022,"##ard":2023,"en":2024,"##ost":2025,"can":2026,"##gh":2027,"##ome":2028,"ar":2029,"all":2030,"##ud":2031,"##ak":2032,"##ast":2033,"will":2034,"##end":2035,"##our":2036,"so":2037,"ad":2038,"##ib":2039,"##ich":2040,"##ge":2041,"said":2042,"us":2043,"cl":2044,"##ok":2045,"##ial":2046,"out":2047,"who":2048,"up":2049,"me":2050,"te":2051,"one":2052,"their":2053,"br":2054,"##ip":2055,"##ough":2056,"more":2057,"##ans":2058,"##tr":2059,"gr":2060,"##ame":2061,"res":2062,"new":2063,"im":2064,"##ound":2065,"##ions":2066,"comp":2067,"##ice":2068,"##ue":2069,"##ike":2070,"##her":2071,"##ous":2072,"there":2073,"##act":2074,"##ff":2075,"##one":2076,"am":2077,"##oun":2078,"##ia":2079,"##ure":2080,"##og":2081,"##age":2082,"##ong":2083,"man":2084,"about":2085,"##ine":2086,"if":2087,"ac":2088,"year":2089,"ag":2090,"ev":2091,"off":2092,"##ated":2093,"tim":2094,"cr":2095,"which":2096,"##ence":2097,"##pt":2098,"had":2099,"were":2100,"would":2101,"pe":2102,"##iz":2103,"int":2104,"rep":2105,"no":2106,"exp":2107,"what":2108,"##ind":2109,"sc":2110,"##ake":2111,"##ide":2112,"##ub":2113,"like":2114,"##ther":2115,"per":2116,"when":2117,"been":2118,"some":2119,"inc":2120,"co":2121,"##ach":2122,"fe":2123,"dr":2124,"##au":2125,"##ign":2126,"##own":2127,"##ber":2128,"##qu":2129,"part":2130,"af":2131,"tw":2132,"over":2133,"##ays":2134,"dis":2135,"##ace":2136,"##so":2137,"##ary":2138,"than":2139,"bec":2140,"201":2141,"her":2142,"lo":2143,"how":2144,"##able":2145,"just":2146,"##ite":2147,"qu":2148,"app":2149,"##ople":2150,"##ord":2151,"##ire":2152,"##ical":2153,"people":2154,"inter":2155,"##ish":2156,"##ian":2157,"also":2158,"##ose":2159,"my":2160,"##ations":2161,"##ile":2162,"str":2163,"work":2164,"mar":2165,"kn":2166,"##ult":2167,"time":2168,"##ree":2169,"get":2170,"##ass":2171,"your":2172,"##av":2173,"##ens":2174,"she":2175,"them":2176,"bl":2177,"any":2178,"pol":2179,"##int":2180,"fir":2181,"rec":2182,"other":2183,"##ec":2184,"##are":2185,"##ond":2186,"after":2187,"##ick":2188,"comm":2189,"##orm":2190,"its":2191,"ind":2192,"act":2193,"##ance":2194,"##lic":2195,"##ail":2196,"##ase":2197,"imp":2198,"our":2199,"play":2200,"##aw":2201,"##00":2202,"ever":2203,"##ro":2204,"19":2205,"##reat":2206,"fo":2207,"##uc":2208,"pre":2209,"po":2210,"ro":2211,"into":2212,"##amp":2213,"##fer":2214,"##gr":2215,"##ink":2216,"##ings":2217,"acc":2218,"##ition":2219,"bo":2220,"##ory":2221,"##vel":2222,"first":2223,"##oss":2224,"cont":2225,"##ep":2226,"##uct":2227,"ser":2228,"##ors":2229,"##ang":2230,"em":2231,"##ause":2232,"two":2233,"##itt":2234,"##ates":2235,"only":2236,"could":2237,"now":2238,"coun":2239,"ph":2240,"mo":2241,"most":2242,"him":2243,"des":2244,"##ert":2245,"##ious":2246,"may":2247,"##ents":2248,"##lect":2249,"sec":2250,"pres":2251,"##ks":2252,"und":2253,"back":2254,"##ade":2255,"##lo":2256,"bet":2257,"even":2258,"##enc":2259,"jo":2260,"cons":2261,"##ied":2262,"these":2263,"##ft":2264,"##ild":2265,"##ery":2266,"dec":2267,"##hing":2268,"att":2269,"##urn":2270,"did":2271,"because":2272,"don":2273,"again":2274,"bu":2275,"thr":2276,"every":2277,"wr":2278,"##ict":2279,"op":2280,"state":2281,"sy":2282,"##form":2283,"under":2284,"see":2285,"def":2286,"##iver":2287,"##ater":2288,"car":2289,"ob":2290,"##uch":2291,"rel":2292,"##we":2293,"inv":2294,"add":2295,"##ons":2296,"##day":2297,"know":2298,"high":2299,"then":2300,"##ry":2301,"min":2302,"ass":2303,"supp":2304,"##ual":2305,"years":2306,"ke":2307,"##ock":2308,"want":2309,"##erm":2310,"right":2311,"##iss":2312,"##ident":2313,"##ise":2314,"need":2315,"##lud":2316,"##ning":2317,"fl":2318,"##ra":2319,"where":2320,"many":2321,"##sel":2322,"mon":2323,"##wn":2324,"world":2325,"reg":2326,"##ments":2327,"call":2328,"make":2329,"ed":2330,"##ublic":2331,"down":2332,"##les":2333,"gu":2334,"par":2335,"##eric":2336,"##ved":2337,"fu":2338,"col":2339,"way":2340,"rem":2341,"well":2342,"dif":2343,"while":2344,"last":2345,"bel":2346,"contr":2347,"think":2348,"look":2349,"##fore":2350,"##oth":2351,"gen":2352,"##ell":2353,"being":2354,"team":2355,"ear":2356,"sch":2357,"ve":2358,"##oup":2359,"sm":2360,"americ":2361,"##ational":2362,"end":2363,"fin":2364,"##ject":2365,"id":2366,"show":2367,"##olog":2368,"includ":2369,"much":2370,"form":2371,"through":2372,"stud":2373,"##vern":2374,"very":2375,"##iew":2376,"inst":2377,"##ath":2378,"##ating":2379,"##ys":2380,"200":2381,"govern":2382,"##anc":2383,"those":2384,"##ason":2385,"long":2386,"##ump":2387,"dem":2388,"##aking":2389,"##other":2390,"##ily":2391,"##ics":2392,"##urr":2393,"should":2394,"say":2395,"10":2396,"##xt":2397,"##sp":2398,"start":2399,"##uring":2400,"##ative":2401,"##ited":2402,"before":2403,"##ower":2404,"##ities":2405,"report":2406,"sim":2407,"cent":2408,"use":2409,"war":2410,"##ific":2411,"##ased":2412,"good":2413,"##cc":2414,"##ty":2415,"##atch":2416,"does":2417,"ma":2418,"##ible":2419,"sub":2420,"own":2421,"med":2422,"##ting":2423,"cour":2424,"##ange":2425,"game":2426,"char":2427,"prob":2428,"point":2429,"such":2430,"hel":2431,"##ug":2432,"##ts":2433,"##ward":2434,"wee":2435,"here":2436,"##omet":2437,"##ince":2438,"going":2439,"##ters":2440,"##get":2441,"resp":2442,"dep":2443,"##ues":2444,"prod":2445,"eff":2446,"law":2447,"made":2448,"pers":2449,"##eral":2450,"##io":2451,"##az":2452,"mod":2453,"disc":2454,"aut":2455,"##ism":2456,"##ually":2457,"lead":2458,"##ular":2459,"##ving":2460,"##ix":2461,"##ility":2462,"cap":2463,"##llow":2464,"against":2465,"##orn":2466,"differ":2467,"take":2468,"##air":2469,"found":2470,"set":2471,"day":2472,"though":2473,"##up":2474,"##ier":2475,"##its":2476,"##ife":2477,"read":2478,"president":2479,"still":2480,"##illion":2481,"help":2482,"##ful":2483,"offic":2484,"great":2485,"sl":2486,"trans":2487,"three":2488,"government":2489,"##let":2490,"says":2491,"##ood":2492,"##man":2493,"##ope":2494,"somet":2495,"##ists":2496,"##ween":2497,"##ee":2498,"sign":2499,"spec":2500,"##ress":2501,"between":2502,"##ently":2503,"soc":2504,"##stem":2505,"mem":2506,"countr":2507,"prov":2508,"group":2509,"big":2510,"during":2511,"##als":2512,"real":2513,"num":2514,"sur":2515,"lar":2516,"elect":2517,"run":2518,"##ked":2519,"bus":2520,"since":2521,"same":2522,"##gan":2523,"really":2524,"##ying":2525,"system":2526,"around":2527,"both":2528,"hand":2529,"##ives":2530,"##irect":2531,"##ah":2532,"follow":2533,"public":2534,"leg":2535,"##self":2536,"##con":2537,"wom":2538,"##ene":2539,"##bo":2540,"prop":2541,"##yp":2542,"##ote":2543,"##led":2544,"##ork":2545,"##land":2546,"polit":2547,"##cept":2548,"cle":2549,"el":2550,"compan":2551,"##hip":2552,"##cr":2553,"support":2554,"##ient":2555,"##iet":2556,"##uss":2557,"##ames":2558,"##ves":2559,"ret":2560,"sen":2561,"mark":2562,"direct":2563,"##ever":2564,"##read":2565,"##velop":2566,"let":2567,"##ution":2568,"trump":2569,"find":2570,"##ouse":2571,"ho":2572,"det":2573,"conf":2574,"used":2575,"week":2576,"##ures":2577,"tal":2578,"##ton":2579,"person":2580,"fact":2581,"##ather":2582,"art":2583,"red":2584,"develop":2585,"fam":2586,"##cent":2587,"##way":2588,"met":2589,"##ern":2590,"cor":2591,"cre":2592,"progr":2593,"prot":2594,"happ":2595,"##ool":2596,"power":2597,"win":2598,"##ivers":2599,"post":2600,"##ered":2601,"iss":2602,"contin":2603,"##ines":2604,"##ash":2605,"bre":2606,"far":2607,"inf":2608,"##pr":2609,"##ax":2610,"##ik":2611,"##lish":2612,"city":2613,"old":2614,"month":2615,"##ience":2616,"##ave":2617,"commun":2618,"camp":2619,"told":2620,"put":2621,"nor":2622,"ann":2623,"lot":2624,"another":2625,"##istr":2626,"##ph":2627,"##ale":2628,"open":2629,"##ank":2630,"top":2631,"head":2632,"##ices":2633,"av":2634,"eng":2635,"tech":2636,"000":2637,"invest":2638,"second":2639,"adv":2640,"quest":2641,"intern":2642,"each":2643,"##akes":2644,"plan":2645,"##gest":2646,"life":2647,"##erg":2648,"rev":2649,"few":2650,"##ially":2651,"hum":2652,"belie":2653,"##ize":2654,"##ording":2655,"why":2656,"##per":2657,"##ont":2658,"too":2659,"opp":2660,"police":2661,"fil":2662,"##ount":2663,"##str":2664,"never":2665,"news":2666,"ord":2667,"ins":2668,"##lem":2669,"##ages":2670,"##ically":2671,"turn":2672,"##ency":2673,"loc":2674,"##ision":2675,"things":2676,"##ins":2677,"bar":2678,"poss":2679,"however":2680,"best":2681,"pass":2682,"conc":2683,"school":2684,"stand":2685,"requ":2686,"##ants":2687,"something":2688,"12":2689,"##ized":2690,"come":2691,"next":2692,"val":2693,"##ott":2694,"curr":2695,"##ime":2696,"##ior":2697,"##br":2698,"states":2699,"##alth":2700,"different":2701,"hard":2702,"##ead":2703,"##ology":2704,"four":2705,"ll":2706,"##tern":2707,"mil":2708,"ide":2709,"##ger":2710,"##co":2711,"might":2712,"##bs":2713,"##ute":2714,"main":2715,"rele":2716,"proc":2717,"serv":2718,"##err":2719,"11":2720,"according":2721,"air":2722,"##ling":2723,"##thing":2724,"test":2725,"##ody":2726,"##iving":2727,"result":2728,"##bers":2729,"house":2730,"##med":2731,"15":2732,"##ets":2733,"build":2734,"home":2735,"partic":2736,"dat":2737,"season":2738,"sk":2739,"problem":2740,"prof":2741,"##ric":2742,"##ention":2743,"econ":2744,"percent":2745,"##ne":2746,"##ret":2747,"including":2748,"american":2749,"##ri":2750,"list":2751,"econom":2752,"##ark":2753,"full":2754,"without":2755,"auth":2756,"feel":2757,"child":2758,"incre":2759,"national":2760,"product":2761,"import":2762,"seem":2763,"chr":2764,"free":2765,"##iness":2766,"fun":2767,"expl":2768,"##ittle":2769,"sw":2770,"##res":2771,"##ull":2772,"less":2773,"pop":2774,"care":2775,"##ield":2776,"allow":2777,"##ness":2778,"##son":2779,"##ined":2780,"number":2781,"##king":2782,"million":2783,"##pl":2784,"left":2785,"exper":2786,"level":2787,"little":2788,"techn":2789,"spe":2790,"ref":2791,"##ected":2792,"##ced":2793,"ext":2794,"called":2795,"better":2796,"18":2797,"##ner":2798,"beh":2799,"inform":2800,"country":2801,"la":2802,"##ces":2803,"##earch":2804,"research":2805,"##ately":2806,"sol":2807,"pos":2808,"pat":2809,"##ably":2810,"keep":2811,"place":2812,"interest":2813,"near":2814,"mus":2815,"rest":2816,"pay":2817,"face":2818,"ir":2819,"##aim":2820,"effect":2821,"adm":2822,"sou":2823,"mat":2824,"##iting":2825,"cond":2826,"##osed":2827,"arr":2828,"prev":2829,"times":2830,"##red":2831,"got":2832,"##ina":2833,"##ama":2834,"##ways":2835,"book":2836,"using":2837,"design":2838,"eas":2839,"har":2840,"gre":2841,"##ering":2842,"case":2843,"##ital":2844,"bit":2845,"maj":2846,"##til":2847,"##ten":2848,"##ised":2849,"##ats":2850,"program":2851,"cal":2852,"consid":2853,"miss":2854,"didn":2855,"typ":2856,"##over":2857,"press":2858,"move":2859,"##oney":2860,"term":2861,"##ral":2862,"##ains":2863,"##ction":2864,"##eng":2865,"##ocr":2866,"eur":2867,"##ained":2868,"##uck":2869,"simp":2870,"sever":2871,"prom":2872,"stre":2873,"hist":2874,"later":2875,"##ds":2876,"story":2877,"based":2878,"star":2879,"white":2880,"change":2881,"business":2882,"attack":2883,"del":2884,"clear":2885,"##inal":2886,"women":2887,"mid":2888,"mr":2889,"##ned":2890,"major":2891,"court":2892,"ra":2893,"cost":2894,"small":2895,"##hn":2896,"company":2897,"##ived":2898,"##ends":2899,"ste":2900,"organ":2901,"aff":2902,"##ven":2903,"##ense":2904,"class":2905,"appear":2906,"##atur":2907,"mean":2908,"##ator":2909,"##atic":2910,"health":2911,"project":2912,"univers":2913,"author":2914,"gl":2915,"vis":2916,"##line":2917,"polic":2918,"human":2919,"##ister":2920,"##iven":2921,"united":2922,"net":2923,"phot":2924,"30":2925,"lib":2926,"money":2927,"today":2928,"data":2929,"cert":2930,"##less":2931,"process":2932,"always":2933,"pur":2934,"past":2935,"terr":2936,"bas":2937,"##ged":2938,"chang":2939,"##ared":2940,"sing":2941,"once":2942,"party":2943,"important":2944,"rece":2945,"est":2946,"must":2947,"##aff":2948,"record":2949,"democr":2950,"ent":2951,"tax":2952,"##ature":2953,"claim":2954,"##ren":2955,"##ided":2956,"thing":2957,"##ready":2958,"already":2959,"political":2960,"##ians":2961,"fund":2962,"black":2963,"tell":2964,"var":2965,"##wh":2966,"line":2967,"grow":2968,"vide":2969,"men":2970,"making":2971,"view":2972,"##used":2973,"pot":2974,"least":2975,"pa":2976,"until":2977,"##ury":2978,"deb":2979,"opt":2980,"vi":2981,"##stand":2982,"return":2983,"former":2984,"fri":2985,"social":2986,"##be":2987,"##aining":2988,"##me":2989,"##ample":2990,"john":2991,"water":2992,"##erv":2993,"##aph":2994,"large":2995,"hal":2996,"oper":2997,"##app":2998,"##ases":2999,"lear":3000,"199":3001,"##ences":3002,"official":3003,"##ending":3004,"mor":3005,"days":3006,"family":3007,"happen":3008,"land":3009,"##aign":3010,"information":3011,"edit":3012,"games":3013,"media":3014,"campaign":3015,"occ":3016,"sit":3017,"##loy":3018,"actually":3019,"youn":3020,"ap":3021,"##ether":3022,"appro":3023,"##oub":3024,"##att":3025,"market":3026,"13":3027,"##itch":3028,"hu":3029,"kill":3030,"##acy":3031,"night":3032,"vot":3033,"republic":3034,"foot":3035,"kind":3036,"able":3037,"enough":3038,"order":3039,"emp":3040,"##ley":3041,"##ode":3042,"es":3043,"gener":3044,"arg":3045,"##augh":3046,"##ew":3047,"wal":3048,"doesn":3049,"won":3050,"14":3051,"fac":3052,"five":3053,"name":3054,"##unch":3055,"##ired":3056,"##orts":3057,"fed":3058,"several":3059,"##ession":3060,"often":3061,"##mm":3062,"bill":3063,"ant":3064,"sug":3065,"become":3066,"##ief":3067,"working":3068,"away":3069,"non":3070,"##ium":3071,"yet":3072,"##ality":3073,"watch":3074,"exc":3075,"hour":3076,"early":3077,"came":3078,"having":3079,"equ":3080,"##ird":3081,"north":3082,"##ified":3083,"secur":3084,"crit":3085,"sure":3086,"fur":3087,"##gin":3088,"players":3089,"stop":3090,"##ued":3091,"trad":3092,"##ards":3093,"whether":3094,"europe":3095,"##ising":3096,"##ush":3097,"give":3098,"question":3099,"##sh":3100,"deal":3101,"fre":3102,"perform":3103,"16":3104,"lab":3105,"event":3106,"arm":3107,"##ball":3108,"ge":3109,"##ensive":3110,"fut":3111,"sour":3112,"##ipp":3113,"meet":3114,"##crib":3115,"##ides":3116,"##ential":3117,"ca":3118,"complet":3119,"cho":3120,"certain":3121,"##ison":3122,"cover":3123,"##iam":3124,"activ":3125,"york":3126,"priv":3127,"##els":3128,"vers":3129,"##ization":3130,"##ony":3131,"step":3132,"known":3133,"lim":3134,"short":3135,"##empt":3136,"##enn":3137,"among":3138,"took":3139,"25":3140,"##ember":3141,"##erman":3142,"##ove":3143,"##ither":3144,"local":3145,"##itions":3146,"##idence":3147,"asked":3148,"control":3149,"course":3150,"bro":3151,"##ov":3152,"seen":3153,"charac":3154,"##ru":3155,"low":3156,"##icle":3157,"doing":3158,"dev":3159,"orig":3160,"##aps":3161,"within":3162,"dom":3163,"##lex":3164,"university":3165,"alm":3166,"went":3167,"17":3168,"pract":3169,"along":3170,"side":3171,"esp":3172,"sn":3173,"##aken":3174,"love":3175,"given":3176,"pub":3177,"##iety":3178,"general":3179,"##inc":3180,"acr":3181,"likely":3182,"##te":3183,"##ories":3184,"##uary":3185,"example":3186,"succ":3187,"##iously":3188,"sal":3189,"depart":3190,"light":3191,"##aring":3192,"members":3193,"##ought":3194,"investig":3195,"##ended":3196,"possible":3197,"young":3198,"security":3199,"fail":3200,"##ots":3201,"strong":3202,"obama":3203,"##ones":3204,"christ":3205,"future":3206,"hold":3207,"tot":3208,"understand":3209,"video":3210,"##thers":3211,"ce":3212,"##side":3213,"viol":3214,"##ane":3215,"across":3216,"##lf":3217,"interv":3218,"children":3219,"enter":3220,"##que":3221,"space":3222,"##ann":3223,"##ured":3224,"##tt":3225,"##mber":3226,"##ateg":3227,"community":3228,"##urs":3229,"thought":3230,"reason":3231,"addition":3232,"##imate":3233,"announ":3234,"done":3235,"mind":3236,"##ivid":3237,"following":3238,"means":3239,"##work":3240,"film":3241,"##by":3242,"conn":3243,"south":3244,"sound":3245,"##une":3246,"const":3247,"further":3248,"##itter":3249,"##oci":3250,"00":3251,"months":3252,"success":3253,"believe":3254,"russ":3255,"##arch":3256,"##ilar":3257,"getting":3258,"indust":3259,"reported":3260,"others":3261,"office":3262,"almost":3263,"##ination":3264,"fight":3265,"##ware":3266,"half":3267,"mag":3268,"anal":3269,"super":3270,"creat":3271,"100":3272,"##fe":3273,"##ague":3274,"ident":3275,"series":3276,"##lished":3277,"vict":3278,"suggest":3279,"sex":3280,"makes":3281,"rul":3282,"##ted":3283,"##oph":3284,"compet":3285,"cut":3286,"fall":3287,"history":3288,"glo":3289,"ple":3290,"study":3291,"international":3292,"fire":3293,"##itive":3294,"bad":3295,"##ortun":3296,"invol":3297,"issue":3298,"associ":3299,"distr":3300,"mom":3301,"instead":3302,"started":3303,"america":3304,"policy":3305,"##por":3306,"##book":3307,"canad":3308,"##par":3309,"50":3310,"##vers":3311,"##ergy":3312,"milit":3313,"particular":3314,"repres":3315,"scient":3316,"avail":3317,"sho":3318,"food":3319,"tar":3320,"live":3321,"rather":3322,"looking":3323,"##com":3324,"try":3325,"2016":3326,"service":3327,"similar":3328,"area":3329,"ep":3330,"reach":3331,"individ":3332,"##osp":3333,"quick":3334,"key":3335,"idea":3336,"##lement":3337,"imm":3338,"fig":3339,"colle":3340,"##ars":3341,"##ulation":3342,"lat":3343,"##aged":3344,"env":3345,"den":3346,"toget":3347,"together":3348,"foc":3349,"sent":3350,"##ows":3351,"points":3352,"##ference":3353,"cult":3354,"##ai":3355,"cell":3356,"ris":3357,"##ators":3358,"bene":3359,"special":3360,"intr":3361,"impro":3362,"added":3363,"ban":3364,"close":3365,"six":3366,"wind":3367,"isn":3368,"death":3369,"##ape":3370,"anything":3371,"##uction":3372,"protect":3373,"tre":3374,"##ler":3375,"trying":3376,"##back":3377,"mass":3378,"##ances":3379,"##uce":3380,"federal":3381,"dist":3382,"front":3383,"stat":3384,"german":3385,"##imes":3386,"committ":3387,"aust":3388,"##fic":3389,"cam":3390,"center":3391,"individual":3392,"comes":3393,"port":3394,"pick":3395,"##eign":3396,"discuss":3397,"rad":3398,"ago":3399,"##utes":3400,"##bal":3401,"admin":3402,"present":3403,"twitter":3404,"secret":3405,"behind":3406,"cy":3407,"mult":3408,"taken":3409,"##ids":3410,"capt":3411,"recent":3412,"2015":3413,"jud":3414,"##ored":3415,"energy":3416,"complete":3417,"er":3418,"job":3419,"available":3420,"cop":3421,"west":3422,"##ogr":3423,"##uced":3424,"san":3425,"upd":3426,"rights":3427,"nothing":3428,"tit":3429,"vir":3430,"entire":3431,"21":3432,"relig":3433,"init":3434,"pret":3435,"##selves":3436,"##ission":3437,"someone":3438,"development":3439,"email":3440,"mess":3441,"current":3442,"##erc":3443,"##ability":3444,"ey":3445,"player":3446,"##wards":3447,"wa":3448,"god":3449,"employ":3450,"attempt":3451,"access":3452,"wanted":3453,"saying":3454,"probably":3455,"mot":3456,"taking":3457,"gun":3458,"experience":3459,"field":3460,"exec":3461,"hit":3462,"image":3463,"infl":3464,"either":3465,"jour":3466,"##though":3467,"dam":3468,"##igr":3469,"phys":3470,"although":3471,"2014":3472,"dav":3473,"single":3474,"##iron":3475,"##ument":3476,"##ps":3477,"china":3478,"##aper":3479,"match":3480,"##aster":3481,"##0s":3482,"third":3483,"fav":3484,"brit":3485,"##ls":3486,"action":3487,"##ald":3488,"enc":3489,"doub":3490,"##ges":3491,"cann":3492,"break":3493,"room":3494,"bi":3495,"aud":3496,"threat":3497,"exist":3498,"department":3499,"desp":3500,"aver":3501,"cust":3502,"##amed":3503,"coming":3504,"economic":3505,"bring":3506,"rich":3507,"##sw":3508,"che":3509,"doc":3510,"clint":3511,"##ands":3512,"##uly":3513,"educ":3514,"body":3515,"conv":3516,"interview":3517,"##vert":3518,"mill":3519,"league":3520,"concern":3521,"earl":3522,"due":3523,"environ":3524,"summ":3525,"washing":3526,"tra":3527,"##rael":3528,"final":3529,"everything":3530,"countries":3531,"continue":3532,"cand":3533,"##for":3534,"##leg":3535,"late":3536,"woman":3537,"##reme":3538,"chec":3539,"administr":3540,"israel":3541,"##gress":3542,"simply":3543,"price":3544,"lang":3545,"##ipt":3546,"2017":3547,"signific":3548,"election":3549,"hom":3550,"##oy":3551,"##ming":3552,"else":3553,"club":3554,"civ":3555,"tem":3556,"##nes":3557,"##sy":3558,"specific":3559,"meas":3560,"collect":3561,"##iter":3562,"clinton":3563,"##den":3564,"##aces":3565,"##uation":3566,"describ":3567,"ground":3568,"review":3569,"building":3570,"represent":3571,"begin":3572,"street":3573,"share":3574,"minister":3575,"track":3576,"everyone":3577,"vol":3578,"bud":3579,"below":3580,"issues":3581,"matter":3582,"ball":3583,"evidence":3584,"div":3585,"washington":3586,"bank":3587,"director":3588,"target":3589,"et":3590,"##old":3591,"deep":3592,"words":3593,"198":3594,"foreign":3595,"22":3596,"ur":3597,"relations":3598,"scre":3599,"companies":3600,"block":3601,"hope":3602,"##fl":3603,"coup":3604,"chall":3605,"role":3606,"##uff":3607,"wasn":3608,"abs":3609,"military":3610,"true":3611,"outside":3612,"cir":3613,"uk":3614,"##mb":3615,"launch":3616,"treat":3617,"conserv":3618,"24":3619,"billion":3620,"environment":3621,"common":3622,"##ij":3623,"position":3624,"saw":3625,"create":3626,"yes":3627,"legal":3628,"respons":3629,"jan":3630,"diffic":3631,"comb":3632,"repl":3633,"difficult":3634,"link":3635,"mal":3636,"squ":3637,"coach":3638,"2013":3639,"self":3640,"gold":3641,"2012":3642,"custom":3643,"force":3644,"espec":3645,"running":3646,"##yn":3647,"##ival":3648,"##dle":3649,"##ites":3650,"wrote":3651,"especially":3652,"##ring":3653,"##ule":3654,"sand":3655,"leaders":3656,"##use":3657,"whole":3658,"financ":3659,"green":3660,"despite":3661,"##urch":3662,"playing":3663,"led":3664,"agree":3665,"susp":3666,"higher":3667,"article":3668,"technology":3669,"neg":3670,"terror":3671,"##lling":3672,"##ault":3673,"character":3674,"vo":3675,"##ength":3676,"##ify":3677,"obs":3678,"students":3679,"earlier":3680,"pet":3681,"music":3682,"total":3683,"age":3684,"global":3685,"decision":3686,"##ogn":3687,"version":3688,"benef":3689,"##umb":3690,"circ":3691,"dest":3692,"##ney":3693,"significant":3694,"soft":3695,"candid":3696,"society":3697,"pretty":3698,"mc":3699,"pal":3700,"vote":3701,"suff":3702,"expect":3703,"seems":3704,"gir":3705,"hours":3706,"##ibility":3707,"detail":3708,"da":3709,"nation":3710,"coll":3711,"##ully":3712,"##af":3713,"became":3714,"civil":3715,"type":3716,"langu":3717,"dead":3718,"march":3719,"sense":3720,"board":3721,"value":3722,"facebook":3723,"pan":3724,"page":3725,"services":3726,"champ":3727,"answ":3728,"site":3729,"##ively":3730,"decl":3731,"pred":3732,"htt":3733,"##ional":3734,"needs":3735,"talk":3736,"engine":3737,"shoot":3738,"subject":3739,"consider":3740,"potential":3741,"bur":3742,"include":3743,"church":3744,"cit":3745,"##ana":3746,"##ological":3747,"release":3748,"##nal":3749,"##ench":3750,"drop":3751,"network":3752,"40":3753,"##lam":3754,"##orr":3755,"##oud":3756,"related":3757,"##ograph":3758,"provide":3759,"aw":3760,"began":3761,"mov":3762,"##onse":3763,"road":3764,"ill":3765,"statement":3766,"source":3767,"##asing":3768,"##iday":3769,"inj":3770,"##ental":3771,"advert":3772,"speak":3773,"##ural":3774,"above":3775,"##go":3776,"##body":3777,"##aft":3778,"itself":3779,"word":3780,"drug":3781,"object":3782,"shows":3783,"mich":3784,"nec":3785,"##esh":3786,"refer":3787,"##ibut":3788,"cred":3789,"played":3790,"instit":3791,"themselves":3792,"himself":3793,"football":3794,"pain":3795,"note":3796,"execut":3797,"lost":3798,"accept":3799,"online":3800,"heart":3801,"results":3802,"##ender":3803,"##und":3804,"popular":3805,"officials":3806,"broad":3807,"laws":3808,"questions":3809,"##ests":3810,"base":3811,"wall":3812,"##yle":3813,"norm":3814,"rob":3815,"wed":3816,"defense":3817,"changes":3818,"industry":3819,"connect":3820,"##fully":3821,"needed":3822,"released":3823,"##oring":3824,"staff":3825,"host":3826,"stay":3827,"##hood":3828,"recently":3829,"response":3830,"friends":3831,"##ped":3832,"chief":3833,"##iple":3834,"groups":3835,"corre":3836,"approach":3837,"opportun":3838,"photo":3839,"sund":3840,"anyone":3841,"nearly":3842,"consum":3843,"##iod":3844,"##port":3845,"ang":3846,"##istic":3847,"cur":3848,"soon":3849,"##action":3850,"##ilt":3851,"search":3852,"model":3853,"function":3854,"meth":3855,"paul":3856,"living":3857,"##ift":3858,"science":3859,"tele":3860,"sept":3861,"##oint":3862,"hill":3863,"##ster":3864,"heav":3865,"##elt":3866,"personal":3867,"period":3868,"ah":3869,"particip":3870,"sil":3871,"##rew":3872,"mic":3873,"##ms":3874,"pack":3875,"published":3876,"##lim":3877,"ul":3878,"##erty":3879,"address":3880,"east":3881,"mis":3882,"##omp":3883,"##atives":3884,"works":3885,"middle":3886,"private":3887,"oct":3888,"hot":3889,"prim":3890,"goal":3891,"anti":3892,"flo":3893,"forward":3894,"republican":3895,"moment":3896,"college":3897,"di":3898,"shot":3899,"draw":3900,"197":3901,"created":3902,"quite":3903,"scr":3904,"teams":3905,"respond":3906,"##asons":3907,"select":3908,"express":3909,"minutes":3910,"hon":3911,"##oll":3912,"held":3913,"##aced":3914,"strateg":3915,"##load":3916,"longer":3917,"hun":3918,"je":3919,"round":3920,"exact":3921,"##apan":3922,"weeks":3923,"cases":3924,"constr":3925,"introd":3926,"average":3927,"rock":3928,"content":3929,"problems":3930,"shar":3931,"regard":3932,"card":3933,"mater":3934,"tur":3935,"internet":3936,"focus":3937,"##urd":3938,"##ucture":3939,"japan":3940,"race":3941,"wrong":3942,"##attle":3943,"extr":3944,"natur":3945,"park":3946,"americans":3947,"learn":3948,"journal":3949,"##olution":3950,"chance":3951,"arch":3952,"text":3953,"administration":3954,"islam":3955,"##osing":3956,"pict":3957,"2011":3958,"leader":3959,"aug":3960,"webs":3961,"comment":3962,"calif":3963,"##haps":3964,"log":3965,"##lus":3966,"announced":3967,"28":3968,"##ades":3969,"perhaps":3970,"fem":3971,"que":3972,"##key":3973,"##epend":3974,"hop":3975,"oil":3976,"town":3977,"##ished":3978,"friend":3979,"risk":3980,"##ron":3981,"##atures":3982,"##okes":3983,"capital":3984,"easy":3985,"196":3986,"##iding":3987,"leave":3988,"23":3989,"##rop":3990,"##ises":3991,"##medi":3992,"austral":3993,"language":3994,"earth":3995,"influ":3996,"ver":3997,"son":3998,"##rupt":3999,"original":4000,"king":4001,"mond":4002,"independ":4003,"maybe":4004,"reports":4005,"sometimes":4006,"impact":4007,"account":4008,"member":4009,"june":4010,"congress":4011,"fair":4012,"increase":4013,"wide":4014,"worth":4015,"india":4016,"buy":4017,"bal":4018,"pie":4019,"##ugg":4020,"financial":4021,"##ream":4022,"demand":4023,"education":4024,"##ob":4025,"##arter":4026,"manag":4027,"currently":4028,"size":4029,"##ique":4030,"##arr":4031,"studies":4032,"inside":4033,"##thern":4034,"##sec":4035,"##itting":4036,"defin":4037,"ess":4038,"##ex":4039,"unf":4040,"comput":4041,"##ude":4042,"##na":4043,"recogn":4044,"##yr":4045,"dece":4046,"rac":4047,"##cil":4048,"users":4049,"##ellig":4050,"favor":4051,"ways":4052,"expected":4053,"finally":4054,"please":4055,"##ino":4056,"progress":4057,"check":4058,"##uth":4059,"via":4060,"contract":4061,"##ey":4062,"constit":4063,"##ops":4064,"goog":4065,"tues":4066,"ira":4067,"reve":4068,"##ested":4069,"committee":4070,"doll":4071,"27":4072,"production":4073,"tuesday":4074,"happened":4075,"method":4076,"##isl":4077,"##ips":4078,"##where":4079,"sunday":4080,"climate":4081,"intellig":4082,"##oke":4083,"google":4084,"dog":4085,"performance":4086,"sold":4087,"situation":4088,"david":4089,"dig":4090,"##ett":4091,"immedi":4092,"##anger":4093,"rules":4094,"worked":4095,"blood":4096,"##bc":4097,"2010":4098,"##gn":4099,"january":4100,"loss":4101,"##uit":4102,"##cript":4103,"li":4104,"rate":4105,"##lin":4106,"complex":4107,"99":4108,"ran":4109,"teach":4110,"emerg":4111,"friday":4112,"surve":4113,"fans":4114,"tool":4115,"##omm":4116,"turned":4117,"terms":4118,"cannot":4119,"necess":4120,"ten":4121,"european":4122,"##itten":4123,"famil":4124,"relationship":4125,"movement":4126,"##ees":4127,"determ":4128,"web":4129,"phil":4130,"legisl":4131,"anim":4132,"attr":4133,"##ried":4134,"except":4135,"received":4136,"apr":4137,"jack":4138,"surpr":4139,"material":4140,"monday":4141,"##lear":4142,"aren":4143,"ask":4144,"ability":4145,"standard":4146,"il":4147,"##ners":4148,"indic":4149,"central":4150,"##coin":4151,"speed":4152,"californ":4153,"##bert":4154,"couple":4155,"gar":4156,"weap":4157,"obv":4158,"involved":4159,"quickly":4160,"iraq":4161,"british":4162,"thous":4163,"##ese":4164,"##ores":4165,"workers":4166,"confir":4167,"##aming":4168,"amount":4169,"practice":4170,"september":4171,"lay":4172,"oh":4173,"##fect":4174,"contact":4175,"simple":4176,"becom":4177,"applic":4178,"modern":4179,"plans":4180,"estab":4181,"mach":4182,"economy":4183,"sun":4184,"leav":4185,"events":4186,"phone":4187,"cast":4188,"##ging":4189,"built":4190,"poll":4191,"cup":4192,"images":4193,"ok":4194,"takes":4195,"tradition":4196,"gave":4197,"sat":4198,"tv":4199,"##atory":4200,"trade":4201,"##idents":4202,"##ilities":4203,"heard":4204,"##of":4205,"enj":4206,"council":4207,"26":4208,"canada":4209,"figure":4210,"mart":4211,"unl":4212,"syr":4213,"camer":4214,"##ients":4215,"##iff":4216,"discover":4217,"april":4218,"pull":4219,"##ctor":4220,"chair":4221,"prem":4222,"insp":4223,"conference":4224,"respect":4225,"tom":4226,"poor":4227,"lack":4228,"separ":4229,"guard":4230,"ach":4231,"crim":4232,"iran":4233,"##izing":4234,"career":4235,"push":4236,"##onstr":4237,"century":4238,"sens":4239,"##amm":4240,"subs":4241,"decided":4242,"july":4243,"sup":4244,"expert":4245,"eight":4246,"fix":4247,"##eal":4248,"morning":4249,"ele":4250,"lives":4251,"slow":4252,"meeting":4253,"##oon":4254,"hear":4255,"travel":4256,"paper":4257,"##ael":4258,"prior":4259,"bir":4260,"felt":4261,"table":4262,"grand":4263,"##xic":4264,"nove":4265,"wednes":4266,"california":4267,"pen":4268,"color":4269,"communic":4270,"killed":4271,"growth":4272,"training":4273,"behav":4274,"huge":4275,"##ask":4276,"neigh":4277,"veh":4278,"extreme":4279,"considered":4280,"lower":4281,"##ams":4282,"remember":4283,"code":4284,"##tain":4285,"officers":4286,"neighb":4287,"##pect":4288,"mother":4289,"rom":4290,"range":4291,"##estern":4292,"whose":4293,"additional":4294,"wednesday":4295,"hall":4296,"serious":4297,"improve":4298,"father":4299,"wond":4300,"included":4301,"talking":4302,"goes":4303,"corpor":4304,"russia":4305,"fast":4306,"visit":4307,"democratic":4308,"##imum":4309,"december":4310,"fal":4311,"cross":4312,"perfect":4313,"purp":4314,"fear":4315,"compl":4316,"##eech":4317,"seven":4318,"quality":4319,"assist":4320,"dark":4321,"##ening":4322,"speech":4323,"resour":4324,"##raft":4325,"bott":4326,"satur":4327,"##osition":4328,"##ung":4329,"song":4330,"##ibly":4331,"november":4332,"hy":4333,"justice":4334,"##iction":4335,"unc":4336,"afric":4337,"quarter":4338,"numbers":4339,"august":4340,"hands":4341,"deliver":4342,"##ened":4343,"item":4344,"reading":4345,"##eed":4346,"##off":4347,"knew":4348,"##force":4349,"##orters":4350,"##ceed":4351,"imag":4352,"regular":4353,"eg":4354,"offer":4355,"require":4356,"medical":4357,"##ining":4358,"agency":4359,"choice":4360,"analys":4361,"epis":4362,"##20":4363,"guy":4364,"citiz":4365,"reb":4366,"user":4367,"daily":4368,"cause":4369,"hosp":4370,"##icles":4371,"##ober":4372,"forces":4373,"spent":4374,"box":4375,"movie":4376,"tried":4377,"website":4378,"bey":4379,"various":4380,"##iation":4381,"##omb":4382,"officer":4383,"intelligence":4384,"29":4385,"##to":4386,"plat":4387,"alb":4388,"gets":4389,"county":4390,"medic":4391,"skill":4392,"##ider":4393,"areas":4394,"senate":4395,"title":4396,"##cl":4397,"boy":4398,"##play":4399,"previous":4400,"hund":4401,"##etic":4402,"geor":4403,"champions":4404,"35":4405,"wild":4406,"writing":4407,"##light":4408,"##uk":4409,"##uf":4410,"reveal":4411,"2009":4412,"file":4413,"named":4414,"thurs":4415,"##ires":4416,"written":4417,"allowed":4418,"immigr":4419,"software":4420,"sort":4421,"##mp":4422,"##ctions":4423,"concept":4424,"clean":4425,"advertise":4426,"natural":4427,"##oid":4428,"##kn":4429,"##ledge":4430,"culture":4431,"hundred":4432,"island":4433,"##istan":4434,"certainly":4435,"october":4436,"date":4437,"inn":4438,"bitcoin":4439,"##bi":4440,"##ume":4441,"jobs":4442,"kh":4443,"prep":4444,"##idge":4445,"document":4446,"##owd":4447,"upon":4448,"thursday":4449,"union":4450,"##ubb":4451,"##ondon":4452,"victim":4453,"fill":4454,"brown":4455,"starting":4456,"conduct":4457,"beyond":4458,"sett":4459,"exactly":4460,"parents":4461,"interesting":4462,"opportunity":4463,"##cer":4464,"gas":4465,"stories":4466,"trust":4467,"budget":4468,"##atter":4469,"##dr":4470,"saf":4471,"2008":4472,"rap":4473,"##ux":4474,"touch":4475,"william":4476,"particularly":4477,"london":4478,"biggest":4479,"##aut":4480,"republicans":4481,"attention":4482,"##craft":4483,"usually":4484,"majority":4485,"##ification":4486,"pressure":4487,"completely":4488,"swe":4489,"##oles":4490,"commission":4491,"safe":4492,"brought":4493,"##itted":4494,"bush":4495,"ice":4496,"##agement":4497,"systems":4498,"schools":4499,"##arily":4500,"##ida":4501,"features":4502,"donald":4503,"politics":4504,"muslim":4505,"##eter":4506,"##essional":4507,"investigation":4508,"cele":4509,"hous":4510,"ow":4511,"cris":4512,"autom":4513,"executive":4514,"western":4515,"style":4516,"convers":4517,"##ounts":4518,"freed":4519,"http":4520,"mad":4521,"mention":4522,"##zz":4523,"##lly":4524,"answer":4525,"stuff":4526,"population":4527,"##iant":4528,"##sequ":4529,"amaz":4530,"histor":4531,"##aries":4532,"prison":4533,"saturday":4534,"ens":4535,"max":4536,"letter":4537,"fa":4538,"##ety":4539,"critic":4540,"message":4541,"continued":4542,"##bit":4543,"##ament":4544,"##uses":4545,"crime":4546,"##sych":4547,"##oo":4548,"drink":4549,"##encies":4550,"latest":4551,"update":4552,"alle":4553,"spir":4554,"effects":4555,"growing":4556,"achie":4557,"##inated":4558,"##isions":4559,"counter":4560,"wants":4561,"roll":4562,"thinking":4563,"demonstr":4564,"celebr":4565,"##sc":4566,"princ":4567,"##inese":4568,"voters":4569,"ny":4570,"looks":4571,"tor":4572,"##ously":4573,"looked":4574,"property":4575,"enjoy":4576,"deg":4577,"##enced":4578,"effort":4579,"chinese":4580,"##ha":4581,"appar":4582,"blue":4583,"##entially":4584,"cook":4585,"45":4586,"cat":4587,"comments":4588,"##aging":4589,"levels":4590,"kids":4591,"mob":4592,"##ugh":4593,"implement":4594,"leading":4595,"danger":4596,"pun":4597,"##erve":4598,"##ma":4599,"attacks":4600,"psych":4601,"spokes":4602,"##wor":4603,"##imately":4604,"democrats":4605,"debate":4606,"limited":4607,"secretary":4608,"income":4609,"##asc":4610,"##oses":4611,"attorn":4612,"60":4613,"##uments":4614,"peace":4615,"inte":4616,"remain":4617,"reality":4618,"frequ":4619,"germany":4620,"battle":4621,"alone":4622,"##come":4623,"district":4624,"religious":4625,"31":4626,"nuc":4627,"##fort":4628,"print":4629,"blog":4630,"emb":4631,"meaning":4632,"overall":4633,"english":4634,"described":4635,"required":4636,"purch":4637,"wouldn":4638,"disp":4639,"calls":4640,"remains":4641,"##adem":4642,"febr":4643,"write":4644,"authority":4645,"500":4646,"##enge":4647,"regul":4648,"mcc":4649,"sports":4650,"entr":4651,"ready":4652,"increasing":4653,"band":4654,"install":4655,"##aught":4656,"freedom":4657,"february":4658,"mount":4659,"##mon":4660,"army":4661,"summer":4662,"ult":4663,"thus":4664,"plant":4665,"click":4666,"nature":4667,"##uing":4668,"claims":4669,"bow":4670,"##eth":4671,"##ension":4672,"rand":4673,"wife":4674,"reasons":4675,"organization":4676,"physical":4677,"scene":4678,"experi":4679,"ii":4680,"store":4681,"recomm":4682,"flor":4683,"##anced":4684,"russian":4685,"path":4686,"indian":4687,"##ground":4688,"changed":4689,"bord":4690,"jer":4691,"spot":4692,"##reg":4693,"drive":4694,"command":4695,"products":4696,"contribut":4697,"presidential":4698,"surv":4699,"eventually":4700,"criminal":4701,"##mer":4702,"ut":4703,"brain":4704,"carry":4705,"violence":4706,"platform":4707,"safety":4708,"paid":4709,"traff":4710,"stra":4711,"strugg":4712,"fly":4713,"twe":4714,"immediately":4715,"exch":4716,"altern":4717,"##eless":4718,"throughout":4719,"estim":4720,"extra":4721,"analysis":4722,"james":4723,"##ky":4724,"efforts":4725,"profess":4726,"thousands":4727,"prime":4728,"couldn":4729,"status":4730,"mix":4731,"##erson":4732,"exam":4733,"gone":4734,"stage":4735,"sem":4736,"prec":4737,"conditions":4738,"liberal":4739,"walk":4740,"fit":4741,"kore":4742,"academ":4743,"multiple":4744,"kick":4745,"mac":4746,"surr":4747,"toward":4748,"difference":4749,"analy":4750,"nuclear":4751,"eth":4752,"pitch":4753,"costs":4754,"crisis":4755,"parts":4756,"bab":4757,"hair":4758,"increased":4759,"grad":4760,"subst":4761,"prevent":4762,"ign":4763,"##ham":4764,"ones":4765,"directly":4766,"hospital":4767,"download":4768,"happy":4769,"nom":4770,"rout":4771,"##field":4772,"thanks":4773,"manager":4774,"beat":4775,"positive":4776,"conservative":4777,"lines":4778,"ww":4779,"##ford":4780,"provided":4781,"labor":4782,"credit":4783,"integr":4784,"##cs":4785,"mech":4786,"draft":4787,"2007":4788,"##ables":4789,"brand":4790,"cars":4791,"promot":4792,"appears":4793,"stem":4794,"195":4795,"produc":4796,"associated":4797,"##enue":4798,"##astic":4799,"receive":4800,"ahead":4801,"pm":4802,"##iers":4803,"##sa":4804,"plus":4805,"##isc":4806,"showed":4807,"largest":4808,"dan":4809,"liter":4810,"region":4811,"##utions":4812,"##ga":4813,"##hib":4814,"perm":4815,"esc":4816,"measure":4817,"vs":4818,"tex":4819,"disapp":4820,"constitution":4821,"burn":4822,"eu":4823,"spending":4824,"moving":4825,"##inary":4826,"arab":4827,"student":4828,"##ban":4829,"guys":4830,"michael":4831,"designed":4832,"radio":4833,"##ufact":4834,"core":4835,"jaz":4836,"eyes":4837,"die":4838,"towards":4839,"hero":4840,"strength":4841,"clearly":4842,"damage":4843,"##ustr":4844,"smith":4845,"##he":4846,"##anch":4847,"unit":4848,"followed":4849,"beginning":4850,"tour":4851,"trial":4852,"repe":4853,"virt":4854,"challeng":4855,"lin":4856,"##oken":4857,"manufact":4858,"unlike":4859,"##ocks":4860,"##ze":4861,"scen":4862,"predict":4863,"episode":4864,"compared":4865,"sexual":4866,"candidate":4867,"details":4868,"correct":4869,"mer":4870,"##akers":4871,"truth":4872,"##ortion":4873,"##aker":4874,"thank":4875,"senior":4876,"advertisement":4877,"nav":4878,"##64":4879,"failed":4880,"whate":4881,"option":4882,"wood":4883,"##ara":4884,"beg":4885,"##ikes":4886,"whatever":4887,"categ":4888,"door":4889,"brother":4890,"agreement":4891,"micr":4892,"##ypt":4893,"theory":4894,"hell":4895,"save":4896,"opin":4897,"absol":4898,"moved":4899,"relative":4900,"ideas":4901,"citizens":4902,"hyp":4903,"##cast":4904,"##hold":4905,"section":4906,"marri":4907,"helped":4908,"restr":4909,"voice":4910,"origin":4911,"giving":4912,"32":4913,"der":4914,"vill":4915,"french":4916,"##face":4917,"ital":4918,"haven":4919,"coal":4920,"apple":4921,"projects":4922,"activity":4923,"hur":4924,"yourself":4925,"knowledge":4926,"ended":4927,"##box":4928,"shown":4929,"##aint":4930,"feed":4931,"##using":4932,"##ivity":4933,"mission":4934,"computer":4935,"##astr":4936,"defe":4937,"smart":4938,"screen":4939,"florida":4940,"od":4941,"consist":4942,"developed":4943,"normal":4944,"fan":4945,"van":4946,"notice":4947,"books":4948,"individuals":4949,"37":4950,"mexic":4951,"agre":4952,"includes":4953,"greater":4954,"occup":4955,"born":4956,"gives":4957,"murd":4958,"meant":4959,"association":4960,"independent":4961,"##ef":4962,"##wise":4963,"##ping":4964,"sched":4965,"australia":4966,"clos":4967,"scale":4968,"cool":4969,"photos":4970,"encour":4971,"telev":4972,"dream":4973,"dise":4974,"corn":4975,"dut":4976,"fine":4977,"cyc":4978,"album":4979,"www":4980,"religion":4981,"ben":4982,"rule":4983,"##ny":4984,"##ago":4985,"##phone":4986,"policies":4987,"basic":4988,"ath":4989,"##ero":4990,"feature":4991,"passed":4992,"heavy":4993,"resources":4994,"absolute":4995,"sle":4996,"chann":4997,"minor":4998,"reflect":4999,"piece":5000,"narr":5001,"rh":5002,"haw":5003,"slight":5004,"fully":5005,"wait":5006,"square":5007,"forced":5008,"spread":5009,"electric":5010,"authorities":5011,"judge":5012,"jump":5013,"##yan":5014,"##eration":5015,"##iny":5016,"prosec":5017,"uses":5018,"expand":5019,"incident":5020,"##ado":5021,"##ille":5022,"structure":5023,"mechan":5024,"sud":5025,"impress":5026,"shut":5027,"shooting":5028,"reform":5029,"remo":5030,"characters":5031,"##val":5032,"##arian":5033,"coff":5034,"experim":5035,"err":5036,"championship":5037,"##yal":5038,"##berg":5039,"##ios":5040,"attorney":5041,"hol":5042,"tick":5043,"##set":5044,"34":5045,"rise":5046,"##owers":5047,"lob":5048,"avoid":5049,"##ipped":5050,"sanders":5051,"map":5052,"##owing":5053,"crowd":5054,"join":5055,"conflic":5056,"##rim":5057,"##erved":5058,"willing":5059,"count":5060,"reached":5061,"aim":5062,"##orter":5063,"sell":5064,"supposed":5065,"editor":5066,"critical":5067,"chic":5068,"##apt":5069,"advant":5070,"eye":5071,"calling":5072,"primary":5073,"33":5074,"bay":5075,"ip":5076,"lif":5077,"wel":5078,"unique":5079,"learning":5080,"##ev":5081,"defend":5082,"highly":5083,"foundation":5084,"none":5085,"winning":5086,"researchers":5087,"girl":5088,"##enty":5089,"##ocked":5090,"larger":5091,"posted":5092,"chris":5093,"alleged":5094,"myself":5095,"previously":5096,"organiz":5097,"sources":5098,"treatment":5099,"texas":5100,"mike":5101,"##ona":5102,"##sey":5103,"noted":5104,"##unt":5105,"driving":5106,"actions":5107,"politic":5108,"condition":5109,"strategy":5110,"died":5111,"##aur":5112,"illeg":5113,"bottom":5114,"straight":5115,"wil":5116,"##iate":5117,"contain":5118,"continues":5119,"ms":5120,"thom":5121,"places":5122,"affect":5123,"benefits":5124,"behavior":5125,"speaking":5126,"double":5127,"##li":5128,"##ki":5129,"station":5130,"2018":5131,"apart":5132,"gh":5133,"gay":5134,"nice":5135,"therefore":5136,"produced":5137,"minimum":5138,"request":5139,"##istry":5140,"##eno":5141,"powerful":5142,"generation":5143,"necessary":5144,"mist":5145,"trib":5146,"adj":5147,"decades":5148,"highest":5149,"kept":5150,"pattern":5151,"challenge":5152,"mel":5153,"nations":5154,"compar":5155,"partners":5156,"easily":5157,"domin":5158,"weapons":5159,"gree":5160,"rare":5161,"weight":5162,"qual":5163,"indeed":5164,"female":5165,"leaving":5166,"##ula":5167,"spend":5168,"syn":5169,"caused":5170,"36":5171,"goals":5172,"##iance":5173,"propos":5174,"successful":5175,"##ici":5176,"##amb":5177,"weekend":5178,"angel":5179,"fat":5180,"80":5181,"kr":5182,"nut":5183,"tough":5184,"##rec":5185,"spr":5186,"chem":5187,"##room":5188,"picture":5189,"##lor":5190,"##ato":5191,"frank":5192,"destro":5193,"wonder":5194,"pac":5195,"tro":5196,"mostly":5197,"transport":5198,"seemed":5199,"industr":5200,"creating":5201,"bed":5202,"hus":5203,"##down":5204,"management":5205,"christian":5206,"influence":5207,"75":5208,"gal":5209,"lic":5210,"##unk":5211,"raised":5212,"etc":5213,"benefit":5214,"george":5215,"professor":5216,"jazz":5217,"fighting":5218,"environmental":5219,"##roid":5220,"##amples":5221,"flight":5222,"patients":5223,"appeared":5224,"initial":5225,"cities":5226,"notes":5227,"charge":5228,"fox":5229,"##while":5230,"confirmed":5231,"##iar":5232,"pair":5233,"opening":5234,"marriage":5235,"television":5236,"jew":5237,"##uana":5238,"programs":5239,"libr":5240,"##aughter":5241,"ec":5242,"tend":5243,"whom":5244,"194":5245,"knows":5246,"memory":5247,"sales":5248,"##ste":5249,"chap":5250,"machine":5251,"length":5252,"##iced":5253,"lawy":5254,"signed":5255,"opened":5256,"records":5257,"millions":5258,"traffic":5259,"##put":5260,"franc":5261,"defensive":5262,"opposition":5263,"lou":5264,"los":5265,"##iel":5266,"adop":5267,"grant":5268,"quant":5269,"species":5270,"send":5271,"recover":5272,"debt":5273,"thomas":5274,"nine":5275,"##hi":5276,"##ented":5277,"react":5278,"sea":5279,"fresh":5280,"##itely":5281,"happens":5282,"funding":5283,"95":5284,"rat":5285,"##ches":5286,"##ibution":5287,"brief":5288,"generally":5289,"chicago":5290,"rub":5291,"##iles":5292,"##iled":5293,"enforce":5294,"options":5295,"operations":5296,"survey":5297,"agreed":5298,"ali":5299,"uns":5300,"residents":5301,"parties":5302,"audience":5303,"hack":5304,"##ya":5305,"troub":5306,"magaz":5307,"dollars":5308,"families":5309,"anc":5310,"limit":5311,"banks":5312,"display":5313,"competition":5314,"massive":5315,"favorite":5316,"traditional":5317,"ber":5318,"##ba":5319,"##itz":5320,"score":5321,"mah":5322,"professional":5323,"male":5324,"rid":5325,"enem":5326,"##ube":5327,"owners":5328,"understanding":5329,"martin":5330,"##bon":5331,"##onents":5332,"##aked":5333,"brew":5334,"occurr":5335,"choose":5336,"##oft":5337,"feet":5338,"false":5339,"90":5340,"ye":5341,"##uge":5342,"fort":5343,"##ishing":5344,"infr":5345,"occas":5346,"spirit":5347,"64":5348,"70":5349,"vac":5350,"org":5351,"subm":5352,"allows":5353,"windows":5354,"japanese":5355,"mir":5356,"stick":5357,"adult":5358,"scott":5359,"adding":5360,"advoc":5361,"claimed":5362,"rank":5363,"##itness":5364,"whe":5365,"commerc":5366,"assault":5367,"investment":5368,"39":5369,"cas":5370,"river":5371,"wing":5372,"##agon":5373,"robert":5374,"switch":5375,"customers":5376,"floor":5377,"##itude":5378,"##ifying":5379,"spect":5380,"cru":5381,"firm":5382,"accomp":5383,"seeing":5384,"insur":5385,"solid":5386,"canadian":5387,"##ijuana":5388,"##band":5389,"incred":5390,"load":5391,"supporters":5392,"protest":5393,"cells":5394,"separate":5395,"du":5396,"spring":5397,"hillary":5398,"purpose":5399,"models":5400,"##ropri":5401,"syria":5402,"fif":5403,"##iring":5404,"bull":5405,"controver":5406,"snow":5407,"offensive":5408,"driver":5409,"parl":5410,"proper":5411,"islamic":5412,"##10":5413,"stock":5414,"trip":5415,"hundreds":5416,"comfort":5417,"graph":5418,"charges":5419,"produce":5420,"putting":5421,"interested":5422,"sites":5423,"attract":5424,"##iverse":5425,"provides":5426,"bag":5427,"sad":5428,"stone":5429,"explained":5430,"palest":5431,"establish":5432,"hor":5433,"math":5434,"##iest":5435,"##itor":5436,"beaut":5437,"served":5438,"unfortun":5439,"crew":5440,"southern":5441,"award":5442,"names":5443,"##iro":5444,"shared":5445,"instr":5446,"catch":5447,"era":5448,"##ario":5449,"android":5450,"shel":5451,"emot":5452,"transl":5453,"doubt":5454,"worse":5455,"negative":5456,"obviously":5457,"65":5458,"kar":5459,"##dom":5460,"feeling":5461,"cab":5462,"nfl":5463,"##zen":5464,"##icient":5465,"candidates":5466,"digital":5467,"birth":5468,"bomb":5469,"diet":5470,"##cing":5471,"france":5472,"exerc":5473,"active":5474,"extremely":5475,"coffee":5476,"##nn":5477,"##essed":5478,"poly":5479,"communities":5480,"legislation":5481,"camera":5482,"ther":5483,"amb":5484,"coast":5485,"finding":5486,"learned":5487,"device":5488,"scientists":5489,"richard":5490,"##ta":5491,"spl":5492,"cold":5493,"refuge":5494,"parliam":5495,"##yl":5496,"heat":5497,"worst":5498,"##cul":5499,"##vin":5500,"##ston":5501,"dism":5502,"marijuana":5503,"actual":5504,"assum":5505,"##apped":5506,"lose":5507,"2006":5508,"responsible":5509,"becoming":5510,"neighbor":5511,"commercial":5512,"mos":5513,"rough":5514,"##lied":5515,"beer":5516,"closed":5517,"offered":5518,"annual":5519,"believed":5520,"effective":5521,"johnson":5522,"##ipping":5523,"protection":5524,"concerns":5525,"vehicle":5526,"lad":5527,"##ext":5528,"##outh":5529,"iron":5530,"advantage":5531,"fant":5532,"sher":5533,"##odies":5534,"explain":5535,"israeli":5536,"border":5537,"##more":5538,"acqu":5539,"showing":5540,"owner":5541,"standing":5542,"employees":5543,"jeff":5544,"##vant":5545,"##eline":5546,"prefer":5547,"caption":5548,"institute":5549,"migr":5550,"northern":5551,"victory":5552,"items":5553,"dangerous":5554,"exchange":5555,"43":5556,"si":5557,"wage":5558,"##uries":5559,"##che":5560,"wealth":5561,"##estic":5562,"##aine":5563,"sport":5564,"plays":5565,"elements":5566,"prices":5567,"##uters":5568,"parliament":5569,"witness":5570,"register":5571,"optim":5572,"announce":5573,"entirely":5574,"nas":5575,"rates":5576,"##la":5577,"##ica":5578,"commit":5579,"supply":5580,"##board":5581,"##iber":5582,"##airs":5583,"construction":5584,"tools":5585,"magazine":5586,"master":5587,"##ville":5588,"##semb":5589,"solution":5590,"revealed":5591,"cash":5592,"luck":5593,"##cell":5594,"governor":5595,"arrested":5596,"apparently":5597,"49":5598,"horr":5599,"vice":5600,"##iling":5601,"##ounds":5602,"convention":5603,"temper":5604,"slightly":5605,"os":5606,"stad":5607,"planned":5608,"random":5609,"illegal":5610,"francis":5611,"300":5612,"cath":5613,"##gs":5614,"##inate":5615,"usa":5616,"##ipl":5617,"##izes":5618,"otherwise":5619,"transform":5620,"values":5621,"tests":5622,"batter":5623,"kid":5624,"##wood":5625,"shop":5626,"coop":5627,"watching":5628,"failure":5629,"holding":5630,"application":5631,"rang":5632,"ton":5633,"##ipe":5634,"joined":5635,"48":5636,"2000":5637,"##aves":5638,"fourth":5639,"##ospect":5640,"suspect":5641,"42":5642,"mail":5643,"##isation":5644,"##ota":5645,"##oted":5646,"fellow":5647,"flag":5648,"ensure":5649,"ko":5650,"##erry":5651,"advis":5652,"zone":5653,"##ushing":5654,"##umn":5655,"centre":5656,"supreme":5657,"channel":5658,"alex":5659,"bul":5660,"##olic":5661,"truly":5662,"##antly":5663,"easier":5664,"meanwhile":5665,"argument":5666,"##stein":5667,"ham":5668,"pc":5669,"sam":5670,"asking":5671,"frame":5672,"##oster":5673,"controll":5674,"glass":5675,"markets":5676,"listen":5677,"38":5678,"hate":5679,"laugh":5680,"##onent":5681,"##ano":5682,"span":5683,"farm":5684,"vari":5685,"existing":5686,"negot":5687,"storm":5688,"serve":5689,"division":5690,"achieve":5691,"bowl":5692,"dar":5693,"gather":5694,"profile":5695,"opinion":5696,"stadium":5697,"52":5698,"wish":5699,"##my":5700,"##icted":5701,"construct":5702,"surround":5703,"##bur":5704,"##ca":5705,"##house":5706,"braz":5707,"offers":5708,"fell":5709,"partner":5710,"discussion":5711,"virgin":5712,"concerned":5713,"replace":5714,"introduced":5715,"conversation":5716,"hind":5717,"mere":5718,"##da":5719,"##men":5720,"novel":5721,"string":5722,"transfer":5723,"##coming":5724,"pin":5725,"##wide":5726,"##inct":5727,"onto":5728,"sav":5729,"unp":5730,"proposed":5731,"##acity":5732,"##abb":5733,"bob":5734,"decisions":5735,"solar":5736,"initi":5737,"documents":5738,"recommend":5739,"##ih":5740,"##time":5741,"##11":5742,"bell":5743,"minute":5744,"##ancy":5745,"micros":5746,"44":5747,"waiting":5748,"definitely":5749,"##kin":5750,"mayor":5751,"revolution":5752,"spokesman":5753,"jim":5754,"wat":5755,"##rem":5756,"doct":5757,"apply":5758,"193":5759,"missing":5760,"types":5761,"afford":5762,"sounds":5763,"destroy":5764,"comed":5765,"athlet":5766,"adjust":5767,"enforcement":5768,"##fs":5769,"hearing":5770,"resist":5771,"breaking":5772,"55":5773,"pap":5774,"tant":5775,"##bl":5776,"aspect":5777,"clin":5778,"##know":5779,"ultimately":5780,"removed":5781,"louis":5782,"bern":5783,"gain":5784,"jose":5785,"tack":5786,"interp":5787,"fuel":5788,"supported":5789,"allowing":5790,"largely":5791,"repeated":5792,"getty":5793,"decade":5794,"planning":5795,"experts":5796,"medicine":5797,"mobile":5798,"murder":5799,"ju":5800,"##ingly":5801,"runs":5802,"tells":5803,"##works":5804,"infrastr":5805,"carol":5806,"detect":5807,"homes":5808,"gop":5809,"stated":5810,"highlight":5811,"direction":5812,"arrived":5813,"basis":5814,"housing":5815,"library":5816,"saud":5817,"surface":5818,"older":5819,"steph":5820,"scientology":5821,"williams":5822,"##eren":5823,"guess":5824,"requires":5825,"streets":5826,"coverage":5827,"domain":5828,"rain":5829,"consequ":5830,"train":5831,"context":5832,"edge":5833,"turns":5834,"sky":5835,"restaur":5836,"purs":5837,"focused":5838,"launched":5839,"fle":5840,"##ada":5841,"suc":5842,"acknow":5843,"seek":5844,"differences":5845,"elections":5846,"stopped":5847,"copyr":5848,"discovered":5849,"copyright":5850,"ps":5851,"rog":5852,"reuters":5853,"depend":5854,"becomes":5855,"ram":5856,"##ym":5857,"##odes":5858,"##abor":5859,"spoke":5860,"doctor":5861,"crash":5862,"accused":5863,"##azy":5864,"telling":5865,"activities":5866,"suggested":5867,"faith":5868,"pu":5869,"tow":5870,"##ige":5871,"##ils":5872,"atl":5873,"##issions":5874,"schem":5875,"useful":5876,"participants":5877,"infrastructure":5878,"ren":5879,"##gl":5880,"england":5881,"specifically":5882,"prosecut":5883,"rs":5884,"sust":5885,"appoint":5886,"strike":5887,"background":5888,"carl":5889,"absolutely":5890,"jes":5891,"vul":5892,"unless":5893,"britain":5894,"ded":5895,"yell":5896,"##ole":5897,"plants":5898,"attend":5899,"2003":5900,"issued":5901,"alternative":5902,"disease":5903,"66":5904,"##atically":5905,"##ulf":5906,"##igned":5907,"setting":5908,"african":5909,"tweet":5910,"na":5911,"reject":5912,"appeal":5913,"mont":5914,"miles":5915,"obvious":5916,"##eness":5917,"basically":5918,"identified":5919,"emergency":5920,"41":5921,"bon":5922,"ty":5923,"##ka":5924,"##ani":5925,"##olf":5926,"weak":5927,"democracy":5928,"##isf":5929,"##osen":5930,"interact":5931,"writ":5932,"providing":5933,"developing":5934,"domestic":5935,"injury":5936,"imagine":5937,"dim":5938,"eat":5939,"tun":5940,"##ius":5941,"##za":5942,"##cel":5943,"bridge":5944,"imposs":5945,"skin":5946,"feels":5947,"skills":5948,"##arm":5949,"##acher":5950,"earn":5951,"2005":5952,"articles":5953,"files":5954,"smaller":5955,"https":5956,"subscrib":5957,"conflict":5958,"las":5959,"vast":5960,"##uate":5961,"ship":5962,"##pper":5963,"##ption":5964,"believes":5965,"leadership":5966,"princip":5967,"degree":5968,"identity":5969,"balance":5970,"relatively":5971,"zero":5972,"##oom":5973,"##itable":5974,"hasn":5975,"crack":5976,"immigration":5977,"sleep":5978,"alloc":5979,"interests":5980,"healthy":5981,"suggests":5982,"hang":5983,"pil":5984,"assemb":5985,"returned":5986,"dropped":5987,"47":5988,"##usion":5989,"appropri":5990,"accounts":5991,"studio":5992,"##ression":5993,"corporate":5994,"rapid":5995,"rush":5996,"##gb":5997,"##ront":5998,"##equ":5999,"##aks":6000,"newsp":6001,"2019":6002,"advanced":6003,"keeping":6004,"honest":6005,"regarding":6006,"established":6007,"##oked":6008,"coord":6009,"standards":6010,"paying":6011,"scientific":6012,"girls":6013,"##ulated":6014,"cancer":6015,"photograph":6016,"operation":6017,"window":6018,"originally":6019,"palestin":6020,"rene":6021,"task":6022,"##gers":6023,"prospect":6024,"seed":6025,"reduce":6026,"##cription":6027,"victims":6028,"cart":6029,"cards":6030,"sitting":6031,"##ques":6032,"wars":6033,"currency":6034,"instruct":6035,"54":6036,"gard":6037,"consc":6038,"2001":6039,"senator":6040,"raise":6041,"ron":6042,"##nel":6043,"##ox":6044,"##irt":6045,"neither":6046,"drivers":6047,"testing":6048,"businesses":6049,"views":6050,"innov":6051,"ment":6052,"ox":6053,"rose":6054,"ryan":6055,"##osh":6056,"cloud":6057,"seconds":6058,"changing":6059,"sharp":6060,"##enoord":6061,"unfortunately":6062,"53":6063,"bond":6064,"resc":6065,"carbon":6066,"metal":6067,"terrorism":6068,"impossible":6069,"01":6070,"mary":6071,"tact":6072,"##ae":6073,"##ris":6074,"##ari":6075,"trick":6076,"abuse":6077,"afgh":6078,"twice":6079,"accur":6080,"owned":6081,"labour":6082,"steps":6083,"budd":6084,"responsibility":6085,"fol":6086,"gall":6087,"placed":6088,"proceed":6089,"managed":6090,"possibility":6091,"conclud":6092,"equal":6093,"privacy":6094,"committed":6095,"veter":6096,"stan":6097,"##ulate":6098,"discrim":6099,"location":6100,"##arko":6101,"exclus":6102,"dollar":6103,"pip":6104,"##onom":6105,"pool":6106,"presence":6107,"swed":6108,"##resp":6109,"korea":6110,"##icip":6111,"##istics":6112,"recall":6113,"##otten":6114,"mentioned":6115,"purchase":6116,"powers":6117,"aircraft":6118,"harm":6119,"voting":6120,"equip":6121,"dyn":6122,"ped":6123,"wear":6124,"##emen":6125,"broken":6126,"symb":6127,"flat":6128,"africa":6129,"organizations":6130,"chapter":6131,"vision":6132,"##ener":6133,"amend":6134,"eval":6135,"capacity":6136,"##ception":6137,"stars":6138,"measures":6139,"##going":6140,"yards":6141,"##inn":6142,"finished":6143,"##onto":6144,"votes":6145,"arms":6146,"yeah":6147,"ken":6148,"##antic":6149,"##roll":6150,"facing":6151,"losing":6152,"nick":6153,"sac":6154,"wik":6155,"##itory":6156,"intel":6157,"parent":6158,"bigger":6159,"internal":6160,"philos":6161,"angeles":6162,"brazil":6163,"lie":6164,"##ble":6165,"tourn":6166,"affected":6167,"##onym":6168,"presented":6169,"attempts":6170,"neighborhood":6171,"nh":6172,"helping":6173,"considering":6174,"sudden":6175,"aware":6176,"sides":6177,"##tained":6178,"variety":6179,"figures":6180,"greek":6181,"sector":6182,"##enses":6183,"buff":6184,"familiar":6185,"oly":6186,"##ata":6187,"##ola":6188,"neur":6189,"alleg":6190,"##erties":6191,"elected":6192,"factors":6193,"planet":6194,"patr":6195,"visual":6196,"taxes":6197,"ceo":6198,"mexico":6199,"rum":6200,"clar":6201,"charged":6202,"factor":6203,"technical":6204,"devices":6205,"##ophy":6206,"broadcast":6207,"complexity":6208,"toronto":6209,"occurred":6210,"dial":6211,"tight":6212,"killing":6213,"connection":6214,"afghan":6215,"46":6216,"mental":6217,"##iated":6218,"##inating":6219,"##agr":6220,"##ander":6221,"craft":6222,"guide":6223,"circum":6224,"lived":6225,"mas":6226,"sample":6227,"##ker":6228,"beach":6229,"weather":6230,"diss":6231,"struct":6232,"instance":6233,"protes":6234,"funds":6235,"cuts":6236,"linked":6237,"nyarko":6238,"daughter":6239,"jon":6240,"##pm":6241,"##awn":6242,"moon":6243,"potentially":6244,"publish":6245,"politicians":6246,"beautif":6247,"olymp":6248,"caught":6249,"mand":6250,"##gu":6251,"##aud":6252,"##kins":6253,"##arant":6254,"##outs":6255,"compr":6256,"seriously":6257,"founder":6258,"famous":6259,"penn":6260,"##ship":6261,"##town":6262,"##mas":6263,"##ania":6264,"param":6265,"voted":6266,"fi":6267,"fest":6268,"jones":6269,"rail":6270,"supporting":6271,"cultural":6272,"drugs":6273,"51":6274,"bbc":6275,"lake":6276,"concent":6277,"consult":6278,"positions":6279,"steve":6280,"appearance":6281,"recorded":6282,"faced":6283,"widely":6284,"coalition":6285,"microsoft":6286,"gi":6287,"horn":6288,"rod":6289,"##uel":6290,"##igan":6291,"prepared":6292,"insurance":6293,"bes":6294,"mort":6295,"wid":6296,"shape":6297,"##enda":6298,"assess":6299,"magic":6300,"motiv":6301,"hurt":6302,"##ken":6303,"##itation":6304,"alt":6305,"worry":6306,"remind":6307,"remained":6308,"governments":6309,"charl":6310,"passing":6311,"faster":6312,"tag":6313,"spons":6314,"clim":6315,"fired":6316,"signs":6317,"eastern":6318,"methods":6319,"liqu":6320,"baby":6321,"##nam":6322,"##aded":6323,"##uls":6324,"carr":6325,"##others":6326,"typically":6327,"cannab":6328,"penal":6329,"saudi":6330,"bodies":6331,"sor":6332,"##right":6333,"##head":6334,"##agn":6335,"##anta":6336,"armed":6337,"joint":6338,"throw":6339,"wrest":6340,"finish":6341,"arrest":6342,"videos":6343,"proposal":6344,"concentr":6345,"##hol":6346,"teen":6347,"resident":6348,"writer":6349,"starts":6350,"elim":6351,"weapon":6352,"satisf":6353,"egypt":6354,"increasingly":6355,"gender":6356,"gaming":6357,"jun":6358,"weren":6359,"##uous":6360,"##oned":6361,"##igg":6362,"nobody":6363,"emph":6364,"##well":6365,"ministry":6366,"refused":6367,"amazing":6368,"nasa":6369,"equipment":6370,"##lig":6371,"##lies":6372,"##uted":6373,"selling":6374,"##essions":6375,"collection":6376,"premier":6377,"din":6378,"##ding":6379,"carried":6380,"engineering":6381,"carolina":6382,"cow":6383,"ire":6384,"##enger":6385,"##agues":6386,"trail":6387,"covered":6388,"linux":6389,"husband":6390,"##18":6391,"##ibute":6392,"decide":6393,"seeking":6394,"guarant":6395,"talks":6396,"fixed":6397,"industrial":6398,"lu":6399,"##iot":6400,"agent":6401,"fey":6402,"forms":6403,"possibly":6404,"happening":6405,"copy":6406,"panel":6407,"analyst":6408,"##32":6409,"complic":6410,"statements":6411,"2002":6412,"argued":6413,"totally":6414,"sar":6415,"##fc":6416,"sharing":6417,"shift":6418,"intended":6419,"default":6420,"magn":6421,"corner":6422,"troops":6423,"85":6424,"##do":6425,"retr":6426,"wearing":6427,"orange":6428,"##emp":6429,"##ansion":6430,"2004":6431,"investors":6432,"practices":6433,"entertain":6434,"suffered":6435,"astr":6436,"bost":6437,"jav":6438,"tiss":6439,"reference":6440,"sequ":6441,"seasons":6442,"##ogen":6443,"recru":6444,"proced":6445,"bringing":6446,"shares":6447,"pak":6448,"##lock":6449,"##lines":6450,"##real":6451,"##tered":6452,"seg":6453,"##pped":6454,"schol":6455,"tempor":6456,"hawai":6457,"bid":6458,"##uations":6459,"rein":6460,"##iders":6461,"abortion":6462,"##gry":6463,"writes":6464,"defence":6465,"paris":6466,"retire":6467,"revenue":6468,"terrorist":6469,"filled":6470,"category":6471,"error":6472,"##aints":6473,"column":6474,"pointed":6475,"handle":6476,"lots":6477,"conclus":6478,"initially":6479,"challenges":6480,"iv":6481,"les":6482,"util":6483,"##gor":6484,"##aj":6485,"##ez":6486,"stret":6487,"##illing":6488,"agencies":6489,"confidence":6490,"ruling":6491,"combined":6492,"australian":6493,"400":6494,"aid":6495,"gap":6496,"ske":6497,"wire":6498,"##30":6499,"##stream":6500,"royal":6501,"guid":6502,"remaining":6503,"posts":6504,"consumer":6505,"essential":6506,"chairman":6507,"boston":6508,"fish":6509,"mun":6510,"##acing":6511,"##verse":6512,"expensive":6513,"joe":6514,"fing":6515,"rup":6516,"anth":6517,"plenty":6518,"nov":6519,"aftern":6520,"implic":6521,"deput":6522,"identify":6523,"updates":6524,"employment":6525,"motion":6526,"miller":6527,"customer":6528,"vehicles":6529,"conducted":6530,"ancient":6531,"oce":6532,"pic":6533,"##owed":6534,"##ocol":6535,"helps":6536,"schedul":6537,"breat":6538,"jail":6539,"pages":6540,"##bn":6541,"##omen":6542,"myth":6543,"marg":6544,"boost":6545,"secure":6546,"flash":6547,"maintain":6548,"grew":6549,"regardless":6550,"leaves":6551,"okay":6552,"cu":6553,"cia":6554,"ring":6555,"##ita":6556,"evil":6557,"scores":6558,"everybody":6559,"developers":6560,"conservatives":6561,"substant":6562,"virginia":6563,"##mark":6564,"examples":6565,"anyway":6566,"electron":6567,"exercise":6568,"3d":6569,"fake":6570,"kat":6571,"lit":6572,"mu":6573,"##any":6574,"##ales":6575,"shad":6576,"accident":6577,"belong":6578,"turning":6579,"matters":6580,"element":6581,"sale":6582,"tast":6583,"##isher":6584,"##stone":6585,"seat":6586,"##oking":6587,"brad":6588,"edition":6589,"remove":6590,"greatest":6591,"winter":6592,"excited":6593,"urban":6594,"hotel":6595,"animals":6596,"entry":6597,"roughly":6598,"##wr":6599,"##how":6600,"##erate":6601,"offering":6602,"##ords":6603,"##ensions":6604,"formula":6605,"plane":6606,"audio":6607,"feyenoord":6608,"ell":6609,"om":6610,"rot":6611,"tap":6612,"##gen":6613,"##osure":6614,"apprec":6615,"playoff":6616,"##ictions":6617,"perspect":6618,"encoun":6619,"determined":6620,"dismiss":6621,"renew":6622,"emphas":6623,"fbi":6624,"##19":6625,"##erous":6626,"isis":6627,"spell":6628,"universe":6629,"distance":6630,"circumst":6631,"##pass":6632,"topic":6633,"filed":6634,"increases":6635,"guns":6636,"pictures":6637,"soldiers":6638,"estimated":6639,"chemical":6640,"protesters":6641,"thread":6642,"##oma":6643,"##ette":6644,"##amental":6645,"##kel":6646,"##ighter":6647,"lee":6648,"columb":6649,"creative":6650,"determine":6651,"animal":6652,"interpret":6653,"afternoon":6654,"viet":6655,"forget":6656,"##ura":6657,"##ansas":6658,"crimes":6659,"##ucks":6660,"regime":6661,"subsequ":6662,"quarterback":6663,"experienced":6664,"closer":6665,"mahiro":6666,"vulner":6667,"56":6668,"native":6669,"yemen":6670,"##aver":6671,"##xual":6672,"##icated":6673,"frustr":6674,"##ours":6675,"##ucing":6676,"leads":6677,"advance":6678,"newslet":6679,"criticism":6680,"tiny":6681,"##der":6682,"##point":6683,"andrew":6684,"cry":6685,"herself":6686,"located":6687,"##atured":6688,"critics":6689,"declared":6690,"femin":6691,"ireland":6692,"ba":6693,"bure":6694,"##bre":6695,"##ini":6696,"congr":6697,"##ights":6698,"intent":6699,"mars":6700,"paral":6701,"personally":6702,"datab":6703,"jesus":6704,"bol":6705,"vent":6706,"##ati":6707,"##otyp":6708,"aside":6709,"involve":6710,"motor":6711,"##ography":6712,"essentially":6713,"communication":6714,"disappoint":6715,"youth":6716,"##abilities":6717,"ariz":6718,"featured":6719,"dram":6720,"evening":6721,"finance":6722,"extent":6723,"christmas":6724,"entered":6725,"micro":6726,"applications":6727,"##reh":6728,"forg":6729,"##uration":6730,"asia":6731,"comic":6732,"communications":6733,"gm":6734,"hat":6735,"ash":6736,"##atell":6737,"strange":6738,"humans":6739,"##loyment":6740,"updated":6741,"consumers":6742,"az":6743,"bound":6744,"mut":6745,"##ias":6746,"##yc":6747,"##ket":6748,"##isters":6749,"##ayed":6750,"discl":6751,"talent":6752,"admitted":6753,"observ":6754,"significantly":6755,"lawsuit":6756,"expressed":6757,"pulled":6758,"experiment":6759,"lock":6760,"nic":6761,"row":6762,"rally":6763,"##ss":6764,"ongoing":6765,"##urb":6766,"contrast":6767,"##othes":6768,"mode":6769,"findings":6770,"reduced":6771,"functions":6772,"connected":6773,"treas":6774,"turk":6775,"surprising":6776,"lawyer":6777,"trouble":6778,"beautiful":6779,"tissue":6780,"bureau":6781,"cnn":6782,"fash":6783,"tail":6784,"##enth":6785,"offense":6786,"explo":6787,"##ups":6788,"fundamental":6789,"completed":6790,"institutions":6791,"ghost":6792,"ol":6793,"sought":6794,"##aling":6795,"shock":6796,"##ager":6797,"valid":6798,"##standing":6799,"##ibuted":6800,"##inet":6801,"##oms":6802,"units":6803,"crazy":6804,"##izz":6805,"##roit":6806,"silver":6807,"jersey":6808,"francisco":6809,"battery":6810,"symbol":6811,"entertainment":6812,"##asy":6813,"##illa":6814,"prove":6815,"boys":6816,"advice":6817,"approx":6818,"broke":6819,"radical":6820,"yester":6821,"responded":6822,"hopes":6823,"village":6824,"controvers":6825,"gang":6826,"nba":6827,"rising":6828,"wake":6829,"wave":6830,"proud":6831,"resol":6832,"legit":6833,"corrupt":6834,"explan":6835,"classic":6836,"opportunities":6837,"teaching":6838,"pakistan":6839,"62":6840,"giant":6841,"satell":6842,"tear":6843,"reaction":6844,"reserve":6845,"phase":6846,"shouldn":6847,"thoughts":6848,"faces":6849,"emails":6850,"yesterday":6851,"##isted":6852,"##abe":6853,"scar":6854,"regional":6855,"wins":6856,"##place":6857,"reportedly":6858,"collabor":6859,"script":6860,"galax":6861,"negoti":6862,"fashion":6863,"bare":6864,"batt":6865,"gear":6866,"##ns":6867,"##onic":6868,"yout":6869,"shr":6870,"pled":6871,"reporters":6872,"joke":6873,"knowing":6874,"##ologies":6875,"capable":6876,"ukr":6877,"illustr":6878,"amazon":6879,"bought":6880,"##acle":6881,"teacher":6882,"detroit":6883,"150":6884,"importance":6885,"violent":6886,"academic":6887,"begins":6888,"pure":6889,"##arks":6890,"aband":6891,"sci":6892,"stress":6893,"married":6894,"decre":6895,"monit":6896,"opposed":6897,"operating":6898,"sugar":6899,"discussed":6900,"volume":6901,"kingdom":6902,"newspaper":6903,"##de":6904,"##amin":6905,"missed":6906,"stream":6907,"movies":6908,"package":6909,"enemy":6910,"stretch":6911,"##ador":6912,"hey":6913,"excell":6914,"gov":6915,"amp":6916,"scot":6917,"192":6918,"warning":6919,"realize":6920,"moral":6921,"activists":6922,"treated":6923,"declined":6924,"jackson":6925,"kir":6926,"##onna":6927,"resolution":6928,"perman":6929,"##encing":6930,"relevant":6931,"existence":6932,"wilson":6933,"merely":6934,"##ii":6935,"##rees":6936,"forest":6937,"chart":6938,"##ector":6939,"drag":6940,"phen":6941,"warr":6942,"ordered":6943,"affairs":6944,"argue":6945,"enterpr":6946,"champion":6947,"honor":6948,"pieces":6949,"muslims":6950,"virtual":6951,"welcome":6952,"papers":6953,"dynam":6954,"ocean":6955,"##tle":6956,"exhib":6957,"##anda":6958,"usual":6959,"upgr":6960,"flav":6961,"ends":6962,"warned":6963,"auto":6964,"readers":6965,"memor":6966,"promise":6967,"walking":6968,"italy":6969,"restaurant":6970,"bat":6971,"morm":6972,"##dp":6973,"##inent":6974,"##rel":6975,"##abil":6976,"##uster":6977,"charles":6978,"follows":6979,"surprise":6980,"wheel":6981,"##erb":6982,"##itect":6983,"##iture":6984,"cham":6985,"contains":6986,"##what":6987,"films":6988,"distribution":6989,"latter":6990,"destr":6991,"assistant":6992,"uncert":6993,"drinking":6994,"##respond":6995,"tournament":6996,"63":6997,"##makers":6998,"##icit":6999,"##ading":7000,"atm":7001,"algor":7002,"##aped":7003,"incor":7004,"reporting":7005,"talked":7006,"correspond":7007,"household":7008,"profit":7009,"causes":7010,"competitive":7011,"deaths":7012,"flood":7013,"dogs":7014,"syrian":7015,"literally":7016,"therap":7017,"afghanistan":7018,"fasc":7019,"hr":7020,"proof":7021,"agenda":7022,"expansion":7023,"sym":7024,"buildings":7025,"squad":7026,"injuries":7027,"route":7028,"algorith":7029,"##nic":7030,"forum":7031,"gross":7032,"opponents":7033,"slowly":7034,"py":7035,"ray":7036,"sick":7037,"theat":7038,"##iti":7039,"##ache":7040,"quiet":7041,"underst":7042,"defined":7043,"##lands":7044,"percentage":7045,"severe":7046,"injured":7047,"deputy":7048,"perspective":7049,"cens":7050,"muse":7051,"##otic":7052,"shots":7053,"unus":7054,"applied":7055,"ourselves":7056,"depth":7057,"numerous":7058,"electr":7059,"picked":7060,"heavily":7061,"turkey":7062,"architect":7063,"amendment":7064,"dad":7065,"mouth":7066,"ride":7067,"forth":7068,"desk":7069,"transition":7070,"milk":7071,"tested":7072,"correl":7073,"exception":7074,"defeat":7075,"comfortable":7076,"split":7077,"writers":7078,"youtube":7079,"cos":7080,"cole":7081,"driven":7082,"anywhere":7083,"##road":7084,"kevin":7085,"combat":7086,"objects":7087,"##draw":7088,"jewish":7089,"spanish":7090,"bench":7091,"neut":7092,"##usal":7093,"marc":7094,"serving":7095,"nearby":7096,"trading":7097,"traditions":7098,"unlikely":7099,"comparison":7100,"dipl":7101,"hoc":7102,"mi":7103,"##16":7104,"##edia":7105,"suit":7106,"bright":7107,"somewhat":7108,"thinks":7109,"prompt":7110,"causing":7111,"controversial":7112,"59":7113,"rend":7114,"##iration":7115,"weird":7116,"allen":7117,"manning":7118,"warm":7119,"confident":7120,"universal":7121,"younger":7122,"journey":7123,"historical":7124,"disappear":7125,"manufactur":7126,"occasion":7127,"conscious":7128,"hide":7129,"luc":7130,"ru":7131,"rif":7132,"raw":7133,"wound":7134,"##po":7135,"##lets":7136,"explains":7137,"soul":7138,"greg":7139,"basket":7140,"watched":7141,"links":7142,"peter":7143,"accepted":7144,"surveill":7145,"sustain":7146,"##pa":7147,"branch":7148,"##ached":7149,"dish":7150,"flow":7151,"campus":7152,"authors":7153,"denied":7154,"cheap":7155,"subjects":7156,"##iciency":7157,"mathem":7158,"fab":7159,"mm":7160,"##ml":7161,"##orage":7162,"##lying":7163,"shall":7164,"##osite":7165,"unable":7166,"adapt":7167,"loved":7168,"kelly":7169,"instru":7170,"artist":7171,"advent":7172,"bills":7173,"brook":7174,"moments":7175,"escape":7176,"mine":7177,"tree":7178,"##oul":7179,"isol":7180,"stable":7181,"pra":7182,"trend":7183,"alco":7184,"assert":7185,"##ologist":7186,"##whel":7187,"##iami":7188,"##known":7189,"announcement":7190,"##here":7191,"##oe":7192,"inher":7193,"##ayer":7194,"##ulations":7195,"grown":7196,"overse":7197,"flu":7198,"explos":7199,"effectively":7200,"1998":7201,"represents":7202,"inspired":7203,"allegedly":7204,"appropriate":7205,"surveillance":7206,"57":7207,"72":7208,"boss":7209,"gam":7210,"jord":7211,"lt":7212,"vit":7213,"##iques":7214,"##icing":7215,"sets":7216,"listed":7217,"steel":7218,"fairly":7219,"surprised":7220,"delivered":7221,"immigrants":7222,"sweet":7223,"estimates":7224,"schedule":7225,"buddh":7226,"races":7227,"##bor":7228,"stood":7229,"enh":7230,"acting":7231,"server":7232,"adds":7233,"minim":7234,"##elling":7235,"territory":7236,"marketing":7237,"label":7238,"multi":7239,"attempted":7240,"golden":7241,"michigan":7242,"mountain":7243,"uncertain":7244,"bin":7245,"ht":7246,"lord":7247,"session":7248,"tas":7249,"##era":7250,"##osph":7251,"plug":7252,"decent":7253,"medium":7254,"properties":7255,"config":7256,"harv":7257,"facility":7258,"##anny":7259,"impressive":7260,"registered":7261,"doctors":7262,"ast":7263,"##mates":7264,"##12":7265,"prince":7266,"alert":7267,"dozen":7268,"emissions":7269,"publicly":7270,"letters":7271,"funny":7272,"improved":7273,"cyber":7274,"davis":7275,"expression":7276,"progressive":7277,"ticket":7278,"bang":7279,"tan":7280,"tab":7281,"taught":7282,"##iable":7283,"thir":7284,"##itarian":7285,"##iger":7286,"counsel":7287,"remark":7288,"creation":7289,"approved":7290,"matches":7291,"speaker":7292,"friendly":7293,"teachers":7294,"ohio":7295,"experiences":7296,"constitutional":7297,"partnership":7298,"pacific":7299,"refugees":7300,"joseph":7301,"58":7302,"pir":7303,"##bel":7304,"button":7305,"##acks":7306,"ending":7307,"barack":7308,"victor":7309,"latin":7310,"institution":7311,"queen":7312,"confirm":7313,"guardian":7314,"transportation":7315,"adults":7316,"cannabis":7317,"rupee":7318,"pd":7319,"sin":7320,"voc":7321,"wisc":7322,"##pir":7323,"##min":7324,"##icul":7325,"lew":7326,"scored":7327,"scoring":7328,"targets":7329,"suffering":7330,"necessarily":7331,"subsid":7332,"flying":7333,"cooper":7334,"tantric":7335,"bio":7336,"kim":7337,"patch":7338,"##rison":7339,"##uable":7340,"spain":7341,"agents":7342,"somehow":7343,"fold":7344,"signing":7345,"stands":7346,"strongly":7347,"physics":7348,"baseball":7349,"selection":7350,"colorado":7351,"cycle":7352,"consequences":7353,"paralle":7354,"phenomen":7355,"diplom":7356,"cd":7357,"##taining":7358,"##idden":7359,"##etr":7360,"unknown":7361,"disag":7362,"imper":7363,"facts":7364,"protests":7365,"irish":7366,"walked":7367,"falling":7368,"threats":7369,"owls":7370,"carrying":7371,"scheme":7372,"miami":7373,"pock":7374,"##ien":7375,"##ek":7376,"##uated":7377,"##orted":7378,"##weight":7379,"genetic":7380,"redd":7381,"requirements":7382,"mechanism":7383,"suddenly":7384,"circumstances":7385,"ga":7386,"jay":7387,"kil":7388,"lies":7389,"##ko":7390,"##14":7391,"repr":7392,"overwhel":7393,"recording":7394,"embr":7395,"##onsin":7396,"guil":7397,"extended":7398,"captain":7399,"wisconsin":7400,"dcs":7401,"##wal":7402,"##sl":7403,"shif":7404,"prohib":7405,"meat":7406,"tea":7407,"evolution":7408,"drone":7409,"index":7410,"pover":7411,"classes":7412,"closely":7413,"regulations":7414,"galaxy":7415,"bath":7416,"coc":7417,"sister":7418,"chosen":7419,"aggress":7420,"evol":7421,"scand":7422,"contest":7423,"orders":7424,"cutting":7425,"materials":7426,"maximum":7427,"consistent":7428,"arizona":7429,"jul":7430,"rig":7431,"##rich":7432,"##iser":7433,"bear":7434,"##cher":7435,"chick":7436,"brian":7437,"acts":7438,"buying":7439,"downtown":7440,"##ternal":7441,"ideology":7442,"matt":7443,"approval":7444,"meetings":7445,"compete":7446,"definition":7447,"roger":7448,"scheduled":7449,"jam":7450,"sab":7451,"sight":7452,"##17":7453,"##erves":7454,"##icide":7455,"##char":7456,"sees":7457,"intention":7458,"reput":7459,"desire":7460,"desper":7461,"##ancing":7462,"depending":7463,"officially":7464,"continuing":7465,"heads":7466,"colleagues":7467,"assistance":7468,"adopt":7469,"palestinian":7470,"database":7471,"tort":7472,"##elines":7473,"unemp":7474,"reporter":7475,"apps":7476,"veget":7477,"valley":7478,"debut":7479,"##orrow":7480,"mistake":7481,"quantum":7482,"yellow":7483,"ble":7484,"##lv":7485,"##pan":7486,"##ck":7487,"##aled":7488,"storage":7489,"noticed":7490,"abc":7491,"cruc":7492,"struck":7493,"colon":7494,"directed":7495,"promised":7496,"acknowled":7497,"nhl":7498,"divers":7499,"jur":7500,"kings":7501,"sinc":7502,"##inity":7503,"##inals":7504,"##arters":7505,"disrupt":7506,"worldwide":7507,"##ashed":7508,"promote":7509,"networks":7510,"alongside":7511,"constant":7512,"falls":7513,"observed":7514,"houses":7515,"frequency":7516,"korean":7517,"fifth":7518,"alcohol":7519,"jordan":7520,"##pe":7521,"##arth":7522,"soil":7523,"manif":7524,"blame":7525,"holly":7526,"calcul":7527,"landers":7528,"versions":7529,"selected":7530,"frequently":7531,"struggle":7532,"##chester":7533,"commitment":7534,"tackle":7535,"succeed":7536,"museum":7537,"800":7538,"eric":7539,"likes":7540,"soph":7541,"##west":7542,"stuck":7543,"anonym":7544,"welf":7545,"orient":7546,"leaf":7547,"plot":7548,"moves":7549,"elite":7550,"winner":7551,"topics":7552,"espn":7553,"detailed":7554,"immediate":7555,"daniel":7556,"scenes":7557,"incredible":7558,"incredibly":7559,"poverty":7560,"loud":7561,"tel":7562,"upper":7563,"yog":7564,"##otes":7565,"angry":7566,"regener":7567,"##enny":7568,"stronger":7569,"tracks":7570,"drawn":7571,"polls":7572,"songs":7573,"welfare":7574,"74":7575,"jr":7576,"kong":7577,"ott":7578,"##col":7579,"##ingu":7580,"##unte":7581,"bloom":7582,"empt":7583,"handed":7584,"retail":7585,"fewer":7586,"opposite":7587,"harder":7588,"claiming":7589,"##apping":7590,"shortly":7591,"distinct":7592,"godd":7593,"volunte":7594,"recognize":7595,"controlled":7596,"repeatedly":7597,"intellect":7598,"liquid":7599,"sorry":7600,"foss":7601,"iq":7602,"mur":7603,"thin":7604,"stores":7605,"##asts":7606,"transm":7607,"passion":7608,"deeply":7609,"khan":7610,"italian":7611,"comedy":7612,"columbia":7613,"drew":7614,"liver":7615,"ta":7616,"tall":7617,"##uits":7618,"inqu":7619,"abd":7620,"brothers":7621,"mainstream":7622,"liberals":7623,"odd":7624,"cruz":7625,"festival":7626,"approximately":7627,"dub":7628,"pushing":7629,"rice":7630,"##oral":7631,"##cho":7632,"arts":7633,"allies":7634,"##ologists":7635,"putin":7636,"liberty":7637,"independence":7638,"catal":7639,"dedicated":7640,"assembly":7641,"discrimination":7642,"sacr":7643,"05":7644,"rival":7645,"ont":7646,"shield":7647,"cha":7648,"##apse":7649,"brut":7650,"compens":7651,"compreh":7652,"disaster":7653,"theme":7654,"remote":7655,"confront":7656,"raising":7657,"returning":7658,"kinds":7659,"excess":7660,"performed":7661,"limits":7662,"favour":7663,"hoping":7664,"narrative":7665,"rescue":7666,"guilty":7667,"dall":7668,"iphone":7669,"jason":7670,"##mond":7671,"##eda":7672,"##areness":7673,"sty":7674,"seattle":7675,"upcoming":7676,"somebody":7677,"backed":7678,"humanity":7679,"holds":7680,"titles":7681,"##exp":7682,"racial":7683,"fantasy":7684,"temperature":7685,"icon":7686,"kurd":7687,"##bed":7688,"##ito":7689,"somewhere":7690,"##ifications":7691,"infect":7692,"arguments":7693,"##ographic":7694,"awes":7695,"awareness":7696,"recognition":7697,"pushed":7698,"punish":7699,"contributions":7700,"mixed":7701,"excellent":7702,"dw":7703,"hen":7704,"fraud":7705,"unif":7706,"grass":7707,"crypt":7708,"extension":7709,"extrem":7710,"ruled":7711,"risks":7712,"elsewhere":7713,"navig":7714,"catholic":7715,"aspects":7716,"understood":7717,"98":7718,"hong":7719,"##rd":7720,"##ena":7721,"clock":7722,"client":7723,"strik":7724,"developer":7725,"possession":7726,"typical":7727,"fields":7728,"coaches":7729,"racing":7730,"degrees":7731,"scotland":7732,"bike":7733,"cere":7734,"dc":7735,"nar":7736,"rating":7737,"roster":7738,"##laim":7739,"##onn":7740,"##lla":7741,"truck":7742,"grav":7743,"##ogue":7744,"twin":7745,"disord":7746,"province":7747,"condem":7748,"dealing":7749,"references":7750,"romney":7751,"academy":7752,"hindu":7753,"02":7754,"fiction":7755,"nurs":7756,"sir":7757,"##night":7758,"##imm":7759,"chlor":7760,"1999":7761,"choices":7762,"messages":7763,"hopefully":7764,"conclusion":7765,"hollywood":7766,"eld":7767,"tank":7768,"tony":7769,"##ded":7770,"##sters":7771,"worried":7772,"proved":7773,"##otted":7774,"explor":7775,"solutions":7776,"occur":7777,"sanctions":7778,"scenario":7779,"granted":7780,"04":7781,"67":7782,"bom":7783,"bits":7784,"##oman":7785,"##illy":7786,"lean":7787,"spo":7788,"enth":7789,"rolling":7790,"earned":7791,"courts":7792,"headed":7793,"sentence":7794,"georg":7795,"horned":7796,"sending":7797,"##view":7798,"##inations":7799,"##illed":7800,"dry":7801,"##upid":7802,"artists":7803,"solo":7804,"harass":7805,"taxp":7806,"describe":7807,"resource":7808,"precise":7809,"feedback":7810,"properly":7811,"subscribe":7812,"pilot":7813,"explanation":7814,"68":7815,"61":7816,"eb":7817,"##aire":7818,"##dy":7819,"##cy":7820,"forec":7821,"franch":7822,"unw":7823,"adam":7824,"outcome":7825,"formed":7826,"extensive":7827,"patient":7828,"trees":7829,"describes":7830,"replaced":7831,"referred":7832,"layer":7833,"license":7834,"pi":7835,"vige":7836,"##fr":7837,"##hr":7838,"##mat":7839,"##rey":7840,"stim":7841,"##ilit":7842,"##agan":7843,"trig":7844,"perce":7845,"feat":7846,"breed":7847,"listening":7848,"attacked":7849,"exciting":7850,"controls":7851,"advertising":7852,"historic":7853,"mccain":7854,"nomine":7855,"dominant":7856,"folks":7857,"vigeant":7858,"dal":7859,"gaz":7860,"hubb":7861,"lind":7862,"pump":7863,"reward":7864,"whis":7865,"##chain":7866,"chose":7867,"brings":7868,"newly":7869,"##rete":7870,"techniques":7871,"250":7872,"targeted":7873,"priority":7874,"surrounding":7875,"comprom":7876,"hockey":7877,"dallas":7878,"merc":7879,"##aa":7880,"##een":7881,"##han":7882,"##repr":7883,"pros":7884,"withdraw":7885,"strict":7886,"goods":7887,"discount":7888,"technologies":7889,"funded":7890,"1996":7891,"captured":7892,"combination":7893,"thousand":7894,"purposes":7895,"duty":7896,"stephen":7897,"awesome":7898,"mak":7899,"pok":7900,"sid":7901,"sessions":7902,"##ties":7903,"##esy":7904,"##orse":7905,"##asion":7906,"##etime":7907,"conce":7908,"sole":7909,"output":7910,"##licit":7911,"founded":7912,"legend":7913,"patri":7914,"payments":7915,"clubs":7916,"representative":7917,"answers":7918,"owl":7919,"virtually":7920,"patterns":7921,"mirr":7922,"unusual":7923,"ak":7924,"flex":7925,"hans":7926,"##gg":7927,"height":7928,"agric":7929,"anna":7930,"##cover":7931,"keeps":7932,"musc":7933,"returns":7934,"regularly":7935,"literature":7936,"73":7937,"nbc":7938,"nato":7939,"ros":7940,"rape":7941,"##bell":7942,"##alf":7943,"##asp":7944,"chain":7945,"orch":7946,"alph":7947,"phr":7948,"resulting":7949,"receiving":7950,"minds":7951,"losses":7952,"emerged":7953,"behavi":7954,"hyd":7955,"ultimate":7956,"cycling":7957,"apartment":7958,"scholars":7959,"permanent":7960,"##osphere":7961,"82":7962,"cable":7963,"gate":7964,"hay":7965,"ku":7966,"yield":7967,"regions":7968,"##athan":7969,"realized":7970,"holy":7971,"situations":7972,"facilities":7973,"versus":7974,"replied":7975,"journalists":7976,"premium":7977,"complaint":7978,"lobby":7979,"alien":7980,"electronic":7981,"neutral":7982,"mathemat":7983,"parallel":7984,"reputation":7985,"agricult":7986,"eating":7987,"pul":7988,"pope":7989,"rav":7990,"ts":7991,"tied":7992,"vic":7993,"zeal":7994,"##va":7995,"##isa":7996,"ford":7997,"anger":7998,"outl":7999,"manip":8000,"marsh":8001,"##awa":8002,"mole":8003,"barr":8004,"payment":8005,"similarly":8006,"normally":8007,"lawyers":8008,"philosophy":8009,"bird":8010,"tone":8011,"##ws":8012,"##pg":8013,"ingr":8014,"##itar":8015,"hash":8016,"blocks":8017,"boat":8018,"contem":8019,"deficit":8020,"assume":8021,"supports":8022,"puts":8023,"ideal":8024,"arrange":8025,"entit":8026,"austin":8027,"templ":8028,"congressional":8029,"03":8030,"76":8031,"##lers":8032,"forfe":8033,"##ched":8034,"anx":8035,"alliance":8036,"sov":8037,"##ounced":8038,"marked":8039,"capit":8040,"protected":8041,"belief":8042,"valuable":8043,"resulted":8044,"creates":8045,"capture":8046,"contributed":8047,"encourage":8048,"bj":8049,"cad":8050,"dna":8051,"pound":8052,"sony":8053,"tip":8054,"##ico":8055,"conver":8056,"habit":8057,"fred":8058,"##ifies":8059,"abu":8060,"compare":8061,"amid":8062,"hadn":8063,"dress":8064,"assets":8065,"retired":8066,"reasonable":8067,"collective":8068,"enemies":8069,"initiative":8070,"lewis":8071,"##win":8072,"##die":8073,"##icial":8074,"##ayers":8075,"asian":8076,"weigh":8077,"seats":8078,"perp":8079,"simpl":8080,"terrible":8081,"circuit":8082,"primarily":8083,"emotional":8084,"tower":8085,"complicated":8086,"mormon":8087,"regenerative":8088,"enthus":8089,"69":8090,"aj":8091,"buck":8092,"##sen":8093,"##bar":8094,"##ighters":8095,"##usive":8096,"lev":8097,"fees":8098,"surg":8099,"locations":8100,"matth":8101,"biology":8102,"relationships":8103,"principles":8104,"##gbt":8105,"satellite":8106,"fought":8107,"lgbt":8108,"pod":8109,"##uts":8110,"##osis":8111,"enorm":8112,"loyal":8113,"decline":8114,"attended":8115,"hole":8116,"represented":8117,"recovery":8118,"rapidly":8119,"vietnam":8120,"vulnerable":8121,"enterprise":8122,"gym":8123,"pad":8124,"##40":8125,"##erd":8126,"##isan":8127,"stupid":8128,"##owa":8129,"manner":8130,"myst":8131,"guest":8132,"engage":8133,"hardware":8134,"terrorists":8135,"corporations":8136,"prisoners":8137,"installed":8138,"ethnic":8139,"minority":8140,"narrow":8141,"08":8142,"cod":8143,"dod":8144,"hurr":8145,"vr":8146,"ves":8147,"x64":8148,"##fall":8149,"inev":8150,"input":8151,"rear":8152,"prote":8153,"##sea":8154,"##iment":8155,"waste":8156,"unn":8157,"brows":8158,"component":8159,"manage":8160,"peak":8161,"actor":8162,"description":8163,"obtained":8164,"factory":8165,"mainly":8166,"viewers":8167,"anticip":8168,"equival":8169,"obser":8170,"allegations":8171,"empty":8172,"soviet":8173,"##ora":8174,"##rect":8175,"pron":8176,"##igen":8177,"suicide":8178,"grid":8179,"amounts":8180,"explicit":8181,"prepar":8182,"oblig":8183,"smo":8184,"propag":8185,"opponent":8186,"informed":8187,"affil":8188,"discussions":8189,"improvement":8190,"navy":8191,"ukraine":8192,"basketball":8193,"cited":8194,"dust":8195,"hidden":8196,"porn":8197,"samples":8198,"##anes":8199,"deleg":8200,"##keep":8201,"##abled":8202,"anymore":8203,"fool":8204,"##ucc":8205,"presum":8206,"registr":8207,"deploy":8208,"transpar":8209,"careful":8210,"1994":8211,"apolog":8212,"empire":8213,"representatives":8214,"screens":8215,"responses":8216,"naturally":8217,"iraqi":8218,"automatic":8219,"enjoyed":8220,"lucky":8221,"wrestling":8222,"aer":8223,"gotten":8224,"ky":8225,"naz":8226,"ted":8227,"vary":8228,"##gian":8229,"##rid":8230,"##33":8231,"##ares":8232,"disney":8233,"contribute":8234,"demands":8235,"weekly":8236,"reduction":8237,"airport":8238,"programming":8239,"salt":8240,"employee":8241,"reviews":8242,"introduction":8243,"celebrate":8244,"07":8245,"fc":8246,"hits":8247,"iowa":8248,"##uine":8249,"##hab":8250,"stead":8251,"shit":8252,"exists":8253,"alive":8254,"engaged":8255,"##riend":8256,"##iveness":8257,"deeper":8258,"strategic":8259,"bh":8260,"cree":8261,"ft":8262,"fault":8263,"som":8264,"thor":8265,"##esis":8266,"iter":8267,"chances":8268,"joining":8269,"parking":8270,"belt":8271,"efficient":8272,"finds":8273,"personnel":8274,"requests":8275,"raf":8276,"reaching":8277,"rejected":8278,"penalty":8279,"cosm":8280,"goddess":8281,"ale":8282,"gulf":8283,"##wart":8284,"##xit":8285,"##arked":8286,"conven":8287,"sev":8288,"frag":8289,"saved":8290,"outstanding":8291,"##acted":8292,"exposed":8293,"boom":8294,"minnes":8295,"monthly":8296,"1997":8297,"threatened":8298,"diagn":8299,"implementation":8300,"cabinet":8301,"accurate":8302,"exclusive":8303,"disagree":8304,"77":8305,"bunch":8306,"cub":8307,"gig":8308,"vanc":8309,"theor":8310,"##ouver":8311,"triple":8312,"modi":8313,"legacy":8314,"democrat":8315,"generate":8316,"lights":8317,"paint":8318,"journalist":8319,"elev":8320,"principle":8321,"manufacturing":8322,"begun":8323,"adopted":8324,"shadow":8325,"taste":8326,"ontario":8327,"minnesota":8328,"bak":8329,"germ":8330,"hud":8331,"nich":8332,"rick":8333,"sed":8334,"token":8335,"sum":8336,"##apol":8337,"##sole":8338,"blind":8339,"formation":8340,"shoulder":8341,"carefully":8342,"prominent":8343,"visible":8344,"involving":8345,"banned":8346,"blockchain":8347,"collapse":8348,"perfectly":8349,"utility":8350,"tickets":8351,"81":8352,"ties":8353,"tie":8354,"##rum":8355,"##esc":8356,"##ctic":8357,"deals":8358,"saving":8359,"##enders":8360,"ads":8361,"coins":8362,"invent":8363,"keys":8364,"warming":8365,"avenue":8366,"profession":8367,"practical":8368,"routine":8369,"nutr":8370,"destroyed":8371,"chamber":8372,"therapy":8373,"intellectual":8374,"bor":8375,"oz":8376,"pace":8377,"rent":8378,"uber":8379,"##tig":8380,"prize":8381,"outs":8382,"herit":8383,"beta":8384,"obam":8385,"legs":8386,"operate":8387,"christie":8388,"constantly":8389,"pleas":8390,"collected":8391,"voices":8392,"innoc":8393,"categories":8394,"sherlock":8395,"concluded":8396,"giants":8397,"sympt":8398,"vancouver":8399,"fert":8400,"kur":8401,"pill":8402,"tut":8403,"till":8404,"##pro":8405,"##celer":8406,"console":8407,"wash":8408,"strip":8409,"serves":8410,"whereas":8411,"busy":8412,"processing":8413,"covers":8414,"drawing":8415,"racist":8416,"extraord":8417,"mexican":8418,"ipad":8419,"##ihad":8420,"87":8421,"ax":8422,"dou":8423,"jac":8424,"kiss":8425,"##don":8426,"##ua":8427,"##inter":8428,"##inator":8429,"rely":8430,"##vereign":8431,"##pping":8432,"abb":8433,"sovereign":8434,"##iana":8435,"strikes":8436,"edward":8437,"##lete":8438,"societ":8439,"info":8440,"concrete":8441,"portion":8442,"blocked":8443,"ultr":8444,"unclear":8445,"survive":8446,"bernie":8447,"garden":8448,"sweden":8449,"newsletter":8450,"matthew":8451,"88":8452,"bubb":8453,"kent":8454,"pour":8455,"rational":8456,"santa":8457,"ven":8458,"##word":8459,"##part":8460,"##██":8461,"##rell":8462,"revel":8463,"##osexual":8464,"roy":8465,"##raid":8466,"##elled":8467,"signal":8468,"larry":8469,"handful":8470,"##phones":8471,"testim":8472,"technique":8473,"covering":8474,"liked":8475,"indicate":8476,"discovery":8477,"exchang":8478,"advocates":8479,"controversy":8480,"sheriff":8481,"retirement":8482,"unemployment":8483,"79":8484,"86":8485,"jokes":8486,"##aid":8487,"##ystem":8488,"##pu":8489,"##mo":8490,"##idency":8491,"trends":8492,"spots":8493,"190":8494,"publication":8495,"promises":8496,"footage":8497,"statistics":8498,"grounds":8499,"tomorrow":8500,"veteran":8501,"destruction":8502,"crucial":8503,"dir":8504,"hamm":8505,"ly":8506,"lists":8507,"##gas":8508,"##oric":8509,"acceler":8510,"##aws":8511,"root":8512,"boot":8513,"conspir":8514,"relief":8515,"monitor":8516,"simult":8517,"handling":8518,"win64":8519,"beliefs":8520,"hardly":8521,"iii":8522,"casual":8523,"olympic":8524,"hubbard":8525,"97":8526,"96":8527,"wides":8528,"##greg":8529,"##care":8530,"resign":8531,"amy":8532,"manchester":8533,"drones":8534,"consens":8535,"assass":8536,"lawmakers":8537,"protocol":8538,"1990s":8539,"investigators":8540,"threatening":8541,"citizen":8542,"clinical":8543,"appointed":8544,"equivalent":8545,"simultane":8546,"bac":8547,"fisc":8548,"ic":8549,"mile":8550,"ramp":8551,"tenn":8552,"##can":8553,"##hy":8554,"stack":8555,"##etts":8556,"fruit":8557,"gray":8558,"whenever":8559,"twenty":8560,"formal":8561,"soccer":8562,"elsa":8563,"brexit":8564,"campaigns":8565,"bias":8566,"suspended":8567,"sensitive":8568,"achieved":8569,"migrants":8570,"resistance":8571,"tactics":8572,"negotiations":8573,"600":8574,"cogn":8575,"gains":8576,"oreg":8577,"##fire":8578,"##jan":8579,"##oning":8580,"##vey":8581,"##opher":8582,"alter":8583,"##ivals":8584,"plastic":8585,"outr":8586,"bron":8587,"##iano":8588,"##ecess":8589,"##orship":8590,"depends":8591,"bars":8592,"passes":8593,"laid":8594,"solve":8595,"organized":8596,"hunt":8597,"islands":8598,"electricity":8599,"accompan":8600,"barely":8601,"uniform":8602,"hurric":8603,"oregon":8604,"dance":8605,"gained":8606,"lun":8607,"pent":8608,"##bour":8609,"beij":8610,"chel":8611,"##estr":8612,"external":8613,"uncon":8614,"uncom":8615,"##ibr":8616,"##ibilities":8617,"marks":8618,"##sels":8619,"genuine":8620,"offices":8621,"##inson":8622,"machines":8623,"recommended":8624,"aimed":8625,"industries":8626,"besides":8627,"atmosphere":8628,"reddit":8629,"beijing":8630,"sams":8631,"wine":8632,"##stal":8633,"spin":8634,"plain":8635,"doz":8636,"enable":8637,"##endum":8638,"closing":8639,"upset":8640,"scan":8641,"afraid":8642,"##icks":8643,"attitude":8644,"bug":8645,"define":8646,"smile":8647,"efficiency":8648,"anne":8649,"courtesy":8650,"processes":8651,"argues":8652,"physic":8653,"rounds":8654,"##aska":8655,"visitors":8656,"producing":8657,"holiday":8658,"fortun":8659,"horse":8660,"mosc":8661,"algorithm":8662,"uncertainty":8663,"franchise":8664,"83":8665,"84":8666,"dun":8667,"gor":8668,"gift":8669,"kin":8670,"pence":8671,"wages":8672,"##bec":8673,"##py":8674,"##pread":8675,"##15":8676,"##acare":8677,"##season":8678,"asks":8679,"ark":8680,"intense":8681,"ministers":8682,"format":8683,"absor":8684,"participate":8685,"challenging":8686,"##burg":8687,"patrick":8688,"pocket":8689,"obamacare":8690,"widespread":8691,"700":8692,"hired":8693,"lam":8694,"##fit":8695,"##su":8696,"confer":8697,"noting":8698,"notion":8699,"abstr":8700,"doors":8701,"crow":8702,"##auc":8703,"pregn":8704,"buzz":8705,"##ressed":8706,"##print":8707,"estate":8708,"1995":8709,"lowest":8710,"investigations":8711,"immune":8712,"##sylv":8713,"referring":8714,"##under":8715,"ranked":8716,"rarely":8717,"ruby":8718,"spiritual":8719,"pennsylv":8720,"monitoring":8721,"1st":8722,"78":8723,"gonna":8724,"lens":8725,"wis":8726,"##bing":8727,"##top":8728,"thick":8729,"##stit":8730,"##umin":8731,"plate":8732,"prey":8733,"inval":8734,"proven":8735,"explore":8736,"delay":8737,"organisation":8738,"landsc":8739,"generated":8740,"activist":8741,"privile":8742,"snap":8743,"entering":8744,"distributed":8745,"trek":8746,"suffer":8747,"delivery":8748,"implemented":8749,"producer":8750,"wonderful":8751,"chicken":8752,"moscow":8753,"bail":8754,"cul":8755,"dick":8756,"echo":8757,"fulf":8758,"hint":8759,"##iat":8760,"##inem":8761,"toy":8762,"##alia":8763,"##ashing":8764,"##ller":8765,"beating":8766,"shout":8767,"trillion":8768,"meg":8769,"components":8770,"##ounting":8771,"exposure":8772,"##aches":8773,"hern":8774,"interaction":8775,"shell":8776,"recipe":8777,"thrown":8778,"mini":8779,"monarch":8780,"seemingly":8781,"programme":8782,"successfully":8783,"massach":8784,"banking":8785,"pettig":8786,"engineers":8787,"permission":8788,"establishment":8789,"aggressive":8790,"enormous":8791,"pettigrew":8792,"09":8793,"waves":8794,"yard":8795,"##woman":8796,"##thr":8797,"chip":8798,"exceed":8799,"albert":8800,"##usetts":8801,"##apore":8802,"crown":8803,"actors":8804,"joy":8805,"reducing":8806,"universities":8807,"singapore":8808,"suspected":8809,"struggling":8810,"stanford":8811,"legitimate":8812,"warrant":8813,"incorpor":8814,"massachusetts":8815,"dur":8816,"punch":8817,"tay":8818,"tri":8819,"##umes":8820,"##actions":8821,"repair":8822,"marco":8823,"##uctive":8824,"presidency":8825,"throwing":8826,"avo":8827,"scientist":8828,"attempting":8829,"expectations":8830,"introduce":8831,"logic":8832,"recognized":8833,"inspect":8834,"settlement":8835,"graduate":8836,"ignore":8837,"horiz":8838,"temporary":8839,"surgery":8840,"pennsylvania":8841,"eag":8842,"hou":8843,"pit":8844,"roles":8845,"##born":8846,"##pool":8847,"##iner":8848,"toler":8849,"##etics":8850,"ups":8851,"incidents":8852,"personality":8853,"##otte":8854,"##engers":8855,"singing":8856,"##ova":8857,"devast":8858,"circle":8859,"silent":8860,"indicated":8861,"cameras":8862,"apparent":8863,"platforms":8864,"georgia":8865,"nominee":8866,"bass":8867,"jets":8868,"ri":8869,"ry":8870,"vl":8871,"##aria":8872,"##ione":8873,"##lyn":8874,"##ima":8875,"fee":8876,"##berry":8877,"rook":8878,"everywhere":8879,"regulation":8880,"transit":8881,"superior":8882,"benefic":8883,"summit":8884,"addressed":8885,"corporation":8886,"heroes":8887,"odds":8888,"proposals":8889,"##agram":8890,"dinner":8891,"subsequent":8892,"treasury":8893,"dave":8894,"hitting":8895,"josh":8896,"jihad":8897,"rus":8898,"terry":8899,"vital":8900,"vector":8901,"##wan":8902,"##oying":8903,"##ja":8904,"##olit":8905,"trave":8906,"##andez":8907,"brill":8908,"loan":8909,"marvel":8910,"containing":8911,"endorse":8912,"##ikh":8913,"swim":8914,"estimate":8915,"exclud":8916,"surely":8917,"convin":8918,"interviews":8919,"referendum":8920,"rocket":8921,"automatically":8922,"expanded":8923,"prosecutors":8924,"innovation":8925,"cowbo":8926,"##otype":8927,"featuring":8928,"dozens":8929,"cig":8930,"lying":8931,"tips":8932,"wolf":8933,"##ni":8934,"abroad":8935,"202":8936,"grade":8937,"polar":8938,"roots":8939,"invited":8940,"monster":8941,"studying":8942,"centers":8943,"heading":8944,"euro":8945,"ballot":8946,"engineer":8947,"touchdown":8948,"conversations":8949,"ridicul":8950,"farmers":8951,"rifle":8952,"fiscal":8953,"##lah":8954,"##east":8955,"##endo":8956,"grab":8957,"incomp":8958,"marine":8959,"phones":8960,"carn":8961,"assad":8962,"guitar":8963,"discip":8964,"elig":8965,"artific":8966,"extend":8967,"behalf":8968,"array":8969,"deliber":8970,"steam":8971,"visited":8972,"landing":8973,"divided":8974,"silence":8975,"websites":8976,"iranian":8977,"walker":8978,"berlin":8979,"vacc":8980,"bullet":8981,"gathered":8982,"prosecutor":8983,"pipeline":8984,"turkish":8985,"sciences":8986,"consciousness":8987,"reprod":8988,"smooth":8989,"gent":8990,"mit":8991,"x6":8992,"##eters":8993,"alan":8994,"##ipedia":8995,"drunk":8996,"partly":8997,"knife":8998,"##urray":8999,"barcel":9000,"feelings":9001,"189":9002,"violations":9003,"furthermore":9004,"suggesting":9005,"fallen":9006,"statist":9007,"stayed":9008,"participation":9009,"settings":9010,"cooking":9011,"dutch":9012,"ratio":9013,"skept":9014,"makabe":9015,"zealand":9016,"samsung":9017,"dict":9018,"jury":9019,"##ses":9020,"##och":9021,"inequ":9022,"revers":9023,"stun":9024,"forever":9025,"shah":9026,"tries":9027,"leon":9028,"##ials":9029,"recip":9030,"mining":9031,"fled":9032,"##aham":9033,"denver":9034,"temp":9035,"##umble":9036,"birds":9037,"scandal":9038,"92":9039,"cort":9040,"gut":9041,"hd":9042,"kitch":9043,"lane":9044,"oak":9045,"rab":9046,"##fast":9047,"##oot":9048,"##ala":9049,"stake":9050,"stages":9051,"anton":9052,"deaf":9053,"butt":9054,"anybody":9055,"economics":9056,"attacking":9057,"immun":9058,"restrictions":9059,"jews":9060,"fantastic":9061,"tonight":9062,"implications":9063,"substantial":9064,"corruption":9065,"overwhelming":9066,"convinced":9067,"94":9068,"jere":9069,"kl":9070,"mitch":9071,"ot":9072,"pale":9073,"vert":9074,"##rog":9075,"shipping":9076,"##udes":9077,"justin":9078,"interior":9079,"blow":9080,"desert":9081,"surf":9082,"harry":9083,"##tenance":9084,"importantly":9085,"argent":9086,"creator":9087,"judges":9088,"1980s":9089,"popularity":9090,"walls":9091,"robot":9092,"1970s":9093,"oklah":9094,"tweeted":9095,"analysts":9096,"javas":9097,"fel":9098,"mild":9099,"##ries":9100,"##uild":9101,"##met":9102,"chat":9103,"##iev":9104,"scope":9105,"worker":9106,"roof":9107,"##veland":9108,"colors":9109,"metro":9110,"cream":9111,"ordinary":9112,"admit":9113,"receiver":9114,"equally":9115,"equality":9116,"##feld":9117,"improving":9118,"respectively":9119,"fears":9120,"prepare":9121,"printed":9122,"entrance":9123,"borders":9124,"opinions":9125,"occupy":9126,"procedure":9127,"hawaiian":9128,"instrument":9129,"remarkable":9130,"yoga":9131,"trigger":9132,"testimony":9133,"cigar":9134,"barcelona":9135,"javascript":9136,"2nd":9137,"nod":9138,"##water":9139,"##50":9140,"infer":9141,"trained":9142,"2020":9143,"replic":9144,"drama":9145,"firing":9146,"##graph":9147,"centuries":9148,"persu":9149,"persons":9150,"proph":9151,"concert":9152,"glad":9153,"##lessly":9154,"rhet":9155,"finger":9156,"breath":9157,"forfeiture":9158,"awards":9159,"pel":9160,"tum":9161,"vet":9162,"##zy":9163,"prol":9164,"asyl":9165,"exit":9166,"clash":9167,"noise":9168,"##ensity":9169,"firms":9170,"opens":9171,"remarks":9172,"gene":9173,"autonom":9174,"cleveland":9175,"##ika":9176,"intervention":9177,"hung":9178,"managing":9179,"##arrass":9180,"commissioner":9181,"diseases":9182,"accomplish":9183,"acknowledge":9184,"carlos":9185,"guidelines":9186,"manifest":9187,"innocent":9188,"bind":9189,"kansas":9190,"qa":9191,"##bod":9192,"##80":9193,"inner":9194,"##oming":9195,"##see":9196,"deem":9197,"##ulating":9198,"lect":9199,"unions":9200,"syd":9201,"##ateral":9202,"studied":9203,"annivers":9204,"streaming":9205,"midfield":9206,"foods":9207,"epic":9208,"inflation":9209,"consideration":9210,"speaks":9211,"acceptable":9212,"embarrass":9213,"utah":9214,"sustainable":9215,"fossil":9216,"inquir":9217,"ingred":9218,"89":9219,"fisher":9220,"han":9221,"mp":9222,"tub":9223,"ug":9224,"##hd":9225,"##ji":9226,"##isons":9227,"##omes":9228,"sus":9229,"suite":9230,"spaces":9231,"##ouri":9232,"scout":9233,"##gression":9234,"underm":9235,"invasion":9236,"colour":9237,"##xture":9238,"reader":9239,"##leton":9240,"maintenance":9241,"populations":9242,"technological":9243,"calm":9244,"salary":9245,"investigate":9246,"sixth":9247,"protecting":9248,"disturb":9249,"portr":9250,"picks":9251,"sufficient":9252,"complaints":9253,"indiana":9254,"wealthy":9255,"framework":9256,"assessment":9257,"municip":9258,"venture":9259,"abandoned":9260,"oklahoma":9261,"asylum":9262,"dies":9263,"wise":9264,"##mun":9265,"##eria":9266,"inch":9267,"##uten":9268,"stations":9269,"##iler":9270,"##ills":9271,"shirt":9272,"exempt":9273,"alab":9274,"craw":9275,"quoted":9276,"blast":9277,"##athy":9278,"pointing":9279,"module":9280,"setup":9281,"delhi":9282,"firef":9283,"cycl":9284,"balt":9285,"contracts":9286,"legislative":9287,"roman":9288,"psychological":9289,"predicted":9290,"waters":9291,"encounter":9292,"dramatic":9293,"registration":9294,"consensus":9295,"chelsea":9296,"dump":9297,"hip":9298,"jet":9299,"mt":9300,"rou":9301,"vig":9302,"##vp":9303,"##24":9304,"20th":9305,"acid":9306,"overcome":9307,"##uces":9308,"moderate":9309,"transg":9310,"requested":9311,"arrive":9312,"entrepr":9313,"voter":9314,"wales":9315,"breaks":9316,"homosexual":9317,"eastl":9318,"demanding":9319,"improvements":9320,"episodes":9321,"brotherhood":9322,"pupp":9323,"maryland":9324,"structures":9325,"phenomenon":9326,"extraordinary":9327,"houston":9328,"entreprene":9329,"hed":9330,"hamp":9331,"lunch":9332,"por":9333,"toxic":9334,"##ali":9335,"stl":9336,"##abet":9337,"reserved":9338,"overs":9339,"attached":9340,"symp":9341,"flick":9342,"musical":9343,"viewed":9344,"globe":9345,"improv":9346,"declar":9347,"illness":9348,"mechanics":9349,"affordable":9350,"atlantic":9351,"appreciate":9352,"diversity":9353,"cbs":9354,"hes":9355,"lux":9356,"ml":9357,"nu":9358,"nur":9359,"osc":9360,"##je":9361,"theories":9362,"##ader":9363,"sean":9364,"lever":9365,"grabb":9366,"instant":9367,"depression":9368,"memo":9369,"headqu":9370,"profits":9371,"swift":9372,"fundra":9373,"competing":9374,"judg":9375,"biological":9376,"homeless":9377,"hybr":9378,"##haust":9379,"commander":9380,"producers":9381,"ownership":9382,"lady":9383,"montreal":9384,"kirk":9385,"sydney":9386,"anniversary":9387,"4th":9388,"fame":9389,"fighters":9390,"gem":9391,"gdp":9392,"##mate":9393,"##aron":9394,"##esty":9395,"##agger":9396,"drove":9397,"bold":9398,"designer":9399,"missile":9400,"questioned":9401,"trem":9402,"virus":9403,"urg":9404,"ranks":9405,"counterpart":9406,"arabia":9407,"encouraged":9408,"lobster":9409,"horror":9410,"dependent":9411,"wounded":9412,"tasks":9413,"cowboys":9414,"06":9415,"ka":9416,"mant":9417,"##dam":9418,"##dog":9419,"prest":9420,"haiti":9421,"##ipts":9422,"grind":9423,"compat":9424,"vegas":9425,"engagement":9426,"swing":9427,"arguing":9428,"failing":9429,"titled":9430,"civilian":9431,"consumption":9432,"##inois":9433,"survival":9434,"examination":9435,"semi":9436,"burning":9437,"mistakes":9438,"adviser":9439,"sarah":9440,"interpretation":9441,"involvement":9442,"imperial":9443,"capitol":9444,"71":9445,"bust":9446,"cav":9447,"citing":9448,"dos":9449,"dates":9450,"dating":9451,"gott":9452,"lyn":9453,"pink":9454,"rural":9455,"sr":9456,"ze":9457,"##fare":9458,"stored":9459,"exhaust":9460,"##aping":9461,"usage":9462,"drum":9463,"relation":9464,"relax":9465,"contribution":9466,"##bridge":9467,"##nedy":9468,"visiting":9469,"neck":9470,"broader":9471,"eggs":9472,"integrity":9473,"conventional":9474,"residential":9475,"anthony":9476,"manufacturers":9477,"mirror":9478,"nutrition":9479,"symptoms":9480,"conspiracy":9481,"dual":9482,"diam":9483,"maps":9484,"tape":9485,"ward":9486,"xbox":9487,"##39":9488,"##s":9489,"##inction":9490,"##icon":9491,"##ication":9492,"forb":9493,"##adel":9494,"##osc":9495,"notable":9496,"##unction":9497,"unr":9498,"unexp":9499,"##iah":9500,"export":9501,"displ":9502,"myster":9503,"indigen":9504,"contained":9505,"underground":9506,"politically":9507,"hook":9508,"membership":9509,"investigating":9510,"violation":9511,"millenn":9512,"civilians":9513,"connections":9514,"hoped":9515,"drinks":9516,"demonstrate":9517,"purchased":9518,"diego":9519,"temperatures":9520,"seeds":9521,"kennedy":9522,"contempor":9523,"inequality":9524,"alabama":9525,"gif":9526,"hire":9527,"ter":9528,"tes":9529,"um":9530,"wings":9531,"##ti":9532,"##etch":9533,"inclus":9534,"coin":9535,"loose":9536,"blank":9537,"startup":9538,"stepped":9539,"##backs":9540,"void":9541,"obsc":9542,"languages":9543,"demanded":9544,"arena":9545,"sweep":9546,"##kyo":9547,"expanding":9548,"##burgh":9549,"doctr":9550,"bonus":9551,"swedish":9552,"guarantee":9553,"indigenous":9554,"bour":9555,"ib":9556,"murray":9557,"nin":9558,"##iu":9559,"##kh":9560,"##itals":9561,"reverse":9562,"##acc":9563,"##imp":9564,"chord":9565,"una":9566,"resem":9567,"overt":9568,"preced":9569,"##angel":9570,"##iox":9571,"reads":9572,"hob":9573,"menu":9574,"involves":9575,"convicted":9576,"difficulty":9577,"strategies":9578,"computers":9579,"racism":9580,"ratings":9581,"submitted":9582,"replacement":9583,"charlie":9584,"emphasis":9585,"ee":9586,"pitt":9587,"vel":9588,"wol":9589,"##fol":9590,"##alo":9591,"nev":9592,"##eman":9593,"##oko":9594,"crop":9595,"interse":9596,"##away":9597,"##ucking":9598,"assigned":9599,"contrary":9600,"subur":9601,"powered":9602,"insert":9603,"designs":9604,"distingu":9605,"deadly":9606,"burden":9607,"roads":9608,"searching":9609,"towns":9610,"promoting":9611,"graphics":9612,"alexander":9613,"battles":9614,"buddhist":9615,"elder":9616,"phrase":9617,"mystery":9618,"conferences":9619,"unexpected":9620,"cm":9621,"dol":9622,"hub":9623,"locked":9624,"nerv":9625,"##dd":9626,"##13":9627,"##istent":9628,"butter":9629,"adequ":9630,"##ibutes":9631,"##iang":9632,"accomm":9633,"##anged":9634,"120":9635,"authent":9636,"libert":9637,"operator":9638,"antib":9639,"departments":9640,"presentation":9641,"employed":9642,"suspic":9643,"objective":9644,"hosted":9645,"functional":9646,"focusing":9647,"indicates":9648,"defeated":9649,"acknowledged":9650,"comprehensive":9651,"hernandez":9652,"taylor":9653,"accommod":9654,"diverse":9655,"pounds":9656,"sant":9657,"##yer":9658,"##person":9659,"stir":9660,"sect":9661,"shocked":9662,"chad":9663,"##uma":9664,"##elle":9665,"clients":9666,"aga":9667,"appe":9668,"interrog":9669,"nowhere":9670,"assign":9671,"investments":9672,"childhood":9673,"##ucky":9674,"facilit":9675,"##shop":9676,"illinois":9677,"1960s":9678,"neighbour":9679,"preparing":9680,"laboratory":9681,"container":9682,"emotion":9683,"junior":9684,"forgotten":9685,"occasionally":9686,"anonymous":9687,"perceived":9688,"poké":9689,"entitled":9690,"93":9691,"cats":9692,"fate":9693,"fuck":9694,"gn":9695,"nat":9696,"##lu":9697,"##cro":9698,"##olen":9699,"dear":9700,"abilities":9701,"spoken":9702,"##apher":9703,"##endous":9704,"clothes":9705,"intim":9706,"repeal":9707,"coh":9708,"defender":9709,"warn":9710,"communist":9711,"performing":9712,"picking":9713,"divor":9714,"absence":9715,"coaching":9716,"speakers":9717,"philipp":9718,"settle":9719,"ecos":9720,"cooperation":9721,"instructions":9722,"dialogue":9723,"flavor":9724,"overseas":9725,"rookie":9726,"jeremy":9727,"transgender":9728,"bump":9729,"bible":9730,"cous":9731,"ein":9732,"lift":9733,"##car":9734,"threw":9735,"anderson":9736,"##oto":9737,"stability":9738,"forcing":9739,"##ami":9740,"##ili":9741,"comics":9742,"unh":9743,"parks":9744,"lawr":9745,"##ierce":9746,"builds":9747,"missouri":9748,"cambod":9749,"commonly":9750,"collins":9751,"reveals":9752,"##uko":9753,"concepts":9754,"correctly":9755,"hypothes":9756,"ranking":9757,"taxpayers":9758,"invalid":9759,"landscape":9760,"kitchen":9761,"ecosystem":9762,"cauc":9763,"cinem":9764,"hence":9765,"pix":9766,"rome":9767,"rah":9768,"riot":9769,"##gar":9770,"inject":9771,"##aki":9772,"knee":9773,"campbell":9774,"filter":9775,"insisted":9776,"##riers":9777,"restore":9778,"irr":9779,"classified":9780,"1993":9781,"21st":9782,"volunt":9783,"targeting":9784,"contacted":9785,"greece":9786,"refugee":9787,"pursue":9788,"wireless":9789,"harvard":9790,"sincl":9791,"hurricane":9792,"artificial":9793,"bread":9794,"cs":9795,"gord":9796,"tang":9797,"torn":9798,"##lar":9799,"##theless":9800,"##ilton":9801,"arc":9802,"timing":9803,"##enson":9804,"##icking":9805,"discour":9806,"differently":9807,"##itsu":9808,"lets":9809,"nevertheless":9810,"movements":9811,"healthcare":9812,"1992":9813,"api":9814,"additionally":9815,"discussing":9816,"hunter":9817,"constitu":9818,"settled":9819,"editorial":9820,"spectrum":9821,"athletic":9822,"wikipedia":9823,"theatre":9824,"juris":9825,"arkansas":9826,"rhetoric":9827,"hybrid":9828,"borr":9829,"danny":9830,"ease":9831,"ric":9832,"tai":9833,"wider":9834,"##bul":9835,"##erce":9836,"##eries":9837,"tokyo":9838,"##itors":9839,"reign":9840,"##othing":9841,"std":9842,"pride":9843,"nel":9844,"aged":9845,"crick":9846,"##aching":9847,"counts":9848,"supplies":9849,"teammates":9850,"courses":9851,"senators":9852,"posting":9853,"sandbox":9854,"hearts":9855,"soldier":9856,"consistently":9857,"athletes":9858,"highlights":9859,"dynamic":9860,"fabric":9861,"chaos":9862,"brilliant":9863,"sinclair":9864,"dying":9865,"kit":9866,"lav":9867,"sorts":9868,"vamp":9869,"##arre":9870,"stere":9871,"##the":9872,"chuck":9873,"fro":9874,"adams":9875,"upload":9876,"coher":9877,"##ails":9878,"moore":9879,"opio":9880,"smoke":9881,"discont":9882,"##eney":9883,"corps":9884,"infant":9885,"secondary":9886,"maintained":9887,"productivity":9888,"summary":9889,"malcol":9890,"approaches":9891,"telephone":9892,"jacket":9893,"layout":9894,"tweets":9895,"sprint":9896,"unpre":9897,"honestly":9898,"upgrade":9899,"henry":9900,"malcolm":9901,"jar":9902,"lag":9903,"ng":9904,"ross":9905,"##wa":9906,"##lings":9907,"##zing":9908,"##oux":9909,"##ouch":9910,"stolen":9911,"##sell":9912,"shaped":9913,"notably":9914,"ages":9915,"incent":9916,"margin":9917,"mold":9918,"worlds":9919,"smell":9920,"legally":9921,"##iko":9922,"##phia":9923,"insight":9924,"releases":9925,"starcraft":9926,"lineback":9927,"dominated":9928,"publ":9929,"damaged":9930,"burst":9931,"legislature":9932,"inspiration":9933,"districts":9934,"embass":9935,"nomination":9936,"merkel":9937,"reforms":9938,"licens":9939,"loaded":9940,"graphic":9941,"bureaucr":9942,"html":9943,"torture":9944,"compensation":9945,"harassment":9946,"propaganda":9947,"theoret":9948,"##apolis":9949,"simultaneously":9950,"##croft":9951,"lawrence":9952,"nan":9953,"nsa":9954,"##list":9955,"##mail":9956,"##­t":9957,"##orious":9958,"##thood":9959,"shir":9960,"strain":9961,"sheet":9962,"everyday":9963,"transaction":9964,"openly":9965,"110":9966,"explaining":9967,"admission":9968,"1990":9969,"christopher":9970,"##comes":9971,"rooms":9972,"interviewed":9973,"emerging":9974,"promotion":9975,"defendant":9976,"awarded":9977,"bombing":9978,"preferred":9979,"segment":9980,"pledge":9981,"punishment":9982,"browser":9983,"abstract":9984,"headquarters":9985,"bam":9986,"golf":9987,"nca":9988,"tu":9989,"wo":9990,"##orous":9991,"##leans":9992,"delic":9993,"leices":9994,"##acking":9995,"enfor":9996,"arctic":9997,"adap":9998,"perry":9999}}}