{"version":"1.0","truncation":null,"padding":null,"added_tokens":[{"id":0,"content":"[PAD]","single_word":false,"lstrip":false,"rstrip":false,"normalized":false,"special":true},{"id":1,"content":"[UNK]","single_word":false,"lstrip":false,"rstrip":false,"normalized":false,"special":true},{"id":2,"content":"[CLS]","single_word":false,"lstrip":false,"rstrip":false,"normalized":false,"special":true},{"id":3,"content":"[SEP]","single_word":false,"lstrip":false,"rstrip":false,"normalized":false,"special":true},{"id":4,"content":"[MASK]","single_word":false,"lstrip":false,"rstrip":false,"normalized":false,"special":true}],"normalizer":{"type":"BertNormalizer","clean_text":false,"handle_chinese_chars":false,"strip_accents":false,"lowercase":true},"pre_tokenizer":{"type":"BertPreTokenizer"},"post_processor":null,"decoder":{"type":"WordPiece","prefix":"##","cleanup":true},"model":{"type":"WordPiece","unk_token":"[UNK]","continuing_subword_prefix":"##","max_input_chars_per_word":100,"vocab":{"[PAD]":0,"[UNK]":1,"[CLS]":2,"[SEP]":3,"[MASK]":4,"!":5,"\"":6,"#":7,"$":8,"%":9,"&":10,"'":11,"(":12,")":13,"*":14,"+":15,",":16,"-":17,".":18,"/":19,"0":20,"1":21,"2":22,"3":23,"4":24,"5":25,"6":26,"7":27,"8":28,"9":29,":":30,";":31,"<":32,"=":33,">":34,"?":35,"@":36,"[":37,"\\":38,"]":39,"^":40,"_":41,"`":42,"a":43,"b":44,"c":45,"d":46,"e":47,"f":48,"g":49,"h":50,"i":51,"j":52,"k":53,"l":54,"m":55,"n":56,"o":57,"p":58,"q":59,"r":60,"s":61,"t":62,"u":63,"v":64,"w":65,"x":66,"y":67,"z":68,"{":69,"|":70,"}":71,"~":72,"":73,"":74,"":75,"":76,"":77,"":78,"":79,"":80,"":81,"":82,"":83,"":84,"¡":85,"¢":86,"£":87,"¤":88,"¥":89,"¦":90,"§":91,"¨":92,"©":93,"«":94,"¬":95,"­":96,"®":97,"¯":98,"°":99,"±":100,"²":101,"³":102,"´":103,"µ":104,"¶":105,"·":106,"¸":107,"¹":108,"º":109,"»":110,"¼":111,"½":112,"¾":113,"¿":114,"×":115,"ß":116,"à":117,"á":118,"â":119,"ã":120,"ä":121,"å":122,"æ":123,"ç":124,"è":125,"é":126,"ê":127,"ë":128,"ì":129,"í":130,"î":131,"ï":132,"ð":133,"ñ":134,"ò":135,"ó":136,"ô":137,"õ":138,"ö":139,"÷":140,"ø":141,"ù":142,"ú":143,"û":144,"ü":145,"ý":146,"þ":147,"ÿ":148,"ā":149,"ă":150,"ą":151,"ć":152,"č":153,"đ":154,"ē":155,"ė":156,"ę":157,"ě":158,"ĝ":159,"ğ":160,"ī":161,"ı":162,"ł":163,"ń":164,"ŋ":165,"ō":166,"ő":167,"œ":168,"ř":169,"ś":170,"ş":171,"š":172,"ţ":173,"ū":174,"ŭ":175,"ů":176,"ź":177,"ż":178,"ž":179,"ƒ":180,"ǎ":181,"ǐ":182,"ǒ":183,"ǔ":184,"ș":185,"ț":186,"ɑ":187,"ɔ":188,"ə":189,"ɛ":190,"ɡ":191,"ɪ":192,"ɾ":193,"ʃ":194,"ʊ":195,"ʔ":196,"ʖ":197,"ʰ":198,"ʲ":199,"ʻ":200,"ʼ":201,"ʿ":202,"ˈ":203,"ː":204,"˙":205,"˚":206,"˜":207,"̀":208,"́":209,"̃":210,"̄":211,"̇":212,"̈":213,"̯":214,"̶":215,"͜":216,"͡":217,"ά":218,"έ":219,"ή":220,"ί":221,"α":222,"β":223,"γ":224,"δ":225,"ε":226,"ζ":227,"η":228,"θ":229,"ι":230,"κ":231,"λ":232,"μ":233,"ν":234,"ξ":235,"ο":236,"π":237,"ρ":238,"ς":239,"σ":240,"τ":241,"υ":242,"φ":243,"χ":244,"ψ":245,"ω":246,"ό":247,"ύ":248,"ώ":249,"ϕ":250,"а":251,"б":252,"в":253,"г":254,"д":255,"е":256,"ж":257,"з":258,"и":259,"й":260,"к":261,"л":262,"м":263,"н":264,"о":265,"п":266,"р":267,"с":268,"т":269,"у":270,"ф":271,"х":272,"ц":273,"ч":274,"ш":275,"щ":276,"ъ":277,"ы":278,"ь":279,"э":280,"ю":281,"я":282,"ё":283,"ѕ":284,"і":285,"ї":286,"ա":287,"ե":288,"ի":289,"ն":290,"ո":291,"ր":292,"ւ":293,"ְ":294,"ִ":295,"ֶ":296,"ַ":297,"ָ":298,"ֹ":299,"ּ":300,"א":301,"ב":302,"ג":303,"ד":304,"ה":305,"ו":306,"ז":307,"ח":308,"ט":309,"י":310,"כ":311,"ל":312,"ם":313,"מ":314,"ן":315,"נ":316,"ס":317,"ע":318,"פ":319,"צ":320,"ק":321,"ר":322,"ש":323,"ת":324,"،":325,"ء":326,"آ":327,"أ":328,"إ":329,"ئ":330,"ا":331,"ب":332,"ة":333,"ت":334,"ث":335,"ج":336,"ح":337,"خ":338,"د":339,"ذ":340,"ر":341,"ز":342,"س":343,"ش":344,"ص":345,"ض":346,"ط":347,"ظ":348,"ع":349,"غ":350,"ـ":351,"ف":352,"ق":353,"ك":354,"ل":355,"م":356,"ن":357,"ه":358,"و":359,"ى":360,"ي":361,"ً":362,"َ":363,"ُ":364,"ِ":365,"ّ":366,"ْ":367,"ک":368,"ی":369,"ं":370,"क":371,"ग":372,"च":373,"ज":374,"त":375,"द":376,"न":377,"प":378,"ब":379,"भ":380,"म":381,"य":382,"र":383,"ल":384,"व":385,"श":386,"स":387,"ह":388,"ा":389,"ि":390,"ी":391,"ु":392,"े":393,"ै":394,"ो":395,"्":396,"।":397,"র":398,"া":399,"ে":400,"্":401,"க":402,"ி":403,"்":404,"್":405,"ക":406,"ത":407,"ന":408,"ാ":409,"ി":410,"ു":411,"്":412,"ก":413,"ค":414,"ง":415,"ด":416,"ต":417,"ท":418,"น":419,"บ":420,"ป":421,"ม":422,"ย":423,"ร":424,"ล":425,"ว":426,"ส":427,"ห":428,"อ":429,"ะ":430,"ั":431,"า":432,"ิ":433,"ี":434,"เ":435,"่":436,"้":437,"๎":438,"་":439,"ḍ":440,"ḥ":441,"ṃ":442,"ṇ":443,"ṛ":444,"ṣ":445,"ṭ":446,"ệ":447,"ἀ":448,"ἐ":449,"ὶ":450,"​":451,"‌":452,"‍":453,"‎":454,"‏":455,"‐":456,"‑":457,"‒":458,"–":459,"—":460,"―":461,"‘":462,"’":463,"‚":464,"“":465,"”":466,"„":467,"†":468,"‡":469,"•":470,"…":471,"‪":472,"‬":473,"‭":474,"‰":475,"′":476,"″":477,"‹":478,"›":479,"※":480,"⁃":481,"⁄":482,"⁠":483,"⁡":484,"€":485,"₹":486,"™":487,"⅓":488,"←":489,"↑":490,"→":491,"↓":492,"↩":493,"⇒":494,"⇓":495,"∀":496,"∂":497,"∈":498,"∑":499,"−":500,"∗":501,"∘":502,"∙":503,"√":504,"∞":505,"∧":506,"∫":507,"∴":508,"∵":509,"∼":510,"≈":511,"≠":512,"≡":513,"≤":514,"≥":515,"⋅":516,"⌘":517,"ⓒ":518,"ⓘ":519,"─":520,"━":521,"│":522,"└":523,"├":524,"┼":525,"═":526,"║":527,"╺":528,"▀":529,"▄":530,"█":531,"▌":532,"▐":533,"░":534,"▒":535,"▓":536,"■":537,"□":538,"▪":539,"▬":540,"▲":541,"▶":542,"►":543,"▼":544,"◆":545,"◊":546,"○":547,"●":548,"★":549,"☆":550,"♠":551,"♥":552,"♦":553,"♪":554,"♫":555,"♭":556,"✓":557,"✔":558,"❤":559,"➤":560,"⟨":561,"⟩":562,"、":563,"。":564,"〉":565,"「":566,"」":567,"『":568,"』":569,"【":570,"】":571,"〓":572,"あ":573,"い":574,"う":575,"え":576,"お":577,"か":578,"が":579,"き":580,"く":581,"け":582,"げ":583,"こ":584,"ご":585,"さ":586,"し":587,"じ":588,"す":589,"ず":590,"せ":591,"そ":592,"た":593,"だ":594,"ち":595,"っ":596,"つ":597,"て":598,"で":599,"と":600,"ど":601,"な":602,"に":603,"ね":604,"の":605,"は":606,"ば":607,"び":608,"へ":609,"べ":610,"ほ":611,"ま":612,"み":613,"め":614,"も":615,"ゃ":616,"や":617,"ょ":618,"よ":619,"ら":620,"り":621,"る":622,"れ":623,"ろ":624,"わ":625,"を":626,"ん":627,"ァ":628,"ア":629,"ィ":630,"イ":631,"ウ":632,"ェ":633,"エ":634,"オ":635,"カ":636,"ガ":637,"キ":638,"ク":639,"グ":640,"ケ":641,"ゲ":642,"コ":643,"ゴ":644,"サ":645,"ザ":646,"シ":647,"ジ":648,"ス":649,"ズ":650,"セ":651,"ソ":652,"タ":653,"ダ":654,"チ":655,"ッ":656,"ツ":657,"テ":658,"デ":659,"ト":660,"ド":661,"ナ":662,"ニ":663,"ネ":664,"ノ":665,"ハ":666,"バ":667,"パ":668,"ビ":669,"ピ":670,"フ":671,"ブ":672,"プ":673,"ベ":674,"ボ":675,"ポ":676,"マ":677,"ミ":678,"ム":679,"メ":680,"モ":681,"ャ":682,"ュ":683,"ョ":684,"ラ":685,"リ":686,"ル":687,"レ":688,"ロ":689,"ワ":690,"ン":691,"・":692,"ー":693,"ヽ":694,"ㅋ":695,"ㅠ":696,"一":697,"三":698,"上":699,"下":700,"不":701,"世":702,"个":703,"中":704,"为":705,"主":706,"么":707,"之":708,"也":709,"了":710,"事":711,"二":712,"京":713,"人":714,"今":715,"他":716,"代":717,"以":718,"们":719,"会":720,"体":721,"何":722,"作":723,"你":724,"使":725,"保":726,"信":727,"先":728,"入":729,"全":730,"公":731,"其":732,"内":733,"出":734,"分":735,"利":736,"到":737,"制":738,"前":739,"力":740,"加":741,"動":742,"化":743,"北":744,"十":745,"南":746,"原":747,"发":748,"取":749,"可":750,"合":751,"同":752,"名":753,"向":754,"和":755,"品":756,"回":757,"国":758,"在":759,"地":760,"場":761,"士":762,"変":763,"外":764,"多":765,"大":766,"天":767,"太":768,"女":769,"好":770,"如":771,"子":772,"字":773,"学":774,"安":775,"定":776,"実":777,"家":778,"对":779,"対":780,"小":781,"少":782,"就":783,"山":784,"工":785,"市":786,"常":787,"平":788,"年":789,"度":790,"式":791,"当":792,"後":793,"得":794,"心":795,"思":796,"性":797,"情":798,"想":799,"意":800,"感":801,"成":802,"我":803,"戦":804,"所":805,"手":806,"持":807,"政":808,"教":809,"数":810,"文":811,"新":812,"方":813,"日":814,"时":815,"明":816,"是":817,"時":818,"書":819,"最":820,"月":821,"有":822,"期":823,"木":824,"本":825,"来":826,"東":827,"果":828,"機":829,"正":830,"民":831,"気":832,"水":833,"法":834,"海":835,"点":836,"無":837,"然":838,"物":839,"特":840,"王":841,"現":842,"理":843,"生":844,"用":845,"田":846,"由":847,"界":848,"発":849,"的":850,"目":851,"相":852,"真":853,"着":854,"知":855,"社":856,"神":857,"私":858,"空":859,"立":860,"第":861,"等":862,"网":863,"美":864,"者":865,"而":866,"能":867,"自":868,"色":869,"行":870,"表":871,"西":872,"要":873,"見":874,"解":875,"言":876,"記":877,"話":878,"語":879,"说":880,"起":881,"身":882,"这":883,"通":884,"道":885,"那":886,"部":887,"都":888,"重":889,"金":890,"長":891,"開":892,"間":893,"関":894,"集":895,"面":896,"音":897,"高":898,"魔":899,"가":900,"것":901,"게":902,"경":903,"고":904,"공":905,"과":906,"구":907,"국":908,"그":909,"기":910,"나":911,"는":912,"니":913,"다":914,"대":915,"데":916,"도":917,"동":918,"드":919,"들":920,"라":921,"로":922,"를":923,"리":924,"마":925,"만":926,"면":927,"모":928,"무":929,"미":930,"보":931,"부":932,"비":933,"사":934,"상":935,"서":936,"선":937,"성":938,"소":939,"수":940,"스":941,"습":942,"시":943,"신":944,"아":945,"어":946,"에":947,"여":948,"오":949,"요":950,"우":951,"원":952,"으":953,"은":954,"을":955,"의":956,"이":957,"인":958,"일":959,"있":960,"자":961,"장":962,"적":963,"전":964,"정":965,"제":966,"주":967,"지":968,"진":969,"트":970,"하":971,"한":972,"해":973,"했":974,"":975,"":976,"ﬁ":977,"ﬂ":978,"️":979,"﻿":980,"！":981,"（":982,"）":983,"，":984,"－":985,"／":986,"１":987,"：":988,"？":989,"＼":990,"＿":991,"～":992,"｡":993,"･":994,"ﾟ":995,"￣":996,"￼":997,"�":998,"🇸":999,"🇺":1000,"😀":1001,"😂":1002,"😉":1003,"🙂":1004,"##j":1005,"##a":1006,"##b":1007,"##l":1008,"##u":1009,"##t":1010,"##e":1011,"##s":1012,"##o":1013,"##n":1014,"##r":1015,"##‭":1016,"##d":1017,"##i":1018,"##g":1019,"##m":1020,"##ã":1021,"##¢":1022,"##â":1023,"##f":1024,"##z":1025,"##w":1026,"##2":1027,"##7":1028,"##c":1029,"##y":1030,"##9":1031,"##h":1032,"##v":1033,"##p":1034,"##k":1035,"##­":1036,"##َ":1037,"##ب":1038,"##ّ":1039,"##ا":1040,"##ً":1041,"##5":1042,"##0":1043,"##":1044,"##x":1045,"##4":1046,"##е":1047,"##р":1048,"##ш":1049,"##и":1050,"##т":1051,"##с":1052,"##я":1053,"##8":1054,"##1":1055,"##6":1056,"##3":1057,"##ă":1058,"##q":1059,"##":1060,"##ラ":1061,"##ü":1062,"##±":1063,"##ć":1064,"##ː":1065,"##↓":1066,"##о":1067,"##ф":1068,"##й":1069,"##í":1070,"##ч":1071,"##н":1072,"##ы":1073,"##х":1074,"##人":1075,"##ţ":1076,"##č":1077,"##ج":1078,"##و":1079,"##ز":1080,"##ه":1081,"##€":1082,"##ä":1083,"##м":1084,"##п":1085,"##ñ":1086,"##り":1087,"##ア":1088,"##ク":1089,"##シ":1090,"##ョ":1091,"##ン":1092,"##性":1093,"##が":1094,"##し":1095,"##ま":1096,"##す":1097,"##ž":1098,"##á":1099,"##ö":1100,"##´":1101,"##а":1102,"##品":1103,"##と":1104,"##の":1105,"##生":1106,"##じ":1107,"##る":1108,"##場":1109,"##合":1110,"##あ":1111,"##民":1112,"##×":1113,"##ん":1114,"##で":1115,"##い":1116,"##た":1117,"##も":1118,"##て":1119,"##フ":1120,"##ァ":1121,"##イ":1122,"##ル":1123,"##を":1124,"##う":1125,"##制":1126,"##作":1127,"##者":1128,"##は":1129,"##全":1130,"##身":1131,"##に":1132,"##お":1133,"##な":1134,"##ら":1135,"##ー":1136,"##ザ":1137,"##方":1138,"##内":1139,"##正":1140,"##や":1141,"##ご":1142,"##ə":1143,"##ṭ":1144,"##ā":1145,"##स":1146,"##्":1147,"##म":1148,"##ा":1149,"##द":1150,"##र":1151,"##त":1152,"##أ":1153,"##م":1154,"##ر":1155,"##事":1156,"##ק":1157,"##ר":1158,"##י":1159,"##ם":1160,"##했":1161,"##다":1162,"##ī":1163,"##®":1164,"##前":1165,"##是":1166,"##二":1167,"##到":1168,"##天":1169,"##有":1170,"##으":1171,"##л":1172,"##д":1173,"##年":1174,"##月":1175,"##め":1176,"##動":1177,"##ø":1178,"##é":1179,"##º":1180,"##ą":1181,"##і":1182,"##":1183,"##°":1184,"##":1185,"##":1186,"##у":1187,"##ş":1188,"##ı":1189,"##г":1190,"##↩":1191,"##š":1192,"##한":1193,"##시":1194,"##을":1195,"##リ":1196,"##ю":1197,"##世":1198,"##界":1199,"##来":1200,"##間":1201,"##無":1202,"##っ":1203,"##ち":1204,"##定":1205,"##か":1206,"##よ":1207,"##さ":1208,"##ि":1209,"##प":1210,"##न":1211,"##西":1212,"##空":1213,"##":1214,"##実":1215,"##用":1216,"##向":1217,"##理":1218,"##き":1219,"##ी":1220,"##े":1221,"##в":1222,"##ь":1223,"##⌘":1224,"##表":1225,"##ベ":1226,"##ス":1227,"##知":1228,"##成":1229,"##持":1230,"##つ":1231,"##新":1232,"##想":1233,"##当":1234,"##的":1235,"##士":1236,"##不":1237,"##好":1238,"##́":1239,"##ி":1240,"##்":1241,"##å":1242,"##れ":1243,"##回":1244,"##学":1245,"##だ":1246,"##こ":1247,"##ل":1248,"##ق":1249,"##ض":1250,"##ء":1251,"##기":1252,"##자":1253,"##ō":1254,"##æ":1255,"##œ":1256,"##─":1257,"##ρ":1258,"##ο":1259,"##σ":1260,"##ε":1261,"##λ":1262,"##κ":1263,"##ύ":1264,"##ι":1265,"##手":1266,"##入":1267,"##力":1268,"##後":1269,"##ロ":1270,"##ッ":1271,"##ト":1272,"##ダ":1273,"##グ":1274,"##出":1275,"##保":1276,"##く":1277,"##ж":1278,"##え":1279,"##к":1280,"##ł":1281,"##수":1282,"##ū":1283,"##여":1284,"##주":1285,"##​":1286,"##ش":1287,"##ك":1288,"##ة":1289,"##ع":1290,"##ي":1291,"##パ":1292,"##テ":1293,"##ィ":1294,"##б":1295,"##з":1296,"##ê":1297,"##ð":1298,"##安":1299,"##化":1300,"##度":1301,"##使":1302,"##ג":1303,"##ע":1304,"##ן":1305,"##ա":1306,"##ո":1307,"##ւ":1308,"##以":1309,"##高":1310,"##等":1311,"##ʊ":1312,"##η":1313,"##ά":1314,"##τ":1315,"##α":1316,"##ς":1317,"##ó":1318,"##ന":1319,"##ു":1320,"##語":1321,"##何":1322,"##他":1323,"##我":1324,"##時":1325,"##를":1326,"##ц":1327,"##ن":1328,"##ה":1329,"##ל":1330,"##כ":1331,"##政":1332,"##関":1333,"##心":1334,"##ô":1335,"##ょ":1336,"##ド":1337,"##プ":1338,"##ム":1339,"##げ":1340,"##先":1341,"##要":1342,"##ę":1343,"##ボ":1344,"##에":1345,"##金":1346,"##ś":1347,"##ネ":1348,"##べ":1349,"##け":1350,"##ど":1351,"##φ":1352,"##έ":1353,"##和":1354,"##ِ":1355,"##ت":1356,"##ُ":1357,"##ط":1358,"##ْ":1359,"##خ":1360,"##ξ":1361,"##ώ":1362,"##タ":1363,"##戦":1364,"##自":1365,"##分":1366,"##地":1367,"##へ":1368,"##비":1369,"##스":1370,"##는":1371,"##モ":1372,"##ִ":1373,"##ˈ":1374,"##ʃ":1375,"##ɛ":1376,"##ʲ":1377,"##ɪ":1378,"##ú":1379,"##ャ":1380,"##ウ":1381,"##レ":1382,"##見":1383,"##전":1384,"##해":1385,"##魔":1386,"##王":1387,"##▀":1388,"##▄":1389,"##█":1390,"##θ":1391,"##μ":1392,"##ν":1393,"##本":1394,"##市":1395,"##体":1396,"##国":1397,"##ェ":1398,"##ב":1399,"##ת":1400,"##‎":1401,"##大":1402,"##マ":1403,"##ṇ":1404,"##コ":1405,"##̯":1406,"##了":1407,"##":1408,"##一":1409,"##个":1410,"##说":1411,"##然":1412,"##着":1413,"##海":1414,"##南":1415,"##部":1416,"##在":1417,"##ż":1418,"##♠":1419,"##א":1420,"##ו":1421,"##ガ":1422,"##感":1423,"##山":1424,"##ě":1425,"##カ":1426,"##ゴ":1427,"##機":1428,"##‬":1429,"##ジ":1430,"##ュ":1431,"##ί":1432,"##ω":1433,"##‏":1434,"##്":1435,"##バ":1436,"##多":1437,"##子":1438,"##ね":1439,"##س":1440,"##ى":1441,"##そ":1442,"##د":1443,"##™":1444,"##국":1445,"##이":1446,"##라":1447,"##ف":1448,"##都":1449,"##道":1450,"##之":1451,"##�":1452,"##変":1453,"##気":1454,"##श":1455,"##व":1456,"##ं":1457,"##ह":1458,"##ù":1459,"##υ":1460,"##γ":1461,"##µ":1462,"##습":1463,"##들":1464,"##→":1465,"##î":1466,"##们":1467,"##家":1468,"##真":1469,"##目":1470,"##ŭ":1471,"##ζ":1472,"##加":1473,"##也":1474,"##神":1475,"##π":1476,"##ό":1477,"##ɔ":1478,"##み":1479,"##ն":1480,"##ե":1481,"##ր":1482,"##ज":1483,"##明":1484,"##è":1485,"##ṣ":1486,"##ḥ":1487,"##外":1488,"##β":1489,"##面":1490,"##ニ":1491,"##行":1492,"##ズ":1493,"##ブ":1494,"##点":1495,"##意":1496,"##ാ":1497,"##ി":1498,"##ക":1499,"##ŋ":1500,"##্":1501,"##キ":1502,"##サ":1503,"##法":1504,"##⋅":1505,"##ё":1506,"##最":1507,"##女":1508,"##公":1509,"##社":1510,"##게":1511,"##니":1512,"##ë":1513,"##의":1514,"##가":1515,"##น":1516,"##ป":1517,"##่":1518,"##ว":1519,"##ย":1520,"##﻿":1521,"##ř":1522,"##요":1523,"##지":1524,"##ば":1525,"##¹":1526,"##ै":1527,"##ब":1528,"##ò":1529,"##ǔ":1530,"##ē":1531,"##−":1532,"##相":1533,"##信":1534,"##数":1535,"##ค":1536,"##ต":1537,"##ร":1538,"##ส":1539,"##≈":1540,"##同":1541,"##起":1542,"##щ":1543,"##ゃ":1544,"##♦":1545,"##►":1546,"##式":1547,"##デ":1548,"##ի":1549,"##ּ":1550,"##ְ":1551,"##ח":1552,"##ֹ":1553,"##à":1554,"##上":1555,"##通":1556,"##中":1557,"##情":1558,"##ろ":1559,"##া":1560,"##ে":1561,"##ی":1562,"##記":1563,"##チ":1564,"##เ":1565,"##集":1566,"##đ":1567,"##δ":1568,"##ç":1569,"##网":1570,"##나":1571,"##פ":1572,"##ɾ":1573,"##ț":1574,"##क":1575,"##ल":1576,"##신":1577,"##보":1578,"##서":1579,"##마":1580,"##由":1581,"##可":1582,"##能":1583,"##무":1584,"##ъ":1585,"##로":1586,"##":1587,"##平":1588,"##所":1589,"##ポ":1590,"##ד":1591,"##重":1592,"##️":1593,"##อ":1594,"##ง":1595,"##ก":1596,"##נ":1597,"##♥":1598,"##¨":1599,"##ะ":1600,"##ด":1601,"##ม":1602,"##า":1603,"##ล":1604,"##ั":1605,"##บ":1606,"##ห":1607,"##ý":1608,"##χ":1609,"##":1610,"##모":1611,"##드":1612,"##ゲ":1613,"##트":1614,"##장":1615,"##ǒ":1616,"##ɡ":1617,"##現":1618,"##ß":1619,"##ɑ":1620,"##下":1621,"##果":1622,"##你":1623,"##这":1624,"##为":1625,"##話":1626,"##ﬁ":1627,"##日":1628,"##利":1629,"##ğ":1630,"##":1631,"##わ":1632,"##代":1633,"##十":1634,"##せ":1635,"##û":1636,"##ַ":1637,"##ז":1638,"##ず":1639,"##言":1640,"##ک":1641,"##ナ":1642,"##メ":1643,"##对":1644,"##水":1645,"##경":1646,"##하":1647,"##エ":1648,"##会":1649,"##진":1650,"##²":1651,"##ـ":1652,"##～":1653,"##ビ":1654,"##ु":1655,"##思":1656,"##ो":1657,"##ذ":1658,"##び":1659,"##么":1660,"##ő":1661,"##ή":1662,"##ṛ":1663,"##第":1664,"##ס":1665,"##期":1666,"##ص":1667,"##일":1668,"##常":1669,"##고":1670,"##ท":1671,"##ี":1672,"##ǎ":1673,"##ح":1674,"##ミ":1675,"##開":1676,"##発":1677,"##̀":1678,"##¤":1679,"##£":1680,"##õ":1681,"##ï":1682,"##¼":1683,"##ì":1684,"##¾":1685,"##ظ":1686,"##적":1687,"##인":1688,"##ė":1689,"##发":1690,"##면":1691,"##ئ":1692,"##ത":1693,"##¦":1694,"##三":1695,"##色":1696,"##성":1697,"##○":1698,"##●":1699,"##対":1700,"##得":1701,"##정":1702,"##ʿ":1703,"##þ":1704,"##إ":1705,"##░":1706,"##▒":1707,"##מ":1708,"##ソ":1709,"##데":1710,"##ハ":1711,"##˜":1712,"##র":1713,"##어":1714,"##도":1715,"##東":1716,"##य":1717,"##리":1718,"##ग":1719,"##ʔ":1720,"##¯":1721,"##©":1722,"##物":1723,"##★":1724,"##═":1725,"##ÿ":1726,"##½":1727,"##च":1728,"##¬":1729,"##사":1730,"##而":1731,"##教":1732,"##文":1733,"##‪":1734,"##ث":1735,"##小":1736,"##太":1737,"##解":1738,"##１":1739,"##❤":1740,"##長":1741,"##ź":1742,"##ń":1743,"##ʻ":1744,"##선":1745,"##取":1746,"##˚":1747,"##ƒ":1748,"##க":1749,"##ほ":1750,"##아":1751,"##名":1752,"##̄":1753,"##≥":1754,"##京":1755,"##ט":1756,"##만":1757,"##字":1758,"##書":1759,"##如":1760,"##↑":1761,"##▪":1762,"##과":1763,"##主":1764,"##ș":1765,"##부":1766,"##್":1767,"##▌":1768,"##ָ":1769,"##구":1770,"##̃":1771,"##̇":1772,"##ש":1773,"##│":1774,"##北":1775,"##¸":1776,"##ワ":1777,"##那":1778,"##オ":1779,"##ѕ":1780,"##立":1781,"##工":1782,"##♭":1783,"##э":1784,"##时":1785,"##就":1786,"##צ":1787,"##∧":1788,"##ㅋ":1789,"##은":1790,"##ケ":1791,"##ḍ":1792,"##∙":1793,"##제":1794,"##소":1795,"##ψ":1796,"##🇺":1797,"##🇸":1798,"##ʼ":1799,"##∵":1800,"##͜":1801,"##͡":1802,"##木":1803,"##ů":1804,"##ิ":1805,"##있":1806,"##동":1807,"##대":1808,"##☆":1809,"##̶":1810,"##상":1811,"##‌":1812,"##今":1813,"##우":1814,"##³":1815,"##∀":1816,"##غ":1817,"##ノ":1818,"##≡":1819,"##‍":1820,"##ṃ":1821,"##":1822,"##←":1823,"##้":1824,"##原":1825,"##ピ":1826,"##├":1827,"##ֶ":1828,"##セ":1829,"##ї":1830,"##◆":1831,"##♪":1832,"##少":1833,"##":1834,"##भ":1835,"##音":1836,"##∴":1837,"##ㅠ":1838,"##ʰ":1839,"##▬":1840,"##¥":1841,"##美":1842,"##⁄":1843,"##미":1844,"##□":1845,"##그":1846,"##▐":1847,"##▓":1848,"##∘":1849,"##ツ":1850,"##ǐ":1851,"##田":1852,"##私":1853,"##∗":1854,"##آ":1855,"##└":1856,"##■":1857,"##원":1858,"##":1859,"##공":1860,"##오":1861,"##😂":1862,"##≤":1863,"##ヽ":1864,"##":1865,"##￼":1866,"##▼":1867,"##特":1868,"##✔":1869,"##其":1870,"##ὶ":1871,"##√":1872,"##÷":1873,"##✓":1874,"##∼":1875,"##⁠":1876,"##ﬂ":1877,"##≠":1878,"##┼":1879,"##▲":1880,"##ĝ":1881,"##̈":1882,"##⇓":1883,"##ⓘ":1884,"##⇒":1885,"##║":1886,"##것":1887,"##๎":1888,"##∑":1889,"##∂":1890,"##ﾟ":1891,"##∫":1892,"##∞":1893,"##ϕ":1894,"##∈":1895,"##━":1896,"##😀":1897,"##😉":1898,"##˙":1899,"##⅓":1900,"##▶":1901,"##♫":1902,"##ἀ":1903,"##ệ":1904,"##╺":1905,"##ἐ":1906,"##➤":1907,"##￣":1908,"##🙂":1909,"##ⓒ":1910,"##⁡":1911,"##◊":1912,"##₹":1913,"##〓":1914,"##ʖ":1915,"th":1916,"##er":1917,"the":1918,"##in":1919,"##on":1920,"##at":1921,"##en":1922,"##es":1923,"##or":1924,"##ed":1925,"##nd":1926,"##ing":1927,"##ar":1928,"##an":1929,"##ou":1930,"to":1931,"in":1932,"##it":1933,"##al":1934,"of":1935,"##is":1936,"and":1937,"##as":1938,"##ic":1939,"##re":1940,"##om":1941,"##ion":1942,"##le":1943,"##ent":1944,"##il":1945,"##el":1946,"re":1947,"##st":1948,"be":1949,"##ot":1950,"wh":1951,"##id":1952,"on":1953,"##ac":1954,"##ut":1955,"that":1956,"##et":1957,"is":1958,"##ly":1959,"##ow":1960,"st":1961,"for":1962,"##ve":1963,"##ay":1964,"it":1965,"##am":1966,"##ur":1967,"##ol":1968,"##ad":1969,"pr":1970,"##ig":1971,"##ec":1972,"##ers":1973,"##im":1974,"##ir":1975,"as":1976,"##ith":1977,"##se":1978,"an":1979,"al":1980,"##ation":1981,"##ver":1982,"with":1983,"##ter":1984,"##ch":1985,"you":1986,"##th":1987,"##ce":1988,"he":1989,"con":1990,"##ere":1991,"##op":1992,"##ill":1993,"was":1994,"sh":1995,"##ld":1996,"ha":1997,"##ul":1998,"fr":1999,"com":2000,"at":2001,"##est":2002,"ch":2003,"##em":2004,"we":2005,"##ess":2006,"ne":2007,"##ct":2008,"##od":2009,"##ag":2010,"su":2011,"##os":2012,"##ak":2013,"tr":2014,"this":2015,"are":2016,"##igh":2017,"##ist":2018,"##ate":2019,"ex":2020,"##pp":2021,"##ain":2022,"or":2023,"##iv":2024,"##us":2025,"de":2026,"not":2027,"se":2028,"##oc":2029,"##um":2030,"by":2031,"##ore":2032,"##ab":2033,"have":2034,"##ity":2035,"##ould":2036,"##un":2037,"##if":2038,"from":2039,"but":2040,"##ts":2041,"##and":2042,"le":2043,"##ment":2044,"##ies":2045,"ab":2046,"##ive":2047,"sp":2048,"sa":2049,"go":2050,"pl":2051,"##art":2052,"##ust":2053,"they":2054,"##ort":2055,"##ant":2056,"un":2057,"##ear":2058,"##ap":2059,"##ack":2060,"wor":2061,"has":2062,"his":2063,"##all":2064,"##ally":2065,"##ight":2066,"pro":2067,"##out":2068,"20":2069,"##ect":2070,"can":2071,"ar":2072,"##ard":2073,"en":2074,"##gh":2075,"##ost":2076,"##ome":2077,"do":2078,"all":2079,"##our":2080,"##ok":2081,"##ast":2082,"will":2083,"##ik":2084,"##ud":2085,"##ell":2086,"##end":2087,"##ie":2088,"ad":2089,"cl":2090,"##ich":2091,"##ib":2092,"said":2093,"us":2094,"who":2095,"##ial":2096,"up":2097,"out":2098,"so":2099,"##ge":2100,"##ough":2101,"br":2102,"##ip":2103,"their":2104,"more":2105,"one":2106,"##tr":2107,"##ans":2108,"me":2109,"##ame":2110,"gr":2111,"new":2112,"im":2113,"##ound":2114,"##her":2115,"comp":2116,"res":2117,"##ous":2118,"##ice":2119,"##ions":2120,"##ue":2121,"ac":2122,"there":2123,"am":2124,"##one":2125,"##ia":2126,"##oun":2127,"##ff":2128,"about":2129,"##ure":2130,"man":2131,"##ong":2132,"##act":2133,"if":2134,"##ine":2135,"ag":2136,"##age":2137,"year":2138,"##og":2139,"##ated":2140,"tim":2141,"off":2142,"cr":2143,"which":2144,"exp":2145,"ev":2146,"had":2147,"int":2148,"rep":2149,"##iz":2150,"were":2151,"lik":2152,"would":2153,"no":2154,"##ence":2155,"##ake":2156,"##ide":2157,"pe":2158,"when":2159,"##pt":2160,"what":2161,"##ub":2162,"##ind":2163,"##ther":2164,"##ely":2165,"per":2166,"inc":2167,"been":2168,"sc":2169,"some":2170,"dr":2171,"##ook":2172,"##au":2173,"##qu":2174,"##ary":2175,"##ber":2176,"##ach":2177,"af":2178,"##own":2179,"app":2180,"dis":2181,"##av":2182,"201":2183,"##ign":2184,"tw":2185,"##so":2186,"##ace":2187,"##ays":2188,"fe":2189,"##able":2190,"bec":2191,"just":2192,"##ose":2193,"than":2194,"how":2195,"like":2196,"its":2197,"##ail":2198,"my":2199,"##ass":2200,"##00":2201,"##ile":2202,"##ish":2203,"also":2204,"part":2205,"over":2206,"##ian":2207,"pol":2208,"##ire":2209,"qu":2210,"peop":2211,"your":2212,"te":2213,"her":2214,"people":2215,"work":2216,"bl":2217,"##ite":2218,"##ord":2219,"##ations":2220,"##ical":2221,"time":2222,"inter":2223,"str":2224,"mar":2225,"fir":2226,"them":2227,"get":2228,"kn":2229,"any":2230,"##ens":2231,"rec":2232,"other":2233,"comm":2234,"##ick":2235,"she":2236,"##ond":2237,"act":2238,"after":2239,"##orm":2240,"##ase":2241,"##ents":2242,"##lic":2243,"##are":2244,"co":2245,"##ance":2246,"our":2247,"acc":2248,"##aw":2249,"##uc":2250,"imp":2251,"pre":2252,"play":2253,"##reat":2254,"ind":2255,"##gr":2256,"19":2257,"##ree":2258,"##ink":2259,"into":2260,"ever":2261,"##ob":2262,"##ult":2263,"##oll":2264,"first":2265,"##ov":2266,"ser":2267,"##ings":2268,"##ory":2269,"##oin":2270,"##ep":2271,"dec":2272,"em":2273,"##amp":2274,"##ition":2275,"##ors":2276,"ph":2277,"##oss":2278,"##ang":2279,"##fer":2280,"cont":2281,"##ause":2282,"##ade":2283,"##uct":2284,"##ates":2285,"##itt":2286,"two":2287,"coun":2288,"only":2289,"could":2290,"##ks":2291,"now":2292,"sec":2293,"und":2294,"##vel":2295,"him":2296,"most":2297,"##ious":2298,"back":2299,"des":2300,"##ild":2301,"pres":2302,"##lect":2303,"may":2304,"##ove":2305,"cons":2306,"fl":2307,"##ied":2308,"don":2309,"op":2310,"bet":2311,"##hing":2312,"sy":2313,"##oy":2314,"even":2315,"these":2316,"##ery":2317,"att":2318,"thr":2319,"##form":2320,"##enc":2321,"##ict":2322,"because":2323,"under":2324,"##ning":2325,"##ock":2326,"did":2327,"see":2328,"again":2329,"##ft":2330,"add":2331,"every":2332,"wr":2333,"ob":2334,"inv":2335,"col":2336,"##day":2337,"bu":2338,"##ons":2339,"par":2340,"##ry":2341,"##ater":2342,"car":2343,"##ey":2344,"##ert":2345,"need":2346,"ass":2347,"years":2348,"##ual":2349,"rel":2350,"then":2351,"know":2352,"high":2353,"mu":2354,"supp":2355,"min":2356,"def":2357,"mon":2358,"##lud":2359,"##wn":2360,"##ood":2361,"##ublic":2362,"where":2363,"##old":2364,"many":2365,"make":2366,"##iss":2367,"contr":2368,"ro":2369,"hel":2370,"look":2371,"##ident":2372,"ed":2373,"call":2374,"reg":2375,"##urn":2376,"rem":2377,"##man":2378,"##les":2379,"##we":2380,"world":2381,"sm":2382,"while":2383,"last":2384,"##oth":2385,"##ath":2386,"well":2387,"way":2388,"gen":2389,"think":2390,"gu":2391,"##elf":2392,"##anc":2393,"fin":2394,"##pl":2395,"##ra":2396,"##fore":2397,"down":2398,"want":2399,"ve":2400,"bel":2401,"those":2402,"being":2403,"##ational":2404,"##ting":2405,"##vern":2406,"inst":2407,"##ful":2408,"##ump":2409,"includ":2410,"show":2411,"##oup":2412,"##eric":2413,"dif":2414,"sch":2415,"through":2416,"##other":2417,"end":2418,"ear":2419,"##ating":2420,"id":2421,"govern":2422,"war":2423,"very":2424,"should":2425,"form":2426,"##iew":2427,"state":2428,"##ton":2429,"##ason":2430,"##ug":2431,"10":2432,"say":2433,"##hn":2434,"long":2435,"##ise":2436,"##aking":2437,"##ased":2438,"much":2439,"americ":2440,"##ower":2441,"##ited":2442,"char":2443,"before":2444,"200":2445,"use":2446,"does":2447,"##xt":2448,"##atch":2449,"med":2450,"team":2451,"##uring":2452,"##ities":2453,"own":2454,"##sp":2455,"##ty":2456,"dem":2457,"##cc":2458,"good":2459,"##ific":2460,"##ro":2461,"sub":2462,"##ible":2463,"stud":2464,"ter":2465,"cent":2466,"game":2467,"##urr":2468,"sim":2469,"here":2470,"##ics":2471,"##ward":2472,"such":2473,"set":2474,"##als":2475,"wee":2476,"poin":2477,"##omet":2478,"right":2479,"made":2480,"government":2481,"pers":2482,"##get":2483,"##ues":2484,"##ix":2485,"prov":2486,"start":2487,"cour":2488,"##ince":2489,"law":2490,"ma":2491,"eff":2492,"dep":2493,"##olog":2494,"still":2495,"##ier":2496,"##ble":2497,"prod":2498,"##ily":2499,"going":2500,"##ject":2501,"##ife":2502,"##ange":2503,"lead":2504,"trans":2505,"cap":2506,"day":2507,"though":2508,"bo":2509,"mod":2510,"##ular":2511,"against":2512,"##ress":2513,"##ility":2514,"##ull":2515,"sl":2516,"##ement":2517,"##ism":2518,"##ually":2519,"##eral":2520,"##ists":2521,"##ative":2522,"found":2523,"read":2524,"disc":2525,"sign":2526,"##orn":2527,"take":2528,"help":2529,"report":2530,"offic":2531,"##its":2532,"##az":2533,"mem":2534,"resp":2535,"run":2536,"##let":2537,"somet":2538,"sur":2539,"##gan":2540,"##stem":2541,"serv":2542,"el":2543,"##alk":2544,"##uss":2545,"##ently":2546,"spec":2547,"ke":2548,"##io":2549,"real":2550,"differ":2551,"president":2552,"##illion":2553,"aut":2554,"##air":2555,"says":2556,"num":2557,"##ween":2558,"##ivers":2559,"##und":2560,"between":2561,"great":2562,"three":2563,"group":2564,"support":2565,"same":2566,"##ope":2567,"system":2568,"##ments":2569,"public":2570,"##ool":2571,"##ives":2572,"both":2573,"##ures":2574,"hand":2575,"det":2576,"##ms":2577,"during":2578,"##yp":2579,"##irect":2580,"since":2581,"##ah":2582,"big":2583,"##ollow":2584,"countr":2585,"##ution":2586,"compan":2587,"##ank":2588,"wom":2589,"soc":2590,"around":2591,"follow":2592,"##ames":2593,"##ph":2594,"trump":2595,"##way":2596,"fam":2597,"prot":2598,"##der":2599,"##ys":2600,"post":2601,"leg":2602,"##ork":2603,"mark":2604,"ret":2605,"##read":2606,"##land":2607,"##ather":2608,"let":2609,"000":2610,"direct":2611,"met":2612,"really":2613,"sen":2614,"##hip":2615,"bus":2616,"gl":2617,"##velop":2618,"conf":2619,"used":2620,"prop":2621,"##ern":2622,"cle":2623,"##led":2624,"art":2625,"elect":2626,"plan":2627,"##up":2628,"##con":2629,"red":2630,"##pr":2631,"lar":2632,"##ash":2633,"##ouse":2634,"develop":2635,"old":2636,"ins":2637,"##ever":2638,"another":2639,"week":2640,"find":2641,"cre":2642,"far":2643,"polit":2644,"##cr":2645,"happ":2646,"person":2647,"##iel":2648,"progr":2649,"rev":2650,"av":2651,"##ene":2652,"##per":2653,"month":2654,"power":2655,"##ying":2656,"##cent":2657,"fil":2658,"##ient":2659,"##ale":2660,"put":2661,"spe":2662,"commun":2663,"##istr":2664,"city":2665,"cor":2666,"iss":2667,"life":2668,"##ience":2669,"adv":2670,"##orts":2671,"##ax":2672,"contin":2673,"loc":2674,"##alth":2675,"inf":2676,"##ote":2677,"##att":2678,"open":2679,"##cept":2680,"##ave":2681,"camp":2682,"win":2683,"##ices":2684,"stat":2685,"fact":2686,"nor":2687,"bar":2688,"head":2689,"##ines":2690,"second":2691,"12":2692,"##ount":2693,"few":2694,"##ision":2695,"lot":2696,"exper":2697,"##akes":2698,"invest":2699,"##iet":2700,"##oot":2701,"each":2702,"told":2703,"opp":2704,"too":2705,"sk":2706,"news":2707,"best":2708,"##ages":2709,"eng":2710,"hum":2711,"##ger":2712,"##son":2713,"requ":2714,"pass":2715,"##ically":2716,"val":2717,"belie":2718,"child":2719,"bre":2720,"##gest":2721,"next":2722,"##ider":2723,"something":2724,"intern":2725,"never":2726,"##ording":2727,"conc":2728,"police":2729,"point":2730,"dat":2731,"##ants":2732,"##lish":2733,"##ime":2734,"expl":2735,"mil":2736,"rele":2737,"ann":2738,"ll":2739,"##ize":2740,"##ving":2741,"ask":2742,"why":2743,"##bers":2744,"things":2745,"##ri":2746,"top":2747,"home":2748,"tec":2749,"##ially":2750,"##ved":2751,"11":2752,"##ead":2753,"##ont":2754,"##ized":2755,"##ention":2756,"quest":2757,"jo":2758,"##erg":2759,"##str":2760,"##br":2761,"##ets":2762,"poss":2763,"15":2764,"##ves":2765,"##ner":2766,"proc":2767,"##ency":2768,"four":2769,"##iving":2770,"##ior":2771,"##min":2772,"##ee":2773,"got":2774,"hard":2775,"school":2776,"come":2777,"however":2778,"sw":2779,"curr":2780,"stand":2781,"might":2782,"##ody":2783,"national":2784,"according":2785,"states":2786,"##thing":2787,"house":2788,"mus":2789,"##ects":2790,"different":2791,"without":2792,"##tern":2793,"care":2794,"build":2795,"air":2796,"inform":2797,"##res":2798,"##ling":2799,"##iness":2800,"allow":2801,"pat":2802,"season":2803,"feel":2804,"prof":2805,"turn":2806,"18":2807,"pop":2808,"incre":2809,"including":2810,"seem":2811,"##ten":2812,"##med":2813,"star":2814,"percent":2815,"##oad":2816,"test":2817,"##ital":2818,"called":2819,"##ret":2820,"##uck":2821,"##ights":2822,"##ittle":2823,"##ew":2824,"free":2825,"chr":2826,"mov":2827,"main":2828,"univers":2829,"prev":2830,"del":2831,"number":2832,"left":2833,"ide":2834,"little":2835,"million":2836,"place":2837,"har":2838,"##ric":2839,"##ected":2840,"beh":2841,"level":2842,"product":2843,"ref":2844,"##ness":2845,"class":2846,"##iver":2847,"##ield":2848,"import":2849,"interest":2850,"fun":2851,"keep":2852,"health":2853,"proble":2854,"less":2855,"pay":2856,"##ember":2857,"econ":2858,"sol":2859,"##osed":2860,"case":2861,"sou":2862,"country":2863,"better":2864,"econom":2865,"partic":2866,"eas":2867,"rest":2868,"arr":2869,"##over":2870,"gre":2871,"##ately":2872,"hist":2873,"la":2874,"data":2875,"program":2876,"##ged":2877,"times":2878,"using":2879,"face":2880,"list":2881,"##ced":2882,"##ins":2883,"american":2884,"move":2885,"##red":2886,"attack":2887,"##ark":2888,"##ama":2889,"ext":2890,"book":2891,"##iting":2892,"women":2893,"##oney":2894,"near":2895,"##aim":2896,"##ably":2897,"auth":2898,"##ways":2899,"maj":2900,"techn":2901,"##ute":2902,"pos":2903,"net":2904,"typ":2905,"##ained":2906,"phot":2907,"based":2908,"##ces":2909,"miss":2910,"##ral":2911,"story":2912,"company":2913,"##ned":2914,"##ised":2915,"##line":2916,"cond":2917,"didn":2918,"small":2919,"##ains":2920,"##earch":2921,"##eng":2922,"##til":2923,"business":2924,"research":2925,"##ocr":2926,"cal":2927,"##ott":2928,"organ":2929,"##iven":2930,"bit":2931,"conv":2932,"oper":2933,"est":2934,"change":2935,"##self":2936,"vis":2937,"##ode":2938,"##ina":2939,"men":2940,"##ren":2941,"##ional":2942,"##ived":2943,"clear":2944,"bas":2945,"appear":2946,"major":2947,"30":2948,"prom":2949,"sever":2950,"design":2951,"stre":2952,"later":2953,"ir":2954,"##ends":2955,"process":2956,"view":2957,"party":2958,"exc":2959,"##atur":2960,"today":2961,"##ature":2962,"order":2963,"information":2964,"var":2965,"aff":2966,"white":2967,"pur":2968,"ra":2969,"official":2970,"united":2971,"chang":2972,"fri":2973,"talk":2974,"mean":2975,"rece":2976,"money":2977,"job":2978,"##ology":2979,"lib":2980,"##atter":2981,"vide":2982,"press":2983,"black":2984,"kill":2985,"ste":2986,"cost":2987,"simp":2988,"fac":2989,"mid":2990,"edit":2991,"human":2992,"##ided":2993,"##ready":2994,"##ats":2995,"ent":2996,"already":2997,"##less":2998,"##ploy":2999,"always":3000,"##aph":3001,"dev":3002,"##els":3003,"consider":3004,"##ird":3005,"must":3006,"mr":3007,"##ians":3008,"past":3009,"##ense":3010,"court":3011,"mor":3012,"line":3013,"##par":3014,"##bs":3015,"once":3016,"making":3017,"family":3018,"record":3019,"polic":3020,"sing":3021,"##aining":3022,"16":3023,"grow":3024,"eur":3025,"thing":3026,"##inal":3027,"##ister":3028,"13":3029,"##wh":3030,"claim":3031,"social":3032,"democr":3033,"##ted":3034,"##atic":3035,"media":3036,"fund":3037,"##used":3038,"john":3039,"##app":3040,"tax":3041,"##aff":3042,"ant":3043,"terr":3044,"##ike":3045,"tell":3046,"full":3047,"vi":3048,"##ether":3049,"14":3050,"able":3051,"russ":3052,"##aign":3053,"important":3054,"away":3055,"games":3056,"kind":3057,"##ator":3058,"cert":3059,"##unch":3060,"ap":3061,"deb":3062,"campaign":3063,"fed":3064,"until":3065,"##erv":3066,"hal":3067,"bill":3068,"days":3069,"doesn":3070,"##ired":3071,"gener":3072,"examp":3073,"##mm":3074,"pa":3075,"yet":3076,"happen":3077,"republic":3078,"former":3079,"political":3080,"secur":3081,"il":3082,"##ection":3083,"##ards":3084,"watch":3085,"word":3086,"##ending":3087,"##ourn":3088,"##stand":3089,"199":3090,"##acy":3091,"opt":3092,"least":3093,"market":3094,"##ively":3095,"working":3096,"sit":3097,"##augh":3098,"##ury":3099,"enough":3100,"##ven":3101,"youn":3102,"name":3103,"##itch":3104,"##ief":3105,"author":3106,"deal":3107,"came":3108,"##ases":3109,"##gin":3110,"25":3111,"##ides":3112,"es":3113,"lab":3114,"sex":3115,"fre":3116,"water":3117,"manag":3118,"##ows":3119,"sour":3120,"17":3121,"control":3122,"##ley":3123,"five":3124,"actually":3125,"pot":3126,"land":3127,"night":3128,"whether":3129,"perform":3130,"north":3131,"having":3132,"vot":3133,"po":3134,"complet":3135,"##ences":3136,"event":3137,"return":3138,"give":3139,"arg":3140,"often":3141,"lear":3142,"equ":3143,"several":3144,"hour":3145,"##ued":3146,"fut":3147,"stop":3148,"##ising":3149,"##ered":3150,"sal":3151,"##ified":3152,"project":3153,"fight":3154,"##eck":3155,"early":3156,"took":3157,"##ipp":3158,"crit":3159,"ca":3160,"##rem":3161,"become":3162,"##te":3163,"among":3164,"##aps":3165,"sure":3166,"university":3167,"vers":3168,"children":3169,"##ering":3170,"won":3171,"##ush":3172,"sug":3173,"sn":3174,"##crib":3175,"##enn":3176,"##ony":3177,"occ":3178,"players":3179,"security":3180,"side":3181,"milit":3182,"orig":3183,"non":3184,"##tt":3185,"super":3186,"##ann":3187,"effect":3188,"short":3189,"meet":3190,"priv":3191,"key":3192,"video":3193,"doing":3194,"##ox":3195,"##ison":3196,"local":3197,"succ":3198,"members":3199,"prob":3200,"##ization":3201,"along":3202,"##ared":3203,"known":3204,"community":3205,"clin":3206,"##lin":3207,"##ality":3208,"certain":3209,"hold":3210,"given":3211,"general":3212,"step":3213,"lim":3214,"within":3215,"south":3216,"question":3217,"##thers":3218,"investig":3219,"depart":3220,"future":3221,"##ech":3222,"activ":3223,"##icle":3224,"##ium":3225,"seen":3226,"cover":3227,"##ots":3228,"##iam":3229,"example":3230,"##ane":3231,"went":3232,"##aken":3233,"europe":3234,"##gress":3235,"success":3236,"##ither":3237,"er":3238,"viol":3239,"##side":3240,"##sel":3241,"cho":3242,"york":3243,"ge":3244,"creat":3245,"done":3246,"likely":3247,"fur":3248,"##ought":3249,"##idence":3250,"cut":3251,"##work":3252,"obama":3253,"distr":3254,"mag":3255,"2016":3256,"##ories":3257,"##iously":3258,"impr":3259,"arm":3260,"history":3261,"100":3262,"death":3263,"##uary":3264,"##lex":3265,"vict":3266,"others":3267,"acr":3268,"invol":3269,"##ware":3270,"following":3271,"avail":3272,"alm":3273,"tar":3274,"conn":3275,"series":3276,"foot":3277,"fail":3278,"##urs":3279,"##ones":3280,"##ential":3281,"love":3282,"understand":3283,"##itter":3284,"##que":3285,"##inc":3286,"##sh":3287,"##ended":3288,"christ":3289,"course":3290,"strong":3291,"##ecut":3292,"##be":3293,"asked":3294,"result":3295,"saf":3296,"months":3297,"pub":3298,"indust":3299,"##une":3300,"wind":3301,"problem":3302,"young":3303,"fire":3304,"esp":3305,"##leg":3306,"reason":3307,"getting":3308,"possible":3309,"thought":3310,"large":3311,"means":3312,"ident":3313,"##ilar":3314,"across":3315,"tot":3316,"bad":3317,"##ured":3318,"mass":3319,"low":3320,"office":3321,"##imate":3322,"##by":3323,"##ulation":3324,"join":3325,"light":3326,"##ball":3327,"fig":3328,"service":3329,"sent":3330,"##ument":3331,"access":3332,"anal":3333,"looking":3334,"mom":3335,"2015":3336,"ple":3337,"makes":3338,"suggest":3339,"##ensive":3340,"addition":3341,"##lement":3342,"##ivid":3343,"##ps":3344,"50":3345,"trad":3346,"live":3347,"repres":3348,"special":3349,"employ":3350,"reported":3351,"half":3352,"believe":3353,"instead":3354,"six":3355,"almost":3356,"##ague":3357,"##oke":3358,"##book":3359,"##oci":3360,"enter":3361,"announ":3362,"##ars":3363,"##co":3364,"food":3365,"fall":3366,"foc":3367,"interv":3368,"jud":3369,"federal":3370,"##osp":3371,"##ogr":3372,"mo":3373,"available":3374,"##por":3375,"mind":3376,"##arch":3377,"##vert":3378,"##aring":3379,"area":3380,"associ":3381,"##ald":3382,"space":3383,"##int":3384,"##ators":3385,"mult":3386,"##ortun":3387,"dou":3388,"particular":3389,"##iety":3390,"2014":3391,"##ances":3392,"rad":3393,"policy":3394,"toget":3395,"issue":3396,"ep":3397,"together":3398,"similar":3399,"cust":3400,"port":3401,"added":3402,"##uce":3403,"ris":3404,"rights":3405,"cop":3406,"##itions":3407,"const":3408,"pick":3409,"rather":3410,"mess":3411,"recent":3412,"##ults":3413,"##com":3414,"america":3415,"started":3416,"ce":3417,"dam":3418,"##ateg":3419,"further":3420,"tem":3421,"international":3422,"ger":3423,"pract":3424,"##itive":3425,"dist":3426,"21":3427,"##ored":3428,"third":3429,"##uction":3430,"rul":3431,"##oved":3432,"isn":3433,"trying":3434,"##oph":3435,"reach":3436,"cult":3437,"##uly":3438,"player":3439,"san":3440,"admin":3441,"experience":3442,"canad":3443,"24":3444,"fav":3445,"ago":3446,"comes":3447,"env":3448,"image":3449,"idea":3450,"try":3451,"appro":3452,"twitter":3453,"##ands":3454,"##ergy":3455,"film":3456,"military":3457,"anything":3458,"department":3459,"##aster":3460,"imm":3461,"##selves":3462,"vir":3463,"comb":3464,"individ":3465,"nothing":3466,"##ler":3467,"ban":3468,"dom":3469,"##ape":3470,"##acter":3471,"committ":3472,"##ability":3473,"enc":3474,"##ru":3475,"##ails":3476,"wa":3477,"compet":3478,"refer":3479,"bene":3480,"quick":3481,"current":3482,"capt":3483,"glob":3484,"field":3485,"##iter":3486,"##ission":3487,"present":3488,"##utes":3489,"journ":3490,"##ls":3491,"aust":3492,"collect":3493,"##erc":3494,"upd":3495,"##lished":3496,"sound":3497,"##imes":3498,"behind":3499,"doc":3500,"mot":3501,"study":3502,"center":3503,"##ination":3504,"threat":3505,"single":3506,"tur":3507,"profess":3508,"action":3509,"##wards":3510,"ey":3511,"front":3512,"summ":3513,"den":3514,"west":3515,"someone":3516,"discuss":3517,"saying":3518,"park":3519,"##ipt":3520,"taken":3521,"##uced":3522,"##rael":3523,"individual":3524,"scre":3525,"intr":3526,"##sw":3527,"htt":3528,"##ids":3529,"body":3530,"gun":3531,"cann":3532,"##ction":3533,"taking":3534,"final":3535,"israel":3536,"##yn":3537,"uk":3538,"dav":3539,"energy":3540,"22":3541,"development":3542,"everything":3543,"##igr":3544,"link":3545,"washing":3546,"pet":3547,"entire":3548,"ur":3549,"##uff":3550,"concern":3551,"secret":3552,"hit":3553,"close":3554,"bring":3555,"cam":3556,"probably":3557,"hom":3558,"alth":3559,"init":3560,"##ming":3561,"target":3562,"custom":3563,"although":3564,"pret":3565,"check":3566,"##nes":3567,"ball":3568,"brit":3569,"colle":3570,"hope":3571,"##fic":3572,"either":3573,"coming":3574,"god":3575,"vol":3576,"tit":3577,"yes":3578,"self":3579,"##aper":3580,"chall":3581,"wanted":3582,"music":3583,"clinton":3584,"2013":3585,"##den":3586,"div":3587,"create":3588,"exist":3589,"washington":3590,"true":3591,"else":3592,"attem":3593,"points":3594,"desp":3595,"walk":3596,"march":3597,"represent":3598,"##ender":3599,"mich":3600,"room":3601,"specific":3602,"##amed":3603,"everyone":3604,"##irc":3605,"##uge":3606,"administr":3607,"league":3608,"198":3609,"##back":3610,"bank":3611,"share":3612,"cand":3613,"common":3614,"due":3615,"##ees":3616,"mc":3617,"##iron":3618,"earl":3619,"jan":3620,"force":3621,"relations":3622,"2012":3623,"begin":3624,"scr":3625,"describ":3626,"break":3627,"lo":3628,"signific":3629,"rob":3630,"continue":3631,"below":3632,"educ":3633,"##for":3634,"advert":3635,"gir":3636,"civ":3637,"treat":3638,"fore":3639,"##ify":3640,"led":3641,"2017":3642,"drug":3643,"##ined":3644,"review":3645,"street":3646,"bur":3647,"meas":3648,"environ":3649,"students":3650,"building":3651,"matter":3652,"infl":3653,"##ges":3654,"decision":3655,"##ule":3656,"deep":3657,"##ograph":3658,"pal":3659,"officials":3660,"40":3661,"circ":3662,"dest":3663,"whole":3664,"leaders":3665,"lat":3666,"companies":3667,"anim":3668,"##olution":3669,"match":3670,"##yc":3671,"position":3672,"cred":3673,"block":3674,"issues":3675,"pack":3676,"outside":3677,"##ring":3678,"source":3679,"##dle":3680,"23":3681,"agre":3682,"launch":3683,"financ":3684,"character":3685,"dead":3686,"wrote":3687,"road":3688,"above":3689,"running":3690,"##aces":3691,"election":3692,"director":3693,"abs":3694,"##ival":3695,"susp":3696,"##attle":3697,"cit":3698,"aver":3699,"##0s":3700,"congress":3701,"repl":3702,"seems":3703,"ground":3704,"neg":3705,"green":3706,"released":3707,"role":3708,"rich":3709,"address":3710,"services":3711,"tre":3712,"phys":3713,"tal":3714,"##port":3715,"ang":3716,"hours":3717,"et":3718,"china":3719,"##asing":3720,"trav":3721,"woman":3722,"version":3723,"##go":3724,"pi":3725,"release":3726,"simply":3727,"age":3728,"##ecess":3729,"##af":3730,"value":3731,"code":3732,"track":3733,"##sy":3734,"##ana":3735,"sil":3736,"aud":3737,"host":3738,"statement":3739,"espec":3740,"##lus":3741,"friends":3742,"obs":3743,"economic":3744,"mill":3745,"appr":3746,"especially":3747,"german":3748,"##uation":3749,"interview":3750,"##bo":3751,"despite":3752,"coll":3753,"type":3754,"##iday":3755,"##elt":3756,"##ibility":3757,"term":3758,"##oud":3759,"extr":3760,"article":3761,"oct":3762,"significant":3763,"began":3764,"lang":3765,"scient":3766,"provide":3767,"total":3768,"legal":3769,"lost":3770,"civil":3771,"##esh":3772,"club":3773,"himself":3774,"anti":3775,"respons":3776,"evidence":3777,"phil":3778,"answ":3779,"countries":3780,"##ench":3781,"consum":3782,"online":3783,"drop":3784,"##ength":3785,"benef":3786,"late":3787,"photo":3788,"itself":3789,"playing":3790,"pretty":3791,"earlier":3792,"inj":3793,"##ai":3794,"log":3795,"##ogn":3796,"facebook":3797,"industry":3798,"##oid":3799,"environment":3800,"##body":3801,"relig":3802,"became":3803,"hill":3804,"themselves":3805,"pain":3806,"wasn":3807,"##ites":3808,"saw":3809,"##yr":3810,"diffic":3811,"##ex":3812,"##iod":3813,"##orr":3814,"coup":3815,"groups":3816,"global":3817,"difficult":3818,"soon":3819,"clos":3820,"minister":3821,"quite":3822,"bud":3823,"needs":3824,"technology":3825,"wall":3826,"boy":3827,"needed":3828,"site":3829,"aw":3830,"##ural":3831,"round":3832,"mic":3833,"approach":3834,"recently":3835,"squ":3836,"##yle":3837,"goog":3838,"shows":3839,"##ift":3840,"##fl":3841,"dig":3842,"nation":3843,"##ault":3844,"aug":3845,"forward":3846,"sense":3847,"expect":3848,"##aft":3849,"billion":3850,"candid":3851,"include":3852,"##ental":3853,"##lim":3854,"express":3855,"##aged":3856,"meth":3857,"##ips":3858,"board":3859,"##action":3860,"played":3861,"vote":3862,"page":3863,"gold":3864,"##ouch":3865,"shoot":3866,"instit":3867,"suff":3868,"execut":3869,"wed":3870,"pred":3871,"##ilt":3872,"pan":3873,"##jects":3874,"network":3875,"foreign":3876,"broad":3877,"stay":3878,"sept":3879,"prim":3880,"account":3881,"##aced":3882,"google":3883,"sat":3884,"rock":3885,"mis":3886,"anyone":3887,"sun":3888,"##atures":3889,"comput":3890,"##ibut":3891,"webs":3892,"##uel":3893,"##ams":3894,"base":3895,"terror":3896,"deter":3897,"period":3898,"changes":3899,"##ugg":3900,"##ished":3901,"focus":3902,"##arr":3903,"##fully":3904,"coach":3905,"speak":3906,"##ask":3907,"ul":3908,"risk":3909,"applic":3910,"##mb":3911,"model":3912,"price":3913,"sold":3914,"staff":3915,"norm":3916,"conserv":3917,"opportun":3918,"##gn":3919,"journal":3920,"pict":3921,"mal":3922,"email":3923,"chief":3924,"syr":3925,"protest":3926,"bi":3927,"##ney":3928,"00":3929,"##iple":3930,"tele":3931,"26":3932,"hot":3933,"card":3934,"personal":3935,"weeks":3936,"middle":3937,"27":3938,"results":3939,"wrong":3940,"apr":3941,"related":3942,"langu":3943,"##oring":3944,"held":3945,"hop":3946,"##istic":3947,"higher":3948,"sell":3949,"comment":3950,"moment":3951,"hun":3952,"2011":3953,"##uk":3954,"republican":3955,"select":3956,"##lam":3957,"ah":3958,"content":3959,"private":3960,"hol":3961,"##umb":3962,"soft":3963,"197":3964,"king":3965,"capital":3966,"friend":3967,"longer":3968,"natur":3969,"##ij":3970,"##ference":3971,"rate":3972,"potential":3973,"june":3974,"words":3975,"buy":3976,"28":3977,"##ped":3978,"heav":3979,"laws":3980,"hon":3981,"che":3982,"popular":3983,"bal":3984,"arch":3985,"fair":3986,"accept":3987,"##urch":3988,"##use":3989,"engine":3990,"science":3991,"shot":3992,"search":3993,"created":3994,"fem":3995,"oil":3996,"los":3997,"##eal":3998,"inside":3999,"mer":4000,"##ades":4001,"##medi":4002,"minutes":4003,"original":4004,"july":4005,"favor":4006,"piec":4007,"nearly":4008,"living":4009,"easy":4010,"administration":4011,"##play":4012,"draw":4013,"mater":4014,"sand":4015,"##ron":4016,"famil":4017,"cur":4018,"surpr":4019,"ver":4020,"town":4021,"##iff":4022,"extrem":4023,"goal":4024,"attempt":4025,"defense":4026,"financial":4027,"##iding":4028,"strateg":4029,"austral":4030,"cell":4031,"protect":4032,"average":4033,"##uth":4034,"##ique":4035,"##ients":4036,"questions":4037,"champ":4038,"##epend":4039,"##onse":4040,"workers":4041,"internet":4042,"earth":4043,"works":4044,"rom":4045,"maybe":4046,"estab":4047,"leave":4048,"##hood":4049,"mond":4050,"trade":4051,"##cript":4052,"member":4053,"expected":4054,"##atives":4055,"problems":4056,"received":4057,"adm":4058,"east":4059,"necess":4060,"##na":4061,"reve":4062,"note":4063,"mur":4064,"college":4065,"users":4066,"##asons":4067,"##ops":4068,"independ":4069,"##vers":4070,"##arter":4071,"web":4072,"ways":4073,"church":4074,"worth":4075,"##ne":4076,"currently":4077,"##where":4078,"increase":4079,"tv":4080,"david":4081,"2010":4082,"phone":4083,"fans":4084,"response":4085,"##haps":4086,"weap":4087,"exact":4088,"published":4089,"##apan":4090,"##load":4091,"reports":4092,"##ption":4093,"april":4094,"americans":4095,"advertis":4096,"cannot":4097,"oppos":4098,"dre":4099,"county":4100,"perhaps":4101,"regard":4102,"friday":4103,"heart":4104,"constr":4105,"defin":4106,"##anger":4107,"je":4108,"##omm":4109,"fear":4110,"##cil":4111,"##of":4112,"method":4113,"announced":4114,"speed":4115,"russia":4116,"##bert":4117,"##itting":4118,"vo":4119,"japan":4120,"cross":4121,"involved":4122,"##ma":4123,"finally":4124,"request":4125,"##okes":4126,"paul":4127,"rac":4128,"relationship":4129,"introd":4130,"unf":4131,"##off":4132,"##ried":4133,"central":4134,"##ster":4135,"##isl":4136,"camer":4137,"sund":4138,"color":4139,"amount":4140,"society":4141,"via":4142,"son":4143,"immedi":4144,"mach":4145,"geor":4146,"sometimes":4147,"##ners":4148,"union":4149,"medical":4150,"cases":4151,"arrest":4152,"tues":4153,"subs":4154,"lower":4155,"race":4156,"monday":4157,"reb":4158,"29":4159,"tool":4160,"di":4161,"##ett":4162,"respond":4163,"islam":4164,"calif":4165,"##ude":4166,"killed":4167,"text":4168,"lives":4169,"performance":4170,"##itten":4171,"lack":4172,"##ging":4173,"material":4174,"propert":4175,"tuesday":4176,"tex":4177,"deliver":4178,"aren":4179,"##eter":4180,"box":4181,"oh":4182,"leader":4183,"mob":4184,"becom":4185,"ability":4186,"##ological":4187,"##thern":4188,"discover":4189,"##ellig":4190,"terms":4191,"please":4192,"takes":4193,"hear":4194,"particip":4195,"size":4196,"##ilities":4197,"perf":4198,"##eed":4199,"##uit":4200,"committee":4201,"corre":4202,"progress":4203,"##bc":4204,"justice":4205,"##ters":4206,"influ":4207,"simple":4208,"legisl":4209,"events":4210,"worked":4211,"visit":4212,"destr":4213,"remember":4214,"##joy":4215,"##erson":4216,"production":4217,"35":4218,"##izing":4219,"cast":4220,"ess":4221,"##tain":4222,"mother":4223,"september":4224,"impact":4225,"##mber":4226,"require":4227,"teams":4228,"unl":4229,"##ham":4230,"insp":4231,"##lear":4232,"citiz":4233,"amaz":4234,"##aut":4235,"january":4236,"thous":4237,"chance":4238,"micr":4239,"dark":4240,"attr":4241,"fast":4242,"recogn":4243,"confir":4244,"tradition":4245,"song":4246,"forces":4247,"imag":4248,"morning":4249,"pen":4250,"meeting":4251,"built":4252,"table":4253,"movement":4254,"http":4255,"goes":4256,"##omb":4257,"plans":4258,"push":4259,"images":4260,"whose":4261,"nove":4262,"##ises":4263,"education":4264,"council":4265,"website":4266,"indic":4267,"decided":4268,"object":4269,"gave":4270,"jew":4271,"offer":4272,"pull":4273,"##ael":4274,"turned":4275,"father":4276,"happened":4277,"##cer":4278,"november":4279,"fix":4280,"democratic":4281,"career":4282,"intellig":4283,"##ober":4284,"situation":4285,"improve":4286,"behav":4287,"enjoy":4288,"learn":4289,"##gs":4290,"shar":4291,"victim":4292,"compl":4293,"loss":4294,"##idents":4295,"ok":4296,"unc":4297,"agency":4298,"european":4299,"jack":4300,"##ened":4301,"august":4302,"afric":4303,"sens":4304,"thurs":4305,"196":4306,"##ening":4307,"plat":4308,"sett":4309,"economy":4310,"wednes":4311,"ill":4312,"respect":4313,"ach":4314,"numbers":4315,"fell":4316,"areas":4317,"wond":4318,"obv":4319,"october":4320,"inn":4321,"emerg":4322,"31":4323,"doct":4324,"neigh":4325,"veh":4326,"commission":4327,"##iction":4328,"neighb":4329,"##anch":4330,"grand":4331,"wednesday":4332,"training":4333,"##aming":4334,"russian":4335,"canada":4336,"ele":4337,"##uments":4338,"cause":4339,"thursday":4340,"prem":4341,"language":4342,"user":4343,"couple":4344,"struct":4345,"touch":4346,"hands":4347,"constit":4348,"tom":4349,"felt":4350,"##xic":4351,"separ":4352,"doll":4353,"hosp":4354,"previous":4355,"prior":4356,"upon":4357,"##ibly":4358,"leav":4359,"blood":4360,"climate":4361,"modern":4362,"british":4363,"resour":4364,"californ":4365,"quickly":4366,"ho":4367,"immigr":4368,"sunday":4369,"growth":4370,"range":4371,"seven":4372,"travel":4373,"path":4374,"##dr":4375,"figure":4376,"60":4377,"reveal":4378,"battle":4379,"function":4380,"heard":4381,"fa":4382,"##yl":4383,"ten":4384,"eight":4385,"ens":4386,"mart":4387,"##atory":4388,"rules":4389,"ham":4390,"natural":4391,"file":4392,"football":4393,"huge":4394,"surve":4395,"histor":4396,"demand":4397,"##istan":4398,"included":4399,"demon":4400,"population":4401,"eg":4402,"contract":4403,"gets":4404,"que":4405,"##ession":4406,"allowed":4407,"##sych":4408,"except":4409,"dail":4410,"wants":4411,"##put":4412,"communic":4413,"various":4414,"looks":4415,"purp":4416,"spent":4417,"crim":4418,"perfect":4419,"poor":4420,"bott":4421,"command":4422,"document":4423,"tour":4424,"california":4425,"##oo":4426,"satur":4427,"##oon":4428,"knew":4429,"wes":4430,"teach":4431,"analys":4432,"december":4433,"bey":4434,"systems":4435,"corpor":4436,"quality":4437,"assist":4438,"standard":4439,"written":4440,"guy":4441,"regular":4442,"##bit":4443,"jobs":4444,"attention":4445,"##itted":4446,"kore":4447,"features":4448,"blue":4449,"2008":4450,"talking":4451,"tried":4452,"##mer":4453,"gar":4454,"muslim":4455,"##ores":4456,"senate":4457,"tor":4458,"princ":4459,"psych":4460,"##ety":4461,"lay":4462,"roll":4463,"##ires":4464,"emb":4465,"pros":4466,"daily":4467,"##ume":4468,"##force":4469,"slow":4470,"latest":4471,"gas":4472,"contact":4473,"ful":4474,"paper":4475,"bord":4476,"store":4477,"mention":4478,"summer":4479,"##eless":4480,"subject":4481,"##kn":4482,"##uses":4483,"interesting":4484,"challen":4485,"skill":4486,"32":4487,"century":4488,"sexual":4489,"india":4490,"conference":4491,"brought":4492,"quarter":4493,"rout":4494,"##mp":4495,"fill":4496,"investigation":4497,"eth":4498,"install":4499,"2009":4500,"seek":4501,"wal":4502,"donald":4503,"iran":4504,"##ceed":4505,"date":4506,"hund":4507,"##ung":4508,"surv":4509,"ira":4510,"##etic":4511,"majority":4512,"island":4513,"blog":4514,"freed":4515,"strugg":4516,"achie":4517,"##bi":4518,"##eth":4519,"fly":4520,"advertisement":4521,"##ruct":4522,"##arily":4523,"flo":4524,"ww":4525,"##ground":4526,"hundred":4527,"sort":4528,"wild":4529,"regul":4530,"violence":4531,"message":4532,"parents":4533,"beyond":4534,"budget":4535,"starting":4536,"convers":4537,"##sequ":4538,"##iant":4539,"epis":4540,"conduct":4541,"500":4542,"##face":4543,"item":4544,"max":4545,"increasing":4546,"##iers":4547,"movie":4548,"##bt":4549,"serious":4550,"critic":4551,"lond":4552,"complete":4553,"speech":4554,"stories":4555,"levels":4556,"reading":4557,"officers":4558,"army":4559,"considered":4560,"brown":4561,"certainly":4562,"officer":4563,"chair":4564,"corn":4565,"michael":4566,"mcc":4567,"45":4568,"details":4569,"london":4570,"ut":4571,"credit":4572,"prison":4573,"click":4574,"##ification":4575,"band":4576,"hall":4577,"hous":4578,"##ese":4579,"##uf":4580,"##ky":4581,"safety":4582,"comments":4583,"prevent":4584,"cup":4585,"particularly":4586,"answer":4587,"alle":4588,"##ements":4589,"counter":4590,"culture":4591,"apple":4592,"trust":4593,"continued":4594,"writing":4595,"paid":4596,"extra":4597,"growing":4598,"mad":4599,"spokes":4600,"nuc":4601,"carry":4602,"saturday":4603,"completely":4604,"rap":4605,"alb":4606,"style":4607,"##icles":4608,"iraq":4609,"james":4610,"##imately":4611,"region":4612,"##aries":4613,"##aging":4614,"exactly":4615,"##ille":4616,"crime":4617,"opportunity":4618,"##ux":4619,"drive":4620,"write":4621,"##20":4622,"##iation":4623,"sle":4624,"decl":4625,"ready":4626,"danger":4627,"practice":4628,"intelligence":4629,"biggest":4630,"girl":4631,"usually":4632,"leading":4633,"damage":4634,"##ament":4635,"executive":4636,"title":4637,"mount":4638,"stuff":4639,"nature":4640,"attacks":4641,"guard":4642,"appar":4643,"products":4644,"##enced":4645,"febr":4646,"platform":4647,"clean":4648,"claims":4649,"effort":4650,"sup":4651,"bir":4652,"brain":4653,"cat":4654,"matt":4655,"##coin":4656,"software":4657,"income":4658,"##ension":4659,"organization":4660,"february":4661,"##idge":4662,"screen":4663,"medic":4664,"##ha":4665,"required":4666,"multiple":4667,"crow":4668,"student":4669,"thanks":4670,"perm":4671,"##asc":4672,"##wor":4673,"mac":4674,"prime":4675,"deg":4676,"giving":4677,"brand":4678,"additional":4679,"cele":4680,"die":4681,"bab":4682,"throughout":4683,"##sc":4684,"safe":4685,"connect":4686,"ign":4687,"dan":4688,"district":4689,"kids":4690,"choice":4691,"##reg":4692,"produc":4693,"##ledge":4694,"thinking":4695,"western":4696,"##isc":4697,"named":4698,"remain":4699,"experi":4700,"disp":4701,"twe":4702,"##to":4703,"origin":4704,"##aught":4705,"republicans":4706,"described":4707,"##ida":4708,"kick":4709,"##encies":4710,"sports":4711,"##ino":4712,"ult":4713,"changed":4714,"cris":4715,"freedom":4716,"smart":4717,"##yan":4718,"##entially":4719,"##cast":4720,"happy":4721,"provided":4722,"##ping":4723,"reality":4724,"stage":4725,"hy":4726,"celebr":4727,"purch":4728,"bul":4729,"spir":4730,"##come":4731,"##rew":4732,"texas":4733,"ones":4734,"ms":4735,"books":4736,"swe":4737,"overall":4738,"looked":4739,"prepar":4740,"effects":4741,"ath":4742,"voters":4743,"parts":4744,"update":4745,"demonstr":4746,"labor":4747,"fit":4748,"##orney":4749,"implement":4750,"##inese":4751,"der":4752,"complex":4753,"costs":4754,"##ously":4755,"prec":4756,"letter":4757,"increased":4758,"##ds":4759,"attorney":4760,"analysis":4761,"thus":4762,"##isions":4763,"ii":4764,"err":4765,"##enue":4766,"avoid":4767,"recomm":4768,"##raft":4769,"##iqu":4770,"guys":4771,"alone":4772,"vill":4773,"##uz":4774,"chinese":4775,"wouldn":4776,"repe":4777,"eventually":4778,"nom":4779,"computer":4780,"remains":4781,"hospital":4782,"www":4783,"peace":4784,"36":4785,"nav":4786,"william":4787,"core":4788,"showed":4789,"##omp":4790,"mix":4791,"##uing":4792,"display":4793,"thousands":4794,"calls":4795,"opin":4796,"moving":4797,"limited":4798,"cool":4799,"designed":4800,"##erve":4801,"indian":4802,"consist":4803,"wife":4804,"##hib":4805,"autom":4806,"nuclear":4807,"rank":4808,"##overs":4809,"##ounts":4810,"senior":4811,"sect":4812,"scene":4813,"thank":4814,"stra":4815,"##unk":4816,"##ypt":4817,"ben":4818,"immediately":4819,"grad":4820,"died":4821,"meaning":4822,"gone":4823,"draft":4824,"efforts":4825,"inte":4826,"citizens":4827,"altern":4828,"propos":4829,"born":4830,"esc":4831,"bow":4832,"bitcoin":4833,"##he":4834,"poll":4835,"##anced":4836,"##ago":4837,"includes":4838,"towards":4839,"truth":4840,"correct":4841,"ahead":4842,"subst":4843,"politics":4844,"presidential":4845,"property":4846,"secretary":4847,"fal":4848,"studies":4849,"hyp":4850,"##utions":4851,"manager":4852,"reform":4853,"entr":4854,"##oes":4855,"save":4856,"##aker":4857,"##ables":4858,"trial":4859,"religious":4860,"piece":4861,"##akers":4862,"##oken":4863,"couldn":4864,"directly":4865,"analy":4866,"democrats":4867,"##ke":4868,"##ford":4869,"sched":4870,"judge":4871,"insur":4872,"pressure":4873,"##down":4874,"debate":4875,"##arian":4876,"##eration":4877,"od":4878,"ord":4879,"##ba":4880,"33":4881,"##ustr":4882,"##unt":4883,"##pect":4884,"ran":4885,"feed":4886,"##fort":4887,"##aur":4888,"associated":4889,"device":4890,"eu":4891,"##key":4892,"station":4893,"flor":4894,"beginning":4895,"english":4896,"compared":4897,"wood":4898,"schools":4899,"french":4900,"##light":4901,"##icted":4902,"ber":4903,"reflect":4904,"toward":4905,"##la":4906,"lic":4907,"disapp":4908,"##aint":4909,"windows":4910,"cyc":4911,"##phone":4912,"##ban":4913,"spot":4914,"beaut":4915,"ice":4916,"exch":4917,"map":4918,"contribut":4919,"##aughter":4920,"strength":4921,"largest":4922,"##ny":4923,"lif":4924,"dise":4925,"count":4926,"##emy":4927,"aim":4928,"estim":4929,"passed":4930,"wid":4931,"eyes":4932,"rand":4933,"receive":4934,"beat":4935,"digital":4936,"drink":4937,"physical":4938,"angel":4939,"minor":4940,"radio":4941,"lin":4942,"hur":4943,"conditions":4944,"conservative":4945,"failed":4946,"moved":4947,"resources":4948,"virt":4949,"##acters":4950,"##ev":4951,"photos":4952,"wide":4953,"eye":4954,"characters":4955,"alleged":4956,"##agon":4957,"reasons":4958,"clearly":4959,"ec":4960,"criminal":4961,"traff":4962,"##bur":4963,"appears":4964,"section":4965,"experim":4966,"independent":4967,"##hold":4968,"challenge":4969,"##50":4970,"door":4971,"dut":4972,"rule":4973,"##ze":4974,"absol":4975,"whate":4976,"liter":4977,"##imum":4978,"encour":4979,"champions":4980,"sales":4981,"helped":4982,"powerful":4983,"##field":4984,"whatever":4985,"##ari":4986,"fat":4987,"illeg":4988,"difference":4989,"posted":4990,"smith":4991,"promot":4992,"shut":4993,"##ocks":4994,"crisis":4995,"feature":4996,"##astic":4997,"##enty":4998,"cook":4999,"rub":5000,"controll":5001,"lock":5002,"frequ":5003,"families":5004,"myself":5005,"##inary":5006,"candidate":5007,"sem":5008,"status":5009,"send":5010,"80":5011,"fan":5012,"treatment":5013,"management":5014,"##me":5015,"spending":5016,"##iders":5017,"mexic":5018,"sources":5019,"##ara":5020,"option":5021,"##ero":5022,"shown":5023,"destroy":5024,"narr":5025,"##ipped":5026,"##rupt":5027,"##ston":5028,"weapons":5029,"mos":5030,"christian":5031,"domin":5032,"syria":5033,"murder":5034,"forced":5035,"greater":5036,"##wood":5037,"##acts":5038,"syn":5039,"australia":5040,"normal":5041,"coal":5042,"acad":5043,"##rec":5044,"previously":5045,"surr":5046,"bay":5047,"voice":5048,"mobile":5049,"franc":5050,"##using":5051,"detail":5052,"apart":5053,"##berg":5054,"signed":5055,"load":5056,"wait":5057,"necessary":5058,"tick":5059,"researchers":5060,"firm":5061,"99":5062,"unique":5063,"wel":5064,"integr":5065,"george":5066,"yourself":5067,"actions":5068,"##apt":5069,"mech":5070,"records":5071,"##wise":5072,"sea":5073,"##imin":5074,"fighting":5075,"rise":5076,"ideas":5077,"conflic":5078,"mist":5079,"picture":5080,"primary":5081,"sam":5082,"34":5083,"telev":5084,"fox":5085,"jump":5086,"arab":5087,"meant":5088,"charge":5089,"##ufact":5090,"positive":5091,"expand":5092,"alex":5093,"subm":5094,"straight":5095,"manufact":5096,"mel":5097,"goals":5098,"easily":5099,"basic":5100,"beg":5101,"border":5102,"uns":5103,"projects":5104,"mission":5105,"gives":5106,"allows":5107,"followed":5108,"restr":5109,"##iest":5110,"politic":5111,"impress":5112,"spr":5113,"wonder":5114,"developed":5115,"scen":5116,"association":5117,"customers":5118,"lines":5119,"plant":5120,"##atively":5121,"##room":5122,"knowledge":5123,"germany":5124,"plus":5125,"benefits":5126,"##oint":5127,"female":5128,"marri":5129,"##ches":5130,"pitch":5131,"##sa":5132,"##iar":5133,"uses":5134,"individuals":5135,"spread":5136,"measure":5137,"2007":5138,"cities":5139,"scott":5140,"##pts":5141,"decades":5142,"highly":5143,"##oles":5144,"speaking":5145,"weight":5146,"pm":5147,"chic":5148,"incident":5149,"scale":5150,"fine":5151,"##elling":5152,"##bed":5153,"frank":5154,"continues":5155,"##ef":5156,"fully":5157,"##set":5158,"authorities":5159,"##owing":5160,"emot":5161,"pow":5162,"nice":5163,"emp":5164,"shop":5165,"appeared":5166,"hell":5167,"##ein":5168,"hillary":5169,"van":5170,"sud":5171,"##ya":5172,"qual":5173,"rates":5174,"agreement":5175,"adding":5176,"none":5177,"traditional":5178,"options":5179,"birth":5180,"##mon":5181,"##ube":5182,"successful":5183,"professor":5184,"##iance":5185,"winning":5186,"download":5187,"##ville":5188,"advant":5189,"activity":5190,"vac":5191,"favorite":5192,"grant":5193,"##ki":5194,"catch":5195,"rh":5196,"owners":5197,"shooting":5198,"larger":5199,"constitution":5200,"90":5201,"##ivity":5202,"bush":5203,"calling":5204,"samp":5205,"noted":5206,"editor":5207,"chann":5208,"##ga":5209,"organiz":5210,"##osh":5211,"70":5212,"programs":5213,"stock":5214,"double":5215,"enforce":5216,"reached":5217,"bed":5218,"establish":5219,"album":5220,"revolution":5221,"creating":5222,"places":5223,"transport":5224,"feet":5225,"heavy":5226,"##ota":5227,"suprem":5228,"##box":5229,"libr":5230,"lou":5231,"##oft":5232,"fif":5233,"##band":5234,"gay":5235,"indeed":5236,"##iate":5237,"seeing":5238,"partners":5239,"##onents":5240,"mechan":5241,"concept":5242,"determin":5243,"application":5244,"##orter":5245,"##ented":5246,"dog":5247,"##airs":5248,"org":5249,"##aine":5250,"##iny":5251,"mostly":5252,"employees":5253,"names":5254,"funct":5255,"##oyal":5256,"fort":5257,"trou":5258,"amb":5259,"foundation":5260,"fant":5261,"gal":5262,"pun":5263,"acqu":5264,"challeng":5265,"chem":5266,"##erved":5267,"critical":5268,"adj":5269,"##bl":5270,"seemed":5271,"##board":5272,"ended":5273,"ye":5274,"kept":5275,"micros":5276,"recover":5277,"mat":5278,"notes":5279,"electric":5280,"haven":5281,"prices":5282,"funding":5283,"sad":5284,"knows":5285,"resist":5286,"operations":5287,"therefore":5288,"nine":5289,"master":5290,"england":5291,"spend":5292,"37":5293,"brief":5294,"##essed":5295,"exam":5296,"194":5297,"caused":5298,"learning":5299,"patients":5300,"hack":5301,"##opri":5302,"male":5303,"behavior":5304,"##ishing":5305,"strategy":5306,"##vin":5307,"choose":5308,"##itely":5309,"train":5310,"temper":5311,"hus":5312,"florida":5313,"values":5314,"##my":5315,"##onent":5316,"episode":5317,"actual":5318,"leaving":5319,"chicago":5320,"##iced":5321,"trib":5322,"slight":5323,"sleep":5324,"weekend":5325,"machine":5326,"##10":5327,"willing":5328,"rat":5329,"ital":5330,"opposition":5331,"television":5332,"##nn":5333,"memory":5334,"lawy":5335,"mike":5336,"38":5337,"etc":5338,"claimed":5339,"award":5340,"concerns":5341,"overs":5342,"##iring":5343,"lad":5344,"river":5345,"raised":5346,"scientists":5347,"##ortion":5348,"kid":5349,"mir":5350,"supposed":5351,"opening":5352,"policies":5353,"flag":5354,"os":5355,"bag":5356,"ali":5357,"parl":5358,"defend":5359,"generation":5360,"france":5361,"advoc":5362,"##bon":5363,"charges":5364,"happens":5365,"spl":5366,"cars":5367,"##rel":5368,"condition":5369,"spring":5370,"frame":5371,"vs":5372,"theory":5373,"##ipe":5374,"wit":5375,"residents":5376,"hor":5377,"occup":5378,"adop":5379,"camera":5380,"limit":5381,"##ifying":5382,"##dom":5383,"location":5384,"##ici":5385,"stick":5386,"tough":5387,"agree":5388,"kh":5389,"massive":5390,"produced":5391,"bomb":5392,"switch":5393,"##ries":5394,"##ulated":5395,"crowd":5396,"proper":5397,"pil":5398,"ip":5399,"ther":5400,"investment":5401,"effective":5402,"##uana":5403,"palest":5404,"ensure":5405,"unit":5406,"##itor":5407,"##arm":5408,"protection":5409,"feeling":5410,"##roid":5411,"commerc":5412,"ship":5413,"hundreds":5414,"farm":5415,"##antly":5416,"active":5417,"horr":5418,"##lined":5419,"miles":5420,"marriage":5421,"mail":5422,"##ounds":5423,"bottom":5424,"generally":5425,"solid":5426,"parties":5427,"##ibution":5428,"cash":5429,"##ado":5430,"negot":5431,"spirit":5432,"professional":5433,"pattern":5434,"commit":5435,"robert":5436,"tech":5437,"revealed":5438,"debt":5439,"operation":5440,"devices":5441,"##odes":5442,"assum":5443,"##iable":5444,"##ona":5445,"offered":5446,"##while":5447,"learned":5448,"##aa":5449,"faith":5450,"highest":5451,"initial":5452,"tend":5453,"graph":5454,"task":5455,"fresh":5456,"wil":5457,"##men":5458,"arrested":5459,"types":5460,"https":5461,"notice":5462,"pac":5463,"##iful":5464,"##pm":5465,"lose":5466,"worse":5467,"##ijuana":5468,"##icient":5469,"chris":5470,"johnson":5471,"prefer":5472,"influence":5473,"nations":5474,"49":5475,"brother":5476,"##itude":5477,"length":5478,"opinion":5479,"fle":5480,"coast":5481,"asking":5482,"appl":5483,"millions":5484,"benefit":5485,"solution":5486,"burn":5487,"believed":5488,"whom":5489,"gather":5490,"showing":5491,"trip":5492,"confirmed":5493,"compar":5494,"runs":5495,"ol":5496,"48":5497,"afford":5498,"##olic":5499,"understanding":5500,"wish":5501,"provides":5502,"driving":5503,"##istry":5504,"kr":5505,"react":5506,"anc":5507,"parliam":5508,"liberal":5509,"2006":5510,"marijuana":5511,"wing":5512,"##lusion":5513,"interested":5514,"195":5515,"francis":5516,"##ta":5517,"tro":5518,"background":5519,"##estic":5520,"produce":5521,"occas":5522,"##apped":5523,"##ipl":5524,"apply":5525,"##eline":5526,"responsible":5527,"din":5528,"cas":5529,"##itz":5530,"##iles":5531,"defe":5532,"sanders":5533,"##lant":5534,"dollars":5535,"fourth":5536,"42":5537,"categ":5538,"victory":5539,"alleg":5540,"##11":5541,"whe":5542,"300":5543,"existing":5544,"##ancy":5545,"strik":5546,"institute":5547,"islamic":5548,"era":5549,"##oving":5550,"parliament":5551,"photograph":5552,"achieve":5553,"korea":5554,"gh":5555,"illegal":5556,"authority":5557,"##craft":5558,"##aked":5559,"environmental":5560,"joined":5561,"luck":5562,"nfl":5563,"snow":5564,"species":5565,"39":5566,"veter":5567,"cold":5568,"surface":5569,"centre":5570,"disease":5571,"coop":5572,"44":5573,"##iled":5574,"##more":5575,"gam":5576,"##oses":5577,"commercial":5578,"gall":5579,"##cription":5580,"assault":5581,"incred":5582,"watching":5583,"##elled":5584,"offers":5585,"neighbor":5586,"server":5587,"wealth":5588,"bat":5589,"shock":5590,"leadership":5591,"putting":5592,"cards":5593,"proposed":5594,"agreed":5595,"##erate":5596,"convention":5597,"controvers":5598,"girls":5599,"extremely":5600,"jim":5601,"rid":5602,"canadian":5603,"##oster":5604,"exchange":5605,"witness":5606,"shared":5607,"##cing":5608,"##aves":5609,"worst":5610,"minute":5611,"documents":5612,"announce":5613,"ram":5614,"driver":5615,"finding":5616,"floor":5617,"false":5618,"traffic":5619,"labour":5620,"##pper":5621,"transl":5622,"vehicle":5623,"advantage":5624,"thom":5625,"span":5626,"register":5627,"occurr":5628,"opened":5629,"pin":5630,"explained":5631,"fuel":5632,"basis":5633,"transfer":5634,"planet":5635,"annual":5636,"supporters":5637,"##izes":5638,"restaur":5639,"eat":5640,"##time":5641,"chap":5642,"insurance":5643,"##ih":5644,"square":5645,"victims":5646,"serve":5647,"dangerous":5648,"competition":5649,"##mine":5650,"enforcement":5651,"cancer":5652,"definitely":5653,"standing":5654,"brew":5655,"doz":5656,"tools":5657,"attract":5658,"##umn":5659,"##ae":5660,"becoming":5661,"purpose":5662,"belief":5663,"banks":5664,"items":5665,"becomes":5666,"drugs":5667,"testing":5668,"jeff":5669,"legislation":5670,"contain":5671,"planned":5672,"jones":5673,"unfortun":5674,"rough":5675,"onto":5676,"survey":5677,"ded":5678,"ton":5679,"sport":5680,"coverage":5681,"##atically":5682,"views":5683,"communities":5684,"bon":5685,"reduce":5686,"construction":5687,"consequ":5688,"appeal":5689,"housing":5690,"android":5691,"##uries":5692,"accused":5693,"comfort":5694,"obviously":5695,"strike":5696,"easier":5697,"##da":5698,"served":5699,"audience":5700,"hearing":5701,"heat":5702,"libert":5703,"##uters":5704,"magaz":5705,"microsoft":5706,"otherwise":5707,"doubt":5708,"math":5709,"##abor":5710,"israeli":5711,"refuge":5712,"files":5713,"argument":5714,"imagine":5715,"planning":5716,"##itation":5717,"southern":5718,"##olf":5719,"closed":5720,"immigration":5721,"##inct":5722,"explain":5723,"animals":5724,"transform":5725,"##za":5726,"novel":5727,"75":5728,"##vant":5729,"northern":5730,"purs":5731,"##ext":5732,"dism":5733,"sites":5734,"pc":5735,"division":5736,"flight":5737,"##oom":5738,"solar":5739,"##ica":5740,"sac":5741,"amazing":5742,"carol":5743,"2000":5744,"gop":5745,"##ulate":5746,"tweet":5747,"separate":5748,"mayor":5749,"43":5750,"launched":5751,"instance":5752,"exerc":5753,"structure":5754,"##ios":5755,"pak":5756,"surround":5757,"supported":5758,"beer":5759,"suc":5760,"divers":5761,"##works":5762,"britain":5763,"issued":5764,"unless":5765,"apparently":5766,"dyn":5767,"dream":5768,"returned":5769,"##wide":5770,"sequ":5771,"stars":5772,"calc":5773,"ren":5774,"##ole":5775,"ukr":5776,"fbi":5777,"decade":5778,"hair":5779,"##ris":5780,"collection":5781,"asp":5782,"degree":5783,"telling":5784,"##ushing":5785,"partner":5786,"##ius":5787,"##utely":5788,"reject":5789,"kar":5790,"supreme":5791,"41":5792,"virgin":5793,"athlet":5794,"setting":5795,"repeated":5796,"mand":5797,"##ipping":5798,"##aks":5799,"daughter":5800,"trail":5801,"princip":5802,"##bing":5803,"##istics":5804,"##ghan":5805,"jewish":5806,"##iated":5807,"##ml":5808,"ken":5809,"##ding":5810,"ryan":5811,"##oval":5812,"##mark":5813,"ultimately":5814,"patr":5815,"governor":5816,"smaller":5817,"2005":5818,"crew":5819,"tow":5820,"charged":5821,"negative":5822,"older":5823,"55":5824,"holding":5825,"abuse":5826,"##ictions":5827,"direction":5828,"beautiful":5829,"cab":5830,"mut":5831,"suggested":5832,"spect":5833,"copyr":5834,"gender":5835,"47":5836,"##acity":5837,"missing":5838,"cath":5839,"richard":5840,"concerned":5841,"tun":5842,"subscrib":5843,"established":5844,"aware":5845,"##hen":5846,"depend":5847,"accur":5848,"plays":5849,"supply":5850,"vice":5851,"score":5852,"animal":5853,"##ato":5854,"owner":5855,"pair":5856,"asse":5857,"sav":5858,"requires":5859,"keeping":5860,"batter":5861,"meanwhile":5862,"spoke":5863,"businesses":5864,"activities":5865,"fest":5866,"stated":5867,"##cel":5868,"discovered":5869,"fol":5870,"candidates":5871,"focused":5872,"2018":5873,"##los":5874,"##gers":5875,"scientific":5876,"raise":5877,"##aud":5878,"skin":5879,"martin":5880,"##ka":5881,"infr":5882,"193":5883,"wars":5884,"conflict":5885,"attend":5886,"larg":5887,"string":5888,"nas":5889,"hate":5890,"wat":5891,"truly":5892,"palestin":5893,"jer":5894,"allowing":5895,"listen":5896,"entirely":5897,"caught":5898,"caption":5899,"cloud":5900,"copyright":5901,"waiting":5902,"sor":5903,"storm":5904,"amend":5905,"tra":5906,"discussion":5907,"magn":5908,"##ression":5909,"##do":5910,"changing":5911,"sust":5912,"championship":5913,"identity":5914,"harm":5915,"recommend":5916,"largely":5917,"sudden":5918,"migr":5919,"##ario":5920,"placed":5921,"jon":5922,"newsp":5923,"appropri":5924,"mental":5925,"mort":5926,"african":5927,"bob":5928,"japanese":5929,"##asts":5930,"doctor":5931,"absolutely":5932,"jav":5933,"laugh":5934,"bern":5935,"##outh":5936,"prosecut":5937,"sky":5938,"afghan":5939,"louis":5940,"##know":5941,"amp":5942,"##agn":5943,"##itable":5944,"decisions":5945,"reuters":5946,"innov":5947,"46":5948,"context":5949,"pakistan":5950,"01":5951,"killing":5952,"print":5953,"##hol":5954,"shad":5955,"injury":5956,"intel":5957,"models":5958,"gain":5959,"advis":5960,"baby":5961,"philos":5962,"removed":5963,"homes":5964,"mexico":5965,"magic":5966,"rang":5967,"presence":5968,"peter":5969,"jose":5970,"figures":5971,"mode":5972,"introduced":5973,"flow":5974,"providing":5975,"##irt":5976,"cy":5977,"conversation":5978,"honest":5979,"thomas":5980,"believes":5981,"africa":5982,"vul":5983,"##cl":5984,"glass":5985,"mentioned":5986,"anth":5987,"offensive":5988,"cells":5989,"earn":5990,"##inger":5991,"bod":5992,"connection":5993,"rene":5994,"domestic":5995,"##oz":5996,"identified":5997,"##rial":5998,"spokesman":5999,"crash":6000,"##igned":6001,"nov":6002,"writer":6003,"publish":6004,"window":6005,"useful":6006,"##iling":6007,"##kin":6008,"tells":6009,"ht":6010,"library":6011,"angeles":6012,"weak":6013,"religion":6014,"64":6015,"skills":6016,"##nel":6017,"##ss":6018,"##coming":6019,"corner":6020,"measures":6021,"profile":6022,"mary":6023,"lob":6024,"optim":6025,"dar":6026,"acknow":6027,"##ront":6028,"imposs":6029,"managed":6030,"hasn":6031,"guess":6032,"failure":6033,"aggress":6034,"error":6035,"##ream":6036,"##ette":6037,"rod":6038,"adjust":6039,"interests":6040,"gard":6041,"usa":6042,"##tained":6043,"nick":6044,"bull":6045,"steps":6046,"obvious":6047,"##agr":6048,"vision":6049,"finished":6050,"##onto":6051,"internal":6052,"funds":6053,"ju":6054,"observ":6055,"##ada":6056,"experts":6057,"##igan":6058,"stopped":6059,"51":6060,"##ula":6061,"standards":6062,"tests":6063,"atlant":6064,"##fc":6065,"sale":6066,"##going":6067,"sher":6068,"##gu":6069,"channel":6070,"interp":6071,"husband":6072,"rain":6073,"##oted":6074,"originally":6075,"lived":6076,"slightly":6077,"prosp":6078,"elements":6079,"rail":6080,"specifically":6081,"##onym":6082,"sounds":6083,"agent":6084,"committed":6085,"corporate":6086,"finish":6087,"joe":6088,"##isation":6089,"mont":6090,"##issions":6091,"motor":6092,"##house":6093,"52":6094,"recall":6095,"electron":6096,"yout":6097,"amazon":6098,"affect":6099,"turns":6100,"alternative":6101,"balance":6102,"##icip":6103,"exclus":6104,"random":6105,"relatively":6106,"feels":6107,"markets":6108,"edge":6109,"conclud":6110,"interact":6111,"fellow":6112,"assemb":6113,"jes":6114,"humans":6115,"hang":6116,"eastern":6117,"operating":6118,"arrived":6119,"senator":6120,"teen":6121,"neur":6122,"tourn":6123,"oce":6124,"arms":6125,"possibly":6126,"basically":6127,"##onom":6128,"filed":6129,"toronto":6130,"iron":6131,"unp":6132,"circum":6133,"youth":6134,"haw":6135,"taxes":6136,"talks":6137,"element":6138,"gm":6139,"schem":6140,"defensive":6141,"selling":6142,"developers":6143,"bond":6144,"variety":6145,"bigger":6146,"organizations":6147,"remind":6148,"cultural":6149,"native":6150,"##ander":6151,"##ano":6152,"paying":6153,"penn":6154,"elections":6155,"hers":6156,"breaking":6157,"tast":6158,"zone":6159,"starts":6160,"##arant":6161,"##azy":6162,"sides":6163,"2004":6164,"magazine":6165,"regarding":6166,"weather":6167,"familiar":6168,"fish":6169,"neither":6170,"##gl":6171,"##ola":6172,"lee":6173,"impossible":6174,"##ania":6175,"cart":6176,"videos":6177,"##anda":6178,"##others":6179,"getty":6180,"rose":6181,"tack":6182,"carbon":6183,"seconds":6184,"helping":6185,"neighborhood":6186,"soldiers":6187,"healthy":6188,"cub":6189,"nut":6190,"##ager":6191,"##well":6192,"votes":6193,"##enses":6194,"visual":6195,"jun":6196,"bost":6197,"##oe":6198,"seeking":6199,"alt":6200,"##amm":6201,"losing":6202,"linked":6203,"##rim":6204,"##hl":6205,"syrian":6206,"equip":6207,"symb":6208,"emergency":6209,"yeah":6210,"suggests":6211,"combat":6212,"bid":6213,"##rom":6214,"##ighter":6215,"privacy":6216,"accounts":6217,"units":6218,"ped":6219,"applications":6220,"##icide":6221,"happening":6222,"consult":6223,"remove":6224,"brad":6225,"rare":6226,"##dy":6227,"chairman":6228,"twice":6229,"armed":6230,"aid":6231,"lake":6232,"ceo":6233,"##ests":6234,"##acing":6235,"parent":6236,"400":6237,"assess":6238,"##aints":6239,"lie":6240,"deploy":6241,"sar":6242,"decide":6243,"steve":6244,"ash":6245,"zero":6246,"famous":6247,"penal":6248,"wer":6249,"##itory":6250,"winter":6251,"rot":6252,"broken":6253,"sector":6254,"stad":6255,"jail":6256,"clim":6257,"ox":6258,"sitting":6259,"youtube":6260,"##oms":6261,"bird":6262,"cuts":6263,"carried":6264,"##wr":6265,"hero":6266,"covered":6267,"increasingly":6268,"##kins":6269,"65":6270,"fired":6271,"equal":6272,"da":6273,"capacity":6274,"##ructure":6275,"53":6276,"schedul":6277,"weapon":6278,"coff":6279,"##isf":6280,"##uate":6281,"##usion":6282,"rein":6283,"##acher":6284,"wik":6285,"##ingly":6286,"##ii":6287,"##oves":6288,"developing":6289,"##orrow":6290,"unfortunately":6291,"breat":6292,"panel":6293,"sant":6294,"throw":6295,"posts":6296,"##resp":6297,"conce":6298,"##iot":6299,"##asy":6300,"boston":6301,"consc":6302,"bound":6303,"batt":6304,"##emic":6305,"##ata":6306,"worry":6307,"54":6308,"##gen":6309,"pictures":6310,"yards":6311,"dropped":6312,"##agues":6313,"closer":6314,"beach":6315,"rapid":6316,"quant":6317,"##ocol":6318,"prin":6319,"infrast":6320,"expert":6321,"fer":6322,"agencies":6323,"##outs":6324,"shall":6325,"las":6326,"##eness":6327,"streets":6328,"##awn":6329,"trig":6330,"charl":6331,"powers":6332,"egypt":6333,"philosoph":6334,"flash":6335,"spons":6336,"considering":6337,"##ordin":6338,"updated":6339,"voting":6340,"##any":6341,"##equ":6342,"initi":6343,"carr":6344,"trick":6345,"tight":6346,"seriously":6347,"vast":6348,"responsibility":6349,"##zz":6350,"na":6351,"guarant":6352,"diss":6353,"tag":6354,"owned":6355,"##stream":6356,"lord":6357,"retail":6358,"secure":6359,"turkey":6360,"dynam":6361,"surprise":6362,"perspect":6363,"expensive":6364,"##aling":6365,"stadium":6366,"##licit":6367,"crack":6368,"located":6369,"##apers":6370,"tree":6371,"chemical":6372,"facing":6373,"cnn":6374,"##stein":6375,"numer":6376,"revenue":6377,"unlike":6378,"instr":6379,"everybody":6380,"dur":6381,"forms":6382,"carolina":6383,"##ogen":6384,"francisco":6385,"methods":6386,"ps":6387,"vehicles":6388,"democracy":6389,"elected":6390,"copy":6391,"deput":6392,"expans":6393,"rush":6394,"stress":6395,"possibility":6396,"##och":6397,"recru":6398,"factor":6399,"##sen":6400,"##lor":6401,"lots":6402,"bridge":6403,"infrastructure":6404,"estimated":6405,"##mas":6406,"williams":6407,"muse":6408,"advanced":6409,"##essions":6410,"##80":6411,"fixed":6412,"seat":6413,"buff":6414,"greatest":6415,"governments":6416,"presented":6417,"##lines":6418,"bringing":6419,"upgr":6420,"pod":6421,"##head":6422,"stone":6423,"##rop":6424,"grab":6425,"plenty":6426,"advent":6427,"archit":6428,"equipment":6429,"config":6430,"retr":6431,"row":6432,"hotel":6433,"shift":6434,"##inn":6435,"dram":6436,"paris":6437,"detect":6438,"tact":6439,"dub":6440,"prepared":6441,"script":6442,"py":6443,"andrew":6444,"##don":6445,"schol":6446,"alco":6447,"shape":6448,"vulner":6449,"stor":6450,"apps":6451,"technical":6452,"reference":6453,"column":6454,"dim":6455,"stret":6456,"##ayer":6457,"classic":6458,"56":6459,"seasons":6460,"##ucks":6461,"pieces":6462,"emph":6463,"##hi":6464,"typically":6465,"##lets":6466,"moon":6467,"##town":6468,"##ception":6469,"construct":6470,"fi":6471,"instruct":6472,"films":6473,"supporting":6474,"virginia":6475,"du":6476,"##arks":6477,"astr":6478,"australian":6479,"giant":6480,"guide":6481,"walking":6482,"helps":6483,"troops":6484,"##ologies":6485,"kel":6486,"saud":6487,"intended":6488,"potentially":6489,"faster":6490,"entertain":6491,"boost":6492,"nic":6493,"rum":6494,"package":6495,"gear":6496,"##uke":6497,"route":6498,"minimum":6499,"##osen":6500,"##lig":6501,"##ez":6502,"explos":6503,"transition":6504,"seg":6505,"metal":6506,"turning":6507,"##ogue":6508,"##erse":6509,"prove":6510,"signs":6511,"determine":6512,"##ils":6513,"default":6514,"creative":6515,"challenges":6516,"2003":6517,"cry":6518,"##icious":6519,"bell":6520,"##ibute":6521,"forget":6522,"yester":6523,"enemy":6524,"surprising":6525,"bes":6526,"ring":6527,"factors":6528,"luc":6529,"moral":6530,"jul":6531,"percentage":6532,"studio":6533,"proposal":6534,"##gry":6535,"consumer":6536,"offering":6537,"isis":6538,"urban":6539,"wire":6540,"kur":6541,"pages":6542,"##ca":6543,"bol":6544,"purchase":6545,"distance":6546,"nobody":6547,"client":6548,"boys":6549,"pip":6550,"criticism":6551,"universe":6552,"renew":6553,"lit":6554,"jackson":6555,"combined":6556,"bbc":6557,"##porary":6558,"proced":6559,"aircraft":6560,"resol":6561,"##oned":6562,"approx":6563,"broadcast":6564,"politicians":6565,"2001":6566,"occurred":6567,"##ulations":6568,"pool":6569,"ray":6570,"industrial":6571,"bright":6572,"kim":6573,"hurt":6574,"consumers":6575,"index":6576,"ruling":6577,"##bre":6578,"advance":6579,"creation":6580,"wearing":6581,"##iations":6582,"founder":6583,"reduced":6584,"handle":6585,"mp":6586,"57":6587,"profit":6588,"maintain":6589,"##aded":6590,"##ois":6591,"##ym":6592,"regime":6593,"##how":6594,"bure":6595,"atm":6596,"braz":6597,"significantly":6598,"evening":6599,"dedic":6600,"yesterday":6601,"royal":6602,"silver":6603,"determined":6604,"voted":6605,"valid":6606,"##ani":6607,"proceed":6608,"appearance":6609,"refused":6610,"##ayed":6611,"motiv":6612,"suppl":6613,"diet":6614,"ment":6615,"resolution":6616,"iv":6617,"recorded":6618,"violent":6619,"##ography":6620,"affected":6621,"##ucing":6622,"label":6623,"forg":6624,"museum":6625,"regional":6626,"excell":6627,"wear":6628,"eval":6629,"95":6630,"bought":6631,"ron":6632,"##ointed":6633,"expressed":6634,"temp":6635,"guns":6636,"artist":6637,"accident":6638,"##ece":6639,"reporting":6640,"##osph":6641,"aftern":6642,"##ita":6643,"conducted":6644,"##12":6645,"drag":6646,"pointed":6647,"##word":6648,"matters":6649,"positions":6650,"dial":6651,"filled":6652,"initially":6653,"##gg":6654,"approved":6655,"hat":6656,"oly":6657,"##amb":6658,"amendment":6659,"les":6660,"bear":6661,"enh":6662,"expos":6663,"button":6664,"##otyp":6665,"concent":6666,"insist":6667,"##tered":6668,"##ersey":6669,"termin":6670,"apprec":6671,"##isher":6672,"ohio":6673,"02":6674,"passing":6675,"brows":6676,"ends":6677,"bowl":6678,"fash":6679,"collabor":6680,"weren":6681,"comed":6682,"59":6683,"broke":6684,"complic":6685,"involve":6686,"connected":6687,"identify":6688,"bureau":6689,"treated":6690,"remained":6691,"##ecution":6692,"suit":6693,"differences":6694,"branch":6695,"quiet":6696,"examples":6697,"remaining":6698,"session":6699,"reaction":6700,"##iber":6701,"trouble":6702,"scot":6703,"attach":6704,"leads":6705,"gon":6706,"experiment":6707,"welcome":6708,"colon":6709,"completed":6710,"dun":6711,"confidence":6712,"sharing":6713,"##30":6714,"squad":6715,"herself":6716,"grew":6717,"afternoon":6718,"ow":6719,"olymp":6720,"plants":6721,"concentr":6722,"opportunities":6723,"essentially":6724,"excited":6725,"resc":6726,"boss":6727,"pic":6728,"movies":6729,"explo":6730,"struggle":6731,"experienced":6732,"emphas":6733,"ocean":6734,"articles":6735,"##enth":6736,"##de":6737,"newslet":6738,"mun":6739,"sets":6740,"perman":6741,"extreme":6742,"coalition":6743,"warning":6744,"cow":6745,"entry":6746,"sharp":6747,"radical":6748,"numerous":6749,"##ena":6750,"rising":6751,"controlled":6752,"pure":6753,"input":6754,"depth":6755,"joint":6756,"communications":6757,"gaz":6758,"attempts":6759,"belong":6760,"reporters":6761,"edition":6762,"thoughts":6763,"craft":6764,"writ":6765,"crimes":6766,"ministry":6767,"historical":6768,"confident":6769,"##uous":6770,"terrorist":6771,"suspect":6772,"ire":6773,"memor":6774,"fashion":6775,"argued":6776,"elimin":6777,"illustr":6778,"pulled":6779,"datab":6780,"ba":6781,"hou":6782,"proud":6783,"frustr":6784,"hen":6785,"virtual":6786,"facts":6787,"05":6788,"updates":6789,"##reek":6790,"replace":6791,"##izz":6792,"faced":6793,"om":6794,"agents":6795,"motion":6796,"sov":6797,"readers":6798,"ride":6799,"evolution":6800,"##idden":6801,"dipl":6802,"shap":6803,"li":6804,"##etr":6805,"stan":6806,"contrast":6807,"##ket":6808,"seattle":6809,"emails":6810,"shel":6811,"hopes":6812,"driven":6813,"sanct":6814,"hu":6815,"jersey":6816,"unable":6817,"shr":6818,"loved":6819,"dismiss":6820,"links":6821,"imper":6822,"drivers":6823,"##othes":6824,"##oma":6825,"##ensions":6826,"pit":6827,"premier":6828,"alcohol":6829,"lg":6830,"##ura":6831,"chron":6832,"talked":6833,"##pped":6834,"output":6835,"mi":6836,"ordered":6837,"capable":6838,"##illing":6839,"playoff":6840,"##ruption":6841,"satisf":6842,"widely":6843,"materials":6844,"##gar":6845,"affairs":6846,"empt":6847,"predict":6848,"evil":6849,"storage":6850,"bodies":6851,"resident":6852,"04":6853,"stream":6854,"valley":6855,"muslims":6856,"messages":6857,"village":6858,"vent":6859,"##oking":6860,"##makers":6861,"admitted":6862,"femin":6863,"fuck":6864,"exercise":6865,"seed":6866,"opposed":6867,"cos":6868,"campus":6869,"##pted":6870,"anyway":6871,"doctors":6872,"wave":6873,"192":6874,"subsequ":6875,"perspective":6876,"substant":6877,"activists":6878,"tournament":6879,"institutions":6880,"marketing":6881,"##dp":6882,"advice":6883,"58":6884,"volume":6885,"talent":6886,"daniel":6887,"shouldn":6888,"faces":6889,"##âã":6890,"dc":6891,"##amin":6892,"writes":6893,"soviet":6894,"ancient":6895,"150":6896,"contem":6897,"gang":6898,"##illa":6899,"##ship":6900,"liqu":6901,"analyst":6902,"##abilities":6903,"denied":6904,"guid":6905,"##enda":6906,"captain":6907,"stands":6908,"sweet":6909,"inspired":6910,"stretch":6911,"improved":6912,"##lo":6913,"married":6914,"newspaper":6915,"decre":6916,"christmas":6917,"2002":6918,"chain":6919,"flood":6920,"##reh":6921,"anonym":6922,"journey":6923,"outr":6924,"brook":6925,"picked":6926,"aside":6927,"debut":6928,"legit":6929,"forum":6930,"restaurant":6931,"##otic":6932,"appropriate":6933,"ru":6934,"##enom":6935,"##known":6936,"friendly":6937,"afghanistan":6938,"airport":6939,"favour":6940,"saudi":6941,"expansion":6942,"customer":6943,"reportedly":6944,"objects":6945,"quarterback":6946,"ongoing":6947,"trigger":6948,"warm":6949,"terrorism":6950,"festival":6951,"declared":6952,"bike":6953,"pad":6954,"sacr":6955,"delivered":6956,"##ini":6957,"##bn":6958,"leaves":6959,"responded":6960,"injured":6961,"ariz":6962,"lawyer":6963,"##oul":6964,"tab":6965,"##rant":6966,"michigan":6967,"findings":6968,"experiences":6969,"fasc":6970,"distribut":6971,"##ek":6972,"gov":6973,"architect":6974,"confirm":6975,"kil":6976,"##ining":6977,"ukraine":6978,"flat":6979,"hide":6980,"wheel":6981,"mine":6982,"prep":6983,"neut":6984,"crazy":6985,"distribution":6986,"##atured":6987,"clar":6988,"yell":6989,"networks":6990,"doub":6991,"##iev":6992,"interpret":6993,"steel":6994,"thread":6995,"##ooth":6996,"statements":6997,"explains":6998,"entertainment":6999,"georg":7000,"assistant":7001,"aband":7002,"patri":7003,"contest":7004,"golden":7005,"contains":7006,"incor":7007,"roughly":7008,"essential":7009,"defined":7010,"circumst":7011,"investors":7012,"songs":7013,"practices":7014,"applied":7015,"mountain":7016,"cd":7017,"honor":7018,"columb":7019,"explan":7020,"##hab":7021,"buildings":7022,"##respond":7023,"consp":7024,"publicly":7025,"##ador":7026,"totally":7027,"guil":7028,"repr":7029,"suffered":7030,"romney":7031,"currency":7032,"03":7033,"##unte":7034,"##oman":7035,"##isters":7036,"fifth":7037,"coffee":7038,"dollar":7039,"##0000":7040,"wake":7041,"##icul":7042,"prohib":7043,"correspond":7044,"proof":7045,"effectively":7046,"tear":7047,"##iger":7048,"adam":7049,"declined":7050,"param":7051,"sir":7052,"desire":7053,"causes":7054,"util":7055,"volunte":7056,"finance":7057,"rally":7058,"swed":7059,"missed":7060,"##hr":7061,"injuries":7062,"champion":7063,"participants":7064,"franch":7065,"pu":7066,"desk":7067,"ireland":7068,"listed":7069,"patient":7070,"split":7071,"diplom":7072,"accom":7073,"acknowled":7074,"baseball":7075,"##âãâã":7076,"realize":7077,"unknown":7078,"wins":7079,"##ansas":7080,"##rd":7081,"merc":7082,"##ias":7083,"brazil":7084,"plane":7085,"##ternal":7086,"##ocket":7087,"iphone":7088,"increases":7089,"allegations":7090,"heads":7091,"symbol":7092,"fraud":7093,"knock":7094,"critics":7095,"suicide":7096,"offense":7097,"##arters":7098,"shots":7099,"fab":7100,"defence":7101,"coordin":7102,"##encing":7103,"ourselves":7104,"situ":7105,"raw":7106,"##athan":7107,"nba":7108,"tap":7109,"cere":7110,"remark":7111,"acting":7112,"fold":7113,"sym":7114,"shif":7115,"dad":7116,"accompl":7117,"##lying":7118,"sick":7119,"forest":7120,"accepted":7121,"trend":7122,"harv":7123,"waste":7124,"ble":7125,"watched":7126,"barack":7127,"adds":7128,"temperature":7129,"jews":7130,"regardless":7131,"returns":7132,"cycle":7133,"argue":7134,"3d":7135,"houston":7136,"expression":7137,"rig":7138,"chick":7139,"scheduled":7140,"height":7141,"knowing":7142,"scar":7143,"schedule":7144,"moves":7145,"classes":7146,"naz":7147,"##amental":7148,"phase":7149,"tiny":7150,"hardware":7151,"nasa":7152,"guilty":7153,"##16":7154,"##list":7155,"thinks":7156,"facility":7157,"meat":7158,"consistent":7159,"cruc":7160,"##ancing":7161,"tan":7162,"nearby":7163,"begins":7164,"strange":7165,"ts":7166,"##ns":7167,"buying":7168,"##ading":7169,"acts":7170,"basket":7171,"##what":7172,"performed":7173,"##laim":7174,"announcement":7175,"66":7176,"underst":7177,"##ionally":7178,"monit":7179,"consequences":7180,"deck":7181,"highlight":7182,"authors":7183,"promise":7184,"behavi":7185,"entered":7186,"treas":7187,"kevin":7188,"##ales":7189,"featured":7190,"tank":7191,"threats":7192,"kingdom":7193,"fantasy":7194,"##chester":7195,"pra":7196,"tort":7197,"gaming":7198,"suddenly":7199,"resistance":7200,"palestinian":7201,"62":7202,"si":7203,"ta":7204,"license":7205,"charles":7206,"household":7207,"serving":7208,"korean":7209,"constant":7210,"moments":7211,"pd":7212,"bench":7213,"unlik":7214,"disappear":7215,"surprised":7216,"##road":7217,"sister":7218,"deputy":7219,"stores":7220,"holly":7221,"necessarily":7222,"recon":7223,"mouth":7224,"warned":7225,"protests":7226,"younger":7227,"functions":7228,"existence":7229,"09":7230,"regulations":7231,"flu":7232,"sample":7233,"colorado":7234,"surveill":7235,"jesus":7236,"backed":7237,"receiving":7238,"somewhat":7239,"teachers":7240,"rape":7241,"discussed":7242,"winner":7243,"intention":7244,"follows":7245,"##burg":7246,"excellent":7247,"legend":7248,"inqu":7249,"battery":7250,"victor":7251,"grown":7252,"deaths":7253,"jr":7254,"multi":7255,"##taining":7256,"represents":7257,"artists":7258,"brings":7259,"##irty":7260,"asia":7261,"abortion":7262,"cheap":7263,"duty":7264,"85":7265,"08":7266,"##cs":7267,"manage":7268,"##bor":7269,"stood":7270,"##erves":7271,"engineering":7272,"isol":7273,"adults":7274,"pushed":7275,"adult":7276,"tay":7277,"eric":7278,"##abled":7279,"audio":7280,"communication":7281,"evol":7282,"unlikely":7283,"wage":7284,"putin":7285,"eating":7286,"lawsuit":7287,"literally":7288,"fewer":7289,"anywhere":7290,"lies":7291,"surveillance":7292,"bills":7293,"ske":7294,"liber":7295,"orders":7296,"plot":7297,"targets":7298,"sought":7299,"##15":7300,"##point":7301,"##usal":7302,"emotional":7303,"fairly":7304,"davis":7305,"sin":7306,"combination":7307,"personally":7308,"cia":7309,"promin":7310,"##fri":7311,"07":7312,"##overty":7313,"conclusion":7314,"##war":7315,"patch":7316,"##eas":7317,"chapter":7318,"comic":7319,"relevant":7320,"scored":7321,"musc":7322,"ax":7323,"importance":7324,"cruz":7325,"voc":7326,"##mates":7327,"cham":7328,"poverty":7329,"signal":7330,"ny":7331,"surg":7332,"fundamental":7333,"flying":7334,"theat":7335,"##har":7336,"succeed":7337,"brian":7338,"exhib":7339,"##acement":7340,"ell":7341,"signing":7342,"compos":7343,"root":7344,"##inet":7345,"html":7346,"##tle":7347,"heavily":7348,"##whel":7349,"agric":7350,"tall":7351,"jam":7352,"protesters":7353,"galax":7354,"##apping":7355,"myth":7356,"67":7357,"06":7358,"rar":7359,"upper":7360,"tea":7361,"gap":7362,"earned":7363,"##14":7364,"##mond":7365,"sustain":7366,"developer":7367,"spin":7368,"##place":7369,"ending":7370,"##aid":7371,"shares":7372,"##ours":7373,"immediate":7374,"disord":7375,"colleagues":7376,"versions":7377,"wound":7378,"alive":7379,"carrying":7380,"##rees":7381,"##pass":7382,"competitive":7383,"crypt":7384,"allegedly":7385,"catholic":7386,"holds":7387,"pled":7388,"poly":7389,"detailed":7390,"##han":7391,"format":7392,"approximately":7393,"##ko":7394,"72":7395,"##osphere":7396,"##acle":7397,"##uls":7398,"opponents":7399,"minim":7400,"ech":7401,"agricult":7402,"jord":7403,"opponent":7404,"embr":7405,"category":7406,"forth":7407,"replaced":7408,"bang":7409,"hoping":7410,"##mo":7411,"arizona":7412,"icon":7413,"alongside":7414,"sab":7415,"protected":7416,"mechanism":7417,"##ologist":7418,"scand":7419,"assembly":7420,"medicine":7421,"theme":7422,"opposite":7423,"##real":7424,"properties":7425,"buck":7426,"plug":7427,"suffering":7428,"harder":7429,"eld":7430,"agenda":7431,"sees":7432,"##aver":7433,"rating":7434,"awes":7435,"flav":7436,"##icts":7437,"flex":7438,"maximum":7439,"ly":7440,"functional":7441,"##uster":7442,"pushing":7443,"feat":7444,"dogs":7445,"##icing":7446,"##ll":7447,"cp":7448,"reward":7449,"unus":7450,"formed":7451,"immigrants":7452,"##roit":7453,"##nam":7454,"relationships":7455,"enr":7456,"assets":7457,"pleas":7458,"transm":7459,"shortly":7460,"##17":7461,"hey":7462,"pregn":7463,"hind":7464,"##ker":7465,"marc":7466,"az":7467,"extended":7468,"cutting":7469,"intent":7470,"##gor":7471,"rely":7472,"##xual":7473,"latter":7474,"##ala":7475,"rog":7476,"barr":7477,"frequently":7478,"selection":7479,"cannab":7480,"institution":7481,"blind":7482,"territory":7483,"##lands":7484,"closely":7485,"mit":7486,"vacc":7487,"miller":7488,"reporter":7489,"mainstream":7490,"manner":7491,"##employ":7492,"ingr":7493,"prospect":7494,"##oral":7495,"decline":7496,"63":7497,"refugees":7498,"controversial":7499,"fields":7500,"describe":7501,"fake":7502,"sentence":7503,"actor":7504,"##ockey":7505,"relative":7506,"##een":7507,"targeted":7508,"dress":7509,"tas":7510,"##urning":7511,"somehow":7512,"600":7513,"deeply":7514,"elite":7515,"passion":7516,"database":7517,"##iat":7518,"province":7519,"technologies":7520,"sorry":7521,"tested":7522,"selected":7523,"depending":7524,"##char":7525,"##here":7526,"lew":7527,"cable":7528,"pir":7529,"ticket":7530,"stephen":7531,"dedicated":7532,"teacher":7533,"directed":7534,"unemploy":7535,"conver":7536,"circumstances":7537,"coc":7538,"detroit":7539,"okay":7540,"tenn":7541,"empty":7542,"stack":7543,"bom":7544,"upcoming":7545,"extent":7546,"conscious":7547,"congressional":7548,"wilson":7549,"employment":7550,"arrang":7551,"subsid":7552,"##iques":7553,"solutions":7554,"causing":7555,"diagn":7556,"description":7557,"dealing":7558,"##ensus":7559,"referred":7560,"commitment":7561,"##elines":7562,"dry":7563,"salt":7564,"allies":7565,"truck":7566,"800":7567,"joy":7568,"medium":7569,"##hs":7570,"folks":7571,"estate":7572,"trading":7573,"noticed":7574,"requirements":7575,"journalists":7576,"reput":7577,"orient":7578,"usual":7579,"overwhel":7580,"intellect":7581,"sending":7582,"linux":7583,"comfortable":7584,"kinds":7585,"pacific":7586,"ty":7587,"stim":7588,"ted":7589,"##iences":7590,"typical":7591,"##ashed":7592,"repeatedly":7593,"struck":7594,"##ken":7595,"adapt":7596,"topic":7597,"conservatives":7598,"cha":7599,"phenom":7600,"attempted":7601,"encoun":7602,"subscribe":7603,"retire":7604,"definition":7605,"paral":7606,"empire":7607,"sight":7608,"escape":7609,"##eman":7610,"partnership":7611,"ic":7612,"awesome":7613,"approval":7614,"inher":7615,"##lv":7616,"punish":7617,"77":7618,"liver":7619,"##iami":7620,"##emies":7621,"handed":7622,"abd":7623,"##40":7624,"letters":7625,"##bel":7626,"blame":7627,"##nic":7628,"slowly":7629,"rab":7630,"enth":7631,"##fe":7632,"pilot":7633,"spell":7634,"limits":7635,"ford":7636,"##ati":7637,"rick":7638,"realized":7639,"ak":7640,"defeat":7641,"risks":7642,"universal":7643,"dall":7644,"scheme":7645,"somewhere":7646,"downtown":7647,"deleg":7648,"transportation":7649,"hidden":7650,"##agan":7651,"somebody":7652,"ven":7653,"walked":7654,"##under":7655,"##rid":7656,"sole":7657,"##ews":7658,"matches":7659,"josh":7660,"##exp":7661,"deals":7662,"##ache":7663,"kir":7664,"fel":7665,"locations":7666,"exciting":7667,"hollywood":7668,"effici":7669,"miami":7670,"recovery":7671,"navy":7672,"observed":7673,"##iveness":7674,"##night":7675,"##adel":7676,"##sey":7677,"ale":7678,"##inals":7679,"shell":7680,"mistake":7681,"weird":7682,"clock":7683,"76":7684,"kelly":7685,"##water":7686,"##awa":7687,"brothers":7688,"jordan":7689,"shadow":7690,"soul":7691,"##oked":7692,"surrounding":7693,"ros":7694,"bath":7695,"##ulf":7696,"promised":7697,"assert":7698,"zeal":7699,"raising":7700,"distinct":7701,"polls":7702,"##otes":7703,"italy":7704,"employee":7705,"##uable":7706,"spanish":7707,"##osis":7708,"falling":7709,"worker":7710,"##pa":7711,"hook":7712,"advertising":7713,"requests":7714,"statistics":7715,"##aled":7716,"cooper":7717,"georgia":7718,"bunch":7719,"som":7720,"likes":7721,"independence":7722,"elsewhere":7723,"hits":7724,"destroyed":7725,"mixed":7726,"promote":7727,"trees":7728,"grav":7729,"manufactur":7730,"democrat":7731,"anx":7732,"worldwide":7733,"##enger":7734,"##orted":7735,"comparison":7736,"puts":7737,"transpar":7738,"payment":7739,"supports":7740,"myst":7741,"irish":7742,"tony":7743,"##view":7744,"impressive":7745,"decent":7746,"250":7747,"properly":7748,"arguments":7749,"fighters":7750,"franchise":7751,"asian":7752,"angry":7753,"adopt":7754,"electr":7755,"ideal":7756,"equival":7757,"turk":7758,"##13":7759,"##ded":7760,"oak":7761,"##ien":7762,"##sl":7763,"##gas":7764,"auto":7765,"##ingu":7766,"speaker":7767,"scenes":7768,"academy":7769,"disag":7770,"goods":7771,"##pping":7772,"odd":7773,"attacked":7774,"eb":7775,"yellow":7776,"disney":7777,"regions":7778,"##itarian":7779,"judg":7780,"electronic":7781,"minority":7782,"desper":7783,"bin":7784,"sr":7785,"involving":7786,"merely":7787,"strongly":7788,"oblig":7789,"founded":7790,"withdr":7791,"##actions":7792,"harass":7793,"mas":7794,"hay":7795,"queen":7796,"writers":7797,"progressive":7798,"fees":7799,"parking":7800,"programming":7801,"assume":7802,"##pe":7803,"representative":7804,"joseph":7805,"arts":7806,"exposed":7807,"ga":7808,"redd":7809,"##ja":7810,"nomine":7811,"thor":7812,"##pool":7813,"worried":7814,"fo":7815,"facilities":7816,"courts":7817,"satell":7818,"granted":7819,"##oration":7820,"houses":7821,"drawn":7822,"##anes":7823,"ultimate":7824,"##osing":7825,"officially":7826,"##ensity":7827,"reasonable":7828,"paint":7829,"##iants":7830,"##owed":7831,"0x":7832,"##ua":7833,"moore":7834,"alliance":7835,"##win":7836,"recognize":7837,"##rey":7838,"68":7839,"69":7840,"1999":7841,"conspir":7842,"##18":7843,"robot":7844,"hockey":7845,"chose":7846,"understood":7847,"##apse":7848,"nbc":7849,"##west":7850,"comprom":7851,"assistance":7852,"electricity":7853,"jur":7854,"loan":7855,"##engers":7856,"innoc":7857,"##inations":7858,"bug":7859,"spark":7860,"##lad":7861,"mirr":7862,"neutral":7863,"##sters":7864,"payments":7865,"drew":7866,"##enders":7867,"meetings":7868,"components":7869,"barb":7870,"answers":7871,"permanent":7872,"enterpr":7873,"emissions":7874,"chosen":7875,"blow":7876,"condem":7877,"tower":7878,"reserve":7879,"tel":7880,"incredible":7881,"corruption":7882,"##dd":7883,"##bling":7884,"initiative":7885,"grass":7886,"nhl":7887,"lights":7888,"stronger":7889,"continuing":7890,"sid":7891,"informed":7892,"dod":7893,"sev":7894,"lev":7895,"academic":7896,"drinking":7897,"tip":7898,"sessions":7899,"##illed":7900,"74":7901,"##emen":7902,"##xx":7903,"estimates":7904,"thin":7905,"rival":7906,"rent":7907,"counsel":7908,"organized":7909,"enemies":7910,"shield":7911,"##born":7912,"mile":7913,"##uzz":7914,"feedback":7915,"encourage":7916,"##standing":7917,"robin":7918,"therap":7919,"ott":7920,"dozen":7921,"##ora":7922,"punch":7923,"##19":7924,"obtained":7925,"returning":7926,"veteran":7927,"ads":7928,"##iment":7929,"marsh":7930,"severe":7931,"dallas":7932,"73":7933,"lawyers":7934,"historic":7935,"##acted":7936,"primarily":7937,"pump":7938,"registered":7939,"##eller":7940,"ties":7941,"controls":7942,"italian":7943,"gate":7944,"taylor":7945,"minnes":7946,"representatives":7947,"manip":7948,"##25":7949,"roman":7950,"claiming":7951,"scotland":7952,"finds":7953,"sugar":7954,"producer":7955,"##uts":7956,"terrible":7957,"machines":7958,"hopefully":7959,"cod":7960,"##ups":7961,"overl":7962,"ultr":7963,"##friend":7964,"plastic":7965,"cannabis":7966,"tickets":7967,"habit":7968,"capture":7969,"gotten":7970,"soph":7971,"lgbt":7972,"choices":7973,"excess":7974,"confront":7975,"hub":7976,"narrative":7977,"aggressive":7978,"exclusive":7979,"browser":7980,"ruled":7981,"racial":7982,"generated":7983,"funny":7984,"##era":7985,"##care":7986,"citizen":7987,"dish":7988,"enable":7989,"mosc":7990,"stead":7991,"basketball":7992,"discovery":7993,"soccer":7994,"spain":7995,"lawmakers":7996,"explore":7997,"##gb":7998,"fu":7999,"threatened":8000,"elev":8001,"incredibly":8002,"purposes":8003,"captured":8004,"chart":8005,"unn":8006,"hole":8007,"alien":8008,"jac":8009,"perfectly":8010,"info":8011,"galaxy":8012,"jason":8013,"establishment":8014,"implic":8015,"tied":8016,"anticip":8017,"forec":8018,"array":8019,"##alf":8020,"##ographic":8021,"##pan":8022,"horse":8023,"##uits":8024,"teaching":8025,"##owa":8026,"seats":8027,"##iform":8028,"perp":8029,"##fall":8030,"##stone":8031,"stuck":8032,"##ilit":8033,"ker":8034,"mm":8035,"chances":8036,"aspects":8037,"compens":8038,"##illy":8039,"pace":8040,"clients":8041,"constantly":8042,"##icks":8043,"matth":8044,"##rum":8045,"twenty":8046,"78":8047,"anger":8048,"enthus":8049,"rejected":8050,"funded":8051,"minnesota":8052,"##woman":8053,"fiction":8054,"tail":8055,"headed":8056,"outcome":8057,"##ties":8058,"##repr":8059,"##vey":8060,"##intend":8061,"disaster":8062,"balt":8063,"avenue":8064,"taste":8065,"newly":8066,"recording":8067,"pill":8068,"contributed":8069,"wine":8070,"amounts":8071,"orange":8072,"##mann":8073,"api":8074,"dust":8075,"oreg":8076,"diam":8077,"extension":8078,"apartment":8079,"97":8080,"brut":8081,"##ikes":8082,"compreh":8083,"##inated":8084,"exists":8085,"oregon":8086,"consumption":8087,"dict":8088,"warri":8089,"##60":8090,"##oming":8091,"##weight":8092,"pent":8093,"stem":8094,"sympt":8095,"generate":8096,"wrest":8097,"keeps":8098,"occur":8099,"affil":8100,"warming":8101,"cig":8102,"yard":8103,"penalty":8104,"regularly":8105,"veget":8106,"thick":8107,"dna":8108,"anymore":8109,"dozens":8110,"stab":8111,"##edia":8112,"moscow":8113,"blocks":8114,"crucial":8115,"represented":8116,"accel":8117,"accurate":8118,"resulting":8119,"accomp":8120,"component":8121,"principles":8122,"abc":8123,"relief":8124,"##ella":8125,"strategic":8126,"holy":8127,"references":8128,"prize":8129,"explanation":8130,"privile":8131,"atmosphere":8132,"gift":8133,"ib":8134,"wis":8135,"pok":8136,"##met":8137,"##rimination":8138,"bron":8139,"sum":8140,"cyber":8141,"fred":8142,"philosophy":8143,"nar":8144,"constitutional":8145,"grade":8146,"installed":8147,"##bles":8148,"recip":8149,"remote":8150,"##ayers":8151,"roster":8152,"##raid":8153,"plate":8154,"exposure":8155,"interface":8156,"##can":8157,"weekly":8158,"##iana":8159,"##cher":8160,"catal":8161,"phr":8162,"normally":8163,"vr":8164,"demands":8165,"maps":8166,"situations":8167,"personnel":8168,"everywhere":8169,"navig":8170,"va":8171,"discip":8172,"propag":8173,"lu":8174,"henry":8175,"theor":8176,"kl":8177,"unw":8178,"ont":8179,"loud":8180,"kent":8181,"##pg":8182,"concluded":8183,"lady":8184,"depression":8185,"surgery":8186,"complaint":8187,"sheriff":8188,"efficient":8189,"##boy":8190,"legacy":8191,"thousand":8192,"bor":8193,"mainly":8194,"clark":8195,"##inity":8196,"priority":8197,"forever":8198,"discrimination":8199,"hash":8200,"kat":8201,"outs":8202,"simpl":8203,"##onn":8204,"techniques":8205,"iowa":8206,"scoring":8207,"tracks":8208,"manufacturing":8209,"##isan":8210,"##inem":8211,"88":8212,"operate":8213,"liquid":8214,"##adelph":8215,"titles":8216,"toler":8217,"marvel":8218,"defic":8219,"wolf":8220,"strip":8221,"wisc":8222,"delivery":8223,"affordable":8224,"uncert":8225,"##uration":8226,"settings":8227,"##pro":8228,"degrees":8229,"##rect":8230,"complicated":8231,"milk":8232,"proved":8233,"premium":8234,"##eland":8235,"##32":8236,"strict":8237,"fisc":8238,"philadelph":8239,"taxp":8240,"gig":8241,"falls":8242,"##elle":8243,"taught":8244,"greek":8245,"harry":8246,"marked":8247,"investigators":8248,"farmers":8249,"sty":8250,"peak":8251,"engage":8252,"processing":8253,"##top":8254,"##eld":8255,"1998":8256,"aer":8257,"ml":8258,"valuable":8259,"cbs":8260,"fee":8261,"survive":8262,"successfully":8263,"reduction":8264,"##va":8265,"monitor":8266,"automatically":8267,"79":8268,"nc":8269,"equivalent":8270,"comics":8271,"collected":8272,"factory":8273,"alab":8274,"vulnerable":8275,"arc":8276,"viet":8277,"philadelphia":8278,"engaged":8279,"solve":8280,"reaching":8281,"##onsin":8282,"external":8283,"similarly":8284,"lt":8285,"inch":8286,"##lers":8287,"rs":8288,"##ressed":8289,"lane":8290,"drawing":8291,"uncom":8292,"comedy":8293,"##lights":8294,"##greg":8295,"nich":8296,"wisconsin":8297,"possession":8298,"phones":8299,"prince":8300,"steam":8301,"marine":8302,"stup":8303,"afraid":8304,"busy":8305,"prominent":8306,"##ules":8307,"##ecks":8308,"manchester":8309,"##fr":8310,"anton":8311,"reputation":8312,"dance":8313,"garden":8314,"##asp":8315,"patterns":8316,"##itar":8317,"lean":8318,"##mad":8319,"##astr":8320,"##fs":8321,"yield":8322,"mini":8323,"inev":8324,"190":8325,"gross":8326,"passes":8327,"stun":8328,"awards":8329,"negotiations":8330,"visited":8331,"entit":8332,"##agram":8333,"reviews":8334,"dinner":8335,"lyn":8336,"aimed":8337,"displ":8338,"##uated":8339,"apolog":8340,"##olit":8341,"attended":8342,"strikes":8343,"implementation":8344,"transg":8345,"chat":8346,"##acks":8347,"sanctions":8348,"finger":8349,"intellectual":8350,"uniform":8351,"fought":8352,"##etch":8353,"resource":8354,"eag":8355,"smooth":8356,"rav":8357,"introduction":8358,"perce":8359,"veterans":8360,"##esy":8361,"invent":8362,"sus":8363,"wonderful":8364,"weigh":8365,"albert":8366,"tomorrow":8367,"rarely":8368,"explicit":8369,"##64":8370,"unusual":8371,"greg":8372,"framework":8373,"ranked":8374,"welf":8375,"scenario":8376,"jay":8377,"rook":8378,"##ulating":8379,"grid":8380,"contracts":8381,"principle":8382,"##etime":8383,"rif":8384,"vert":8385,"reddit":8386,"##thy":8387,"lind":8388,"##gorith":8389,"loyal":8390,"cited":8391,"##che":8392,"pounds":8393,"ghost":8394,"processes":8395,"delay":8396,"doors":8397,"fc":8398,"producing":8399,"computers":8400,"circuit":8401,"holiday":8402,"welfare":8403,"whenever":8404,"algorith":8405,"visible":8406,"reader":8407,"expectations":8408,"chees":8409,"stations":8410,"##itals":8411,"84":8412,"##idency":8413,"alph":8414,"km":8415,"dragon":8416,"destruction":8417,"clubs":8418,"arsen":8419,"700":8420,"stable":8421,"circle":8422,"define":8423,"2019":8424,"permission":8425,"ko":8426,"vital":8427,"boot":8428,"cameras":8429,"liberty":8430,"enjoyed":8431,"##eda":8432,"episodes":8433,"bind":8434,"feelings":8435,"abb":8436,"alabama":8437,"compete":8438,"pig":8439,"exception":8440,"journalist":8441,"saved":8442,"racist":8443,"enorm":8444,"atlanta":8445,"retired":8446,"innovation":8447,"chip":8448,"menu":8449,"creates":8450,"genu":8451,"##bal":8452,"##ibilities":8453,"87":8454,"hitting":8455,"guardian":8456,"presum":8457,"adopted":8458,"racing":8459,"##sea":8460,"portion":8461,"breath":8462,"##eries":8463,"shit":8464,"82":8465,"emerged":8466,"aspect":8467,"regulation":8468,"sensitive":8469,"##lyn":8470,"120":8471,"##iration":8472,"##otted":8473,"bernie":8474,"mars":8475,"formal":8476,"apparent":8477,"screens":8478,"espn":8479,"laid":8480,"physic":8481,"bloom":8482,"warrant":8483,"losses":8484,"entering":8485,"qa":8486,"exem":8487,"containing":8488,"newsletter":8489,"landsc":8490,"ethnic":8491,"describes":8492,"firms":8493,"ka":8494,"resulted":8495,"cs":8496,"##stit":8497,"##areness":8498,"ingred":8499,"invas":8500,"rice":8501,"footage":8502,"turkish":8503,"walls":8504,"reven":8505,"exit":8506,"amid":8507,"arena":8508,"transit":8509,"hadn":8510,"profession":8511,"##lec":8512,"dynamic":8513,"alert":8514,"rend":8515,"##sole":8516,"ai":8517,"##ashing":8518,"bund":8519,"gent":8520,"roy":8521,"##ifications":8522,"fiscal":8523,"scholars":8524,"awareness":8525,"ships":8526,"liked":8527,"horror":8528,"bub":8529,"zealand":8530,"iii":8531,"smoke":8532,"transgender":8533,"##entic":8534,"collective":8535,"protocol":8536,"banned":8537,"gif":8538,"ward":8539,"anthony":8540,"guest":8541,"participate":8542,"commander":8543,"##athy":8544,"fighter":8545,"quote":8546,"languages":8547,"minds":8548,"##lete":8549,"licens":8550,"patrick":8551,"trem":8552,"##ector":8553,"obam":8554,"withdraw":8555,"bail":8556,"outl":8557,"interviews":8558,"contained":8559,"papers":8560,"##olis":8561,"gained":8562,"logic":8563,"featuring":8564,"rocket":8565,"shirt":8566,"lobby":8567,"1996":8568,"trained":8569,"superv":8570,"naturally":8571,"mining":8572,"walker":8573,"flaw":8574,"cogn":8575,"listening":8576,"##ifies":8577,"lucky":8578,"waters":8579,"recognition":8580,"ufc":8581,"##ci":8582,"boat":8583,"terrorists":8584,"nato":8585,"lux":8586,"saving":8587,"##ni":8588,"gp":8589,"anonymous":8590,"noise":8591,"rural":8592,"##antic":8593,"roles":8594,"recognized":8595,"gonna":8596,"recommended":8597,"##uctive":8598,"tackle":8599,"layer":8600,"rescue":8601,"##ilton":8602,"distur":8603,"##ivals":8604,"uncertain":8605,"feb":8606,"declar":8607,"struggling":8608,"phenomen":8609,"inner":8610,"barely":8611,"hurr":8612,"kitch":8613,"##thr":8614,"diversity":8615,"1997":8616,"inquir":8617,"stupid":8618,"##osexual":8619,"ft":8620,"marg":8621,"conspiracy":8622,"headqu":8623,"equally":8624,"mccain":8625,"prepare":8626,"scan":8627,"wides":8628,"corporations":8629,"##agger":8630,"technique":8631,"kansas":8632,"centers":8633,"##aham":8634,"beliefs":8635,"crown":8636,"behalf":8637,"santa":8638,"pier":8639,"diego":8640,"lists":8641,"##auc":8642,"reducing":8643,"##ji":8644,"incent":8645,"98":8646,"proven":8647,"console":8648,"movements":8649,"narrow":8650,"porn":8651,"collapse":8652,"##aska":8653,"##val":8654,"neck":8655,"austin":8656,"##wa":8657,"anybody":8658,"till":8659,"cm":8660,"horiz":8661,"practical":8662,"##fit":8663,"tonight":8664,"elig":8665,"dol":8666,"fantastic":8667,"drum":8668,"##imore":8669,"92":8670,"frag":8671,"hung":8672,"christians":8673,"hired":8674,"settlement":8675,"##rete":8676,"latin":8677,"roads":8678,"##berry":8679,"##umin":8680,"##pread":8681,"structures":8682,"missile":8683,"##burgh":8684,"sams":8685,"unemployment":8686,"inject":8687,"89":8688,"registr":8689,"alter":8690,"83":8691,"casual":8692,"86":8693,"ross":8694,"cigar":8695,"fruit":8696,"reprod":8697,"equality":8698,"brill":8699,"##anny":8700,"joining":8701,"swim":8702,"##king":8703,"##fire":8704,"indicate":8705,"challenging":8706,"nominee":8707,"viewers":8708,"##person":8709,"conven":8710,"visitors":8711,"hardly":8712,"##azz":8713,"opens":8714,"achieved":8715,"##chain":8716,"beauty":8717,"##ico":8718,"xbox":8719,"##igen":8720,"upgrade":8721,"scandal":8722,"cav":8723,"versus":8724,"bonus":8725,"forgot":8726,"foss":8727,"illness":8728,"allen":8729,"##donald":8730,"revel":8731,"suffer":8732,"password":8733,"improvement":8734,"marks":8735,"tone":8736,"restrictions":8737,"nsa":8738,"corporation":8739,"##icial":8740,"##the":8741,"##acare":8742,"devast":8743,"upset":8744,"##oen":8745,"domain":8746,"temporary":8747,"cu":8748,"genes":8749,"appoint":8750,"blocked":8751,"scores":8752,"##estr":8753,"##asters":8754,"depos":8755,"widespread":8756,"convicted":8757,"jury":8758,"whereas":8759,"improvements":8760,"spiritual":8761,"##erts":8762,"hunt":8763,"mitch":8764,"dave":8765,"cameron":8766,"convin":8767,"##oric":8768,"##ami":8769,"websites":8770,"referring":8771,"ownership":8772,"##orse":8773,"dick":8774,"plain":8775,"manif":8776,"courtesy":8777,"rational":8778,"failing":8779,"gray":8780,"61":8781,"##etts":8782,"vanc":8783,"heroes":8784,"authentic":8785,"lun":8786,"subjects":8787,"##opher":8788,"subur":8789,"##sylv":8790,"sed":8791,"chicken":8792,"bears":8793,"surf":8794,"settle":8795,"humanity":8796,"interior":8797,"obamacare":8798,"economics":8799,"commissioner":8800,"heading":8801,"campaigns":8802,"pennsylv":8803,"spaces":8804,"genetic":8805,"##uch":8806,"meg":8807,"carefully":8808,"##iner":8809,"##agement":8810,"blank":8811,"overwhelming":8812,"firef":8813,"parad":8814,"fortun":8815,"##aire":8816,"contribute":8817,"connections":8818,"uncon":8819,"advocates":8820,"burning":8821,"personality":8822,"intervention":8823,"ridicul":8824,"dece":8825,"asks":8826,"assad":8827,"publication":8828,"##24":8829,"monster":8830,"sony":8831,"baltimore":8832,"##life":8833,"budd":8834,"javas":8835,"suggesting":8836,"ignore":8837,"cream":8838,"tracking":8839,"incorpor":8840,"##endum":8841,"jenn":8842,"mathem":8843,"tips":8844,"complaints":8845,"lunch":8846,"##ologists":8847,"surely":8848,"indicated":8849,"drama":8850,"rapidly":8851,"behaviour":8852,"1995":8853,"intense":8854,"aged":8855,"stol":8856,"ios":8857,"ups":8858,"pix":8859,"nin":8860,"assass":8861,"controversy":8862,"##pi":8863,"rolling":8864,"echo":8865,"vary":8866,"anderson":8867,"fears":8868,"##phones":8869,"swing":8870,"lets":8871,"chamber":8872,"##isa":8873,"##esc":8874,"##veland":8875,"pocket":8876,"begun":8877,"fallen":8878,"musical":8879,"actors":8880,"gut":8881,"fault":8882,"dal":8883,"philipp":8884,"20th":8885,"colors":8886,"hip":8887,"closing":8888,"voter":8889,"##ouver":8890,"symptoms":8891,"dj":8892,"tes":8893,"pennsylvania":8894,"##ials":8895,"samples":8896,"globe":8897,"javascript":8898,"##iler":8899,"haz":8900,"notion":8901,"cleveland":8902,"exceed":8903,"##ogan":8904,"##ho":8905,"activist":8906,"wages":8907,"##uild":8908,"assessment":8909,"##70":8910,"topics":8911,"##nc":8912,"samsung":8913,"bars":8914,"testim":8915,"##bled":8916,"tasks":8917,"throwing":8918,"temple":8919,"##oning":8920,"keys":8921,"pound":8922,"cabinet":8923,"lewis":8924,"adventure":8925,"portr":8926,"ages":8927,"ramp":8928,"dump":8929,"guitar":8930,"superior":8931,"unclear":8932,"1990s":8933,"spo":8934,"islands":8935,"absolute":8936,"attacking":8937,"glad":8938,"##wan":8939,"deeper":8940,"blast":8941,"##ested":8942,"imperial":8943,"coaches":8944,"involvement":8945,"persist":8946,"overt":8947,"iranian":8948,"vancouver":8949,"harris":8950,"tut":8951,"##iating":8952,"summit":8953,"butter":8954,"besides":8955,"##ounting":8956,"##hal":8957,"##east":8958,"performing":8959,"pul":8960,"prosecutors":8961,"93":8962,"thrown":8963,"accompan":8964,"kenned":8965,"stake":8966,"convinced":8967,"##eds":8968,"ruby":8969,"literature":8970,"investigate":8971,"serves":8972,"touchdown":8973,"virtually":8974,"paralle":8975,"canc":8976,"arabia":8977,"##iser":8978,"toy":8979,"##udes":8980,"##itors":8981,"howard":8982,"salary":8983,"greece":8984,"##thon":8985,"cul":8986,"##ounced":8987,"profits":8988,"##achus":8989,"fulf":8990,"legitimate":8991,"legs":8992,"##ima":8993,"rear":8994,"lam":8995,"wash":8996,"extensive":8997,"expanded":8998,"surviv":8999,"respectively":9000,"hd":9001,"impl":9002,"##ione":9003,"ambass":9004,"inflation":9005,"foods":9006,"gallery":9007,"invited":9008,"vegas":9009,"cryst":9010,"powered":9011,"discussions":9012,"pride":9013,"implemented":9014,"96":9015,"94":9016,"buzz":9017,"##see":9018,"##emon":9019,"pink":9020,"horn":9021,"annivers":9022,"threatening":9023,"survival":9024,"platforms":9025,"##riers":9026,"accus":9027,"extend":9028,"columbia":9029,"##py":9030,"justin":9031,"attempting":9032,"estimate":9033,"attached":9034,"chel":9035,"arsenal":9036,"exclud":9037,"opinions":9038,"dramatic":9039,"##ycle":9040,"racism":9041,"##acon":9042,"loans":9043,"compare":9044,"judges":9045,"lying":9046,"##mate":9047,"##berts":9048,"efficiency":9049,"skept":9050,"1994":9051,"vib":9052,"kitchen":9053,"kennedy":9054,"senators":9055,"##fa":9056,"monthly":9057,"gaza":9058,"substantial":9059,"##arrass":9060,"hydr":9061,"jar":9062,"illin":9063,"gt":9064,"pel":9065,"remarks":9066,"embarrass":9067,"shoulder":9068,"artific":9069,"protein":9070,"healthcare":9071,"monitoring":9072,"highlights":9073,"##bar":9074,"pour":9075,"races":9076,"tie":9077,"bread":9078,"homeless":9079,"elder":9080,"tens":9081,"giants":9082,"##ulus":9083,"mood":9084,"scope":9085,"tri":9086,"highway":9087,"1st":9088,"usage":9089,"massachus":9090,"petition":9091,"civilians":9092,"##lessly":9093,"js":9094,"##99":9095,"distributed":9096,"junior":9097,"massachusetts":9098,"providers":9099,"viewed":9100,"ss":9101,"shout":9102,"gathered":9103,"leaf":9104,"##ika":9105,"2nd":9106,"##net":9107,"handling":9108,"ballot":9109,"enormous":9110,"1980s":9111,"sarah":9112,"appointed":9113,"fool":9114,"hug":9115,"seemingly":9116,"anniversary":9117,"##season":9118,"lowest":9119,"virus":9120,"suspected":9121,"loop":9122,"disrupt":9123,"##ihad":9124,"toxic":9125,"mock":9126,"spoken":9127,"corp":9128,"instrument":9129,"nam":9130,"purchased":9131,"tweeted":9132,"programme":9133,"boom":9134,"noting":9135,"handful":9136,"subsequent":9137,"##alid":9138,"headquarters":9139,"protecting":9140,"beta":9141,"hyper":9142,"filter":9143,"gor":9144,"grounds":9145,"##eding":9146,"whis":9147,"forb":9148,"afp":9149,"secondary":9150,"covers":9151,"careful":9152,"smoking":9153,"suspended":9154,"mt":9155,"investigating":9156,"bacter":9157,"referendum":9158,"industries":9159,"reads":9160,"atlantic":9161,"ast":9162,"offices":9163,"illinois":9164,"colour":9165,"myster":9166,"obtain":9167,"admit":9168,"ark":9169,"presidency":9170,"##rets":9171,"membership":9172,"abstr":9173,"##lu":9174,"denver":9175,"mrs":9176,"vel":9177,"improving":9178,"hob":9179,"pharm":9180,"formula":9181,"module":9182,"sword":9183,"##ucky":9184,"clothes":9185,"satellite":9186,"ordinary":9187,"shopping":9188,"rookie":9189,"locked":9190,"attitude":9191,"speaks":9192,"pipeline":9193,"fate":9194,"cinem":9195,"pdf":9196,"##away":9197,"frequency":9198,"cock":9199,"symp":9200,"##ito":9201,"revol":9202,"1990":9203,"conversations":9204,"universities":9205,"mexican":9206,"belt":9207,"depends":9208,"##lah":9209,"bold":9210,"absence":9211,"gains":9212,"resign":9213,"contributions":9214,"replacement":9215,"birds":9216,"blockchain":9217,"synth":9218,"jonathan":9219,"##hd":9220,"##mar":9221,"export":9222,"checks":9223,"preced":9224,"##ington":9225,"picks":9226,"banking":9227,"margin":9228,"##aze":9229,"shame":9230,"coin":9231,"silence":9232,"iraqi":9233,"ou":9234,"enterprise":9235,"legislative":9236,"guarantee":9237,"vin":9238,"##usted":9239,"repeal":9240,"portland":9241,"joke":9242,"desert":9243,"kiss":9244,"acid":9245,"divided":9246,"nintend":9247,"epic":9248,"bullet":9249,"passengers":9250,"hurric":9251,"surge":9252,"publishing":9253,"gene":9254,"##losure":9255,"scientist":9256,"twist":9257,"templ":9258,"architecture":9259,"objective":9260,"##jo":9261,"consistently":9262,"##itage":9263,"covering":9264,"ratio":9265,"liberals":9266,"##ommod":9267,"mol":9268,"##umes":9269,"dv":9270,"##vere":9271,"breach":9272,"encry":9273,"involves":9274,"warn":9275,"butt":9276,"promises":9277,"prol":9278,"clinical":9279,"stayed":9280,"##lar":9281,"utah":9282,"encounter":9283,"##uma":9284,"##ila":9285,"accommod":9286,"incidents":9287,"landing":9288,"ug":9289,"bible":9290,"soil":9291,"tier":9292,"liverpool":9293,"cru":9294,"##otype":9295,"alexander":9296,"unions":9297,"mall":9298,"##aron":9299,"nintendo":9300,"carl":9301,"##xit":9302,"addressed":9303,"##ystem":9304,"autonom":9305,"micro":9306,"##acc":9307,"por":9308,"##zy":9309,"rhet":9310,"##iang":9311,"acquired":9312,"transactions":9313,"uber":9314,"entrepr":9315,"smile":9316,"stolen":9317,"tries":9318,"prox":9319,"java":9320,"cooperation":9321,"mistakes":9322,"responses":9323,"conventional":9324,"repeat":9325,"abandoned":9326,"instructions":9327,"vig":9328,"temperatures":9329,"kit":9330,"indiana":9331,"persons":9332,"dw":9333,"absor":9334,"node":9335,"vit":9336,"gord":9337,"jet":9338,"##iy":9339,"receiver":9340,"communist":9341,"null":9342,"disorder":9343,"##othing":9344,"entreprene":9345,"lever":9346,"breaks":9347,"encouraged":9348,"appreciate":9349,"##inely":9350,"ranks":9351,"dates":9352,"recipe":9353,"##oop":9354,"mask":9355,"roberts":9356,"managing":9357,"graduate":9358,"graphics":9359,"moreover":9360,"proph":9361,"documentary":9362,"repair":9363,"investigations":9364,"dear":9365,"spokesperson":9366,"borders":9367,"desc":9368,"politically":9369,"assign":9370,"##flix":9371,"helpful":9372,"revolutionary":9373,"commonly":9374,"cosm":9375,"roof":9376,"1992":9377,"rug":9378,"mans":9379,"metro":9380,"engineers":9381,"pope":9382,"unr":9383,"ranking":9384,"##ifer":9385,"##osc":9386,"reverse":9387,"sean":9388,"beij":9389,"nutr":9390,"employed":9391,"tape":9392,"kong":9393,"producers":9394,"instant":9395,"inequ":9396,"##ira":9397,"##ql":9398,"appe":9399,"chest":9400,"jere":9401,"gab":9402,"childhood":9403,"ratings":9404,"andre":9405,"sufficient":9406,"organic":9407,"snap":9408,"retirement":9409,"uc":9410,"poison":9411,"deficit":9412,"measured":9413,"##65":9414,"beijing":9415,"osc":9416,"compat":9417,"copies":9418,"##erce":9419,"netflix":9420,"sweden":9421,"accomplish":9422,"letting":9423,"counts":9424,"##ester":9425,"visiting":9426,"steven":9427,"sixth":9428,"ontario":9429,"##alo":9430,"merch":9431,"pron":9432,"upload":9433,"fisher":9434,"priest":9435,"cheese":9436,"corps":9437,"brilliant":9438,"##front":9439,"##angel":9440,"eliz":9441,"##col":9442,"threw":9443,"jihad":9444,"diverse":9445,"municip":9446,"##wich":9447,"sequence":9448,"warren":9449,"landscape":9450,"streaming":9451,"hamp":9452,"supplies":9453,"reliable":9454,"##cy":9455,"targeting":9456,"releases":9457,"irr":9458,"representing":9459,"graham":9460,"syd":9461,"vet":9462,"han":9463,"71":9464,"comprehensive":9465,"gulf":9466,"stages":9467,"fleet":9468,"##22":9469,"oklah":9470,"dreams":9471,"tactics":9472,"classified":9473,"deadly":9474,"prompt":9475,"cher":9476,"concert":9477,"replic":9478,"underground":9479,"monet":9480,"##eb":9481,"edward":9482,"##anna":9483,"gathering":9484,"##abeth":9485,"ignored":9486,"kurd":9487,"batman":9488,"aqu":9489,"acknowledged":9490,"unexp":9491,"##ched":9492,"concrete":9493,"anxiety":9494,"sd":9495,"semi":9496,"##ieties":9497,"vari":9498,"hunting":9499,"##mes":9500,"firing":9501,"scroll":9502,"capitalism":9503,"dutch":9504,"1993":9505,"cancel":9506,"proposals":9507,"chelsea":9508,"nomination":9509,"url":9510,"towns":9511,"associate":9512,"fing":9513,"odds":9514,"studied":9515,"savings":9516,"##iano":9517,"##mun":9518,"electoral":9519,"##uted":9520,"principal":9521,"chocol":9522,"##bits":9523,"capit":9524,"voices":9525,"prisoners":9526,"stability":9527,"##gun":9528,"heritage":9529,"provision":9530,"##hy":9531,"statist":9532,"titled":9533,"demonstrated":9534,"recre":9535,"incomp":9536,"dies":9537,"python":9538,"theater":9539,"appearances":9540,"capabilities":9541,"##agu":9542,"bruce":9543,"swift":9544,"submitted":9545,"correl":9546,"shipping":9547,"kings":9548,"gary":9549,"restaurants":9550,"dual":9551,"relax":9552,"mystery":9553,"innocent":9554,"stats":9555,"puzz":9556,"spectrum":9557,"##tes":9558,"arrive":9559,"ay":9560,"memo":9561,"importantly":9562,"propaganda":9563,"soldier":9564,"channels":9565,"hamilton":9566,"engineer":9567,"exchang":9568,"abroad":9569,"waves":9570,"##000":9571,"unt":9572,"sel":9573,"drone":9574,"nev":9575,"playoffs":9576,"oklahoma":9577,"parks":9578,"unexpected":9579,"alloc":9580,"overseas":9581,"##inction":9582,"mirror":9583,"len":9584,"leon":9585,"ambassador":9586,"burden":9587,"silent":9588,"##urray":9589,"mortg":9590,"execution":9591,"1970s":9592,"oc":9593,"kilomet":9594,"3rd":9595,"olympic":9596,"educational":9597,"servers":9598,"stamp":9599,"experiments":9600,"brexit":9601,"tam":9602,"outrage":9603,"nu":9604,"violation":9605,"whit":9606,"focusing":9607,"designs":9608,"##shire":9609,"pap":9610,"riding":9611,"unpre":9612,"additionally":9613,"harvard":9614,"calm":9615,"maryland":9616,"dying":9617,"contrad":9618,"marx":9619,"gil":9620,"##vp":9621,"athletes":9622,"testimony":9623,"lands":9624,"adap":9625,"entitled":9626,"synd":9627,"trials":9628,"180":9629,"torture":9630,"arbit":9631,"instagram":9632,"##usalem":9633,"bish":9634,"##bow":9635,"nur":9636,"regulatory":9637,"##bell":9638,"discour":9639,"##elson":9640,"2020":9641,"criticized":9642,"insisted":9643,"anarch":9644,"anna":9645,"strategies":9646,"judgment":9647,"chaos":9648,"replied":9649,"generations":9650,"jerusalem":9651,"##ela":9652,"celebrate":9653,"setup":9654,"berlin":9655,"belg":9656,"roots":9657,"charity":9658,"emerging":9659,"carter":9660,"predicted":9661,"memorial":9662,"molec":9663,"tob":9664,"psychological":9665,"##eli":9666,"##enez":9667,"abilities":9668,"rebels":9669,"bias":9670,"stere":9671,"mah":9672,"therapy":9673,"trends":9674,"hoped":9675,"summary":9676,"##mans":9677,"grey":9678,"guidelines":9679,"##oper":9680,"189":9681,"wider":9682,"##imp":9683,"lon":9684,"##uces":9685,"errors":9686,"unity":9687,"vend":9688,"lift":9689,"killer":9690,"preparing":9691,"wealthy":9692,"forcing":9693,"sweep":9694,"signature":9695,"##esty":9696,"civilian":9697,"##icop":9698,"knee":9699,"battles":9700,"simon":9701,"exha":9702,"vess":9703,"dismissed":9704,"requested":9705,"consent":9706,"dialogue":9707,"##ipts":9708,"hosted":9709,"formation":9710,"consensus":9711,"##arms":9712,"thorough":9713,"##isely":9714,"introduce":9715,"##iro":9716,"deem":9717,"hence":9718,"coinc":9719,"populations":9720,"##bridge":9721,"tamp":9722,"socialist":9723,"distingu":9724,"##gy":9725,"drove":9726,"rounds":9727,"##isons":9728,"harassment":9729,"sydney":9730,"fame":9731,"nap":9732,"pointing":9733,"##eters":9734,"physics":9735,"smartphone":9736,"dup":9737,"##hand":9738,"rooms":9739,"##ali":9740,"procedure":9741,"agriculture":9742,"phoen":9743,"ingredients":9744,"spokeswoman":9745,"##rick":9746,"##aga":9747,"qaeda":9748,"##itzer":9749,"tables":9750,"athe":9751,"difficulty":9752,"escal":9753,"wings":9754,"##active":9755,"organisation":9756,"holl":9757,"void":9758,"categories":9759,"morgan":9760,"##mont":9761,"pear":9762,"urged":9763,"deny":9764,"##irts":9765,"hong":9766,"##vereign":9767,"fled":9768,"vik":9769,"##post":9770,"quoted":9771,"finals":9772,"staying":9773,"boe":9774,"intim":9775,"popularity":9776,"##icon":9777,"sovereign":9778,"##ograp":9779,"polar":9780,"hunter":9781,"##theless":9782,"picking":9783,"enhance":9784,"##lock":9785,"charlie":9786,"actively":9787,"tennes":9788,"##mony":9789,"expanding":9790,"jets":9791,"nevertheless":9792,"phrase":9793,"pursue":9794,"##ills":9795,"sheet":9796,"simult":9797,"discl":9798,"wise":9799,"insert":9800,"escap":9801,"desktop":9802,"amy":9803,"ceremony":9804,"cauc":9805,"golf":9806,"memories":9807,"lav":9808,"ub":9809,"##angers":9810,"citing":9811,"tu":9812,"##igue":9813,"transaction":9814,"investments":9815,"arbitr":9816,"vietnam":9817,"resem":9818,"simultane":9819,"chuck":9820,"commerce":9821,"moderate":9822,"solo":9823,"##tc":9824,"scottish":9825,"nazi":9826,"striking":9827,"reveals":9828,"boun":9829,"analysts":9830,"dating":9831,"registration":9832,"designer":9833,"revers":9834,"witnesses":9835,"notable":9836,"demanding":9837,"spots":9838,"##inder":9839,"##comes":9840,"supplement":9841,"defending":9842,"##ibl":9843,"##tenance":9844,"jacob":9845,"##unction":9846,"orth":9847,"settled":9848,"kenn":9849,"approached":9850,"todd":9851,"bio":9852,"mere":9853,"##fol":9854,"##ng":9855,"maintained":9856,"fossil":9857,"arguing":9858,"wol":9859,"participation":9860,"##lan":9861,"furthermore":9862,"1991":9863,"bottle":9864,"##state":9865,"trillion":9866,"matthew":9867,"promoting":9868,"reforms":9869,"elizabeth":9870,"oakland":9871,"##eria":9872,"passage":9873,"possess":9874,"diamond":9875,"md":9876,"homosexual":9877,"embed":9878,"physically":9879,"##gent":9880,"deadline":9881,"cra":9882,"persu":9883,"contemporary":9884,"biological":9885,"phenomenon":9886,"dock":9887,"##mi":9888,"hire":9889,"implications":9890,"singer":9891,"muscle":9892,"stew":9893,"static":9894,"inches":9895,"##ova":9896,"precisely":9897,"variable":9898,"##icking":9899,"clothing":9900,"ni":9901,"donations":9902,"managers":9903,"cens":9904,"tremend":9905,"stored":9906,"dependent":9907,"##aka":9908,"patrol":9909,"yemen":9910,"divor":9911,"thomp":9912,"presentation":9913,"eligible":9914,"##eff":9915,"delhi":9916,"chocolate":9917,"artificial":9918,"phoenix":9919,"fabric":9920,"extraord":9921,"##atar":9922,"tired":9923,"lapt":9924,"diseases":9925,"1000":9926,"argues":9927,"drives":9928,"110":9929,"substance":9930,"##33":9931,"executives":9932,"broader":9933,"athletic":9934,"wounded":9935,"palestinians":9936,"bass":9937,"murray":9938,"searching":9939,"questioned":9940,"differently":9941,"animation":9942,"contrary":9943,"##icate":9944,"egg":9945,"accessible":9946,"dy":9947,"##iti":9948,"dominated":9949,"##apolis":9950,"hud":9951,"asset":9952,"misc":9953,"contribution":9954,"nurs":9955,"journalism":9956,"lect":9957,"##86":9958,"awarded":9959,"bump":9960,"promising":9961,"alan":9962,"thompson":9963,"wanting":9964,"mouse":9965,"credits":9966,"assigned":9967,"deserve":9968,"cum":9969,"competing":9970,"legally":9971,"birthday":9972,"recruit":9973,"gordon":9974,"invasion":9975,"manifest":9976,"clash":9977,"caps":9978,"tiss":9979,"consideration":9980,"tweets":9981,"utility":9982,"coaching":9983,"scratch":9984,"studios":9985,"comey":9986,"damaged":9987,"creator":9988,"missions":9989,"gest":9990,"reserved":9991,"sorts":9992,"hospitals":9993,"salv":9994,"ja":9995,"wet":9996,"inquiry":9997,"remarkable":9998,"epa":9999,"everyday":10000,"hawai":10001,"genre":10002,"asc":10003,"obsc":10004,"timing":10005,"insight":10006,"enabled":10007,"hart":10008,"awa":10009,"gn":10010,"lifetime":10011,"hr":10012,"enthusi":10013,"defeated":10014,"demonstrate":10015,"##ahu":10016,"##âãâãâãâã":10017,"tang":10018,"fatal":10019,"##ria":10020,"occasionally":10021,"rt":10022,"guards":10023,"nat":10024,"##ielder":10025,"nan":10026,"irre":10027,"submit":10028,"creatures":10029,"maintenance":10030,"lov":10031,"##teen":10032,"diab":10033,"russell":10034,"bart":10035,"dominant":10036,"19th":10037,"##ecraft":10038,"cc":10039,"undert":10040,"andy":10041,"adviser":10042,"infant":10043,"dispute":10044,"greatly":10045,"ku":10046,"nerv":10047,"grace":10048,"unfair":10049,"meaningful":10050,"struggled":10051,"parallel":10052,"invalid":10053,"analyz":10054,"sie":10055,"tennessee":10056,"##oto":10057,"bother":10058,"defender":10059,"manh":10060,"##athers":10061,"fried":10062,"##obe":10063,"gem":10064,"aaron":10065,"dash":10066,"facilit":10067,"bic":10068,"endorse":10069,"##inating":10070,"studying":10071,"stepped":10072,"extraordinary":10073,"centuries":10074,"pitts":10075,"libya":10076,"nod":10077,"punishment":10078,"##etically":10079,"anch":10080,"chase":10081,"tempor":10082,"assumed":10083,"explaining":10084,"logo":10085,"theories":10086,"cort":10087,"##fare":10088,"phill":10089,"eggs":10090,"tons":10091,"consciousness":10092,"##power":10093,"pulling":10094,"##fast":10095,"prosecutor":10096,"beating":10097,"helicop":10098,"legislature":10099,"bj":10100,"sections":10101,"perception":10102,"burst":10103,"um":10104,"##ouri":10105,"shoes":10106,"##acking":10107,"pentagon":10108,"suspects":10109,"##rooms":10110,"procedures":10111,"mls":10112,"arrival":10113,"ukrain":10114,"followers":10115,"##orship":10116,"##aug":10117,"contacted":10118,"##izer":10119,"rud":10120,"##aying":10121,"ministers":10122,"neighbors":10123,"shaped":10124,"81":10125,"##right":10126,"backing":10127,"integrity":10128,"gib":10129,"angle":10130,"##oat":10131,"sod":10132,"lap":10133,"keen":10134,"##station":10135,"advocate":10136,"harr":10137,"loves":10138,"php":10139,"indicates":10140,"ky":10141,"charlott":10142,"pollution":10143,"partly":10144,"##etical":10145,"configuration":10146,"euro":10147,"discussing":10148,"drunk":10149,"addresses":10150,"##istol":10151,"atom":10152,"##acco":10153,"bh":10154,"##ean":10155,"evident":10156,"openly":10157,"theatre":10158,"sustainable":10159,"##gi":10160,"fundra":10161,"preferred":10162,"segment":10163,"removal":10164,"harper":10165,"perceived":10166,"##ecute":10167,"lessons":10168,"ease":10169,"##fo":10170,"appeals":10171,"custody":10172,"patent":10173,"biz":10174,"##aved":10175,"hin":10176,"volunteers":10177,"modified":10178,"trek":10179,"ry":10180,"manufacturers":10181,"wedding":10182,"treasury":10183,"refugee":10184,"dirty":10185,"stops":10186,"impression":10187,"hp":10188,"cognitive":10189,"##asty":10190,"conservation":10191,"##erning":10192,"substit":10193,"unlock":10194,"integration":10195,"##no":10196,"unpreced":10197,"torn":10198,"zomb":10199,"compensation":10200,"unprecedented":10201,"corrupt":10202,"bc":10203,"interaction":10204,"guests":10205,"advertisements":10206,"mate":10207,"ridiculous":10208,"##ibutes":10209,"cass":10210,"cord":10211,"weakness":10212,"wiz":10213,"khan":10214,"##bury":10215,"convert":10216,"1989":10217,"##eted":10218,"wireless":10219,"nose":10220,"billions":10221,"kentucky":10222,"liv":10223,"cole":10224,"wales":10225,"manual":10226,"hed":10227,"promotion":10228,"underlying":10229,"automatic":10230,"permit":10231,"##die":10232,"clip":10233,"gates":10234,"accord":10235,"##ographer":10236,"imposed":10237,"jean":10238,"##print":10239,"routine":10240,"citation":10241,"##rell":10242,"certific":10243,"concepts":10244,"podcast":10245,"gad":10246,"tai":10247,"##obi":10248,"##owski":10249,"##backs":10250,"peer":10251,"jeremy":10252,"scrut":10253,"dm":10254,"migrants":10255,"##estyle":10256,"sink":10257,"##akh":10258,"signals":10259,"queens":10260,"oz":10261,"checking":10262,"##aki":10263,"gi":10264,"packed":10265,"##aving":10266,"employers":10267,"controller":10268,"millenn":10269,"##achel":10270,"hanging":10271,"orland":10272,"reserv":10273,"maxim":10274,"lesson":10275,"mountains":10276,"montreal":10277,"keyboard":10278,"##fers":10279,"beings":10280,"mathemat":10281,"loaded":10282,"worlds":10283,"bot":10284,"tale":10285,"##name":10286,"cous":10287,"##esth":10288,"gdp":10289,"scholar":10290,"stance":10291,"rou":10292,"indigen":10293,"dil":10294,"bone":10295,"##hot":10296,"##omes":10297,"ethics":10298,"embass":10299,"##dam":10300,"rhetoric":10301,"dean":10302,"##osystem":10303,"knight":10304,"utter":10305,"mice":10306,"capitol":10307,"##ylum":10308,"venez":10309,"##ctic":10310,"##ucc":10311,"lag":10312,"frequent":10313,"preview":10314,"##lee":10315,"##ourne":10316,"nowhere":10317,"requirement":10318,"traged":10319,"craig":10320,"##holders":10321,"cree":10322,"honestly":10323,"collaboration":10324,"##omed":10325,"grave":10326,"constitu":10327,"breast":10328,"##orous":10329,"benefic":10330,"##odox":10331,"brands":10332,"lineup":10333,"triple":10334,"##90":10335,"requiring":10336,"rated":10337,"##imm":10338,"resolve":10339,"diplomatic":10340,"##osa":10341,"foster":10342,"recommendations":10343,"backs":10344,"loading":10345,"##oln":10346,"integrated":10347,"wildlife":10348,"surprisingly":10349,"##itudes":10350,"reply":10351,"inequality":10352,"prospects":10353,"##urd":10354,"brooklyn":10355,"shocked":10356,"eliminate":10357,"badly":10358,"beast":10359,"collaps":10360,"posting":10361,"inters":10362,"unh":10363,"duke":10364,"ipad":10365,"antonio":10366,"1980":10367,"answered":10368,"laboratory":10369,"representation":10370,"overcome":10371,"scor":10372,"meal":10373,"sciences":10374,"bits":10375,"infect":10376,"choosing":10377,"assuming":10378,"linc":10379,"indigenous":10380,"explosion":10381,"talented":10382,"warriors":10383,"##iture":10384,"cave":10385,"nik":10386,"tesla":10387,"##annon":10388,"bombs":10389,"vocal":10390,"##lining":10391,"##po":10392,"##alia":10393,"##erving":10394,"reviewed":10395,"##23":10396,"publ":10397,"cad":10398,"twin":10399,"blocking":10400,"venezuel":10401,"asylum":10402,"traveling":10403,"argent":10404,"minimal":10405,"scout":10406,"sponsored":10407,"conclus":10408,"camps":10409,"neighbour":10410,"##iary":10411,"periods":10412,"momentum":10413,"gill":10414,"##bec":10415,"printed":10416,"sentenced":10417,"disappointed":10418,"fert":10419,"whist":10420,"orch":10421,"knife":10422,"recession":10423,"witch":10424,"creature":10425,"removing":10426,"quit":10427,"reagan":10428,"colleg":10429,"attractive":10430,"wikile":10431,"treaty":10432,"instances":10433,"occurs":10434,"hello":10435,"gameplay":10436,"acquis":10437,"oxy":10438,"approaches":10439,"encouraging":10440,"obst":10441,"holes":10442,"hills":10443,"damn":10444,"unve":10445,"fights":10446,"beck":10447,"usb":10448,"earthqu":10449,"orlando":10450,"pittsburgh":10451,"ranging":10452,"desperate":10453,"##rett":10454,"crop":10455,"outlets":10456,"borrow":10457,"spac":10458,"##77":10459,"##iley":10460,"psychiat":10461,"harsh":10462,"subsequently":10463,"jane":10464,"sne":10465,"venture":10466,"emphasis":10467,"professionals":10468,"restrict":10469,"chronic":10470,"kal":10471,"dropping":10472,"rebel":10473,"pregnant":10474,"resort":10475,"craw":10476,"maintaining":10477,"##44":10478,"curious":10479,"spy":10480,"wikileaks":10481,"cb":10482,"intercept":10483,"ecosystem":10484,"##ports":10485,"eager":10486,"tum":10487,"##ateral":10488,"confused":10489,"convince":10490,"describing":10491,"boxes":10492,"trailer":10493,"hitler":10494,"##star":10495,"##uten":10496,"ancest":10497,"municipal":10498,"carries":10499,"couples":10500,"yah":10501,"##ettes":10502,"brutal":10503,"concerning":10504,"christopher":10505,"dot":10506,"calend":10507,"thunder":10508,"lions":10509,"##press":10510,"rome":10511,"##rich":10512,"commons":10513,"forgotten":10514,"cheaper":10515,"speakers":10516,"inspiration":10517,"correctly":10518,"peaceful":10519,"stir":10520,"hypothes":10521,"probe":10522,"adams":10523,"aims":10524,"gym":10525,"enroll":10526,"pp":10527,"bands":10528,"makers":10529,"violations":10530,"##avery":10531,"commod":10532,"##ares":10533,"emotions":10534,"hood":10535,"girlfriend":10536,"outstanding":10537,"saint":10538,"##izza":10539,"armor":10540,"##ptions":10541,"sits":10542,"alpha":10543,"##attan":10544,"##laimed":10545,"##oh":10546,"##ses":10547,"experimental":10548,"dramatically":10549,"passenger":10550,"perry":10551,"outdo":10552,"lens":10553,"benn":10554,"91":10555,"##mal":10556,"##oga":10557,"owns":10558,"transparency":10559,"##xture":10560,"continu":10561,"teeth":10562,"packages":10563,"bankrupt":10564,"hybr":10565,"communicate":10566,"courage":10567,"dispatch":10568,"heaven":10569,"conqu":10570,"infer":10571,"deployed":10572,"##ighth":10573,"combine":10574,"##oded":10575,"talib":10576,"ng":10577,"accuracy":10578,"displayed":10579,"interviewed":10580,"##ders":10581,"buried":10582,"sons":10583,"##kel":10584,"occupied":10585,"missouri":10586,"tent":10587,"ottawa":10588,"au":10589,"##walk":10590,"landed":10591,"##itr":10592,"portug":10593,"adequ":10594,"ally":10595,"##erto":10596,"accum":10597,"isolated":10598,"annoy":10599,"charging":10600,"##aus":10601,"embrace":10602,"hosts":10603,"oppose":10604,"pleased":10605,"indones":10606,"smell":10607,"1960s":10608,"facult":10609,"spider":10610,"##aware":10611,"relation":10612,"hans":10613,"cats":10614,"flour":10615,"screw":10616,"crick":10617,"##agers":10618,"##hammad":10619,"pas":10620,"opposing":10621,"##apore":10622,"performances":10623,"##aya":10624,"##ophob":10625,"jerry":10626,"mud":10627,"rit":10628,"brid":10629,"carrier":10630,"entity":10631,"sha":10632,"vlad":10633,"hes":10634,"shelter":10635,"nevada":10636,"compr":10637,"honey":10638,"rivers":10639,"prompted":10640,"castle":10641,"presents":10642,"homeland":10643,"4th":10644,"loose":10645,"recept":10646,"##onic":10647,"crossing":10648,"seized":10649,"griff":10650,"hearts":10651,"##arre":10652,"balls":10653,"militants":10654,"mps":10655,"ultra":10656,"compass":10657,"bash":10658,"tyr":10659,"poet":10660,"lincoln":10661,"##ked":10662,"algorithm":10663,"wisdom":10664,"declaration":10665,"ideology":10666,"130":10667,"robust":10668,"winds":10669,"genuine":10670,"leban":10671,"##iffs":10672,"##phy":10673,"sque":10674,"##case":10675,"kern":10676,"infin":10677,"container":10678,"engagement":10679,"delight":10680,"demo":10681,"demanded":10682,"maker":10683,"surrounded":10684,"lan":10685,"##omin":10686,"judicial":10687,"robinson":10688,"wright":10689,"notably":10690,"speculation":10691,"lor":10692,"##vent":10693,"##rimin":10694,"##pton":10695,"federation":10696,"##keep":10697,"singapore":10698,"froz":10699,"orle":10700,"flavor":10701,"ster":10702,"characteristics":10703,"lau":10704,"inaug":10705,"whites":10706,"21st":10707,"dawn":10708,"contents":10709,"ze":10710,"##35":10711,"##break":10712,"donors":10713,"routes":10714,"briefly":10715,"restore":10716,"compromise":10717,"wy":10718,"translation":10719,"warner":10720,"sized":10721,"rangers":10722,"criminals":10723,"verd":10724,"playstation":10725,"fucking":10726,"stewart":10727,"bust":10728,"abstract":10729,"cant":10730,"guaranteed":10731,"reck":10732,"notor":10733,"profound":10734,"acceptable":10735,"brig":10736,"bip":10737,"interpretation":10738,"##zer":10739,"##hner":10740,"frozen":10741,"width":10742,"nervous":10743,"radiation":10744,"secular":10745,"bureaucr":10746,"##instein":10747,"chrome":10748,"nights":10749,"jimmy":10750,"tobacco":10751,"graphic":10752,"reign":10753,"pose":10754,"confusion":10755,"rifle":10756,"ukrainian":10757,"kickst":10758,"##ogs":10759,"tanks":10760,"prevention":10761,"##ipedia":10762,"monetary":10763,"jumped":10764,"renewable":10765,"taxpayers":10766,"refuse":10767,"orleans":10768,"hiring":10769,"prayer":10770,"token":10771,"nether":10772,"ist":10773,"immun":10774,"##45":10775,"poster":10776,"steady":10777,"##ocal":10778,"acceler":10779,"suspic":10780,"rib":10781,"##rence":10782,"hurricane":10783,"engines":10784,"engaging":10785,"serial":10786,"cou":10787,"riot":10788,"researcher":10789,"orbit":10790,"extract":10791,"backup":10792,"expenses":10793,"align":10794,"lightning":10795,"nationwide":10796,"astronom":10797,"slam":10798,"##opes":10799,"prosper":10800,"historically":10801,"qualified":10802,"doctr":10803,"kicked":10804,"##75":10805,"cooking":10806,"carp":10807,"examine":10808,"##ensively":10809,"tremendous":10810,"multipl":10811,"existed":10812,"##ophy":10813,"hyd":10814,"cops":10815,"##anted":10816,"lobb":10817,"##esis":10818,"wondering":10819,"proportion":10820,"productive":10821,"flick":10822,"flip":10823,"runner":10824,"tutor":10825,"crystal":10826,"migration":10827,"districts":10828,"bombing":10829,"theft":10830,"quantum":10831,"ignor":10832,"polish":10833,"pyr":10834,"mothers":10835,"provider":10836,"executed":10837,"gentle":10838,"recalled":10839,"fingers":10840,"polling":10841,"sophistic":10842,"blu":10843,"outcomes":10844,"suspension":10845,"pleasure":10846,"thirty":10847,"##usive":10848,"struggles":10849,"leaked":10850,"##bourne":10851,"babies":10852,"operator":10853,"mario":10854,"constructed":10855,"popul":10856,"volunt":10857,"teammates":10858,"##vens":10859,"winners":10860,"##inge":10861,"refers":10862,"dak":10863,"painting":10864,"##attered":10865,"motivated":10866,"telephone":10867,"clinic":10868,"##acles":10869,"juris":10870,"##ifice":10871,"closest":10872,"##esa":10873,"##ader":10874,"tub":10875,"##archy":10876,"editorial":10877,"##pers":10878,"pizza":10879,"riders":10880,"disabled":10881,"analyt":10882,"sexually":10883,"expense":10884,"manhattan":10885,"modest":10886,"considerable":10887,"##oker":10888,"slide":10889,"##rian":10890,"checked":10891,"coins":10892,"publisher":10893,"detention":10894,"stating":10895,"diver":10896,"actress":10897,"occasional":10898,"beef":10899,"nash":10900,"rewards":10901,"evac":10902,"documented":10903,"overr":10904,"deliber":10905,"operated":10906,"yang":10907,"taliban":10908,"brewing":10909,"##irm":10910,"eve":10911,"##ixon":10912,"ank":10913,"##entions":10914,"pione":10915,"tears":10916,"larry":10917,"attribut":10918,"influenced":10919,"mississ":10920,"jung":10921,"fails":10922,"variables":10923,"##kyo":10924,"##ref":10925,"emer":10926,"##66":10927,"simultaneously":10928,"blacks":10929,"radar":10930,"manning":10931,"##uctions":10932,"challenged":10933,"##stitution":10934,"endors":10935,"exclusively":10936,"developments":10937,"poland":10938,"feminist":10939,"##reen":10940,"attending":10941,"destination":10942,"360":10943,"victoria":10944,"vegan":10945,"justify":10946,"equipped":10947,"##88":10948,"##upp":10949,"embassy":10950,"fib":10951,"chips":10952,"##igation":10953,"slot":10954,"excuse":10955,"##terest":10956,"baker":10957,"directors":10958,"luke":10959,"huff":10960,"compound":10961,"headlines":10962,"legendary":10963,"patriots":10964,"administrative":10965,"##awks":10966,"prest":10967,"survived":10968,"loving":10969,"rebuild":10970,"privilege":10971,"abu":10972,"wikipedia":10973,"stanford":10974,"ct":10975,"##graph":10976,"##ght":10977,"intimid":10978,"zim":10979,"##acked":10980,"raid":10981,"firearms":10982,"blake":10983,"cowboy":10984,"lifestyle":10985,"residential":10986,"stall":10987,"wells":10988,"occupy":10989,"scared":10990,"blues":10991,"jess":10992,"hann":10993,"tokyo":10994,"laur":10995,"shops":10996,"crush":10997,"fits":10998,"fishing":10999,"##uman":11000,"bacteria":11001,"##21":11002,"styles":11003,"niger":11004,"dressed":11005,"agreements":11006,"nelson":11007,"denn":11008,"1988":11009,"avo":11010,"woods":11011,"##err":11012,"evolved":11013,"cruel":11014,"seventh":11015,"organis":11016,"psychology":11017,"flights":11018,"morm":11019,"##rog":11020,"releasing":11021,"lamb":11022,"##ropri":11023,"unpr":11024,"canadians":11025,"sinc":11026,"##onia":11027,"alaska":11028,"hi":11029,"unnecess":11030,"stom":11031,"lip":11032,"forecast":11033,"documentation":11034,"robots":11035,"snowden":11036,"##oli":11037,"males":11038,"evangel":11039,"raises":11040,"sleeping":11041,"boards":11042,"##umber":11043,"intelligent":11044,"tong":11045,"prosecution":11046,"##jan":11047,"addressing":11048,"chanc":11049,"nutrition":11050,"egyptian":11051,"beneath":11052,"bour":11053,"stopping":11054,"bog":11055,"##heim":11056,"archive":11057,"projected":11058,"bm":11059,"occupation":11060,"luxury":11061,"900":11062,"cycling":11063,"##74":11064,"reass":11065,"uncertainty":11066,"1984":11067,"disclosure":11068,"impacts":11069,"decor":11070,"deemed":11071,"disagree":11072,"refr":11073,"reds":11074,"metrop":11075,"enfor":11076,"##ello":11077,"hiv":11078,"leak":11079,"exploration":11080,"antib":11081,"photographs":11082,"##iah":11083,"tragedy":11084,"newsletters":11085,"palm":11086,"bugs":11087,"households":11088,"criteria":11089,"thresh":11090,"chop":11091,"availability":11092,"identical":11093,"derived":11094,"attorneys":11095,"guidance":11096,"libraries":11097,"oversight":11098,"modi":11099,"cycl":11100,"##ifier":11101,"steal":11102,"promoted":11103,"faculty":11104,"bulk":11105,"pt":11106,"##thur":11107,"serge":11108,"concentration":11109,"russians":11110,"produces":11111,"regarded":11112,"bru":11113,"entrance":11114,"bubble":11115,"pledge":11116,"figured":11117,"absurd":11118,"##elihood":11119,"decrease":11120,"gods":11121,"preserve":11122,"realistic":11123,"##hips":11124,"defended":11125,"##agen":11126,"burned":11127,"orthodox":11128,"consecut":11129,"recovered":11130,"conflicts":11131,"nest":11132,"naval":11133,"palace":11134,"ot":11135,"starter":11136,"##rome":11137,"quad":11138,"wrestling":11139,"acknowledge":11140,"orb":11141,"expecting":11142,"##asm":11143,"neo":11144,"bones":11145,"ferg":11146,"##erver":11147,"##etes":11148,"dispos":11149,"infection":11150,"edited":11151,"politician":11152,"##unct":11153,"attracted":11154,"hamas":11155,"terminal":11156,"inevitable":11157,"launching":11158,"toss":11159,"barrel":11160,"140":11161,"eagles":11162,"startup":11163,"stal":11164,"curve":11165,"mortgage":11166,"jen":11167,"ian":11168,"departure":11169,"##rix":11170,"visits":11171,"louisiana":11172,"von":11173,"happiness":11174,"duration":11175,"##ardo":11176,"barg":11177,"trains":11178,"calendar":11179,"##ogy":11180,"hosting":11181,"##ram":11182,"wayne":11183,"grate":11184,"160":11185,"accepting":11186,"flee":11187,"roger":11188,"lion":11189,"bent":11190,"malays":11191,"##bul":11192,"installation":11193,"medicare":11194,"##pal":11195,"##anth":11196,"rubio":11197,"##ón":11198,"meters":11199,"##olds":11200,"mysterious":11201,"bases":11202,"##leted":11203,"hacking":11204,"imprison":11205,"##imir":11206,"1986":11207,"supposedly":11208,"innovative":11209,"stanley":11210,"inbox":11211,"productivity":11212,"bonds":11213,"subtle":11214,"tune":11215,"reluct":11216,"cot":11217,"##elli":11218,"##ellor":11219,"expects":11220,"olympics":11221,"mack":11222,"interactive":11223,"shake":11224,"##iac":11225,"rc":11226,"immigrant":11227,"blamed":11228,"pale":11229,"lynch":11230,"##bian":11231,"tablet":11232,"functionality":11233,"lighting":11234,"ritual":11235,"argu":11236,"dimin":11237,"kidn":11238,"rivals":11239,"empower":11240,"explicitly":11241,"editing":11242,"collins":11243,"bizarre":11244,"provisions":11245,"influential":11246,"curt":11247,"pricing":11248,"125":11249,"immune":11250,"##arn":11251,"hugh":11252,"naked":11253,"tension":11254,"seeds":11255,"mg":11256,"berke":11257,"mandate":11258,"medal":11259,"commentary":11260,"##books":11261,"furn":11262,"titan":11263,"wow":11264,"ls":11265,"leap":11266,"nonpro":11267,"font":11268,"kickstarter":11269,"uncomfort":11270,"##pc":11271,"occasion":11272,"ui":11273,"overnight":11274,"transferred":11275,"rhy":11276,"##ippi":11277,"traded":11278,"##umph":11279,"##enz":11280,"##unes":11281,"sham":11282,"gith":11283,"restricted":11284,"cpu":11285,"medicaid":11286,"185":11287,"##burn":11288,"pension":11289,"bry":11290,"presumably":11291,"kurdish":11292,"##ista":11293,"tunnel":11294,"bags":11295,"netherlands":11296,"ought":11297,"libertarian":11298,"##criptions":11299,"applies":11300,"sake":11301,"preventing":11302,"participating":11303,"worksh":11304,"conviction":11305,"epid":11306,"awful":11307,"longtime":11308,"exped":11309,"dign":11310,"ronald":11311,"consecutive":11312,"kas":11313,"handled":11314,"appearing":11315,"impressed":11316,"dumb":11317,"mcdonald":11318,"meets":11319,"nv":11320,"delegates":11321,"##kh":11322,"##itories":11323,"noneth":11324,"missiles":11325,"hybrid":11326,"responding":11327,"github":11328,"discipline":11329,"unch":11330,"##mers":11331,"nonetheless":11332,"rolled":11333,"ner":11334,"operators":11335,"yu":11336,"##erb":11337,"invested":11338,"finishing":11339,"clay":11340,"amd":11341,"##68":11342,"computing":11343,"sig":11344,"solely":11345,"##uating":11346,"marshall":11347,"investigated":11348,"vaccine":11349,"designated":11350,"##yard":11351,"mandatory":11352,"examined":11353,"breakfast":11354,"sustained":11355,"assists":11356,"economist":11357,"drops":11358,"yank":11359,"silicon":11360,"earnings":11361,"brush":11362,"oxygen":11363,"cake":11364,"citizenship":11365,"fundament":11366,"educated":11367,"delayed":11368,"charter":11369,"compelling":11370,"viewing":11371,"layers":11372,"##iere":11373,"rocks":11374,"trag":11375,"ambit":11376,"iconic":11377,"earning":11378,"grants":11379,"arguably":11380,"worthy":11381,"##aro":11382,"exploring":11383,"resur":11384,"collecting":11385,"favourite":11386,"##roc":11387,"##olas":11388,"jurisd":11389,"neighborhoods":11390,"##wall":11391,"hem":11392,"crossed":11393,"parliamentary":11394,"murphy":11395,"oldest":11396,"##eek":11397,"##astroph":11398,"##gel":11399,"##aco":11400,"pending":11401,"newspapers":11402,"##ucker":11403,"electrical":11404,"##ikh":11405,"amongst":11406,"hampshire":11407,"##part":11408,"elabor":11409,"trips":11410,"##fielder":11411,"##untu":11412,"agricultural":11413,"celebration":11414,"clever":11415,"##vy":11416,"preparation":11417,"endless":11418,"fires":11419,"spotted":11420,"dor":11421,"pepper":11422,"painted":11423,"query":11424,"mamm":11425,"philippines":11426,"bloomberg":11427,"##cott":11428,"##oly":11429,"catastroph":11430,"printing":11431,"departments":11432,"accusations":11433,"sacrifice":11434,"buddh":11435,"horrible":11436,"saints":11437,"discrimin":11438,"pars":11439,"discount":11440,"dolph":11441,"adoption":11442,"significance":11443,"complexity":11444,"##tery":11445,"themes":11446,"taiwan":11447,"inhab":11448,"prototype":11449,"animated":11450,"bever":11451,"gravity":11452,"coordinator":11453,"exploit":11454,"transmission":11455,"warfare":11456,"density":11457,"fergus":11458,"buffalo":11459,"zh":11460,"pupp":11461,"pregnancy":11462,"achievement":11463,"accompanied":11464,"hiding":11465,"##arity":11466,"lod":11467,"venue":11468,"##worth":11469,"painful":11470,"technically":11471,"cuba":11472,"sauce":11473,"secrets":11474,"cz":11475,"seeks":11476,"trace":11477,"beaten":11478,"##uther":11479,"walks":11480,"bil":11481,"verify":11482,"aj":11483,"affects":11484,"101":11485,"berkeley":11486,"panels":11487,"suppose":11488,"praise":11489,"##cos":11490,"indo":11491,"rust":11492,"visa":11493,"interactions":11494,"sv":11495,"possibilities":11496,"##ads":11497,"reflects":11498,"1987":11499,"mitt":11500,"kyle":11501,"caution":11502,"benj":11503,"speeds":11504,"mitchell":11505,"##olitan":11506,"neil":11507,"swedish":11508,"enhanced":11509,"pinterest":11510,"interf":11511,"complained":11512,"##yer":11513,"##vas":11514,"parameters":11515,"##ointing":11516,"##lr":11517,"mb":11518,"##acular":11519,"toll":11520,"pressed":11521,"melbourne":11522,"displays":11523,"##28":11524,"consol":11525,"hier":11526,"mild":11527,"volunteer":11528,"##ortions":11529,"##anim":11530,"fortune":11531,"sketch":11532,"insult":11533,"planes":11534,"filing":11535,"drones":11536,"##ques":11537,"slavery":11538,"commands":11539,"brandon":11540,"advocacy":11541,"provinc":11542,"template":11543,"reid":11544,"cleared":11545,"panic":11546,"##appropri":11547,"fract":11548,"consists":11549,"bb":11550,"devastating":11551,"limitations":11552,"awk":11553,"equity":11554,"fitness":11555,"yahoo":11556,"singh":11557,"kam":11558,"##fish":11559,"pictured":11560,"technological":11561,"editors":11562,"environments":11563,"scul":11564,"mississippi":11565,"revenues":11566,"hispan":11567,"##34":11568,"regret":11569,"occasions":11570,"massac":11571,"1979":11572,"addiction":11573,"relatives":11574,"replacing":11575,"suggestions":11576,"calculated":11577,"##iox":11578,"db":11579,"##aws":11580,"cf":11581,"conclusions":11582,"ri":11583,"##watch":11584,"intensity":11585,"filmm":11586,"darkness":11587,"##gate":11588,"courses":11589,"lawrence":11590,"##eem":11591,"##bage":11592,"tig":11593,"tissue":11594,"relie":11595,"converted":11596,"pg":11597,"conversion":11598,"watson":11599,"gradually":11600,"overlook":11601,"mant":11602,"cease":11603,"balanced":11604,"##itement":11605,"laptop":11606,"shooter":11607,"moder":11608,"archae":11609,"composition":11610,"murdered":11611,"##anne":11612,"incorrect":11613,"##ili":11614,"backl":11615,"lyr":11616,"builds":11617,"1985":11618,"swiss":11619,"ugly":11620,"##27":11621,"madrid":11622,"ambitious":11623,"rugby":11624,"praised":11625,"pond":11626,"quebec":11627,"telecom":11628,"logical":11629,"portra":11630,"advised":11631,"divide":11632,"observations":11633,"abund":11634,"rumors":11635,"chancellor":11636,"shocking":11637,"render":11638,"vladimir":11639,"debates":11640,"flynn":11641,"bos":11642,"conj":11643,"mechanical":11644,"fet":11645,"bitter":11646,"humanitarian":11647,"350":11648,"rever":11649,"employer":11650,"marry":11651,"grateful":11652,"uncover":11653,"campbell":11654,"mechanics":11655,"##ogether":11656,"sf":11657,"groc":11658,"countless":11659,"laser":11660,"##onaut":11661,"##onduct":11662,"##onsc":11663,"shed":11664,"sophisticated":11665,"cartoon":11666,"demonstration":11667,"##26":11668,"separated":11669,"traditionally":11670,"netany":11671,"drafted":11672,"churches":11673,"arrests":11674,"bishop":11675,"directions":11676,"fare":11677,"magical":11678,"##arians":11679,"sporting":11680,"fier":11681,"vic":11682,"chemicals":11683,"competitors":11684,"refres":11685,"minded":11686,"ensuring":11687,"##aza":11688,"sail":11689,"##ilst":11690,"ferguson":11691,"cultiv":11692,"monsters":11693,"##oyd":11694,"##jud":11695,"netanyahu":11696,"eleph":11697,"188":11698,"##oding":11699,"sixt":11700,"confed":11701,"defenders":11702,"##grad":11703,"academ":11704,"##29":11705,"##etics":11706,"applying":11707,"metaph":11708,"singing":11709,"##ocation":11710,"##ilation":11711,"uncomfortable":11712,"marginal":11713,"acquisition":11714,"stein":11715,"hors":11716,"parker":11717,"hostile":11718,"kg":11719,"buyers":11720,"##world":11721,"troll":11722,"adjusted":11723,"bathroom":11724,"##encer":11725,"oxford":11726,"altogether":11727,"chen":11728,"dealt":11729,"safely":11730,"partially":11731,"outer":11732,"delivering":11733,"contributing":11734,"cbc":11735,"barcel":11736,"wallet":11737,"bless":11738,"mutual":11739,"drinks":11740,"##vi":11741,"ceiling":11742,"duties":11743,"climb":11744,"retain":11745,"viable":11746,"uncle":11747,"morris":11748,"stark":11749,"transformation":11750,"##38":11751,"quotes":11752,"reflected":11753,"eru":11754,"quietly":11755,"colonial":11756,"lineback":11757,"slave":11758,"##itty":11759,"wick":11760,"jazz":11761,"##idal":11762,"alarm":11763,"##iller":11764,"trucks":11765,"deport":11766,"scrutiny":11767,"christianity":11768,"##ede":11769,"##igg":11770,"anticipated":11771,"acted":11772,"hond":11773,"pressing":11774,"##child":11775,"nex":11776,"##rah":11777,"##nbc":11778,"vertical":11779,"stunning":11780,"rehab":11781,"reactions":11782,"operational":11783,"wore":11784,"##isms":11785,"predecess":11786,"provincial":11787,"trap":11788,"##math":11789,"depr":11790,"hend":11791,"scary":11792,"##hire":11793,"hawaii":11794,"celebrated":11795,"trop":11796,"mechanisms":11797,"arctic":11798,"##father":11799,"essay":11800,"explor":11801,"longest":11802,"##gie":11803,"benjamin":11804,"##55":11805,"barrier":11806,"barcelona":11807,"transparent":11808,"##isive":11809,"barry":11810,"##itis":11811,"capitalist":11812,"sadly":11813,"masters":11814,"deserves":11815,"masc":11816,"aston":11817,"bp":11818,"evans":11819,"precise":11820,"raj":11821,"duck":11822,"counties":11823,"sizes":11824,"questioning":11825,"blade":11826,"distant":11827,"grip":11828,"flags":11829,"respected":11830,"indication":11831,"##iors":11832,"orientation":11833,"##erald":11834,"origins":11835,"investing":11836,"terry":11837,"wi":11838,"supporter":11839,"compliance":11840,"remembered":11841,"dl":11842,"rotation":11843,"##orate":11844,"acceptance":11845,"##ige":11846,"shan":11847,"cryptoc":11848,"git":11849,"pand":11850,"##48":11851,"priorities":11852,"betr":11853,"mcm":11854,"##arios":11855,"prelim":11856,"##itters":11857,"airlines":11858,"cricket":11859,"alike":11860,"digit":11861,"detained":11862,"frustration":11863,"laughs":11864,"holder":11865,"kin":11866,"statistical":11867,"casting":11868,"keith":11869,"instantly":11870,"##oca":11871,"fid":11872,"una":11873,"confirmation":11874,"offsh":11875,"determination":11876,"ns":11877,"worship":11878,"princess":11879,"circles":11880,"posit":11881,"bare":11882,"awkward":11883,"seal":11884,"##mod":11885,"disturbing":11886,"##auk":11887,"rings":11888,"floating":11889,"x6":11890,"fascinating":11891,"whilst":11892,"disappeared":11893,"identification":11894,"##owned":11895,"exhaust":11896,"kerry":11897,"ubuntu":11898,"founding":11899,"mounted":11900,"explosive":11901,"instruments":11902,"whistle":11903,"manufacturer":11904,"1970":11905,"offseason":11906,"##omy":11907,"filling":11908,"##li":11909,"poorly":11910,"layout":11911,"economists":11912,"heal":11913,"frustrated":11914,"##acies":11915,"gur":11916,"motivation":11917,"capability":11918,"fastest":11919,"safer":11920,"penetr":11921,"farms":11922,"residence":11923,"controlling":11924,"nons":11925,"impose":11926,"##rics":11927,"10th":11928,"bah":11929,"inspect":11930,"tc":11931,"unders":11932,"civilization":11933,"batch":11934,"tampa":11935,"powder":11936,"##onnell":11937,"highlighted":11938,"cluster":11939,"median":11940,"tensions":11941,"kirk":11942,"rah":11943,"rodr":11944,"violated":11945,"annually":11946,"directory":11947,"celebrity":11948,"##eu":11949,"feeding":11950,"##maker":11951,"monkey":11952,"crowds":11953,"fcc":11954,"complain":11955,"affair":11956,"##athon":11957,"linear":11958,"philip":11959,"indians":11960,"honour":11961,"tends":11962,"##base":11963,"absent":11964,"appointment":11965,"witnessed":11966,"bou":11967,"beng":11968,"nag":11969,"placing":11970,"##ros":11971,"##itate":11972,"cinc":11973,"suggestion":11974,"##ussels":11975,"pays":11976,"##amous":11977,"processor":11978,"permitted":11979,"toile":11980,"cohen":11981,"proceedings":11982,"ports":11983,"plaint":11984,"photography":11985,"audiences":11986,"entities":11987,"ncaa":11988,"inappropri":11989,"formerly":11990,"npr":11991,"congr":11992,"##amine":11993,"ears":11994,"td":11995,"protections":11996,"greenhouse":11997,"weaken":11998,"threshold":11999,"healing":12000,"folk":12001,"unnecessary":12002,"flexible":12003,"mcconnell":12004,"sensor":12005,"##ante":12006,"hatred":12007,"rio":12008,"flew":12009,"stressed":12010,"census":12011,"herald":12012,"greens":12013,"bedroom":12014,"solidarity":12015,"completion":12016,"romantic":12017,"treating":12018,"##aments":12019,"quot":12020,"presidents":12021,"##stop":12022,"shore":12023,"madison":12024,"fright":12025,"penalties":12026,"glor":12027,"instinct":12028,"prevented":12029,"mete":12030,"colleges":12031,"ineff":12032,"attendance":12033,"motorc":12034,"##isk":12035,"assumption":12036,"##oa":12037,"battlefield":12038,"ordin":12039,"##struct":12040,"abbott":12041,"alternatives":12042,"##flow":12043,"dakota":12044,"dose":12045,"ethical":12046,"revealing":12047,"##ologically":12048,"motors":12049,"cryptocurr":12050,"accomplished":12051,"partial":12052,"zones":12053,"boundaries":12054,"maine":12055,"reserves":12056,"##leting":12057,"intens":12058,"robber":12059,"tyler":12060,"identifying":12061,"switzer":12062,"aging":12063,"invis":12064,"traveled":12065,"peoples":12066,"nr":12067,"##ipher":12068,"cob":12069,"horm":12070,"dougl":12071,"rockets":12072,"##nie":12073,"crops":12074,"abol":12075,"embedded":12076,"disagre":12077,"purple":12078,"mum":12079,"devoted":12080,"twel":12081,"offset":12082,"excessive":12083,"disg":12084,"expertise":12085,"comparing":12086,"flowers":12087,"ric":12088,"trash":12089,"stocks":12090,"##ando":12091,"##beat":12092,"realm":12093,"clicking":12094,"anime":12095,"thumb":12096,"devil":12097,"unrel":12098,"strongest":12099,"exchanges":12100,"survivors":12101,"franklin":12102,"wrapped":12103,"gran":12104,"designers":12105,"initiatives":12106,"sacred":12107,"particles":12108,"viral":12109,"##uates":12110,"structural":12111,"monop":12112,"rb":12113,"unac":12114,"counting":12115,"##struction":12116,"gaining":12117,"licensed":12118,"perpet":12119,"sisters":12120,"ideological":12121,"jokes":12122,"oriented":12123,"wrec":12124,"auction":12125,"underc":12126,"tumb":12127,"deployment":12128,"ware":12129,"rip":12130,"fluid":12131,"metab":12132,"misle":12133,"quarters":12134,"portfol":12135,"planets":12136,"dh":12137,"chiefs":12138,"gonz":12139,"##limited":12140,"##utch":12141,"##udeau":12142,"##etta":12143,"composed":12144,"5th":12145,"shorter":12146,"##icism":12147,"classical":12148,"stomach":12149,"bun":12150,"infected":12151,"spreading":12152,"hackers":12153,"kernel":12154,"essence":12155,"emerge":12156,"doug":12157,"midnight":12158,"alberta":12159,"illegally":12160,"##km":12161,"respondents":12162,"accountability":12163,"rage":12164,"##ords":12165,"infring":12166,"enjoying":12167,"experiencing":12168,"css":12169,"translated":12170,"twelve":12171,"isa":12172,"1982":12173,"oscar":12174,"##iva":12175,"skull":12176,"une":12177,"##enh":12178,"timeline":12179,"##irs":12180,"##zi":12181,"##lev":12182,"hatch":12183,"tatt":12184,"unlimited":12185,"cel":12186,"biology":12187,"canon":12188,"mason":12189,"generic":12190,"##aser":12191,"arrow":12192,"pence":12193,"denial":12194,"danny":12195,"lb":12196,"hunger":12197,"dere":12198,"christie":12199,"jake":12200,"steep":12201,"##ype":12202,"columbus":12203,"incons":12204,"1983":12205,"repos":12206,"cultures":12207,"scenarios":12208,"gamers":12209,"laund":12210,"barn":12211,"cheer":12212,"tok":12213,"monument":12214,"sympath":12215,"cliff":12216,"turner":12217,"trapped":12218,"##36":12219,"disl":12220,"wwe":12221,"trudeau":12222,"aggreg":12223,"ampl":12224,"trusted":12225,"divorce":12226,"##je":12227,"probability":12228,"grain":12229,"focuses":12230,"##isp":12231,"mul":12232,"understands":12233,"texts":12234,"mobil":12235,"rogers":12236,"bak":12237,"switzerland":12238,"institutional":12239,"coh":12240,"lanes":12241,"trafficking":12242,"autonomous":12243,"##estone":12244,"insider":12245,"daw":12246,"distinction":12247,"raz":12248,"##db":12249,"supervis":12250,"##aughters":12251,"northwest":12252,"dvd":12253,"desired":12254,"sandwich":12255,"##39":12256,"brave":12257,"##tz":12258,"gover":12259,"peers":12260,"##core":12261,"disk":12262,"##ivan":12263,"aesth":12264,"fda":12265,"##urity":12266,"susan":12267,"##37":12268,"brains":12269,"irs":12270,"confer":12271,"unm":12272,"reun":12273,"announcing":12274,"receives":12275,"resolved":12276,"##erable":12277,"breakdown":12278,"imagination":12279,"lucas":12280,"dirt":12281,"elderly":12282,"secured":12283,"bapt":12284,"mong":12285,"dispar":12286,"declare":12287,"harvest":12288,"##appy":12289,"respective":12290,"electronics":12291,"operates":12292,"sentences":12293,"touched":12294,"introducing":12295,"gb":12296,"flexibility":12297,"qualify":12298,"parade":12299,"certificate":12300,"aftermath":12301,"advantages":12302,"##gt":12303,"dop":12304,"##atoes":12305,"wheels":12306,"buttons":12307,"##izon":12308,"carn":12309,"customs":12310,"exports":12311,"formally":12312,"ave":12313,"hs":12314,"optional":12315,"interrog":12316,"brussels":12317,"cleaning":12318,"disorders":12319,"neglect":12320,"beloved":12321,"##feed":12322,"delicious":12323,"emper":12324,"##bie":12325,"continuous":12326,"##agraph":12327,"stabil":12328,"subsidies":12329,"hungry":12330,"creators":12331,"strain":12332,"afterwards":12333,"bald":12334,"admir":12335,"harvey":12336,"condemned":12337,"retreat":12338,"flesh":12339,"venezuela":12340,"compatible":12341,"pursuit":12342,"jefferson":12343,"preliminary":12344,"##wart":12345,"##oons":12346,"##row":12347,"approve":12348,"##ulator":12349,"glory":12350,"charlotte":12351,"societies":12352,"kle":12353,"doctrine":12354,"inhib":12355,"##acent":12356,"oliver":12357,"shifting":12358,"execute":12359,"spacecraft":12360,"##mare":12361,"nonprofit":12362,"mph":12363,"skilled":12364,"##adi":12365,"leather":12366,"satisfied":12367,"binding":12368,"##umble":12369,"refusing":12370,"spectacular":12371,"##otypes":12372,"sentiment":12373,"tribe":12374,"##news":12375,"assured":12376,"seam":12377,"##pat":12378,"horizon":12379,"headline":12380,"##izations":12381,"brady":12382,"beers":12383,"arkansas":12384,"puerto":12385,"harmful":12386,"rewr":12387,"contacts":12388,"compassion":12389,"intrig":12390,"interrupt":12391,"sull":12392,"105":12393,"habits":12394,"gifts":12395,"shrink":12396,"##plus":12397,"perpetr":12398,"eighth":12399,"demol":12400,"stranger":12401,"corby":12402,"boring":12403,"fm":12404,"governing":12405,"nominated":12406,"deliberately":12407,"publishers":12408,"southeast":12409,"consequence":12410,"hij":12411,"deciding":12412,"investor":12413,"unre":12414,"acquire":12415,"shirts":12416,"expend":12417,"bulls":12418,"destroying":12419,"##lements":12420,"throws":12421,"humor":12422,"inevit":12423,"reson":12424,"weiss":12425,"pilots":12426,"snaps":12427,"io":12428,"freely":12429,"cache":12430,"##gary":12431,"verdict":12432,"overd":12433,"sensit":12434,"detective":12435,"##ears":12436,"laden":12437,"separation":12438,"dys":12439,"rhyth":12440,"##through":12441,"crude":12442,"tourism":12443,"brewery":12444,"screening":12445,"silly":12446,"difficulties":12447,"triggered":12448,"brick":12449,"##wal":12450,"excitement":12451,"##oven":12452,"##itated":12453,"bloody":12454,"##una":12455,"##ags":12456,"fifty":12457,"licensing":12458,"elementary":12459,"##chron":12460,"tourists":12461,"maria":12462,"dancing":12463,"observation":12464,"pole":12465,"generating":12466,"rall":12467,"glenn":12468,"resigned":12469,"sends":12470,"kills":12471,"preval":12472,"organizing":12473,"json":12474,"economies":12475,"cyn":12476,"arthur":12477,"wrap":12478,"##dale":12479,"norway":12480,"unin":12481,"##step":12482,"elsa":12483,"cambridge":12484,"##rians":12485,"dnc":12486,"partisan":12487,"attitudes":12488,"attributed":12489,"##s":12490,"harb":12491,"frankly":12492,"donation":12493,"modules":12494,"abandon":12495,"optimistic":12496,"photographer":12497,"suitable":12498,"slip":12499,"specialist":12500,"knocked":12501,"reed":12502,"##geon":12503,"disappoint":12504,"chemistry":12505,"##ached":12506,"financing":12507,"##avel":12508,"##ockets":12509,"reaches":12510,"trophy":12511,"isolation":12512,"worn":12513,"meta":12514,"teenager":12515,"rankings":12516,"lasting":12517,"retailers":12518,"enlar":12519,"##tains":12520,"temporarily":12521,"##held":12522,"ferr":12523,"forums":12524,"smugg":12525,"magnetic":12526,"condemn":12527,"pse":12528,"##urance":12529,"1981":12530,"wherever":12531,"skip":12532,"creek":12533,"literary":12534,"toys":12535,"detected":12536,"codes":12537,"farming":12538,"##ols":12539,"advances":12540,"arriving":12541,"labels":12542,"rim":12543,"ruth":12544,"minorities":12545,"hopeful":12546,"bast":12547,"##comed":12548,"participated":12549,"females":12550,"cincinn":12551,"retrie":12552,"breathing":12553,"multip":12554,"shifted":12555,"evaluation":12556,"listing":12557,"championships":12558,"##ouses":12559,"##arded":12560,"induced":12561,"##icut":12562,"syndrome":12563,"corbyn":12564,"tribal":12565,"teens":12566,"##erity":12567,"emotion":12568,"sequel":12569,"helm":12570,"lith":12571,"fiber":12572,"entrepreneurs":12573,"detain":12574,"rushed":12575,"##bound":12576,"noble":12577,"sacrific":12578,"##eded":12579,"reminder":12580,"innings":12581,"regulators":12582,"aids":12583,"bradley":12584,"beth":12585,"slaughter":12586,"mim":12587,"likewise":12588,"##atile":12589,"albums":12590,"funeral":12591,"peters":12592,"believing":12593,"pants":12594,"unfortunate":12595,"posed":12596,"approaching":12597,"carson":12598,"##eg":12599,"tragic":12600,"sew":12601,"rushing":12602,"holland":12603,"evaluate":12604,"divine":12605,"vermont":12606,"jumping":12607,"tendency":12608,"ost":12609,"verizon":12610,"indicating":12611,"##bart":12612,"barriers":12613,"damaging":12614,"kos":12615,"##abling":12616,"cowboys":12617,"brun":12618,"cincinnati":12619,"##enson":12620,"statue":12621,"pledged":12622,"caucus":12623,"daughters":12624,"##boards":12625,"wishes":12626,"binary":12627,"tube":12628,"preference":12629,"climbing":12630,"anchor":12631,"colleague":12632,"ebola":12633,"conducting":12634,"##78":12635,"suspicious":12636,"chains":12637,"hindu":12638,"tb":12639,"batteries":12640,"teenage":12641,"welcomed":12642,"##nell":12643,"fern":12644,"kay":12645,"alternate":12646,"earliest":12647,"mormon":12648,"lacking":12649,"gw":12650,"detection":12651,"advers":12652,"helicopter":12653,"burns":12654,"##enko":12655,"examination":12656,"merkel":12657,"meantime":12658,"garc":12659,"##chi":12660,"shy":12661,"sooner":12662,"johnny":12663,"gro":12664,"sue":12665,"##px":12666,"##uded":12667,"sheer":12668,"marketplace":12669,"##olly":12670,"juice":12671,"krist":12672,"connecting":12673,"inclusion":12674,"##organ":12675,"warnings":12676,"##ailed":12677,"##prop":12678,"mes":12679,"brack":12680,"avoided":12681,"thereby":12682,"purchases":12683,"cigarettes":12684,"juan":12685,"rams":12686,"##ti":12687,"reminded":12688,"ranch":12689,"shah":12690,"connecticut":12691,"scal":12692,"##ospher":12693,"friendship":12694,"##mat":12695,"tigers":12696,"##itic":12697,"ard":12698,"celt":12699,"variation":12700,"kor":12701,"genius":12702,"gps":12703,"mixture":12704,"matching":12705,"tribune":12706,"broadband":12707,"tradem":12708,"##ju":12709,"grim":12710,"bottles":12711,"##pled":12712,"authorized":12713,"fence":12714,"thirds":12715,"reflection":12716,"##irl":12717,"##rels":12718,"waited":12719,"186":12720,"invite":12721,"traits":12722,"vacation":12723,"##azi":12724,"banner":12725,"grows":12726,"##isy":12727,"diabetes":12728,"purely":12729,"recruiting":12730,"admission":12731,"lobbying":12732,"earthquake":12733,"##76":12734,"pixel":12735,"failures":12736,"reception":12737,"leagues":12738,"##ran":12739,"rolls":12740,"lifted":12741,"##ulu":12742,"decreased":12743,"sponsor":12744,"accounting":12745,"grabbed":12746,"bjp":12747,"mull":12748,"admits":12749,"territories":12750,"##page":12751,"administer":12752,"##ints":12753,"urge":12754,"burr":12755,"xi":12756,"michelle":12757,"jennifer":12758,"streak":12759,"advisory":12760,"1967":12761,"douglas":12762,"##aching":12763,"##anged":12764,"cocaine":12765,"interference":12766,"dubbed":12767,"boyfriend":12768,"##mel":12769,"pursuing":12770,"##ective":12771,"straw":12772,"wip":12773,"lesser":12774,"nightmare":12775,"magnitude":12776,"workplace":12777,"##nt":12778,"passionate":12779,"blown":12780,"doubled":12781,"permits":12782,"ds":12783,"subscription":12784,"raf":12785,"##apper":12786,"lyrics":12787,"booth":12788,"sparked":12789,"rubber":12790,"fortunately":12791,"bibl":12792,"wheat":12793,"politico":12794,"##gets":12795,"##pack":12796,"sci":12797,"masses":12798,"fraction":12799,"punk":12800,"lamp":12801,"premiere":12802,"lisa":12803,"##aukee":12804,"superman":12805,"undermine":12806,"avoiding":12807,"compiled":12808,"marco":12809,"establishing":12810,"indirect":12811,"rosen":12812,"pie":12813,"outlook":12814,"hypothesis":12815,"leverage":12816,"soci":12817,"fs":12818,"pseud":12819,"outdoor":12820,"poem":12821,"indonesia":12822,"taxpayer":12823,"rect":12824,"walter":12825,"indie":12826,"laughing":12827,"##wes":12828,"clause":12829,"##dog":12830,"whoever":12831,"inconsist":12832,"screaming":12833,"ltd":12834,"jab":12835,"pipe":12836,"corners":12837,"folder":12838,"clo":12839,"midfielder":12840,"strang":12841,"warrior":12842,"##cribed":12843,"decides":12844,"wooden":12845,"draws":12846,"crying":12847,"villages":12848,"corresponding":12849,"breit":12850,"observe":12851,"metropolitan":12852,"donated":12853,"pakistani":12854,"##oub":12855,"nathan":12856,"reli":12857,"heights":12858,"inflamm":12859,"zion":12860,"milw":12861,"##beit":12862,"careers":12863,"generous":12864,"tactical":12865,"gau":12866,"stones":12867,"bros":12868,"palestine":12869,"##hill":12870,"paragraph":12871,"namely":12872,"##comm":12873,"grind":12874,"athlete":12875,"sandy":12876,"acres":12877,"continent":12878,"swimming":12879,"##ationally":12880,"nad":12881,"##orph":12882,"1968":12883,"hammer":12884,"belgium":12885,"ya":12886,"invented":12887,"vap":12888,"disappointing":12889,"novels":12890,"coastal":12891,"mosque":12892,"precious":12893,"insane":12894,"islamist":12895,"creativity":12896,"paths":12897,"carlos":12898,"##sky":12899,"##vis":12900,"strengthen":12901,"mega":12902,"garage":12903,"telesc":12904,"forming":12905,"treatments":12906,"justified":12907,"garbage":12908,"mentally":12909,"poké":12910,"bite":12911,"curs":12912,"diagnosed":12913,"grat":12914,"colomb":12915,"catching":12916,"##di":12917,"transformed":12918,"accountable":12919,"exceptions":12920,"publications":12921,"decks":12922,"comply":12923,"##afts":12924,"##rist":12925,"1976":12926,"divid":12927,"aggression":12928,"locals":12929,"melt":12930,"##aria":12931,"1975":12932,"workforce":12933,"alar":12934,"organisations":12935,"1973":12936,"##mart":12937,"nixon":12938,"mold":12939,"milwaukee":12940,"##urred":12941,"slower":12942,"billy":12943,"cros":12944,"170":12945,"##kk":12946,"consolid":12947,"fict":12948,"meals":12949,"dug":12950,"intentions":12951,"autism":12952,"damages":12953,"tenure":12954,"alf":12955,"##las":12956,"vulnerability":12957,"implementing":12958,"wand":12959,"charts":12960,"regards":12961,"garner":12962,"filming":12963,"indict":12964,"passive":12965,"1972":12966,"liberties":12967,"succeeded":12968,"##ipper":12969,"bearing":12970,"vigil":12971,"##ener":12972,"##ateur":12973,"##ras":12974,"piv":12975,"cure":12976,"##72":12977,"superher":12978,"tiger":12979,"##ieval":12980,"remem":12981,"exhibit":12982,"remed":12983,"encryption":12984,"cage":12985,"beneficial":12986,"invisible":12987,"exhibition":12988,"infinite":12989,"ci":12990,"inappropriate":12991,"stevens":12992,"##ws":12993,"collapsed":12994,"bernard":12995,"recyc":12996,"suspicion":12997,"trim":12998,"emperor":12999,"yours":13000,"deleted":13001,"##map":13002,"slaves":13003,"historian":13004,"##usters":13005,"##idays":13006,"triv":13007,"branches":13008,"morph":13009,"musicians":13010,"argentina":13011,"governance":13012,"tib":13013,"##oints":13014,"sprint":13015,"##asted":13016,"springs":13017,"dive":13018,"vp":13019,"128":13020,"loot":13021,"strings":13022,"credibility":13023,"##izable":13024,"martial":13025,"spotlight":13026,"peng":13027,"feared":13028,"##iki":13029,"thir":13030,"delta":13031,"dischar":13032,"conclude":13033,"infamous":13034,"defining":13035,"aired":13036,"dennis":13037,"colored":13038,"dread":13039,"trauma":13040,"gly":13041,"anthrop":13042,"fancy":13043,"revenge":13044,"aliens":13045,"gren":13046,"nationals":13047,"consultant":13048,"mour":13049,"bankruptcy":13050,"shifts":13051,"lebanon":13052,"usd":13053,"sensors":13054,"spirits":13055,"wondered":13056,"incentives":13057,"heter":13058,"spare":13059,"bik":13060,"rebell":13061,"revised":13062,"anne":13063,"attributes":13064,"corrid":13065,"incentive":13066,"locker":13067,"raiders":13068,"1978":13069,"fifa":13070,"lasted":13071,"dynamics":13072,"karl":13073,"tolerance":13074,"##anka":13075,"enables":13076,"##erk":13077,"##ulates":13078,"meter":13079,"##aca":13080,"arn":13081,"muhammad":13082,"unaccept":13083,"comparable":13084,"##ulative":13085,"considers":13086,"1950s":13087,"koch":13088,"traditions":13089,"cargo":13090,"##gency":13091,"dent":13092,"##parts":13093,"triang":13094,"smartphones":13095,"outright":13096,"18th":13097,"eliminated":13098,"src":13099,"donate":13100,"##uto":13101,"ignoring":13102,"predictions":13103,"vector":13104,"sued":13105,"adventures":13106,"flames":13107,"cotton":13108,"##uv":13109,"adequate":13110,"bout":13111,"schm":13112,"arrangement":13113,"narc":13114,"portfolio":13115,"pref":13116,"vamp":13117,"kan":13118,"goldman":13119,"harrison":13120,"shark":13121,"offshore":13122,"petr":13123,"##utical":13124,"bee":13125,"stap":13126,"renewed":13127,"##iph":13128,"diox":13129,"ace":13130,"fond":13131,"marathon":13132,"agrees":13133,"sb":13134,"##lie":13135,"caf":13136,"breitbart":13137,"protective":13138,"urging":13139,"prohibited":13140,"practically":13141,"##brew":13142,"##track":13143,"encountered":13144,"calgary":13145,"dated":13146,"##alg":13147,"brazilian":13148,"blend":13149,"uh":13150,"purchasing":13151,"115":13152,"securities":13153,"##guard":13154,"dwar":13155,"brooks":13156,"routinely":13157,"##95":13158,"nexus":13159,"likelihood":13160,"shoulders":13161,"shin":13162,"##aches":13163,"adaptation":13164,"90s":13165,"convinc":13166,"gmt":13167,"ing":13168,"triumph":13169,"##ellar":13170,"analyses":13171,"resume":13172,"unveiled":13173,"spic":13174,"parenthood":13175,"cups":13176,"inmates":13177,"amn":13178,"firmly":13179,"delete":13180,"apt":13181,"spill":13182,"organizers":13183,"mh":13184,"rack":13185,"vm":13186,"entries":13187,"£1":13188,"##abe":13189,"mortality":13190,"seah":13191,"heroin":13192,"submar":13193,"puzzle":13194,"##rane":13195,"pray":13196,"airline":13197,"freshman":13198,"candy":13199,"mana":13200,"buffer":13201,"##forward":13202,"observers":13203,"##olo":13204,"disin":13205,"##atern":13206,"lesbian":13207,"cents":13208,"##██":13209,"##dling":13210,"evangelical":13211,"euros":13212,"limiting":13213,"counted":13214,"##pin":13215,"chrom":13216,"intu":13217,"spencer":13218,"ling":13219,"##block":13220,"stroke":13221,"roth":13222,"##lusive":13223,"threaten":13224,"endorsed":13225,"tory":13226,"leaning":13227,"prophet":13228,"aster":13229,"mush":13230,"variant":13231,"##aven":13232,"severely":13233,"##borne":13234,"inacc":13235,"sox":13236,"margar":13237,"suits":13238,"##ollah":13239,"bennett":13240,"massacre":13241,"hass":13242,"taxi":13243,"spike":13244,"##ahl":13245,"##aceutical":13246,"chronicle":13247,"albeit":13248,"debr":13249,"automated":13250,"revelation":13251,"##ecd":13252,"butler":13253,"pleaded":13254,"striker":13255,"chile":13256,"header":13257,"astronaut":13258,"armen":13259,"aur":13260,"inevitably":13261,"convenient":13262,"##és":13263,"appealing":13264,"palin":13265,"##ori":13266,"problematic":13267,"inspector":13268,"##stock":13269,"subway":13270,"mobility":13271,"apology":13272,"prote":13273,"reasoning":13274,"sectors":13275,"bikes":13276,"negotiate":13277,"winn":13278,"archives":13279,"lined":13280,"confidential":13281,"briefing":13282,"matched":13283,"smash":13284,"fundamentally":13285,"farmer":13286,"touchdowns":13287,"tooth":13288,"northeast":13289,"rachel":13290,"dealers":13291,"tales":13292,"jamie":13293,"##roll":13294,"leaks":13295,"unle":13296,"##leton":13297,"specified":13298,"chef":13299,"broncos":13300,"##afi":13301,"cruise":13302,"lately":13303,"tribute":13304,"wallace":13305,"atomic":13306,"halt":13307,"meteor":13308,"pistol":13309,"tuned":13310,"lawsuits":13311,"##advant":13312,"neat":13313,"fundraising":13314,"relating":13315,"rico":13316,"artif":13317,"cape":13318,"diagnosis":13319,"attacker":13320,"accurately":13321,"buses":13322,"chin":13323,"##tress":13324,"##ifi":13325,"exceptional":13326,"##illo":13327,"laura":13328,"##opard":13329,"loyalty":13330,"aka":13331,"commented":13332,"liberation":13333,"ecl":13334,"spurs":13335,"averaged":13336,"##lett":13337,"willingness":13338,"##oard":13339,"bobby":13340,"##kind":13341,"##usc":13342,"wag":13343,"lengthy":13344,"bend":13345,"locally":13346,"##itative":13347,"##mented":13348,"float":13349,"mak":13350,"congressman":13351,"jed":13352,"reinfor":13353,"merit":13354,"itunes":13355,"effectiveness":13356,"drought":13357,"fuels":13358,"1977":13359,"socialism":13360,"##vs":13361,"##ishes":13362,"tout":13363,"##hop":13364,"modes":13365,"##far":13366,"consumed":13367,"aviation":13368,"southwest":13369,"obl":13370,"##western":13371,"fusion":13372,"##issa":13373,"assumptions":13374,"closure":13375,"organize":13376,"escaped":13377,"mma":13378,"coat":13379,"tak":13380,"cair":13381,"ethere":13382,"railway":13383,"delays":13384,"nodes":13385,"impair":13386,"forty":13387,"ninth":13388,"nationalist":13389,"##bus":13390,"##aux":13391,"mccar":13392,"incon":13393,"##iper":13394,"vegetables":13395,"prejud":13396,"translate":13397,"blair":13398,"starring":13399,"vand":13400,"defendants":13401,"pause":13402,"pile":13403,"disadvant":13404,"##found":13405,"moz":13406,"legends":13407,"genoc":13408,"towers":13409,"demographic":13410,"##ea":13411,"tags":13412,"unacceptable":13413,"lovely":13414,"sculpt":13415,"bryan":13416,"expose":13417,"merg":13418,"bats":13419,"grandm":13420,"variations":13421,"unanim":13422,"horses":13423,"og":13424,"privately":13425,"billionaire":13426,"##iasm":13427,"##with":13428,"##opa":13429,"congrat":13430,"##riel":13431,"supportive":13432,"copper":13433,"gpu":13434,"counterparts":13435,"seiz":13436,"11th":13437,"baghd":13438,"denmark":13439,"##rus":13440,"stepping":13441,"pine":13442,"1969":13443,"edwards":13444,"suite":13445,"lone":13446,"abused":13447,"celebrating":13448,"##ovic":13449,"midfield":13450,"fran":13451,"zombie":13452,"snake":13453,"linebacker":13454,"boots":13455,"hazard":13456,"precision":13457,"ammun":13458,"hbo":13459,"legitim":13460,"classroom":13461,"haul":13462,"breed":13463,"vikings":13464,"strictly":13465,"aggr":13466,"dublin":13467,"shootings":13468,"zip":13469,"##eling":13470,"##79":13471,"cinema":13472,"thorn":13473,"gmail":13474,"ov":13475,"volt":13476,"affecting":13477,"##ele":13478,"tol":13479,"carriers":13480,"chand":13481,"krem":13482,"instruction":13483,"recalls":13484,"misleading":13485,"pitcher":13486,"whats":13487,"kate":13488,"bt":13489,"pharmaceutical":13490,"troubles":13491,"oral":13492,"##──":13493,"##car":13494,"vessel":13495,"crus":13496,"sep":13497,"thoroughly":13498,"germans":13499,"clouds":13500,"edges":13501,"raped":13502,"##matic":13503,"blogs":13504,"streams":13505,"1974":13506,"##49":13507,"kab":13508,"alumin":13509,"downs":13510,"dir":13511,"##piece":13512,"mik":13513,"withdrawal":13514,"prediction":13515,"bipart":13516,"separately":13517,"freeze":13518,"##wick":13519,"tx":13520,"switching":13521,"exercises":13522,"obes":13523,"##ugging":13524,"aus":13525,"searches":13526,"##ocity":13527,"shutdown":13528,"mumb":13529,"##zb":13530,"expressing":13531,"julian":13532,"##aneous":13533,"malware":13534,"fathers":13535,"altered":13536,"investigative":13537,"lem":13538,"imagined":13539,"griffin":13540,"ammunition":13541,"obligation":13542,"consulting":13543,"axis":13544,"guild":13545,"##think":13546,"prese":13547,"bra":13548,"zoo":13549,"lud":13550,"nurse":13551,"eagle":13552,"mature":13553,"sometime":13554,"underway":13555,"slim":13556,"ende":13557,"measurements":13558,"disability":13559,"richmond":13560,"switched":13561,"mlb":13562,"tutorial":13563,"7th":13564,"wade":13565,"soup":13566,"1971":13567,"overview":13568,"chan":13569,"##ão":13570,"costly":13571,"tm":13572,"##zing":13573,"gosp":13574,"founders":13575,"independently":13576,"defendant":13577,"##idia":13578,"hint":13579,"crashed":13580,"##feld":13581,"drain":13582,"resignation":13583,"traum":13584,"alice":13585,"adapted":13586,"##lington":13587,"stealing":13588,"##ecurity":13589,"symbols":13590,"replay":13591,"lethal":13592,"enthusiasm":13593,"nazis":13594,"navigation":13595,"##ospheric":13596,"dispens":13597,"rats":13598,"algorithms":13599,"outbreak":13600,"scrap":13601,"drill":13602,"skeptical":13603,"ndp":13604,"enrich":13605,"unfold":13606,"demonstrations":13607,"rendering":13608,"credential":13609,"phillips":13610,"matrix":13611,"frustrating":13612,"spells":13613,"gand":13614,"malaysia":13615,"neural":13616,"dioxide":13617,"reduces":13618,"ink":13619,"functioning":13620,"militant":13621,"medication":13622,"predomin":13623,"arranged":13624,"sic":13625,"fitz":13626,"evolutionary":13627,"dolphins":13628,"sounded":13629,"##ptive":13630,"fitting":13631,"cardinals":13632,"unconsc":13633,"hydrogen":13634,"sexuality":13635,"recipes":13636,"verb":13637,"fulfill":13638,"boats":13639,"cute":13640,"chess":13641,"consume":13642,"associates":13643,"risen":13644,"shakes":13645,"volumes":13646,"behaviors":13647,"regulate":13648,"hipp":13649,"observer":13650,"denying":13651,"##bean":13652,"##iosity":13653,"nost":13654,"pokémon":13655,"substantially":13656,"interim":13657,"mccarthy":13658,"clarity":13659,"duo":13660,"prescription":13661,"shaw":13662,"##atherine":13663,"exagger":13664,"disgust":13665,"##dles":13666,"allied":13667,"insights":13668,"fla":13669,"cis":13670,"moh":13671,"104":13672,"crews":13673,"spat":13674,"dos":13675,"shep":13676,"surveys":13677,"civic":13678,"##olved":13679,"tide":13680,"tin":13681,"opera":13682,"inventory":13683,"seahawks":13684,"rider":13685,"intend":13686,"##abad":13687,"confusing":13688,"solving":13689,"inflic":13690,"telegraph":13691,"texture":13692,"accordingly":13693,"##agh":13694,"endang":13695,"couch":13696,"##mons":13697,"killings":13698,"browns":13699,"bryant":13700,"straightforward":13701,"##ulk":13702,"dangers":13703,"processed":13704,"obesity":13705,"incoming":13706,"icel":13707,"accidentally":13708,"##rep":13709,"frost":13710,"sacrament":13711,"qualities":13712,"hispanic":13713,"##alling":13714,"cuban":13715,"bicycle":13716,"pup":13717,"flower":13718,"##othy":13719,"sullivan":13720,"penins":13721,"##neath":13722,"supern":13723,"##urer":13724,"##aults":13725,"##asi":13726,"insists":13727,"plugin":13728,"puck":13729,"labeled":13730,"underneath":13731,"##ioned":13732,"regress":13733,"barbara":13734,"loses":13735,"911":13736,"heck":13737,"##abil":13738,"pronounced":13739,"kath":13740,"convey":13741,"supplied":13742,"##tin":13743,"##enna":13744,"sheep":13745,"uran":13746,"elaborate":13747,"##igo":13748,"incumb":13749,"quo":13750,"dimensions":13751,"proxy":13752,"stays":13753,"testified":13754,"holders":13755,"mueller":13756,"consistency":13757,"kaz":13758,"intermedi":13759,"##ailand":13760,"plea":13761,"##mail":13762,"kon":13763,"##style":13764,"ki":13765,"##issance":13766,"airpl":13767,"guilt":13768,"marcus":13769,"patriot":13770,"##omal":13771,"tribes":13772,"hedge":13773,"fork":13774,"contractors":13775,"zen":13776,"mvp":13777,"fines":13778,"grocery":13779,"complement":13780,"endeav":13781,"##oline":13782,"##low":13783,"curry":13784,"divisions":13785,"##tor":13786,"qb":13787,"eleg":13788,"persistent":13789,"declining":13790,"junk":13791,"moham":13792,"preseason":13793,"responsibilities":13794,"##uro":13795,"iceland":13796,"thailand":13797,"ibm":13798,"fixes":13799,"czech":13800,"goodman":13801,"patt":13802,"##ava":13803,"##ressive":13804,"harbor":13805,"qatar":13806,"desperately":13807,"##ladesh":13808,"rises":13809,"erd":13810,"fals":13811,"solved":13812,"firefox":13813,"##text":13814,"##ibr":13815,"mick":13816,"teenagers":13817,"bangladesh":13818,"playback":13819,"dough":13820,"##enberg":13821,"##marks":13822,"cancelled":13823,"occurring":13824,"achieving":13825,"solic":13826,"##utter":13827,"drilling":13828,"urgent":13829,"##actic":13830,"synt":13831,"##cd":13832,"broadc":13833,"permanently":13834,"recommendation":13835,"##ocaust":13836,"6th":13837,"hallow":13838,"aide":13839,"##storm":13840,"##uthor":13841,"dignity":13842,"tongue":13843,"yoga":13844,"voy":13845,"##vo":13846,"sql":13847,"##anto":13848,"intensive":13849,"hik":13850,"##aba":13851,"filmed":13852,"sensitivity":13853,"frames":13854,"inhabit":13855,"##umer":13856,"newest":13857,"licenses":13858,"brib":13859,"newton":13860,"voluntary":13861,"##asse":13862,"restored":13863,"sweat":13864,"bannon":13865,"cooling":13866,"pengu":13867,"veto":13868,"sunni":13869,"villain":13870,"accommodate":13871,"breakthrough":13872,"resistant":13873,"schemes":13874,"pere":13875,"holocaust":13876,"globally":13877,"souls":13878,"##gence":13879,"##ounce":13880,"reasonably":13881,"ladies":13882,"enabling":13883,"pete":13884,"tricks":13885,"##oubted":13886,"sovereignty":13887,"##ensional":13888,"##astically":13889,"undoubted":13890,"##ressing":13891,"##space":13892,"tackles":13893,"img":13894,"##cha":13895,"dair":13896,"belongs":13897,"doi":13898,"rogue":13899,"travelling":13900,"disclose":13901,"metres":13902,"wounds":13903,"stern":13904,"tropical":13905,"kicking":13906,"##inson":13907,"consuming":13908,"##oust":13909,"liability":13910,"packers":13911,"oun":13912,"multiplayer":13913,"sponsors":13914,"bullets":13915,"audit":13916,"notorious":13917,"##illery":13918,"administrator":13919,"lac":13920,"intake":13921,"##ck":13922,"nonsense":13923,"##afe":13924,"vendors":13925,"theoretical":13926,"dude":13927,"equation":13928,"hod":13929,"misconduct":13930,"biden":13931,"tire":13932,"legislators":13933,"rd":13934,"mentions":13935,"berg":13936,"quinn":13937,"scripts":13938,"exploitation":13939,"submission":13940,"##mble":13941,"##eep":13942,"1960":13943,"enlight":13944,"determining":13945,"##haul":13946,"delib":13947,"mck":13948,"preferences":13949,"measuring":13950,"rhythm":13951,"extending":13952,"immers":13953,"##uum":13954,"indef":13955,"amnesty":13956,"##lection":13957,"shipped":13958,"artwork":13959,"firefight":13960,"slic":13961,"##hh":13962,"troubled":13963,"goth":13964,"networking":13965,"lakes":13966,"##points":13967,"terrain":13968,"judici":13969,"##opy":13970,"medi":13971,"plum":13972,"firearm":13973,"utc":13974,"shi":13975,"##iri":13976,"cla":13977,"angels":13978,"meditation":13979,"##zo":13980,"grandfather":13981,"##uki":13982,"affiliate":13983,"##van":13984,"##utt":13985,"stub":13986,"analog":13987,"attribute":13988,"aub":13989,"propr":13990,"backlash":13991,"lex":13992,"sells":13993,"aboard":13994,"mercury":13995,"spray":13996,"felony":13997,"bridges":13998,"##73":13999,"rocky":14000,"backers":14001,"apocal":14002,"turb":14003,"packs":14004,"##opia":14005,"##orrent":14006,"rash":14007,"horizont":14008,"philosophical":14009,"pirates":14010,"forests":14011,"nancy":14012,"haun":14013,"750":14014,"completing":14015,"helmet":14016,"useless":14017,"artistic":14018,"eleven":14019,"##urt":14020,"##atus":14021,"jesse":14022,"nationally":14023,"prosperity":14024,"yo":14025,"obligations":14026,"newer":14027,"inh":14028,"utterly":14029,"stimulus":14030,"feminism":14031,"judiciary":14032,"plates":14033,"boxing":14034,"beam":14035,"considerably":14036,"midst":14037,"genuinely":14038,"rental":14039,"spite":14040,"peninsula":14041,"##troll":14042,"reset":14043,"bacon":14044,"joel":14045,"prey":14046,"relies":14047,"liz":14048,"relate":14049,"arabic":14050,"patience":14051,"brotherhood":14052,"maintains":14053,"##etz":14054,"dip":14055,"##quit":14056,"outlet":14057,"lieuten":14058,"inability":14059,"amateur":14060,"slides":14061,"refere":14062,"reinforce":14063,"pretend":14064,"bans":14065,"shapes":14066,"objectives":14067,"jessica":14068,"##mouth":14069,"til":14070,"manages":14071,"##omo":14072,"##conn":14073,"tourist":14074,"signatures":14075,"##ui":14076,"80s":14077,"##uity":14078,"pleasant":14079,"revelations":14080,"12th":14081,"neutrality":14082,"analytics":14083,"portrait":14084,"glasses":14085,"##ulous":14086,"uss":14087,"entrepreneur":14088,"centered":14089,"beats":14090,"demonstrates":14091,"##dled":14092,"jaw":14093,"cer":14094,"mills":14095,"hearings":14096,"extends":14097,"proposition":14098,"eternal":14099,"companion":14100,"doom":14101,"garcia":14102,"##unc":14103,"bipartisan":14104,"compact":14105,"##shot":14106,"doubts":14107,"arbitrary":14108,"##affe":14109,"cox":14110,"yam":14111,"shadows":14112,"speeches":14113,"navigate":14114,"##ppo":14115,"confronted":14116,"rex":14117,"pirate":14118,"mast":14119,"##rad":14120,"upside":14121,"tac":14122,"flows":14123,"costume":14124,"proving":14125,"anonymity":14126,"medieval":14127,"colin":14128,"rus":14129,"##ulsion":14130,"victories":14131,"successor":14132,"destructive":14133,"flooding":14134,"contributor":14135,"financially":14136,"travels":14137,"antibiot":14138,"austerity":14139,"##hran":14140,"austria":14141,"cares":14142,"lacks":14143,"plun":14144,"##borough":14145,"settlements":14146,"17th":14147,"dissent":14148,"undoubtedly":14149,"hav":14150,"ree":14151,"negotiating":14152,"##bish":14153,"dum":14154,"quantity":14155,"##hem":14156,"suited":14157,"##len":14158,"certified":14159,"digest":14160,"broadcasting":14161,"lazy":14162,"murders":14163,"cousin":14164,"outlined":14165,"##hydr":14166,"cater":14167,"hotels":14168,"nashville":14169,"guided":14170,"glac":14171,"physician":14172,"descend":14173,"##osaur":14174,"13th":14175,"laying":14176,"beside":14177,"spends":14178,"##urring":14179,"arrangements":14180,"samuel":14181,"associations":14182,"committees":14183,"##atural":14184,"##mines":14185,"pivot":14186,"illustrated":14187,"salaries":14188,"panthers":14189,"das":14190,"parameter":14191,"borr":14192,"nvidia":14193,"##hard":14194,"exter":14195,"satan":14196,"arrives":14197,"reviewing":14198,"facilitate":14199,"##aha":14200,"175":14201,"credible":14202,"regulated":14203,"casualties":14204,"sheets":14205,"ws":14206,"cycles":14207,"priorit":14208,"portray":14209,"necessity":14210,"tablets":14211,"humil":14212,"overhaul":14213,"chim":14214,"vague":14215,"sweeping":14216,"##puted":14217,"holmes":14218,"unbel":14219,"pastor":14220,"keyword":14221,"##pace":14222,"analyzed":14223,"joh":14224,"finn":14225,"##days":14226,"fever":14227,"mend":14228,"elevated":14229,"hypocr":14230,"redistr":14231,"renov":14232,"reh":14233,"ambul":14234,"manus":14235,"caval":14236,"interestingly":14237,"tokens":14238,"##ullah":14239,"finale":14240,"macro":14241,"##tag":14242,"subscribers":14243,"##jar":14244,"vessels":14245,"weed":14246,"kicks":14247,"##okers":14248,"cubs":14249,"1965":14250,"handy":14251,"nj":14252,"halloween":14253,"greed":14254,"ours":14255,"##ranean":14256,"49ers":14257,"convincing":14258,"lighter":14259,"##orable":14260,"inspire":14261,"donor":14262,"muscles":14263,"carib":14264,"1964":14265,"prone":14266,"kremlin":14267,"relent":14268,"correspondent":14269,"transcript":14270,"refusal":14271,"contempl":14272,"vacuum":14273,"reiter":14274,"conform":14275,"adoles":14276,"allah":14277,"caut":14278,"assembled":14279,"dire":14280,"segreg":14281,"miner":14282,"assassination":14283,"mistaken":14284,"##fund":14285,"tournaments":14286,"fog":14287,"voiced":14288,"tehran":14289,"##uri":14290,"workshop":14291,"jacket":14292,"cem":14293,"stu":14294,"16th":14295,"##uccess":14296,"sealed":14297,"##inos":14298,"soy":14299,"ti":14300,"##retion":14301,"contamin":14302,"attackers":14303,"treasure":14304,"tempt":14305,"sudan":14306,"##âãâãâãâãâãâãâãâã":14307,"fixing":14308,"prohibition":14309,"trademark":14310,"injection":14311,"collections":14312,"correction":14313,"##85":14314,"prisons":14315,"sync":14316,"deputies":14317,"moss":14318,"mk":14319,"linkedin":14320,"maid":14321,"##ailing":14322,"debris":14323,"##yst":14324,"dairy":14325,"embraced":14326,"ethereum":14327,"subjected":14328,"sach":14329,"assange":14330,"sharks":14331,"plag":14332,"109":14333,"##inate":14334,"dow":14335,"homeown":14336,"1945":14337,"businessman":14338,"##market":14339,"disclosed":14340,"##inging":14341,"##eston":14342,"##ounding":14343,"saves":14344,"pairs":14345,"slice":14346,"labs":14347,"##mingham":14348,"zach":14349,"broadly":14350,"hollow":14351,"designing":14352,"crunch":14353,"holidays":14354,"steph":14355,"dimension":14356,"hardest":14357,"sier":14358,"inherent":14359,"llc":14360,"tennis":14361,"substitute":14362,"musk":14363,"achievements":14364,"wordpress":14365,"lips":14366,"wii":14367,"##chez":14368,"expressions":14369,"##giving":14370,"risky":14371,"jurisdiction":14372,"swall":14373,"qualifying":14374,"vine":14375,"evolve":14376,"cigarette":14377,"tactic":14378,"##46":14379,"##iments":14380,"##dem":14381,"neurons":14382,"boeing":14383,"angela":14384,"##mith":14385,"tomm":14386,"##yon":14387,"underw":14388,"specify":14389,"characterized":14390,"aides":14391,"attraction":14392,"offline":14393,"birmingham":14394,"sticks":14395,"censorship":14396,"survivor":14397,"relying":14398,"nitr":14399,"overtime":14400,"##ulin":14401,"##inery":14402,"##reach":14403,"declaring":14404,"blizz":14405,"baseline":14406,"portrayed":14407,"sanction":14408,"##etti":14409,"togg":14410,"15th":14411,"poetry":14412,"luther":14413,"maneu":14414,"##most":14415,"##itary":14416,"stig":14417,"testament":14418,"burger":14419,"rays":14420,"endorsement":14421,"valued":14422,"shoe":14423,"vatic":14424,"##opath":14425,"pockets":14426,"shelf":14427,"imports":14428,"dominate":14429,"nasty":14430,"barrels":14431,"affiliated":14432,"indianapolis":14433,"recreational":14434,"fury":14435,"magazines":14436,"analyze":14437,"banning":14438,"fictional":14439,"discourse":14440,"gramm":14441,"##onts":14442,"valve":14443,"mohammed":14444,"casino":14445,"##iaz":14446,"jungle":14447,"calories":14448,"##eva":14449,"##dc":14450,"##inces":14451,"satisfaction":14452,"##iguez":14453,"socially":14454,"##89":14455,"msnbc":14456,"##oner":14457,"iter":14458,"wolves":14459,"intentionally":14460,"##aires":14461,"ain":14462,"priced":14463,"correlation":14464,"prisoner":14465,"violating":14466,"##71":14467,"strat":14468,"committing":14469,"14th":14470,"penny":14471,"##ippers":14472,"102":14473,"##js":14474,"metric":14475,"apologize":14476,"vibr":14477,"overturn":14478,"laughed":14479,"gul":14480,"grasp":14481,"heated":14482,"opted":14483,"facial":14484,"broadway":14485,"prayers":14486,"readily":14487,"ate":14488,"epidemic":14489,"sticking":14490,"##andez":14491,"##wid":14492,"favorable":14493,"cherry":14494,"gore":14495,"atmospheric":14496,"vatican":14497,"hydro":14498,"colony":14499,"misunder":14500,"pierre":14501,"fifteen":14502,"varying":14503,"nuts":14504,"pec":14505,"swap":14506,"shortage":14507,"initiated":14508,"frontier":14509,"rodgers":14510,"iq":14511,"bronze":14512,"homosexuality":14513,"nobel":14514,"columns":14515,"spear":14516,"lemon":14517,"foul":14518,"organised":14519,"ion":14520,"stakes":14521,"recordings":14522,"diesel":14523,"surpass":14524,"##osi":14525,"f1":14526,"##orus":14527,"credited":14528,"chad":14529,"expectation":14530,"whatsapp":14531,"##uting":14532,"aiming":14533,
[...]
