[PAD]
[UNK]
[CLS]
[SEP]
[MASK]
!
"
#
$
%
&
'
(
)
*
+
,
-
.
/
0
1
2
3
4
5
6
7
8
9
:
;
<
=
>
?
@
[
\
]
^
_
`
a
b
c
d
e
f
g
h
i
j
k
l
m
n
o
p
q
r
s
t
u
v
w
x
y
z
{
|
}
~












¡
¢
£
¤
¥
¦
§
¨
©
«
¬
­
®
¯
°
±
²
³
´
µ
¶
·
¸
¹
º
»
¼
½
¾
¿
×
ß
à
á
â
ã
ä
å
æ
ç
è
é
ê
ë
ì
í
î
ï
ð
ñ
ò
ó
ô
õ
ö
÷
ø
ù
ú
û
ü
ý
þ
ÿ
ā
ă
ą
ć
č
đ
ē
ė
ę
ě
ĝ
ğ
ī
ı
ł
ń
ŋ
ō
ő
œ
ř
ś
ş
š
ţ
ū
ŭ
ů
ź
ż
ž
ƒ
ǎ
ǐ
ǒ
ǔ
ș
ț
ɑ
ɔ
ə
ɛ
ɡ
ɪ
ɾ
ʃ
ʊ
ʔ
ʖ
ʰ
ʲ
ʻ
ʼ
ʿ
ˈ
ː
˙
˚
˜
̀
́
̃
̄
̇
̈
̯
̶
͜
͡
ά
έ
ή
ί
α
β
γ
δ
ε
ζ
η
θ
ι
κ
λ
μ
ν
ξ
ο
π
ρ
ς
σ
τ
υ
φ
χ
ψ
ω
ό
ύ
ώ
ϕ
а
б
в
г
д
е
ж
з
и
й
к
л
м
н
о
п
р
с
т
у
ф
х
ц
ч
ш
щ
ъ
ы
ь
э
ю
я
ё
ѕ
і
ї
ա
ե
ի
ն
ո
ր
ւ
ְ
ִ
ֶ
ַ
ָ
ֹ
ּ
א
ב
ג
ד
ה
ו
ז
ח
ט
י
כ
ל
ם
מ
ן
נ
ס
ע
פ
צ
ק
ר
ש
ת
،
ء
آ
أ
إ
ئ
ا
ب
ة
ت
ث
ج
ح
خ
د
ذ
ر
ز
س
ش
ص
ض
ط
ظ
ع
غ
ـ
ف
ق
ك
ل
م
ن
ه
و
ى
ي
ً
َ
ُ
ِ
ّ
ْ
ک
ی
ं
क
ग
च
ज
त
द
न
प
ब
भ
म
य
र
ल
व
श
स
ह
ा
ि
ी
ु
े
ै
ो
्
।
র
া
ে
্
க
ி
்
್
ക
ത
ന
ാ
ി
ു
്
ก
ค
ง
ด
ต
ท
น
บ
ป
ม
ย
ร
ล
ว
ส
ห
อ
ะ
ั
า
ิ
ี
เ
่
้
๎
་
ḍ
ḥ
ṃ
ṇ
ṛ
ṣ
ṭ
ệ
ἀ
ἐ
ὶ
​
‌
‍
‎
‏
‐
‑
‒
–
—
―
‘
’
‚
“
”
„
†
‡
•
…
‪
‬
‭
‰
′
″
‹
›
※
⁃
⁄
⁠
⁡
€
₹
™
⅓
←
↑
→
↓
↩
⇒
⇓
∀
∂
∈
∑
−
∗
∘
∙
√
∞
∧
∫
∴
∵
∼
≈
≠
≡
≤
≥
⋅
⌘
ⓒ
ⓘ
─
━
│
└
├
┼
═
║
╺
▀
▄
█
▌
▐
░
▒
▓
■
□
▪
▬
▲
▶
►
▼
◆
◊
○
●
★
☆
♠
♥
♦
♪
♫
♭
✓
✔
❤
➤
⟨
⟩
、
。
〉
「
」
『
』
【
】
〓
あ
い
う
え
お
か
が
き
く
け
げ
こ
ご
さ
し
じ
す
ず
せ
そ
た
だ
ち
っ
つ
て
で
と
ど
な
に
ね
の
は
ば
び
へ
べ
ほ
ま
み
め
も
ゃ
や
ょ
よ
ら
り
る
れ
ろ
わ
を
ん
ァ
ア
ィ
イ
ウ
ェ
エ
オ
カ
ガ
キ
ク
グ
ケ
ゲ
コ
ゴ
サ
ザ
シ
ジ
ス
ズ
セ
ソ
タ
ダ
チ
ッ
ツ
テ
デ
ト
ド
ナ
ニ
ネ
ノ
ハ
バ
パ
ビ
ピ
フ
ブ
プ
ベ
ボ
ポ
マ
ミ
ム
メ
モ
ャ
ュ
ョ
ラ
リ
ル
レ
ロ
ワ
ン
・
ー
ヽ
ㅋ
ㅠ
一
三
上
下
不
世
个
中
为
主
么
之
也
了
事
二
京
人
今
他
代
以
们
会
体
何
作
你
使
保
信
先
入
全
公
其
内
出
分
利
到
制
前
力
加
動
化
北
十
南
原
发
取
可
合
同
名
向
和
品
回
国
在
地
場
士
変
外
多
大
天
太
女
好
如
子
字
学
安
定
実
家
对
対
小
少
就
山
工
市
常
平
年
度
式
当
後
得
心
思
性
情
想
意
感
成
我
戦
所
手
持
政
教
数
文
新
方
日
时
明
是
時
書
最
月
有
期
木
本
来
東
果
機
正
民
気
水
法
海
点
無
然
物
特
王
現
理
生
用
田
由
界
発
的
目
相
真
着
知
社
神
私
空
立
第
等
网
美
者
而
能
自
色
行
表
西
要
見
解
言
記
話
語
说
起
身
这
通
道
那
部
都
重
金
長
開
間
関
集
面
音
高
魔
가
것
게
경
고
공
과
구
국
그
기
나
는
니
다
대
데
도
동
드
들
라
로
를
리
마
만
면
모
무
미
보
부
비
사
상
서
선
성
소
수
스
습
시
신
아
어
에
여
오
요
우
원
으
은
을
의
이
인
일
있
자
장
적
전
정
제
주
지
진
트
하
한
해
했


ﬁ
ﬂ
️
﻿
！
（
）
，
－
／
１
：
？
＼
＿
～
｡
･
ﾟ
￣
￼
�
🇸
🇺
😀
😂
😉
🙂
##j
##a
##b
##l
##u
##t
##e
##s
##o
##n
##r
##‭
##d
##i
##g
##m
##ã
##¢
##â
##f
##z
##w
##2
##7
##c
##y
##9
##h
##v
##p
##k
##­
##َ
##ب
##ّ
##ا
##ً
##5
##0
##
##x
##4
##е
##р
##ш
##и
##т
##с
##я
##8
##1
##6
##3
##ă
##q
##
##ラ
##ü
##±
##ć
##ː
##↓
##о
##ф
##й
##í
##ч
##н
##ы
##х
##人
##ţ
##č
##ج
##و
##ز
##ه
##€
##ä
##м
##п
##ñ
##り
##ア
##ク
##シ
##ョ
##ン
##性
##が
##し
##ま
##す
##ž
##á
##ö
##´
##а
##品
##と
##の
##生
##じ
##る
##場
##合
##あ
##民
##×
##ん
##で
##い
##た
##も
##て
##フ
##ァ
##イ
##ル
##を
##う
##制
##作
##者
##は
##全
##身
##に
##お
##な
##ら
##ー
##ザ
##方
##内
##正
##や
##ご
##ə
##ṭ
##ā
##स
##्
##म
##ा
##द
##र
##त
##أ
##م
##ر
##事
##ק
##ר
##י
##ם
##했
##다
##ī
##®
##前
##是
##二
##到
##天
##有
##으
##л
##д
##年
##月
##め
##動
##ø
##é
##º
##ą
##і
##
##°
##
##
##у
##ş
##ı
##г
##↩
##š
##한
##시
##을
##リ
##ю
##世
##界
##来
##間
##無
##っ
##ち
##定
##か
##よ
##さ
##ि
##प
##न
##西
##空
##
##実
##用
##向
##理
##き
##ी
##े
##в
##ь
##⌘
##表
##ベ
##ス
##知
##成
##持
##つ
##新
##想
##当
##的
##士
##不
##好
##́
##ி
##்
##å
##れ
##回
##学
##だ
##こ
##ل
##ق
##ض
##ء
##기
##자
##ō
##æ
##œ
##─
##ρ
##ο
##σ
##ε
##λ
##κ
##ύ
##ι
##手
##入
##力
##後
##ロ
##ッ
##ト
##ダ
##グ
##出
##保
##く
##ж
##え
##к
##ł
##수
##ū
##여
##주
##​
##ش
##ك
##ة
##ع
##ي
##パ
##テ
##ィ
##б
##з
##ê
##ð
##安
##化
##度
##使
##ג
##ע
##ן
##ա
##ո
##ւ
##以
##高
##等
##ʊ
##η
##ά
##τ
##α
##ς
##ó
##ന
##ു
##語
##何
##他
##我
##時
##를
##ц
##ن
##ה
##ל
##כ
##政
##関
##心
##ô
##ょ
##ド
##プ
##ム
##げ
##先
##要
##ę
##ボ
##에
##金
##ś
##ネ
##べ
##け
##ど
##φ
##έ
##和
##ِ
##ت
##ُ
##ط
##ْ
##خ
##ξ
##ώ
##タ
##戦
##自
##分
##地
##へ
##비
##스
##는
##モ
##ִ
##ˈ
##ʃ
##ɛ
##ʲ
##ɪ
##ú
##ャ
##ウ
##レ
##見
##전
##해
##魔
##王
##▀
##▄
##█
##θ
##μ
##ν
##本
##市
##体
##国
##ェ
##ב
##ת
##‎
##大
##マ
##ṇ
##コ
##̯
##了
##
##一
##个
##说
##然
##着
##海
##南
##部
##在
##ż
##♠
##א
##ו
##ガ
##感
##山
##ě
##カ
##ゴ
##機
##‬
##ジ
##ュ
##ί
##ω
##‏
##്
##バ
##多
##子
##ね
##س
##ى
##そ
##د
##™
##국
##이
##라
##ف
##都
##道
##之
##�
##変
##気
##श
##व
##ं
##ह
##ù
##υ
##γ
##µ
##습
##들
##→
##î
##们
##家
##真
##目
##ŭ
##ζ
##加
##也
##神
##π
##ό
##ɔ
##み
##ն
##ե
##ր
##ज
##明
##è
##ṣ
##ḥ
##外
##β
##面
##ニ
##行
##ズ
##ブ
##点
##意
##ാ
##ി
##ക
##ŋ
##্
##キ
##サ
##法
##⋅
##ё
##最
##女
##公
##社
##게
##니
##ë
##의
##가
##น
##ป
##่
##ว
##ย
##﻿
##ř
##요
##지
##ば
##¹
##ै
##ब
##ò
##ǔ
##ē
##−
##相
##信
##数
##ค
##ต
##ร
##ส
##≈
##同
##起
##щ
##ゃ
##♦
##►
##式
##デ
##ի
##ּ
##ְ
##ח
##ֹ
##à
##上
##通
##中
##情
##ろ
##া
##ে
##ی
##記
##チ
##เ
##集
##đ
##δ
##ç
##网
##나
##פ
##ɾ
##ț
##क
##ल
##신
##보
##서
##마
##由
##可
##能
##무
##ъ
##로
##
##平
##所
##ポ
##ד
##重
##️
##อ
##ง
##ก
##נ
##♥
##¨
##ะ
##ด
##ม
##า
##ล
##ั
##บ
##ห
##ý
##χ
##
##모
##드
##ゲ
##트
##장
##ǒ
##ɡ
##現
##ß
##ɑ
##下
##果
##你
##这
##为
##話
##ﬁ
##日
##利
##ğ
##
##わ
##代
##十
##せ
##û
##ַ
##ז
##ず
##言
##ک
##ナ
##メ
##对
##水
##경
##하
##エ
##会
##진
##²
##ـ
##～
##ビ
##ु
##思
##ो
##ذ
##び
##么
##ő
##ή
##ṛ
##第
##ס
##期
##ص
##일
##常
##고
##ท
##ี
##ǎ
##ح
##ミ
##開
##発
##̀
##¤
##£
##õ
##ï
##¼
##ì
##¾
##ظ
##적
##인
##ė
##发
##면
##ئ
##ത
##¦
##三
##色
##성
##○
##●
##対
##得
##정
##ʿ
##þ
##إ
##░
##▒
##מ
##ソ
##데
##ハ
##˜
##র
##어
##도
##東
##य
##리
##ग
##ʔ
##¯
##©
##物
##★
##═
##ÿ
##½
##च
##¬
##사
##而
##教
##文
##‪
##ث
##小
##太
##解
##１
##❤
##長
##ź
##ń
##ʻ
##선
##取
##˚
##ƒ
##க
##ほ
##아
##名
##̄
##≥
##京
##ט
##만
##字
##書
##如
##↑
##▪
##과
##主
##ș
##부
##್
##▌
##ָ
##구
##̃
##̇
##ש
##│
##北
##¸
##ワ
##那
##オ
##ѕ
##立
##工
##♭
##э
##时
##就
##צ
##∧
##ㅋ
##은
##ケ
##ḍ
##∙
##제
##소
##ψ
##🇺
##🇸
##ʼ
##∵
##͜
##͡
##木
##ů
##ิ
##있
##동
##대
##☆
##̶
##상
##‌
##今
##우
##³
##∀
##غ
##ノ
##≡
##‍
##ṃ
##
##←
##้
##原
##ピ
##├
##ֶ
##セ
##ї
##◆
##♪
##少
##
##भ
##音
##∴
##ㅠ
##ʰ
##▬
##¥
##美
##⁄
##미
##□
##그
##▐
##▓
##∘
##ツ
##ǐ
##田
##私
##∗
##آ
##└
##■
##원
##
##공
##오
##😂
##≤
##ヽ
##
##￼
##▼
##特
##✔
##其
##ὶ
##√
##÷
##✓
##∼
##⁠
##ﬂ
##≠
##┼
##▲
##ĝ
##̈
##⇓
##ⓘ
##⇒
##║
##것
##๎
##∑
##∂
##ﾟ
##∫
##∞
##ϕ
##∈
##━
##😀
##😉
##˙
##⅓
##▶
##♫
##ἀ
##ệ
##╺
##ἐ
##➤
##￣
##🙂
##ⓒ
##⁡
##◊
##₹
##〓
##ʖ
th
##er
the
##in
##on
##at
##en
##es
##or
##ed
##nd
##ing
##ar
##an
##ou
to
in
##it
##al
of
##is
and
##as
##ic
##re
##om
##ion
##le
##ent
##il
##el
re
##st
be
##ot
wh
##id
on
##ac
##ut
that
##et
is
##ly
##ow
st
for
##ve
##ay
it
##am
##ur
##ol
##ad
pr
##ig
##ec
##ers
##im
##ir
as
##ith
##se
an
al
##ation
##ver
with
##ter
##ch
you
##th
##ce
he
con
##ere
##op
##ill
was
sh
##ld
ha
##ul
fr
com
at
##est
ch
##em
we
##ess
ne
##ct
##od
##ag
su
##os
##ak
tr
this
are
##igh
##ist
##ate
ex
##pp
##ain
or
##iv
##us
de
not
se
##oc
##um
by
##ore
##ab
have
##ity
##ould
##un
##if
from
but
##ts
##and
le
##ment
##ies
ab
##ive
sp
sa
go
pl
##art
##ust
they
##ort
##ant
un
##ear
##ap
##ack
wor
has
his
##all
##ally
##ight
pro
##out
20
##ect
can
ar
##ard
en
##gh
##ost
##ome
do
all
##our
##ok
##ast
will
##ik
##ud
##ell
##end
##ie
ad
cl
##ich
##ib
said
us
who
##ial
up
out
so
##ge
##ough
br
##ip
their
more
one
##tr
##ans
me
##ame
gr
new
im
##ound
##her
comp
res
##ous
##ice
##ions
##ue
ac
there
am
##one
##ia
##oun
##ff
about
##ure
man
##ong
##act
if
##ine
ag
##age
year
##og
##ated
tim
off
cr
which
exp
ev
had
int
rep
##iz
were
lik
would
no
##ence
##ake
##ide
pe
when
##pt
what
##ub
##ind
##ther
##ely
per
inc
been
sc
some
dr
##ook
##au
##qu
##ary
##ber
##ach
af
##own
app
dis
##av
201
##ign
tw
##so
##ace
##ays
fe
##able
bec
just
##ose
than
how
like
its
##ail
my
##ass
##00
##ile
##ish
also
part
over
##ian
pol
##ire
qu
peop
your
te
her
people
work
bl
##ite
##ord
##ations
##ical
time
inter
str
mar
fir
them
get
kn
any
##ens
rec
other
comm
##ick
she
##ond
act
after
##orm
##ase
##ents
##lic
##are
co
##ance
our
acc
##aw
##uc
imp
pre
play
##reat
ind
##gr
19
##ree
##ink
into
ever
##ob
##ult
##oll
first
##ov
ser
##ings
##ory
##oin
##ep
dec
em
##amp
##ition
##ors
ph
##oss
##ang
##fer
cont
##ause
##ade
##uct
##ates
##itt
two
coun
only
could
##ks
now
sec
und
##vel
him
most
##ious
back
des
##ild
pres
##lect
may
##ove
cons
fl
##ied
don
op
bet
##hing
sy
##oy
even
these
##ery
att
thr
##form
##enc
##ict
because
under
##ning
##ock
did
see
again
##ft
add
every
wr
ob
inv
col
##day
bu
##ons
par
##ry
##ater
car
##ey
##ert
need
ass
years
##ual
rel
then
know
high
mu
supp
min
def
mon
##lud
##wn
##ood
##ublic
where
##old
many
make
##iss
contr
ro
hel
look
##ident
ed
call
reg
##urn
rem
##man
##les
##we
world
sm
while
last
##oth
##ath
well
way
gen
think
gu
##elf
##anc
fin
##pl
##ra
##fore
down
want
ve
bel
those
being
##ational
##ting
##vern
inst
##ful
##ump
includ
show
##oup
##eric
dif
sch
through
##other
end
ear
##ating
id
govern
war
very
should
form
##iew
state
##ton
##ason
##ug
10
say
##hn
long
##ise
##aking
##ased
much
americ
##ower
##ited
char
before
200
use
does
##xt
##atch
med
team
##uring
##ities
own
##sp
##ty
dem
##cc
good
##ific
##ro
sub
##ible
stud
ter
cent
game
##urr
sim
here
##ics
##ward
such
set
##als
wee
poin
##omet
right
made
government
pers
##get
##ues
##ix
prov
start
cour
##ince
law
ma
eff
dep
##olog
still
##ier
##ble
prod
##ily
going
##ject
##ife
##ange
lead
trans
cap
day
though
bo
mod
##ular
against
##ress
##ility
##ull
sl
##ement
##ism
##ually
##eral
##ists
##ative
found
read
disc
sign
##orn
take
help
report
offic
##its
##az
mem
resp
run
##let
somet
sur
##gan
##stem
serv
el
##alk
##uss
##ently
spec
ke
##io
real
differ
president
##illion
aut
##air
says
num
##ween
##ivers
##und
between
great
three
group
support
same
##ope
system
##ments
public
##ool
##ives
both
##ures
hand
det
##ms
during
##yp
##irect
since
##ah
big
##ollow
countr
##ution
compan
##ank
wom
soc
around
follow
##ames
##ph
trump
##way
fam
prot
##der
##ys
post
leg
##ork
mark
ret
##read
##land
##ather
let
000
direct
met
really
sen
##hip
bus
gl
##velop
conf
used
prop
##ern
cle
##led
art
elect
plan
##up
##con
red
##pr
lar
##ash
##ouse
develop
old
ins
##ever
another
week
find
cre
far
polit
##cr
happ
person
##iel
progr
rev
av
##ene
##per
month
power
##ying
##cent
fil
##ient
##ale
put
spe
commun
##istr
city
cor
iss
life
##ience
adv
##orts
##ax
contin
loc
##alth
inf
##ote
##att
open
##cept
##ave
camp
win
##ices
stat
fact
nor
bar
head
##ines
second
12
##ount
few
##ision
lot
exper
##akes
invest
##iet
##oot
each
told
opp
too
sk
news
best
##ages
eng
hum
##ger
##son
requ
pass
##ically
val
belie
child
bre
##gest
next
##ider
something
intern
never
##ording
conc
police
point
dat
##ants
##lish
##ime
expl
mil
rele
ann
ll
##ize
##ving
ask
why
##bers
things
##ri
top
home
tec
##ially
##ved
11
##ead
##ont
##ized
##ention
quest
jo
##erg
##str
##br
##ets
poss
15
##ves
##ner
proc
##ency
four
##iving
##ior
##min
##ee
got
hard
school
come
however
sw
curr
stand
might
##ody
national
according
states
##thing
house
mus
##ects
different
without
##tern
care
build
air
inform
##res
##ling
##iness
allow
pat
season
feel
prof
turn
18
pop
incre
including
seem
##ten
##med
star
percent
##oad
test
##ital
called
##ret
##uck
##ights
##ittle
##ew
free
chr
mov
main
univers
prev
del
number
left
ide
little
million
place
har
##ric
##ected
beh
level
product
ref
##ness
class
##iver
##ield
import
interest
fun
keep
health
proble
less
pay
##ember
econ
sol
##osed
case
sou
country
better
econom
partic
eas
rest
arr
##over
gre
##ately
hist
la
data
program
##ged
times
using
face
list
##ced
##ins
american
move
##red
attack
##ark
##ama
ext
book
##iting
women
##oney
near
##aim
##ably
auth
##ways
maj
techn
##ute
pos
net
typ
##ained
phot
based
##ces
miss
##ral
story
company
##ned
##ised
##line
cond
didn
small
##ains
##earch
##eng
##til
business
research
##ocr
cal
##ott
organ
##iven
bit
conv
oper
est
change
##self
vis
##ode
##ina
men
##ren
##ional
##ived
clear
bas
appear
major
30
prom
sever
design
stre
later
ir
##ends
process
view
party
exc
##atur
today
##ature
order
information
var
aff
white
pur
ra
official
united
chang
fri
talk
mean
rece
money
job
##ology
lib
##atter
vide
press
black
kill
ste
cost
simp
fac
mid
edit
human
##ided
##ready
##ats
ent
already
##less
##ploy
always
##aph
dev
##els
consider
##ird
must
mr
##ians
past
##ense
court
mor
line
##par
##bs
once
making
family
record
polic
sing
##aining
16
grow
eur
thing
##inal
##ister
13
##wh
claim
social
democr
##ted
##atic
media
fund
##used
john
##app
tax
##aff
ant
terr
##ike
tell
full
vi
##ether
14
able
russ
##aign
important
away
games
kind
##ator
cert
##unch
ap
deb
campaign
fed
until
##erv
hal
bill
days
doesn
##ired
gener
examp
##mm
pa
yet
happen
republic
former
political
secur
il
##ection
##ards
watch
word
##ending
##ourn
##stand
199
##acy
opt
least
market
##ively
working
sit
##augh
##ury
enough
##ven
youn
name
##itch
##ief
author
deal
came
##ases
##gin
25
##ides
es
lab
sex
fre
water
manag
##ows
sour
17
control
##ley
five
actually
pot
land
night
whether
perform
north
having
vot
po
complet
##ences
event
return
give
arg
often
lear
equ
several
hour
##ued
fut
stop
##ising
##ered
sal
##ified
project
fight
##eck
early
took
##ipp
crit
ca
##rem
become
##te
among
##aps
sure
university
vers
children
##ering
won
##ush
sug
sn
##crib
##enn
##ony
occ
players
security
side
milit
orig
non
##tt
super
##ann
effect
short
meet
priv
key
video
doing
##ox
##ison
local
succ
members
prob
##ization
along
##ared
known
community
clin
##lin
##ality
certain
hold
given
general
step
lim
within
south
question
##thers
investig
depart
future
##ech
activ
##icle
##ium
seen
cover
##ots
##iam
example
##ane
went
##aken
europe
##gress
success
##ither
er
viol
##side
##sel
cho
york
ge
creat
done
likely
fur
##ought
##idence
cut
##work
obama
distr
mag
2016
##ories
##iously
impr
arm
history
100
death
##uary
##lex
vict
others
acr
invol
##ware
following
avail
alm
tar
conn
series
foot
fail
##urs
##ones
##ential
love
understand
##itter
##que
##inc
##sh
##ended
christ
course
strong
##ecut
##be
asked
result
saf
months
pub
indust
##une
wind
problem
young
fire
esp
##leg
reason
getting
possible
thought
large
means
ident
##ilar
across
tot
bad
##ured
mass
low
office
##imate
##by
##ulation
join
light
##ball
fig
service
sent
##ument
access
anal
looking
mom
2015
ple
makes
suggest
##ensive
addition
##lement
##ivid
##ps
50
trad
live
repres
special
employ
reported
half
believe
instead
six
almost
##ague
##oke
##book
##oci
enter
announ
##ars
##co
food
fall
foc
interv
jud
federal
##osp
##ogr
mo
available
##por
mind
##arch
##vert
##aring
area
associ
##ald
space
##int
##ators
mult
##ortun
dou
particular
##iety
2014
##ances
rad
policy
toget
issue
ep
together
similar
cust
port
added
##uce
ris
rights
cop
##itions
const
pick
rather
mess
recent
##ults
##com
america
started
ce
dam
##ateg
further
tem
international
ger
pract
##itive
dist
21
##ored
third
##uction
rul
##oved
isn
trying
##oph
reach
cult
##uly
player
san
admin
experience
canad
24
fav
ago
comes
env
image
idea
try
appro
twitter
##ands
##ergy
film
military
anything
department
##aster
imm
##selves
vir
comb
individ
nothing
##ler
ban
dom
##ape
##acter
committ
##ability
enc
##ru
##ails
wa
compet
refer
bene
quick
current
capt
glob
field
##iter
##ission
present
##utes
journ
##ls
aust
collect
##erc
upd
##lished
sound
##imes
behind
doc
mot
study
center
##ination
threat
single
tur
profess
action
##wards
ey
front
summ
den
west
someone
discuss
saying
park
##ipt
taken
##uced
##rael
individual
scre
intr
##sw
htt
##ids
body
gun
cann
##ction
taking
final
israel
##yn
uk
dav
energy
22
development
everything
##igr
link
washing
pet
entire
ur
##uff
concern
secret
hit
close
bring
cam
probably
hom
alth
init
##ming
target
custom
although
pret
check
##nes
ball
brit
colle
hope
##fic
either
coming
god
vol
tit
yes
self
##aper
chall
wanted
music
clinton
2013
##den
div
create
exist
washington
true
else
attem
points
desp
walk
march
represent
##ender
mich
room
specific
##amed
everyone
##irc
##uge
administr
league
198
##back
bank
share
cand
common
due
##ees
mc
##iron
earl
jan
force
relations
2012
begin
scr
describ
break
lo
signific
rob
continue
below
educ
##for
advert
gir
civ
treat
fore
##ify
led
2017
drug
##ined
review
street
bur
meas
environ
students
building
matter
infl
##ges
decision
##ule
deep
##ograph
pal
officials
40
circ
dest
whole
leaders
lat
companies
anim
##olution
match
##yc
position
cred
block
issues
pack
outside
##ring
source
##dle
23
agre
launch
financ
character
dead
wrote
road
above
running
##aces
election
director
abs
##ival
susp
##attle
cit
aver
##0s
congress
repl
seems
ground
neg
green
released
role
rich
address
services
tre
phys
tal
##port
ang
hours
et
china
##asing
trav
woman
version
##go
pi
release
simply
age
##ecess
##af
value
code
track
##sy
##ana
sil
aud
host
statement
espec
##lus
friends
obs
economic
mill
appr
especially
german
##uation
interview
##bo
despite
coll
type
##iday
##elt
##ibility
term
##oud
extr
article
oct
significant
began
lang
scient
provide
total
legal
lost
civil
##esh
club
himself
anti
respons
evidence
phil
answ
countries
##ench
consum
online
drop
##ength
benef
late
photo
itself
playing
pretty
earlier
inj
##ai
log
##ogn
facebook
industry
##oid
environment
##body
relig
became
hill
themselves
pain
wasn
##ites
saw
##yr
diffic
##ex
##iod
##orr
coup
groups
global
difficult
soon
clos
minister
quite
bud
needs
technology
wall
boy
needed
site
aw
##ural
round
mic
approach
recently
squ
##yle
goog
shows
##ift
##fl
dig
nation
##ault
aug
forward
sense
expect
##aft
billion
candid
include
##ental
##lim
express
##aged
meth
##ips
board
##action
played
vote
page
gold
##ouch
shoot
instit
suff
execut
wed
pred
##ilt
pan
##jects
network
foreign
broad
stay
sept
prim
account
##aced
google
sat
rock
mis
anyone
sun
##atures
comput
##ibut
webs
##uel
##ams
base
terror
deter
period
changes
##ugg
##ished
focus
##arr
##fully
coach
speak
##ask
ul
risk
applic
##mb
model
price
sold
staff
norm
conserv
opportun
##gn
journal
pict
mal
email
chief
syr
protest
bi
##ney
00
##iple
tele
26
hot
card
personal
weeks
middle
27
results
wrong
apr
related
langu
##oring
held
hop
##istic
higher
sell
comment
moment
hun
2011
##uk
republican
select
##lam
ah
content
private
hol
##umb
soft
197
king
capital
friend
longer
natur
##ij
##ference
rate
potential
june
words
buy
28
##ped
heav
laws
hon
che
popular
bal
arch
fair
accept
##urch
##use
engine
science
shot
search
created
fem
oil
los
##eal
inside
mer
##ades
##medi
minutes
original
july
favor
piec
nearly
living
easy
administration
##play
draw
mater
sand
##ron
famil
cur
surpr
ver
town
##iff
extrem
goal
attempt
defense
financial
##iding
strateg
austral
cell
protect
average
##uth
##ique
##ients
questions
champ
##epend
##onse
workers
internet
earth
works
rom
maybe
estab
leave
##hood
mond
trade
##cript
member
expected
##atives
problems
received
adm
east
necess
##na
reve
note
mur
college
users
##asons
##ops
independ
##vers
##arter
web
ways
church
worth
##ne
currently
##where
increase
tv
david
2010
phone
fans
response
##haps
weap
exact
published
##apan
##load
reports
##ption
april
americans
advertis
cannot
oppos
dre
county
perhaps
regard
friday
heart
constr
defin
##anger
je
##omm
fear
##cil
##of
method
announced
speed
russia
##bert
##itting
vo
japan
cross
involved
##ma
finally
request
##okes
paul
rac
relationship
introd
unf
##off
##ried
central
##ster
##isl
camer
sund
color
amount
society
via
son
immedi
mach
geor
sometimes
##ners
union
medical
cases
arrest
tues
subs
lower
race
monday
reb
29
tool
di
##ett
respond
islam
calif
##ude
killed
text
lives
performance
##itten
lack
##ging
material
propert
tuesday
tex
deliver
aren
##eter
box
oh
leader
mob
becom
ability
##ological
##thern
discover
##ellig
terms
please
takes
hear
particip
size
##ilities
perf
##eed
##uit
committee
corre
progress
##bc
justice
##ters
influ
simple
legisl
events
worked
visit
destr
remember
##joy
##erson
production
35
##izing
cast
ess
##tain
mother
september
impact
##mber
require
teams
unl
##ham
insp
##lear
citiz
amaz
##aut
january
thous
chance
micr
dark
attr
fast
recogn
confir
tradition
song
forces
imag
morning
pen
meeting
built
table
movement
http
goes
##omb
plans
push
images
whose
nove
##ises
education
council
website
indic
decided
object
gave
jew
offer
pull
##ael
turned
father
happened
##cer
november
fix
democratic
career
intellig
##ober
situation
improve
behav
enjoy
learn
##gs
shar
victim
compl
loss
##idents
ok
unc
agency
european
jack
##ened
august
afric
sens
thurs
196
##ening
plat
sett
economy
wednes
ill
respect
ach
numbers
fell
areas
wond
obv
october
inn
emerg
31
doct
neigh
veh
commission
##iction
neighb
##anch
grand
wednesday
training
##aming
russian
canada
ele
##uments
cause
thursday
prem
language
user
couple
struct
touch
hands
constit
tom
felt
##xic
separ
doll
hosp
previous
prior
upon
##ibly
leav
blood
climate
modern
british
resour
californ
quickly
ho
immigr
sunday
growth
range
seven
travel
path
##dr
figure
60
reveal
battle
function
heard
fa
##yl
ten
eight
ens
mart
##atory
rules
ham
natural
file
football
huge
surve
histor
demand
##istan
included
demon
population
eg
contract
gets
que
##ession
allowed
##sych
except
dail
wants
##put
communic
various
looks
purp
spent
crim
perfect
poor
bott
command
document
tour
california
##oo
satur
##oon
knew
wes
teach
analys
december
bey
systems
corpor
quality
assist
standard
written
guy
regular
##bit
jobs
attention
##itted
kore
features
blue
2008
talking
tried
##mer
gar
muslim
##ores
senate
tor
princ
psych
##ety
lay
roll
##ires
emb
pros
daily
##ume
##force
slow
latest
gas
contact
ful
paper
bord
store
mention
summer
##eless
subject
##kn
##uses
interesting
challen
skill
32
century
sexual
india
conference
brought
quarter
rout
##mp
fill
investigation
eth
install
2009
seek
wal
donald
iran
##ceed
date
hund
##ung
surv
ira
##etic
majority
island
blog
freed
strugg
achie
##bi
##eth
fly
advertisement
##ruct
##arily
flo
ww
##ground
hundred
sort
wild
regul
violence
message
parents
beyond
budget
starting
convers
##sequ
##iant
epis
conduct
500
##face
item
max
increasing
##iers
movie
##bt
serious
critic
lond
complete
speech
stories
levels
reading
officers
army
considered
brown
certainly
officer
chair
corn
michael
mcc
45
details
london
ut
credit
prison
click
##ification
band
hall
hous
##ese
##uf
##ky
safety
comments
prevent
cup
particularly
answer
alle
##ements
counter
culture
apple
trust
continued
writing
paid
extra
growing
mad
spokes
nuc
carry
saturday
completely
rap
alb
style
##icles
iraq
james
##imately
region
##aries
##aging
exactly
##ille
crime
opportunity
##ux
drive
write
##20
##iation
sle
decl
ready
danger
practice
intelligence
biggest
girl
usually
leading
damage
##ament
executive
title
mount
stuff
nature
attacks
guard
appar
products
##enced
febr
platform
clean
claims
effort
sup
bir
brain
cat
matt
##coin
software
income
##ension
organization
february
##idge
screen
medic
##ha
required
multiple
crow
student
thanks
perm
##asc
##wor
mac
prime
deg
giving
brand
additional
cele
die
bab
throughout
##sc
safe
connect
ign
dan
district
kids
choice
##reg
produc
##ledge
thinking
western
##isc
named
remain
experi
disp
twe
##to
origin
##aught
republicans
described
##ida
kick
##encies
sports
##ino
ult
changed
cris
freedom
smart
##yan
##entially
##cast
happy
provided
##ping
reality
stage
hy
celebr
purch
bul
spir
##come
##rew
texas
ones
ms
books
swe
overall
looked
prepar
effects
ath
voters
parts
update
demonstr
labor
fit
##orney
implement
##inese
der
complex
costs
##ously
prec
letter
increased
##ds
attorney
analysis
thus
##isions
ii
err
##enue
avoid
recomm
##raft
##iqu
guys
alone
vill
##uz
chinese
wouldn
repe
eventually
nom
computer
remains
hospital
www
peace
36
nav
william
core
showed
##omp
mix
##uing
display
thousands
calls
opin
moving
limited
cool
designed
##erve
indian
consist
wife
##hib
autom
nuclear
rank
##overs
##ounts
senior
sect
scene
thank
stra
##unk
##ypt
ben
immediately
grad
died
meaning
gone
draft
efforts
inte
citizens
altern
propos
born
esc
bow
bitcoin
##he
poll
##anced
##ago
includes
towards
truth
correct
ahead
subst
politics
presidential
property
secretary
fal
studies
hyp
##utions
manager
reform
entr
##oes
save
##aker
##ables
trial
religious
piece
##akers
##oken
couldn
directly
analy
democrats
##ke
##ford
sched
judge
insur
pressure
##down
debate
##arian
##eration
od
ord
##ba
33
##ustr
##unt
##pect
ran
feed
##fort
##aur
associated
device
eu
##key
station
flor
beginning
english
compared
wood
schools
french
##light
##icted
ber
reflect
toward
##la
lic
disapp
##aint
windows
cyc
##phone
##ban
spot
beaut
ice
exch
map
contribut
##aughter
strength
largest
##ny
lif
dise
count
##emy
aim
estim
passed
wid
eyes
rand
receive
beat
digital
drink
physical
angel
minor
radio
lin
hur
conditions
conservative
failed
moved
resources
virt
##acters
##ev
photos
wide
eye
characters
alleged
##agon
reasons
clearly
ec
criminal
traff
##bur
appears
section
experim
independent
##hold
challenge
##50
door
dut
rule
##ze
absol
whate
liter
##imum
encour
champions
sales
helped
powerful
##field
whatever
##ari
fat
illeg
difference
posted
smith
promot
shut
##ocks
crisis
feature
##astic
##enty
cook
rub
controll
lock
frequ
families
myself
##inary
candidate
sem
status
send
80
fan
treatment
management
##me
spending
##iders
mexic
sources
##ara
option
##ero
shown
destroy
narr
##ipped
##rupt
##ston
weapons
mos
christian
domin
syria
murder
forced
greater
##wood
##acts
syn
australia
normal
coal
acad
##rec
previously
surr
bay
voice
mobile
franc
##using
detail
apart
##berg
signed
load
wait
necessary
tick
researchers
firm
99
unique
wel
integr
george
yourself
actions
##apt
mech
records
##wise
sea
##imin
fighting
rise
ideas
conflic
mist
picture
primary
sam
34
telev
fox
jump
arab
meant
charge
##ufact
positive
expand
alex
subm
straight
manufact
mel
goals
easily
basic
beg
border
uns
projects
mission
gives
allows
followed
restr
##iest
politic
impress
spr
wonder
developed
scen
association
customers
lines
plant
##atively
##room
knowledge
germany
plus
benefits
##oint
female
marri
##ches
pitch
##sa
##iar
uses
individuals
spread
measure
2007
cities
scott
##pts
decades
highly
##oles
speaking
weight
pm
chic
incident
scale
fine
##elling
##bed
frank
continues
##ef
fully
##set
authorities
##owing
emot
pow
nice
emp
shop
appeared
hell
##ein
hillary
van
sud
##ya
qual
rates
agreement
adding
none
traditional
options
birth
##mon
##ube
successful
professor
##iance
winning
download
##ville
advant
activity
vac
favorite
grant
##ki
catch
rh
owners
shooting
larger
constitution
90
##ivity
bush
calling
samp
noted
editor
chann
##ga
organiz
##osh
70
programs
stock
double
enforce
reached
bed
establish
album
revolution
creating
places
transport
feet
heavy
##ota
suprem
##box
libr
lou
##oft
fif
##band
gay
indeed
##iate
seeing
partners
##onents
mechan
concept
determin
application
##orter
##ented
dog
##airs
org
##aine
##iny
mostly
employees
names
funct
##oyal
fort
trou
amb
foundation
fant
gal
pun
acqu
challeng
chem
##erved
critical
adj
##bl
seemed
##board
ended
ye
kept
micros
recover
mat
notes
electric
haven
prices
funding
sad
knows
resist
operations
therefore
nine
master
england
spend
37
brief
##essed
exam
194
caused
learning
patients
hack
##opri
male
behavior
##ishing
strategy
##vin
choose
##itely
train
temper
hus
florida
values
##my
##onent
episode
actual
leaving
chicago
##iced
trib
slight
sleep
weekend
machine
##10
willing
rat
ital
opposition
television
##nn
memory
lawy
mike
38
etc
claimed
award
concerns
overs
##iring
lad
river
raised
scientists
##ortion
kid
mir
supposed
opening
policies
flag
os
bag
ali
parl
defend
generation
france
advoc
##bon
charges
happens
spl
cars
##rel
condition
spring
frame
vs
theory
##ipe
wit
residents
hor
occup
adop
camera
limit
##ifying
##dom
location
##ici
stick
tough
agree
kh
massive
produced
bomb
switch
##ries
##ulated
crowd
proper
pil
ip
ther
investment
effective
##uana
palest
ensure
unit
##itor
##arm
protection
feeling
##roid
commerc
ship
hundreds
farm
##antly
active
horr
##lined
miles
marriage
mail
##ounds
bottom
generally
solid
parties
##ibution
cash
##ado
negot
spirit
professional
pattern
commit
robert
tech
revealed
debt
operation
devices
##odes
assum
##iable
##ona
offered
##while
learned
##aa
faith
highest
initial
tend
graph
task
fresh
wil
##men
arrested
types
https
notice
pac
##iful
##pm
lose
worse
##ijuana
##icient
chris
johnson
prefer
influence
nations
49
brother
##itude
length
opinion
fle
coast
asking
appl
millions
benefit
solution
burn
believed
whom
gather
showing
trip
confirmed
compar
runs
ol
48
afford
##olic
understanding
wish
provides
driving
##istry
kr
react
anc
parliam
liberal
2006
marijuana
wing
##lusion
interested
195
francis
##ta
tro
background
##estic
produce
occas
##apped
##ipl
apply
##eline
responsible
din
cas
##itz
##iles
defe
sanders
##lant
dollars
fourth
42
categ
victory
alleg
##11
whe
300
existing
##ancy
strik
institute
islamic
era
##oving
parliament
photograph
achieve
korea
gh
illegal
authority
##craft
##aked
environmental
joined
luck
nfl
snow
species
39
veter
cold
surface
centre
disease
coop
44
##iled
##more
gam
##oses
commercial
gall
##cription
assault
incred
watching
##elled
offers
neighbor
server
wealth
bat
shock
leadership
putting
cards
proposed
agreed
##erate
convention
controvers
girls
extremely
jim
rid
canadian
##oster
exchange
witness
shared
##cing
##aves
worst
minute
documents
announce
ram
driver
finding
floor
false
traffic
labour
##pper
transl
vehicle
advantage
thom
span
register
occurr
opened
pin
explained
fuel
basis
transfer
planet
annual
supporters
##izes
restaur
eat
##time
chap
insurance
##ih
square
victims
serve
dangerous
competition
##mine
enforcement
cancer
definitely
standing
brew
doz
tools
attract
##umn
##ae
becoming
purpose
belief
banks
items
becomes
drugs
testing
jeff
legislation
contain
planned
jones
unfortun
rough
onto
survey
ded
ton
sport
coverage
##atically
views
communities
bon
reduce
construction
consequ
appeal
housing
android
##uries
accused
comfort
obviously
strike
easier
##da
served
audience
hearing
heat
libert
##uters
magaz
microsoft
otherwise
doubt
math
##abor
israeli
refuge
files
argument
imagine
planning
##itation
southern
##olf
closed
immigration
##inct
explain
animals
transform
##za
novel
75
##vant
northern
purs
##ext
dism
sites
pc
division
flight
##oom
solar
##ica
sac
amazing
carol
2000
gop
##ulate
tweet
separate
mayor
43
launched
instance
exerc
structure
##ios
pak
surround
supported
beer
suc
divers
##works
britain
issued
unless
apparently
dyn
dream
returned
##wide
sequ
stars
calc
ren
##ole
ukr
fbi
decade
hair
##ris
collection
asp
degree
telling
##ushing
partner
##ius
##utely
reject
kar
supreme
41
virgin
athlet
setting
repeated
mand
##ipping
##aks
daughter
trail
princip
##bing
##istics
##ghan
jewish
##iated
##ml
ken
##ding
ryan
##oval
##mark
ultimately
patr
governor
smaller
2005
crew
tow
charged
negative
older
55
holding
abuse
##ictions
direction
beautiful
cab
mut
suggested
spect
copyr
gender
47
##acity
missing
cath
richard
concerned
tun
subscrib
established
aware
##hen
depend
accur
plays
supply
vice
score
animal
##ato
owner
pair
asse
sav
requires
keeping
batter
meanwhile
spoke
businesses
activities
fest
stated
##cel
discovered
fol
candidates
focused
2018
##los
##gers
scientific
raise
##aud
skin
martin
##ka
infr
193
wars
conflict
attend
larg
string
nas
hate
wat
truly
palestin
jer
allowing
listen
entirely
caught
caption
cloud
copyright
waiting
sor
storm
amend
tra
discussion
magn
##ression
##do
changing
sust
championship
identity
harm
recommend
largely
sudden
migr
##ario
placed
jon
newsp
appropri
mental
mort
african
bob
japanese
##asts
doctor
absolutely
jav
laugh
bern
##outh
prosecut
sky
afghan
louis
##know
amp
##agn
##itable
decisions
reuters
innov
46
context
pakistan
01
killing
print
##hol
shad
injury
intel
models
gain
advis
baby
philos
removed
homes
mexico
magic
rang
presence
peter
jose
figures
mode
introduced
flow
providing
##irt
cy
conversation
honest
thomas
believes
africa
vul
##cl
glass
mentioned
anth
offensive
cells
earn
##inger
bod
connection
rene
domestic
##oz
identified
##rial
spokesman
crash
##igned
nov
writer
publish
window
useful
##iling
##kin
tells
ht
library
angeles
weak
religion
64
skills
##nel
##ss
##coming
corner
measures
profile
mary
lob
optim
dar
acknow
##ront
imposs
managed
hasn
guess
failure
aggress
error
##ream
##ette
rod
adjust
interests
gard
usa
##tained
nick
bull
steps
obvious
##agr
vision
finished
##onto
internal
funds
ju
observ
##ada
experts
##igan
stopped
51
##ula
standards
tests
atlant
##fc
sale
##going
sher
##gu
channel
interp
husband
rain
##oted
originally
lived
slightly
prosp
elements
rail
specifically
##onym
sounds
agent
committed
corporate
finish
joe
##isation
mont
##issions
motor
##house
52
recall
electron
yout
amazon
affect
turns
alternative
balance
##icip
exclus
random
relatively
feels
markets
edge
conclud
interact
fellow
assemb
jes
humans
hang
eastern
operating
arrived
senator
teen
neur
tourn
oce
arms
possibly
basically
##onom
filed
toronto
iron
unp
circum
youth
haw
taxes
talks
element
gm
schem
defensive
selling
developers
bond
variety
bigger
organizations
remind
cultural
native
##ander
##ano
paying
penn
elections
hers
breaking
tast
zone
starts
##arant
##azy
sides
2004
magazine
regarding
weather
familiar
fish
neither
##gl
##ola
lee
impossible
##ania
cart
videos
##anda
##others
getty
rose
tack
carbon
seconds
helping
neighborhood
soldiers
healthy
cub
nut
##ager
##well
votes
##enses
visual
jun
bost
##oe
seeking
alt
##amm
losing
linked
##rim
##hl
syrian
equip
symb
emergency
yeah
suggests
combat
bid
##rom
##ighter
privacy
accounts
units
ped
applications
##icide
happening
consult
remove
brad
rare
##dy
chairman
twice
armed
aid
lake
ceo
##ests
##acing
parent
400
assess
##aints
lie
deploy
sar
decide
steve
ash
zero
famous
penal
wer
##itory
winter
rot
broken
sector
stad
jail
clim
ox
sitting
youtube
##oms
bird
cuts
carried
##wr
hero
covered
increasingly
##kins
65
fired
equal
da
capacity
##ructure
53
schedul
weapon
coff
##isf
##uate
##usion
rein
##acher
wik
##ingly
##ii
##oves
developing
##orrow
unfortunately
breat
panel
sant
throw
posts
##resp
conce
##iot
##asy
boston
consc
bound
batt
##emic
##ata
worry
54
##gen
pictures
yards
dropped
##agues
closer
beach
rapid
quant
##ocol
prin
infrast
expert
fer
agencies
##outs
shall
las
##eness
streets
##awn
trig
charl
powers
egypt
philosoph
flash
spons
considering
##ordin
updated
voting
##any
##equ
initi
carr
trick
tight
seriously
vast
responsibility
##zz
na
guarant
diss
tag
owned
##stream
lord
retail
secure
turkey
dynam
surprise
perspect
expensive
##aling
stadium
##licit
crack
located
##apers
tree
chemical
facing
cnn
##stein
numer
revenue
unlike
instr
everybody
dur
forms
carolina
##ogen
francisco
methods
ps
vehicles
democracy
elected
copy
deput
expans
rush
stress
possibility
##och
recru
factor
##sen
##lor
lots
bridge
infrastructure
estimated
##mas
williams
muse
advanced
##essions
##80
fixed
seat
buff
greatest
governments
presented
##lines
bringing
upgr
pod
##head
stone
##rop
grab
plenty
advent
archit
equipment
config
retr
row
hotel
shift
##inn
dram
paris
detect
tact
dub
prepared
script
py
andrew
##don
schol
alco
shape
vulner
stor
apps
technical
reference
column
dim
stret
##ayer
classic
56
seasons
##ucks
pieces
emph
##hi
typically
##lets
moon
##town
##ception
construct
fi
instruct
films
supporting
virginia
du
##arks
astr
australian
giant
guide
walking
helps
troops
##ologies
kel
saud
intended
potentially
faster
entertain
boost
nic
rum
package
gear
##uke
route
minimum
##osen
##lig
##ez
explos
transition
seg
metal
turning
##ogue
##erse
prove
signs
determine
##ils
default
creative
challenges
2003
cry
##icious
bell
##ibute
forget
yester
enemy
surprising
bes
ring
factors
luc
moral
jul
percentage
studio
proposal
##gry
consumer
offering
isis
urban
wire
kur
pages
##ca
bol
purchase
distance
nobody
client
boys
pip
criticism
universe
renew
lit
jackson
combined
bbc
##porary
proced
aircraft
resol
##oned
approx
broadcast
politicians
2001
occurred
##ulations
pool
ray
industrial
bright
kim
hurt
consumers
index
ruling
##bre
advance
creation
wearing
##iations
founder
reduced
handle
mp
57
profit
maintain
##aded
##ois
##ym
regime
##how
bure
atm
braz
significantly
evening
dedic
yesterday
royal
silver
determined
voted
valid
##ani
proceed
appearance
refused
##ayed
motiv
suppl
diet
ment
resolution
iv
recorded
violent
##ography
affected
##ucing
label
forg
museum
regional
excell
wear
eval
95
bought
ron
##ointed
expressed
temp
guns
artist
accident
##ece
reporting
##osph
aftern
##ita
conducted
##12
drag
pointed
##word
matters
positions
dial
filled
initially
##gg
approved
hat
oly
##amb
amendment
les
bear
enh
expos
button
##otyp
concent
insist
##tered
##ersey
termin
apprec
##isher
ohio
02
passing
brows
ends
bowl
fash
collabor
weren
comed
59
broke
complic
involve
connected
identify
bureau
treated
remained
##ecution
suit
differences
branch
quiet
examples
remaining
session
reaction
##iber
trouble
scot
attach
leads
gon
experiment
welcome
colon
completed
dun
confidence
sharing
##30
squad
herself
grew
afternoon
ow
olymp
plants
concentr
opportunities
essentially
excited
resc
boss
pic
movies
explo
struggle
experienced
emphas
ocean
articles
##enth
##de
newslet
mun
sets
perman
extreme
coalition
warning
cow
entry
sharp
radical
numerous
##ena
rising
controlled
pure
input
depth
joint
communications
gaz
attempts
belong
reporters
edition
thoughts
craft
writ
crimes
ministry
historical
confident
##uous
terrorist
suspect
ire
memor
fashion
argued
elimin
illustr
pulled
datab
ba
hou
proud
frustr
hen
virtual
facts
05
updates
##reek
replace
##izz
faced
om
agents
motion
sov
readers
ride
evolution
##idden
dipl
shap
li
##etr
stan
contrast
##ket
seattle
emails
shel
hopes
driven
sanct
hu
jersey
unable
shr
loved
dismiss
links
imper
drivers
##othes
##oma
##ensions
pit
premier
alcohol
lg
##ura
chron
talked
##pped
output
mi
ordered
capable
##illing
playoff
##ruption
satisf
widely
materials
##gar
affairs
empt
predict
evil
storage
bodies
resident
04
stream
valley
muslims
messages
village
vent
##oking
##makers
admitted
femin
fuck
exercise
seed
opposed
cos
campus
##pted
anyway
doctors
wave
192
subsequ
perspective
substant
activists
tournament
institutions
marketing
##dp
advice
58
volume
talent
daniel
shouldn
faces
##âã
dc
##amin
writes
soviet
ancient
150
contem
gang
##illa
##ship
liqu
analyst
##abilities
denied
guid
##enda
captain
stands
sweet
inspired
stretch
improved
##lo
married
newspaper
decre
christmas
2002
chain
flood
##reh
anonym
journey
outr
brook
picked
aside
debut
legit
forum
restaurant
##otic
appropriate
ru
##enom
##known
friendly
afghanistan
airport
favour
saudi
expansion
customer
reportedly
objects
quarterback
ongoing
trigger
warm
terrorism
festival
declared
bike
pad
sacr
delivered
##ini
##bn
leaves
responded
injured
ariz
lawyer
##oul
tab
##rant
michigan
findings
experiences
fasc
distribut
##ek
gov
architect
confirm
kil
##ining
ukraine
flat
hide
wheel
mine
prep
neut
crazy
distribution
##atured
clar
yell
networks
doub
##iev
interpret
steel
thread
##ooth
statements
explains
entertainment
georg
assistant
aband
patri
contest
golden
contains
incor
roughly
essential
defined
circumst
investors
songs
practices
applied
mountain
cd
honor
columb
explan
##hab
buildings
##respond
consp
publicly
##ador
totally
guil
repr
suffered
romney
currency
03
##unte
##oman
##isters
fifth
coffee
dollar
##0000
wake
##icul
prohib
correspond
proof
effectively
tear
##iger
adam
declined
param
sir
desire
causes
util
volunte
finance
rally
swed
missed
##hr
injuries
champion
participants
franch
pu
desk
ireland
listed
patient
split
diplom
accom
acknowled
baseball
##âãâã
realize
unknown
wins
##ansas
##rd
merc
##ias
brazil
plane
##ternal
##ocket
iphone
increases
allegations
heads
symbol
fraud
knock
critics
suicide
offense
##arters
shots
fab
defence
coordin
##encing
ourselves
situ
raw
##athan
nba
tap
cere
remark
acting
fold
sym
shif
dad
accompl
##lying
sick
forest
accepted
trend
harv
waste
ble
watched
barack
adds
temperature
jews
regardless
returns
cycle
argue
3d
houston
expression
rig
chick
scheduled
height
knowing
scar
schedule
moves
classes
naz
##amental
phase
tiny
hardware
nasa
guilty
##16
##list
thinks
facility
meat
consistent
cruc
##ancing
tan
nearby
begins
strange
ts
##ns
buying
##ading
acts
basket
##what
performed
##laim
announcement
66
underst
##ionally
monit
consequences
deck
highlight
authors
promise
behavi
entered
treas
kevin
##ales
featured
tank
threats
kingdom
fantasy
##chester
pra
tort
gaming
suddenly
resistance
palestinian
62
si
ta
license
charles
household
serving
korean
constant
moments
pd
bench
unlik
disappear
surprised
##road
sister
deputy
stores
holly
necessarily
recon
mouth
warned
protests
younger
functions
existence
09
regulations
flu
sample
colorado
surveill
jesus
backed
receiving
somewhat
teachers
rape
discussed
winner
intention
follows
##burg
excellent
legend
inqu
battery
victor
grown
deaths
jr
multi
##taining
represents
artists
brings
##irty
asia
abortion
cheap
duty
85
08
##cs
manage
##bor
stood
##erves
engineering
isol
adults
pushed
adult
tay
eric
##abled
audio
communication
evol
unlikely
wage
putin
eating
lawsuit
literally
fewer
anywhere
lies
surveillance
bills
ske
liber
orders
plot
targets
sought
##15
##point
##usal
emotional
fairly
davis
sin
combination
personally
cia
promin
##fri
07
##overty
conclusion
##war
patch
##eas
chapter
comic
relevant
scored
musc
ax
importance
cruz
voc
##mates
cham
poverty
signal
ny
surg
fundamental
flying
theat
##har
succeed
brian
exhib
##acement
ell
signing
compos
root
##inet
html
##tle
heavily
##whel
agric
tall
jam
protesters
galax
##apping
myth
67
06
rar
upper
tea
gap
earned
##14
##mond
sustain
developer
spin
##place
ending
##aid
shares
##ours
immediate
disord
colleagues
versions
wound
alive
carrying
##rees
##pass
competitive
crypt
allegedly
catholic
holds
pled
poly
detailed
##han
format
approximately
##ko
72
##osphere
##acle
##uls
opponents
minim
ech
agricult
jord
opponent
embr
category
forth
replaced
bang
hoping
##mo
arizona
icon
alongside
sab
protected
mechanism
##ologist
scand
assembly
medicine
theme
opposite
##real
properties
buck
plug
suffering
harder
eld
agenda
sees
##aver
rating
awes
flav
##icts
flex
maximum
ly
functional
##uster
pushing
feat
dogs
##icing
##ll
cp
reward
unus
formed
immigrants
##roit
##nam
relationships
enr
assets
pleas
transm
shortly
##17
hey
pregn
hind
##ker
marc
az
extended
cutting
intent
##gor
rely
##xual
latter
##ala
rog
barr
frequently
selection
cannab
institution
blind
territory
##lands
closely
mit
vacc
miller
reporter
mainstream
manner
##employ
ingr
prospect
##oral
decline
63
refugees
controversial
fields
describe
fake
sentence
actor
##ockey
relative
##een
targeted
dress
tas
##urning
somehow
600
deeply
elite
passion
database
##iat
province
technologies
sorry
tested
selected
depending
##char
##here
lew
cable
pir
ticket
stephen
dedicated
teacher
directed
unemploy
conver
circumstances
coc
detroit
okay
tenn
empty
stack
bom
upcoming
extent
conscious
congressional
wilson
employment
arrang
subsid
##iques
solutions
causing
diagn
description
dealing
##ensus
referred
commitment
##elines
dry
salt
allies
truck
800
joy
medium
##hs
folks
estate
trading
noticed
requirements
journalists
reput
orient
usual
overwhel
intellect
sending
linux
comfortable
kinds
pacific
ty
stim
ted
##iences
typical
##ashed
repeatedly
struck
##ken
adapt
topic
conservatives
cha
phenom
attempted
encoun
subscribe
retire
definition
paral
empire
sight
escape
##eman
partnership
ic
awesome
approval
inher
##lv
punish
77
liver
##iami
##emies
handed
abd
##40
letters
##bel
blame
##nic
slowly
rab
enth
##fe
pilot
spell
limits
ford
##ati
rick
realized
ak
defeat
risks
universal
dall
scheme
somewhere
downtown
deleg
transportation
hidden
##agan
somebody
ven
walked
##under
##rid
sole
##ews
matches
josh
##exp
deals
##ache
kir
fel
locations
exciting
hollywood
effici
miami
recovery
navy
observed
##iveness
##night
##adel
##sey
ale
##inals
shell
mistake
weird
clock
76
kelly
##water
##awa
brothers
jordan
shadow
soul
##oked
surrounding
ros
bath
##ulf
promised
assert
zeal
raising
distinct
polls
##otes
italy
employee
##uable
spanish
##osis
falling
worker
##pa
hook
advertising
requests
statistics
##aled
cooper
georgia
bunch
som
likes
independence
elsewhere
hits
destroyed
mixed
promote
trees
grav
manufactur
democrat
anx
worldwide
##enger
##orted
comparison
puts
transpar
payment
supports
myst
irish
tony
##view
impressive
decent
250
properly
arguments
fighters
franchise
asian
angry
adopt
electr
ideal
equival
turk
##13
##ded
oak
##ien
##sl
##gas
auto
##ingu
speaker
scenes
academy
disag
goods
##pping
odd
attacked
eb
yellow
disney
regions
##itarian
judg
electronic
minority
desper
bin
sr
involving
merely
strongly
oblig
founded
withdr
##actions
harass
mas
hay
queen
writers
progressive
fees
parking
programming
assume
##pe
representative
joseph
arts
exposed
ga
redd
##ja
nomine
thor
##pool
worried
fo
facilities
courts
satell
granted
##oration
houses
drawn
##anes
ultimate
##osing
officially
##ensity
reasonable
paint
##iants
##owed
0x
##ua
moore
alliance
##win
recognize
##rey
68
69
1999
conspir
##18
robot
hockey
chose
understood
##apse
nbc
##west
comprom
assistance
electricity
jur
loan
##engers
innoc
##inations
bug
spark
##lad
mirr
neutral
##sters
payments
drew
##enders
meetings
components
barb
answers
permanent
enterpr
emissions
chosen
blow
condem
tower
reserve
tel
incredible
corruption
##dd
##bling
initiative
grass
nhl
lights
stronger
continuing
sid
informed
dod
sev
lev
academic
drinking
tip
sessions
##illed
74
##emen
##xx
estimates
thin
rival
rent
counsel
organized
enemies
shield
##born
mile
##uzz
feedback
encourage
##standing
robin
therap
ott
dozen
##ora
punch
##19
obtained
returning
veteran
ads
##iment
marsh
severe
dallas
73
lawyers
historic
##acted
primarily
pump
registered
##eller
ties
controls
italian
gate
taylor
minnes
representatives
manip
##25
roman
claiming
scotland
finds
sugar
producer
##uts
terrible
machines
hopefully
cod
##ups
overl
ultr
##friend
plastic
cannabis
tickets
habit
capture
gotten
soph
lgbt
choices
excess
confront
hub
narrative
aggressive
exclusive
browser
ruled
racial
generated
funny
##era
##care
citizen
dish
enable
mosc
stead
basketball
discovery
soccer
spain
lawmakers
explore
##gb
fu
threatened
elev
incredibly
purposes
captured
chart
unn
hole
alien
jac
perfectly
info
galaxy
jason
establishment
implic
tied
anticip
forec
array
##alf
##ographic
##pan
horse
##uits
teaching
##owa
seats
##iform
perp
##fall
##stone
stuck
##ilit
ker
mm
chances
aspects
compens
##illy
pace
clients
constantly
##icks
matth
##rum
twenty
78
anger
enthus
rejected
funded
minnesota
##woman
fiction
tail
headed
outcome
##ties
##repr
##vey
##intend
disaster
balt
avenue
taste
newly
recording
pill
contributed
wine
amounts
orange
##mann
api
dust
oreg
diam
extension
apartment
97
brut
##ikes
compreh
##inated
exists
oregon
consumption
dict
warri
##60
##oming
##weight
pent
stem
sympt
generate
wrest
keeps
occur
affil
warming
cig
yard
penalty
regularly
veget
thick
dna
anymore
dozens
stab
##edia
moscow
blocks
crucial
represented
accel
accurate
resulting
accomp
component
principles
abc
relief
##ella
strategic
holy
references
prize
explanation
privile
atmosphere
gift
ib
wis
pok
##met
##rimination
bron
sum
cyber
fred
philosophy
nar
constitutional
grade
installed
##bles
recip
remote
##ayers
roster
##raid
plate
exposure
interface
##can
weekly
##iana
##cher
catal
phr
normally
vr
demands
maps
situations
personnel
everywhere
navig
va
discip
propag
lu
henry
theor
kl
unw
ont
loud
kent
##pg
concluded
lady
depression
surgery
complaint
sheriff
efficient
##boy
legacy
thousand
bor
mainly
clark
##inity
priority
forever
discrimination
hash
kat
outs
simpl
##onn
techniques
iowa
scoring
tracks
manufacturing
##isan
##inem
88
operate
liquid
##adelph
titles
toler
marvel
defic
wolf
strip
wisc
delivery
affordable
uncert
##uration
settings
##pro
degrees
##rect
complicated
milk
proved
premium
##eland
##32
strict
fisc
philadelph
taxp
gig
falls
##elle
taught
greek
harry
marked
investigators
farmers
sty
peak
engage
processing
##top
##eld
1998
aer
ml
valuable
cbs
fee
survive
successfully
reduction
##va
monitor
automatically
79
nc
equivalent
comics
collected
factory
alab
vulnerable
arc
viet
philadelphia
engaged
solve
reaching
##onsin
external
similarly
lt
inch
##lers
rs
##ressed
lane
drawing
uncom
comedy
##lights
##greg
nich
wisconsin
possession
phones
prince
steam
marine
stup
afraid
busy
prominent
##ules
##ecks
manchester
##fr
anton
reputation
dance
garden
##asp
patterns
##itar
lean
##mad
##astr
##fs
yield
mini
inev
190
gross
passes
stun
awards
negotiations
visited
entit
##agram
reviews
dinner
lyn
aimed
displ
##uated
apolog
##olit
attended
strikes
implementation
transg
chat
##acks
sanctions
finger
intellectual
uniform
fought
##etch
resource
eag
smooth
rav
introduction
perce
veterans
##esy
invent
sus
wonderful
weigh
albert
tomorrow
rarely
explicit
##64
unusual
greg
framework
ranked
welf
scenario
jay
rook
##ulating
grid
contracts
principle
##etime
rif
vert
reddit
##thy
lind
##gorith
loyal
cited
##che
pounds
ghost
processes
delay
doors
fc
producing
computers
circuit
holiday
welfare
whenever
algorith
visible
reader
expectations
chees
stations
##itals
84
##idency
alph
km
dragon
destruction
clubs
arsen
700
stable
circle
define
2019
permission
ko
vital
boot
cameras
liberty
enjoyed
##eda
episodes
bind
feelings
abb
alabama
compete
pig
exception
journalist
saved
racist
enorm
atlanta
retired
innovation
chip
menu
creates
genu
##bal
##ibilities
87
hitting
guardian
presum
adopted
racing
##sea
portion
breath
##eries
shit
82
emerged
aspect
regulation
sensitive
##lyn
120
##iration
##otted
bernie
mars
formal
apparent
screens
espn
laid
physic
bloom
warrant
losses
entering
qa
exem
containing
newsletter
landsc
ethnic
describes
firms
ka
resulted
cs
##stit
##areness
ingred
invas
rice
footage
turkish
walls
reven
exit
amid
arena
transit
hadn
profession
##lec
dynamic
alert
rend
##sole
ai
##ashing
bund
gent
roy
##ifications
fiscal
scholars
awareness
ships
liked
horror
bub
zealand
iii
smoke
transgender
##entic
collective
protocol
banned
gif
ward
anthony
guest
participate
commander
##athy
fighter
quote
languages
minds
##lete
licens
patrick
trem
##ector
obam
withdraw
bail
outl
interviews
contained
papers
##olis
gained
logic
featuring
rocket
shirt
lobby
1996
trained
superv
naturally
mining
walker
flaw
cogn
listening
##ifies
lucky
waters
recognition
ufc
##ci
boat
terrorists
nato
lux
saving
##ni
gp
anonymous
noise
rural
##antic
roles
recognized
gonna
recommended
##uctive
tackle
layer
rescue
##ilton
distur
##ivals
uncertain
feb
declar
struggling
phenomen
inner
barely
hurr
kitch
##thr
diversity
1997
inquir
stupid
##osexual
ft
marg
conspiracy
headqu
equally
mccain
prepare
scan
wides
corporations
##agger
technique
kansas
centers
##aham
beliefs
crown
behalf
santa
pier
diego
lists
##auc
reducing
##ji
incent
98
proven
console
movements
narrow
porn
collapse
##aska
##val
neck
austin
##wa
anybody
till
cm
horiz
practical
##fit
tonight
elig
dol
fantastic
drum
##imore
92
frag
hung
christians
hired
settlement
##rete
latin
roads
##berry
##umin
##pread
structures
missile
##burgh
sams
unemployment
inject
89
registr
alter
83
casual
86
ross
cigar
fruit
reprod
equality
brill
##anny
joining
swim
##king
##fire
indicate
challenging
nominee
viewers
##person
conven
visitors
hardly
##azz
opens
achieved
##chain
beauty
##ico
xbox
##igen
upgrade
scandal
cav
versus
bonus
forgot
foss
illness
allen
##donald
revel
suffer
password
improvement
marks
tone
restrictions
nsa
corporation
##icial
##the
##acare
devast
upset
##oen
domain
temporary
cu
genes
appoint
blocked
scores
##estr
##asters
depos
widespread
convicted
jury
whereas
improvements
spiritual
##erts
hunt
mitch
dave
cameron
convin
##oric
##ami
websites
referring
ownership
##orse
dick
plain
manif
courtesy
rational
failing
gray
61
##etts
vanc
heroes
authentic
lun
subjects
##opher
subur
##sylv
sed
chicken
bears
surf
settle
humanity
interior
obamacare
economics
commissioner
heading
campaigns
pennsylv
spaces
genetic
##uch
meg
carefully
##iner
##agement
blank
overwhelming
firef
parad
fortun
##aire
contribute
connections
uncon
advocates
burning
personality
intervention
ridicul
dece
asks
assad
publication
##24
monster
sony
baltimore
##life
budd
javas
suggesting
ignore
cream
tracking
incorpor
##endum
jenn
mathem
tips
complaints
lunch
##ologists
surely
indicated
drama
rapidly
behaviour
1995
intense
aged
stol
ios
ups
pix
nin
assass
controversy
##pi
rolling
echo
vary
anderson
fears
##phones
swing
lets
chamber
##isa
##esc
##veland
pocket
begun
fallen
musical
actors
gut
fault
dal
philipp
20th
colors
hip
closing
voter
##ouver
symptoms
dj
tes
pennsylvania
##ials
samples
globe
javascript
##iler
haz
notion
cleveland
exceed
##ogan
##ho
activist
wages
##uild
assessment
##70
topics
##nc
samsung
bars
testim
##bled
tasks
throwing
temple
##oning
keys
pound
cabinet
lewis
adventure
portr
ages
ramp
dump
guitar
superior
unclear
1990s
spo
islands
absolute
attacking
glad
##wan
deeper
blast
##ested
imperial
coaches
involvement
persist
overt
iranian
vancouver
harris
tut
##iating
summit
butter
besides
##ounting
##hal
##east
performing
pul
prosecutors
93
thrown
accompan
kenned
stake
convinced
##eds
ruby
literature
investigate
serves
touchdown
virtually
paralle
canc
arabia
##iser
toy
##udes
##itors
howard
salary
greece
##thon
cul
##ounced
profits
##achus
fulf
legitimate
legs
##ima
rear
lam
wash
extensive
expanded
surviv
respectively
hd
impl
##ione
ambass
inflation
foods
gallery
invited
vegas
cryst
powered
discussions
pride
implemented
96
94
buzz
##see
##emon
pink
horn
annivers
threatening
survival
platforms
##riers
accus
extend
columbia
##py
justin
attempting
estimate
attached
chel
arsenal
exclud
opinions
dramatic
##ycle
racism
##acon
loans
compare
judges
lying
##mate
##berts
efficiency
skept
1994
vib
kitchen
kennedy
senators
##fa
monthly
gaza
substantial
##arrass
hydr
jar
illin
gt
pel
remarks
embarrass
shoulder
artific
protein
healthcare
monitoring
highlights
##bar
pour
races
tie
bread
homeless
elder
tens
giants
##ulus
mood
scope
tri
highway
1st
usage
massachus
petition
civilians
##lessly
js
##99
distributed
junior
massachusetts
providers
viewed
ss
shout
gathered
leaf
##ika
2nd
##net
handling
ballot
enormous
1980s
sarah
appointed
fool
hug
seemingly
anniversary
##season
lowest
virus
suspected
loop
disrupt
##ihad
toxic
mock
spoken
corp
instrument
nam
purchased
tweeted
programme
boom
noting
handful
subsequent
##alid
headquarters
protecting
beta
hyper
filter
gor
grounds
##eding
whis
forb
afp
secondary
covers
careful
smoking
suspended
mt
investigating
bacter
referendum
industries
reads
atlantic
ast
offices
illinois
colour
myster
obtain
admit
ark
presidency
##rets
membership
abstr
##lu
denver
mrs
vel
improving
hob
pharm
formula
module
sword
##ucky
clothes
satellite
ordinary
shopping
rookie
locked
attitude
speaks
pipeline
fate
cinem
pdf
##away
frequency
cock
symp
##ito
revol
1990
conversations
universities
mexican
belt
depends
##lah
bold
absence
gains
resign
contributions
replacement
birds
blockchain
synth
jonathan
##hd
##mar
export
checks
preced
##ington
picks
banking
margin
##aze
shame
coin
silence
iraqi
ou
enterprise
legislative
guarantee
vin
##usted
repeal
portland
joke
desert
kiss
acid
divided
nintend
epic
bullet
passengers
hurric
surge
publishing
gene
##losure
scientist
twist
templ
architecture
objective
##jo
consistently
##itage
covering
ratio
liberals
##ommod
mol
##umes
dv
##vere
breach
encry
involves
warn
butt
promises
prol
clinical
stayed
##lar
utah
encounter
##uma
##ila
accommod
incidents
landing
ug
bible
soil
tier
liverpool
cru
##otype
alexander
unions
mall
##aron
nintendo
carl
##xit
addressed
##ystem
autonom
micro
##acc
por
##zy
rhet
##iang
acquired
transactions
uber
entrepr
smile
stolen
tries
prox
java
cooperation
mistakes
responses
conventional
repeat
abandoned
instructions
vig
temperatures
kit
indiana
persons
dw
absor
node
vit
gord
jet
##iy
receiver
communist
null
disorder
##othing
entreprene
lever
breaks
encouraged
appreciate
##inely
ranks
dates
recipe
##oop
mask
roberts
managing
graduate
graphics
moreover
proph
documentary
repair
investigations
dear
spokesperson
borders
desc
politically
assign
##flix
helpful
revolutionary
commonly
cosm
roof
1992
rug
mans
metro
engineers
pope
unr
ranking
##ifer
##osc
reverse
sean
beij
nutr
employed
tape
kong
producers
instant
inequ
##ira
##ql
appe
chest
jere
gab
childhood
ratings
andre
sufficient
organic
snap
retirement
uc
poison
deficit
measured
##65
beijing
osc
compat
copies
##erce
netflix
sweden
accomplish
letting
counts
##ester
visiting
steven
sixth
ontario
##alo
merch
pron
upload
fisher
priest
cheese
corps
brilliant
##front
##angel
eliz
##col
threw
jihad
diverse
municip
##wich
sequence
warren
landscape
streaming
hamp
supplies
reliable
##cy
targeting
releases
irr
representing
graham
syd
vet
han
71
comprehensive
gulf
stages
fleet
##22
oklah
dreams
tactics
classified
deadly
prompt
cher
concert
replic
underground
monet
##eb
edward
##anna
gathering
##abeth
ignored
kurd
batman
aqu
acknowledged
unexp
##ched
concrete
anxiety
sd
semi
##ieties
vari
hunting
##mes
firing
scroll
capitalism
dutch
1993
cancel
proposals
chelsea
nomination
url
towns
associate
fing
odds
studied
savings
##iano
##mun
electoral
##uted
principal
chocol
##bits
capit
voices
prisoners
stability
##gun
heritage
provision
##hy
statist
titled
demonstrated
recre
incomp
dies
python
theater
appearances
capabilities
##agu
bruce
swift
submitted
correl
shipping
kings
gary
restaurants
dual
relax
mystery
innocent
stats
puzz
spectrum
##tes
arrive
ay
memo
importantly
propaganda
soldier
channels
hamilton
engineer
exchang
abroad
waves
##000
unt
sel
drone
nev
playoffs
oklahoma
parks
unexpected
alloc
overseas
##inction
mirror
len
leon
ambassador
burden
silent
##urray
mortg
execution
1970s
oc
kilomet
3rd
olympic
educational
servers
stamp
experiments
brexit
tam
outrage
nu
violation
whit
focusing
designs
##shire
pap
riding
unpre
additionally
harvard
calm
maryland
dying
contrad
marx
gil
##vp
athletes
testimony
lands
adap
entitled
synd
trials
180
torture
arbit
instagram
##usalem
bish
##bow
nur
regulatory
##bell
discour
##elson
2020
criticized
insisted
anarch
anna
strategies
judgment
chaos
replied
generations
jerusalem
##ela
celebrate
setup
berlin
belg
roots
charity
emerging
carter
predicted
memorial
molec
tob
psychological
##eli
##enez
abilities
rebels
bias
stere
mah
therapy
trends
hoped
summary
##mans
grey
guidelines
##oper
189
wider
##imp
lon
##uces
errors
unity
vend
lift
killer
preparing
wealthy
forcing
sweep
signature
##esty
civilian
##icop
knee
battles
simon
exha
vess
dismissed
requested
consent
dialogue
##ipts
hosted
formation
consensus
##arms
thorough
##isely
introduce
##iro
deem
hence
coinc
populations
##bridge
tamp
socialist
distingu
##gy
drove
rounds
##isons
harassment
sydney
fame
nap
pointing
##eters
physics
smartphone
dup
##hand
rooms
##ali
procedure
agriculture
phoen
ingredients
spokeswoman
##rick
##aga
qaeda
##itzer
tables
athe
difficulty
escal
wings
##active
organisation
holl
void
categories
morgan
##mont
pear
urged
deny
##irts
hong
##vereign
fled
vik
##post
quoted
finals
staying
boe
intim
popularity
##icon
sovereign
##ograp
polar
hunter
##theless
picking
enhance
##lock
charlie
actively
tennes
##mony
expanding
jets
nevertheless
phrase
pursue
##ills
sheet
simult
discl
wise
insert
escap
desktop
amy
ceremony
cauc
golf
memories
lav
ub
##angers
citing
tu
##igue
transaction
investments
arbitr
vietnam
resem
simultane
chuck
commerce
moderate
solo
##tc
scottish
nazi
striking
reveals
boun
analysts
dating
registration
designer
revers
witnesses
notable
demanding
spots
##inder
##comes
supplement
defending
##ibl
##tenance
jacob
##unction
orth
settled
kenn
approached
todd
bio
mere
##fol
##ng
maintained
fossil
arguing
wol
participation
##lan
furthermore
1991
bottle
##state
trillion
matthew
promoting
reforms
elizabeth
oakland
##eria
passage
possess
diamond
md
homosexual
embed
physically
##gent
deadline
cra
persu
contemporary
biological
phenomenon
dock
##mi
hire
implications
singer
muscle
stew
static
inches
##ova
precisely
variable
##icking
clothing
ni
donations
managers
cens
tremend
stored
dependent
##aka
patrol
yemen
divor
thomp
presentation
eligible
##eff
delhi
chocolate
artificial
phoenix
fabric
extraord
##atar
tired
lapt
diseases
1000
argues
drives
110
substance
##33
executives
broader
athletic
wounded
palestinians
bass
murray
searching
questioned
differently
animation
contrary
##icate
egg
accessible
dy
##iti
dominated
##apolis
hud
asset
misc
contribution
nurs
journalism
lect
##86
awarded
bump
promising
alan
thompson
wanting
mouse
credits
assigned
deserve
cum
competing
legally
birthday
recruit
gordon
invasion
manifest
clash
caps
tiss
consideration
tweets
utility
coaching
scratch
studios
comey
damaged
creator
missions
gest
reserved
sorts
hospitals
salv
ja
wet
inquiry
remarkable
epa
everyday
hawai
genre
asc
obsc
timing
insight
enabled
hart
awa
gn
lifetime
hr
enthusi
defeated
demonstrate
##ahu
##âãâãâãâã
tang
fatal
##ria
occasionally
rt
guards
nat
##ielder
nan
irre
submit
creatures
maintenance
lov
##teen
diab
russell
bart
dominant
19th
##ecraft
cc
undert
andy
adviser
infant
dispute
greatly
ku
nerv
grace
unfair
meaningful
struggled
parallel
invalid
analyz
sie
tennessee
##oto
bother
defender
manh
##athers
fried
##obe
gem
aaron
dash
facilit
bic
endorse
##inating
studying
stepped
extraordinary
centuries
pitts
libya
nod
punishment
##etically
anch
chase
tempor
assumed
explaining
logo
theories
cort
##fare
phill
eggs
tons
consciousness
##power
pulling
##fast
prosecutor
beating
helicop
legislature
bj
sections
perception
burst
um
##ouri
shoes
##acking
pentagon
suspects
##rooms
procedures
mls
arrival
ukrain
followers
##orship
##aug
contacted
##izer
rud
##aying
ministers
neighbors
shaped
81
##right
backing
integrity
gib
angle
##oat
sod
lap
keen
##station
advocate
harr
loves
php
indicates
ky
charlott
pollution
partly
##etical
configuration
euro
discussing
drunk
addresses
##istol
atom
##acco
bh
##ean
evident
openly
theatre
sustainable
##gi
fundra
preferred
segment
removal
harper
perceived
##ecute
lessons
ease
##fo
appeals
custody
patent
biz
##aved
hin
volunteers
modified
trek
ry
manufacturers
wedding
treasury
refugee
dirty
stops
impression
hp
cognitive
##asty
conservation
##erning
substit
unlock
integration
##no
unpreced
torn
zomb
compensation
unprecedented
corrupt
bc
interaction
guests
advertisements
mate
ridiculous
##ibutes
cass
cord
weakness
wiz
khan
##bury
convert
1989
##eted
wireless
nose
billions
kentucky
liv
cole
wales
manual
hed
promotion
underlying
automatic
permit
##die
clip
gates
accord
##ographer
imposed
jean
##print
routine
citation
##rell
certific
concepts
podcast
gad
tai
##obi
##owski
##backs
peer
jeremy
scrut
dm
migrants
##estyle
sink
##akh
signals
queens
oz
checking
##aki
gi
packed
##aving
employers
controller
millenn
##achel
hanging
orland
reserv
maxim
lesson
mountains
montreal
keyboard
##fers
beings
mathemat
loaded
worlds
bot
tale
##name
cous
##esth
gdp
scholar
stance
rou
indigen
dil
bone
##hot
##omes
ethics
embass
##dam
rhetoric
dean
##osystem
knight
utter
mice
capitol
##ylum
venez
##ctic
##ucc
lag
frequent
preview
##lee
##ourne
nowhere
requirement
traged
craig
##holders
cree
honestly
collaboration
##omed
grave
constitu
breast
##orous
benefic
##odox
brands
lineup
triple
##90
requiring
rated
##imm
resolve
diplomatic
##osa
foster
recommendations
backs
loading
##oln
integrated
wildlife
surprisingly
##itudes
reply
inequality
prospects
##urd
brooklyn
shocked
eliminate
badly
beast
collaps
posting
inters
unh
duke
ipad
antonio
1980
answered
laboratory
representation
overcome
scor
meal
sciences
bits
infect
choosing
assuming
linc
indigenous
explosion
talented
warriors
##iture
cave
nik
tesla
##annon
bombs
vocal
##lining
##po
##alia
##erving
reviewed
##23
publ
cad
twin
blocking
venezuel
asylum
traveling
argent
minimal
scout
sponsored
conclus
camps
neighbour
##iary
periods
momentum
gill
##bec
printed
sentenced
disappointed
fert
whist
orch
knife
recession
witch
creature
removing
quit
reagan
colleg
attractive
wikile
treaty
instances
occurs
hello
gameplay
acquis
oxy
approaches
encouraging
obst
holes
hills
damn
unve
fights
beck
usb
earthqu
orlando
pittsburgh
ranging
desperate
##rett
crop
outlets
borrow
spac
##77
##iley
psychiat
harsh
subsequently
jane
sne
venture
emphasis
professionals
restrict
chronic
kal
dropping
rebel
pregnant
resort
craw
maintaining
##44
curious
spy
wikileaks
cb
intercept
ecosystem
##ports
eager
tum
##ateral
confused
convince
describing
boxes
trailer
hitler
##star
##uten
ancest
municipal
carries
couples
yah
##ettes
brutal
concerning
christopher
dot
calend
thunder
lions
##press
rome
##rich
commons
forgotten
cheaper
speakers
inspiration
correctly
peaceful
stir
hypothes
probe
adams
aims
gym
enroll
pp
bands
makers
violations
##avery
commod
##ares
emotions
hood
girlfriend
outstanding
saint
##izza
armor
##ptions
sits
alpha
##attan
##laimed
##oh
##ses
experimental
dramatically
passenger
perry
outdo
lens
benn
91
##mal
##oga
owns
transparency
##xture
continu
teeth
packages
bankrupt
hybr
communicate
courage
dispatch
heaven
conqu
infer
deployed
##ighth
combine
##oded
talib
ng
accuracy
displayed
interviewed
##ders
buried
sons
##kel
occupied
missouri
tent
ottawa
au
##walk
landed
##itr
portug
adequ
ally
##erto
accum
isolated
annoy
charging
##aus
embrace
hosts
oppose
pleased
indones
smell
1960s
facult
spider
##aware
relation
hans
cats
flour
screw
crick
##agers
##hammad
pas
opposing
##apore
performances
##aya
##ophob
jerry
mud
rit
brid
carrier
entity
sha
vlad
hes
shelter
nevada
compr
honey
rivers
prompted
castle
presents
homeland
4th
loose
recept
##onic
crossing
seized
griff
hearts
##arre
balls
militants
mps
ultra
compass
bash
tyr
poet
lincoln
##ked
algorithm
wisdom
declaration
ideology
130
robust
winds
genuine
leban
##iffs
##phy
sque
##case
kern
infin
container
engagement
delight
demo
demanded
maker
surrounded
lan
##omin
judicial
robinson
wright
notably
speculation
lor
##vent
##rimin
##pton
federation
##keep
singapore
froz
orle
flavor
ster
characteristics
lau
inaug
whites
21st
dawn
contents
ze
##35
##break
donors
routes
briefly
restore
compromise
wy
translation
warner
sized
rangers
criminals
verd
playstation
fucking
stewart
bust
abstract
cant
guaranteed
reck
notor
profound
acceptable
brig
bip
interpretation
##zer
##hner
frozen
width
nervous
radiation
secular
bureaucr
##instein
chrome
nights
jimmy
tobacco
graphic
reign
pose
confusion
rifle
ukrainian
kickst
##ogs
tanks
prevention
##ipedia
monetary
jumped
renewable
taxpayers
refuse
orleans
hiring
prayer
token
nether
ist
immun
##45
poster
steady
##ocal
acceler
suspic
rib
##rence
hurricane
engines
engaging
serial
cou
riot
researcher
orbit
extract
backup
expenses
align
lightning
nationwide
astronom
slam
##opes
prosper
historically
qualified
doctr
kicked
##75
cooking
carp
examine
##ensively
tremendous
multipl
existed
##ophy
hyd
cops
##anted
lobb
##esis
wondering
proportion
productive
flick
flip
runner
tutor
crystal
migration
districts
bombing
theft
quantum
ignor
polish
pyr
mothers
provider
executed
gentle
recalled
fingers
polling
sophistic
blu
outcomes
suspension
pleasure
thirty
##usive
struggles
leaked
##bourne
babies
operator
mario
constructed
popul
volunt
teammates
##vens
winners
##inge
refers
dak
painting
##attered
motivated
telephone
clinic
##acles
juris
##ifice
closest
##esa
##ader
tub
##archy
editorial
##pers
pizza
riders
disabled
analyt
sexually
expense
manhattan
modest
considerable
##oker
slide
##rian
checked
coins
publisher
detention
stating
diver
actress
occasional
beef
nash
rewards
evac
documented
overr
deliber
operated
yang
taliban
brewing
##irm
eve
##ixon
ank
##entions
pione
tears
larry
attribut
influenced
mississ
jung
fails
variables
##kyo
##ref
emer
##66
simultaneously
blacks
radar
manning
##uctions
challenged
##stitution
endors
exclusively
developments
poland
feminist
##reen
attending
destination
360
victoria
vegan
justify
equipped
##88
##upp
embassy
fib
chips
##igation
slot
excuse
##terest
baker
directors
luke
huff
compound
headlines
legendary
patriots
administrative
##awks
prest
survived
loving
rebuild
privilege
abu
wikipedia
stanford
ct
##graph
##ght
intimid
zim
##acked
raid
firearms
blake
cowboy
lifestyle
residential
stall
wells
occupy
scared
blues
jess
hann
tokyo
laur
shops
crush
fits
fishing
##uman
bacteria
##21
styles
niger
dressed
agreements
nelson
denn
1988
avo
woods
##err
evolved
cruel
seventh
organis
psychology
flights
morm
##rog
releasing
lamb
##ropri
unpr
canadians
sinc
##onia
alaska
hi
unnecess
stom
lip
forecast
documentation
robots
snowden
##oli
males
evangel
raises
sleeping
boards
##umber
intelligent
tong
prosecution
##jan
addressing
chanc
nutrition
egyptian
beneath
bour
stopping
bog
##heim
archive
projected
bm
occupation
luxury
900
cycling
##74
reass
uncertainty
1984
disclosure
impacts
decor
deemed
disagree
refr
reds
metrop
enfor
##ello
hiv
leak
exploration
antib
photographs
##iah
tragedy
newsletters
palm
bugs
households
criteria
thresh
chop
availability
identical
derived
attorneys
guidance
libraries
oversight
modi
cycl
##ifier
steal
promoted
faculty
bulk
pt
##thur
serge
concentration
russians
produces
regarded
bru
entrance
bubble
pledge
figured
absurd
##elihood
decrease
gods
preserve
realistic
##hips
defended
##agen
burned
orthodox
consecut
recovered
conflicts
nest
naval
palace
ot
starter
##rome
quad
wrestling
acknowledge
orb
expecting
##asm
neo
bones
ferg
##erver
##etes
dispos
infection
edited
politician
##unct
attracted
hamas
terminal
inevitable
launching
toss
barrel
140
eagles
startup
stal
curve
mortgage
jen
ian
departure
##rix
visits
louisiana
von
happiness
duration
##ardo
barg
trains
calendar
##ogy
hosting
##ram
wayne
grate
160
accepting
flee
roger
lion
bent
malays
##bul
installation
medicare
##pal
##anth
rubio
##ón
meters
##olds
mysterious
bases
##leted
hacking
imprison
##imir
1986
supposedly
innovative
stanley
inbox
productivity
bonds
subtle
tune
reluct
cot
##elli
##ellor
expects
olympics
mack
interactive
shake
##iac
rc
immigrant
blamed
pale
lynch
##bian
tablet
functionality
lighting
ritual
argu
dimin
kidn
rivals
empower
explicitly
editing
collins
bizarre
provisions
influential
curt
pricing
125
immune
##arn
hugh
naked
tension
seeds
mg
berke
mandate
medal
commentary
##books
furn
titan
wow
ls
leap
nonpro
font
kickstarter
uncomfort
##pc
occasion
ui
overnight
transferred
rhy
##ippi
traded
##umph
##enz
##unes
sham
gith
restricted
cpu
medicaid
185
##burn
pension
bry
presumably
kurdish
##ista
tunnel
bags
netherlands
ought
libertarian
##criptions
applies
sake
preventing
participating
worksh
conviction
epid
awful
longtime
exped
dign
ronald
consecutive
kas
handled
appearing
impressed
dumb
mcdonald
meets
nv
delegates
##kh
##itories
noneth
missiles
hybrid
responding
github
discipline
unch
##mers
nonetheless
rolled
ner
operators
yu
##erb
invested
finishing
clay
amd
##68
computing
sig
solely
##uating
marshall
investigated
vaccine
designated
##yard
mandatory
examined
breakfast
sustained
assists
economist
drops
yank
silicon
earnings
brush
oxygen
cake
citizenship
fundament
educated
delayed
charter
compelling
viewing
layers
##iere
rocks
trag
ambit
iconic
earning
grants
arguably
worthy
##aro
exploring
resur
collecting
favourite
##roc
##olas
jurisd
neighborhoods
##wall
hem
crossed
parliamentary
murphy
oldest
##eek
##astroph
##gel
##aco
pending
newspapers
##ucker
electrical
##ikh
amongst
hampshire
##part
elabor
trips
##fielder
##untu
agricultural
celebration
clever
##vy
preparation
endless
fires
spotted
dor
pepper
painted
query
mamm
philippines
bloomberg
##cott
##oly
catastroph
printing
departments
accusations
sacrifice
buddh
horrible
saints
discrimin
pars
discount
dolph
adoption
significance
complexity
##tery
themes
taiwan
inhab
prototype
animated
bever
gravity
coordinator
exploit
transmission
warfare
density
fergus
buffalo
zh
pupp
pregnancy
achievement
accompanied
hiding
##arity
lod
venue
##worth
painful
technically
cuba
sauce
secrets
cz
seeks
trace
beaten
##uther
walks
bil
verify
aj
affects
101
berkeley
panels
suppose
praise
##cos
indo
rust
visa
interactions
sv
possibilities
##ads
reflects
1987
mitt
kyle
caution
benj
speeds
mitchell
##olitan
neil
swedish
enhanced
pinterest
interf
complained
##yer
##vas
parameters
##ointing
##lr
mb
##acular
toll
pressed
melbourne
displays
##28
consol
hier
mild
volunteer
##ortions
##anim
fortune
sketch
insult
planes
filing
drones
##ques
slavery
commands
brandon
advocacy
provinc
template
reid
cleared
panic
##appropri
fract
consists
bb
devastating
limitations
awk
equity
fitness
yahoo
singh
kam
##fish
pictured
technological
editors
environments
scul
mississippi
revenues
hispan
##34
regret
occasions
massac
1979
addiction
relatives
replacing
suggestions
calculated
##iox
db
##aws
cf
conclusions
ri
##watch
intensity
filmm
darkness
##gate
courses
lawrence
##eem
##bage
tig
tissue
relie
converted
pg
conversion
watson
gradually
overlook
mant
cease
balanced
##itement
laptop
shooter
moder
archae
composition
murdered
##anne
incorrect
##ili
backl
lyr
builds
1985
swiss
ugly
##27
madrid
ambitious
rugby
praised
pond
quebec
telecom
logical
portra
advised
divide
observations
abund
rumors
chancellor
shocking
render
vladimir
debates
flynn
bos
conj
mechanical
fet
bitter
humanitarian
350
rever
employer
marry
grateful
uncover
campbell
mechanics
##ogether
sf
groc
countless
laser
##onaut
##onduct
##onsc
shed
sophisticated
cartoon
demonstration
##26
separated
traditionally
netany
drafted
churches
arrests
bishop
directions
fare
magical
##arians
sporting
fier
vic
chemicals
competitors
refres
minded
ensuring
##aza
sail
##ilst
ferguson
cultiv
monsters
##oyd
##jud
netanyahu
eleph
188
##oding
sixt
confed
defenders
##grad
academ
##29
##etics
applying
metaph
singing
##ocation
##ilation
uncomfortable
marginal
acquisition
stein
hors
parker
hostile
kg
buyers
##world
troll
adjusted
bathroom
##encer
oxford
altogether
chen
dealt
safely
partially
outer
delivering
contributing
cbc
barcel
wallet
bless
mutual
drinks
##vi
ceiling
duties
climb
retain
viable
uncle
morris
stark
transformation
##38
quotes
reflected
eru
quietly
colonial
lineback
slave
##itty
wick
jazz
##idal
alarm
##iller
trucks
deport
scrutiny
christianity
##ede
##igg
anticipated
acted
hond
pressing
##child
nex
##rah
##nbc
vertical
stunning
rehab
reactions
operational
wore
##isms
predecess
provincial
trap
##math
depr
hend
scary
##hire
hawaii
celebrated
trop
mechanisms
arctic
##father
essay
explor
longest
##gie
benjamin
##55
barrier
barcelona
transparent
##isive
barry
##itis
capitalist
sadly
masters
deserves
masc
aston
bp
evans
precise
raj
duck
counties
sizes
questioning
blade
distant
grip
flags
respected
indication
##iors
orientation
##erald
origins
investing
terry
wi
supporter
compliance
remembered
dl
rotation
##orate
acceptance
##ige
shan
cryptoc
git
pand
##48
priorities
betr
mcm
##arios
prelim
##itters
airlines
cricket
alike
digit
detained
frustration
laughs
holder
kin
statistical
casting
keith
instantly
##oca
fid
una
confirmation
offsh
determination
ns
worship
princess
circles
posit
bare
awkward
seal
##mod
disturbing
##auk
rings
floating
x6
fascinating
whilst
disappeared
identification
##owned
exhaust
kerry
ubuntu
founding
mounted
explosive
instruments
whistle
manufacturer
1970
offseason
##omy
filling
##li
poorly
layout
economists
heal
frustrated
##acies
gur
motivation
capability
fastest
safer
penetr
farms
residence
controlling
nons
impose
##rics
10th
bah
inspect
tc
unders
civilization
batch
tampa
powder
##onnell
highlighted
cluster
median
tensions
kirk
rah
rodr
violated
annually
directory
celebrity
##eu
feeding
##maker
monkey
crowds
fcc
complain
affair
##athon
linear
philip
indians
honour
tends
##base
absent
appointment
witnessed
bou
beng
nag
placing
##ros
##itate
cinc
suggestion
##ussels
pays
##amous
processor
permitted
toile
cohen
proceedings
ports
plaint
photography
audiences
entities
ncaa
inappropri
formerly
npr
congr
##amine
ears
td
protections
greenhouse
weaken
threshold
healing
folk
unnecessary
flexible
mcconnell
sensor
##ante
hatred
rio
flew
stressed
census
herald
greens
bedroom
solidarity
completion
romantic
treating
##aments
quot
presidents
##stop
shore
madison
fright
penalties
glor
instinct
prevented
mete
colleges
ineff
attendance
motorc
##isk
assumption
##oa
battlefield
ordin
##struct
abbott
alternatives
##flow
dakota
dose
ethical
revealing
##ologically
motors
cryptocurr
accomplished
partial
zones
boundaries
maine
reserves
##leting
intens
robber
tyler
identifying
switzer
aging
invis
traveled
peoples
nr
##ipher
cob
horm
dougl
rockets
##nie
crops
abol
embedded
disagre
purple
mum
devoted
twel
offset
excessive
disg
expertise
comparing
flowers
ric
trash
stocks
##ando
##beat
realm
clicking
anime
thumb
devil
unrel
strongest
exchanges
survivors
franklin
wrapped
gran
designers
initiatives
sacred
particles
viral
##uates
structural
monop
rb
unac
counting
##struction
gaining
licensed
perpet
sisters
ideological
jokes
oriented
wrec
auction
underc
tumb
deployment
ware
rip
fluid
metab
misle
quarters
portfol
planets
dh
chiefs
gonz
##limited
##utch
##udeau
##etta
composed
5th
shorter
##icism
classical
stomach
bun
infected
spreading
hackers
kernel
essence
emerge
doug
midnight
alberta
illegally
##km
respondents
accountability
rage
##ords
infring
enjoying
experiencing
css
translated
twelve
isa
1982
oscar
##iva
skull
une
##enh
timeline
##irs
##zi
##lev
hatch
tatt
unlimited
cel
biology
canon
mason
generic
##aser
arrow
pence
denial
danny
lb
hunger
dere
christie
jake
steep
##ype
columbus
incons
1983
repos
cultures
scenarios
gamers
laund
barn
cheer
tok
monument
sympath
cliff
turner
trapped
##36
disl
wwe
trudeau
aggreg
ampl
trusted
divorce
##je
probability
grain
focuses
##isp
mul
understands
texts
mobil
rogers
bak
switzerland
institutional
coh
lanes
trafficking
autonomous
##estone
insider
daw
distinction
raz
##db
supervis
##aughters
northwest
dvd
desired
sandwich
##39
brave
##tz
gover
peers
##core
disk
##ivan
aesth
fda
##urity
susan
##37
brains
irs
confer
unm
reun
announcing
receives
resolved
##erable
breakdown
imagination
lucas
dirt
elderly
secured
bapt
mong
dispar
declare
harvest
##appy
respective
electronics
operates
sentences
touched
introducing
gb
flexibility
qualify
parade
certificate
aftermath
advantages
##gt
dop
##atoes
wheels
buttons
##izon
carn
customs
exports
formally
ave
hs
optional
interrog
brussels
cleaning
disorders
neglect
beloved
##feed
delicious
emper
##bie
continuous
##agraph
stabil
subsidies
hungry
creators
strain
afterwards
bald
admir
harvey
condemned
retreat
flesh
venezuela
compatible
pursuit
jefferson
preliminary
##wart
##oons
##row
approve
##ulator
glory
charlotte
societies
kle
doctrine
inhib
##acent
oliver
shifting
execute
spacecraft
##mare
nonprofit
mph
skilled
##adi
leather
satisfied
binding
##umble
refusing
spectacular
##otypes
sentiment
tribe
##news
assured
seam
##pat
horizon
headline
##izations
brady
beers
arkansas
puerto
harmful
rewr
contacts
compassion
intrig
interrupt
sull
105
habits
gifts
shrink
##plus
perpetr
eighth
demol
stranger
corby
boring
fm
governing
nominated
deliberately
publishers
southeast
consequence
hij
deciding
investor
unre
acquire
shirts
expend
bulls
destroying
##lements
throws
humor
inevit
reson
weiss
pilots
snaps
io
freely
cache
##gary
verdict
overd
sensit
detective
##ears
laden
separation
dys
rhyth
##through
crude
tourism
brewery
screening
silly
difficulties
triggered
brick
##wal
excitement
##oven
##itated
bloody
##una
##ags
fifty
licensing
elementary
##chron
tourists
maria
dancing
observation
pole
generating
rall
glenn
resigned
sends
kills
preval
organizing
json
economies
cyn
arthur
wrap
##dale
norway
unin
##step
elsa
cambridge
##rians
dnc
partisan
attitudes
attributed
##s
harb
frankly
donation
modules
abandon
optimistic
photographer
suitable
slip
specialist
knocked
reed
##geon
disappoint
chemistry
##ached
financing
##avel
##ockets
reaches
trophy
isolation
worn
meta
teenager
rankings
lasting
retailers
enlar
##tains
temporarily
##held
ferr
forums
smugg
magnetic
condemn
pse
##urance
1981
wherever
skip
creek
literary
toys
detected
codes
farming
##ols
advances
arriving
labels
rim
ruth
minorities
hopeful
bast
##comed
participated
females
cincinn
retrie
breathing
multip
shifted
evaluation
listing
championships
##ouses
##arded
induced
##icut
syndrome
corbyn
tribal
teens
##erity
emotion
sequel
helm
lith
fiber
entrepreneurs
detain
rushed
##bound
noble
sacrific
##eded
reminder
innings
regulators
aids
bradley
beth
slaughter
mim
likewise
##atile
albums
funeral
peters
believing
pants
unfortunate
posed
approaching
carson
##eg
tragic
sew
rushing
holland
evaluate
divine
vermont
jumping
tendency
ost
verizon
indicating
##bart
barriers
damaging
kos
##abling
cowboys
brun
cincinnati
##enson
statue
pledged
caucus
daughters
##boards
wishes
binary
tube
preference
climbing
anchor
colleague
ebola
conducting
##78
suspicious
chains
hindu
tb
batteries
teenage
welcomed
##nell
fern
kay
alternate
earliest
mormon
lacking
gw
detection
advers
helicopter
burns
##enko
examination
merkel
meantime
garc
##chi
shy
sooner
johnny
gro
sue
##px
##uded
sheer
marketplace
##olly
juice
krist
connecting
inclusion
##organ
warnings
##ailed
##prop
mes
brack
avoided
thereby
purchases
cigarettes
juan
rams
##ti
reminded
ranch
shah
connecticut
scal
##ospher
friendship
##mat
tigers
##itic
ard
celt
variation
kor
genius
gps
mixture
matching
tribune
broadband
tradem
##ju
grim
bottles
##pled
authorized
fence
thirds
reflection
##irl
##rels
waited
186
invite
traits
vacation
##azi
banner
grows
##isy
diabetes
purely
recruiting
admission
lobbying
earthquake
##76
pixel
failures
reception
leagues
##ran
rolls
lifted
##ulu
decreased
sponsor
accounting
grabbed
bjp
mull
admits
territories
##page
administer
##ints
urge
burr
xi
michelle
jennifer
streak
advisory
1967
douglas
##aching
##anged
cocaine
interference
dubbed
boyfriend
##mel
pursuing
##ective
straw
wip
lesser
nightmare
magnitude
workplace
##nt
passionate
blown
doubled
permits
ds
subscription
raf
##apper
lyrics
booth
sparked
rubber
fortunately
bibl
wheat
politico
##gets
##pack
sci
masses
fraction
punk
lamp
premiere
lisa
##aukee
superman
undermine
avoiding
compiled
marco
establishing
indirect
rosen
pie
outlook
hypothesis
leverage
soci
fs
pseud
outdoor
poem
indonesia
taxpayer
rect
walter
indie
laughing
##wes
clause
##dog
whoever
inconsist
screaming
ltd
jab
pipe
corners
folder
clo
midfielder
strang
warrior
##cribed
decides
wooden
draws
crying
villages
corresponding
breit
observe
metropolitan
donated
pakistani
##oub
nathan
reli
heights
inflamm
zion
milw
##beit
careers
generous
tactical
gau
stones
bros
palestine
##hill
paragraph
namely
##comm
grind
athlete
sandy
acres
continent
swimming
##ationally
nad
##orph
1968
hammer
belgium
ya
invented
vap
disappointing
novels
coastal
mosque
precious
insane
islamist
creativity
paths
carlos
##sky
##vis
strengthen
mega
garage
telesc
forming
treatments
justified
garbage
mentally
poké
bite
curs
diagnosed
grat
colomb
catching
##di
transformed
accountable
exceptions
publications
decks
comply
##afts
##rist
1976
divid
aggression
locals
melt
##aria
1975
workforce
alar
organisations
1973
##mart
nixon
mold
milwaukee
##urred
slower
billy
cros
170
##kk
consolid
fict
meals
dug
intentions
autism
damages
tenure
alf
##las
vulnerability
implementing
wand
charts
regards
garner
filming
indict
passive
1972
liberties
succeeded
##ipper
bearing
vigil
##ener
##ateur
##ras
piv
cure
##72
superher
tiger
##ieval
remem
exhibit
remed
encryption
cage
beneficial
invisible
exhibition
infinite
ci
inappropriate
stevens
##ws
collapsed
bernard
recyc
suspicion
trim
emperor
yours
deleted
##map
slaves
historian
##usters
##idays
triv
branches
morph
musicians
argentina
governance
tib
##oints
sprint
##asted
springs
dive
vp
128
loot
strings
credibility
##izable
martial
spotlight
peng
feared
##iki
thir
delta
dischar
conclude
infamous
defining
aired
dennis
colored
dread
trauma
gly
anthrop
fancy
revenge
aliens
gren
nationals
consultant
mour
bankruptcy
shifts
lebanon
usd
sensors
spirits
wondered
incentives
heter
spare
bik
rebell
revised
anne
attributes
corrid
incentive
locker
raiders
1978
fifa
lasted
dynamics
karl
tolerance
##anka
enables
##erk
##ulates
meter
##aca
arn
muhammad
unaccept
comparable
##ulative
considers
1950s
koch
traditions
cargo
##gency
dent
##parts
triang
smartphones
outright
18th
eliminated
src
donate
##uto
ignoring
predictions
vector
sued
adventures
flames
cotton
##uv
adequate
bout
schm
arrangement
narc
portfolio
pref
vamp
kan
goldman
harrison
shark
offshore
petr
##utical
bee
stap
renewed
##iph
diox
ace
fond
marathon
agrees
sb
##lie
caf
breitbart
protective
urging
prohibited
practically
##brew
##track
encountered
calgary
dated
##alg
brazilian
blend
uh
purchasing
115
securities
##guard
dwar
brooks
routinely
##95
nexus
likelihood
shoulders
shin
##aches
adaptation
90s
convinc
gmt
ing
triumph
##ellar
analyses
resume
unveiled
spic
parenthood
cups
inmates
amn
firmly
delete
apt
spill
organizers
mh
rack
vm
entries
£1
##abe
mortality
seah
heroin
submar
puzzle
##rane
pray
airline
freshman
candy
mana
buffer
##forward
observers
##olo
disin
##atern
lesbian
cents
##██
##dling
evangelical
euros
limiting
counted
##pin
chrom
intu
spencer
ling
##block
stroke
roth
##lusive
threaten
endorsed
tory
leaning
prophet
aster
mush
variant
##aven
severely
##borne
inacc
sox
margar
suits
##ollah
bennett
massacre
hass
taxi
spike
##ahl
##aceutical
chronicle
albeit
debr
automated
revelation
##ecd
butler
pleaded
striker
chile
header
astronaut
armen
aur
inevitably
convenient
##és
appealing
palin
##ori
problematic
inspector
##stock
subway
mobility
apology
prote
reasoning
sectors
bikes
negotiate
winn
archives
lined
confidential
briefing
matched
smash
fundamentally
farmer
touchdowns
tooth
northeast
rachel
dealers
tales
jamie
##roll
leaks
unle
##leton
specified
chef
broncos
##afi
cruise
lately
tribute
wallace
atomic
halt
meteor
pistol
tuned
lawsuits
##advant
neat
fundraising
relating
rico
artif
cape
diagnosis
attacker
accurately
buses
chin
##tress
##ifi
exceptional
##illo
laura
##opard
loyalty
aka
commented
liberation
ecl
spurs
averaged
##lett
willingness
##oard
bobby
##kind
##usc
wag
lengthy
bend
locally
##itative
##mented
float
mak
congressman
jed
reinfor
merit
itunes
effectiveness
drought
fuels
1977
socialism
##vs
##ishes
tout
##hop
modes
##far
consumed
aviation
southwest
obl
##western
fusion
##issa
assumptions
closure
organize
escaped
mma
coat
tak
cair
ethere
railway
delays
nodes
impair
forty
ninth
nationalist
##bus
##aux
mccar
incon
##iper
vegetables
prejud
translate
blair
starring
vand
defendants
pause
pile
disadvant
##found
moz
legends
genoc
towers
demographic
##ea
tags
unacceptable
lovely
sculpt
bryan
expose
merg
bats
grandm
variations
unanim
horses
og
privately
billionaire
##iasm
##with
##opa
congrat
##riel
supportive
copper
gpu
counterparts
seiz
11th
baghd
denmark
##rus
stepping
pine
1969
edwards
suite
lone
abused
celebrating
##ovic
midfield
fran
zombie
snake
linebacker
boots
hazard
precision
ammun
hbo
legitim
classroom
haul
breed
vikings
strictly
aggr
dublin
shootings
zip
##eling
##79
cinema
thorn
gmail
ov
volt
affecting
##ele
tol
carriers
chand
krem
instruction
recalls
misleading
pitcher
whats
kate
bt
pharmaceutical
troubles
oral
##──
##car
vessel
crus
sep
thoroughly
germans
clouds
edges
raped
##matic
blogs
streams
1974
##49
kab
alumin
downs
dir
##piece
mik
withdrawal
prediction
bipart
separately
freeze
##wick
tx
switching
exercises
obes
##ugging
aus
searches
##ocity
shutdown
mumb
##zb
expressing
julian
##aneous
malware
fathers
altered
investigative
lem
imagined
griffin
ammunition
obligation
consulting
axis
guild
##think
prese
bra
zoo
lud
nurse
eagle
mature
sometime
underway
slim
ende
measurements
disability
richmond
switched
mlb
tutorial
7th
wade
soup
1971
overview
chan
##ão
costly
tm
##zing
gosp
founders
independently
defendant
##idia
hint
crashed
##feld
drain
resignation
traum
alice
adapted
##lington
stealing
##ecurity
symbols
replay
lethal
enthusiasm
nazis
navigation
##ospheric
dispens
rats
algorithms
outbreak
scrap
drill
skeptical
ndp
enrich
unfold
demonstrations
rendering
credential
phillips
matrix
frustrating
spells
gand
malaysia
neural
dioxide
reduces
ink
functioning
militant
medication
predomin
arranged
sic
fitz
evolutionary
dolphins
sounded
##ptive
fitting
cardinals
unconsc
hydrogen
sexuality
recipes
verb
fulfill
boats
cute
chess
consume
associates
risen
shakes
volumes
behaviors
regulate
hipp
observer
denying
##bean
##iosity
nost
pokémon
substantially
interim
mccarthy
clarity
duo
prescription
shaw
##atherine
exagger
disgust
##dles
allied
insights
fla
cis
moh
104
crews
spat
dos
shep
surveys
civic
##olved
tide
tin
opera
inventory
seahawks
rider
intend
##abad
confusing
solving
inflic
telegraph
texture
accordingly
##agh
endang
couch
##mons
killings
browns
bryant
straightforward
##ulk
dangers
processed
obesity
incoming
icel
accidentally
##rep
frost
sacrament
qualities
hispanic
##alling
cuban
bicycle
pup
flower
##othy
sullivan
penins
##neath
supern
##urer
##aults
##asi
insists
plugin
puck
labeled
underneath
##ioned
regress
barbara
loses
911
heck
##abil
pronounced
kath
convey
supplied
##tin
##enna
sheep
uran
elaborate
##igo
incumb
quo
dimensions
proxy
stays
testified
holders
mueller
consistency
kaz
intermedi
##ailand
plea
##mail
kon
##style
ki
##issance
airpl
guilt
marcus
patriot
##omal
tribes
hedge
fork
contractors
zen
mvp
fines
grocery
complement
endeav
##oline
##low
curry
divisions
##tor
qb
eleg
persistent
declining
junk
moham
preseason
responsibilities
##uro
iceland
thailand
ibm
fixes
czech
goodman
patt
##ava
##ressive
harbor
qatar
desperately
##ladesh
rises
erd
fals
solved
firefox
##text
##ibr
mick
teenagers
bangladesh
playback
dough
##enberg
##marks
cancelled
occurring
achieving
solic
##utter
drilling
urgent
##actic
synt
##cd
broadc
permanently
recommendation
##ocaust
6th
hallow
aide
##storm
##uthor
dignity
tongue
yoga
voy
##vo
sql
##anto
intensive
hik
##aba
filmed
sensitivity
frames
inhabit
##umer
newest
licenses
brib
newton
voluntary
##asse
restored
sweat
bannon
cooling
pengu
veto
sunni
villain
accommodate
breakthrough
resistant
schemes
pere
holocaust
globally
souls
##gence
##ounce
reasonably
ladies
enabling
pete
tricks
##oubted
sovereignty
##ensional
##astically
undoubted
##ressing
##space
tackles
img
##cha
dair
belongs
doi
rogue
travelling
disclose
metres
wounds
stern
tropical
kicking
##inson
consuming
##oust
liability
packers
oun
multiplayer
sponsors
bullets
audit
notorious
##illery
administrator
lac
intake
##ck
nonsense
##afe
vendors
theoretical
dude
equation
hod
misconduct
biden
tire
legislators
rd
mentions
berg
quinn
scripts
exploitation
submission
##mble
##eep
1960
enlight
determining
##haul
delib
mck
preferences
measuring
rhythm
extending
immers
##uum
indef
amnesty
##lection
shipped
artwork
firefight
slic
##hh
troubled
goth
networking
lakes
##points
terrain
judici
##opy
medi
plum
firearm
utc
shi
##iri
cla
angels
meditation
##zo
grandfather
##uki
affiliate
##van
##utt
stub
analog
attribute
aub
propr
backlash
lex
sells
aboard
mercury
spray
felony
bridges
##73
rocky
backers
apocal
turb
packs
##opia
##orrent
rash
horizont
philosophical
pirates
forests
nancy
haun
750
completing
helmet
useless
artistic
eleven
##urt
##atus
jesse
nationally
prosperity
yo
obligations
newer
inh
utterly
stimulus
feminism
judiciary
plates
boxing
beam
considerably
midst
genuinely
rental
spite
peninsula
##troll
reset
bacon
joel
prey
relies
liz
relate
arabic
patience
brotherhood
maintains
##etz
dip
##quit
outlet
lieuten
inability
amateur
slides
refere
reinforce
pretend
bans
shapes
objectives
jessica
##mouth
til
manages
##omo
##conn
tourist
signatures
##ui
80s
##uity
pleasant
revelations
12th
neutrality
analytics
portrait
glasses
##ulous
uss
entrepreneur
centered
beats
demonstrates
##dled
jaw
cer
mills
hearings
extends
proposition
eternal
companion
doom
garcia
##unc
bipartisan
compact
##shot
doubts
arbitrary
##affe
cox
yam
shadows
speeches
navigate
##ppo
confronted
rex
pirate
mast
##rad
upside
tac
flows
costume
proving
anonymity
medieval
colin
rus
##ulsion
victories
successor
destructive
flooding
contributor
financially
travels
antibiot
austerity
##hran
austria
cares
lacks
plun
##borough
settlements
17th
dissent
undoubtedly
hav
ree
negotiating
##bish
dum
quantity
##hem
suited
##len
certified
digest
broadcasting
lazy
murders
cousin
outlined
##hydr
cater
hotels
nashville
guided
glac
physician
descend
##osaur
13th
laying
beside
spends
##urring
arrangements
samuel
associations
committees
##atural
##mines
pivot
illustrated
salaries
panthers
das
parameter
borr
nvidia
##hard
exter
satan
arrives
reviewing
facilitate
##aha
175
credible
regulated
casualties
sheets
ws
cycles
priorit
portray
necessity
tablets
humil
overhaul
chim
vague
sweeping
##puted
holmes
unbel
pastor
keyword
##pace
analyzed
joh
finn
##days
fever
mend
elevated
hypocr
redistr
renov
reh
ambul
manus
caval
interestingly
tokens
##ullah
finale
macro
##tag
subscribers
##jar
vessels
weed
kicks
##okers
cubs
1965
handy
nj
halloween
greed
ours
##ranean
49ers
convincing
lighter
##orable
inspire
donor
muscles
carib
1964
prone
kremlin
relent
correspondent
transcript
refusal
contempl
vacuum
reiter
conform
adoles
allah
caut
assembled
dire
segreg
miner
assassination
mistaken
##fund
tournaments
fog
voiced
tehran
##uri
workshop
jacket
cem
stu
16th
##uccess
sealed
##inos
soy
ti
##retion
contamin
attackers
treasure
tempt
sudan
##âãâãâãâãâãâãâãâã
fixing
prohibition
trademark
injection
collections
correction
##85
prisons
sync
deputies
moss
mk
linkedin
maid
##ailing
debris
##yst
dairy
embraced
ethereum
subjected
sach
assange
sharks
plag
109
##inate
dow
homeown
1945
businessman
##market
disclosed
##inging
##eston
##ounding
saves
pairs
slice
labs
##mingham
zach
broadly
hollow
designing
crunch
holidays
steph
dimension
hardest
sier
inherent
llc
tennis
substitute
musk
achievements
wordpress
lips
wii
##chez
expressions
##giving
risky
jurisdiction
swall
qualifying
vine
evolve
cigarette
tactic
##46
##iments
##dem
neurons
boeing
angela
##mith
tomm
##yon
underw
specify
characterized
aides
attraction
offline
birmingham
sticks
censorship
survivor
relying
nitr
overtime
##ulin
##inery
##reach
declaring
blizz
baseline
portrayed
sanction
##etti
togg
15th
poetry
luther
maneu
##most
##itary
stig
testament
burger
rays
endorsement
valued
shoe
vatic
##opath
pockets
shelf
imports
dominate
nasty
barrels
affiliated
indianapolis
recreational
fury
magazines
analyze
banning
fictional
discourse
gramm
##onts
valve
mohammed
casino
##iaz
jungle
calories
##eva
##dc
##inces
satisfaction
##iguez
socially
##89
msnbc
##oner
iter
wolves
intentionally
##aires
ain
priced
correlation
prisoner
violating
##71
strat
committing
14th
penny
##ippers
102
##js
metric
apologize
vibr
overturn
laughed
gul
grasp
heated
opted
facial
broadway
prayers
readily
ate
epidemic
sticking
##andez
##wid
favorable
cherry
gore
atmospheric
vatican
hydro
colony
misunder
pierre
fifteen
varying
nuts
pec
swap
shortage
initiated
frontier
rodgers
iq
bronze
homosexuality
nobel
columns
spear
lemon
foul
organised
ion
stakes
recordings
diesel
surpass
##osi
f1
##orus
credited
chad
expectation
whatsapp
##uting
aiming
angular
anytime
portugal
siege
tricky
dice
summar
vitamin
toilet
mathematical
poses
harmon
administrators
##bron
factories
landmark
##nik
restoration
gabriel
##alled
genocide
destiny
suburban
cattle
mapping
identities
shuttle
messaging
106
kash
fetch
ignorance
rodriguez
cyp
modify
twins
dare
brow
threads
##ported
pulse
throat
noon
##icting
hughes
influences
unint
aleppo
affirm
duncan
lum
advisor
##drop
energ
##chem
memorable
provinces
receivers
railroad
injust
listened
makeup
palmer
subscribing
roose
reluctant
predecessor
hilar
convenience
##monton
nhs
ps4
peterson
8th
physicians
cannon
malicious
contractor
deterior
diction
nig
discont
famously
unconstitution
##31
martine
anthem
accusing
examining
upgrades
installing
np
wired
unsuccess
offenders
incar
assisted
containers
merced
ie
##sis
##anded
ahmed
basement
mines
extremist
corr
sang
virtue
eug
excluded
jeffrey
tracked
450
dominance
blunt
##velt
flickr
violate
undermin
subt
oversee
preserv
##echn
ral
edmonton
##arted
outfit
##heimer
manufactured
lending
eliminating
eddie
vint
linking
mons
finland
disprop
starters
vowed
clarke
##ür
theaters
##user
profitable
lol
sphere
questionable
petro
invitation
##enter
miners
duplic
hern
##ei
plaus
lifting
retal
##irical
curiosity
graduated
trades
##ellation
wrist
erik
##weg
lease
youngest
##ormal
israelis
##din
##icides
presenting
hex
240
##yang
luckily
arist
incarcer
jared
relied
worries
##holder
##ahan
incomes
zoom
commem
touching
implicit
montana
lieutenant
decentral
##sk
potter
privat
yankees
##amo
135
rainbow
##bin
disappointment
##omi
pitching
gaps
##ancer
##chen
fierce
coupled
cafe
sacramento
varied
##ordination
tumblr
currencies
tha
zimmer
conting
connor
hungary
ego
##string
jong
##wealth
##apes
inspection
cockt
stagger
scholarship
freel
habitat
worrying
xen
profiles
aerial
behavioral
disgr
appet
bloc
##alt
nerve
9th
diff
robbery
fn
login
rendered
implies
kilometers
unaware
premise
wield
teammate
blink
flaws
nebr
plas
compiler
queensland
arise
powell
enlarge
##ovich
proves
dimensional
blowing
categor
##aby
nigeria
tomb
microb
accidents
rup
searched
##istically
surviving
##cons
karen
stumb
rejection
rides
blond
swept
##wind
mathematics
intact
commissioned
cryptocurrency
oppression
minne
ridge
alexand
tuition
transc
substances
wool
advisers
resid
physi
##itism
precedent
refund
norman
hacked
rift
artic
nyc
hated
##osity
protagon
##inho
##acious
costa
obstacles
neighbourhood
commonwealth
##irable
minus
apost
bypass
furious
##iances
##group
paste
distinguish
##iltr
crowded
backwards
103
utilities
ore
disproportion
##names
entertaining
notification
htc
flawed
luis
oath
blaz
embarrassing
overhead
porter
108
fallout
jewel
slate
##erness
bitcoins
disconn
##elly
jama
mitig
defines
specialized
distribute
bleeding
dian
foreigners
abra
##castle
##lem
##uda
velocity
ahmad
ig
##42
clearing
homet
comcast
hover
##ophone
activated
eman
intimate
interpreted
mumbai
gotta
eventual
defer
baghdad
rooted
percept
pork
sierra
##amer
cabin
morality
aligned
ironically
hull
excer
##oko
sanctuary
chant
boycott
portal
reloc
furniture
##after
degr
kum
caller
##uations
gorge
chairs
collar
manipulation
roosevelt
grandmother
packaging
append
untr
kub
##bird
nd
ballots
confrontation
bullying
##ecca
##breaking
##hu
geomet
publicity
credentials
##soever
overly
##erte
gospel
shower
##roots
passport
##note
##ugs
dyl
accessed
olive
cookies
##eon
margaret
##olan
incorporated
flame
illusion
legalization
concentrated
proteins
hir
nebraska
chunk
hometown
trio
##iga
clashes
tibet
##just
reilly
ops
##ocument
blas
##odies
blew
minneapolis
queue
fores
rw
jin
preserved
runners
critique
knights
uranium
mercy
seb
##­t
beans
extremists
aspir
##lies
singular
internationally
joins
reminds
kap
secretly
##gow
hobby
##gon
laz
emily
launches
co2
bam
conferences
horrific
bosses
uncovered
sans
sigh
ecc
collision
paras
sneak
benchmark
pard
dining
hacker
remembers
inspiring
gardens
compromised
emotionally
unav
whale
1966
wizard
satellites
policing
religions
##amy
portable
naming
##levant
##ogenic
inaccur
lid
##erm
repet
toyota
##aj
marin
bundle
aggressively
deriv
##asant
verbal
forens
hitch
martinez
miracle
erdogan
storyt
whatsoever
##ounters
propriet
turnout
resil
justification
bucks
flowing
##ums
cope
icons
calculate
syntax
apartments
piano
wang
assaulted
commitments
transpl
shine
reconcil
ravens
ordering
irrelevant
rut
unst
vincent
symbolic
##respect
spam
reproductive
troubling
##iates
abuses
predators
terrifying
##adequ
pearl
transfers
revis
ski
mercedes
##lass
twitch
greet
##strong
juven
congreg
constraints
##arez
placement
maple
##oos
descent
opio
boehner
inadequ
encounters
belonging
dressing
##fulness
dd
##eastern
##án
armour
boo
nem
##opp
seekers
phd
pornography
hike
endangered
repository
ruin
complim
##udge
bees
adjacent
##ching
dictators
wholes
culmin
alerts
malcol
handgun
glance
critically
chambers
nail
slee
elephant
unconstitutional
cyl
erect
strengths
acute
##96
suck
rebellion
unlaw
rans
fist
edu
enters
ff
2d
sharply
soundtrack
annoying
##imination
lingu
dismant
infections
applicable
cloth
unemployed
suffici
sag
economically
behave
mixing
##osition
malcolm
dragons
laughter
phant
##occ
##tv
paradox
randomly
walmart
nok
vag
deer
intriguing
##kar
unsp
superhero
viv
##pit
##pless
dorm
1963
titans
gambling
##ophobia
##aho
proceeds
deliberate
##tha
complaining
##chan
milan
prolong
swan
tours
reboot
pressures
themed
tommy
graduates
godd
freak
heels
shutter
castro
amendments
thrust
##uan
reactor
demonstrators
downloaded
##xon
##hots
pund
steadily
disastr
##ovo
111
##ст
##code
centres
disputes
unified
docker
std
##adic
##igious
inexp
##bank
remot
loads
prevents
indefin
stripped
nicely
valent
ditch
newcastle
anat
1950
impe
vintage
litigation
mn
elites
flagship
mash
budgets
foundations
intersection
thai
##fits
caring
surplus
reim
illustration
mediter
activation
rails
vaccines
antar
##achment
inclusive
bolt
professors
##ensen
##opic
measurement
knees
perl
savage
bored
immense
feas
classification
chew
##writer
subd
##00000000
landl
##abs
##ancies
honda
enact
##obile
##kit
infiltr
unbeliev
ubi
genome
commodity
showcase
##urb
pitched
aluminum
reyn
denies
patron
viewer
##ifiers
punished
suburbs
##ostic
infantry
integrate
cooked
patents
##brook
ces
acre
cdc
kane
accent
##auer
assignment
atheist
##esta
bytes
scales
ninet
marie
lego
practicing
stole
##ashi
lump
inex
immin
stealth
sonic
esports
##imeter
talents
contributors
enacted
monopoly
herb
columnist
hudson
clarify
humble
neighboring
##idt
reop
##eton
##mund
geographic
shareholders
compounds
travis
##actor
stalin
##minster
seas
ladder
telescope
mindset
tender
rows
molecular
##eenth
wp
contempt
teaches
deserved
anomal
calculations
tougher
attendees
gateway
lecture
ging
moist
historians
encourages
celebrities
##rs
##ometer
stitch
rey
securing
autop
wreck
eis
favored
posters
coding
discretion
imaging
rasp
##cepts
optimal
limb
molecules
startups
watches
basics
systematic
##tenham
##inis
raids
mug
paradig
stephan
latino
foo
potent
##eta
offence
catches
delivers
mediterranean
insuff
statute
redirect
1930s
##file
##aru
defenses
brend
imagery
##mental
##attering
projections
##ais
homicide
##master
campaigning
##screen
derek
brien
ish
hezb
adjustment
undergo
reversed
adverse
plaza
unreal
112
thankfully
combo
bean
feder
akin
ambig
##47
marines
wasted
nm
abraham
propose
lil
promotional
grassroots
emir
comeback
reckless
faction
darwin
synthetic
assessed
maur
caribbean
afl
cun
beard
##edict
sak
fruits
toggle
unwilling
favorites
ethan
##ido
obsessed
vern
retained
##ulent
sanchez
counc
villa
combining
digging
concludes
mig
##oshi
collectively
##aaaa
sequences
bs
thrilled
conscience
easter
lung
intends
220
usc
crap
##width
explored
wizards
indictment
imported
refuses
counterpart
consequently
strangers
ans
productions
cocon
uncommon
adher
gel
shaking
norms
offerings
motorcycle
##ampton
appreciated
##aman
crackdown
militia
appreciation
hype
simpler
kend
optical
councill
europeans
disgu
aesthetic
explorer
joshua
biblical
##ocumented
tul
plasma
chun
romance
umb
simulation
canceled
dragged
##otion
hezbollah
##sein
exempt
smiling
rapp
silk
##bach
pets
undocumented
recruited
curb
precip
xml
noah
##cm
expedition
wiki
firefighters
gibson
xp
107
overwhelmingly
contrace
reef
bris
mesh
jpg
carroll
##ifiable
automation
upr
artillery
issuing
sterling
pew
glimp
musician
storms
awaken
gesture
deposit
neglig
autumn
##respons
tl
lakers
glimpse
halo
chasing
yale
factions
scam
pts
faithful
realised
##bot
logs
##gom
leonard
##oni
goalk
rpg
progression
unic
comparisons
accordance
exploded
##ounded
fueled
kol
simpson
activism
dame
swear
liquor
nord
nurses
fleeing
emphasized
gle
##iott
##ifting
obscure
authoritarian
dried
##vm
norweg
001
mounting
blessed
thermal
connectivity
academics
unconscious
scare
indicator
sting
##ridge
ea
hawk
blogger
##leep
nucle
##zen
hawks
##oba
cybers
sentencing
concealed
magnet
michel
##oria
##losed
##orth
belgian
dishon
distress
tril
##nut
123
flies
extinction
nicholas
lunar
threatens
brett
heating
swamp
disastrous
disruption
##ollo
dense
pean
finances
stiff
twent
immunity
##linary
applicants
bmw
needing
##game
armstrong
damasc
remarkably
generator
##01
sri
##formation
fascist
tattoo
investigator
lp
gram
155
nt
evan
##offs
nova
opener
##ycl
vendor
##wing
##43
scattered
coordination
lied
sided
preservation
spont
##bone
kits
rallies
manually
continually
pyram
shouting
confirms
scouts
forthcoming
positioned
dealer
atroc
rf
vicious
datas
supremac
goalkeep
battling
oven
curse
##ographical
clint
##ipse
airstr
texans
bach
abusive
sta
##otherap
envision
belf
cousins
metaphor
diameter
seth
lottery
promotions
irony
##esville
notified
bankers
mann
breathe
livest
kw
salmon
dishes
gs
topped
immort
handles
##atable
cement
unse
para
##orig
verse
##fan
href
mog
rebounds
bomber
honored
convictions
chi
educate
corridor
realise
##itorial
stalk
whisper
crafted
improv
answering
disputed
colombia
walt
mint
chill
##opr
inning
colonel
##oulos
whistlebl
##ocy
predictable
##ete
##mir
randy
particle
##otto
weaker
patches
migrant
damascus
##rt
tant
guarantees
organs
deposits
##pad
nets
evolving
surrender
rifles
##98
audi
matern
##build
desires
instrumental
sounding
afterward
##ulture
clue
ucla
##nia
wals
danish
pon
happily
fertil
lacked
loos
##rie
provoc
unhappy
segments
##hou
constitute
criticised
shotgun
##yder
displaced
halfway
##eno
depicted
rabbit
refresh
hamm
chapters
accounted
hein
cables
lightweight
##iculum
forbes
traject
inauguration
manga
governors
metabol
assertion
piss
tenth
4k
jeopard
oculus
##ican
##ipeg
gust
##ophys
gasoline
1962
incumbent
##ghazi
##hole
mascul
mighty
hierarchy
##ghai
##ski
guides
gandhi
imminent
adrian
breeding
brigade
feud
touches
backgrounds
##olics
twisted
wives
glas
mentality
efficiently
invention
confederate
sgt
oceans
##ourse
sacks
##lon
certainty
genesis
staring
winnipeg
blat
##try
##bb
nursing
debug
canal
uphold
colts
vod
cough
##oku
delaware
recount
ankle
disreg
##lings
ralph
##function
reflecting
eyed
ranges
forwards
blizzard
horizontal
##estrian
disposal
##bull
easiest
boundary
##munic
hunters
concentrations
adjustments
warehouse
##uer
shook
aclu
satisfy
kilometres
continuously
abn
richardson
postseason
##erick
unite
crashes
kenya
remainder
anxious
abortions
instructed
lucr
casey
metrics
staffers
sway
zel
unrest
##ensible
pav
bucket
gee
distinguished
matthews
twil
redskins
pursued
filters
sexy
benghazi
postp
characteristic
##uffy
misin
directing
idaho
tense
pestic
reliance
peripher
tottenham
radi
##ée
psychiatric
biased
priests
proxim
##bu
sophom
clips
cemet
##qual
supervisor
recruitment
troop
trev
portugues
pulls
£5
oracle
mcd
margins
ebay
ern
newcom
competitor
montgom
continental
recovering
encom
##phis
parked
##vet
cookie
upgraded
integral
flint
##awl
cardinal
autonomy
realizing
riots
nab
pv
pointer
advancing
wax
arrog
conventions
individually
##fig
vest
ambition
isil
saga
##anas
cripp
##100
##ims
##qa
cortex
qur
##link
catastrophic
##ync
steering
jos
consultation
madness
holdings
arcade
dale
smallest
huffington
bonuses
portions
##isi
elimination
clown
kenny
luk
##eous
##aku
trivial
bould
##pear
scp
##ophobic
eaten
olds
mish
##quest
##idi
##asses
onion
aa
trails
retro
iso
detectives
nun
proclaimed
ellis
cemetery
traders
arnold
flavors
crimea
##opoulos
shouted
genetically
nsw
pokemon
nec
toe
henderson
stur
unpredict
cairo
ashley
orph
##worthy
shanghai
crypto
coconut
dell
gag
distinctive
ukip
ceremon
extensions
whip
kus
judging
montgomery
dictionary
dylan
ips
fairness
plaintiffs
throne
wo
##quis
curriculum
chargers
mund
inherently
rounded
nug
clan
revision
145
marriages
remotely
coy
branded
slated
buddy
overthr
##fty
116
topp
louisville
lover
altitude
enlist
##erty
soap
ordinance
singles
responsive
marking
##tra
surveyed
catalog
workout
jenkins
lightly
hoff
thanksgiving
crore
portuguese
variants
suppress
nokia
indul
synchron
isaac
enterprises
lovers
spur
##kg
transported
outrageous
screenshot
kidney
intol
snyder
nostalg
114
locate
##armed
treats
##opez
abdul
bulld
fortunate
compile
cork
stuart
##owitz
##ellers
yan
airports
geneva
encompass
matchup
##frame
kinda
comedian
licence
1961
##ema
cosmic
encrypted
abrupt
asleep
exploited
##endered
##recy
minimize
##ussion
wonders
steelers
buyer
idol
emma
wels
concurr
offenses
lur
hypoth
wildly
averaging
merchand
prompting
mosul
##acht
70s
##quer
hebrew
deaf
nl
tribun
secrecy
##eur
plausible
skate
spinning
fragile
vault
##fia
kasich
troy
tt
ambitions
nim
blackberry
thy
premature
127
tires
quart
wend
inherit
contender
##ogram
feminists
sq
reliability
##fi
##endra
separat
mead
slash
niche
emergence
hashtag
buzzfeed
atop
delegation
bounce
pyong
quir
impacted
grades
baking
##card
weaknesses
explanations
legitimacy
spying
annex
angles
vanilla
communism
cooperative
payroll
renowned
##atility
ein
##adata
gauge
watt
brass
circulation
bore
quarterbacks
incorporate
unpop
falcon
tpp
norwegian
cyclists
##ibles
decisive
falcons
##actory
reps
perez
brag
ripped
tunis
empathy
anten
##usk
coordinated
##repres
prag
adul
ducks
westminster
sack
depressed
gum
sufficiently
lanc
sunlight
##cripts
cellular
bailey
weighed
electorate
##gal
fairy
protects
jailed
rescued
pla
battal
elliott
alarming
pist
##achi
wished
pitches
salad
logging
payload
absorb
##rez
118
verified
##bia
##orum
kiev
##ен
legion
consisting
dn
bourge
imprisonment
##table
gangs
skyr
spar
manipulate
##rest
memphis
coincidence
dynasty
hopkins
slack
barnes
injustice
drake
catholics
underest
crushed
explosives
planted
practition
alright
ambulance
buddhist
jagu
##fly
finest
kot
activate
##uter
##ов
outreach
inconsistent
heath
hugely
##rod
venues
bailout
grams
##eh
generates
eh
grief
recognised
prospective
yields
nationalism
stam
mainland
lopez
##osl
ancestors
bing
morr
selfish
##iko
charm
delighted
shakespear
imposing
writings
astonishing
tid
owe
improper
amph
reconstruction
ferrari
brent
imf
uprising
outline
resent
protesting
vas
sensible
conditioning
recipients
isbn
literal
##alism
participant
bluet
xl
##ultz
maz
millennials
queer
underwater
##anche
##ör
ud
##ucci
pyongyang
slipped
256
projection
welsh
antagon
bourgeois
##eanor
forbidden
##urally
klein
corrected
inclined
apollo
floors
bunk
fracking
climbed
forem
##enne
gregory
relaxed
persuade
exposing
billboard
shir
##hart
jup
neph
hemp
embark
scouting
unpopular
downloads
##onal
similarities
enthusiastic
##aders
lowered
dex
splash
wan
gluc
dana
hussein
##52
governmental
administered
##ía
trait
##licity
negotiated
inhabitants
definitive
sul
munich
##asting
interfer
enforced
paran
judged
optimism
pes
descriptions
mentor
territorial
directive
recipient
ais
fuk
ripp
##log
incap
travelled
unsupp
##41
additions
regen
uploaded
clone
showc
lonely
satisfying
theresa
omn
##gio
avengers
sympathy
ome
conceived
##obs
hardcore
inputs
pioneer
pickup
##otive
##alez
undergrad
discred
##apeut
revival
definitions
1948
230
aggrav
leafs
garr
gloves
bargaining
unrelated
lucrative
vinyl
suz
probable
dwarf
protocols
covert
warns
blur
doj
pant
coher
maneuver
thrive
atheists
potato
gingrich
##rection
jays
uniqu
##ubs
redes
##kov
eclipse
hurts
wifi
recognizing
controllers
idiot
farther
predominantly
omar
##eo
boulev
##bear
bluetooth
quantities
julia
##lich
168
unnamed
organisms
dodgers
triangle
##bane
disturb
methodology
guine
slammed
##fu
contradict
foremost
##itating
goodby
grin
dictator
obtaining
##bard
aborig
shallow
pony
hilarious
rope
##orton
structured
##enched
heap
varies
voltage
clinics
undercover
bracket
thrones
wears
probation
brewers
##emi
silva
constituents
sampling
cooler
coleman
##berger
gently
leo
booked
113
tat
##omer
scramb
anecd
utilize
microsc
outd
##quez
parish
brock
sunny
##ealous
shorts
monitors
##omon
bachel
##stage
appealed
cv
slowed
£2
logan
disabilities
seller
##iciency
rabbi
##ango
airplane
levy
##add
burke
manufacture
wu
pigs
certification
darker
tended
paintings
capturing
robertson
mineral
gan
##ascar
##icked
diplomats
##ben
subjective
hm
canyon
addict
##elong
guerr
ana
kob
repeating
dodge
walsh
##92
##irmed
rigid
woke
shak
databases
athens
stellar
ivan
insects
inadequate
dile
##atics
populated
##ardi
penc
pepp
debts
referee
logged
positively
exclusion
lenn
duterte
##ilitation
appla
recognise
nearest
orchestr
sergeant
lend
inherited
winston
formats
seize
##fold
##uffle
balloon
##prints
technic
overlooked
shade
upward
##adays
##week
shelves
spoil
capita
shields
scream
deficits
nra
shred
##check
sunset
justices
blanket
visibility
bis
backward
superintend
handing
abundance
##bab
stagn
selecting
linda
cites
zombies
oval
sophomore
grapp
mankind
bets
##nels
futures
tastes
nowadays
phosph
traumatic
metadata
schiz
piracy
estr
marit
fashioned
subc
seniors
illustrate
starb
slowing
##aul
##owers
gorgeous
embry
practiced
geek
selective
alfred
##lessness
authentication
biography
dubai
##inski
schumer
cautious
##olent
##ogyn
oliv
detainees
##oqu
petty
mao
##mmet
campuses
btc
evaluated
proximity
paradise
croat
##cloud
defeating
cardi
realities
##city
##unner
internally
turbo
vibrant
sask
figuring
##otr
exile
consisted
multic
premises
statewide
poured
pills
populist
poker
##prod
165
engineered
extremism
intervene
sebast
authorization
plac
performs
unequ
dt
deportation
collector
interven
verge
merchant
kurds
##kr
stairs
##3d
clues
harmony
semin
##imedia
wholly
##eled
alphab
offs
architects
garlic
##ovan
warr
lloyd
monitored
unlawful
forensic
##erie
nih
##ennial
monarch
personalities
exhausted
brendan
glen
twilight
implied
congest
afor
earnest
julie
echoed
demonstrating
prohibit
submarine
##atisf
somalia
extensively
locks
circular
gonzalez
alley
australians
blaming
servants
observatory
gol
whales
pedestrian
reductions
privileged
accompanying
pave
pf
specim
2000s
originated
unsupported
volcan
aval
lobbyists
obsession
trainer
spacex
alleges
auburn
timothy
harness
armies
suppliers
##aci
commanders
staged
surfaces
##pen
alz
feeds
tasked
##utton
cooperate
insisting
##foot
overwhelmed
perspectives
poised
notre
##mn
##zel
##uffed
illumin
awaiting
respects
##mind
blessing
fragment
incomplete
distract
bandwidth
tightly
bullsh
borrowing
##cat
tenants
jill
metall
png
rewarded
117
homeowners
highlighting
kc
##heads
##asa
pelosi
flyers
fitted
prizes
restart
informal
bashar
tories
premiums
colours
fluct
paired
helicopters
looph
penis
vampire
partnerships
slots
systemic
slogan
superb
##ennan
##izers
##iu
edin
pushes
quint
##iblings
hurting
candidacy
interfere
paradigm
nak
quicker
passwords
baptist
##iently
interstate
balancing
pedest
pipes
ethi
distances
gtx
dependency
siblings
210
timber
excav
corey
vastly
##arus
belonged
notifications
1940
prejudice
flown
fellows
##aic
hints
##uber
andrea
kurt
testify
enjoys
arabs
rp
mw
brink
radius
disable
##ascular
motive
seoul
##ementioned
visitor
ced
freeman
hog
welcoming
printer
25th
reynolds
retailer
wrongdo
scaling
methane
pcs
combinations
discovering
##ainted
fry
##sex
##leum
dome
aforementioned
##oux
processors
##unting
planetary
unfor
bombers
mentioning
##phere
pont
phenomena
anarchist
charitable
cran
sands
##yson
exotic
contested
everton
sensation
atlas
##bod
abys
1900
philosopher
dietary
##ucted
asserted
understandable
burgl
dungeon
responds
crust
assaults
potatoes
##thood
ecu
##atories
disappr
unauthor
registry
nfc
concentrate
##umed
##rock
##iq
sustainability
amber
##ados
challenger
cared
herm
proprietary
##class
insurers
milestone
119
affection
promotes
##eze
therapeut
gloss
##awi
plots
considerations
admitting
marker
boulevard
lance
lebron
1080
kb
telecommunic
##yz
queries
catherine
##wald
##amination
despair
franken
spawn
smiled
##making
##amph
exac
pools
fatigue
canvas
merge
lgbtq
ballistic
sellers
releg
strategist
vietnames
cov
minors
remix
moy
touring
inconven
interventions
hb
vietnamese
flock
pitchers
##will
persona
##irth
accessories
medications
lawn
##children
seasonal
jak
neurosc
colonies
smarter
##uli
rag
##69
##otherapy
##icated
1944
bark
pilgr
nickname
##mma
suscept
diplomacy
hats
boasts
xia
washed
morally
heroic
gases
trent
avatar
journals
conjunction
storytelling
bothered
staggering
schne
imprisoned
gc
##stra
manuel
neighbours
jumps
owen
schmidt
incompet
rena
foolish
calculation
pixels
batting
tah
##path
balk
primaries
believers
griev
amended
bro
enrolled
exacerb
prad
ars
weighing
suburb
dess
##anbul
##anthrop
650
casc
chev
jupiter
##amil
doses
shakespeare
ideally
bargain
objections
elegant
exempl
machinery
confisc
juvenile
rode
undef
cores
shane
interpre
diving
stunned
thereafter
##rain
hydra
colorful
attachment
scra
sachs
baked
intermediate
misogyn
mansion
mp3
##ao
guant
prostitution
updating
##aters
litter
proponents
mcg
emphasize
artifacts
soda
pag
##she
devils
##health
prix
assumes
jugg
##kes
##edel
prolif
##osaurs
tink
allocated
disclos
##isexual
barred
lenses
lining
vivid
ransom
cube
neol
vulnerabilities
1920
##stairs
partition
skype
teachings
reminis
##roe
##oir
wipe
ignorant
gy
stereotypes
flank
freezing
tuck
modeling
##lay
drastically
travelers
cathed
goodbye
melee
##spring
##strom
tortured
panc
libyan
gilbert
##rical
usern
dwell
apologized
cw
##avia
loun
vocals
merger
##hel
freedoms
pam
##lain
##opping
nyp
glasgow
##nas
##oooo
##ht
compatibility
hostage
consort
flooded
moroc
therm
fx
129
stabbed
inaugural
##ilia
desirable
dart
princeton
rapt
sympathetic
shepher
##acs
wilderness
owning
advise
roller
browsers
##icacy
255
insulin
cull
offences
##asha
varieties
obey
orchest
deuts
watchdog
protagonist
unjust
recreation
standpoint
cheating
##��
supernatural
peaks
delicate
wanna
##ysis
graduation
charities
crist
aggregate
cracked
##vance
statistically
timely
vapor
cornerback
##anton
istanbul
##tic
##ailable
weekends
displaystyle
unoff
commentators
turnbull
adela
dispers
filmmaker
sara
riv
saturn
paypal
ingredient
225
broker
typing
corrections
sto
delegate
neal
unstable
prostit
##trump
clerk
stretched
betray
pensions
ensures
tillerson
fringe
morrison
complications
##ww
facto
trajectory
##87
metals
thesis
myths
settlers
taxation
rapper
adopting
geoff
ferry
unwanted
wander
guinea
ecological
spicer
guardians
##human
programmers
##olt
##store
lowering
performers
lament
outsp
exert
122
consoles
##ycles
volatile
bachelor
romania
starred
##rin
byte
sums
unbelievable
superintendent
spiral
trilogy
coven
cite
##ieth
maritime
leftist
apples
beds
handler
schizoph
appropriately
messenger
erupted
intuitive
needle
##xxxx
inferior
embod
filip
compelled
##ror
sherman
excellence
rightly
phrases
##around
groom
senses
announcements
proceeded
inflammatory
contention
accelerate
pierce
intentional
petroleum
scoop
weinstein
brav
apache
improves
##atched
##anners
owed
transmitted
interrupted
goalkeeper
athletics
##olar
bisexual
##identified
competitions
bigot
hernandez
pact
aven
embarrassed
thie
confined
authored
runtime
##urable
analyzing
carc
nickel
prescribed
paramount
misdem
dens
nw
comprised
belfast
reich
nominees
nus
##haw
capac
simmons
##balls
adobe
idi
##nan
conway
validation
persecution
dialog
amen
##shine
berry
skew
insufficient
cheney
xx
##то
leh
zucker
adelaide
squeeze
uniforms
specifications
ket
doubles
##stick
irrespons
mys
ideals
##hz
positioning
insan
carb
hast
peg
##ietal
dunk
bye
schizophren
mets
charism
surfaced
##reated
##ename
spoiler
accommodation
applause
psychologist
purported
grabbing
yelling
amanda
takeover
greeted
specialists
richest
lords
allocation
##ongh
connects
derby
brutality
assure
comet
appetite
shining
graff
courtr
snp
vacant
gin
proposing
spart
vil
scrip
ginger
##67
outlaw
compuls
repay
successes
merchants
monsanto
##eer
persian
prevalence
drown
programmer
manifesto
ruins
rm
edinburgh
absorbed
friedman
conceded
##cor
knocking
##iaries
chooses
gav
##holm
fined
sworn
debated
sperm
accepts
maximize
starbucks
shim
reconciliation
simplicity
##abi
cleaner
unsafe
cows
##econom
meyer
dedication
raspberry
advocating
contests
displaying
phantom
punct
disasters
recruits
##ser
courtroom
theology
thoughtful
##tles
ranged
constitutes
prosecuted
disgusting
comr
refin
nil
cried
mirrors
##fil
##fd
inaccurate
##но
depths
##ggy
rebuilding
##rella
bullshit
riley
##ems
graves
enduring
30pm
negr
appreh
restriction
waist
glow
composer
gunman
stunt
framed
shaping
##itas
terrific
decay
interfaces
alzheimer
basin
prestigious
unpredictable
##houses
drums
tray
jor
nh
indoor
shells
##iani
squeez
victorian
promptly
tribunal
lenin
destinations
suffers
jealous
crises
reacted
plague
coral
bened
prolonged
headset
accelerated
fratern
downward
panama
salvation
##nis
backyard
1941
vegetable
obstacle
haiti
innovations
enthusiasts
conception
unsuccessful
dayton
doe
upt
goodness
perceive
rss
tops
discusses
abst
socio
unsur
carpet
renaissance
hid
primitive
##chat
privileges
exemption
damp
traces
laps
progressives
indicators
admiral
superstar
##azeera
debuted
confess
jal
specifics
##change
poles
merchandise
ruined
##otine
noticeable
skepticism
enrollment
acoust
rol
##fect
heavyweight
clearance
nypd
postal
acquiring
ez
austrian
aboriginal
1959
insect
dependencies
spatial
matur
gob
myri
laure
##ypse
predator
kem
listeners
fost
richards
psycho
tunnels
##ople
hask
saddam
commenting
##comp
exh
##type
righteous
referenced
attain
##writing
beacon
270
##iffe
visually
finishes
badge
1947
disrespect
##hin
vor
##proof
integer
scientology
morn
darren
126
##ept
jeans
chaotic
assassin
mates
pens
rover
versa
deceased
objection
ix
inviting
murdo
jeb
aws
esteem
60s
ratt
hag
##cence
betting
wast
##ifa
excluding
##plan
hyster
spaw
robotic
deton
124
favors
dilig
chlor
sponsorship
jacksonville
mohamed
iz
ventures
##pot
##oro
terrified
caliber
tolerate
##uffs
programmes
kindle
huck
gluten
halls
rehabilitation
empirical
pharmac
vom
##oped
acceleration
##riage
starcraft
wrongdoing
fec
kenneth
collaborative
predicting
observing
influx
crafting
wheeler
stretching
devastated
annot
borrowed
brennan
1800
helen
bristol
coordinate
enjoyable
##itational
operative
gamer
astronauts
storyline
shortc
##afort
seated
yog
neoc
blockb
fade
ming
defect
wary
abdullah
##had
unil
rebecca
demons
##ervice
socket
lent
monk
kumar
brace
relates
banana
webb
vince
recons
penguins
traction
##pable
##stan
switches
##inum
##iffer
1939
##isers
plugins
elf
##ра
detailing
##asion
revolt
tackling
vouch
motives
unlocked
festivals
yeast
##inth
apprent
sober
euph
fd
flush
criticize
hogan
kun
tapped
blitz
catalyst
dependence
infringement
severity
interval
unusually
recommends
communicating
tread
##uy
exceeded
##query
clearer
20s
davies
wink
antibiotics
exclude
housed
footprint
##oda
prints
ek
nos
179
pecul
##asis
warmer
katie
aunt
trench
warrants
innocence
nate
##usa
interrogation
sas
fascism
theirs
entirety
knicks
##ocratic
refined
murdoch
shiny
jazeera
hostility
forfe
olig
121
claire
introduces
trevor
creepy
144
recognizes
configure
stint
identifies
possessed
northwestern
merits
expon
##idav
urine
jas
compliment
marched
##aton
healthier
rivalry
asteroid
eco
brisbane
sho
peculiar
##cht
preserving
criticisms
hayes
nepal
fis
wiped
##rc
frightening
lub
confirming
ounce
clutch
dé
slog
gaze
radioactive
blows
imperative
offended
perfection
opioid
sevent
imply
contamination
acknowledges
notices
hunts
hoax
handc
embracing
tox
##amon
schultz
caes
##­ing
##ultural
##oids
atoms
strains
cn
manafort
gays
futur
##uds
##amiliar
dull
##iberal
##uder
cheek
resting
##steps
rigorous
classics
surgeon
##arc
nike
##yside
lis
crawford
##formed
cathedral
alp
202
fount
disregard
##elters
nz
alv
stip
contaminated
stems
retaliation
belly
chorus
disciplinary
builder
glorious
renamed
cleans
##arak
requesting
affidav
sexist
beautifully
supplementary
heavier
doomed
melting
slump
prevalent
assessments
jackie
jp
mell
abe
sabot
relentless
terribly
commentator
lynn
drift
exterior
cruelty
##umbling
##rium
paperwork
lbs
bureaucracy
tomatoes
apparatus
##iya
jedi
boulder
debian
ironic
##eday
decentralized
mam
distraction
councils
##imated
rous
cec
spa
hurricanes
parr
combines
##isha
##mc
##iggins
##oping
monica
majors
apis
retrosp
override
unsure
##iba
biom
##image
phases
conceptual
fertility
sunshine
microphone
##bra
domains
modification
recycling
detrim
router
ole
microbi
niss
anders
exec
sexism
##rients
bilateral
seaf
explosions
unfamiliar
pradesh
##ionage
psychedel
killers
forgive
feather
mechanic
digits
ons
viruses
bree
tapes
vienna
goss
crook
baron
pathway
irrational
judgement
##esp
logistics
infants
prud
##fest
##semin
dubious
shoots
glam
haskell
sys
kushner
burial
tsun
##chair
posing
stuffed
grill
##insky
280
honors
unchanged
sights
##rina
1942
camping
lengths
myriad
celtics
##itus
einstein
proudly
##amped
##sover
gifted
diaz
bots
##reet
coerc
zimmerman
cheat
cellphone
##kshire
##ourt
masks
bitch
voluntarily
illicit
editions
homem
contracted
visas
benz
widow
winger
tally
regain
rumor
vegetarian
unidentified
goddess
alumn
surgical
heather
##oka
##igs
##ocracy
boil
agreeing
wholesale
stain
repairs
strengthening
sidewalk
verification
ninja
nurt
anticipate
midwest
fortress
1958
omega
outdated
playground
dns
cans
buddha
irreg
inad
sixty
johns
militar
##onds
##spot
shutting
sprink
discharge
skies
concessions
broadcaster
##arin
firmware
highs
##inel
evaluating
shab
ld
##atism
stamps
##atorial
spine
slap
implant
parental
gadd
curtis
transplant
acknowledging
##olph
screenshots
intoler
magnific
benefited
hopeless
reconsider
2x
watts
3000
##vention
##ulse
attracting
fidel
borough
abbas
apar
spouse
regression
##jah
sz
auditor
orn
stair
razor
worm
dlc
hormone
remn
generals
cunning
someday
##isphere
##84
wt
infinity
criticizing
1956
##opolit
mails
##wire
happier
summers
unreason
°c
##sterdam
illustrates
unsurpr
##entric
floyd
competent
enlighten
glucose
wald
mv
sax
touted
320
##uka
britt
charlottesville
homer
tonnes
dill
domination
cocktail
regimes
##sten
fres
undergoing
advocated
popping
resolutions
shattered
##leen
costumes
fantas
za
##chool
fy
demise
##°c
wires
develops
vc
seizure
secondly
geography
ranger
stimulation
dew
modifications
kidnapped
suppression
exxon
elevator
snapped
##ovak
denounced
irregular
telecommunications
irving
diy
##ographics
mckin
##thouse
regulator
crushing
triggers
gallons
obsess
livestock
radically
biot
##arts
##iza
endured
scanning
##ente
surprises
pretending
##umbs
compute
renewal
proliferation
sudo
perceptions
##cock
30th
minerals
antiqu
extraction
battalion
truths
dots
##lette
discontin
baldwin
vick
plagued
laundering
woo
platinum
township
goalt
##encia
##arium
##aste
redund
shelters
mods
eligibility
##fax
yen
melissa
scrib
instability
##idity
hungarian
appointments
confron
mammals
dab
ping
andr
urgency
aap
earthquakes
neon
discoveries
dumped
hitter
supremacy
hust
negotiation
##urg
placebo
emailed
endure
zu
fen
ef
reviewer
umbrella
correspondence
alignment
espionage
subsidiary
podesta
schneider
skelet
260
bounty
iteration
pouring
grammar
sniper
captures
tapping
##ylon
fireworks
aurora
offspring
##olester
grounded
hassan
organizer
onset
falsely
wors
diplomat
diary
unauthorized
bahrain
sidelines
boris
anticipation
##club
kashmir
##bour
##rys
accessing
catastrophe
fragments
arose
e3
penetration
negatively
puls
stacked
suspend
sectarian
149
narciss
torch
mohammad
##ativity
determines
extinct
honesty
##abul
shawn
wicked
succession
allegation
##ensed
slope
unim
insiders
##ieu
specs
resh
bengal
smoked
raymond
sark
automotive
username
turnover
bruins
closet
granting
reinforced
redem
pitt
aber
emirates
narratives
compensate
lauren
kang
undertaken
manuscript
##gone
ench
shack
crashing
##onso
intrins
accidental
nit
diagram
eyebr
5m
essays
myers
reactors
bounds
reminiscent
disclaim
gd
1954
behold
df
forge
reiterated
contentious
rewarding
isps
supervision
accuse
instructor
philanthrop
misses
timer
##rae
indy
semitism
relevance
##onies
withd
hemisphere
1957
outraged
operatives
weights
savvy
##adh
leaking
forecasts
realization
backpack
peek
markers
215
amsterdam
stretches
theoretically
pyramid
crisp
gras
unsurprising
hank
differential
ineffective
rant
nominations
##ste
compilation
1953
converting
abnormal
dinosaurs
moses
intoxic
ellen
keystone
copied
550
gree
mourinho
##82
unarmed
##boro
martyr
dinosaur
##uu
##osterone
inserted
pseudo
##inational
deprec
hypothetical
statistic
liu
waking
sheikh
celebrations
extrad
disappearance
replicate
##ray
governed
alger
##63
traced
transcend
##rahim
pend
bengals
disadvantage
bowling
swath
undisc
tossed
##tw
blaze
pediat
recurring
medals
receptor
##kowski
beatles
##ozone
endurance
##awling
apocalypse
parole
eugene
hect
clich
tile
cybersecurity
##ource
submissions
withdrawn
##ibal
##ayan
ashamed
oy
turmo
branding
servant
##got
##hm
financed
quarterly
##kill
diane
rx
tiles
expired
cue
##gev
outspoken
##orf
architectural
##icester
conquer
goat
meme
##guards
specially
chopped
protestant
lebanese
##oured
ivory
fitzg
##83
supermarket
daddy
contend
occurrence
retrieve
versatile
ecuador
needless
bombings
fuller
nodded
##activity
christine
retention
peanut
rethink
hott
vita
examiner
haunted
shades
frog
по
decry
withdrew
signaling
##anson
turmoil
remembering
excel
ener
crafts
unple
132
sebastian
precinct
graffiti
certificates
rebound
##babwe
infectious
gallup
therapeutic
skeleton
offender
costing
performer
shia
##blance
cheers
dea
circus
elephants
tracker
zimbabwe
beaches
unavailable
tsa
robotics
burg
spice
##tech
upwards
hailed
drafting
marxist
leicester
bidding
##actors
armored
##usions
mcn
fou
##onymous
brake
allerg
admittedly
embarrassment
##lys
wyoming
oxid
heterosexual
mozilla
celtic
resemble
##lamation
##essa
geo
thwart
traps
genetics
1917
upheld
dictatorship
dilemma
keeper
zionist
##estation
wagner
charming
shrinking
ssh
1955
lah
dhs
translates
hooked
##etto
violates
props
defl
rampant
compression
acknowledg
##pd
##oton
hib
##media
diminished
2030
divorced
bishops
unblock
blonde
##eca
possessions
fren
##mania
invasive
##ku
unofficial
eject
cambod
engr
exe
storing
temporal
cleaned
ned
spoon
styl
tangible
usher
alec
popped
miserable
##ahe
lok
plaintiff
forc
compares
scandals
##rous
villains
adjusting
validity
hardy
marl
##agne
consortium
filmmakers
##avan
##cribe
declines
looming
aaa
yor
##nar
cors
shale
parse
refreshing
1500
pundits
##kinson
feasible
illum
leis
evacuated
segregation
podium
##icia
##casts
phar
recap
barrett
browsing
remedy
##uding
gems
frequencies
surreal
eurozone
brewer
tempo
continuity
lig
205
ses
tuning
fiat
photoshop
composite
millennium
£3
##zs
mythology
1943
lastly
##vr
smear
prosecute
fraudulent
shooters
outsiders
headphones
1949
modular
semitic
##evelop
specialty
alleging
airstrikes
contributes
##escent
heightened
stakeholders
puppet
distracted
deception
meaningless
##ancers
extracted
rapids
calvin
##eryl
militias
ubiquit
##ivable
pax
##gae
kurdistan
wenger
buys
allegiance
restoring
fundraiser
elbow
contenders
downloading
vow
existential
imagin
##inqu
inquiries
##atem
incub
als
researching
juda
bubbles
##ych
uniquely
stephanie
caffe
slept
##â€
magistr
clusters
rhodes
beet
prow
cracking
narrowly
##lis
etern
##bee
backdrop
3ds
crab
lodge
destabil
developmental
animations
joey
sins
133
nolan
redeem
wasting
perpetrators
##onge
nutrients
preparations
##gling
##bands
ceasefire
trinity
##azed
pors
burton
kidnapping
##stad
devote
indirectly
##amic
reservation
defeats
reproduction
shrug
tweeting
relieved
reservations
grove
139
chilling
withhold
blasted
circumc
cinematic
137
1920s
photographed
##bat
incarn
mandated
nicotine
tran
marching
fah
frances
rejecting
thieves
galaxies
dont
nitrogen
exchanged
##ér
freelance
polite
##elin
spher
smoothly
multinational
deported
boliv
royals
canucks
bolster
splitting
##troller
##hell
forefront
constituency
##manship
niet
membr
wyn
garrett
acclaimed
celest
solitary
interc
colbert
intimidation
poorest
utilized
nud
ghosts
bombard
##hall
##opian
##quet
suns
ankara
##abulary
packing
joan
##laren
rhode
gaddafi
proclaim
##cely
alternatively
tyson
acids
wc
breweries
lifelong
unpleasant
##ussions
accumulated
transp
tucker
specification
##like
sung
##urry
rcmp
pall
indefinitely
crosses
blades
mafia
analogy
hansen
impeachment
abundant
sucks
sincer
doubling
optimized
macron
efficacy
bayern
swords
sulf
ال
enhancing
##eard
baff
peru
venus
cracks
messy
peas
fuzz
##lab
##baum
deadl
dared
pumpkin
bloggers
designation
##rov
cyr
##aways
merr
narrator
faint
punched
v1
employs
##rr
##hat
nicole
patrons
nes
idle
clad
helpless
vander
counseling
overlap
minecraft
gallon
pedestrians
hail
transforming
overthrow
teasp
##lib
orchestra
##lude
symptom
procure
pab
abr
trunk
settling
medicines
whiskey
destined
nah
gerald
arbitration
##opt
irresponsible
##odynam
adequately
bully
##ustomed
undo
coward
ich
predicts
afc
commodities
sensory
tubes
weakened
aq
eli
hil
barring
aca
func
disruptive
manit
energet
carved
harold
illnesses
hos
1b
losers
patriarch
equals
##velope
wong
beverage
pomp
richer
glue
hugo
squir
microw
##arten
elastic
encycl
lifes
expenditure
##folk
136
policymakers
unpaid
##brand
allev
sodium
dislike
awake
susceptible
vaccination
kod
ruler
fulfilling
repression
contingent
creep
americas
##dens
fps
iw
astronomers
lsu
escalation
miscon
uef
##iens
html5
undersc
dental
thief
mcdon
companions
mailing
misery
surroundings
sharia
lucy
tabs
##urst
poisoning
patterson
nissan
remake
trending
fow
fitzgerald
lv
interceptions
joked
notch
foam
malt
newman
strongh
plural
##falls
restruct
steak
mutation
suv
##olia
boarding
antenna
advertisers
emanuel
staple
awe
intersect
benedict
excuses
churchill
pins
neglected
discern
sib
hulk
boosting
replies
unto
emble
kad
orbital
##ln
mitigate
##charge
##dock
eros
##itures
smashed
totals
##icidal
crank
1946
myan
##54
memoir
flop
##otics
envelope
drawings
##aned
assessing
foresee
playable
nerd
leisure
franchises
quoting
chass
counters
yelled
advertised
pairing
##edes
##lia
gamble
koreans
santos
rooft
countryside
fp
##utz
dissemin
nood
supers
138
decorated
rigged
merged
##ograms
creed
leslie
halluc
lore
pud
resembles
sadness
lungs
evacuation
frederick
kirby
ledger
joyce
insign
semif
prohibits
natal
aviv
laptops
134
gardner
inflicted
televised
centr
osborne
tn
shannon
cleric
cornell
##isans
arrows
mahm
hammond
underwent
##iolet
shen
cartel
interacting
johann
axe
unanimous
rationale
stumble
##ods
pops
ori
##amel
communal
chee
##53
##ро
forged
myanmar
concussion
##idable
##kan
detr
coron
situated
zhang
coordinates
scans
yuan
testosterone
philosophers
niel
greene
chapel
visions
nigel
supplier
respir
thriving
villagers
locking
squadron
disagreement
strive
undergraduate
charleston
##gee
hick
ahl
parenting
moto
guru
sap
stump
photographers
independents
coul
soros
hardship
launcher
##vd
geometry
yearly
impaired
##yne
concerts
janet
fargo
##62
manipulated
reclaim
yak
unden
coloss
##gram
continuation
lawmaker
##gregor
blueprint
poorer
homemade
yel
##idad
ashes
discom
europa
jelly
enforcing
##umi
monte
##imer
thou
spit
bake
accomplishments
seaw
pinch
closes
andrews
overturned
gratitude
och
authenticity
sage
aggravated
revive
raven
dems
massively
drastic
ubiquitous
mats
ding
emission
cynical
affidavit
insurg
divisive
pathways
worthwhile
stroll
##otle
dota
tand
squat
gaw
vox
advancement
131
alias
salvador
##mus
##itan
grandpar
gast
lounge
interception
##contin
schedules
pedro
nicolas
gentleman
wm
unman
guessing
pads
thankful
jag
stee
runway
mortal
leeds
hannah
##bourg
sanctioned
speculate
##keeper
maver
vt
lawful
fug
serbia
phen
baylor
discriminatory
sally
##hawks
schwar
##icular
##jack
levin
perimeter
impart
stigma
judaism
ipa
##61
thc
arrange
monkeys
turtle
feminine
bride
##lave
insec
zo
jacobs
chalk
packet
manila
enlightenment
##illes
brom
neoliberal
diets
cola
##long
lasts
turf
aspirations
commissioners
hypocrisy
thrott
optimization
lenders
torrent
systematically
gestures
capitals
1933
txt
quadr
planting
1952
conquest
##ivism
anglo
confessed
ample
dismissal
smiles
spies
cuomo
mortgages
drills
brakes
##cot
##edience
syrians
##mill
##isse
tomato
##hp
rude
punj
nails
proposes
##inks
circulated
pervas
gujar
ethnicity
congo
defam
initiate
safeguard
congestion
duel
obliv
reload
cholester
yorker
##oldown
sliding
inadvert
volc
spectacle
armenian
chickens
lectures
unanimously
maternal
spotify
assemble
collectors
stumbled
kre
newfound
liberalism
ufo
slick
rotating
electro
hurry
nascar
notebook
conceal
stubborn
peril
##donaldtrump
gradual
opposes
davidson
##imal
goalie
huh
hinted
successive
departed
executing
installment
communists
downside
staffer
narendra
##ushima
realdonaldtrump
kuwa
ecst
affiliation
grizz
hates
synthes
syrup
disqual
rulers
aura
cooldown
accusation
##ospace
frameworks
evap
demolition
misdemeanor
emin
##rik
##avez
cholesterol
##ifax
exaggerated
bradford
automobile
highways
extras
weighs
speeding
##tar
schizophrenia
protested
stalled
thirteen
mtv
pivotal
suing
xin
emerges
remarked
reinst
##atri
cohes
chatt
synthesis
sixteen
##angle
injected
interm
decomp
libertarians
##fk
oscill
friction
regulating
##97
learns
infrared
##ernick
catcher
barber
confession
lak
courthouse
cott
caffeine
tipped
heir
freddie
x2
mub
vip
southampton
macdonald
redemption
##ogene
ply
tilt
johnston
incarceration
accustomed
jackets
miguel
solomon
glitch
ingest
##fp
worldview
plains
deduct
grains
##astics
scripture
lia
bigotry
mutations
mysteries
wandering
inflammation
##vable
lindsey
porsche
gnome
acoustic
scorer
deflect
geopolit
##ulators
vibe
cain
ignores
societal
sinister
##holic
showdown
persuaded
retiring
hottest
imbal
torres
##alone
swiftly
blockbuster
refrain
hondur
tasting
lambda
elevation
##ondition
knives
smuggling
removes
##sty
indicted
magnificent
##erner
buddhism
formidable
patric
autobi
averages
encoding
crowdfund
trolls
în
##ugu
shepherd
undec
thriller
induce
dragging
naive
glowing
eyew
sincerely
negoti
insulting
collusion
resisted
congratulations
surrog
restraint
kindness
##ariat
templates
newborn
coherent
chavez
durant
##eto
unex
loser
##theid
labeling
##gle
##boarding
braves
smokers
bodily
inver
на
sincere
tumor
kany
disagreed
relay
##iked
##aped
demographics
councillor
lamar
kau
motorola
constructive
grie
##opl
tying
ibrahim
regiment
swarm
symph
reproduce
petersburg
##200
redef
tsunami
unear
s3
squares
deepest
mushrooms
seizures
##57
##ometric
burnt
cush
valentine
apartheid
sentinel
##ells
grabs
##roads
##ли
intest
strips
##tegr
limitation
frac
##iii
##onna
exceptionally
rainfall
##oj
floods
gigantic
amass
##shi
1930
waving
monuments
descended
stif
hiking
##ondo
pupils
##rated
mocking
thanked
oppressed
seals
profoundly
outdoors
nationalists
impulse
franco
provocative
chord
archbish
zelda
−0
evenly
##iman
##ouring
notify
pumping
##orie
perth
pess
commercially
clergy
##bons
breasts
##roy
jewelry
boxer
bulgar
kom
ort
summon
1914
##cry
##aly
mickey
sentiments
##ichi
##afta
aided
cardboard
comfortably
conflicting
gears
liable
crater
##94
1936
organizational
##wear
plummet
##abee
##mic
cylinder
faq
coached
lust
hannity
statut
chunks
rents
oddly
##itious
##enhagen
##iji
lithium
cler
overload
shortages
zika
stationed
defenseman
scarce
chir
unleashed
rumours
atrocities
lure
##inted
toughest
jihadists
ferment
bloss
borne
outgoing
##park
##ozy
unaff
vista
sega
docs
limbs
kris
lte
loudly
discrep
incapable
incidence
msg
##ensibly
vind
glyph
disgrace
##olith
excerpt
workload
idf
twentieth
impending
snip
dement
misrepres
##orated
circulating
cory
chapman
carpenter
injunction
workshops
maduro
impressions
exploits
daylight
preceding
congregation
chassis
sj
quake
oils
scheduling
1918
oft
##ovascular
laundry
filib
syrac
unreasonable
##olin
providence
rade
simplest
respectful
monroe
receptors
incorrectly
dx
reflex
refriger
1938
143
abyss
consultants
##angu
stranded
prolet
tet
coca
municipalities
expenditures
1m
biod
venom
ense
##ivation
steer
x86
aux
polished
pbs
diana
socks
mari
##ecoin
azure
alumni
willie
histories
vii
dp
broth
monstr
competit
famed
culpr
praying
diagnostic
rented
jurisdictions
330
robbed
sina
##iegel
depicting
corpse
practitioners
wolver
clam
sims
harassed
##data
##orously
148
##keeping
volks
pizz
##info
termination
descendants
vid
fb
rumored
snapshot
cancellation
configured
rituals
fraser
superst
garnered
metabolic
pb
tru
tendencies
zerg
arises
prolific
newark
365
puzzles
syracuse
sank
imaginary
##bies
humane
spontaneous
islanders
sg
##enza
capped
##akis
##avi
##guided
ambush
sinking
stripes
rbi
wim
celebrates
rewrite
adren
summoned
marty
uv
wishing
downing
impuls
##bek
disturbed
drunken
obso
fairfax
lanka
rochester
hoy
enqu
tore
breakout
simplified
dong
whopping
uae
convoy
knox
explode
sticky
airing
await
ctr
hesit
vocabulary
ssl
##uns
zer
indonesian
##orthy
##hed
##atal
trailing
textures
x65
employing
prefix
conservatism
gian
announces
##56
##quin
##gem
invoke
##atr
swinging
##irk
urges
sorted
##ер
cout
hops
hoffman
deploying
rotate
passer
undermining
##âãâãâãâãâãâãâãâãâãâãâãâãâãâãâãâã
latency
nusra
azerb
neill
decreasing
cohort
cody
subsidy
posture
whereby
inmate
copenhagen
tipping
disclaimer
shoppers
ipcc
restrictive
proportions
fernando
genres
##illas
subtr
osama
icc
clintons
firstly
##raf
yug
durable
eats
decreases
##arius
salon
venge
jihadist
azerbai
openness
utilizing
tf
rin
predecessors
##ет
saus
24th
rivera
alcoholic
blatant
invaded
147
shutterstock
blockade
nause
exploiting
