{"version":"1.0","truncation":null,"padding":null,"added_tokens":[{"id":0,"content":"[PAD]","single_word":false,"lstrip":false,"rstrip":false,"normalized":false,"special":true},{"id":1,"content":"[UNK]","single_word":false,"lstrip":false,"rstrip":false,"normalized":false,"special":true},{"id":2,"content":"[CLS]","single_word":false,"lstrip":false,"rstrip":false,"normalized":false,"special":true},{"id":3,"content":"[SEP]","single_word":false,"lstrip":false,"rstrip":false,"normalized":false,"special":true},{"id":4,"content":"[MASK]","single_word":false,"lstrip":false,"rstrip":false,"normalized":false,"special":true}],"normalizer":{"type":"BertNormalizer","clean_text":false,"handle_chinese_chars":false,"strip_accents":false,"lowercase":true},"pre_tokenizer":{"type":"BertPreTokenizer"},"post_processor":null,"decoder":{"type":"WordPiece","prefix":"##","cleanup":true},"model":{"type":"WordPiece","unk_token":"[UNK]","continuing_subword_prefix":"##","max_input_chars_per_word":100,"vocab":{"[PAD]":0,"[UNK]":1,"[CLS]":2,"[SEP]":3,"[MASK]":4,"!":5,"\"":6,"#":7,"$":8,"%":9,"&":10,"'":11,"(":12,")":13,"*":14,"+":15,",":16,"-":17,".":18,"/":19,"0":20,"1":21,"2":22,"3":23,"4":24,"5":25,"6":26,"7":27,"8":28,"9":29,":":30,";":31,"<":32,"=":33,">":34,"?":35,"@":36,"[":37,"\\":38,"]":39,"^":40,"_":41,"`":42,"a":43,"b":44,"c":45,"d":46,"e":47,"f":48,"g":49,"h":50,"i":51,"j":52,"k":53,"l":54,"m":55,"n":56,"o":57,"p":58,"q":59,"r":60,"s":61,"t":62,"u":63,"v":64,"w":65,"x":66,"y":67,"z":68,"{":69,"|":70,"}":71,"~":72,"":73,"":74,"":75,"":76,"":77,"":78,"":79,"":80,"":81,"":82,"":83,"":84,"¡":85,"¢":86,"£":87,"¤":88,"¥":89,"¦":90,"§":91,"¨":92,"©":93,"«":94,"¬":95,"­":96,"®":97,"¯":98,"°":99,"±":100,"²":101,"³":102,"´":103,"µ":104,"¶":105,"·":106,"¸":107,"¹":108,"º":109,"»":110,"¼":111,"½":112,"¾":113,"¿":114,"×":115,"ß":116,"à":117,"á":118,"â":119,"ã":120,"ä":121,"å":122,"æ":123,"ç":124,"è":125,"é":126,"ê":127,"ë":128,"ì":129,"í":130,"î":131,"ï":132,"ð":133,"ñ":134,"ò":135,"ó":136,"ô":137,"õ":138,"ö":139,"÷":140,"ø":141,"ù":142,"ú":143,"û":144,"ü":145,"ý":146,"þ":147,"ÿ":148,"ā":149,"ă":150,"ą":151,"ć":152,"č":153,"đ":154,"ē":155,"ė":156,"ę":157,"ě":158,"ĝ":159,"ğ":160,"ī":161,"ı":162,"ł":163,"ń":164,"ŋ":165,"ō":166,"ő":167,"œ":168,"ř":169,"ś":170,"ş":171,"š":172,"ţ":173,"ū":174,"ŭ":175,"ů":176,"ź":177,"ż":178,"ž":179,"ƒ":180,"ǎ":181,"ǐ":182,"ǒ":183,"ǔ":184,"ș":185,"ț":186,"ɑ":187,"ɔ":188,"ə":189,"ɛ":190,"ɡ":191,"ɪ":192,"ɾ":193,"ʃ":194,"ʊ":195,"ʔ":196,"ʖ":197,"ʰ":198,"ʲ":199,"ʻ":200,"ʼ":201,"ʿ":202,"ˈ":203,"ː":204,"˙":205,"˚":206,"˜":207,"̀":208,"́":209,"̃":210,"̄":211,"̇":212,"̈":213,"̯":214,"̶":215,"͜":216,"͡":217,"ά":218,"έ":219,"ή":220,"ί":221,"α":222,"β":223,"γ":224,"δ":225,"ε":226,"ζ":227,"η":228,"θ":229,"ι":230,"κ":231,"λ":232,"μ":233,"ν":234,"ξ":235,"ο":236,"π":237,"ρ":238,"ς":239,"σ":240,"τ":241,"υ":242,"φ":243,"χ":244,"ψ":245,"ω":246,"ό":247,"ύ":248,"ώ":249,"ϕ":250,"а":251,"б":252,"в":253,"г":254,"д":255,"е":256,"ж":257,"з":258,"и":259,"й":260,"к":261,"л":262,"м":263,"н":264,"о":265,"п":266,"р":267,"с":268,"т":269,"у":270,"ф":271,"х":272,"ц":273,"ч":274,"ш":275,"щ":276,"ъ":277,"ы":278,"ь":279,"э":280,"ю":281,"я":282,"ё":283,"ѕ":284,"і":285,"ї":286,"ա":287,"ե":288,"ի":289,"ն":290,"ո":291,"ր":292,"ւ":293,"ְ":294,"ִ":295,"ֶ":296,"ַ":297,"ָ":298,"ֹ":299,"ּ":300,"א":301,"ב":302,"ג":303,"ד":304,"ה":305,"ו":306,"ז":307,"ח":308,"ט":309,"י":310,"כ":311,"ל":312,"ם":313,"מ":314,"ן":315,"נ":316,"ס":317,"ע":318,"פ":319,"צ":320,"ק":321,"ר":322,"ש":323,"ת":324,"،":325,"ء":326,"آ":327,"أ":328,"إ":329,"ئ":330,"ا":331,"ب":332,"ة":333,"ت":334,"ث":335,"ج":336,"ح":337,"خ":338,"د":339,"ذ":340,"ر":341,"ز":342,"س":343,"ش":344,"ص":345,"ض":346,"ط":347,"ظ":348,"ع":349,"غ":350,"ـ":351,"ف":352,"ق":353,"ك":354,"ل":355,"م":356,"ن":357,"ه":358,"و":359,"ى":360,"ي":361,"ً":362,"َ":363,"ُ":364,"ِ":365,"ّ":366,"ْ":367,"ک":368,"ی":369,"ं":370,"क":371,"ग":372,"च":373,"ज":374,"त":375,"द":376,"न":377,"प":378,"ब":379,"भ":380,"म":381,"य":382,"र":383,"ल":384,"व":385,"श":386,"स":387,"ह":388,"ा":389,"ि":390,"ी":391,"ु":392,"े":393,"ै":394,"ो":395,"्":396,"।":397,"র":398,"া":399,"ে":400,"্":401,"க":402,"ி":403,"்":404,"್":405,"ക":406,"ത":407,"ന":408,"ാ":409,"ി":410,"ു":411,"്":412,"ก":413,"ค":414,"ง":415,"ด":416,"ต":417,"ท":418,"น":419,"บ":420,"ป":421,"ม":422,"ย":423,"ร":424,"ล":425,"ว":426,"ส":427,"ห":428,"อ":429,"ะ":430,"ั":431,"า":432,"ิ":433,"ี":434,"เ":435,"่":436,"้":437,"๎":438,"་":439,"ḍ":440,"ḥ":441,"ṃ":442,"ṇ":443,"ṛ":444,"ṣ":445,"ṭ":446,"ệ":447,"ἀ":448,"ἐ":449,"ὶ":450,"​":451,"‌":452,"‍":453,"‎":454,"‏":455,"‐":456,"‑":457,"‒":458,"–":459,"—":460,"―":461,"‘":462,"’":463,"‚":464,"“":465,"”":466,"„":467,"†":468,"‡":469,"•":470,"…":471,"‪":472,"‬":473,"‭":474,"‰":475,"′":476,"″":477,"‹":478,"›":479,"※":480,"⁃":481,"⁄":482,"⁠":483,"⁡":484,"€":485,"₹":486,"™":487,"⅓":488,"←":489,"↑":490,"→":491,"↓":492,"↩":493,"⇒":494,"⇓":495,"∀":496,"∂":497,"∈":498,"∑":499,"−":500,"∗":501,"∘":502,"∙":503,"√":504,"∞":505,"∧":506,"∫":507,"∴":508,"∵":509,"∼":510,"≈":511,"≠":512,"≡":513,"≤":514,"≥":515,"⋅":516,"⌘":517,"ⓒ":518,"ⓘ":519,"─":520,"━":521,"│":522,"└":523,"├":524,"┼":525,"═":526,"║":527,"╺":528,"▀":529,"▄":530,"█":531,"▌":532,"▐":533,"░":534,"▒":535,"▓":536,"■":537,"□":538,"▪":539,"▬":540,"▲":541,"▶":542,"►":543,"▼":544,"◆":545,"◊":546,"○":547,"●":548,"★":549,"☆":550,"♠":551,"♥":552,"♦":553,"♪":554,"♫":555,"♭":556,"✓":557,"✔":558,"❤":559,"➤":560,"⟨":561,"⟩":562,"、":563,"。":564,"〉":565,"《":566,"「":567,"」":568,"『":569,"』":570,"【":571,"】":572,"〓":573,"あ":574,"い":575,"う":576,"え":577,"お":578,"か":579,"が":580,"き":581,"く":582,"け":583,"げ":584,"こ":585,"ご":586,"さ":587,"し":588,"じ":589,"す":590,"ず":591,"せ":592,"そ":593,"た":594,"だ":595,"ち":596,"っ":597,"つ":598,"て":599,"で":600,"と":601,"ど":602,"な":603,"に":604,"ね":605,"の":606,"は":607,"ば":608,"び":609,"へ":610,"べ":611,"ほ":612,"ま":613,"み":614,"め":615,"も":616,"ゃ":617,"や":618,"ょ":619,"よ":620,"ら":621,"り":622,"る":623,"れ":624,"ろ":625,"わ":626,"を":627,"ん":628,"ァ":629,"ア":630,"ィ":631,"イ":632,"ウ":633,"ェ":634,"エ":635,"オ":636,"カ":637,"ガ":638,"キ":639,"ク":640,"グ":641,"ケ":642,"ゲ":643,"コ":644,"ゴ":645,"サ":646,"ザ":647,"シ":648,"ジ":649,"ス":650,"ズ":651,"セ":652,"ソ":653,"タ":654,"ダ":655,"チ":656,"ッ":657,"ツ":658,"テ":659,"デ":660,"ト":661,"ド":662,"ナ":663,"ニ":664,"ネ":665,"ノ":666,"ハ":667,"バ":668,"パ":669,"ビ":670,"ピ":671,"フ":672,"ブ":673,"プ":674,"ベ":675,"ボ":676,"ポ":677,"マ":678,"ミ":679,"ム":680,"メ":681,"モ":682,"ャ":683,"ュ":684,"ョ":685,"ラ":686,"リ":687,"ル":688,"レ":689,"ロ":690,"ワ":691,"ン":692,"・":693,"ー":694,"ヽ":695,"ㅋ":696,"ㅠ":697,"一":698,"三":699,"上":700,"下":701,"不":702,"世":703,"个":704,"中":705,"为":706,"主":707,"么":708,"之":709,"也":710,"了":711,"事":712,"二":713,"京":714,"人":715,"今":716,"他":717,"代":718,"以":719,"们":720,"会":721,"体":722,"何":723,"作":724,"你":725,"使":726,"保":727,"信":728,"先":729,"入":730,"全":731,"公":732,"其":733,"内":734,"出":735,"分":736,"利":737,"到":738,"制":739,"前":740,"力":741,"加":742,"動":743,"化":744,"北":745,"十":746,"南":747,"原":748,"发":749,"取":750,"可":751,"合":752,"同":753,"名":754,"向":755,"和":756,"品":757,"回":758,"国":759,"在":760,"地":761,"場":762,"士":763,"変":764,"外":765,"多":766,"大":767,"天":768,"太":769,"女":770,"好":771,"如":772,"子":773,"字":774,"学":775,"安":776,"定":777,"実":778,"家":779,"对":780,"対":781,"小":782,"少":783,"就":784,"山":785,"工":786,"市":787,"常":788,"平":789,"年":790,"度":791,"式":792,"当":793,"後":794,"得":795,"心":796,"思":797,"性":798,"情":799,"想":800,"意":801,"感":802,"成":803,"我":804,"戦":805,"所":806,"手":807,"持":808,"政":809,"数":810,"文":811,"新":812,"方":813,"日":814,"时":815,"明":816,"是":817,"時":818,"書":819,"最":820,"月":821,"有":822,"期":823,"木":824,"本":825,"来":826,"東":827,"果":828,"機":829,"正":830,"民":831,"気":832,"水":833,"法":834,"海":835,"点":836,"無":837,"然":838,"物":839,"特":840,"王":841,"現":842,"理":843,"生":844,"用":845,"田":846,"由":847,"界":848,"発":849,"的":850,"目":851,"相":852,"真":853,"着":854,"知":855,"社":856,"神":857,"私":858,"空":859,"立":860,"第":861,"等":862,"网":863,"美":864,"者":865,"而":866,"能":867,"自":868,"色":869,"行":870,"表":871,"西":872,"要":873,"見":874,"解":875,"言":876,"記":877,"話":878,"語":879,"说":880,"起":881,"身":882,"这":883,"通":884,"道":885,"那":886,"部":887,"都":888,"重":889,"金":890,"長":891,"開":892,"間":893,"関":894,"集":895,"面":896,"音":897,"高":898,"魔":899,"가":900,"것":901,"게":902,"경":903,"고":904,"공":905,"과":906,"구":907,"국":908,"그":909,"기":910,"나":911,"는":912,"니":913,"다":914,"대":915,"데":916,"도":917,"동":918,"드":919,"들":920,"라":921,"로":922,"를":923,"리":924,"마":925,"만":926,"면":927,"모":928,"무":929,"미":930,"보":931,"부":932,"비":933,"사":934,"상":935,"서":936,"선":937,"성":938,"소":939,"수":940,"스":941,"습":942,"시":943,"신":944,"아":945,"어":946,"에":947,"여":948,"오":949,"요":950,"우":951,"원":952,"으":953,"은":954,"을":955,"의":956,"이":957,"인":958,"일":959,"있":960,"자":961,"장":962,"적":963,"전":964,"정":965,"제":966,"주":967,"지":968,"진":969,"트":970,"하":971,"한":972,"해":973,"했":974,"":975,"":976,"ﬁ":977,"ﬂ":978,"️":979,"﻿":980,"！":981,"（":982,"）":983,"，":984,"－":985,"／":986,"１":987,"：":988,"？":989,"＼":990,"＿":991,"～":992,"｡":993,"･":994,"ﾟ":995,"￣":996,"￼":997,"�":998,"🇸":999,"🇺":1000,"😀":1001,"😂":1002,"😉":1003,"🙂":1004,"##9":1005,"##0":1006,"##8":1007,"##3":1008,"##1":1009,"##m":1010,"##b":1011,"##a":1012,"##r":1013,"##c":1014,"##t":1015,"##i":1016,"##u":1017,"##n":1018,"##e":1019,"##l":1020,"##o":1021,"##d":1022,"##s":1023,"##ü":1024,"##h":1025,"##g":1026,"##v":1027,"##":1028,"##f":1029,"##z":1030,"##k":1031,"##4":1032,"##ю":1033,"##ш":1034,"##а":1035,"##м":1036,"##б":1037,"##е":1038,"##7":1039,"##ग":1040,"##श":1041,"##क":1042,"##्":1043,"##त":1044,"##ि":1045,"##2":1046,"##ラ":1047,"##イ":1048,"##デ":1049,"##ィ":1050,"##ン":1051,"##グ":1052,"##y":1053,"##â":1054,"##":1055,"##":1056,"##ē":1057,"##j":1058,"##w":1059,"##5":1060,"##p":1061,"##6":1062,"##这":1063,"##个":1064,"##我":1065,"##想":1066,"##起":1067,"##来":1068,"##了":1069,"##":1070,"##x":1071,"##ミ":1072,"##ー":1073,"##の":1074,"##定":1075,"##q":1076,"##ä":1077,"##্":1078,"##ে":1079,"##キ":1080,"##ッ":1081,"##ト":1082,"##ñ":1083,"##ú":1084,"##̶":1085,"##ö":1086,"##ě":1087,"##í":1088,"##ï":1089,"##é":1090,"##ا":1091,"##ئ":1092,"##و":1093,"##ی":1094,"##з":1095,"##р":1096,"##ж":1097,"##и":1098,"##н":1099,"##с":1100,"##к":1101,"##о":1102,"##ı":1103,"##ğ":1104,"##‎":1105,"##ê":1106,"##á":1107,"##­":1108,"##理":1109,"##は":1110,"##":1111,"##ェ":1112,"##ム":1113,"##ス":1114,"##入":1115,"##後":1116,"##ο":1117,"##τ":1118,"##υ":1119,"##י":1120,"##ש":1121,"##ר":1122,"##א":1123,"##ל":1124,"##라":1125,"##َ":1126,"##ب":1127,"##ِ":1128,"##ي":1129,"##어":1130,"##カ":1131,"##ブ":1132,"##×":1133,"##ɛ":1134,"##ː":1135,"##™":1136,"##в":1137,"##可":1138,"##ç":1139,"##장":1140,"##들":1141,"##과":1142,"##":1143,"##空":1144,"##間":1145,"##取":1146,"##時":1147,"##й":1148,"##ج":1149,"##ل":1150,"##ْ":1151,"##ε":1152,"##μ":1153,"##λ":1154,"##ι":1155,"##ώ":1156,"##δ":1157,"##ς":1158,"##€":1159,"##ṇ":1160,"##ā":1161,"##ḥ":1162,"##ѕ":1163,"##学":1164,"##期":1165,"##が":1166,"##ま":1167,"##る":1168,"##ó":1169,"##ص":1170,"##ف":1171,"##æ":1172,"##ş":1173,"##ά":1174,"##ρ":1175,"##い":1176,"##て":1177,"##ベ":1178,"##ボ":1179,"##さ":1180,"##ん":1181,"##よ":1182,"##り":1183,"##色":1184,"##д":1185,"##у":1186,"##ч":1187,"##т":1188,"##ь":1189,"##©":1190,"##č":1191,"##ق":1192,"##ُ":1193,"##ن":1194,"##マ":1195,"##ク":1196,"##ロ":1197,"##な":1198,"##で":1199,"##す":1200,"##ա":1201,"##ն":1202,"##ի":1203,"##π":1204,"##η":1205,"##σ":1206,"##ί":1207,"##α":1208,"##ы":1209,"##か":1210,"##ら":1211,"##フ":1212,"##ă":1213,"##ő":1214,"##і":1215,"##л":1216,"##年":1217,"##月":1218,"##日":1219,"##מ":1220,"##ת":1221,"##च":1222,"##ì":1223,"##":1224,"##�":1225,"##ד":1226,"##ו":1227,"##１":1228,"##長":1229,"##点":1230,"##的":1231,"##と":1232,"##し":1233,"##言":1234,"##う":1235,"##を":1236,"##用":1237,"##ą":1238,"##二":1239,"##サ":1240,"##ポ":1241,"##タ":1242,"##も":1243,"##同":1244,"##に":1245,"##開":1246,"##れ":1247,"##̇":1248,"##道":1249,"##出":1250,"##נ":1251,"##ִ":1252,"##ק":1253,"##ָ":1254,"##ה":1255,"##あ":1256,"##っ":1257,"##私":1258,"##目":1259,"##ゴ":1260,"##リ":1261,"##不":1262,"##人":1263,"##き":1264,"##ز":1265,"##ر":1266,"##然":1267,"##海":1268,"##都":1269,"##本":1270,"##使":1271,"##者":1272,"##現":1273,"##わ":1274,"##た":1275,"##ǎ":1276,"##š":1277,"##ち":1278,"##ゃ":1279,"##→":1280,"##く":1281,"##お":1282,"##以":1283,"##外":1284,"##め":1285,"##だ":1286,"##ī":1287,"##ʃ":1288,"##発":1289,"##表":1290,"##ば":1291,"##思":1292,"##少":1293,"##ة":1294,"##를":1295,"##ケ":1296,"##モ":1297,"##シ":1298,"##ョ":1299,"##テ":1300,"##п":1301,"##ַ":1302,"##ס":1303,"##ע":1304,"##χ":1305,"##ω":1306,"##ъ":1307,"##œ":1308,"##ø":1309,"##也":1310,"##一":1311,"##最":1312,"##常":1313,"##ύ":1314,"##γ":1315,"##←":1316,"##ß":1317,"##事":1318,"##生":1319,"##コ":1320,"##ʊ":1321,"##è":1322,"##​":1323,"##何":1324,"##大":1325,"##手":1326,"##ã":1327,"##チ":1328,"##機":1329,"##能":1330,"##®":1331,"##ś":1332,"##°":1333,"##地":1334,"##구":1335,"##":1336,"##ō":1337,"##ご":1338,"##自":1339,"##身":1340,"##ゲ":1341,"##前":1342,"##明":1343,"##г":1344,"##ه":1345,"##م":1346,"##å":1347,"##¨":1348,"##£":1349,"##´":1350,"##♠":1351,"##文":1352,"##х":1353,"##就":1354,"##是":1355,"##‏":1356,"##́":1357,"##レ":1358,"##β":1359,"##ν":1360,"##得":1361,"##س":1362,"##έ":1363,"##見":1364,"##水":1365,"##エ":1366,"##ュ":1367,"##그":1368,"##에":1369,"##서":1370,"##け":1371,"##せ":1372,"##я":1373,"##名":1374,"##知":1375,"##多":1376,"##ֹ":1377,"##ְ":1378,"##े":1379,"##ो":1380,"##中":1381,"##全":1382,"##プ":1383,"##ャ":1384,"##数":1385,"##à":1386,"##്":1387,"##网":1388,"##天":1389,"##市":1390,"##相":1391,"##新":1392,"##有":1393,"##在":1394,"##場":1395,"##上":1396,"##î":1397,"##こ":1398,"##実":1399,"##行":1400,"##由":1401,"##セ":1402,"##⅓":1403,"##ł":1404,"##ž":1405,"##ū":1406,"##ء":1407,"##म":1408,"##や":1409,"##ア":1410,"##合":1411,"##ジ":1412,"##ル":1413,"##ズ":1414,"##力":1415,"##木":1416,"##±":1417,"##ハ":1418,"##국":1419,"##시":1420,"##대":1421,"##ح":1422,"##ش":1423,"##ت":1424,"##解":1425,"##ി":1426,"##ന":1427,"##ാ":1428,"##‌":1429,"##子":1430,"##을":1431,"##ן":1432,"##ג":1433,"##ט":1434,"##ˈ":1435,"##ʲ":1436,"##ə":1437,"##ɪ":1438,"##κ":1439,"##ζ":1440,"##ό":1441,"##⋅":1442,"##φ":1443,"##ć":1444,"##ț":1445,"##로":1446,"##小":1447,"##え":1448,"##つ":1449,"##ビ":1450,"##ド":1451,"##通":1452,"##ど":1453,"##ŋ":1454,"##ɡ":1455,"##ń":1456,"##会":1457,"##字":1458,"##د":1459,"##ɔ":1460,"##र":1461,"##व":1462,"##य":1463,"##ð":1464,"##成":1465,"##ط":1466,"##ÿ":1467,"##信":1468,"##说":1469,"##♪":1470,"##≤":1471,"##보":1472,"##이":1473,"##기":1474,"##도":1475,"##고":1476,"##⁄":1477,"##️":1478,"##ḍ":1479,"##为":1480,"##好":1481,"##到":1482,"##마":1483,"##스":1484,"##ى":1485,"##ţ":1486,"##า":1487,"##ค":1488,"##อ":1489,"##ต":1490,"##ส":1491,"##ห":1492,"##ก":1493,"##ร":1494,"##ม":1495,"##代":1496,"##적":1497,"##으":1498,"##사":1499,"##모":1500,"##û":1501,"##ず":1502,"##ع":1503,"##은":1504,"##게":1505,"##当":1506,"##ほ":1507,"##加":1508,"##ろ":1509,"##バ":1510,"##น":1511,"##国":1512,"##集":1513,"##パ":1514,"##持":1515,"##山":1516,"##أ":1517,"##∵":1518,"##部":1519,"##ض":1520,"##ב":1521,"##変":1522,"##❤":1523,"##式":1524,"##社":1525,"##ネ":1526,"##ô":1527,"##ɾ":1528,"##õ":1529,"##ї":1530,"##ò":1531,"##þ":1532,"##ّ":1533,"##ё":1534,"##¦":1535,"##家":1536,"##해":1537,"##지":1538,"##立":1539,"##安":1540,"##金":1541,"##真":1542,"##み":1543,"##ὶ":1544,"##ソ":1545,"##び":1546,"##್":1547,"##−":1548,"##ダ":1549,"##خ":1550,"##부":1551,"##щ":1552,"##法":1553,"##는":1554,"##时":1555,"##ァ":1556,"##ニ":1557,"##":1558,"##¬":1559,"##ี":1560,"##ว":1561,"##เ":1562,"##ป":1563,"##ั":1564,"##ง":1565,"##─":1566,"##원":1567,"##˜":1568,"##ウ":1569,"##化":1570,"##▀":1571,"##█":1572,"##▄":1573,"##의":1574,"##ल":1575,"##प":1576,"##果":1577,"##下":1578,"##다":1579,"##가":1580,"##ピ":1581,"##オ":1582,"##ツ":1583,"##ę":1584,"##们":1585,"##神":1586,"##인":1587,"##드":1588,"##트":1589,"##자":1590,"##ṭ":1591,"##ナ":1592,"##ù":1593,"##ż":1594,"##ë":1595,"##太":1596,"##作":1597,"##品":1598,"##公":1599,"##原":1600,"##²":1601,"##ּ":1602,"##͜":1603,"##đ":1604,"##三":1605,"##士":1606,"##正":1607,"##之":1608,"##▓":1609,"##▒":1610,"##意":1611,"##ф":1612,"##ɑ":1613,"##θ":1614,"##여":1615,"##他":1616,"##ξ":1617,"##么":1618,"##和":1619,"##王":1620,"##리":1621,"##ե":1622,"##☆":1623,"##ك":1624,"##界":1625,"##無":1626,"##十":1627,"##‍":1628,"##정":1629,"##魔":1630,"##～":1631,"##美":1632,"##ു":1633,"##ത":1634,"##ů":1635,"##ょ":1636,"##פ":1637,"##̯":1638,"##﻿":1639,"##่":1640,"##ท":1641,"##∼":1642,"##ם":1643,"##ـ":1644,"##나":1645,"##べ":1646,"##げ":1647,"##¸":1648,"##¯":1649,"##":1650,"##ʼ":1651,"##体":1652,"##►":1653,"##⁠":1654,"##ा":1655,"##न":1656,"##하":1657,"##面":1658,"##ח":1659,"##כ":1660,"##戦":1661,"##メ":1662,"##¹":1663,"##니":1664,"##ी":1665,"##ं":1666,"##你":1667,"##ц":1668,"##じ":1669,"##ガ":1670,"##‬":1671,"##ね":1672,"##▐":1673,"##░":1674,"##":1675,"##♦":1676,"##½":1677,"##心":1678,"##方":1679,"##所":1680,"##ý":1681,"##ह":1682,"##ث":1683,"##物":1684,"##비":1685,"##미":1686,"##บ":1687,"##ิ":1688,"##้":1689,"##오":1690,"##स":1691,"##ṛ":1692,"##民":1693,"##主":1694,"##動":1695,"##̈":1696,"##ƒ":1697,"##对":1698,"##利":1699,"##‭":1700,"##話":1701,"##э":1702,"##そ":1703,"##分":1704,"##関":1705,"##而":1706,"##ย":1707,"##向":1708,"##対":1709,"##신":1710,"##성":1711,"##田":1712,"##気":1713,"##ř":1714,"##ล":1715,"##ṣ":1716,"##感":1717,"##度":1718,"##ʰ":1719,"##★":1720,"##保":1721,"##전":1722,"##̀":1723,"##̃":1724,"##͡":1725,"##へ":1726,"##性":1727,"##着":1728,"##ė":1729,"##制":1730,"##":1731,"##ज":1732,"##♭":1733,"##ǒ":1734,"##요":1735,"##선":1736,"##주":1737,"##면":1738,"##ザ":1739,"##北":1740,"##द":1741,"##ै":1742,"##भ":1743,"##ु":1744,"##ด":1745,"##ะ":1746,"##世":1747,"##要":1748,"##重":1749,"##ǔ":1750,"##데":1751,"##ψ":1752,"##南":1753,"##ź":1754,"##ệ":1755,"##ʿ":1756,"##■":1757,"##க":1758,"##்":1759,"##✓":1760,"##³":1761,"##高":1762,"##女":1763,"##发":1764,"##ֶ":1765,"##غ":1766,"##√":1767,"##진":1768,"##内":1769,"##ր":1770,"##일":1771,"##語":1772,"##書":1773,"##آ":1774,"##第":1775,"##ظ":1776,"##ո":1777,"##ւ":1778,"##̄":1779,"##ή":1780,"##工":1781,"##○":1782,"##¢":1783,"##ワ":1784,"##상":1785,"##ș":1786,"##等":1787,"##⇓":1788,"##那":1789,"##━":1790,"##ヽ":1791,"##情":1792,"##∗":1793,"##記":1794,"##º":1795,"##≈":1796,"##政":1797,"##西":1798,"##만":1799,"##京":1800,"##ً":1801,"##∈":1802,"##ṃ":1803,"##제":1804,"##한":1805,"##▌":1806,"##特":1807,"##ʻ":1808,"##如":1809,"##回":1810,"##동":1811,"##র":1812,"##া":1813,"##東":1814,"##平":1815,"##ㅋ":1816,"##ノ":1817,"##":1818,"##其":1819,"##∀":1820,"##ﾟ":1821,"##≡":1822,"##═":1823,"##ז":1824,"##先":1825,"##≠":1826,"##ک":1827,"##했":1828,"##□":1829,"##¤":1830,"##수":1831,"##ǐ":1832,"##┼":1833,"##ி":1834,"##÷":1835,"##아":1836,"##¼":1837,"##音":1838,"##µ":1839,"##ब":1840,"##↓":1841,"##ക":1842,"##∴":1843,"##ذ":1844,"##ĝ":1845,"##▼":1846,"##ﬁ":1847,"##├":1848,"##∂":1849,"##≥":1850,"##إ":1851,"##소":1852,"##צ":1853,"##♫":1854,"##ŭ":1855,"##무":1856,"##⇒":1857,"##↑":1858,"##ㅠ":1859,"##¾":1860,"##🇸":1861,"##∙":1862,"##공":1863,"##ʔ":1864,"##ʖ":1865,"##¥":1866,"##∞":1867,"##˙":1868,"##▬":1869,"##✔":1870,"##│":1871,"##경":1872,"##있":1873,"##今":1874,"##":1875,"##것":1876,"##🇺":1877,"##˚":1878,"##♥":1879,"##●":1880,"##습":1881,"##∧":1882,"##↩":1883,"##ﬂ":1884,"##￼":1885,"##⌘":1886,"##▶":1887,"##▲":1888,"##∫":1889,"##∘":1890,"##╺":1891,"##😀":1892,"##￣":1893,"##║":1894,"##‪":1895,"##₹":1896,"##└":1897,"##∑":1898,"##😂":1899,"##ἀ":1900,"##우":1901,"##◆":1902,"##▪":1903,"##◊":1904,"##😉":1905,"##ἐ":1906,"##ϕ":1907,"##๎":1908,"##ⓒ":1909,"##ⓘ":1910,"##➤":1911,"##🙂":1912,"##〓":1913,"##⁡":1914,"th":1915,"##er":1916,"the":1917,"##in":1918,"##on":1919,"##at":1920,"##en":1921,"##es":1922,"##or":1923,"##ed":1924,"##nd":1925,"##ing":1926,"##ar":1927,"##an":1928,"##ou":1929,"to":1930,"in":1931,"##it":1932,"##al":1933,"of":1934,"##is":1935,"and":1936,"##as":1937,"##ic":1938,"##re":1939,"##om":1940,"##ion":1941,"##le":1942,"##ent":1943,"##il":1944,"##el":1945,"re":1946,"##st":1947,"be":1948,"##ot":1949,"wh":1950,"##id":1951,"on":1952,"##ac":1953,"##ut":1954,"that":1955,"##et":1956,"is":1957,"##ly":1958,"##ow":1959,"st":1960,"for":1961,"##ve":1962,"##ay":1963,"it":1964,"##am":1965,"##ur":1966,"##ol":1967,"##ad":1968,"pr":1969,"##ig":1970,"##ec":1971,"##ers":1972,"##im":1973,"##ir":1974,"as":1975,"##ith":1976,"##se":1977,"an":1978,"al":1979,"##ation":1980,"##ver":1981,"with":1982,"##ter":1983,"##ch":1984,"you":1985,"##th":1986,"##ce":1987,"he":1988,"con":1989,"##ere":1990,"##op":1991,"##ill":1992,"was":1993,"sh":1994,"##ld":1995,"ha":1996,"##ul":1997,"fr":1998,"com":1999,"at":2000,"##est":2001,"ch":2002,"##em":2003,"we":2004,"##ess":2005,"ne":2006,"##ct":2007,"##od":2008,"##ag":2009,"su":2010,"##os":2011,"##ak":2012,"tr":2013,"this":2014,"are":2015,"##igh":2016,"##ist":2017,"##ate":2018,"ex":2019,"##pp":2020,"##ain":2021,"or":2022,"##iv":2023,"##us":2024,"de":2025,"not":2026,"se":2027,"##oc":2028,"##um":2029,"by":2030,"##ore":2031,"##ab":2032,"have":2033,"##ity":2034,"##ould":2035,"##un":2036,"##if":2037,"from":2038,"but":2039,"##ts":2040,"##and":2041,"le":2042,"##ment":2043,"##ies":2044,"ab":2045,"##ive":2046,"sp":2047,"sa":2048,"go":2049,"pl":2050,"##art":2051,"##ust":2052,"they":2053,"##ort":2054,"##ant":2055,"un":2056,"##ear":2057,"##ap":2058,"##ack":2059,"wor":2060,"has":2061,"his":2062,"##all":2063,"##ally":2064,"##ight":2065,"pro":2066,"##out":2067,"20":2068,"##ect":2069,"can":2070,"ar":2071,"##ard":2072,"en":2073,"##gh":2074,"##ost":2075,"##ome":2076,"do":2077,"all":2078,"##our":2079,"##ok":2080,"##ast":2081,"will":2082,"##ik":2083,"##ud":2084,"##ell":2085,"##end":2086,"##ie":2087,"ad":2088,"cl":2089,"##ich":2090,"##ib":2091,"said":2092,"us":2093,"who":2094,"##ial":2095,"up":2096,"out":2097,"so":2098,"##ge":2099,"##ough":2100,"br":2101,"##ip":2102,"their":2103,"more":2104,"one":2105,"##tr":2106,"##ans":2107,"me":2108,"##ame":2109,"gr":2110,"new":2111,"im":2112,"##ound":2113,"##her":2114,"comp":2115,"res":2116,"##ous":2117,"##ice":2118,"##ions":2119,"##ue":2120,"ac":2121,"there":2122,"am":2123,"##one":2124,"##ia":2125,"##oun":2126,"##ff":2127,"about":2128,"##ure":2129,"man":2130,"##ong":2131,"##act":2132,"if":2133,"##ine":2134,"ag":2135,"##age":2136,"year":2137,"##og":2138,"##ated":2139,"tim":2140,"off":2141,"cr":2142,"which":2143,"exp":2144,"ev":2145,"had":2146,"int":2147,"rep":2148,"##iz":2149,"were":2150,"lik":2151,"would":2152,"no":2153,"##ence":2154,"##ake":2155,"##ide":2156,"pe":2157,"when":2158,"##pt":2159,"what":2160,"##ub":2161,"##ind":2162,"##ther":2163,"##ely":2164,"per":2165,"inc":2166,"been":2167,"sc":2168,"some":2169,"dr":2170,"##ook":2171,"##au":2172,"##qu":2173,"##ary":2174,"##ber":2175,"##ach":2176,"af":2177,"##own":2178,"app":2179,"dis":2180,"##av":2181,"201":2182,"##ign":2183,"tw":2184,"##so":2185,"##ace":2186,"##ays":2187,"fe":2188,"##able":2189,"bec":2190,"just":2191,"##ose":2192,"than":2193,"how":2194,"like":2195,"its":2196,"##ail":2197,"my":2198,"##ass":2199,"##00":2200,"##ile":2201,"##ish":2202,"also":2203,"part":2204,"over":2205,"##ian":2206,"pol":2207,"##ire":2208,"qu":2209,"peop":2210,"your":2211,"te":2212,"her":2213,"people":2214,"work":2215,"bl":2216,"##ite":2217,"##ord":2218,"##ations":2219,"##ical":2220,"time":2221,"inter":2222,"str":2223,"mar":2224,"fir":2225,"them":2226,"get":2227,"kn":2228,"any":2229,"##ens":2230,"rec":2231,"other":2232,"comm":2233,"##ick":2234,"she":2235,"##ond":2236,"act":2237,"after":2238,"##orm":2239,"##ase":2240,"##ents":2241,"##lic":2242,"##are":2243,"co":2244,"##ance":2245,"our":2246,"acc":2247,"##aw":2248,"##uc":2249,"imp":2250,"pre":2251,"play":2252,"##reat":2253,"ind":2254,"##gr":2255,"19":2256,"##ree":2257,"##ink":2258,"into":2259,"ever":2260,"##ob":2261,"##ult":2262,"##oll":2263,"first":2264,"##ov":2265,"ser":2266,"##ings":2267,"##ory":2268,"##oin":2269,"##ep":2270,"dec":2271,"em":2272,"##amp":2273,"##ition":2274,"##ors":2275,"ph":2276,"##oss":2277,"##ang":2278,"##fer":2279,"cont":2280,"##ause":2281,"##ade":2282,"##uct":2283,"##ates":2284,"##itt":2285,"two":2286,"coun":2287,"only":2288,"could":2289,"##ks":2290,"now":2291,"sec":2292,"und":2293,"##vel":2294,"him":2295,"most":2296,"##ious":2297,"back":2298,"des":2299,"##ild":2300,"pres":2301,"##lect":2302,"may":2303,"##ove":2304,"cons":2305,"fl":2306,"##ied":2307,"don":2308,"op":2309,"bet":2310,"##hing":2311,"sy":2312,"##oy":2313,"even":2314,"these":2315,"##ery":2316,"att":2317,"thr":2318,"##form":2319,"##enc":2320,"##ict":2321,"because":2322,"under":2323,"##ning":2324,"##ock":2325,"did":2326,"see":2327,"again":2328,"##ft":2329,"add":2330,"every":2331,"wr":2332,"ob":2333,"inv":2334,"col":2335,"##day":2336,"bu":2337,"##ons":2338,"par":2339,"##ry":2340,"##ater":2341,"car":2342,"##ey":2343,"##ert":2344,"need":2345,"ass":2346,"years":2347,"##ual":2348,"rel":2349,"then":2350,"know":2351,"high":2352,"mu":2353,"supp":2354,"min":2355,"def":2356,"mon":2357,"##lud":2358,"##wn":2359,"##ood":2360,"##ublic":2361,"where":2362,"##old":2363,"many":2364,"make":2365,"##iss":2366,"contr":2367,"ro":2368,"hel":2369,"look":2370,"##ident":2371,"ed":2372,"call":2373,"reg":2374,"##urn":2375,"rem":2376,"##man":2377,"##les":2378,"##we":2379,"world":2380,"sm":2381,"while":2382,"last":2383,"##oth":2384,"##ath":2385,"well":2386,"way":2387,"gen":2388,"think":2389,"gu":2390,"##elf":2391,"##anc":2392,"fin":2393,"##pl":2394,"##ra":2395,"##fore":2396,"down":2397,"want":2398,"ve":2399,"bel":2400,"those":2401,"being":2402,"##ational":2403,"##ting":2404,"##vern":2405,"inst":2406,"##ful":2407,"##ump":2408,"includ":2409,"show":2410,"##oup":2411,"##eric":2412,"dif":2413,"sch":2414,"through":2415,"##other":2416,"end":2417,"ear":2418,"##ating":2419,"id":2420,"govern":2421,"war":2422,"very":2423,"should":2424,"form":2425,"##iew":2426,"state":2427,"##ton":2428,"##ason":2429,"##ug":2430,"10":2431,"say":2432,"##hn":2433,"long":2434,"##ise":2435,"##aking":2436,"##ased":2437,"much":2438,"americ":2439,"##ower":2440,"##ited":2441,"char":2442,"before":2443,"200":2444,"use":2445,"does":2446,"##xt":2447,"##atch":2448,"med":2449,"team":2450,"##uring":2451,"##ities":2452,"own":2453,"##sp":2454,"##ty":2455,"dem":2456,"##cc":2457,"good":2458,"##ific":2459,"##ro":2460,"sub":2461,"##ible":2462,"stud":2463,"ter":2464,"cent":2465,"game":2466,"##urr":2467,"sim":2468,"here":2469,"##ics":2470,"##ward":2471,"such":2472,"set":2473,"##als":2474,"wee":2475,"poin":2476,"##omet":2477,"right":2478,"made":2479,"government":2480,"pers":2481,"##get":2482,"##ues":2483,"##ix":2484,"prov":2485,"start":2486,"cour":2487,"##ince":2488,"law":2489,"ma":2490,"eff":2491,"dep":2492,"##olog":2493,"still":2494,"##ier":2495,"##ble":2496,"prod":2497,"##ily":2498,"going":2499,"##ject":2500,"##ife":2501,"##ange":2502,"lead":2503,"trans":2504,"cap":2505,"day":2506,"though":2507,"bo":2508,"mod":2509,"##ular":2510,"against":2511,"##ress":2512,"##ility":2513,"##ull":2514,"sl":2515,"##ement":2516,"##ism":2517,"##ually":2518,"##eral":2519,"##ists":2520,"##ative":2521,"found":2522,"read":2523,"disc":2524,"sign":2525,"##orn":2526,"take":2527,"help":2528,"report":2529,"offic":2530,"##its":2531,"##az":2532,"mem":2533,"resp":2534,"run":2535,"##let":2536,"somet":2537,"sur":2538,"##gan":2539,"##stem":2540,"serv":2541,"el":2542,"##alk":2543,"##uss":2544,"##ently":2545,"spec":2546,"ke":2547,"##io":2548,"real":2549,"differ":2550,"president":2551,"##illion":2552,"aut":2553,"##air":2554,"says":2555,"num":2556,"##ween":2557,"##ivers":2558,"##und":2559,"between":2560,"great":2561,"three":2562,"group":2563,"support":2564,"same":2565,"##ope":2566,"system":2567,"##ments":2568,"public":2569,"##ool":2570,"##ives":2571,"both":2572,"##ures":2573,"hand":2574,"det":2575,"##ms":2576,"during":2577,"##yp":2578,"##irect":2579,"since":2580,"##ah":2581,"big":2582,"##ollow":2583,"countr":2584,"##ution":2585,"compan":2586,"##ank":2587,"wom":2588,"soc":2589,"around":2590,"follow":2591,"##ames":2592,"##ph":2593,"trump":2594,"##way":2595,"fam":2596,"prot":2597,"##der":2598,"##ys":2599,"post":2600,"leg":2601,"##ork":2602,"mark":2603,"ret":2604,"##read":2605,"##land":2606,"##ather":2607,"let":2608,"000":2609,"direct":2610,"met":2611,"really":2612,"sen":2613,"##hip":2614,"bus":2615,"gl":2616,"##velop":2617,"conf":2618,"used":2619,"prop":2620,"##ern":2621,"cle":2622,"##led":2623,"art":2624,"elect":2625,"plan":2626,"##up":2627,"##con":2628,"red":2629,"##pr":2630,"lar":2631,"##ash":2632,"##ouse":2633,"develop":2634,"old":2635,"ins":2636,"##ever":2637,"another":2638,"week":2639,"find":2640,"cre":2641,"far":2642,"polit":2643,"##cr":2644,"happ":2645,"person":2646,"##iel":2647,"progr":2648,"rev":2649,"av":2650,"##ene":2651,"##per":2652,"month":2653,"power":2654,"##ying":2655,"##cent":2656,"fil":2657,"##ient":2658,"##ale":2659,"put":2660,"spe":2661,"commun":2662,"##istr":2663,"city":2664,"cor":2665,"iss":2666,"life":2667,"##ience":2668,"adv":2669,"##orts":2670,"##ax":2671,"contin":2672,"loc":2673,"##alth":2674,"inf":2675,"##ote":2676,"##att":2677,"open":2678,"##cept":2679,"##ave":2680,"camp":2681,"win":2682,"##ices":2683,"stat":2684,"fact":2685,"nor":2686,"bar":2687,"head":2688,"##ines":2689,"second":2690,"12":2691,"##ount":2692,"few":2693,"##ision":2694,"lot":2695,"exper":2696,"##akes":2697,"invest":2698,"##iet":2699,"##oot":2700,"each":2701,"told":2702,"opp":2703,"too":2704,"sk":2705,"news":2706,"best":2707,"##ages":2708,"eng":2709,"hum":2710,"##ger":2711,"##son":2712,"requ":2713,"pass":2714,"##ically":2715,"val":2716,"belie":2717,"child":2718,"bre":2719,"##gest":2720,"next":2721,"##ider":2722,"something":2723,"intern":2724,"never":2725,"##ording":2726,"conc":2727,"police":2728,"point":2729,"dat":2730,"##ants":2731,"##lish":2732,"##ime":2733,"expl":2734,"mil":2735,"rele":2736,"ann":2737,"ll":2738,"##ize":2739,"##ving":2740,"ask":2741,"why":2742,"##bers":2743,"things":2744,"##ri":2745,"top":2746,"home":2747,"tec":2748,"##ially":2749,"##ved":2750,"11":2751,"##ead":2752,"##ont":2753,"##ized":2754,"##ention":2755,"quest":2756,"jo":2757,"##erg":2758,"##str":2759,"##br":2760,"##ets":2761,"poss":2762,"15":2763,"##ves":2764,"##ner":2765,"proc":2766,"##ency":2767,"four":2768,"##iving":2769,"##ior":2770,"##min":2771,"##ee":2772,"got":2773,"hard":2774,"school":2775,"come":2776,"however":2777,"sw":2778,"curr":2779,"stand":2780,"might":2781,"##ody":2782,"national":2783,"according":2784,"states":2785,"##thing":2786,"house":2787,"mus":2788,"##ects":2789,"different":2790,"without":2791,"##tern":2792,"care":2793,"build":2794,"air":2795,"inform":2796,"##res":2797,"##ling":2798,"##iness":2799,"allow":2800,"pat":2801,"season":2802,"feel":2803,"prof":2804,"turn":2805,"18":2806,"pop":2807,"incre":2808,"including":2809,"seem":2810,"##ten":2811,"##med":2812,"star":2813,"percent":2814,"##oad":2815,"test":2816,"##ital":2817,"called":2818,"##ret":2819,"##uck":2820,"##ights":2821,"##ittle":2822,"##ew":2823,"free":2824,"chr":2825,"mov":2826,"main":2827,"univers":2828,"prev":2829,"del":2830,"number":2831,"left":2832,"ide":2833,"little":2834,"million":2835,"place":2836,"har":2837,"##ric":2838,"##ected":2839,"beh":2840,"level":2841,"product":2842,"ref":2843,"##ness":2844,"class":2845,"##iver":2846,"##ield":2847,"import":2848,"interest":2849,"fun":2850,"keep":2851,"health":2852,"proble":2853,"less":2854,"pay":2855,"##ember":2856,"econ":2857,"sol":2858,"##osed":2859,"case":2860,"sou":2861,"country":2862,"better":2863,"econom":2864,"partic":2865,"eas":2866,"rest":2867,"arr":2868,"##over":2869,"gre":2870,"##ately":2871,"hist":2872,"la":2873,"data":2874,"program":2875,"##ged":2876,"times":2877,"using":2878,"face":2879,"list":2880,"##ced":2881,"##ins":2882,"american":2883,"move":2884,"##red":2885,"attack":2886,"##ark":2887,"##ama":2888,"ext":2889,"book":2890,"##iting":2891,"women":2892,"##oney":2893,"near":2894,"##aim":2895,"##ably":2896,"auth":2897,"##ways":2898,"maj":2899,"techn":2900,"##ute":2901,"pos":2902,"net":2903,"typ":2904,"##ained":2905,"phot":2906,"based":2907,"##ces":2908,"miss":2909,"##ral":2910,"story":2911,"company":2912,"##ned":2913,"##ised":2914,"##line":2915,"cond":2916,"didn":2917,"small":2918,"##ains":2919,"##earch":2920,"##eng":2921,"##til":2922,"business":2923,"research":2924,"##ocr":2925,"cal":2926,"##ott":2927,"organ":2928,"##iven":2929,"bit":2930,"conv":2931,"oper":2932,"est":2933,"change":2934,"##self":2935,"vis":2936,"##ode":2937,"##ina":2938,"men":2939,"##ren":2940,"##ional":2941,"##ived":2942,"clear":2943,"bas":2944,"appear":2945,"major":2946,"30":2947,"prom":2948,"sever":2949,"design":2950,"stre":2951,"later":2952,"ir":2953,"##ends":2954,"process":2955,"view":2956,"party":2957,"exc":2958,"##atur":2959,"today":2960,"##ature":2961,"order":2962,"information":2963,"var":2964,"aff":2965,"white":2966,"pur":2967,"ra":2968,"official":2969,"united":2970,"chang":2971,"fri":2972,"talk":2973,"mean":2974,"rece":2975,"money":2976,"job":2977,"##ology":2978,"lib":2979,"##atter":2980,"vide":2981,"press":2982,"black":2983,"kill":2984,"ste":2985,"cost":2986,"simp":2987,"fac":2988,"mid":2989,"edit":2990,"human":2991,"##ided":2992,"##ready":2993,"##ats":2994,"ent":2995,"already":2996,"##less":2997,"##ploy":2998,"always":2999,"##aph":3000,"dev":3001,"##els":3002,"consider":3003,"##ird":3004,"must":3005,"mr":3006,"##ians":3007,"past":3008,"##ense":3009,"court":3010,"mor":3011,"line":3012,"##par":3013,"##bs":3014,"once":3015,"making":3016,"family":3017,"record":3018,"polic":3019,"sing":3020,"##aining":3021,"16":3022,"grow":3023,"eur":3024,"thing":3025,"##inal":3026,"##ister":3027,"13":3028,"##wh":3029,"claim":3030,"social":3031,"democr":3032,"##ted":3033,"##atic":3034,"media":3035,"fund":3036,"##used":3037,"john":3038,"##app":3039,"tax":3040,"##aff":3041,"ant":3042,"terr":3043,"##ike":3044,"tell":3045,"full":3046,"vi":3047,"##ether":3048,"14":3049,"able":3050,"russ":3051,"##aign":3052,"important":3053,"away":3054,"games":3055,"kind":3056,"##ator":3057,"cert":3058,"##unch":3059,"ap":3060,"deb":3061,"campaign":3062,"fed":3063,"until":3064,"##erv":3065,"hal":3066,"bill":3067,"days":3068,"doesn":3069,"##ired":3070,"gener":3071,"examp":3072,"##mm":3073,"pa":3074,"yet":3075,"happen":3076,"republic":3077,"former":3078,"political":3079,"secur":3080,"il":3081,"##ection":3082,"##ards":3083,"watch":3084,"word":3085,"##ending":3086,"##ourn":3087,"##stand":3088,"199":3089,"##acy":3090,"opt":3091,"least":3092,"market":3093,"##ively":3094,"working":3095,"sit":3096,"##augh":3097,"##ury":3098,"enough":3099,"##ven":3100,"youn":3101,"name":3102,"##itch":3103,"##ief":3104,"author":3105,"deal":3106,"came":3107,"##ases":3108,"##gin":3109,"25":3110,"##ides":3111,"es":3112,"lab":3113,"sex":3114,"fre":3115,"water":3116,"manag":3117,"##ows":3118,"sour":3119,"17":3120,"control":3121,"##ley":3122,"five":3123,"actually":3124,"pot":3125,"land":3126,"night":3127,"whether":3128,"perform":3129,"north":3130,"having":3131,"vot":3132,"po":3133,"complet":3134,"##ences":3135,"event":3136,"return":3137,"give":3138,"arg":3139,"often":3140,"lear":3141,"equ":3142,"several":3143,"hour":3144,"##ued":3145,"fut":3146,"stop":3147,"##ising":3148,"##ered":3149,"sal":3150,"##ified":3151,"project":3152,"fight":3153,"##eck":3154,"early":3155,"took":3156,"##ipp":3157,"crit":3158,"ca":3159,"##rem":3160,"become":3161,"##te":3162,"among":3163,"##aps":3164,"sure":3165,"university":3166,"vers":3167,"children":3168,"##ering":3169,"won":3170,"##ush":3171,"sug":3172,"sn":3173,"##crib":3174,"##enn":3175,"##ony":3176,"occ":3177,"players":3178,"security":3179,"side":3180,"milit":3181,"orig":3182,"non":3183,"##tt":3184,"super":3185,"##ann":3186,"effect":3187,"short":3188,"meet":3189,"priv":3190,"key":3191,"video":3192,"doing":3193,"##ox":3194,"##ison":3195,"local":3196,"succ":3197,"members":3198,"prob":3199,"##ization":3200,"along":3201,"##ared":3202,"known":3203,"community":3204,"clin":3205,"##lin":3206,"##ality":3207,"certain":3208,"hold":3209,"given":3210,"general":3211,"step":3212,"lim":3213,"within":3214,"south":3215,"question":3216,"##thers":3217,"investig":3218,"depart":3219,"future":3220,"##ech":3221,"activ":3222,"##icle":3223,"##ium":3224,"seen":3225,"cover":3226,"##ots":3227,"##iam":3228,"example":3229,"##ane":3230,"went":3231,"##aken":3232,"europe":3233,"##gress":3234,"success":3235,"##ither":3236,"er":3237,"viol":3238,"##side":3239,"##sel":3240,"cho":3241,"york":3242,"ge":3243,"creat":3244,"done":3245,"likely":3246,"fur":3247,"##ought":3248,"##idence":3249,"cut":3250,"##work":3251,"obama":3252,"distr":3253,"mag":3254,"2016":3255,"##ories":3256,"##iously":3257,"impr":3258,"arm":3259,"history":3260,"100":3261,"death":3262,"##uary":3263,"##lex":3264,"vict":3265,"others":3266,"acr":3267,"invol":3268,"##ware":3269,"following":3270,"avail":3271,"alm":3272,"tar":3273,"conn":3274,"series":3275,"foot":3276,"fail":3277,"##urs":3278,"##ones":3279,"##ential":3280,"love":3281,"understand":3282,"##itter":3283,"##que":3284,"##inc":3285,"##sh":3286,"##ended":3287,"christ":3288,"course":3289,"strong":3290,"##ecut":3291,"##be":3292,"asked":3293,"result":3294,"saf":3295,"months":3296,"pub":3297,"indust":3298,"##une":3299,"wind":3300,"problem":3301,"young":3302,"fire":3303,"esp":3304,"##leg":3305,"reason":3306,"getting":3307,"possible":3308,"thought":3309,"large":3310,"means":3311,"ident":3312,"##ilar":3313,"across":3314,"tot":3315,"bad":3316,"##ured":3317,"mass":3318,"low":3319,"office":3320,"##imate":3321,"##by":3322,"##ulation":3323,"join":3324,"light":3325,"##ball":3326,"fig":3327,"service":3328,"sent":3329,"##ument":3330,"access":3331,"anal":3332,"looking":3333,"mom":3334,"2015":3335,"ple":3336,"makes":3337,"suggest":3338,"##ensive":3339,"addition":3340,"##lement":3341,"##ivid":3342,"##ps":3343,"50":3344,"trad":3345,"live":3346,"repres":3347,"special":3348,"employ":3349,"reported":3350,"half":3351,"believe":3352,"instead":3353,"six":3354,"almost":3355,"##ague":3356,"##oke":3357,"##book":3358,"##oci":3359,"enter":3360,"announ":3361,"##ars":3362,"##co":3363,"food":3364,"fall":3365,"foc":3366,"interv":3367,"jud":3368,"federal":3369,"##osp":3370,"##ogr":3371,"mo":3372,"available":3373,"##por":3374,"mind":3375,"##arch":3376,"##vert":3377,"##aring":3378,"area":3379,"associ":3380,"##ald":3381,"space":3382,"##int":3383,"##ators":3384,"mult":3385,"##ortun":3386,"dou":3387,"particular":3388,"##iety":3389,"2014":3390,"##ances":3391,"rad":3392,"policy":3393,"toget":3394,"issue":3395,"ep":3396,"together":3397,"similar":3398,"cust":3399,"port":3400,"added":3401,"##uce":3402,"ris":3403,"rights":3404,"cop":3405,"##itions":3406,"const":3407,"pick":3408,"rather":3409,"mess":3410,"recent":3411,"##ults":3412,"##com":3413,"america":3414,"started":3415,"ce":3416,"dam":3417,"##ateg":3418,"further":3419,"tem":3420,"international":3421,"ger":3422,"pract":3423,"##itive":3424,"dist":3425,"21":3426,"##ored":3427,"third":3428,"##uction":3429,"rul":3430,"##oved":3431,"isn":3432,"trying":3433,"##oph":3434,"reach":3435,"cult":3436,"##uly":3437,"player":3438,"san":3439,"admin":3440,"experience":3441,"canad":3442,"24":3443,"fav":3444,"ago":3445,"comes":3446,"env":3447,"image":3448,"idea":3449,"try":3450,"appro":3451,"twitter":3452,"##ands":3453,"##ergy":3454,"film":3455,"military":3456,"anything":3457,"department":3458,"##aster":3459,"imm":3460,"##selves":3461,"vir":3462,"comb":3463,"individ":3464,"nothing":3465,"##ler":3466,"ban":3467,"dom":3468,"##ape":3469,"##acter":3470,"committ":3471,"##ability":3472,"enc":3473,"##ru":3474,"##ails":3475,"wa":3476,"compet":3477,"refer":3478,"bene":3479,"quick":3480,"current":3481,"capt":3482,"glob":3483,"field":3484,"##iter":3485,"##ission":3486,"present":3487,"##utes":3488,"journ":3489,"##ls":3490,"aust":3491,"collect":3492,"##erc":3493,"upd":3494,"##lished":3495,"sound":3496,"##imes":3497,"behind":3498,"doc":3499,"mot":3500,"study":3501,"center":3502,"##ination":3503,"threat":3504,"single":3505,"tur":3506,"profess":3507,"action":3508,"##wards":3509,"ey":3510,"front":3511,"summ":3512,"den":3513,"west":3514,"someone":3515,"discuss":3516,"saying":3517,"park":3518,"##ipt":3519,"taken":3520,"##uced":3521,"##rael":3522,"individual":3523,"scre":3524,"intr":3525,"##sw":3526,"htt":3527,"##ids":3528,"body":3529,"gun":3530,"cann":3531,"##ction":3532,"taking":3533,"final":3534,"israel":3535,"##yn":3536,"uk":3537,"dav":3538,"energy":3539,"22":3540,"development":3541,"everything":3542,"##igr":3543,"link":3544,"washing":3545,"pet":3546,"entire":3547,"ur":3548,"##uff":3549,"concern":3550,"secret":3551,"hit":3552,"close":3553,"bring":3554,"cam":3555,"probably":3556,"hom":3557,"alth":3558,"init":3559,"##ming":3560,"target":3561,"custom":3562,"although":3563,"pret":3564,"check":3565,"##nes":3566,"ball":3567,"brit":3568,"colle":3569,"hope":3570,"##fic":3571,"either":3572,"coming":3573,"god":3574,"vol":3575,"tit":3576,"yes":3577,"self":3578,"##aper":3579,"chall":3580,"wanted":3581,"music":3582,"clinton":3583,"2013":3584,"##den":3585,"div":3586,"create":3587,"exist":3588,"washington":3589,"true":3590,"else":3591,"attem":3592,"points":3593,"desp":3594,"walk":3595,"march":3596,"represent":3597,"##ender":3598,"mich":3599,"room":3600,"specific":3601,"##amed":3602,"everyone":3603,"##irc":3604,"##uge":3605,"administr":3606,"league":3607,"198":3608,"##back":3609,"bank":3610,"share":3611,"cand":3612,"common":3613,"due":3614,"##ees":3615,"mc":3616,"##iron":3617,"earl":3618,"jan":3619,"force":3620,"relations":3621,"2012":3622,"begin":3623,"scr":3624,"describ":3625,"break":3626,"lo":3627,"signific":3628,"rob":3629,"continue":3630,"below":3631,"educ":3632,"##for":3633,"advert":3634,"gir":3635,"civ":3636,"treat":3637,"fore":3638,"##ify":3639,"led":3640,"2017":3641,"drug":3642,"##ined":3643,"review":3644,"street":3645,"bur":3646,"meas":3647,"environ":3648,"students":3649,"building":3650,"matter":3651,"infl":3652,"##ges":3653,"decision":3654,"##ule":3655,"deep":3656,"##ograph":3657,"pal":3658,"officials":3659,"40":3660,"circ":3661,"dest":3662,"whole":3663,"leaders":3664,"lat":3665,"companies":3666,"anim":3667,"##olution":3668,"match":3669,"##yc":3670,"position":3671,"cred":3672,"block":3673,"issues":3674,"pack":3675,"outside":3676,"##ring":3677,"source":3678,"##dle":3679,"23":3680,"agre":3681,"launch":3682,"financ":3683,"character":3684,"dead":3685,"wrote":3686,"road":3687,"above":3688,"running":3689,"##aces":3690,"election":3691,"director":3692,"abs":3693,"##ival":3694,"susp":3695,"##attle":3696,"cit":3697,"aver":3698,"##0s":3699,"congress":3700,"repl":3701,"seems":3702,"ground":3703,"neg":3704,"green":3705,"released":3706,"role":3707,"rich":3708,"address":3709,"services":3710,"tre":3711,"phys":3712,"tal":3713,"##port":3714,"ang":3715,"hours":3716,"et":3717,"china":3718,"##asing":3719,"trav":3720,"woman":3721,"version":3722,"##go":3723,"pi":3724,"release":3725,"simply":3726,"age":3727,"##ecess":3728,"##af":3729,"value":3730,"code":3731,"track":3732,"##sy":3733,"##ana":3734,"sil":3735,"aud":3736,"host":3737,"statement":3738,"espec":3739,"##lus":3740,"friends":3741,"obs":3742,"economic":3743,"mill":3744,"appr":3745,"especially":3746,"german":3747,"##uation":3748,"interview":3749,"##bo":3750,"despite":3751,"coll":3752,"type":3753,"##iday":3754,"##elt":3755,"##ibility":3756,"term":3757,"##oud":3758,"extr":3759,"article":3760,"oct":3761,"significant":3762,"began":3763,"lang":3764,"scient":3765,"provide":3766,"total":3767,"legal":3768,"lost":3769,"civil":3770,"##esh":3771,"club":3772,"himself":3773,"anti":3774,"respons":3775,"evidence":3776,"phil":3777,"answ":3778,"countries":3779,"##ench":3780,"consum":3781,"online":3782,"drop":3783,"##ength":3784,"benef":3785,"late":3786,"photo":3787,"itself":3788,"playing":3789,"pretty":3790,"earlier":3791,"inj":3792,"##ai":3793,"log":3794,"##ogn":3795,"facebook":3796,"industry":3797,"##oid":3798,"environment":3799,"##body":3800,"relig":3801,"became":3802,"hill":3803,"themselves":3804,"pain":3805,"wasn":3806,"##ites":3807,"saw":3808,"##yr":3809,"diffic":3810,"##ex":3811,"##iod":3812,"##orr":3813,"coup":3814,"groups":3815,"global":3816,"difficult":3817,"soon":3818,"clos":3819,"minister":3820,"quite":3821,"bud":3822,"needs":3823,"technology":3824,"wall":3825,"boy":3826,"needed":3827,"site":3828,"aw":3829,"##ural":3830,"round":3831,"mic":3832,"approach":3833,"recently":3834,"squ":3835,"##yle":3836,"goog":3837,"shows":3838,"##ift":3839,"##fl":3840,"dig":3841,"nation":3842,"##ault":3843,"aug":3844,"forward":3845,"sense":3846,"expect":3847,"##aft":3848,"billion":3849,"candid":3850,"include":3851,"##ental":3852,"##lim":3853,"express":3854,"##aged":3855,"meth":3856,"##ips":3857,"board":3858,"##action":3859,"played":3860,"vote":3861,"page":3862,"gold":3863,"##ouch":3864,"shoot":3865,"instit":3866,"suff":3867,"execut":3868,"wed":3869,"pred":3870,"##ilt":3871,"pan":3872,"##jects":3873,"network":3874,"foreign":3875,"broad":3876,"stay":3877,"sept":3878,"prim":3879,"account":3880,"##aced":3881,"google":3882,"sat":3883,"rock":3884,"mis":3885,"anyone":3886,"sun":3887,"##atures":3888,"comput":3889,"##ibut":3890,"webs":3891,"##uel":3892,"##ams":3893,"base":3894,"terror":3895,"deter":3896,"period":3897,"changes":3898,"##ugg":3899,"##ished":3900,"focus":3901,"##arr":3902,"##fully":3903,"coach":3904,"speak":3905,"##ask":3906,"ul":3907,"risk":3908,"applic":3909,"##mb":3910,"model":3911,"price":3912,"sold":3913,"staff":3914,"norm":3915,"conserv":3916,"opportun":3917,"##gn":3918,"journal":3919,"pict":3920,"mal":3921,"email":3922,"chief":3923,"syr":3924,"protest":3925,"bi":3926,"##ney":3927,"00":3928,"##iple":3929,"tele":3930,"26":3931,"hot":3932,"card":3933,"personal":3934,"weeks":3935,"middle":3936,"27":3937,"results":3938,"wrong":3939,"apr":3940,"related":3941,"langu":3942,"##oring":3943,"held":3944,"hop":3945,"##istic":3946,"higher":3947,"sell":3948,"comment":3949,"moment":3950,"hun":3951,"2011":3952,"##uk":3953,"republican":3954,"select":3955,"##lam":3956,"ah":3957,"content":3958,"private":3959,"hol":3960,"##umb":3961,"soft":3962,"197":3963,"king":3964,"capital":3965,"friend":3966,"longer":3967,"natur":3968,"##ij":3969,"##ference":3970,"rate":3971,"potential":3972,"june":3973,"words":3974,"buy":3975,"28":3976,"##ped":3977,"heav":3978,"laws":3979,"hon":3980,"che":3981,"popular":3982,"bal":3983,"arch":3984,"fair":3985,"accept":3986,"##urch":3987,"##use":3988,"engine":3989,"science":3990,"shot":3991,"search":3992,"created":3993,"fem":3994,"oil":3995,"los":3996,"##eal":3997,"inside":3998,"mer":3999,"##ades":4000,"##medi":4001,"minutes":4002,"original":4003,"july":4004,"favor":4005,"piec":4006,"nearly":4007,"living":4008,"easy":4009,"administration":4010,"##play":4011,"draw":4012,"mater":4013,"sand":4014,"##ron":4015,"famil":4016,"cur":4017,"surpr":4018,"ver":4019,"town":4020,"##iff":4021,"extrem":4022,"goal":4023,"attempt":4024,"defense":4025,"financial":4026,"##iding":4027,"strateg":4028,"austral":4029,"cell":4030,"protect":4031,"average":4032,"##uth":4033,"##ique":4034,"##ients":4035,"questions":4036,"champ":4037,"##epend":4038,"##onse":4039,"workers":4040,"internet":4041,"earth":4042,"works":4043,"rom":4044,"maybe":4045,"estab":4046,"leave":4047,"##hood":4048,"mond":4049,"trade":4050,"##cript":4051,"member":4052,"expected":4053,"##atives":4054,"problems":4055,"received":4056,"adm":4057,"east":4058,"necess":4059,"##na":4060,"reve":4061,"note":4062,"mur":4063,"college":4064,"users":4065,"##asons":4066,"##ops":4067,"independ":4068,"##vers":4069,"##arter":4070,"web":4071,"ways":4072,"church":4073,"worth":4074,"##ne":4075,"currently":4076,"##where":4077,"increase":4078,"tv":4079,"david":4080,"2010":4081,"phone":4082,"fans":4083,"response":4084,"##haps":4085,"weap":4086,"exact":4087,"published":4088,"##apan":4089,"##load":4090,"reports":4091,"##ption":4092,"april":4093,"americans":4094,"advertis":4095,"cannot":4096,"oppos":4097,"dre":4098,"county":4099,"perhaps":4100,"regard":4101,"friday":4102,"heart":4103,"constr":4104,"defin":4105,"##anger":4106,"je":4107,"##omm":4108,"fear":4109,"##cil":4110,"##of":4111,"method":4112,"announced":4113,"speed":4114,"russia":4115,"##bert":4116,"##itting":4117,"vo":4118,"japan":4119,"cross":4120,"involved":4121,"##ma":4122,"finally":4123,"request":4124,"##okes":4125,"paul":4126,"rac":4127,"relationship":4128,"introd":4129,"unf":4130,"##off":4131,"##ried":4132,"central":4133,"##ster":4134,"##isl":4135,"camer":4136,"sund":4137,"color":4138,"amount":4139,"society":4140,"via":4141,"son":4142,"immedi":4143,"mach":4144,"geor":4145,"sometimes":4146,"##ners":4147,"union":4148,"medical":4149,"cases":4150,"arrest":4151,"tues":4152,"subs":4153,"lower":4154,"race":4155,"monday":4156,"reb":4157,"29":4158,"tool":4159,"di":4160,"##ett":4161,"respond":4162,"islam":4163,"calif":4164,"##ude":4165,"killed":4166,"text":4167,"lives":4168,"performance":4169,"##itten":4170,"lack":4171,"##ging":4172,"material":4173,"propert":4174,"tuesday":4175,"tex":4176,"deliver":4177,"aren":4178,"##eter":4179,"box":4180,"oh":4181,"leader":4182,"mob":4183,"becom":4184,"ability":4185,"##ological":4186,"##thern":4187,"discover":4188,"##ellig":4189,"terms":4190,"please":4191,"takes":4192,"hear":4193,"particip":4194,"size":4195,"##ilities":4196,"perf":4197,"##eed":4198,"##uit":4199,"committee":4200,"corre":4201,"progress":4202,"##bc":4203,"justice":4204,"##ters":4205,"influ":4206,"simple":4207,"legisl":4208,"events":4209,"worked":4210,"visit":4211,"destr":4212,"remember":4213,"##joy":4214,"##erson":4215,"production":4216,"35":4217,"##izing":4218,"cast":4219,"ess":4220,"##tain":4221,"mother":4222,"september":4223,"impact":4224,"##mber":4225,"require":4226,"teams":4227,"unl":4228,"##ham":4229,"insp":4230,"##lear":4231,"citiz":4232,"amaz":4233,"##aut":4234,"january":4235,"thous":4236,"chance":4237,"micr":4238,"dark":4239,"attr":4240,"fast":4241,"recogn":4242,"confir":4243,"tradition":4244,"song":4245,"forces":4246,"imag":4247,"morning":4248,"pen":4249,"meeting":4250,"built":4251,"table":4252,"movement":4253,"http":4254,"goes":4255,"##omb":4256,"plans":4257,"push":4258,"images":4259,"whose":4260,"nove":4261,"##ises":4262,"education":4263,"council":4264,"website":4265,"indic":4266,"decided":4267,"object":4268,"gave":4269,"jew":4270,"offer":4271,"pull":4272,"##ael":4273,"turned":4274,"father":4275,"happened":4276,"##cer":4277,"november":4278,"fix":4279,"democratic":4280,"career":4281,"intellig":4282,"##ober":4283,"situation":4284,"improve":4285,"behav":4286,"enjoy":4287,"learn":4288,"##gs":4289,"shar":4290,"victim":4291,"compl":4292,"loss":4293,"##idents":4294,"ok":4295,"unc":4296,"agency":4297,"european":4298,"jack":4299,"##ened":4300,"august":4301,"afric":4302,"sens":4303,"thurs":4304,"196":4305,"##ening":4306,"plat":4307,"sett":4308,"economy":4309,"wednes":4310,"ill":4311,"respect":4312,"ach":4313,"numbers":4314,"fell":4315,"areas":4316,"wond":4317,"obv":4318,"october":4319,"inn":4320,"emerg":4321,"31":4322,"doct":4323,"neigh":4324,"veh":4325,"commission":4326,"##iction":4327,"neighb":4328,"##anch":4329,"grand":4330,"wednesday":4331,"training":4332,"##aming":4333,"russian":4334,"canada":4335,"ele":4336,"##uments":4337,"cause":4338,"thursday":4339,"prem":4340,"language":4341,"user":4342,"couple":4343,"struct":4344,"touch":4345,"hands":4346,"constit":4347,"tom":4348,"felt":4349,"##xic":4350,"separ":4351,"doll":4352,"hosp":4353,"previous":4354,"prior":4355,"upon":4356,"##ibly":4357,"leav":4358,"blood":4359,"climate":4360,"modern":4361,"british":4362,"resour":4363,"californ":4364,"quickly":4365,"ho":4366,"immigr":4367,"sunday":4368,"growth":4369,"range":4370,"seven":4371,"travel":4372,"path":4373,"##dr":4374,"figure":4375,"60":4376,"reveal":4377,"battle":4378,"function":4379,"heard":4380,"fa":4381,"##yl":4382,"ten":4383,"eight":4384,"ens":4385,"mart":4386,"##atory":4387,"rules":4388,"ham":4389,"natural":4390,"file":4391,"football":4392,"huge":4393,"surve":4394,"histor":4395,"demand":4396,"##istan":4397,"included":4398,"demon":4399,"population":4400,"eg":4401,"contract":4402,"gets":4403,"que":4404,"##ession":4405,"allowed":4406,"##sych":4407,"except":4408,"dail":4409,"wants":4410,"##put":4411,"communic":4412,"various":4413,"looks":4414,"purp":4415,"spent":4416,"crim":4417,"perfect":4418,"poor":4419,"bott":4420,"command":4421,"document":4422,"tour":4423,"california":4424,"##oo":4425,"satur":4426,"##oon":4427,"knew":4428,"wes":4429,"teach":4430,"analys":4431,"december":4432,"bey":4433,"systems":4434,"corpor":4435,"quality":4436,"assist":4437,"standard":4438,"written":4439,"guy":4440,"regular":4441,"##bit":4442,"jobs":4443,"attention":4444,"##itted":4445,"kore":4446,"features":4447,"blue":4448,"2008":4449,"talking":4450,"tried":4451,"##mer":4452,"gar":4453,"muslim":4454,"##ores":4455,"senate":4456,"tor":4457,"princ":4458,"psych":4459,"##ety":4460,"lay":4461,"roll":4462,"##ires":4463,"emb":4464,"pros":4465,"daily":4466,"##ume":4467,"##force":4468,"slow":4469,"latest":4470,"gas":4471,"contact":4472,"ful":4473,"paper":4474,"bord":4475,"store":4476,"mention":4477,"summer":4478,"##eless":4479,"subject":4480,"##kn":4481,"##uses":4482,"interesting":4483,"challen":4484,"skill":4485,"32":4486,"century":4487,"sexual":4488,"india":4489,"conference":4490,"brought":4491,"quarter":4492,"rout":4493,"##mp":4494,"fill":4495,"investigation":4496,"eth":4497,"install":4498,"2009":4499,"seek":4500,"wal":4501,"donald":4502,"iran":4503,"##ceed":4504,"date":4505,"hund":4506,"##ung":4507,"surv":4508,"ira":4509,"##etic":4510,"majority":4511,"island":4512,"blog":4513,"freed":4514,"strugg":4515,"achie":4516,"##bi":4517,"##eth":4518,"fly":4519,"advertisement":4520,"##ruct":4521,"##arily":4522,"flo":4523,"ww":4524,"##ground":4525,"hundred":4526,"sort":4527,"wild":4528,"regul":4529,"violence":4530,"message":4531,"parents":4532,"beyond":4533,"budget":4534,"starting":4535,"convers":4536,"##sequ":4537,"##iant":4538,"epis":4539,"conduct":4540,"500":4541,"##face":4542,"item":4543,"max":4544,"increasing":4545,"##iers":4546,"movie":4547,"##bt":4548,"serious":4549,"critic":4550,"lond":4551,"complete":4552,"speech":4553,"stories":4554,"levels":4555,"reading":4556,"officers":4557,"army":4558,"considered":4559,"brown":4560,"certainly":4561,"officer":4562,"chair":4563,"corn":4564,"michael":4565,"mcc":4566,"45":4567,"details":4568,"london":4569,"ut":4570,"credit":4571,"prison":4572,"click":4573,"##ification":4574,"band":4575,"hall":4576,"hous":4577,"##ese":4578,"##uf":4579,"##ky":4580,"safety":4581,"comments":4582,"prevent":4583,"cup":4584,"particularly":4585,"answer":4586,"alle":4587,"##ements":4588,"counter":4589,"culture":4590,"apple":4591,"trust":4592,"continued":4593,"writing":4594,"paid":4595,"extra":4596,"growing":4597,"mad":4598,"spokes":4599,"nuc":4600,"carry":4601,"saturday":4602,"completely":4603,"rap":4604,"alb":4605,"style":4606,"##icles":4607,"iraq":4608,"james":4609,"##imately":4610,"region":4611,"##aries":4612,"##aging":4613,"exactly":4614,"##ille":4615,"crime":4616,"opportunity":4617,"##ux":4618,"drive":4619,"write":4620,"##20":4621,"##iation":4622,"sle":4623,"decl":4624,"ready":4625,"danger":4626,"practice":4627,"intelligence":4628,"biggest":4629,"girl":4630,"usually":4631,"leading":4632,"damage":4633,"##ament":4634,"executive":4635,"title":4636,"mount":4637,"stuff":4638,"nature":4639,"attacks":4640,"guard":4641,"appar":4642,"products":4643,"##enced":4644,"febr":4645,"platform":4646,"clean":4647,"claims":4648,"effort":4649,"sup":4650,"bir":4651,"brain":4652,"cat":4653,"matt":4654,"##coin":4655,"software":4656,"income":4657,"##ension":4658,"organization":4659,"february":4660,"##idge":4661,"screen":4662,"medic":4663,"##ha":4664,"required":4665,"multiple":4666,"crow":4667,"student":4668,"thanks":4669,"perm":4670,"##asc":4671,"##wor":4672,"mac":4673,"prime":4674,"deg":4675,"giving":4676,"brand":4677,"additional":4678,"cele":4679,"die":4680,"bab":4681,"throughout":4682,"##sc":4683,"safe":4684,"connect":4685,"ign":4686,"dan":4687,"district":4688,"kids":4689,"choice":4690,"##reg":4691,"produc":4692,"##ledge":4693,"thinking":4694,"western":4695,"##isc":4696,"named":4697,"remain":4698,"experi":4699,"disp":4700,"twe":4701,"##to":4702,"origin":4703,"##aught":4704,"republicans":4705,"described":4706,"##ida":4707,"kick":4708,"##encies":4709,"sports":4710,"##ino":4711,"ult":4712,"changed":4713,"cris":4714,"freedom":4715,"smart":4716,"##yan":4717,"##entially":4718,"##cast":4719,"happy":4720,"provided":4721,"##ping":4722,"reality":4723,"stage":4724,"hy":4725,"celebr":4726,"purch":4727,"bul":4728,"spir":4729,"##come":4730,"##rew":4731,"texas":4732,"ones":4733,"ms":4734,"books":4735,"swe":4736,"overall":4737,"looked":4738,"prepar":4739,"effects":4740,"ath":4741,"voters":4742,"parts":4743,"update":4744,"demonstr":4745,"labor":4746,"fit":4747,"##orney":4748,"implement":4749,"##inese":4750,"der":4751,"complex":4752,"costs":4753,"##ously":4754,"prec":4755,"letter":4756,"increased":4757,"##ds":4758,"attorney":4759,"analysis":4760,"thus":4761,"##isions":4762,"ii":4763,"err":4764,"##enue":4765,"avoid":4766,"recomm":4767,"##raft":4768,"##iqu":4769,"guys":4770,"alone":4771,"vill":4772,"##uz":4773,"chinese":4774,"wouldn":4775,"repe":4776,"eventually":4777,"nom":4778,"computer":4779,"remains":4780,"hospital":4781,"www":4782,"peace":4783,"36":4784,"nav":4785,"william":4786,"core":4787,"showed":4788,"##omp":4789,"mix":4790,"##uing":4791,"display":4792,"thousands":4793,"calls":4794,"opin":4795,"moving":4796,"limited":4797,"cool":4798,"designed":4799,"##erve":4800,"indian":4801,"consist":4802,"wife":4803,"##hib":4804,"autom":4805,"nuclear":4806,"rank":4807,"##overs":4808,"##ounts":4809,"senior":4810,"sect":4811,"scene":4812,"thank":4813,"stra":4814,"##unk":4815,"##ypt":4816,"ben":4817,"immediately":4818,"grad":4819,"died":4820,"meaning":4821,"gone":4822,"draft":4823,"efforts":4824,"inte":4825,"citizens":4826,"altern":4827,"propos":4828,"born":4829,"esc":4830,"bow":4831,"bitcoin":4832,"##he":4833,"poll":4834,"##anced":4835,"##ago":4836,"includes":4837,"towards":4838,"truth":4839,"correct":4840,"ahead":4841,"subst":4842,"politics":4843,"presidential":4844,"property":4845,"secretary":4846,"fal":4847,"studies":4848,"hyp":4849,"##utions":4850,"manager":4851,"reform":4852,"entr":4853,"##oes":4854,"save":4855,"##aker":4856,"##ables":4857,"trial":4858,"religious":4859,"piece":4860,"##akers":4861,"##oken":4862,"couldn":4863,"directly":4864,"analy":4865,"democrats":4866,"##ke":4867,"##ford":4868,"sched":4869,"judge":4870,"insur":4871,"pressure":4872,"##down":4873,"debate":4874,"##arian":4875,"##eration":4876,"od":4877,"ord":4878,"##ba":4879,"33":4880,"##ustr":4881,"##unt":4882,"##pect":4883,"ran":4884,"feed":4885,"##fort":4886,"##aur":4887,"associated":4888,"device":4889,"eu":4890,"##key":4891,"station":4892,"flor":4893,"beginning":4894,"english":4895,"compared":4896,"wood":4897,"schools":4898,"french":4899,"##light":4900,"##icted":4901,"ber":4902,"reflect":4903,"toward":4904,"##la":4905,"lic":4906,"disapp":4907,"##aint":4908,"windows":4909,"cyc":4910,"##phone":4911,"##ban":4912,"spot":4913,"beaut":4914,"ice":4915,"exch":4916,"map":4917,"contribut":4918,"##aughter":4919,"strength":4920,"largest":4921,"##ny":4922,"lif":4923,"dise":4924,"count":4925,"##emy":4926,"aim":4927,"estim":4928,"passed":4929,"wid":4930,"eyes":4931,"rand":4932,"receive":4933,"beat":4934,"digital":4935,"drink":4936,"physical":4937,"angel":4938,"minor":4939,"radio":4940,"lin":4941,"hur":4942,"conditions":4943,"conservative":4944,"failed":4945,"moved":4946,"resources":4947,"virt":4948,"##acters":4949,"##ev":4950,"photos":4951,"wide":4952,"eye":4953,"characters":4954,"alleged":4955,"##agon":4956,"reasons":4957,"clearly":4958,"ec":4959,"criminal":4960,"traff":4961,"##bur":4962,"appears":4963,"section":4964,"experim":4965,"independent":4966,"##hold":4967,"challenge":4968,"##50":4969,"door":4970,"dut":4971,"rule":4972,"##ze":4973,"absol":4974,"whate":4975,"liter":4976,"##imum":4977,"encour":4978,"champions":4979,"sales":4980,"helped":4981,"powerful":4982,"##field":4983,"whatever":4984,"##ari":4985,"fat":4986,"illeg":4987,"difference":4988,"posted":4989,"smith":4990,"promot":4991,"shut":4992,"##ocks":4993,"crisis":4994,"feature":4995,"##astic":4996,"##enty":4997,"cook":4998,"rub":4999,"controll":5000,"lock":5001,"frequ":5002,"families":5003,"myself":5004,"##inary":5005,"candidate":5006,"sem":5007,"status":5008,"send":5009,"80":5010,"fan":5011,"treatment":5012,"management":5013,"##me":5014,"spending":5015,"##iders":5016,"mexic":5017,"sources":5018,"##ara":5019,"option":5020,"##ero":5021,"shown":5022,"destroy":5023,"narr":5024,"##ipped":5025,"##rupt":5026,"##ston":5027,"weapons":5028,"mos":5029,"christian":5030,"domin":5031,"syria":5032,"murder":5033,"forced":5034,"greater":5035,"##wood":5036,"##acts":5037,"syn":5038,"australia":5039,"normal":5040,"coal":5041,"acad":5042,"##rec":5043,"previously":5044,"surr":5045,"bay":5046,"voice":5047,"mobile":5048,"franc":5049,"##using":5050,"detail":5051,"apart":5052,"##berg":5053,"signed":5054,"load":5055,"wait":5056,"necessary":5057,"tick":5058,"researchers":5059,"firm":5060,"99":5061,"unique":5062,"wel":5063,"integr":5064,"george":5065,"yourself":5066,"actions":5067,"##apt":5068,"mech":5069,"records":5070,"##wise":5071,"sea":5072,"##imin":5073,"fighting":5074,"rise":5075,"ideas":5076,"conflic":5077,"mist":5078,"picture":5079,"primary":5080,"sam":5081,"34":5082,"telev":5083,"fox":5084,"jump":5085,"arab":5086,"meant":5087,"charge":5088,"##ufact":5089,"positive":5090,"expand":5091,"alex":5092,"subm":5093,"straight":5094,"manufact":5095,"mel":5096,"goals":5097,"easily":5098,"basic":5099,"beg":5100,"border":5101,"uns":5102,"projects":5103,"mission":5104,"gives":5105,"allows":5106,"followed":5107,"restr":5108,"##iest":5109,"politic":5110,"impress":5111,"spr":5112,"wonder":5113,"developed":5114,"scen":5115,"association":5116,"customers":5117,"lines":5118,"plant":5119,"##atively":5120,"##room":5121,"knowledge":5122,"germany":5123,"plus":5124,"benefits":5125,"##oint":5126,"female":5127,"marri":5128,"##ches":5129,"pitch":5130,"##sa":5131,"##iar":5132,"uses":5133,"individuals":5134,"spread":5135,"measure":5136,"2007":5137,"cities":5138,"scott":5139,"##pts":5140,"decades":5141,"highly":5142,"##oles":5143,"speaking":5144,"weight":5145,"pm":5146,"chic":5147,"incident":5148,"scale":5149,"fine":5150,"##elling":5151,"##bed":5152,"frank":5153,"continues":5154,"##ef":5155,"fully":5156,"##set":5157,"authorities":5158,"##owing":5159,"emot":5160,"pow":5161,"nice":5162,"emp":5163,"shop":5164,"appeared":5165,"hell":5166,"##ein":5167,"hillary":5168,"van":5169,"sud":5170,"##ya":5171,"qual":5172,"rates":5173,"agreement":5174,"adding":5175,"none":5176,"traditional":5177,"options":5178,"birth":5179,"##mon":5180,"##ube":5181,"successful":5182,"professor":5183,"##iance":5184,"winning":5185,"download":5186,"##ville":5187,"advant":5188,"activity":5189,"vac":5190,"favorite":5191,"grant":5192,"##ki":5193,"catch":5194,"rh":5195,"owners":5196,"shooting":5197,"larger":5198,"constitution":5199,"90":5200,"##ivity":5201,"bush":5202,"calling":5203,"samp":5204,"noted":5205,"editor":5206,"chann":5207,"##ga":5208,"organiz":5209,"##osh":5210,"70":5211,"programs":5212,"stock":5213,"double":5214,"enforce":5215,"reached":5216,"bed":5217,"establish":5218,"album":5219,"revolution":5220,"creating":5221,"places":5222,"transport":5223,"feet":5224,"heavy":5225,"##ota":5226,"suprem":5227,"##box":5228,"libr":5229,"lou":5230,"##oft":5231,"fif":5232,"##band":5233,"gay":5234,"indeed":5235,"##iate":5236,"seeing":5237,"partners":5238,"##onents":5239,"mechan":5240,"concept":5241,"determin":5242,"application":5243,"##orter":5244,"##ented":5245,"dog":5246,"##airs":5247,"org":5248,"##aine":5249,"##iny":5250,"mostly":5251,"employees":5252,"names":5253,"funct":5254,"##oyal":5255,"fort":5256,"trou":5257,"amb":5258,"foundation":5259,"fant":5260,"gal":5261,"pun":5262,"acqu":5263,"challeng":5264,"chem":5265,"##erved":5266,"critical":5267,"adj":5268,"##bl":5269,"seemed":5270,"##board":5271,"ended":5272,"ye":5273,"kept":5274,"micros":5275,"recover":5276,"mat":5277,"notes":5278,"electric":5279,"haven":5280,"prices":5281,"funding":5282,"sad":5283,"knows":5284,"resist":5285,"operations":5286,"therefore":5287,"nine":5288,"master":5289,"england":5290,"spend":5291,"37":5292,"brief":5293,"##essed":5294,"exam":5295,"194":5296,"caused":5297,"learning":5298,"patients":5299,"hack":5300,"##opri":5301,"male":5302,"behavior":5303,"##ishing":5304,"strategy":5305,"##vin":5306,"choose":5307,"##itely":5308,"train":5309,"temper":5310,"hus":5311,"florida":5312,"values":5313,"##my":5314,"##onent":5315,"episode":5316,"actual":5317,"leaving":5318,"chicago":5319,"##iced":5320,"trib":5321,"slight":5322,"sleep":5323,"weekend":5324,"machine":5325,"##10":5326,"willing":5327,"rat":5328,"ital":5329,"opposition":5330,"television":5331,"##nn":5332,"memory":5333,"lawy":5334,"mike":5335,"38":5336,"etc":5337,"claimed":5338,"award":5339,"concerns":5340,"overs":5341,"##iring":5342,"lad":5343,"river":5344,"raised":5345,"scientists":5346,"##ortion":5347,"kid":5348,"mir":5349,"supposed":5350,"opening":5351,"policies":5352,"flag":5353,"os":5354,"bag":5355,"ali":5356,"parl":5357,"defend":5358,"generation":5359,"france":5360,"advoc":5361,"##bon":5362,"charges":5363,"happens":5364,"spl":5365,"cars":5366,"##rel":5367,"condition":5368,"spring":5369,"frame":5370,"vs":5371,"theory":5372,"##ipe":5373,"wit":5374,"residents":5375,"hor":5376,"occup":5377,"adop":5378,"camera":5379,"limit":5380,"##ifying":5381,"##dom":5382,"location":5383,"##ici":5384,"stick":5385,"tough":5386,"agree":5387,"kh":5388,"massive":5389,"produced":5390,"bomb":5391,"switch":5392,"##ries":5393,"##ulated":5394,"crowd":5395,"proper":5396,"pil":5397,"ip":5398,"ther":5399,"investment":5400,"effective":5401,"##uana":5402,"palest":5403,"ensure":5404,"unit":5405,"##itor":5406,"##arm":5407,"protection":5408,"feeling":5409,"##roid":5410,"commerc":5411,"ship":5412,"hundreds":5413,"farm":5414,"##antly":5415,"active":5416,"horr":5417,"##lined":5418,"miles":5419,"marriage":5420,"mail":5421,"##ounds":5422,"bottom":5423,"generally":5424,"solid":5425,"parties":5426,"##ibution":5427,"cash":5428,"##ado":5429,"negot":5430,"spirit":5431,"professional":5432,"pattern":5433,"commit":5434,"robert":5435,"tech":5436,"revealed":5437,"debt":5438,"operation":5439,"devices":5440,"##odes":5441,"assum":5442,"##iable":5443,"##ona":5444,"offered":5445,"##while":5446,"learned":5447,"##aa":5448,"faith":5449,"highest":5450,"initial":5451,"tend":5452,"graph":5453,"task":5454,"fresh":5455,"wil":5456,"##men":5457,"arrested":5458,"types":5459,"https":5460,"notice":5461,"pac":5462,"##iful":5463,"##pm":5464,"lose":5465,"worse":5466,"##ijuana":5467,"##icient":5468,"chris":5469,"johnson":5470,"prefer":5471,"influence":5472,"nations":5473,"49":5474,"brother":5475,"##itude":5476,"length":5477,"opinion":5478,"fle":5479,"coast":5480,"asking":5481,"appl":5482,"millions":5483,"benefit":5484,"solution":5485,"burn":5486,"believed":5487,"whom":5488,"gather":5489,"showing":5490,"trip":5491,"confirmed":5492,"compar":5493,"runs":5494,"ol":5495,"48":5496,"afford":5497,"##olic":5498,"understanding":5499,"wish":5500,"provides":5501,"driving":5502,"##istry":5503,"kr":5504,"react":5505,"anc":5506,"parliam":5507,"liberal":5508,"2006":5509,"marijuana":5510,"wing":5511,"##lusion":5512,"interested":5513,"195":5514,"francis":5515,"##ta":5516,"tro":5517,"background":5518,"##estic":5519,"produce":5520,"occas":5521,"##apped":5522,"##ipl":5523,"apply":5524,"##eline":5525,"responsible":5526,"din":5527,"cas":5528,"##itz":5529,"##iles":5530,"defe":5531,"sanders":5532,"##lant":5533,"dollars":5534,"fourth":5535,"42":5536,"categ":5537,"victory":5538,"alleg":5539,"##11":5540,"whe":5541,"300":5542,"existing":5543,"##ancy":5544,"strik":5545,"institute":5546,"islamic":5547,"era":5548,"##oving":5549,"parliament":5550,"photograph":5551,"achieve":5552,"korea":5553,"gh":5554,"illegal":5555,"authority":5556,"##craft":5557,"##aked":5558,"environmental":5559,"joined":5560,"luck":5561,"nfl":5562,"snow":5563,"species":5564,"39":5565,"veter":5566,"cold":5567,"surface":5568,"centre":5569,"disease":5570,"coop":5571,"44":5572,"##iled":5573,"##more":5574,"gam":5575,"##oses":5576,"commercial":5577,"gall":5578,"##cription":5579,"assault":5580,"incred":5581,"watching":5582,"##elled":5583,"offers":5584,"neighbor":5585,"server":5586,"wealth":5587,"bat":5588,"shock":5589,"leadership":5590,"putting":5591,"cards":5592,"proposed":5593,"agreed":5594,"##erate":5595,"convention":5596,"controvers":5597,"girls":5598,"extremely":5599,"jim":5600,"rid":5601,"canadian":5602,"##oster":5603,"exchange":5604,"witness":5605,"shared":5606,"##cing":5607,"##aves":5608,"worst":5609,"minute":5610,"documents":5611,"announce":5612,"ram":5613,"driver":5614,"finding":5615,"floor":5616,"false":5617,"traffic":5618,"labour":5619,"##pper":5620,"transl":5621,"vehicle":5622,"advantage":5623,"thom":5624,"span":5625,"register":5626,"occurr":5627,"opened":5628,"pin":5629,"explained":5630,"fuel":5631,"basis":5632,"transfer":5633,"planet":5634,"annual":5635,"supporters":5636,"##izes":5637,"restaur":5638,"eat":5639,"##time":5640,"chap":5641,"insurance":5642,"##ih":5643,"square":5644,"victims":5645,"serve":5646,"dangerous":5647,"competition":5648,"##mine":5649,"enforcement":5650,"cancer":5651,"definitely":5652,"standing":5653,"brew":5654,"doz":5655,"tools":5656,"attract":5657,"##umn":5658,"##ae":5659,"becoming":5660,"purpose":5661,"belief":5662,"banks":5663,"items":5664,"becomes":5665,"drugs":5666,"testing":5667,"jeff":5668,"legislation":5669,"contain":5670,"planned":5671,"jones":5672,"unfortun":5673,"rough":5674,"onto":5675,"survey":5676,"ded":5677,"ton":5678,"sport":5679,"coverage":5680,"##atically":5681,"views":5682,"communities":5683,"bon":5684,"reduce":5685,"construction":5686,"consequ":5687,"appeal":5688,"housing":5689,"android":5690,"##uries":5691,"accused":5692,"comfort":5693,"obviously":5694,"strike":5695,"easier":5696,"##da":5697,"served":5698,"audience":5699,"hearing":5700,"heat":5701,"libert":5702,"##uters":5703,"magaz":5704,"microsoft":5705,"otherwise":5706,"doubt":5707,"math":5708,"##abor":5709,"israeli":5710,"refuge":5711,"files":5712,"argument":5713,"imagine":5714,"planning":5715,"##itation":5716,"southern":5717,"##olf":5718,"closed":5719,"immigration":5720,"##inct":5721,"explain":5722,"animals":5723,"transform":5724,"##za":5725,"novel":5726,"75":5727,"##vant":5728,"northern":5729,"purs":5730,"##ext":5731,"dism":5732,"sites":5733,"pc":5734,"division":5735,"flight":5736,"##oom":5737,"solar":5738,"##ica":5739,"sac":5740,"amazing":5741,"carol":5742,"2000":5743,"gop":5744,"##ulate":5745,"tweet":5746,"separate":5747,"mayor":5748,"43":5749,"launched":5750,"instance":5751,"exerc":5752,"structure":5753,"##ios":5754,"pak":5755,"surround":5756,"supported":5757,"beer":5758,"suc":5759,"divers":5760,"##works":5761,"britain":5762,"issued":5763,"unless":5764,"apparently":5765,"dyn":5766,"dream":5767,"returned":5768,"##wide":5769,"sequ":5770,"stars":5771,"calc":5772,"ren":5773,"##ole":5774,"ukr":5775,"fbi":5776,"decade":5777,"hair":5778,"##ris":5779,"collection":5780,"asp":5781,"degree":5782,"telling":5783,"##ushing":5784,"partner":5785,"##ius":5786,"##utely":5787,"reject":5788,"kar":5789,"supreme":5790,"41":5791,"virgin":5792,"athlet":5793,"setting":5794,"repeated":5795,"mand":5796,"##ipping":5797,"##aks":5798,"daughter":5799,"trail":5800,"princip":5801,"##bing":5802,"##istics":5803,"##ghan":5804,"jewish":5805,"##iated":5806,"##ml":5807,"ken":5808,"##ding":5809,"ryan":5810,"##oval":5811,"##mark":5812,"ultimately":5813,"patr":5814,"governor":5815,"smaller":5816,"2005":5817,"crew":5818,"tow":5819,"charged":5820,"negative":5821,"older":5822,"55":5823,"holding":5824,"abuse":5825,"##ictions":5826,"direction":5827,"beautiful":5828,"cab":5829,"mut":5830,"suggested":5831,"spect":5832,"copyr":5833,"gender":5834,"47":5835,"##acity":5836,"missing":5837,"cath":5838,"richard":5839,"concerned":5840,"tun":5841,"subscrib":5842,"established":5843,"aware":5844,"##hen":5845,"depend":5846,"accur":5847,"plays":5848,"supply":5849,"vice":5850,"score":5851,"animal":5852,"##ato":5853,"owner":5854,"pair":5855,"asse":5856,"sav":5857,"requires":5858,"keeping":5859,"batter":5860,"meanwhile":5861,"spoke":5862,"businesses":5863,"activities":5864,"fest":5865,"stated":5866,"##cel":5867,"discovered":5868,"fol":5869,"candidates":5870,"focused":5871,"2018":5872,"##los":5873,"##gers":5874,"scientific":5875,"raise":5876,"##aud":5877,"skin":5878,"martin":5879,"##ka":5880,"infr":5881,"193":5882,"wars":5883,"conflict":5884,"attend":5885,"larg":5886,"string":5887,"nas":5888,"hate":5889,"wat":5890,"truly":5891,"palestin":5892,"jer":5893,"allowing":5894,"listen":5895,"entirely":5896,"caught":5897,"caption":5898,"cloud":5899,"copyright":5900,"waiting":5901,"sor":5902,"storm":5903,"amend":5904,"tra":5905,"discussion":5906,"magn":5907,"##ression":5908,"##do":5909,"changing":5910,"sust":5911,"championship":5912,"identity":5913,"harm":5914,"recommend":5915,"largely":5916,"sudden":5917,"migr":5918,"##ario":5919,"placed":5920,"jon":5921,"newsp":5922,"appropri":5923,"mental":5924,"mort":5925,"african":5926,"bob":5927,"japanese":5928,"##asts":5929,"doctor":5930,"absolutely":5931,"jav":5932,"laugh":5933,"bern":5934,"##outh":5935,"prosecut":5936,"sky":5937,"afghan":5938,"louis":5939,"##know":5940,"amp":5941,"##agn":5942,"##itable":5943,"decisions":5944,"reuters":5945,"innov":5946,"46":5947,"context":5948,"pakistan":5949,"01":5950,"killing":5951,"print":5952,"##hol":5953,"shad":5954,"injury":5955,"intel":5956,"models":5957,"gain":5958,"advis":5959,"baby":5960,"philos":5961,"removed":5962,"homes":5963,"mexico":5964,"magic":5965,"rang":5966,"presence":5967,"peter":5968,"jose":5969,"figures":5970,"mode":5971,"introduced":5972,"flow":5973,"providing":5974,"##irt":5975,"cy":5976,"conversation":5977,"honest":5978,"thomas":5979,"believes":5980,"africa":5981,"vul":5982,"##cl":5983,"glass":5984,"mentioned":5985,"anth":5986,"offensive":5987,"cells":5988,"earn":5989,"##inger":5990,"bod":5991,"connection":5992,"rene":5993,"domestic":5994,"##oz":5995,"identified":5996,"##rial":5997,"spokesman":5998,"crash":5999,"##igned":6000,"nov":6001,"writer":6002,"publish":6003,"window":6004,"useful":6005,"##iling":6006,"##kin":6007,"tells":6008,"ht":6009,"library":6010,"angeles":6011,"weak":6012,"religion":6013,"64":6014,"skills":6015,"##nel":6016,"##ss":6017,"##coming":6018,"corner":6019,"measures":6020,"profile":6021,"mary":6022,"lob":6023,"optim":6024,"dar":6025,"acknow":6026,"##ront":6027,"imposs":6028,"managed":6029,"hasn":6030,"guess":6031,"failure":6032,"aggress":6033,"error":6034,"##ream":6035,"##ette":6036,"rod":6037,"adjust":6038,"interests":6039,"gard":6040,"usa":6041,"##tained":6042,"nick":6043,"bull":6044,"steps":6045,"obvious":6046,"##agr":6047,"vision":6048,"finished":6049,"##onto":6050,"internal":6051,"funds":6052,"ju":6053,"observ":6054,"##ada":6055,"experts":6056,"##igan":6057,"stopped":6058,"51":6059,"##ula":6060,"standards":6061,"tests":6062,"atlant":6063,"##fc":6064,"sale":6065,"##going":6066,"sher":6067,"##gu":6068,"channel":6069,"interp":6070,"husband":6071,"rain":6072,"##oted":6073,"originally":6074,"lived":6075,"slightly":6076,"prosp":6077,"elements":6078,"rail":6079,"specifically":6080,"##onym":6081,"sounds":6082,"agent":6083,"committed":6084,"corporate":6085,"finish":6086,"joe":6087,"##isation":6088,"mont":6089,"##issions":6090,"motor":6091,"##house":6092,"52":6093,"recall":6094,"electron":6095,"yout":6096,"amazon":6097,"affect":6098,"turns":6099,"alternative":6100,"balance":6101,"##icip":6102,"exclus":6103,"random":6104,"relatively":6105,"feels":6106,"markets":6107,"edge":6108,"conclud":6109,"interact":6110,"fellow":6111,"assemb":6112,"jes":6113,"humans":6114,"hang":6115,"eastern":6116,"operating":6117,"arrived":6118,"senator":6119,"teen":6120,"neur":6121,"tourn":6122,"oce":6123,"arms":6124,"possibly":6125,"basically":6126,"##onom":6127,"filed":6128,"toronto":6129,"iron":6130,"unp":6131,"circum":6132,"youth":6133,"haw":6134,"taxes":6135,"talks":6136,"element":6137,"gm":6138,"schem":6139,"defensive":6140,"selling":6141,"developers":6142,"bond":6143,"variety":6144,"bigger":6145,"organizations":6146,"remind":6147,"cultural":6148,"native":6149,"##ander":6150,"##ano":6151,"paying":6152,"penn":6153,"elections":6154,"hers":6155,"breaking":6156,"tast":6157,"zone":6158,"starts":6159,"##arant":6160,"##azy":6161,"sides":6162,"2004":6163,"magazine":6164,"regarding":6165,"weather":6166,"familiar":6167,"fish":6168,"neither":6169,"##gl":6170,"##ola":6171,"lee":6172,"impossible":6173,"##ania":6174,"cart":6175,"videos":6176,"##anda":6177,"##others":6178,"getty":6179,"rose":6180,"tack":6181,"carbon":6182,"seconds":6183,"helping":6184,"neighborhood":6185,"soldiers":6186,"healthy":6187,"cub":6188,"nut":6189,"##ager":6190,"##well":6191,"votes":6192,"##enses":6193,"visual":6194,"jun":6195,"bost":6196,"##oe":6197,"seeking":6198,"alt":6199,"##amm":6200,"losing":6201,"linked":6202,"##rim":6203,"##hl":6204,"syrian":6205,"equip":6206,"symb":6207,"emergency":6208,"yeah":6209,"suggests":6210,"combat":6211,"bid":6212,"##rom":6213,"##ighter":6214,"privacy":6215,"accounts":6216,"units":6217,"ped":6218,"applications":6219,"##icide":6220,"happening":6221,"consult":6222,"remove":6223,"brad":6224,"rare":6225,"##dy":6226,"chairman":6227,"twice":6228,"armed":6229,"aid":6230,"lake":6231,"ceo":6232,"##ests":6233,"##acing":6234,"parent":6235,"400":6236,"assess":6237,"##aints":6238,"lie":6239,"deploy":6240,"sar":6241,"decide":6242,"steve":6243,"ash":6244,"zero":6245,"famous":6246,"penal":6247,"wer":6248,"##itory":6249,"winter":6250,"rot":6251,"broken":6252,"sector":6253,"stad":6254,"jail":6255,"clim":6256,"ox":6257,"sitting":6258,"youtube":6259,"##oms":6260,"bird":6261,"cuts":6262,"carried":6263,"##wr":6264,"hero":6265,"covered":6266,"increasingly":6267,"##kins":6268,"65":6269,"fired":6270,"equal":6271,"da":6272,"capacity":6273,"##ructure":6274,"53":6275,"schedul":6276,"weapon":6277,"coff":6278,"##isf":6279,"##uate":6280,"##usion":6281,"rein":6282,"##acher":6283,"wik":6284,"##ingly":6285,"##ii":6286,"##oves":6287,"developing":6288,"##orrow":6289,"unfortunately":6290,"breat":6291,"panel":6292,"sant":6293,"throw":6294,"posts":6295,"##resp":6296,"conce":6297,"##iot":6298,"##asy":6299,"boston":6300,"consc":6301,"bound":6302,"batt":6303,"##emic":6304,"##ata":6305,"worry":6306,"54":6307,"##gen":6308,"pictures":6309,"yards":6310,"dropped":6311,"##agues":6312,"closer":6313,"beach":6314,"rapid":6315,"quant":6316,"##ocol":6317,"prin":6318,"infrast":6319,"expert":6320,"fer":6321,"agencies":6322,"##outs":6323,"shall":6324,"las":6325,"##eness":6326,"streets":6327,"##awn":6328,"trig":6329,"charl":6330,"powers":6331,"egypt":6332,"philosoph":6333,"flash":6334,"spons":6335,"considering":6336,"##ordin":6337,"updated":6338,"voting":6339,"##any":6340,"##equ":6341,"initi":6342,"carr":6343,"trick":6344,"tight":6345,"seriously":6346,"vast":6347,"responsibility":6348,"##zz":6349,"na":6350,"guarant":6351,"diss":6352,"tag":6353,"owned":6354,"##stream":6355,"lord":6356,"retail":6357,"secure":6358,"turkey":6359,"dynam":6360,"surprise":6361,"perspect":6362,"expensive":6363,"##aling":6364,"stadium":6365,"##licit":6366,"crack":6367,"located":6368,"##apers":6369,"tree":6370,"chemical":6371,"facing":6372,"cnn":6373,"##stein":6374,"numer":6375,"revenue":6376,"unlike":6377,"instr":6378,"everybody":6379,"dur":6380,"forms":6381,"carolina":6382,"##ogen":6383,"francisco":6384,"methods":6385,"ps":6386,"vehicles":6387,"democracy":6388,"elected":6389,"copy":6390,"deput":6391,"expans":6392,"rush":6393,"stress":6394,"possibility":6395,"##och":6396,"recru":6397,"factor":6398,"##sen":6399,"##lor":6400,"lots":6401,"bridge":6402,"infrastructure":6403,"estimated":6404,"##mas":6405,"williams":6406,"muse":6407,"advanced":6408,"##essions":6409,"##80":6410,"fixed":6411,"seat":6412,"buff":6413,"greatest":6414,"governments":6415,"presented":6416,"##lines":6417,"bringing":6418,"upgr":6419,"pod":6420,"##head":6421,"stone":6422,"##rop":6423,"grab":6424,"plenty":6425,"advent":6426,"archit":6427,"equipment":6428,"config":6429,"retr":6430,"row":6431,"hotel":6432,"shift":6433,"##inn":6434,"dram":6435,"paris":6436,"detect":6437,"tact":6438,"dub":6439,"prepared":6440,"script":6441,"py":6442,"andrew":6443,"##don":6444,"schol":6445,"alco":6446,"shape":6447,"vulner":6448,"stor":6449,"apps":6450,"technical":6451,"reference":6452,"column":6453,"dim":6454,"stret":6455,"##ayer":6456,"classic":6457,"56":6458,"seasons":6459,"##ucks":6460,"pieces":6461,"emph":6462,"##hi":6463,"typically":6464,"##lets":6465,"moon":6466,"##town":6467,"##ception":6468,"construct":6469,"fi":6470,"instruct":6471,"films":6472,"supporting":6473,"virginia":6474,"du":6475,"##arks":6476,"astr":6477,"australian":6478,"giant":6479,"guide":6480,"walking":6481,"helps":6482,"troops":6483,"##ologies":6484,"kel":6485,"saud":6486,"intended":6487,"potentially":6488,"faster":6489,"entertain":6490,"boost":6491,"nic":6492,"rum":6493,"package":6494,"gear":6495,"##uke":6496,"route":6497,"minimum":6498,"##osen":6499,"##lig":6500,"##ez":6501,"explos":6502,"transition":6503,"seg":6504,"metal":6505,"turning":6506,"##ogue":6507,"##erse":6508,"prove":6509,"signs":6510,"determine":6511,"##ils":6512,"default":6513,"creative":6514,"challenges":6515,"2003":6516,"cry":6517,"##icious":6518,"bell":6519,"##ibute":6520,"forget":6521,"yester":6522,"enemy":6523,"surprising":6524,"bes":6525,"ring":6526,"factors":6527,"luc":6528,"moral":6529,"jul":6530,"percentage":6531,"studio":6532,"proposal":6533,"##gry":6534,"consumer":6535,"offering":6536,"isis":6537,"urban":6538,"wire":6539,"kur":6540,"pages":6541,"##ca":6542,"bol":6543,"purchase":6544,"distance":6545,"nobody":6546,"client":6547,"boys":6548,"pip":6549,"criticism":6550,"universe":6551,"renew":6552,"lit":6553,"jackson":6554,"combined":6555,"bbc":6556,"##porary":6557,"proced":6558,"aircraft":6559,"resol":6560,"##oned":6561,"approx":6562,"broadcast":6563,"politicians":6564,"2001":6565,"occurred":6566,"##ulations":6567,"pool":6568,"ray":6569,"industrial":6570,"bright":6571,"kim":6572,"hurt":6573,"consumers":6574,"index":6575,"ruling":6576,"##bre":6577,"advance":6578,"creation":6579,"wearing":6580,"##iations":6581,"founder":6582,"reduced":6583,"handle":6584,"mp":6585,"57":6586,"profit":6587,"maintain":6588,"##aded":6589,"##ois":6590,"##ym":6591,"regime":6592,"##how":6593,"bure":6594,"atm":6595,"braz":6596,"significantly":6597,"evening":6598,"dedic":6599,"yesterday":6600,"royal":6601,"silver":6602,"determined":6603,"voted":6604,"valid":6605,"##ani":6606,"proceed":6607,"appearance":6608,"refused":6609,"##ayed":6610,"motiv":6611,"suppl":6612,"diet":6613,"ment":6614,"resolution":6615,"iv":6616,"recorded":6617,"violent":6618,"##ography":6619,"affected":6620,"##ucing":6621,"label":6622,"forg":6623,"museum":6624,"regional":6625,"excell":6626,"wear":6627,"eval":6628,"95":6629,"bought":6630,"ron":6631,"##ointed":6632,"expressed":6633,"temp":6634,"guns":6635,"artist":6636,"accident":6637,"##ece":6638,"reporting":6639,"##osph":6640,"aftern":6641,"##ita":6642,"conducted":6643,"##12":6644,"drag":6645,"pointed":6646,"##word":6647,"matters":6648,"positions":6649,"dial":6650,"filled":6651,"initially":6652,"##gg":6653,"approved":6654,"hat":6655,"oly":6656,"##amb":6657,"amendment":6658,"les":6659,"bear":6660,"enh":6661,"expos":6662,"button":6663,"##otyp":6664,"concent":6665,"insist":6666,"##tered":6667,"##ersey":6668,"termin":6669,"apprec":6670,"##isher":6671,"ohio":6672,"02":6673,"passing":6674,"brows":6675,"ends":6676,"bowl":6677,"fash":6678,"collabor":6679,"weren":6680,"comed":6681,"59":6682,"broke":6683,"complic":6684,"involve":6685,"connected":6686,"identify":6687,"bureau":6688,"treated":6689,"remained":6690,"##ecution":6691,"suit":6692,"differences":6693,"branch":6694,"quiet":6695,"examples":6696,"remaining":6697,"session":6698,"reaction":6699,"##iber":6700,"trouble":6701,"scot":6702,"attach":6703,"leads":6704,"gon":6705,"experiment":6706,"welcome":6707,"colon":6708,"completed":6709,"dun":6710,"confidence":6711,"sharing":6712,"##30":6713,"squad":6714,"herself":6715,"grew":6716,"afternoon":6717,"ow":6718,"olymp":6719,"plants":6720,"concentr":6721,"opportunities":6722,"essentially":6723,"excited":6724,"resc":6725,"boss":6726,"pic":6727,"movies":6728,"explo":6729,"struggle":6730,"experienced":6731,"emphas":6732,"ocean":6733,"articles":6734,"##enth":6735,"##de":6736,"newslet":6737,"mun":6738,"sets":6739,"perman":6740,"extreme":6741,"coalition":6742,"warning":6743,"cow":6744,"entry":6745,"sharp":6746,"radical":6747,"numerous":6748,"##ena":6749,"rising":6750,"controlled":6751,"pure":6752,"input":6753,"depth":6754,"joint":6755,"communications":6756,"gaz":6757,"attempts":6758,"belong":6759,"reporters":6760,"edition":6761,"thoughts":6762,"craft":6763,"writ":6764,"crimes":6765,"ministry":6766,"historical":6767,"confident":6768,"##uous":6769,"terrorist":6770,"suspect":6771,"ire":6772,"memor":6773,"fashion":6774,"argued":6775,"elimin":6776,"illustr":6777,"pulled":6778,"datab":6779,"ba":6780,"hou":6781,"proud":6782,"frustr":6783,"hen":6784,"virtual":6785,"facts":6786,"05":6787,"updates":6788,"##reek":6789,"replace":6790,"##izz":6791,"faced":6792,"om":6793,"agents":6794,"motion":6795,"sov":6796,"readers":6797,"ride":6798,"evolution":6799,"##idden":6800,"dipl":6801,"shap":6802,"li":6803,"##etr":6804,"stan":6805,"contrast":6806,"##ket":6807,"seattle":6808,"emails":6809,"shel":6810,"hopes":6811,"driven":6812,"sanct":6813,"hu":6814,"jersey":6815,"unable":6816,"shr":6817,"loved":6818,"dismiss":6819,"links":6820,"imper":6821,"drivers":6822,"##othes":6823,"##oma":6824,"##ensions":6825,"pit":6826,"premier":6827,"alcohol":6828,"lg":6829,"##ura":6830,"chron":6831,"talked":6832,"##pped":6833,"output":6834,"mi":6835,"ordered":6836,"capable":6837,"##illing":6838,"playoff":6839,"##ruption":6840,"satisf":6841,"widely":6842,"materials":6843,"##gar":6844,"affairs":6845,"empt":6846,"predict":6847,"evil":6848,"storage":6849,"bodies":6850,"resident":6851,"04":6852,"stream":6853,"valley":6854,"muslims":6855,"messages":6856,"village":6857,"vent":6858,"##oking":6859,"##makers":6860,"admitted":6861,"femin":6862,"fuck":6863,"exercise":6864,"seed":6865,"opposed":6866,"cos":6867,"campus":6868,"##pted":6869,"anyway":6870,"doctors":6871,"wave":6872,"192":6873,"subsequ":6874,"perspective":6875,"substant":6876,"activists":6877,"tournament":6878,"institutions":6879,"marketing":6880,"##dp":6881,"advice":6882,"58":6883,"volume":6884,"talent":6885,"daniel":6886,"shouldn":6887,"faces":6888,"##âã":6889,"dc":6890,"##amin":6891,"writes":6892,"soviet":6893,"ancient":6894,"150":6895,"contem":6896,"gang":6897,"##illa":6898,"##ship":6899,"liqu":6900,"analyst":6901,"##abilities":6902,"denied":6903,"guid":6904,"##enda":6905,"captain":6906,"stands":6907,"sweet":6908,"inspired":6909,"stretch":6910,"improved":6911,"##lo":6912,"married":6913,"newspaper":6914,"decre":6915,"christmas":6916,"2002":6917,"chain":6918,"flood":6919,"##reh":6920,"anonym":6921,"journey":6922,"outr":6923,"brook":6924,"picked":6925,"aside":6926,"debut":6927,"legit":6928,"forum":6929,"restaurant":6930,"##otic":6931,"appropriate":6932,"ru":6933,"##enom":6934,"##known":6935,"friendly":6936,"afghanistan":6937,"airport":6938,"favour":6939,"saudi":6940,"expansion":6941,"customer":6942,"reportedly":6943,"objects":6944,"quarterback":6945,"ongoing":6946,"trigger":6947,"warm":6948,"terrorism":6949,"festival":6950,"declared":6951,"bike":6952,"pad":6953,"sacr":6954,"delivered":6955,"##ini":6956,"##bn":6957,"leaves":6958,"responded":6959,"injured":6960,"ariz":6961,"lawyer":6962,"##oul":6963,"tab":6964,"##rant":6965,"michigan":6966,"findings":6967,"experiences":6968,"fasc":6969,"distribut":6970,"##ek":6971,"gov":6972,"architect":6973,"confirm":6974,"kil":6975,"##ining":6976,"ukraine":6977,"flat":6978,"hide":6979,"wheel":6980,"mine":6981,"prep":6982,"neut":6983,"crazy":6984,"distribution":6985,"##atured":6986,"clar":6987,"yell":6988,"networks":6989,"doub":6990,"##iev":6991,"interpret":6992,"steel":6993,"thread":6994,"##ooth":6995,"statements":6996,"explains":6997,"entertainment":6998,"georg":6999,"assistant":7000,"aband":7001,"patri":7002,"contest":7003,"golden":7004,"contains":7005,"incor":7006,"roughly":7007,"essential":7008,"defined":7009,"circumst":7010,"investors":7011,"songs":7012,"practices":7013,"applied":7014,"mountain":7015,"cd":7016,"honor":7017,"columb":7018,"explan":7019,"##hab":7020,"buildings":7021,"##respond":7022,"consp":7023,"publicly":7024,"##ador":7025,"totally":7026,"guil":7027,"repr":7028,"suffered":7029,"romney":7030,"currency":7031,"03":7032,"##unte":7033,"##oman":7034,"##isters":7035,"fifth":7036,"coffee":7037,"dollar":7038,"##0000":7039,"wake":7040,"##icul":7041,"prohib":7042,"correspond":7043,"proof":7044,"effectively":7045,"tear":7046,"##iger":7047,"adam":7048,"declined":7049,"param":7050,"sir":7051,"desire":7052,"causes":7053,"util":7054,"volunte":7055,"finance":7056,"rally":7057,"swed":7058,"missed":7059,"##hr":7060,"injuries":7061,"champion":7062,"participants":7063,"franch":7064,"pu":7065,"desk":7066,"ireland":7067,"listed":7068,"patient":7069,"split":7070,"diplom":7071,"accom":7072,"acknowled":7073,"baseball":7074,"##âãâã":7075,"realize":7076,"unknown":7077,"wins":7078,"##ansas":7079,"##rd":7080,"merc":7081,"##ias":7082,"brazil":7083,"plane":7084,"##ternal":7085,"##ocket":7086,"iphone":7087,"increases":7088,"allegations":7089,"heads":7090,"symbol":7091,"fraud":7092,"knock":7093,"critics":7094,"suicide":7095,"offense":7096,"##arters":7097,"shots":7098,"fab":7099,"defence":7100,"coordin":7101,"##encing":7102,"ourselves":7103,"situ":7104,"raw":7105,"##athan":7106,"nba":7107,"tap":7108,"cere":7109,"remark":7110,"acting":7111,"fold":7112,"sym":7113,"shif":7114,"dad":7115,"accompl":7116,"##lying":7117,"sick":7118,"forest":7119,"accepted":7120,"trend":7121,"harv":7122,"waste":7123,"ble":7124,"watched":7125,"barack":7126,"adds":7127,"temperature":7128,"jews":7129,"regardless":7130,"returns":7131,"cycle":7132,"argue":7133,"3d":7134,"houston":7135,"expression":7136,"rig":7137,"chick":7138,"scheduled":7139,"height":7140,"knowing":7141,"scar":7142,"schedule":7143,"moves":7144,"classes":7145,"naz":7146,"##amental":7147,"phase":7148,"tiny":7149,"hardware":7150,"nasa":7151,"guilty":7152,"##16":7153,"##list":7154,"thinks":7155,"facility":7156,"meat":7157,"consistent":7158,"cruc":7159,"##ancing":7160,"tan":7161,"nearby":7162,"begins":7163,"strange":7164,"ts":7165,"##ns":7166,"buying":7167,"##ading":7168,"acts":7169,"basket":7170,"##what":7171,"performed":7172,"##laim":7173,"announcement":7174,"66":7175,"underst":7176,"##ionally":7177,"monit":7178,"consequences":7179,"deck":7180,"highlight":7181,"authors":7182,"promise":7183,"behavi":7184,"entered":7185,"treas":7186,"kevin":7187,"##ales":7188,"featured":7189,"tank":7190,"threats":7191,"kingdom":7192,"fantasy":7193,"##chester":7194,"pra":7195,"tort":7196,"gaming":7197,"suddenly":7198,"resistance":7199,"palestinian":7200,"62":7201,"si":7202,"ta":7203,"license":7204,"charles":7205,"household":7206,"serving":7207,"korean":7208,"constant":7209,"moments":7210,"pd":7211,"bench":7212,"unlik":7213,"disappear":7214,"surprised":7215,"##road":7216,"sister":7217,"deputy":7218,"stores":7219,"holly":7220,"necessarily":7221,"recon":7222,"mouth":7223,"warned":7224,"protests":7225,"younger":7226,"functions":7227,"existence":7228,"09":7229,"regulations":7230,"flu":7231,"sample":7232,"colorado":7233,"surveill":7234,"jesus":7235,"backed":7236,"receiving":7237,"somewhat":7238,"teachers":7239,"rape":7240,"discussed":7241,"winner":7242,"intention":7243,"follows":7244,"##burg":7245,"excellent":7246,"legend":7247,"inqu":7248,"battery":7249,"victor":7250,"grown":7251,"deaths":7252,"jr":7253,"multi":7254,"##taining":7255,"represents":7256,"artists":7257,"brings":7258,"##irty":7259,"asia":7260,"abortion":7261,"cheap":7262,"duty":7263,"85":7264,"08":7265,"##cs":7266,"manage":7267,"##bor":7268,"stood":7269,"##erves":7270,"engineering":7271,"isol":7272,"adults":7273,"pushed":7274,"adult":7275,"tay":7276,"eric":7277,"##abled":7278,"audio":7279,"communication":7280,"evol":7281,"unlikely":7282,"wage":7283,"putin":7284,"eating":7285,"lawsuit":7286,"literally":7287,"fewer":7288,"anywhere":7289,"lies":7290,"surveillance":7291,"bills":7292,"ske":7293,"liber":7294,"orders":7295,"plot":7296,"targets":7297,"sought":7298,"##15":7299,"##point":7300,"##usal":7301,"emotional":7302,"fairly":7303,"davis":7304,"sin":7305,"combination":7306,"personally":7307,"cia":7308,"promin":7309,"##fri":7310,"07":7311,"##overty":7312,"conclusion":7313,"##war":7314,"patch":7315,"##eas":7316,"chapter":7317,"comic":7318,"relevant":7319,"scored":7320,"musc":7321,"ax":7322,"importance":7323,"cruz":7324,"voc":7325,"##mates":7326,"cham":7327,"poverty":7328,"signal":7329,"ny":7330,"surg":7331,"fundamental":7332,"flying":7333,"theat":7334,"##har":7335,"succeed":7336,"brian":7337,"exhib":7338,"##acement":7339,"ell":7340,"signing":7341,"compos":7342,"root":7343,"##inet":7344,"html":7345,"##tle":7346,"heavily":7347,"##whel":7348,"agric":7349,"tall":7350,"jam":7351,"protesters":7352,"galax":7353,"##apping":7354,"myth":7355,"67":7356,"06":7357,"rar":7358,"upper":7359,"tea":7360,"gap":7361,"earned":7362,"##14":7363,"##mond":7364,"sustain":7365,"developer":7366,"spin":7367,"##place":7368,"ending":7369,"##aid":7370,"shares":7371,"##ours":7372,"immediate":7373,"disord":7374,"colleagues":7375,"versions":7376,"wound":7377,"alive":7378,"carrying":7379,"##rees":7380,"##pass":7381,"competitive":7382,"crypt":7383,"allegedly":7384,"catholic":7385,"holds":7386,"pled":7387,"poly":7388,"detailed":7389,"##han":7390,"format":7391,"approximately":7392,"##ko":7393,"72":7394,"##osphere":7395,"##acle":7396,"##uls":7397,"opponents":7398,"minim":7399,"ech":7400,"agricult":7401,"jord":7402,"opponent":7403,"embr":7404,"category":7405,"forth":7406,"replaced":7407,"bang":7408,"hoping":7409,"##mo":7410,"arizona":7411,"icon":7412,"alongside":7413,"sab":7414,"protected":7415,"mechanism":7416,"##ologist":7417,"scand":7418,"assembly":7419,"medicine":7420,"theme":7421,"opposite":7422,"##real":7423,"properties":7424,"buck":7425,"plug":7426,"suffering":7427,"harder":7428,"eld":7429,"agenda":7430,"sees":7431,"##aver":7432,"rating":7433,"awes":7434,"flav":7435,"##icts":7436,"flex":7437,"maximum":7438,"ly":7439,"functional":7440,"##uster":7441,"pushing":7442,"feat":7443,"dogs":7444,"##icing":7445,"##ll":7446,"cp":7447,"reward":7448,"unus":7449,"formed":7450,"immigrants":7451,"##roit":7452,"##nam":7453,"relationships":7454,"enr":7455,"assets":7456,"pleas":7457,"transm":7458,"shortly":7459,"##17":7460,"hey":7461,"pregn":7462,"hind":7463,"##ker":7464,"marc":7465,"az":7466,"extended":7467,"cutting":7468,"intent":7469,"##gor":7470,"rely":7471,"##xual":7472,"latter":7473,"##ala":7474,"rog":7475,"barr":7476,"frequently":7477,"selection":7478,"cannab":7479,"institution":7480,"blind":7481,"territory":7482,"##lands":7483,"closely":7484,"mit":7485,"vacc":7486,"miller":7487,"reporter":7488,"mainstream":7489,"manner":7490,"##employ":7491,"ingr":7492,"prospect":7493,"##oral":7494,"decline":7495,"63":7496,"refugees":7497,"controversial":7498,"fields":7499,"describe":7500,"fake":7501,"sentence":7502,"actor":7503,"##ockey":7504,"relative":7505,"##een":7506,"targeted":7507,"dress":7508,"tas":7509,"##urning":7510,"somehow":7511,"600":7512,"deeply":7513,"elite":7514,"passion":7515,"database":7516,"##iat":7517,"province":7518,"technologies":7519,"sorry":7520,"tested":7521,"selected":7522,"depending":7523,"##char":7524,"##here":7525,"lew":7526,"cable":7527,"pir":7528,"ticket":7529,"stephen":7530,"dedicated":7531,"teacher":7532,"directed":7533,"unemploy":7534,"conver":7535,"circumstances":7536,"coc":7537,"detroit":7538,"okay":7539,"tenn":7540,"empty":7541,"stack":7542,"bom":7543,"upcoming":7544,"extent":7545,"conscious":7546,"congressional":7547,"wilson":7548,"employment":7549,"arrang":7550,"subsid":7551,"##iques":7552,"solutions":7553,"causing":7554,"diagn":7555,"description":7556,"dealing":7557,"##ensus":7558,"referred":7559,"commitment":7560,"##elines":7561,"dry":7562,"salt":7563,"allies":7564,"truck":7565,"800":7566,"joy":7567,"medium":7568,"##hs":7569,"folks":7570,"estate":7571,"trading":7572,"noticed":7573,"requirements":7574,"journalists":7575,"reput":7576,"orient":7577,"usual":7578,"overwhel":7579,"intellect":7580,"sending":7581,"linux":7582,"comfortable":7583,"kinds":7584,"pacific":7585,"ty":7586,"stim":7587,"ted":7588,"##iences":7589,"typical":7590,"##ashed":7591,"repeatedly":7592,"struck":7593,"##ken":7594,"adapt":7595,"topic":7596,"conservatives":7597,"cha":7598,"phenom":7599,"attempted":7600,"encoun":7601,"subscribe":7602,"retire":7603,"definition":7604,"paral":7605,"empire":7606,"sight":7607,"escape":7608,"##eman":7609,"partnership":7610,"ic":7611,"awesome":7612,"approval":7613,"inher":7614,"##lv":7615,"punish":7616,"77":7617,"liver":7618,"##iami":7619,"##emies":7620,"handed":7621,"abd":7622,"##40":7623,"letters":7624,"##bel":7625,"blame":7626,"##nic":7627,"slowly":7628,"rab":7629,"enth":7630,"##fe":7631,"pilot":7632,"spell":7633,"limits":7634,"ford":7635,"##ati":7636,"rick":7637,"realized":7638,"ak":7639,"defeat":7640,"risks":7641,"universal":7642,"dall":7643,"scheme":7644,"somewhere":7645,"downtown":7646,"deleg":7647,"transportation":7648,"hidden":7649,"##agan":7650,"somebody":7651,"ven":7652,"walked":7653,"##under":7654,"##rid":7655,"sole":7656,"##ews":7657,"matches":7658,"josh":7659,"##exp":7660,"deals":7661,"##ache":7662,"kir":7663,"fel":7664,"locations":7665,"exciting":7666,"hollywood":7667,"effici":7668,"miami":7669,"recovery":7670,"navy":7671,"observed":7672,"##iveness":7673,"##night":7674,"##adel":7675,"##sey":7676,"ale":7677,"##inals":7678,"shell":7679,"mistake":7680,"weird":7681,"clock":7682,"76":7683,"kelly":7684,"##water":7685,"##awa":7686,"brothers":7687,"jordan":7688,"shadow":7689,"soul":7690,"##oked":7691,"surrounding":7692,"ros":7693,"bath":7694,"##ulf":7695,"promised":7696,"assert":7697,"zeal":7698,"raising":7699,"distinct":7700,"polls":7701,"##otes":7702,"italy":7703,"employee":7704,"##uable":7705,"spanish":7706,"##osis":7707,"falling":7708,"worker":7709,"##pa":7710,"hook":7711,"advertising":7712,"requests":7713,"statistics":7714,"##aled":7715,"cooper":7716,"georgia":7717,"bunch":7718,"som":7719,"likes":7720,"independence":7721,"elsewhere":7722,"hits":7723,"destroyed":7724,"mixed":7725,"promote":7726,"trees":7727,"grav":7728,"manufactur":7729,"democrat":7730,"anx":7731,"worldwide":7732,"##enger":7733,"##orted":7734,"comparison":7735,"puts":7736,"transpar":7737,"payment":7738,"supports":7739,"myst":7740,"irish":7741,"tony":7742,"##view":7743,"impressive":7744,"decent":7745,"250":7746,"properly":7747,"arguments":7748,"fighters":7749,"franchise":7750,"asian":7751,"angry":7752,"adopt":7753,"electr":7754,"ideal":7755,"equival":7756,"turk":7757,"##13":7758,"##ded":7759,"oak":7760,"##ien":7761,"##sl":7762,"##gas":7763,"auto":7764,"##ingu":7765,"speaker":7766,"scenes":7767,"academy":7768,"disag":7769,"goods":7770,"##pping":7771,"odd":7772,"attacked":7773,"eb":7774,"yellow":7775,"disney":7776,"regions":7777,"##itarian":7778,"judg":7779,"electronic":7780,"minority":7781,"desper":7782,"bin":7783,"sr":7784,"involving":7785,"merely":7786,"strongly":7787,"oblig":7788,"founded":7789,"withdr":7790,"##actions":7791,"harass":7792,"mas":7793,"hay":7794,"queen":7795,"writers":7796,"progressive":7797,"fees":7798,"parking":7799,"programming":7800,"assume":7801,"##pe":7802,"representative":7803,"joseph":7804,"arts":7805,"exposed":7806,"ga":7807,"redd":7808,"##ja":7809,"nomine":7810,"thor":7811,"##pool":7812,"worried":7813,"fo":7814,"facilities":7815,"courts":7816,"satell":7817,"granted":7818,"##oration":7819,"houses":7820,"drawn":7821,"##anes":7822,"ultimate":7823,"##osing":7824,"officially":7825,"##ensity":7826,"reasonable":7827,"paint":7828,"##iants":7829,"##owed":7830,"0x":7831,"##ua":7832,"moore":7833,"alliance":7834,"##win":7835,"recognize":7836,"##rey":7837,"68":7838,"69":7839,"1999":7840,"conspir":7841,"##18":7842,"robot":7843,"hockey":7844,"chose":7845,"understood":7846,"##apse":7847,"nbc":7848,"##west":7849,"comprom":7850,"assistance":7851,"electricity":7852,"jur":7853,"loan":7854,"##engers":7855,"innoc":7856,"##inations":7857,"bug":7858,"spark":7859,"##lad":7860,"mirr":7861,"neutral":7862,"##sters":7863,"payments":7864,"drew":7865,"##enders":7866,"meetings":7867,"components":7868,"barb":7869,"answers":7870,"permanent":7871,"enterpr":7872,"emissions":7873,"chosen":7874,"blow":7875,"condem":7876,"tower":7877,"reserve":7878,"tel":7879,"incredible":7880,"corruption":7881,"##dd":7882,"##bling":7883,"initiative":7884,"grass":7885,"nhl":7886,"lights":7887,"stronger":7888,"continuing":7889,"sid":7890,"informed":7891,"dod":7892,"sev":7893,"lev":7894,"academic":7895,"drinking":7896,"tip":7897,"sessions":7898,"##illed":7899,"74":7900,"##emen":7901,"##xx":7902,"estimates":7903,"thin":7904,"rival":7905,"rent":7906,"counsel":7907,"organized":7908,"enemies":7909,"shield":7910,"##born":7911,"mile":7912,"##uzz":7913,"feedback":7914,"encourage":7915,"##standing":7916,"robin":7917,"therap":7918,"ott":7919,"dozen":7920,"##ora":7921,"punch":7922,"##19":7923,"obtained":7924,"returning":7925,"veteran":7926,"ads":7927,"##iment":7928,"marsh":7929,"severe":7930,"dallas":7931,"73":7932,"lawyers":7933,"historic":7934,"##acted":7935,"primarily":7936,"pump":7937,"registered":7938,"##eller":7939,"ties":7940,"controls":7941,"italian":7942,"gate":7943,"taylor":7944,"minnes":7945,"representatives":7946,"manip":7947,"##25":7948,"roman":7949,"claiming":7950,"scotland":7951,"finds":7952,"sugar":7953,"producer":7954,"##uts":7955,"terrible":7956,"machines":7957,"hopefully":7958,"cod":7959,"##ups":7960,"overl":7961,"ultr":7962,"##friend":7963,"plastic":7964,"cannabis":7965,"tickets":7966,"habit":7967,"capture":7968,"gotten":7969,"soph":7970,"lgbt":7971,"choices":7972,"excess":7973,"confront":7974,"hub":7975,"narrative":7976,"aggressive":7977,"exclusive":7978,"browser":7979,"ruled":7980,"racial":7981,"generated":7982,"funny":7983,"##era":7984,"##care":7985,"citizen":7986,"dish":7987,"enable":7988,"mosc":7989,"stead":7990,"basketball":7991,"discovery":7992,"soccer":7993,"spain":7994,"lawmakers":7995,"explore":7996,"##gb":7997,"fu":7998,"threatened":7999,"elev":8000,"incredibly":8001,"purposes":8002,"captured":8003,"chart":8004,"unn":8005,"hole":8006,"alien":8007,"jac":8008,"perfectly":8009,"info":8010,"galaxy":8011,"jason":8012,"establishment":8013,"implic":8014,"tied":8015,"anticip":8016,"forec":8017,"array":8018,"##alf":8019,"##ographic":8020,"##pan":8021,"horse":8022,"##uits":8023,"teaching":8024,"##owa":8025,"seats":8026,"##iform":8027,"perp":8028,"##fall":8029,"##stone":8030,"stuck":8031,"##ilit":8032,"ker":8033,"mm":8034,"chances":8035,"aspects":8036,"compens":8037,"##illy":8038,"pace":8039,"clients":8040,"constantly":8041,"##icks":8042,"matth":8043,"##rum":8044,"twenty":8045,"78":8046,"anger":8047,"enthus":8048,"rejected":8049,"funded":8050,"minnesota":8051,"##woman":8052,"fiction":8053,"tail":8054,"headed":8055,"outcome":8056,"##ties":8057,"##repr":8058,"##vey":8059,"##intend":8060,"disaster":8061,"balt":8062,"avenue":8063,"taste":8064,"newly":8065,"recording":8066,"pill":8067,"contributed":8068,"wine":8069,"amounts":8070,"orange":8071,"##mann":8072,"api":8073,"dust":8074,"oreg":8075,"diam":8076,"extension":8077,"apartment":8078,"97":8079,"brut":8080,"##ikes":8081,"compreh":8082,"##inated":8083,"exists":8084,"oregon":8085,"consumption":8086,"dict":8087,"warri":8088,"##60":8089,"##oming":8090,"##weight":8091,"pent":8092,"stem":8093,"sympt":8094,"generate":8095,"wrest":8096,"keeps":8097,"occur":8098,"affil":8099,"warming":8100,"cig":8101,"yard":8102,"penalty":8103,"regularly":8104,"veget":8105,"thick":8106,"dna":8107,"anymore":8108,"dozens":8109,"stab":8110,"##edia":8111,"moscow":8112,"blocks":8113,"crucial":8114,"represented":8115,"accel":8116,"accurate":8117,"resulting":8118,"accomp":8119,"component":8120,"principles":8121,"abc":8122,"relief":8123,"##ella":8124,"strategic":8125,"holy":8126,"references":8127,"prize":8128,"explanation":8129,"privile":8130,"atmosphere":8131,"gift":8132,"ib":8133,"wis":8134,"pok":8135,"##met":8136,"##rimination":8137,"bron":8138,"sum":8139,"cyber":8140,"fred":8141,"philosophy":8142,"nar":8143,"constitutional":8144,"grade":8145,"installed":8146,"##bles":8147,"recip":8148,"remote":8149,"##ayers":8150,"roster":8151,"##raid":8152,"plate":8153,"exposure":8154,"interface":8155,"##can":8156,"weekly":8157,"##iana":8158,"##cher":8159,"catal":8160,"phr":8161,"normally":8162,"vr":8163,"demands":8164,"maps":8165,"situations":8166,"personnel":8167,"everywhere":8168,"navig":8169,"va":8170,"discip":8171,"propag":8172,"lu":8173,"henry":8174,"theor":8175,"kl":8176,"unw":8177,"ont":8178,"loud":8179,"kent":8180,"##pg":8181,"concluded":8182,"lady":8183,"depression":8184,"surgery":8185,"complaint":8186,"sheriff":8187,"efficient":8188,"##boy":8189,"legacy":8190,"thousand":8191,"bor":8192,"mainly":8193,"clark":8194,"##inity":8195,"priority":8196,"forever":8197,"discrimination":8198,"hash":8199,"kat":8200,"outs":8201,"simpl":8202,"##onn":8203,"techniques":8204,"iowa":8205,"scoring":8206,"tracks":8207,"manufacturing":8208,"##isan":8209,"##inem":8210,"88":8211,"operate":8212,"liquid":8213,"##adelph":8214,"titles":8215,"toler":8216,"marvel":8217,"defic":8218,"wolf":8219,"strip":8220,"wisc":8221,"delivery":8222,"affordable":8223,"uncert":8224,"##uration":8225,"settings":8226,"##pro":8227,"degrees":8228,"##rect":8229,"complicated":8230,"milk":8231,"proved":8232,"premium":8233,"##eland":8234,"##32":8235,"strict":8236,"fisc":8237,"philadelph":8238,"taxp":8239,"gig":8240,"falls":8241,"##elle":8242,"taught":8243,"greek":8244,"harry":8245,"marked":8246,"investigators":8247,"farmers":8248,"sty":8249,"peak":8250,"engage":8251,"processing":8252,"##top":8253,"##eld":8254,"1998":8255,"aer":8256,"ml":8257,"valuable":8258,"cbs":8259,"fee":8260,"survive":8261,"successfully":8262,"reduction":8263,"##va":8264,"monitor":8265,"automatically":8266,"79":8267,"nc":8268,"equivalent":8269,"comics":8270,"collected":8271,"factory":8272,"alab":8273,"vulnerable":8274,"arc":8275,"viet":8276,"philadelphia":8277,"engaged":8278,"solve":8279,"reaching":8280,"##onsin":8281,"external":8282,"similarly":8283,"lt":8284,"inch":8285,"##lers":8286,"rs":8287,"##ressed":8288,"lane":8289,"drawing":8290,"uncom":8291,"comedy":8292,"##lights":8293,"##greg":8294,"nich":8295,"wisconsin":8296,"possession":8297,"phones":8298,"prince":8299,"steam":8300,"marine":8301,"stup":8302,"afraid":8303,"busy":8304,"prominent":8305,"##ules":8306,"##ecks":8307,"manchester":8308,"##fr":8309,"anton":8310,"reputation":8311,"dance":8312,"garden":8313,"##asp":8314,"patterns":8315,"##itar":8316,"lean":8317,"##mad":8318,"##astr":8319,"##fs":8320,"yield":8321,"mini":8322,"inev":8323,"190":8324,"gross":8325,"passes":8326,"stun":8327,"awards":8328,"negotiations":8329,"visited":8330,"entit":8331,"##agram":8332,"reviews":8333,"dinner":8334,"lyn":8335,"aimed":8336,"displ":8337,"##uated":8338,"apolog":8339,"##olit":8340,"attended":8341,"strikes":8342,"implementation":8343,"transg":8344,"chat":8345,"##acks":8346,"sanctions":8347,"finger":8348,"intellectual":8349,"uniform":8350,"fought":8351,"##etch":8352,"resource":8353,"eag":8354,"smooth":8355,"rav":8356,"introduction":8357,"perce":8358,"veterans":8359,"##esy":8360,"invent":8361,"sus":8362,"wonderful":8363,"weigh":8364,"albert":8365,"tomorrow":8366,"rarely":8367,"explicit":8368,"##64":8369,"unusual":8370,"greg":8371,"framework":8372,"ranked":8373,"welf":8374,"scenario":8375,"jay":8376,"rook":8377,"##ulating":8378,"grid":8379,"contracts":8380,"principle":8381,"##etime":8382,"rif":8383,"vert":8384,"reddit":8385,"##thy":8386,"lind":8387,"##gorith":8388,"loyal":8389,"cited":8390,"##che":8391,"pounds":8392,"ghost":8393,"processes":8394,"delay":8395,"doors":8396,"fc":8397,"producing":8398,"computers":8399,"circuit":8400,"holiday":8401,"welfare":8402,"whenever":8403,"algorith":8404,"visible":8405,"reader":8406,"expectations":8407,"chees":8408,"stations":8409,"##itals":8410,"84":8411,"##idency":8412,"alph":8413,"km":8414,"dragon":8415,"destruction":8416,"clubs":8417,"arsen":8418,"700":8419,"stable":8420,"circle":8421,"define":8422,"2019":8423,"permission":8424,"ko":8425,"vital":8426,"boot":8427,"cameras":8428,"liberty":8429,"enjoyed":8430,"##eda":8431,"episodes":8432,"bind":8433,"feelings":8434,"abb":8435,"alabama":8436,"compete":8437,"pig":8438,"exception":8439,"journalist":8440,"saved":8441,"racist":8442,"enorm":8443,"atlanta":8444,"retired":8445,"innovation":8446,"chip":8447,"menu":8448,"creates":8449,"genu":8450,"##bal":8451,"##ibilities":8452,"87":8453,"hitting":8454,"guardian":8455,"presum":8456,"adopted":8457,"racing":8458,"##sea":8459,"portion":8460,"breath":8461,"##eries":8462,"shit":8463,"82":8464,"emerged":8465,"aspect":8466,"regulation":8467,"sensitive":8468,"##lyn":8469,"120":8470,"##iration":8471,"##otted":8472,"bernie":8473,"mars":8474,"formal":8475,"apparent":8476,"screens":8477,"espn":8478,"laid":8479,"physic":8480,"bloom":8481,"warrant":8482,"losses":8483,"entering":8484,"qa":8485,"exem":8486,"containing":8487,"newsletter":8488,"landsc":8489,"ethnic":8490,"describes":8491,"firms":8492,"ka":8493,"resulted":8494,"cs":8495,"##stit":8496,"##areness":8497,"ingred":8498,"invas":8499,"rice":8500,"footage":8501,"turkish":8502,"walls":8503,"reven":8504,"exit":8505,"amid":8506,"arena":8507,"transit":8508,"hadn":8509,"profession":8510,"##lec":8511,"dynamic":8512,"alert":8513,"rend":8514,"##sole":8515,"ai":8516,"##ashing":8517,"bund":8518,"gent":8519,"roy":8520,"##ifications":8521,"fiscal":8522,"scholars":8523,"awareness":8524,"ships":8525,"liked":8526,"horror":8527,"bub":8528,"zealand":8529,"iii":8530,"smoke":8531,"transgender":8532,"##entic":8533,"collective":8534,"protocol":8535,"banned":8536,"gif":8537,"ward":8538,"anthony":8539,"guest":8540,"participate":8541,"commander":8542,"##athy":8543,"fighter":8544,"quote":8545,"languages":8546,"minds":8547,"##lete":8548,"licens":8549,"patrick":8550,"trem":8551,"##ector":8552,"obam":8553,"withdraw":8554,"bail":8555,"outl":8556,"interviews":8557,"contained":8558,"papers":8559,"##olis":8560,"gained":8561,"logic":8562,"featuring":8563,"rocket":8564,"shirt":8565,"lobby":8566,"1996":8567,"trained":8568,"superv":8569,"naturally":8570,"mining":8571,"walker":8572,"flaw":8573,"cogn":8574,"listening":8575,"##ifies":8576,"lucky":8577,"waters":8578,"recognition":8579,"ufc":8580,"##ci":8581,"boat":8582,"terrorists":8583,"nato":8584,"lux":8585,"saving":8586,"##ni":8587,"gp":8588,"anonymous":8589,"noise":8590,"rural":8591,"##antic":8592,"roles":8593,"recognized":8594,"gonna":8595,"recommended":8596,"##uctive":8597,"tackle":8598,"layer":8599,"rescue":8600,"##ilton":8601,"distur":8602,"##ivals":8603,"uncertain":8604,"feb":8605,"declar":8606,"struggling":8607,"phenomen":8608,"inner":8609,"barely":8610,"hurr":8611,"kitch":8612,"##thr":8613,"diversity":8614,"1997":8615,"inquir":8616,"stupid":8617,"##osexual":8618,"ft":8619,"marg":8620,"conspiracy":8621,"headqu":8622,"equally":8623,"mccain":8624,"prepare":8625,"scan":8626,"wides":8627,"corporations":8628,"##agger":8629,"technique":8630,"kansas":8631,"centers":8632,"##aham":8633,"beliefs":8634,"crown":8635,"behalf":8636,"santa":8637,"pier":8638,"diego":8639,"lists":8640,"##auc":8641,"reducing":8642,"##ji":8643,"incent":8644,"98":8645,"proven":8646,"console":8647,"movements":8648,"narrow":8649,"porn":8650,"collapse":8651,"##aska":8652,"##val":8653,"neck":8654,"austin":8655,"##wa":8656,"anybody":8657,"till":8658,"cm":8659,"horiz":8660,"practical":8661,"##fit":8662,"tonight":8663,"elig":8664,"dol":8665,"fantastic":8666,"drum":8667,"##imore":8668,"92":8669,"frag":8670,"hung":8671,"christians":8672,"hired":8673,"settlement":8674,"##rete":8675,"latin":8676,"roads":8677,"##berry":8678,"##umin":8679,"##pread":8680,"structures":8681,"missile":8682,"##burgh":8683,"sams":8684,"unemployment":8685,"inject":8686,"89":8687,"registr":8688,"alter":8689,"83":8690,"casual":8691,"86":8692,"ross":8693,"cigar":8694,"fruit":8695,"reprod":8696,"equality":8697,"brill":8698,"##anny":8699,"joining":8700,"swim":8701,"##king":8702,"##fire":8703,"indicate":8704,"challenging":8705,"nominee":8706,"viewers":8707,"##person":8708,"conven":8709,"visitors":8710,"hardly":8711,"##azz":8712,"opens":8713,"achieved":8714,"##chain":8715,"beauty":8716,"##ico":8717,"xbox":8718,"##igen":8719,"upgrade":8720,"scandal":8721,"cav":8722,"versus":8723,"bonus":8724,"forgot":8725,"foss":8726,"illness":8727,"allen":8728,"##donald":8729,"revel":8730,"suffer":8731,"password":8732,"improvement":8733,"marks":8734,"tone":8735,"restrictions":8736,"nsa":8737,"corporation":8738,"##icial":8739,"##the":8740,"##acare":8741,"devast":8742,"upset":8743,"##oen":8744,"domain":8745,"temporary":8746,"cu":8747,"genes":8748,"appoint":8749,"blocked":8750,"scores":8751,"##estr":8752,"##asters":8753,"depos":8754,"widespread":8755,"convicted":8756,"jury":8757,"whereas":8758,"improvements":8759,"spiritual":8760,"##erts":8761,"hunt":8762,"mitch":8763,"dave":8764,"cameron":8765,"convin":8766,"##oric":8767,"##ami":8768,"websites":8769,"referring":8770,"ownership":8771,"##orse":8772,"dick":8773,"plain":8774,"manif":8775,"courtesy":8776,"rational":8777,"failing":8778,"gray":8779,"61":8780,"##etts":8781,"vanc":8782,"heroes":8783,"authentic":8784,"lun":8785,"subjects":8786,"##opher":8787,"subur":8788,"##sylv":8789,"sed":8790,"chicken":8791,"bears":8792,"surf":8793,"settle":8794,"humanity":8795,"interior":8796,"obamacare":8797,"economics":8798,"commissioner":8799,"heading":8800,"campaigns":8801,"pennsylv":8802,"spaces":8803,"genetic":8804,"##uch":8805,"meg":8806,"carefully":8807,"##iner":8808,"##agement":8809,"blank":8810,"overwhelming":8811,"firef":8812,"parad":8813,"fortun":8814,"##aire":8815,"contribute":8816,"connections":8817,"uncon":8818,"advocates":8819,"burning":8820,"personality":8821,"intervention":8822,"ridicul":8823,"dece":8824,"asks":8825,"assad":8826,"publication":8827,"##24":8828,"monster":8829,"sony":8830,"baltimore":8831,"##life":8832,"budd":8833,"javas":8834,"suggesting":8835,"ignore":8836,"cream":8837,"tracking":8838,"incorpor":8839,"##endum":8840,"jenn":8841,"mathem":8842,"tips":8843,"complaints":8844,"lunch":8845,"##ologists":8846,"surely":8847,"indicated":8848,"drama":8849,"rapidly":8850,"behaviour":8851,"1995":8852,"intense":8853,"aged":8854,"stol":8855,"ios":8856,"ups":8857,"pix":8858,"nin":8859,"assass":8860,"controversy":8861,"##pi":8862,"rolling":8863,"echo":8864,"vary":8865,"anderson":8866,"fears":8867,"##phones":8868,"swing":8869,"lets":8870,"chamber":8871,"##isa":8872,"##esc":8873,"##veland":8874,"pocket":8875,"begun":8876,"fallen":8877,"musical":8878,"actors":8879,"gut":8880,"fault":8881,"dal":8882,"philipp":8883,"20th":8884,"colors":8885,"hip":8886,"closing":8887,"voter":8888,"##ouver":8889,"symptoms":8890,"dj":8891,"tes":8892,"pennsylvania":8893,"##ials":8894,"samples":8895,"globe":8896,"javascript":8897,"##iler":8898,"haz":8899,"notion":8900,"cleveland":8901,"exceed":8902,"##ogan":8903,"##ho":8904,"activist":8905,"wages":8906,"##uild":8907,"assessment":8908,"##70":8909,"topics":8910,"##nc":8911,"samsung":8912,"bars":8913,"testim":8914,"##bled":8915,"tasks":8916,"throwing":8917,"temple":8918,"##oning":8919,"keys":8920,"pound":8921,"cabinet":8922,"lewis":8923,"adventure":8924,"portr":8925,"ages":8926,"ramp":8927,"dump":8928,"guitar":8929,"superior":8930,"unclear":8931,"1990s":8932,"spo":8933,"islands":8934,"absolute":8935,"attacking":8936,"glad":8937,"##wan":8938,"deeper":8939,"blast":8940,"##ested":8941,"imperial":8942,"coaches":8943,"involvement":8944,"persist":8945,"overt":8946,"iranian":8947,"vancouver":8948,"harris":8949,"tut":8950,"##iating":8951,"summit":8952,"butter":8953,"besides":8954,"##ounting":8955,"##hal":8956,"##east":8957,"performing":8958,"pul":8959,"prosecutors":8960,"93":8961,"thrown":8962,"accompan":8963,"kenned":8964,"stake":8965,"convinced":8966,"##eds":8967,"ruby":8968,"literature":8969,"investigate":8970,"serves":8971,"touchdown":8972,"virtually":8973,"paralle":8974,"canc":8975,"arabia":8976,"##iser":8977,"toy":8978,"##udes":8979,"##itors":8980,"howard":8981,"salary":8982,"greece":8983,"##thon":8984,"cul":8985,"##ounced":8986,"profits":8987,"##achus":8988,"fulf":8989,"legitimate":8990,"legs":8991,"##ima":8992,"rear":8993,"lam":8994,"wash":8995,"extensive":8996,"expanded":8997,"surviv":8998,"respectively":8999,"hd":9000,"impl":9001,"##ione":9002,"ambass":9003,"inflation":9004,"foods":9005,"gallery":9006,"invited":9007,"vegas":9008,"cryst":9009,"powered":9010,"discussions":9011,"pride":9012,"implemented":9013,"96":9014,"94":9015,"buzz":9016,"##see":9017,"##emon":9018,"pink":9019,"horn":9020,"annivers":9021,"threatening":9022,"survival":9023,"platforms":9024,"##riers":9025,"accus":9026,"extend":9027,"columbia":9028,"##py":9029,"justin":9030,"attempting":9031,"estimate":9032,"attached":9033,"chel":9034,"arsenal":9035,"exclud":9036,"opinions":9037,"dramatic":9038,"##ycle":9039,"racism":9040,"##acon":9041,"loans":9042,"compare":9043,"judges":9044,"lying":9045,"##mate":9046,"##berts":9047,"efficiency":9048,"skept":9049,"1994":9050,"vib":9051,"kitchen":9052,"kennedy":9053,"senators":9054,"##fa":9055,"monthly":9056,"gaza":9057,"substantial":9058,"##arrass":9059,"hydr":9060,"jar":9061,"illin":9062,"gt":9063,"pel":9064,"remarks":9065,"embarrass":9066,"shoulder":9067,"artific":9068,"protein":9069,"healthcare":9070,"monitoring":9071,"highlights":9072,"##bar":9073,"pour":9074,"races":9075,"tie":9076,"bread":9077,"homeless":9078,"elder":9079,"tens":9080,"giants":9081,"##ulus":9082,"mood":9083,"scope":9084,"tri":9085,"highway":9086,"1st":9087,"usage":9088,"massachus":9089,"petition":9090,"civilians":9091,"##lessly":9092,"js":9093,"##99":9094,"distributed":9095,"junior":9096,"massachusetts":9097,"providers":9098,"viewed":9099,"ss":9100,"shout":9101,"gathered":9102,"leaf":9103,"##ika":9104,"2nd":9105,"##net":9106,"handling":9107,"ballot":9108,"enormous":9109,"1980s":9110,"sarah":9111,"appointed":9112,"fool":9113,"hug":9114,"seemingly":9115,"anniversary":9116,"##season":9117,"lowest":9118,"virus":9119,"suspected":9120,"loop":9121,"disrupt":9122,"##ihad":9123,"toxic":9124,"mock":9125,"spoken":9126,"corp":9127,"instrument":9128,"nam":9129,"purchased":9130,"tweeted":9131,"programme":9132,"boom":9133,"noting":9134,"handful":9135,"subsequent":9136,"##alid":9137,"headquarters":9138,"protecting":9139,"beta":9140,"hyper":9141,"filter":9142,"gor":9143,"grounds":9144,"##eding":9145,"whis":9146,"forb":9147,"afp":9148,"secondary":9149,"covers":9150,"careful":9151,"smoking":9152,"suspended":9153,"mt":9154,"investigating":9155,"bacter":9156,"referendum":9157,"industries":9158,"reads":9159,"atlantic":9160,"ast":9161,"offices":9162,"illinois":9163,"colour":9164,"myster":9165,"obtain":9166,"admit":9167,"ark":9168,"presidency":9169,"##rets":9170,"membership":9171,"abstr":9172,"##lu":9173,"denver":9174,"mrs":9175,"vel":9176,"improving":9177,"hob":9178,"pharm":9179,"formula":9180,"module":9181,"sword":9182,"##ucky":9183,"clothes":9184,"satellite":9185,"ordinary":9186,"shopping":9187,"rookie":9188,"locked":9189,"attitude":9190,"speaks":9191,"pipeline":9192,"fate":9193,"cinem":9194,"pdf":9195,"##away":9196,"frequency":9197,"cock":9198,"symp":9199,"##ito":9200,"revol":9201,"1990":9202,"conversations":9203,"universities":9204,"mexican":9205,"belt":9206,"depends":9207,"##lah":9208,"bold":9209,"absence":9210,"gains":9211,"resign":9212,"contributions":9213,"replacement":9214,"birds":9215,"blockchain":9216,"synth":9217,"jonathan":9218,"##hd":9219,"##mar":9220,"export":9221,"checks":9222,"preced":9223,"##ington":9224,"picks":9225,"banking":9226,"margin":9227,"##aze":9228,"shame":9229,"coin":9230,"silence":9231,"iraqi":9232,"ou":9233,"enterprise":9234,"legislative":9235,"guarantee":9236,"vin":9237,"##usted":9238,"repeal":9239,"portland":9240,"joke":9241,"desert":9242,"kiss":9243,"acid":9244,"divided":9245,"nintend":9246,"epic":9247,"bullet":9248,"passengers":9249,"hurric":9250,"surge":9251,"publishing":9252,"gene":9253,"##losure":9254,"scientist":9255,"twist":9256,"templ":9257,"architecture":9258,"objective":9259,"##jo":9260,"consistently":9261,"##itage":9262,"covering":9263,"ratio":9264,"liberals":9265,"##ommod":9266,"mol":9267,"##umes":9268,"dv":9269,"##vere":9270,"breach":9271,"encry":9272,"involves":9273,"warn":9274,"butt":9275,"promises":9276,"prol":9277,"clinical":9278,"stayed":9279,"##lar":9280,"utah":9281,"encounter":9282,"##uma":9283,"##ila":9284,"accommod":9285,"incidents":9286,"landing":9287,"ug":9288,"bible":9289,"soil":9290,"tier":9291,"liverpool":9292,"cru":9293,"##otype":9294,"alexander":9295,"unions":9296,"mall":9297,"##aron":9298,"nintendo":9299,"carl":9300,"##xit":9301,"addressed":9302,"##ystem":9303,"autonom":9304,"micro":9305,"##acc":9306,"por":9307,"##zy":9308,"rhet":9309,"##iang":9310,"acquired":9311,"transactions":9312,"uber":9313,"entrepr":9314,"smile":9315,"stolen":9316,"tries":9317,"prox":9318,"java":9319,"cooperation":9320,"mistakes":9321,"responses":9322,"conventional":9323,"repeat":9324,"abandoned":9325,"instructions":9326,"vig":9327,"temperatures":9328,"kit":9329,"indiana":9330,"persons":9331,"dw":9332,"absor":9333,"node":9334,"vit":9335,"gord":9336,"jet":9337,"##iy":9338,"receiver":9339,"communist":9340,"null":9341,"disorder":9342,"##othing":9343,"entreprene":9344,"lever":9345,"breaks":9346,"encouraged":9347,"appreciate":9348,"##inely":9349,"ranks":9350,"dates":9351,"recipe":9352,"##oop":9353,"mask":9354,"roberts":9355,"managing":9356,"graduate":9357,"graphics":9358,"moreover":9359,"proph":9360,"documentary":9361,"repair":9362,"investigations":9363,"dear":9364,"spokesperson":9365,"borders":9366,"desc":9367,"politically":9368,"assign":9369,"##flix":9370,"helpful":9371,"revolutionary":9372,"commonly":9373,"cosm":9374,"roof":9375,"1992":9376,"rug":9377,"mans":9378,"metro":9379,"engineers":9380,"pope":9381,"unr":9382,"ranking":9383,"##ifer":9384,"##osc":9385,"reverse":9386,"sean":9387,"beij":9388,"nutr":9389,"employed":9390,"tape":9391,"kong":9392,"producers":9393,"instant":9394,"inequ":9395,"##ira":9396,"##ql":9397,"appe":9398,"chest":9399,"jere":9400,"gab":9401,"childhood":9402,"ratings":9403,"andre":9404,"sufficient":9405,"organic":9406,"snap":9407,"retirement":9408,"uc":9409,"poison":9410,"deficit":9411,"measured":9412,"##65":9413,"beijing":9414,"osc":9415,"compat":9416,"copies":9417,"##erce":9418,"netflix":9419,"sweden":9420,"accomplish":9421,"letting":9422,"counts":9423,"##ester":9424,"visiting":9425,"steven":9426,"sixth":9427,"ontario":9428,"##alo":9429,"merch":9430,"pron":9431,"upload":9432,"fisher":9433,"priest":9434,"cheese":9435,"corps":9436,"brilliant":9437,"##front":9438,"##angel":9439,"eliz":9440,"##col":9441,"threw":9442,"jihad":9443,"diverse":9444,"municip":9445,"##wich":9446,"sequence":9447,"warren":9448,"landscape":9449,"streaming":9450,"hamp":9451,"supplies":9452,"reliable":9453,"##cy":9454,"targeting":9455,"releases":9456,"irr":9457,"representing":9458,"graham":9459,"syd":9460,"vet":9461,"han":9462,"71":9463,"comprehensive":9464,"gulf":9465,"stages":9466,"fleet":9467,"##22":9468,"oklah":9469,"dreams":9470,"tactics":9471,"classified":9472,"deadly":9473,"prompt":9474,"cher":9475,"concert":9476,"replic":9477,"underground":9478,"monet":9479,"##eb":9480,"edward":9481,"##anna":9482,"gathering":9483,"##abeth":9484,"ignored":9485,"kurd":9486,"batman":9487,"aqu":9488,"acknowledged":9489,"unexp":9490,"##ched":9491,"concrete":9492,"anxiety":9493,"sd":9494,"semi":9495,"##ieties":9496,"vari":9497,"hunting":9498,"##mes":9499,"firing":9500,"scroll":9501,"capitalism":9502,"dutch":9503,"1993":9504,"cancel":9505,"proposals":9506,"chelsea":9507,"nomination":9508,"url":9509,"towns":9510,"associate":9511,"fing":9512,"odds":9513,"studied":9514,"savings":9515,"##iano":9516,"##mun":9517,"electoral":9518,"##uted":9519,"principal":9520,"chocol":9521,"##bits":9522,"capit":9523,"voices":9524,"prisoners":9525,"stability":9526,"##gun":9527,"heritage":9528,"provision":9529,"##hy":9530,"statist":9531,"titled":9532,"demonstrated":9533,"recre":9534,"incomp":9535,"dies":9536,"python":9537,"theater":9538,"appearances":9539,"capabilities":9540,"##agu":9541,"bruce":9542,"swift":9543,"submitted":9544,"correl":9545,"shipping":9546,"kings":9547,"gary":9548,"restaurants":9549,"dual":9550,"relax":9551,"mystery":9552,"innocent":9553,"stats":9554,"puzz":9555,"spectrum":9556,"##tes":9557,"arrive":9558,"ay":9559,"memo":9560,"importantly":9561,"propaganda":9562,"soldier":9563,"channels":9564,"hamilton":9565,"engineer":9566,"exchang":9567,"abroad":9568,"waves":9569,"##000":9570,"unt":9571,"sel":9572,"drone":9573,"nev":9574,"playoffs":9575,"oklahoma":9576,"parks":9577,"unexpected":9578,"alloc":9579,"overseas":9580,"##inction":9581,"mirror":9582,"len":9583,"leon":9584,"ambassador":9585,"burden":9586,"silent":9587,"##urray":9588,"mortg":9589,"execution":9590,"1970s":9591,"oc":9592,"kilomet":9593,"3rd":9594,"olympic":9595,"educational":9596,"servers":9597,"stamp":9598,"experiments":9599,"brexit":9600,"tam":9601,"outrage":9602,"nu":9603,"violation":9604,"whit":9605,"focusing":9606,"designs":9607,"##shire":9608,"pap":9609,"riding":9610,"unpre":9611,"additionally":9612,"harvard":9613,"calm":9614,"maryland":9615,"dying":9616,"contrad":9617,"marx":9618,"gil":9619,"##vp":9620,"athletes":9621,"testimony":9622,"lands":9623,"adap":9624,"entitled":9625,"synd":9626,"trials":9627,"180":9628,"torture":9629,"arbit":9630,"instagram":9631,"##usalem":9632,"bish":9633,"##bow":9634,"nur":9635,"regulatory":9636,"##bell":9637,"discour":9638,"##elson":9639,"2020":9640,"criticized":9641,"insisted":9642,"anarch":9643,"anna":9644,"strategies":9645,"judgment":9646,"chaos":9647,"replied":9648,"generations":9649,"jerusalem":9650,"##ela":9651,"celebrate":9652,"setup":9653,"berlin":9654,"belg":9655,"roots":9656,"charity":9657,"emerging":9658,"carter":9659,"predicted":9660,"memorial":9661,"molec":9662,"tob":9663,"psychological":9664,"##eli":9665,"##enez":9666,"abilities":9667,"rebels":9668,"bias":9669,"stere":9670,"mah":9671,"therapy":9672,"trends":9673,"hoped":9674,"summary":9675,"##mans":9676,"grey":9677,"guidelines":9678,"##oper":9679,"189":9680,"wider":9681,"##imp":9682,"lon":9683,"##uces":9684,"errors":9685,"unity":9686,"vend":9687,"lift":9688,"killer":9689,"preparing":9690,"wealthy":9691,"forcing":9692,"sweep":9693,"signature":9694,"##esty":9695,"civilian":9696,"##icop":9697,"knee":9698,"battles":9699,"simon":9700,"exha":9701,"vess":9702,"dismissed":9703,"requested":9704,"consent":9705,"dialogue":9706,"##ipts":9707,"hosted":9708,"formation":9709,"consensus":9710,"##arms":9711,"thorough":9712,"##isely":9713,"introduce":9714,"##iro":9715,"deem":9716,"hence":9717,"coinc":9718,"populations":9719,"##bridge":9720,"tamp":9721,"socialist":9722,"distingu":9723,"##gy":9724,"drove":9725,"rounds":9726,"##isons":9727,"harassment":9728,"sydney":9729,"fame":9730,"nap":9731,"pointing":9732,"##eters":9733,"physics":9734,"smartphone":9735,"dup":9736,"##hand":9737,"rooms":9738,"##ali":9739,"procedure":9740,"agriculture":9741,"phoen":9742,"ingredients":9743,"spokeswoman":9744,"##rick":9745,"##aga":9746,"qaeda":9747,"##itzer":9748,"tables":9749,"athe":9750,"difficulty":9751,"escal":9752,"wings":9753,"##active":9754,"organisation":9755,"holl":9756,"void":9757,"categories":9758,"morgan":9759,"##mont":9760,"pear":9761,"urged":9762,"deny":9763,"##irts":9764,"hong":9765,"##vereign":9766,"fled":9767,"vik":9768,"##post":9769,"quoted":9770,"finals":9771,"staying":9772,"boe":9773,"intim":9774,"popularity":9775,"##icon":9776,"sovereign":9777,"##ograp":9778,"polar":9779,"hunter":9780,"##theless":9781,"picking":9782,"enhance":9783,"##lock":9784,"charlie":9785,"actively":9786,"tennes":9787,"##mony":9788,"expanding":9789,"jets":9790,"nevertheless":9791,"phrase":9792,"pursue":9793,"##ills":9794,"sheet":9795,"simult":9796,"discl":9797,"wise":9798,"insert":9799,"escap":9800,"desktop":9801,"amy":9802,"ceremony":9803,"cauc":9804,"golf":9805,"memories":9806,"lav":9807,"ub":9808,"##angers":9809,"citing":9810,"tu":9811,"##igue":9812,"transaction":9813,"investments":9814,"arbitr":9815,"vietnam":9816,"resem":9817,"simultane":9818,"chuck":9819,"commerce":9820,"moderate":9821,"solo":9822,"##tc":9823,"scottish":9824,"nazi":9825,"striking":9826,"reveals":9827,"boun":9828,"analysts":9829,"dating":9830,"registration":9831,"designer":9832,"revers":9833,"witnesses":9834,"notable":9835,"demanding":9836,"spots":9837,"##inder":9838,"##comes":9839,"supplement":9840,"defending":9841,"##ibl":9842,"##tenance":9843,"jacob":9844,"##unction":9845,"orth":9846,"settled":9847,"kenn":9848,"approached":9849,"todd":9850,"bio":9851,"mere":9852,"##fol":9853,"##ng":9854,"maintained":9855,"fossil":9856,"arguing":9857,"wol":9858,"participation":9859,"##lan":9860,"furthermore":9861,"1991":9862,"bottle":9863,"##state":9864,"trillion":9865,"matthew":9866,"promoting":9867,"reforms":9868,"elizabeth":9869,"oakland":9870,"##eria":9871,"passage":9872,"possess":9873,"diamond":9874,"md":9875,"homosexual":9876,"embed":9877,"physically":9878,"##gent":9879,"deadline":9880,"cra":9881,"persu":9882,"contemporary":9883,"biological":9884,"phenomenon":9885,"dock":9886,"##mi":9887,"hire":9888,"implications":9889,"singer":9890,"muscle":9891,"stew":9892,"static":9893,"inches":9894,"##ova":9895,"precisely":9896,"variable":9897,"##icking":9898,"clothing":9899,"ni":9900,"donations":9901,"managers":9902,"cens":9903,"tremend":9904,"stored":9905,"dependent":9906,"##aka":9907,"patrol":9908,"yemen":9909,"divor":9910,"thomp":9911,"presentation":9912,"eligible":9913,"##eff":9914,"delhi":9915,"chocolate":9916,"artificial":9917,"phoenix":9918,"fabric":9919,"extraord":9920,"##atar":9921,"tired":9922,"lapt":9923,"diseases":9924,"1000":9925,"argues":9926,"drives":9927,"110":9928,"substance":9929,"##33":9930,"executives":9931,"broader":9932,"athletic":9933,"wounded":9934,"palestinians":9935,"bass":9936,"murray":9937,"searching":9938,"questioned":9939,"differently":9940,"animation":9941,"contrary":9942,"##icate":9943,"egg":9944,"accessible":9945,"dy":9946,"##iti":9947,"dominated":9948,"##apolis":9949,"hud":9950,"asset":9951,"misc":9952,"contribution":9953,"nurs":9954,"journalism":9955,"lect":9956,"##86":9957,"awarded":9958,"bump":9959,"promising":9960,"alan":9961,"thompson":9962,"wanting":9963,"mouse":9964,"credits":9965,"assigned":9966,"deserve":9967,"cum":9968,"competing":9969,"legally":9970,"birthday":9971,"recruit":9972,"gordon":9973,"invasion":9974,"manifest":9975,"clash":9976,"caps":9977,"tiss":9978,"consideration":9979,"tweets":9980,"utility":9981,"coaching":9982,"scratch":9983,"studios":9984,"comey":9985,"damaged":9986,"creator":9987,"missions":9988,"gest":9989,"reserved":9990,"sorts":9991,"hospitals":9992,"salv":9993,"ja":9994,"wet":9995,"inquiry":9996,"remarkable":9997,"epa":9998,"everyday":9999,"hawai":10000,"genre":10001,"asc":10002,"obsc":10003,"timing":10004,"insight":10005,"enabled":10006,"hart":10007,"awa":10008,"gn":10009,"lifetime":10010,"hr":10011,"enthusi":10012,"defeated":10013,"demonstrate":10014,"##ahu":10015,"##âãâãâãâã":10016,"tang":10017,"fatal":10018,"##ria":10019,"occasionally":10020,"rt":10021,"guards":10022,"nat":10023,"##ielder":10024,"nan":10025,"irre":10026,"submit":10027,"creatures":10028,"maintenance":10029,"lov":10030,"##teen":10031,"diab":10032,"russell":10033,"bart":10034,"dominant":10035,"19th":10036,"##ecraft":10037,"cc":10038,"undert":10039,"andy":10040,"adviser":10041,"infant":10042,"dispute":10043,"greatly":10044,"ku":10045,"nerv":10046,"grace":10047,"unfair":10048,"meaningful":10049,"struggled":10050,"parallel":10051,"invalid":10052,"analyz":10053,"sie":10054,"tennessee":10055,"##oto":10056,"bother":10057,"defender":10058,"manh":10059,"##athers":10060,"fried":10061,"##obe":10062,"gem":10063,"aaron":10064,"dash":10065,"facilit":10066,"bic":10067,"endorse":10068,"##inating":10069,"studying":10070,"stepped":10071,"extraordinary":10072,"centuries":10073,"pitts":10074,"libya":10075,"nod":10076,"punishment":10077,"##etically":10078,"anch":10079,"chase":10080,"tempor":10081,"assumed":10082,"explaining":10083,"logo":10084,"theories":10085,"cort":10086,"##fare":10087,"phill":10088,"eggs":10089,"tons":10090,"consciousness":10091,"##power":10092,"pulling":10093,"##fast":10094,"prosecutor":10095,"beating":10096,"helicop":10097,"legislature":10098,"bj":10099,"sections":10100,"perception":10101,"burst":10102,"um":10103,"##ouri":10104,"shoes":10105,"##acking":10106,"pentagon":10107,"suspects":10108,"##rooms":10109,"procedures":10110,"mls":10111,"arrival":10112,"ukrain":10113,"followers":10114,"##orship":10115,"##aug":10116,"contacted":10117,"##izer":10118,"rud":10119,"##aying":10120,"ministers":10121,"neighbors":10122,"shaped":10123,"81":10124,"##right":10125,"backing":10126,"integrity":10127,"gib":10128,"angle":10129,"##oat":10130,"sod":10131,"lap":10132,"keen":10133,"##station":10134,"advocate":10135,"harr":10136,"loves":10137,"php":10138,"indicates":10139,"ky":10140,"charlott":10141,"pollution":10142,"partly":10143,"##etical":10144,"configuration":10145,"euro":10146,"discussing":10147,"drunk":10148,"addresses":10149,"##istol":10150,"atom":10151,"##acco":10152,"bh":10153,"##ean":10154,"evident":10155,"openly":10156,"theatre":10157,"sustainable":10158,"##gi":10159,"fundra":10160,"preferred":10161,"segment":10162,"removal":10163,"harper":10164,"perceived":10165,"##ecute":10166,"lessons":10167,"ease":10168,"##fo":10169,"appeals":10170,"custody":10171,"patent":10172,"biz":10173,"##aved":10174,"hin":10175,"volunteers":10176,"modified":10177,"trek":10178,"ry":10179,"manufacturers":10180,"wedding":10181,"treasury":10182,"refugee":10183,"dirty":10184,"stops":10185,"impression":10186,"hp":10187,"cognitive":10188,"##asty":10189,"conservation":10190,"##erning":10191,"substit":10192,"unlock":10193,"integration":10194,"##no":10195,"unpreced":10196,"torn":10197,"zomb":10198,"compensation":10199,"unprecedented":10200,"corrupt":10201,"bc":10202,"interaction":10203,"guests":10204,"advertisements":10205,"mate":10206,"ridiculous":10207,"##ibutes":10208,"cass":10209,"cord":10210,"weakness":10211,"wiz":10212,"khan":10213,"##bury":10214,"convert":10215,"1989":10216,"##eted":10217,"wireless":10218,"nose":10219,"billions":10220,"kentucky":10221,"liv":10222,"cole":10223,"wales":10224,"manual":10225,"hed":10226,"promotion":10227,"underlying":10228,"automatic":10229,"permit":10230,"##die":10231,"clip":10232,"gates":10233,"accord":10234,"##ographer":10235,"imposed":10236,"jean":10237,"##print":10238,"routine":10239,"citation":10240,"##rell":10241,"certific":10242,"concepts":10243,"podcast":10244,"gad":10245,"tai":10246,"##obi":10247,"##owski":10248,"##backs":10249,"peer":10250,"jeremy":10251,"scrut":10252,"dm":10253,"migrants":10254,"##estyle":10255,"sink":10256,"##akh":10257,"signals":10258,"queens":10259,"oz":10260,"checking":10261,"##aki":10262,"gi":10263,"packed":10264,"##aving":10265,"employers":10266,"controller":10267,"millenn":10268,"##achel":10269,"hanging":10270,"orland":10271,"reserv":10272,"maxim":10273,"lesson":10274,"mountains":10275,"montreal":10276,"keyboard":10277,"##fers":10278,"beings":10279,"mathemat":10280,"loaded":10281,"worlds":10282,"bot":10283,"tale":10284,"##name":10285,"cous":10286,"##esth":10287,"gdp":10288,"scholar":10289,"stance":10290,"rou":10291,"indigen":10292,"dil":10293,"bone":10294,"##hot":10295,"##omes":10296,"ethics":10297,"embass":10298,"##dam":10299,"rhetoric":10300,"dean":10301,"##osystem":10302,"knight":10303,"utter":10304,"mice":10305,"capitol":10306,"##ylum":10307,"venez":10308,"##ctic":10309,"##ucc":10310,"lag":10311,"frequent":10312,"preview":10313,"##lee":10314,"##ourne":10315,"nowhere":10316,"requirement":10317,"traged":10318,"craig":10319,"##holders":10320,"cree":10321,"honestly":10322,"collaboration":10323,"##omed":10324,"grave":10325,"constitu":10326,"breast":10327,"##orous":10328,"benefic":10329,"##odox":10330,"brands":10331,"lineup":10332,"triple":10333,"##90":10334,"requiring":10335,"rated":10336,"##imm":10337,"resolve":10338,"diplomatic":10339,"##osa":10340,"foster":10341,"recommendations":10342,"backs":10343,"loading":10344,"##oln":10345,"integrated":10346,"wildlife":10347,"surprisingly":10348,"##itudes":10349,"reply":10350,"inequality":10351,"prospects":10352,"##urd":10353,"brooklyn":10354,"shocked":10355,"eliminate":10356,"badly":10357,"beast":10358,"collaps":10359,"posting":10360,"inters":10361,"unh":10362,"duke":10363,"ipad":10364,"antonio":10365,"1980":10366,"answered":10367,"laboratory":10368,"representation":10369,"overcome":10370,"scor":10371,"meal":10372,"sciences":10373,"bits":10374,"infect":10375,"choosing":10376,"assuming":10377,"linc":10378,"indigenous":10379,"explosion":10380,"talented":10381,"warriors":10382,"##iture":10383,"cave":10384,"nik":10385,"tesla":10386,"##annon":10387,"bombs":10388,"vocal":10389,"##lining":10390,"##po":10391,"##alia":10392,"##erving":10393,"reviewed":10394,"##23":10395,"publ":10396,"cad":10397,"twin":10398,"blocking":10399,"venezuel":10400,"asylum":10401,"traveling":10402,"argent":10403,"minimal":10404,"scout":10405,"sponsored":10406,"conclus":10407,"camps":10408,"neighbour":10409,"##iary":10410,"periods":10411,"momentum":10412,"gill":10413,"##bec":10414,"printed":10415,"sentenced":10416,"disappointed":10417,"fert":10418,"whist":10419,"orch":10420,"knife":10421,"recession":10422,"witch":10423,"creature":10424,"removing":10425,"quit":10426,"reagan":10427,"colleg":10428,"attractive":10429,"wikile":10430,"treaty":10431,"instances":10432,"occurs":10433,"hello":10434,"gameplay":10435,"acquis":10436,"oxy":10437,"approaches":10438,"encouraging":10439,"obst":10440,"holes":10441,"hills":10442,"damn":10443,"unve":10444,"fights":10445,"beck":10446,"usb":10447,"earthqu":10448,"orlando":10449,"pittsburgh":10450,"ranging":10451,"desperate":10452,"##rett":10453,"crop":10454,"outlets":10455,"borrow":10456,"spac":10457,"##77":10458,"##iley":10459,"psychiat":10460,"harsh":10461,"subsequently":10462,"jane":10463,"sne":10464,"venture":10465,"emphasis":10466,"professionals":10467,"restrict":10468,"chronic":10469,"kal":10470,"dropping":10471,"rebel":10472,"pregnant":10473,"resort":10474,"craw":10475,"maintaining":10476,"##44":10477,"curious":10478,"spy":10479,"wikileaks":10480,"cb":10481,"intercept":10482,"ecosystem":10483,"##ports":10484,"eager":10485,"tum":10486,"##ateral":10487,"confused":10488,"convince":10489,"describing":10490,"boxes":10491,"trailer":10492,"hitler":10493,"##star":10494,"##uten":10495,"ancest":10496,"municipal":10497,"carries":10498,"couples":10499,"yah":10500,"##ettes":10501,"brutal":10502,"concerning":10503,"christopher":10504,"dot":10505,"calend":10506,"thunder":10507,"lions":10508,"##press":10509,"rome":10510,"##rich":10511,"commons":10512,"forgotten":10513,"cheaper":10514,"speakers":10515,"inspiration":10516,"correctly":10517,"peaceful":10518,"stir":10519,"hypothes":10520,"probe":10521,"adams":10522,"aims":10523,"gym":10524,"enroll":10525,"pp":10526,"bands":10527,"makers":10528,"violations":10529,"##avery":10530,"commod":10531,"##ares":10532,"emotions":10533,"hood":10534,"girlfriend":10535,"outstanding":10536,"saint":10537,"##izza":10538,"armor":10539,"##ptions":10540,"sits":10541,"alpha":10542,"##attan":10543,"##laimed":10544,"##oh":10545,"##ses":10546,"experimental":10547,"dramatically":10548,"passenger":10549,"perry":10550,"outdo":10551,"lens":10552,"benn":10553,"91":10554,"##mal":10555,"##oga":10556,"owns":10557,"transparency":10558,"##xture":10559,"continu":10560,"teeth":10561,"packages":10562,"bankrupt":10563,"hybr":10564,"communicate":10565,"courage":10566,"dispatch":10567,"heaven":10568,"conqu":10569,"infer":10570,"deployed":10571,"##ighth":10572,"combine":10573,"##oded":10574,"talib":10575,"ng":10576,"accuracy":10577,"displayed":10578,"interviewed":10579,"##ders":10580,"buried":10581,"sons":10582,"##kel":10583,"occupied":10584,"missouri":10585,"tent":10586,"ottawa":10587,"au":10588,"##walk":10589,"landed":10590,"##itr":10591,"portug":10592,"adequ":10593,"ally":10594,"##erto":10595,"accum":10596,"isolated":10597,"annoy":10598,"charging":10599,"##aus":10600,"embrace":10601,"hosts":10602,"oppose":10603,"pleased":10604,"indones":10605,"smell":10606,"1960s":10607,"facult":10608,"spider":10609,"##aware":10610,"relation":10611,"hans":10612,"cats":10613,"flour":10614,"screw":10615,"crick":10616,"##agers":10617,"##hammad":10618,"pas":10619,"opposing":10620,"##apore":10621,"performances":10622,"##aya":10623,"##ophob":10624,"jerry":10625,"mud":10626,"rit":10627,"brid":10628,"carrier":10629,"entity":10630,"sha":10631,"vlad":10632,"hes":10633,"shelter":10634,"nevada":10635,"compr":10636,"honey":10637,"rivers":10638,"prompted":10639,"castle":10640,"presents":10641,"homeland":10642,"4th":10643,"loose":10644,"recept":10645,"##onic":10646,"crossing":10647,"seized":10648,"griff":10649,"hearts":10650,"##arre":10651,"balls":10652,"militants":10653,"mps":10654,"ultra":10655,"compass":10656,"bash":10657,"tyr":10658,"poet":10659,"lincoln":10660,"##ked":10661,"algorithm":10662,"wisdom":10663,"declaration":10664,"ideology":10665,"130":10666,"robust":10667,"winds":10668,"genuine":10669,"leban":10670,"##iffs":10671,"##phy":10672,"sque":10673,"##case":10674,"kern":10675,"infin":10676,"container":10677,"engagement":10678,"delight":10679,"demo":10680,"demanded":10681,"maker":10682,"surrounded":10683,"lan":10684,"##omin":10685,"judicial":10686,"robinson":10687,"wright":10688,"notably":10689,"speculation":10690,"lor":10691,"##vent":10692,"##rimin":10693,"##pton":10694,"federation":10695,"##keep":10696,"singapore":10697,"froz":10698,"orle":10699,"flavor":10700,"ster":10701,"characteristics":10702,"lau":10703,"inaug":10704,"whites":10705,"21st":10706,"dawn":10707,"contents":10708,"ze":10709,"##35":10710,"##break":10711,"donors":10712,"routes":10713,"briefly":10714,"restore":10715,"compromise":10716,"wy":10717,"translation":10718,"warner":10719,"sized":10720,"rangers":10721,"criminals":10722,"verd":10723,"playstation":10724,"fucking":10725,"stewart":10726,"bust":10727,"abstract":10728,"cant":10729,"guaranteed":10730,"reck":10731,"notor":10732,"profound":10733,"acceptable":10734,"brig":10735,"bip":10736,"interpretation":10737,"##zer":10738,"##hner":10739,"frozen":10740,"width":10741,"nervous":10742,"radiation":10743,"secular":10744,"bureaucr":10745,"##instein":10746,"chrome":10747,"nights":10748,"jimmy":10749,"tobacco":10750,"graphic":10751,"reign":10752,"pose":10753,"confusion":10754,"rifle":10755,"ukrainian":10756,"kickst":10757,"##ogs":10758,"tanks":10759,"prevention":10760,"##ipedia":10761,"monetary":10762,"jumped":10763,"renewable":10764,"taxpayers":10765,"refuse":10766,"orleans":10767,"hiring":10768,"prayer":10769,"token":10770,"nether":10771,"ist":10772,"immun":10773,"##45":10774,"poster":10775,"steady":10776,"##ocal":10777,"acceler":10778,"suspic":10779,"rib":10780,"##rence":10781,"hurricane":10782,"engines":10783,"engaging":10784,"serial":10785,"cou":10786,"riot":10787,"researcher":10788,"orbit":10789,"extract":10790,"backup":10791,"expenses":10792,"align":10793,"lightning":10794,"nationwide":10795,"astronom":10796,"slam":10797,"##opes":10798,"prosper":10799,"historically":10800,"qualified":10801,"doctr":10802,"kicked":10803,"##75":10804,"cooking":10805,"carp":10806,"examine":10807,"##ensively":10808,"tremendous":10809,"multipl":10810,"existed":10811,"##ophy":10812,"hyd":10813,"cops":10814,"##anted":10815,"lobb":10816,"##esis":10817,"wondering":10818,"proportion":10819,"productive":10820,"flick":10821,"flip":10822,"runner":10823,"tutor":10824,"crystal":10825,"migration":10826,"districts":10827,"bombing":10828,"theft":10829,"quantum":10830,"ignor":10831,"polish":10832,"pyr":10833,"mothers":10834,"provider":10835,"executed":10836,"gentle":10837,"recalled":10838,"fingers":10839,"polling":10840,"sophistic":10841,"blu":10842,"outcomes":10843,"suspension":10844,"pleasure":10845,"thirty":10846,"##usive":10847,"struggles":10848,"leaked":10849,"##bourne":10850,"babies":10851,"operator":10852,"mario":10853,"constructed":10854,"popul":10855,"volunt":10856,"teammates":10857,"##vens":10858,"winners":10859,"##inge":10860,"refers":10861,"dak":10862,"painting":10863,"##attered":10864,"motivated":10865,"telephone":10866,"clinic":10867,"##acles":10868,"juris":10869,"##ifice":10870,"closest":10871,"##esa":10872,"##ader":10873,"tub":10874,"##archy":10875,"editorial":10876,"##pers":10877,"pizza":10878,"riders":10879,"disabled":10880,"analyt":10881,"sexually":10882,"expense":10883,"manhattan":10884,"modest":10885,"considerable":10886,"##oker":10887,"slide":10888,"##rian":10889,"checked":10890,"coins":10891,"publisher":10892,"detention":10893,"stating":10894,"diver":10895,"actress":10896,"occasional":10897,"beef":10898,"nash":10899,"rewards":10900,"evac":10901,"documented":10902,"overr":10903,"deliber":10904,"operated":10905,"yang":10906,"taliban":10907,"brewing":10908,"##irm":10909,"eve":10910,"##ixon":10911,"ank":10912,"##entions":10913,"pione":10914,"tears":10915,"larry":10916,"attribut":10917,"influenced":10918,"mississ":10919,"jung":10920,"fails":10921,"variables":10922,"##kyo":10923,"##ref":10924,"emer":10925,"##66":10926,"simultaneously":10927,"blacks":10928,"radar":10929,"manning":10930,"##uctions":10931,"challenged":10932,"##stitution":10933,"endors":10934,"exclusively":10935,"developments":10936,"poland":10937,"feminist":10938,"##reen":10939,"attending":10940,"destination":10941,"360":10942,"victoria":10943,"vegan":10944,"justify":10945,"equipped":10946,"##88":10947,"##upp":10948,"embassy":10949,"fib":10950,"chips":10951,"##igation":10952,"slot":10953,"excuse":10954,"##terest":10955,"baker":10956,"directors":10957,"luke":10958,"huff":10959,"compound":10960,"headlines":10961,"legendary":10962,"patriots":10963,"administrative":10964,"##awks":10965,"prest":10966,"survived":10967,"loving":10968,"rebuild":10969,"privilege":10970,"abu":10971,"wikipedia":10972,"stanford":10973,"ct":10974,"##graph":10975,"##ght":10976,"intimid":10977,"zim":10978,"##acked":10979,"raid":10980,"firearms":10981,"blake":10982,"cowboy":10983,"lifestyle":10984,"residential":10985,"stall":10986,"wells":10987,"occupy":10988,"scared":10989,"blues":10990,"jess":10991,"hann":10992,"tokyo":10993,"laur":10994,"shops":10995,"crush":10996,"fits":10997,"fishing":10998,"##uman":10999,"bacteria":11000,"##21":11001,"styles":11002,"niger":11003,"dressed":11004,"agreements":11005,"nelson":11006,"denn":11007,"1988":11008,"avo":11009,"woods":11010,"##err":11011,"evolved":11012,"cruel":11013,"seventh":11014,"organis":11015,"psychology":11016,"flights":11017,"morm":11018,"##rog":11019,"releasing":11020,"lamb":11021,"##ropri":11022,"unpr":11023,"canadians":11024,"sinc":11025,"##onia":11026,"alaska":11027,"hi":11028,"unnecess":11029,"stom":11030,"lip":11031,"forecast":11032,"documentation":11033,"robots":11034,"snowden":11035,"##oli":11036,"males":11037,"evangel":11038,"raises":11039,"sleeping":11040,"boards":11041,"##umber":11042,"intelligent":11043,"tong":11044,"prosecution":11045,"##jan":11046,"addressing":11047,"chanc":11048,"nutrition":11049,"egyptian":11050,"beneath":11051,"bour":11052,"stopping":11053,"bog":11054,"##heim":11055,"archive":11056,"projected":11057,"bm":11058,"occupation":11059,"luxury":11060,"900":11061,"cycling":11062,"##74":11063,"reass":11064,"uncertainty":11065,"1984":11066,"disclosure":11067,"impacts":11068,"decor":11069,"deemed":11070,"disagree":11071,"refr":11072,"reds":11073,"metrop":11074,"enfor":11075,"##ello":11076,"hiv":11077,"leak":11078,"exploration":11079,"antib":11080,"photographs":11081,"##iah":11082,"tragedy":11083,"newsletters":11084,"palm":11085,"bugs":11086,"households":11087,"criteria":11088,"thresh":11089,"chop":11090,"availability":11091,"identical":11092,"derived":11093,"attorneys":11094,"guidance":11095,"libraries":11096,"oversight":11097,"modi":11098,"cycl":11099,"##ifier":11100,"steal":11101,"promoted":11102,"faculty":11103,"bulk":11104,"pt":11105,"##thur":11106,"serge":11107,"concentration":11108,"russians":11109,"produces":11110,"regarded":11111,"bru":11112,"entrance":11113,"bubble":11114,"pledge":11115,"figured":11116,"absurd":11117,"##elihood":11118,"decrease":11119,"gods":11120,"preserve":11121,"realistic":11122,"##hips":11123,"defended":11124,"##agen":11125,"burned":11126,"orthodox":11127,"consecut":11128,"recovered":11129,"conflicts":11130,"nest":11131,"naval":11132,"palace":11133,"ot":11134,"starter":11135,"##rome":11136,"quad":11137,"wrestling":11138,"acknowledge":11139,"orb":11140,"expecting":11141,"##asm":11142,"neo":11143,"bones":11144,"ferg":11145,"##erver":11146,"##etes":11147,"dispos":11148,"infection":11149,"edited":11150,"politician":11151,"##unct":11152,"attracted":11153,"hamas":11154,"terminal":11155,"inevitable":11156,"launching":11157,"toss":11158,"barrel":11159,"140":11160,"eagles":11161,"startup":11162,"stal":11163,"curve":11164,"mortgage":11165,"jen":11166,"ian":11167,"departure":11168,"##rix":11169,"visits":11170,"louisiana":11171,"von":11172,"happiness":11173,"duration":11174,"##ardo":11175,"barg":11176,"trains":11177,"calendar":11178,"##ogy":11179,"hosting":11180,"##ram":11181,"wayne":11182,"grate":11183,"160":11184,"accepting":11185,"flee":11186,"roger":11187,"lion":11188,"bent":11189,"malays":11190,"##bul":11191,"installation":11192,"medicare":11193,"##pal":11194,"##anth":11195,"rubio":11196,"##ón":11197,"meters":11198,"##olds":11199,"mysterious":11200,"bases":11201,"##leted":11202,"hacking":11203,"imprison":11204,"##imir":11205,"1986":11206,"supposedly":11207,"innovative":11208,"stanley":11209,"inbox":11210,"productivity":11211,"bonds":11212,"subtle":11213,"tune":11214,"reluct":11215,"cot":11216,"##elli":11217,"##ellor":11218,"expects":11219,"olympics":11220,"mack":11221,"interactive":11222,"shake":11223,"##iac":11224,"rc":11225,"immigrant":11226,"blamed":11227,"pale":11228,"lynch":11229,"##bian":11230,"tablet":11231,"functionality":11232,"lighting":11233,"ritual":11234,"argu":11235,"dimin":11236,"kidn":11237,"rivals":11238,"empower":11239,"explicitly":11240,"editing":11241,"collins":11242,"bizarre":11243,"provisions":11244,"influential":11245,"curt":11246,"pricing":11247,"125":11248,"immune":11249,"##arn":11250,"hugh":11251,"naked":11252,"tension":11253,"seeds":11254,"mg":11255,"berke":11256,"mandate":11257,"medal":11258,"commentary":11259,"##books":11260,"furn":11261,"titan":11262,"wow":11263,"ls":11264,"leap":11265,"nonpro":11266,"font":11267,"kickstarter":11268,"uncomfort":11269,"##pc":11270,"occasion":11271,"ui":11272,"overnight":11273,"transferred":11274,"rhy":11275,"##ippi":11276,"traded":11277,"##umph":11278,"##enz":11279,"##unes":11280,"sham":11281,"gith":11282,"restricted":11283,"cpu":11284,"medicaid":11285,"185":11286,"##burn":11287,"pension":11288,"bry":11289,"presumably":11290,"kurdish":11291,"##ista":11292,"tunnel":11293,"bags":11294,"netherlands":11295,"ought":11296,"libertarian":11297,"##criptions":11298,"applies":11299,"sake":11300,"preventing":11301,"participating":11302,"worksh":11303,"conviction":11304,"epid":11305,"awful":11306,"longtime":11307,"exped":11308,"dign":11309,"ronald":11310,"consecutive":11311,"kas":11312,"handled":11313,"appearing":11314,"impressed":11315,"dumb":11316,"mcdonald":11317,"meets":11318,"nv":11319,"delegates":11320,"##kh":11321,"##itories":11322,"noneth":11323,"missiles":11324,"hybrid":11325,"responding":11326,"github":11327,"discipline":11328,"unch":11329,"##mers":11330,"nonetheless":11331,"rolled":11332,"ner":11333,"operators":11334,"yu":11335,"##erb":11336,"invested":11337,"finishing":11338,"clay":11339,"amd":11340,"##68":11341,"computing":11342,"sig":11343,"solely":11344,"##uating":11345,"marshall":11346,"investigated":11347,"vaccine":11348,"designated":11349,"##yard":11350,"mandatory":11351,"examined":11352,"breakfast":11353,"sustained":11354,"assists":11355,"economist":11356,"drops":11357,"yank":11358,"silicon":11359,"earnings":11360,"brush":11361,"oxygen":11362,"cake":11363,"citizenship":11364,"fundament":11365,"educated":11366,"delayed":11367,"charter":11368,"compelling":11369,"viewing":11370,"layers":11371,"##iere":11372,"rocks":11373,"trag":11374,"ambit":11375,"iconic":11376,"earning":11377,"grants":11378,"arguably":11379,"worthy":11380,"##aro":11381,"exploring":11382,"resur":11383,"collecting":11384,"favourite":11385,"##roc":11386,"##olas":11387,"jurisd":11388,"neighborhoods":11389,"##wall":11390,"hem":11391,"crossed":11392,"parliamentary":11393,"murphy":11394,"oldest":11395,"##eek":11396,"##astroph":11397,"##gel":11398,"##aco":11399,"pending":11400,"newspapers":11401,"##ucker":11402,"electrical":11403,"##ikh":11404,"amongst":11405,"hampshire":11406,"##part":11407,"elabor":11408,"trips":11409,"##fielder":11410,"##untu":11411,"agricultural":11412,"celebration":11413,"clever":11414,"##vy":11415,"preparation":11416,"endless":11417,"fires":11418,"spotted":11419,"dor":11420,"pepper":11421,"painted":11422,"query":11423,"mamm":11424,"philippines":11425,"bloomberg":11426,"##cott":11427,"##oly":11428,"catastroph":11429,"printing":11430,"departments":11431,"accusations":11432,"sacrifice":11433,"buddh":11434,"horrible":11435,"saints":11436,"discrimin":11437,"pars":11438,"discount":11439,"dolph":11440,"adoption":11441,"significance":11442,"complexity":11443,"##tery":11444,"themes":11445,"taiwan":11446,"inhab":11447,"prototype":11448,"animated":11449,"bever":11450,"gravity":11451,"coordinator":11452,"exploit":11453,"transmission":11454,"warfare":11455,"density":11456,"fergus":11457,"buffalo":11458,"zh":11459,"pupp":11460,"pregnancy":11461,"achievement":11462,"accompanied":11463,"hiding":11464,"##arity":11465,"lod":11466,"venue":11467,"##worth":11468,"painful":11469,"technically":11470,"cuba":11471,"sauce":11472,"secrets":11473,"cz":11474,"seeks":11475,"trace":11476,"beaten":11477,"##uther":11478,"walks":11479,"bil":11480,"verify":11481,"aj":11482,"affects":11483,"101":11484,"berkeley":11485,"panels":11486,"suppose":11487,"praise":11488,"##cos":11489,"indo":11490,"rust":11491,"visa":11492,"interactions":11493,"sv":11494,"possibilities":11495,"##ads":11496,"reflects":11497,"1987":11498,"mitt":11499,"kyle":11500,"caution":11501,"benj":11502,"speeds":11503,"mitchell":11504,"##olitan":11505,"neil":11506,"swedish":11507,"enhanced":11508,"pinterest":11509,"interf":11510,"complained":11511,"##yer":11512,"##vas":11513,"parameters":11514,"##ointing":11515,"##lr":11516,"mb":11517,"##acular":11518,"toll":11519,"pressed":11520,"melbourne":11521,"displays":11522,"##28":11523,"consol":11524,"hier":11525,"mild":11526,"volunteer":11527,"##ortions":11528,"##anim":11529,"fortune":11530,"sketch":11531,"insult":11532,"planes":11533,"filing":11534,"drones":11535,"##ques":11536,"slavery":11537,"commands":11538,"brandon":11539,"advocacy":11540,"provinc":11541,"template":11542,"reid":11543,"cleared":11544,"panic":11545,"##appropri":11546,"fract":11547,"consists":11548,"bb":11549,"devastating":11550,"limitations":11551,"awk":11552,"equity":11553,"fitness":11554,"yahoo":11555,"singh":11556,"kam":11557,"##fish":11558,"pictured":11559,"technological":11560,"editors":11561,"environments":11562,"scul":11563,"mississippi":11564,"revenues":11565,"hispan":11566,"##34":11567,"regret":11568,"occasions":11569,"massac":11570,"1979":11571,"addiction":11572,"relatives":11573,"replacing":11574,"suggestions":11575,"calculated":11576,"##iox":11577,"db":11578,"##aws":11579,"cf":11580,"conclusions":11581,"ri":11582,"##watch":11583,"intensity":11584,"filmm":11585,"darkness":11586,"##gate":11587,"courses":11588,"lawrence":11589,"##eem":11590,"##bage":11591,"tig":11592,"tissue":11593,"relie":11594,"converted":11595,"pg":11596,"conversion":11597,"watson":11598,"gradually":11599,"overlook":11600,"mant":11601,"cease":11602,"balanced":11603,"##itement":11604,"laptop":11605,"shooter":11606,"moder":11607,"archae":11608,"composition":11609,"murdered":11610,"##anne":11611,"incorrect":11612,"##ili":11613,"backl":11614,"lyr":11615,"builds":11616,"1985":11617,"swiss":11618,"ugly":11619,"##27":11620,"madrid":11621,"ambitious":11622,"rugby":11623,"praised":11624,"pond":11625,"quebec":11626,"telecom":11627,"logical":11628,"portra":11629,"advised":11630,"divide":11631,"observations":11632,"abund":11633,"rumors":11634,"chancellor":11635,"shocking":11636,"render":11637,"vladimir":11638,"debates":11639,"flynn":11640,"bos":11641,"conj":11642,"mechanical":11643,"fet":11644,"bitter":11645,"humanitarian":11646,"350":11647,"rever":11648,"employer":11649,"marry":11650,"grateful":11651,"uncover":11652,"campbell":11653,"mechanics":11654,"##ogether":11655,"sf":11656,"groc":11657,"countless":11658,"laser":11659,"##onaut":11660,"##onduct":11661,"##onsc":11662,"shed":11663,"sophisticated":11664,"cartoon":11665,"demonstration":11666,"##26":11667,"separated":11668,"traditionally":11669,"netany":11670,"drafted":11671,"churches":11672,"arrests":11673,"bishop":11674,"directions":11675,"fare":11676,"magical":11677,"##arians":11678,"sporting":11679,"fier":11680,"vic":11681,"chemicals":11682,"competitors":11683,"refres":11684,"minded":11685,"ensuring":11686,"##aza":11687,"sail":11688,"##ilst":11689,"ferguson":11690,"cultiv":11691,"monsters":11692,"##oyd":11693,"##jud":11694,"netanyahu":11695,"eleph":11696,"188":11697,"##oding":11698,"sixt":11699,"confed":11700,"defenders":11701,"##grad":11702,"academ":11703,"##29":11704,"##etics":11705,"applying":11706,"metaph":11707,"singing":11708,"##ocation":11709,"##ilation":11710,"uncomfortable":11711,"marginal":11712,"acquisition":11713,"stein":11714,"hors":11715,"parker":11716,"hostile":11717,"kg":11718,"buyers":11719,"##world":11720,"troll":11721,"adjusted":11722,"bathroom":11723,"##encer":11724,"oxford":11725,"altogether":11726,"chen":11727,"dealt":11728,"safely":11729,"partially":11730,"outer":11731,"delivering":11732,"contributing":11733,"cbc":11734,"barcel":11735,"wallet":11736,"bless":11737,"mutual":11738,"drinks":11739,"##vi":11740,"ceiling":11741,"duties":11742,"climb":11743,"retain":11744,"viable":11745,"uncle":11746,"morris":11747,"stark":11748,"transformation":11749,"##38":11750,"quotes":11751,"reflected":11752,"eru":11753,"quietly":11754,"colonial":11755,"lineback":11756,"slave":11757,"##itty":11758,"wick":11759,"jazz":11760,"##idal":11761,"alarm":11762,"##iller":11763,"trucks":11764,"deport":11765,"scrutiny":11766,"christianity":11767,"##ede":11768,"##igg":11769,"anticipated":11770,"acted":11771,"hond":11772,"pressing":11773,"##child":11774,"nex":11775,"##rah":11776,"##nbc":11777,"vertical":11778,"stunning":11779,"rehab":11780,"reactions":11781,"operational":11782,"wore":11783,"##isms":11784,"predecess":11785,"provincial":11786,"trap":11787,"##math":11788,"depr":11789,"hend":11790,"scary":11791,"##hire":11792,"hawaii":11793,"celebrated":11794,"trop":11795,"mechanisms":11796,"arctic":11797,"##father":11798,"essay":11799,"explor":11800,"longest":11801,"##gie":11802,"benjamin":11803,"##55":11804,"barrier":11805,"barcelona":11806,"transparent":11807,"##isive":11808,"barry":11809,"##itis":11810,"capitalist":11811,"sadly":11812,"masters":11813,"deserves":11814,"masc":11815,"aston":11816,"bp":11817,"evans":11818,"precise":11819,"raj":11820,"duck":11821,"counties":11822,"sizes":11823,"questioning":11824,"blade":11825,"distant":11826,"grip":11827,"flags":11828,"respected":11829,"indication":11830,"##iors":11831,"orientation":11832,"##erald":11833,"origins":11834,"investing":11835,"terry":11836,"wi":11837,"supporter":11838,"compliance":11839,"remembered":11840,"dl":11841,"rotation":11842,"##orate":11843,"acceptance":11844,"##ige":11845,"shan":11846,"cryptoc":11847,"git":11848,"pand":11849,"##48":11850,"priorities":11851,"betr":11852,"mcm":11853,"##arios":11854,"prelim":11855,"##itters":11856,"airlines":11857,"cricket":11858,"alike":11859,"digit":11860,"detained":11861,"frustration":11862,"laughs":11863,"holder":11864,"kin":11865,"statistical":11866,"casting":11867,"keith":11868,"instantly":11869,"##oca":11870,"fid":11871,"una":11872,"confirmation":11873,"offsh":11874,"determination":11875,"ns":11876,"worship":11877,"princess":11878,"circles":11879,"posit":11880,"bare":11881,"awkward":11882,"seal":11883,"##mod":11884,"disturbing":11885,"##auk":11886,"rings":11887,"floating":11888,"x6":11889,"fascinating":11890,"whilst":11891,"disappeared":11892,"identification":11893,"##owned":11894,"exhaust":11895,"kerry":11896,"ubuntu":11897,"founding":11898,"mounted":11899,"explosive":11900,"instruments":11901,"whistle":11902,"manufacturer":11903,"1970":11904,"offseason":11905,"##omy":11906,"filling":11907,"##li":11908,"poorly":11909,"layout":11910,"economists":11911,"heal":11912,"frustrated":11913,"##acies":11914,"gur":11915,"motivation":11916,"capability":11917,"fastest":11918,"safer":11919,"penetr":11920,"farms":11921,"residence":11922,"controlling":11923,"nons":11924,"impose":11925,"##rics":11926,"10th":11927,"bah":11928,"inspect":11929,"tc":11930,"unders":11931,"civilization":11932,"batch":11933,"tampa":11934,"powder":11935,"##onnell":11936,"highlighted":11937,"cluster":11938,"median":11939,"tensions":11940,"kirk":11941,"rah":11942,"rodr":11943,"violated":11944,"annually":11945,"directory":11946,"celebrity":11947,"##eu":11948,"feeding":11949,"##maker":11950,"monkey":11951,"crowds":11952,"fcc":11953,"complain":11954,"affair":11955,"##athon":11956,"linear":11957,"philip":11958,"indians":11959,"honour":11960,"tends":11961,"##base":11962,"absent":11963,"appointment":11964,"witnessed":11965,"bou":11966,"beng":11967,"nag":11968,"placing":11969,"##ros":11970,"##itate":11971,"cinc":11972,"suggestion":11973,"##ussels":11974,"pays":11975,"##amous":11976,"processor":11977,"permitted":11978,"toile":11979,"cohen":11980,"proceedings":11981,"ports":11982,"plaint":11983,"photography":11984,"audiences":11985,"entities":11986,"ncaa":11987,"inappropri":11988,"formerly":11989,"npr":11990,"congr":11991,"##amine":11992,"ears":11993,"td":11994,"protections":11995,"greenhouse":11996,"weaken":11997,"threshold":11998,"healing":11999,"folk":12000,"unnecessary":12001,"flexible":12002,"mcconnell":12003,"sensor":12004,"##ante":12005,"hatred":12006,"rio":12007,"flew":12008,"stressed":12009,"census":12010,"herald":12011,"greens":12012,"bedroom":12013,"solidarity":12014,"completion":12015,"romantic":12016,"treating":12017,"##aments":12018,"quot":12019,"presidents":12020,"##stop":12021,"shore":12022,"madison":12023,"fright":12024,"penalties":12025,"glor":12026,"instinct":12027,"prevented":12028,"mete":12029,"colleges":12030,"ineff":12031,"attendance":12032,"motorc":12033,"##isk":12034,"assumption":12035,"##oa":12036,"battlefield":12037,"ordin":12038,"##struct":12039,"abbott":12040,"alternatives":12041,"##flow":12042,"dakota":12043,"dose":12044,"ethical":12045,"revealing":12046,"##ologically":12047,"motors":12048,"cryptocurr":12049,"accomplished":12050,"partial":12051,"zones":12052,"boundaries":12053,"maine":12054,"reserves":12055,"##leting":12056,"intens":12057,"robber":12058,"tyler":12059,"identifying":12060,"switzer":12061,"aging":12062,"invis":12063,"traveled":12064,"peoples":12065,"nr":12066,"##ipher":12067,"cob":12068,"horm":12069,"dougl":12070,"rockets":12071,"##nie":12072,"crops":12073,"abol":12074,"embedded":12075,"disagre":12076,"purple":12077,"mum":12078,"devoted":12079,"twel":12080,"offset":12081,"excessive":12082,"disg":12083,"expertise":12084,"comparing":12085,"flowers":12086,"ric":12087,"trash":12088,"stocks":12089,"##ando":12090,"##beat":12091,"realm":12092,"clicking":12093,"anime":12094,"thumb":12095,"devil":12096,"unrel":12097,"strongest":12098,"exchanges":12099,"survivors":12100,"franklin":12101,"wrapped":12102,"gran":12103,"designers":12104,"initiatives":12105,"sacred":12106,"particles":12107,"viral":12108,"##uates":12109,"structural":12110,"monop":12111,"rb":12112,"unac":12113,"counting":12114,"##struction":12115,"gaining":12116,"licensed":12117,"perpet":12118,"sisters":12119,"ideological":12120,"jokes":12121,"oriented":12122,"wrec":12123,"auction":12124,"underc":12125,"tumb":12126,"deployment":12127,"ware":12128,"rip":12129,"fluid":12130,"metab":12131,"misle":12132,"quarters":12133,"portfol":12134,"planets":12135,"dh":12136,"chiefs":12137,"gonz":12138,"##limited":12139,"##utch":12140,"##udeau":12141,"##etta":12142,"composed":12143,"5th":12144,"shorter":12145,"##icism":12146,"classical":12147,"stomach":12148,"bun":12149,"infected":12150,"spreading":12151,"hackers":12152,"kernel":12153,"essence":12154,"emerge":12155,"doug":12156,"midnight":12157,"alberta":12158,"illegally":12159,"##km":12160,"respondents":12161,"accountability":12162,"rage":12163,"##ords":12164,"infring":12165,"enjoying":12166,"experiencing":12167,"css":12168,"translated":12169,"twelve":12170,"isa":12171,"1982":12172,"oscar":12173,"##iva":12174,"skull":12175,"une":12176,"##enh":12177,"timeline":12178,"##irs":12179,"##zi":12180,"##lev":12181,"hatch":12182,"tatt":12183,"unlimited":12184,"cel":12185,"biology":12186,"canon":12187,"mason":12188,"generic":12189,"##aser":12190,"arrow":12191,"pence":12192,"denial":12193,"danny":12194,"lb":12195,"hunger":12196,"dere":12197,"christie":12198,"jake":12199,"steep":12200,"##ype":12201,"columbus":12202,"incons":12203,"1983":12204,"repos":12205,"cultures":12206,"scenarios":12207,"gamers":12208,"laund":12209,"barn":12210,"cheer":12211,"tok":12212,"monument":12213,"sympath":12214,"cliff":12215,"turner":12216,"trapped":12217,"##36":12218,"disl":12219,"wwe":12220,"trudeau":12221,"aggreg":12222,"ampl":12223,"trusted":12224,"divorce":12225,"##je":12226,"probability":12227,"grain":12228,"focuses":12229,"##isp":12230,"mul":12231,"understands":12232,"texts":12233,"mobil":12234,"rogers":12235,"bak":12236,"switzerland":12237,"institutional":12238,"coh":12239,"lanes":12240,"trafficking":12241,"autonomous":12242,"##estone":12243,"insider":12244,"daw":12245,"distinction":12246,"raz":12247,"##db":12248,"supervis":12249,"##aughters":12250,"northwest":12251,"dvd":12252,"desired":12253,"sandwich":12254,"##39":12255,"brave":12256,"##tz":12257,"gover":12258,"peers":12259,"##core":12260,"disk":12261,"##ivan":12262,"aesth":12263,"fda":12264,"##urity":12265,"susan":12266,"##37":12267,"brains":12268,"irs":12269,"confer":12270,"unm":12271,"reun":12272,"announcing":12273,"receives":12274,"resolved":12275,"##erable":12276,"breakdown":12277,"imagination":12278,"lucas":12279,"dirt":12280,"elderly":12281,"secured":12282,"bapt":12283,"mong":12284,"dispar":12285,"declare":12286,"harvest":12287,"##appy":12288,"respective":12289,"electronics":12290,"operates":12291,"sentences":12292,"touched":12293,"introducing":12294,"gb":12295,"flexibility":12296,"qualify":12297,"parade":12298,"certificate":12299,"aftermath":12300,"advantages":12301,"##gt":12302,"dop":12303,"##atoes":12304,"wheels":12305,"buttons":12306,"##izon":12307,"carn":12308,"customs":12309,"exports":12310,"formally":12311,"ave":12312,"hs":12313,"optional":12314,"interrog":12315,"brussels":12316,"cleaning":12317,"disorders":12318,"neglect":12319,"beloved":12320,"##feed":12321,"delicious":12322,"emper":12323,"##bie":12324,"continuous":12325,"##agraph":12326,"stabil":12327,"subsidies":12328,"hungry":12329,"creators":12330,"strain":12331,"afterwards":12332,"bald":12333,"admir":12334,"harvey":12335,"condemned":12336,"retreat":12337,"flesh":12338,"venezuela":12339,"compatible":12340,"pursuit":12341,"jefferson":12342,"preliminary":12343,"##wart":12344,"##oons":12345,"##row":12346,"approve":12347,"##ulator":12348,"glory":12349,"charlotte":12350,"societies":12351,"kle":12352,"doctrine":12353,"inhib":12354,"##acent":12355,"oliver":12356,"shifting":12357,"execute":12358,"spacecraft":12359,"##mare":12360,"nonprofit":12361,"mph":12362,"skilled":12363,"##adi":12364,"leather":12365,"satisfied":12366,"binding":12367,"##umble":12368,"refusing":12369,"spectacular":12370,"##otypes":12371,"sentiment":12372,"tribe":12373,"##news":12374,"assured":12375,"seam":12376,"##pat":12377,"horizon":12378,"headline":12379,"##izations":12380,"brady":12381,"beers":12382,"arkansas":12383,"puerto":12384,"harmful":12385,"rewr":12386,"contacts":12387,"compassion":12388,"intrig":12389,"interrupt":12390,"sull":12391,"105":12392,"habits":12393,"gifts":12394,"shrink":12395,"##plus":12396,"perpetr":12397,"eighth":12398,"demol":12399,"stranger":12400,"corby":12401,"boring":12402,"fm":12403,"governing":12404,"nominated":12405,"deliberately":12406,"publishers":12407,"southeast":12408,"consequence":12409,"hij":12410,"deciding":12411,"investor":12412,"unre":12413,"acquire":12414,"shirts":12415,"expend":12416,"bulls":12417,"destroying":12418,"##lements":12419,"throws":12420,"humor":12421,"inevit":12422,"reson":12423,"weiss":12424,"pilots":12425,"snaps":12426,"io":12427,"freely":12428,"cache":12429,"##gary":12430,"verdict":12431,"overd":12432,"sensit":12433,"detective":12434,"##ears":12435,"laden":12436,"separation":12437,"dys":12438,"rhyth":12439,"##through":12440,"crude":12441,"tourism":12442,"brewery":12443,"screening":12444,"silly":12445,"difficulties":12446,"triggered":12447,"brick":12448,"##wal":12449,"excitement":12450,"##oven":12451,"##itated":12452,"bloody":12453,"##una":12454,"##ags":12455,"fifty":12456,"licensing":12457,"elementary":12458,"##chron":12459,"tourists":12460,"maria":12461,"dancing":12462,"observation":12463,"pole":12464,"generating":12465,"rall":12466,"glenn":12467,"resigned":12468,"sends":12469,"kills":12470,"preval":12471,"organizing":12472,"json":12473,"economies":12474,"cyn":12475,"arthur":12476,"wrap":12477,"##dale":12478,"norway":12479,"unin":12480,"##step":12481,"elsa":12482,"cambridge":12483,"##rians":12484,"dnc":12485,"partisan":12486,"attitudes":12487,"attributed":12488,"##s":12489,"harb":12490,"frankly":12491,"donation":12492,"modules":12493,"abandon":12494,"optimistic":12495,"photographer":12496,"suitable":12497,"slip":12498,"specialist":12499,"knocked":12500,"reed":12501,"##geon":12502,"disappoint":12503,"chemistry":12504,"##ached":12505,"financing":12506,"##avel":12507,"##ockets":12508,"reaches":12509,"trophy":12510,"isolation":12511,"worn":12512,"meta":12513,"teenager":12514,"rankings":12515,"lasting":12516,"retailers":12517,"enlar":12518,"##tains":12519,"temporarily":12520,"##held":12521,"ferr":12522,"forums":12523,"smugg":12524,"magnetic":12525,"condemn":12526,"pse":12527,"##urance":12528,"1981":12529,"wherever":12530,"skip":12531,"creek":12532,"literary":12533,"toys":12534,"detected":12535,"codes":12536,"farming":12537,"##ols":12538,"advances":12539,"arriving":12540,"labels":12541,"rim":12542,"ruth":12543,"minorities":12544,"hopeful":12545,"bast":12546,"##comed":12547,"participated":12548,"females":12549,"cincinn":12550,"retrie":12551,"breathing":12552,"multip":12553,"shifted":12554,"evaluation":12555,"listing":12556,"championships":12557,"##ouses":12558,"##arded":12559,"induced":12560,"##icut":12561,"syndrome":12562,"corbyn":12563,"tribal":12564,"teens":12565,"##erity":12566,"emotion":12567,"sequel":12568,"helm":12569,"lith":12570,"fiber":12571,"entrepreneurs":12572,"detain":12573,"rushed":12574,"##bound":12575,"noble":12576,"sacrific":12577,"##eded":12578,"reminder":12579,"innings":12580,"regulators":12581,"aids":12582,"bradley":12583,"beth":12584,"slaughter":12585,"mim":12586,"likewise":12587,"##atile":12588,"albums":12589,"funeral":12590,"peters":12591,"believing":12592,"pants":12593,"unfortunate":12594,"posed":12595,"approaching":12596,"carson":12597,"##eg":12598,"tragic":12599,"sew":12600,"rushing":12601,"holland":12602,"evaluate":12603,"divine":12604,"vermont":12605,"jumping":12606,"tendency":12607,"ost":12608,"verizon":12609,"indicating":12610,"##bart":12611,"barriers":12612,"damaging":12613,"kos":12614,"##abling":12615,"cowboys":12616,"brun":12617,"cincinnati":12618,"##enson":12619,"statue":12620,"pledged":12621,"caucus":12622,"daughters":12623,"##boards":12624,"wishes":12625,"binary":12626,"tube":12627,"preference":12628,"climbing":12629,"anchor":12630,"colleague":12631,"ebola":12632,"conducting":12633,"##78":12634,"suspicious":12635,"chains":12636,"hindu":12637,"tb":12638,"batteries":12639,"teenage":12640,"welcomed":12641,"##nell":12642,"fern":12643,"kay":12644,"alternate":12645,"earliest":12646,"mormon":12647,"lacking":12648,"gw":12649,"detection":12650,"advers":12651,"helicopter":12652,"burns":12653,"##enko":12654,"examination":12655,"merkel":12656,"meantime":12657,"garc":12658,"##chi":12659,"shy":12660,"sooner":12661,"johnny":12662,"gro":12663,"sue":12664,"##px":12665,"##uded":12666,"sheer":12667,"marketplace":12668,"##olly":12669,"juice":12670,"krist":12671,"connecting":12672,"inclusion":12673,"##organ":12674,"warnings":12675,"##ailed":12676,"##prop":12677,"mes":12678,"brack":12679,"avoided":12680,"thereby":12681,"purchases":12682,"cigarettes":12683,"juan":12684,"rams":12685,"##ti":12686,"reminded":12687,"ranch":12688,"shah":12689,"connecticut":12690,"scal":12691,"##ospher":12692,"friendship":12693,"##mat":12694,"tigers":12695,"##itic":12696,"ard":12697,"celt":12698,"variation":12699,"kor":12700,"genius":12701,"gps":12702,"mixture":12703,"matching":12704,"tribune":12705,"broadband":12706,"tradem":12707,"##ju":12708,"grim":12709,"bottles":12710,"##pled":12711,"authorized":12712,"fence":12713,"thirds":12714,"reflection":12715,"##irl":12716,"##rels":12717,"waited":12718,"186":12719,"invite":12720,"traits":12721,"vacation":12722,"##azi":12723,"banner":12724,"grows":12725,"##isy":12726,"diabetes":12727,"purely":12728,"recruiting":12729,"admission":12730,"lobbying":12731,"earthquake":12732,"##76":12733,"pixel":12734,"failures":12735,"reception":12736,"leagues":12737,"##ran":12738,"rolls":12739,"lifted":12740,"##ulu":12741,"decreased":12742,"sponsor":12743,"accounting":12744,"grabbed":12745,"bjp":12746,"mull":12747,"admits":12748,"territories":12749,"##page":12750,"administer":12751,"##ints":12752,"urge":12753,"burr":12754,"xi":12755,"michelle":12756,"jennifer":12757,"streak":12758,"advisory":12759,"1967":12760,"douglas":12761,"##aching":12762,"##anged":12763,"cocaine":12764,"interference":12765,"dubbed":12766,"boyfriend":12767,"##mel":12768,"pursuing":12769,"##ective":12770,"straw":12771,"wip":12772,"lesser":12773,"nightmare":12774,"magnitude":12775,"workplace":12776,"##nt":12777,"passionate":12778,"blown":12779,"doubled":12780,"permits":12781,"ds":12782,"subscription":12783,"raf":12784,"##apper":12785,"lyrics":12786,"booth":12787,"sparked":12788,"rubber":12789,"fortunately":12790,"bibl":12791,"wheat":12792,"politico":12793,"##gets":12794,"##pack":12795,"sci":12796,"masses":12797,"fraction":12798,"punk":12799,"lamp":12800,"premiere":12801,"lisa":12802,"##aukee":12803,"superman":12804,"undermine":12805,"avoiding":12806,"compiled":12807,"marco":12808,"establishing":12809,"indirect":12810,"rosen":12811,"pie":12812,"outlook":12813,"hypothesis":12814,"leverage":12815,"soci":12816,"fs":12817,"pseud":12818,"outdoor":12819,"poem":12820,"indonesia":12821,"taxpayer":12822,"rect":12823,"walter":12824,"indie":12825,"laughing":12826,"##wes":12827,"clause":12828,"##dog":12829,"whoever":12830,"inconsist":12831,"screaming":12832,"ltd":12833,"jab":12834,"pipe":12835,"corners":12836,"folder":12837,"clo":12838,"midfielder":12839,"strang":12840,"warrior":12841,"##cribed":12842,"decides":12843,"wooden":12844,"draws":12845,"crying":12846,"villages":12847,"corresponding":12848,"breit":12849,"observe":12850,"metropolitan":12851,"donated":12852,"pakistani":12853,"##oub":12854,"nathan":12855,"reli":12856,"heights":12857,"inflamm":12858,"zion":12859,"milw":12860,"##beit":12861,"careers":12862,"generous":12863,"tactical":12864,"gau":12865,"stones":12866,"bros":12867,"palestine":12868,"##hill":12869,"paragraph":12870,"namely":12871,"##comm":12872,"grind":12873,"athlete":12874,"sandy":12875,"acres":12876,"continent":12877,"swimming":12878,"##ationally":12879,"nad":12880,"##orph":12881,"1968":12882,"hammer":12883,"belgium":12884,"ya":12885,"invented":12886,"vap":12887,"disappointing":12888,"novels":12889,"coastal":12890,"mosque":12891,"precious":12892,"insane":12893,"islamist":12894,"creativity":12895,"paths":12896,"carlos":12897,"##sky":12898,"##vis":12899,"strengthen":12900,"mega":12901,"garage":12902,"telesc":12903,"forming":12904,"treatments":12905,"justified":12906,"garbage":12907,"mentally":12908,"poké":12909,"bite":12910,"curs":12911,"diagnosed":12912,"grat":12913,"colomb":12914,"catching":12915,"##di":12916,"transformed":12917,"accountable":12918,"exceptions":12919,"publications":12920,"decks":12921,"comply":12922,"##afts":12923,"##rist":12924,"1976":12925,"divid":12926,"aggression":12927,"locals":12928,"melt":12929,"##aria":12930,"1975":12931,"workforce":12932,"alar":12933,"organisations":12934,"1973":12935,"##mart":12936,"nixon":12937,"mold":12938,"milwaukee":12939,"##urred":12940,"slower":12941,"billy":12942,"cros":12943,"170":12944,"##kk":12945,"consolid":12946,"fict":12947,"meals":12948,"dug":12949,"intentions":12950,"autism":12951,"damages":12952,"tenure":12953,"alf":12954,"##las":12955,"vulnerability":12956,"implementing":12957,"wand":12958,"charts":12959,"regards":12960,"garner":12961,"filming":12962,"indict":12963,"passive":12964,"1972":12965,"liberties":12966,"succeeded":12967,"##ipper":12968,"bearing":12969,"vigil":12970,"##ener":12971,"##ateur":12972,"##ras":12973,"piv":12974,"cure":12975,"##72":12976,"superher":12977,"tiger":12978,"##ieval":12979,"remem":12980,"exhibit":12981,"remed":12982,"encryption":12983,"cage":12984,"beneficial":12985,"invisible":12986,"exhibition":12987,"infinite":12988,"ci":12989,"inappropriate":12990,"stevens":12991,"##ws":12992,"collapsed":12993,"bernard":12994,"recyc":12995,"suspicion":12996,"trim":12997,"emperor":12998,"yours":12999,"deleted":13000,"##map":13001,"slaves":13002,"historian":13003,"##usters":13004,"##idays":13005,"triv":13006,"branches":13007,"morph":13008,"musicians":13009,"argentina":13010,"governance":13011,"tib":13012,"##oints":13013,"sprint":13014,"##asted":13015,"springs":13016,"dive":13017,"vp":13018,"128":13019,"loot":13020,"strings":13021,"credibility":13022,"##izable":13023,"martial":13024,"spotlight":13025,"peng":13026,"feared":13027,"##iki":13028,"thir":13029,"delta":13030,"dischar":13031,"conclude":13032,"infamous":13033,"defining":13034,"aired":13035,"dennis":13036,"colored":13037,"dread":13038,"trauma":13039,"gly":13040,"anthrop":13041,"fancy":13042,"revenge":13043,"aliens":13044,"gren":13045,"nationals":13046,"consultant":13047,"mour":13048,"bankruptcy":13049,"shifts":13050,"lebanon":13051,"usd":13052,"sensors":13053,"spirits":13054,"wondered":13055,"incentives":13056,"heter":13057,"spare":13058,"bik":13059,"rebell":13060,"revised":13061,"anne":13062,"attributes":13063,"corrid":13064,"incentive":13065,"locker":13066,"raiders":13067,"1978":13068,"fifa":13069,"lasted":13070,"dynamics":13071,"karl":13072,"tolerance":13073,"##anka":13074,"enables":13075,"##erk":13076,"##ulates":13077,"meter":13078,"##aca":13079,"arn":13080,"muhammad":13081,"unaccept":13082,"comparable":13083,"##ulative":13084,"considers":13085,"1950s":13086,"koch":13087,"traditions":13088,"cargo":13089,"##gency":13090,"dent":13091,"##parts":13092,"triang":13093,"smartphones":13094,"outright":13095,"18th":13096,"eliminated":13097,"src":13098,"donate":13099,"##uto":13100,"ignoring":13101,"predictions":13102,"vector":13103,"sued":13104,"adventures":13105,"flames":13106,"cotton":13107,"##uv":13108,"adequate":13109,"bout":13110,"schm":13111,"arrangement":13112,"narc":13113,"portfolio":13114,"pref":13115,"vamp":13116,"kan":13117,"goldman":13118,"harrison":13119,"shark":13120,"offshore":13121,"petr":13122,"##utical":13123,"bee":13124,"stap":13125,"renewed":13126,"##iph":13127,"diox":13128,"ace":13129,"fond":13130,"marathon":13131,"agrees":13132,"sb":13133,"##lie":13134,"caf":13135,"breitbart":13136,"protective":13137,"urging":13138,"prohibited":13139,"practically":13140,"##brew":13141,"##track":13142,"encountered":13143,"calgary":13144,"dated":13145,"##alg":13146,"brazilian":13147,"blend":13148,"uh":13149,"purchasing":13150,"115":13151,"securities":13152,"##guard":13153,"dwar":13154,"brooks":13155,"routinely":13156,"##95":13157,"nexus":13158,"likelihood":13159,"shoulders":13160,"shin":13161,"##aches":13162,"adaptation":13163,"90s":13164,"convinc":13165,"gmt":13166,"ing":13167,"triumph":13168,"##ellar":13169,"analyses":13170,"resume":13171,"unveiled":13172,"spic":13173,"parenthood":13174,"cups":13175,"inmates":13176,"amn":13177,"firmly":13178,"delete":13179,"apt":13180,"spill":13181,"organizers":13182,"mh":13183,"rack":13184,"vm":13185,"entries":13186,"£1":13187,"##abe":13188,"mortality":13189,"seah":13190,"heroin":13191,"submar":13192,"puzzle":13193,"##rane":13194,"pray":13195,"airline":13196,"freshman":13197,"candy":13198,"mana":13199,"buffer":13200,"##forward":13201,"observers":13202,"##olo":13203,"disin":13204,"##atern":13205,"lesbian":13206,"cents":13207,"##██":13208,"##dling":13209,"evangelical":13210,"euros":13211,"limiting":13212,"counted":13213,"##pin":13214,"chrom":13215,"intu":13216,"spencer":13217,"ling":13218,"##block":13219,"stroke":13220,"roth":13221,"##lusive":13222,"threaten":13223,"endorsed":13224,"tory":13225,"leaning":13226,"prophet":13227,"aster":13228,"mush":13229,"variant":13230,"##aven":13231,"severely":13232,"##borne":13233,"inacc":13234,"sox":13235,"margar":13236,"suits":13237,"##ollah":13238,"bennett":13239,"massacre":13240,"hass":13241,"taxi":13242,"spike":13243,"##ahl":13244,"##aceutical":13245,"chronicle":13246,"albeit":13247,"debr":13248,"automated":13249,"revelation":13250,"##ecd":13251,"butler":13252,"pleaded":13253,"striker":13254,"chile":13255,"header":13256,"astronaut":13257,"armen":13258,"aur":13259,"inevitably":13260,"convenient":13261,"##és":13262,"appealing":13263,"palin":13264,"##ori":13265,"problematic":13266,"inspector":13267,"##stock":13268,"subway":13269,"mobility":13270,"apology":13271,"prote":13272,"reasoning":13273,"sectors":13274,"bikes":13275,"negotiate":13276,"winn":13277,"archives":13278,"lined":13279,"confidential":13280,"briefing":13281,"matched":13282,"smash":13283,"fundamentally":13284,"farmer":13285,"touchdowns":13286,"tooth":13287,"northeast":13288,"rachel":13289,"dealers":13290,"tales":13291,"jamie":13292,"##roll":13293,"leaks":13294,"unle":13295,"##leton":13296,"specified":13297,"chef":13298,"broncos":13299,"##afi":13300,"cruise":13301,"lately":13302,"tribute":13303,"wallace":13304,"atomic":13305,"halt":13306,"meteor":13307,"pistol":13308,"tuned":13309,"lawsuits":13310,"##advant":13311,"neat":13312,"fundraising":13313,"relating":13314,"rico":13315,"artif":13316,"cape":13317,"diagnosis":13318,"attacker":13319,"accurately":13320,"buses":13321,"chin":13322,"##tress":13323,"##ifi":13324,"exceptional":13325,"##illo":13326,"laura":13327,"##opard":13328,"loyalty":13329,"aka":13330,"commented":13331,"liberation":13332,"ecl":13333,"spurs":13334,"averaged":13335,"##lett":13336,"willingness":13337,"##oard":13338,"bobby":13339,"##kind":13340,"##usc":13341,"wag":13342,"lengthy":13343,"bend":13344,"locally":13345,"##itative":13346,"##mented":13347,"float":13348,"mak":13349,"congressman":13350,"jed":13351,"reinfor":13352,"merit":13353,"itunes":13354,"effectiveness":13355,"drought":13356,"fuels":13357,"1977":13358,"socialism":13359,"##vs":13360,"##ishes":13361,"tout":13362,"##hop":13363,"modes":13364,"##far":13365,"consumed":13366,"aviation":13367,"southwest":13368,"obl":13369,"##western":13370,"fusion":13371,"##issa":13372,"assumptions":13373,"closure":13374,"organize":13375,"escaped":13376,"mma":13377,"coat":13378,"tak":13379,"cair":13380,"ethere":13381,"railway":13382,"delays":13383,"nodes":13384,"impair":13385,"forty":13386,"ninth":13387,"nationalist":13388,"##bus":13389,"##aux":13390,"mccar":13391,"incon":13392,"##iper":13393,"vegetables":13394,"prejud":13395,"translate":13396,"blair":13397,"starring":13398,"vand":13399,"defendants":13400,"pause":13401,"pile":13402,"disadvant":13403,"##found":13404,"moz":13405,"legends":13406,"genoc":13407,"towers":13408,"demographic":13409,"##ea":13410,"tags":13411,"unacceptable":13412,"lovely":13413,"sculpt":13414,"bryan":13415,"expose":13416,"merg":13417,"bats":13418,"grandm":13419,"variations":13420,"unanim":13421,"horses":13422,"og":13423,"privately":13424,"billionaire":13425,"##iasm":13426,"##with":13427,"##opa":13428,"congrat":13429,"##riel":13430,"supportive":13431,"copper":13432,"gpu":13433,"counterparts":13434,"seiz":13435,"11th":13436,"baghd":13437,"denmark":13438,"##rus":13439,"stepping":13440,"pine":13441,"1969":13442,"edwards":13443,"suite":13444,"lone":13445,"abused":13446,"celebrating":13447,"##ovic":13448,"midfield":13449,"fran":13450,"zombie":13451,"snake":13452,"linebacker":13453,"boots":13454,"hazard":13455,"precision":13456,"ammun":13457,"hbo":13458,"legitim":13459,"classroom":13460,"haul":13461,"breed":13462,"vikings":13463,"strictly":13464,"aggr":13465,"dublin":13466,"shootings":13467,"zip":13468,"##eling":13469,"##79":13470,"cinema":13471,"thorn":13472,"gmail":13473,"ov":13474,"volt":13475,"affecting":13476,"##ele":13477,"tol":13478,"carriers":13479,"chand":13480,"krem":13481,"instruction":13482,"recalls":13483,"misleading":13484,"pitcher":13485,"whats":13486,"kate":13487,"bt":13488,"pharmaceutical":13489,"troubles":13490,"oral":13491,"##──":13492,"##car":13493,"vessel":13494,"crus":13495,"sep":13496,"thoroughly":13497,"germans":13498,"clouds":13499,"edges":13500,"raped":13501,"##matic":13502,"blogs":13503,"streams":13504,"1974":13505,"##49":13506,"kab":13507,"alumin":13508,"downs":13509,"dir":13510,"##piece":13511,"mik":13512,"withdrawal":13513,"prediction":13514,"bipart":13515,"separately":13516,"freeze":13517,"##wick":13518,"tx":13519,"switching":13520,"exercises":13521,"obes":13522,"##ugging":13523,"aus":13524,"searches":13525,"##ocity":13526,"shutdown":13527,"mumb":13528,"##zb":13529,"expressing":13530,"julian":13531,"##aneous":13532,"malware":13533,"fathers":13534,"altered":13535,"investigative":13536,"lem":13537,"imagined":13538,"griffin":13539,"ammunition":13540,"obligation":13541,"consulting":13542,"axis":13543,"guild":13544,"##think":13545,"prese":13546,"bra":13547,"zoo":13548,"lud":13549,"nurse":13550,"eagle":13551,"mature":13552,"sometime":13553,"underway":13554,"slim":13555,"ende":13556,"measurements":13557,"disability":13558,"richmond":13559,"switched":13560,"mlb":13561,"tutorial":13562,"7th":13563,"wade":13564,"soup":13565,"1971":13566,"overview":13567,"chan":13568,"##ão":13569,"costly":13570,"tm":13571,"##zing":13572,"gosp":13573,"founders":13574,"independently":13575,"defendant":13576,"##idia":13577,"hint":13578,"crashed":13579,"##feld":13580,"drain":13581,"resignation":13582,"traum":13583,"alice":13584,"adapted":13585,"##lington":13586,"stealing":13587,"##ecurity":13588,"symbols":13589,"replay":13590,"lethal":13591,"enthusiasm":13592,"nazis":13593,"navigation":13594,"##ospheric":13595,"dispens":13596,"rats":13597,"algorithms":13598,"outbreak":13599,"scrap":13600,"drill":13601,"skeptical":13602,"ndp":13603,"enrich":13604,"unfold":13605,"demonstrations":13606,"rendering":13607,"credential":13608,"phillips":13609,"matrix":13610,"frustrating":13611,"spells":13612,"gand":13613,"malaysia":13614,"neural":13615,"dioxide":13616,"reduces":13617,"ink":13618,"functioning":13619,"militant":13620,"medication":13621,"predomin":13622,"arranged":13623,"sic":13624,"fitz":13625,"evolutionary":13626,"dolphins":13627,"sounded":13628,"##ptive":13629,"fitting":13630,"cardinals":13631,"unconsc":13632,"hydrogen":13633,"sexuality":13634,"recipes":13635,"verb":13636,"fulfill":13637,"boats":13638,"cute":13639,"chess":13640,"consume":13641,"associates":13642,"risen":13643,"shakes":13644,"volumes":13645,"behaviors":13646,"regulate":13647,"hipp":13648,"observer":13649,"denying":13650,"##bean":13651,"##iosity":13652,"nost":13653,"pokémon":13654,"substantially":13655,"interim":13656,"mccarthy":13657,"clarity":13658,"duo":13659,"prescription":13660,"shaw":13661,"##atherine":13662,"exagger":13663,"disgust":13664,"##dles":13665,"allied":13666,"insights":13667,"fla":13668,"cis":13669,"moh":13670,"104":13671,"crews":13672,"spat":13673,"dos":13674,"shep":13675,"surveys":13676,"civic":13677,"##olved":13678,"tide":13679,"tin":13680,"opera":13681,"inventory":13682,"seahawks":13683,"rider":13684,"intend":13685,"##abad":13686,"confusing":13687,"solving":13688,"inflic":13689,"telegraph":13690,"texture":13691,"accordingly":13692,"##agh":13693,"endang":13694,"couch":13695,"##mons":13696,"killings":13697,"browns":13698,"bryant":13699,"straightforward":13700,"##ulk":13701,"dangers":13702,"processed":13703,"obesity":13704,"incoming":13705,"icel":13706,"accidentally":13707,"##rep":13708,"frost":13709,"sacrament":13710,"qualities":13711,"hispanic":13712,"##alling":13713,"cuban":13714,"bicycle":13715,"pup":13716,"flower":13717,"##othy":13718,"sullivan":13719,"penins":13720,"##neath":13721,"supern":13722,"##urer":13723,"##aults":13724,"##asi":13725,"insists":13726,"plugin":13727,"puck":13728,"labeled":13729,"underneath":13730,"##ioned":13731,"regress":13732,"barbara":13733,"loses":13734,"911":13735,"heck":13736,"##abil":13737,"pronounced":13738,"kath":13739,"convey":13740,"supplied":13741,"##tin":13742,"##enna":13743,"sheep":13744,"uran":13745,"elaborate":13746,"##igo":13747,"incumb":13748,"quo":13749,"dimensions":13750,"proxy":13751,"stays":13752,"testified":13753,"holders":13754,"mueller":13755,"consistency":13756,"kaz":13757,"intermedi":13758,"##ailand":13759,"plea":13760,"##mail":13761,"kon":13762,"##style":13763,"ki":13764,"##issance":13765,"airpl":13766,"guilt":13767,"marcus":13768,"patriot":13769,"##omal":13770,"tribes":13771,"hedge":13772,"fork":13773,"contractors":13774,"zen":13775,"mvp":13776,"fines":13777,"grocery":13778,"complement":13779,"endeav":13780,"##oline":13781,"##low":13782,"curry":13783,"divisions":13784,"##tor":13785,"qb":13786,"eleg":13787,"persistent":13788,"declining":13789,"junk":13790,"moham":13791,"preseason":13792,"responsibilities":13793,"##uro":13794,"iceland":13795,"thailand":13796,"ibm":13797,"fixes":13798,"czech":13799,"goodman":13800,"patt":13801,"##ava":13802,"##ressive":13803,"harbor":13804,"qatar":13805,"desperately":13806,"##ladesh":13807,"rises":13808,"erd":13809,"fals":13810,"solved":13811,"firefox":13812,"##text":13813,"##ibr":13814,"mick":13815,"teenagers":13816,"bangladesh":13817,"playback":13818,"dough":13819,"##enberg":13820,"##marks":13821,"cancelled":13822,"occurring":13823,"achieving":13824,"solic":13825,"##utter":13826,"drilling":13827,"urgent":13828,"##actic":13829,"synt":13830,"##cd":13831,"broadc":13832,"permanently":13833,"recommendation":13834,"##ocaust":13835,"6th":13836,"hallow":13837,"aide":13838,"##storm":13839,"##uthor":13840,"dignity":13841,"tongue":13842,"yoga":13843,"voy":13844,"##vo":13845,"sql":13846,"##anto":13847,"intensive":13848,"hik":13849,"##aba":13850,"filmed":13851,"sensitivity":13852,"frames":13853,"inhabit":13854,"##umer":13855,"newest":13856,"licenses":13857,"brib":13858,"newton":13859,"voluntary":13860,"##asse":13861,"restored":13862,"sweat":13863,"bannon":13864,"cooling":13865,"pengu":13866,"veto":13867,"sunni":13868,"villain":13869,"accommodate":13870,"breakthrough":13871,"resistant":13872,"schemes":13873,"pere":13874,"holocaust":13875,"globally":13876,"souls":13877,"##gence":13878,"##ounce":13879,"reasonably":13880,"ladies":13881,"enabling":13882,"pete":13883,"tricks":13884,"##oubted":13885,"sovereignty":13886,"##ensional":13887,"##astically":13888,"undoubted":13889,"##ressing":13890,"##space":13891,"tackles":13892,"img":13893,"##cha":13894,"dair":13895,"belongs":13896,"doi":13897,"rogue":13898,"travelling":13899,"disclose":13900,"metres":13901,"wounds":13902,"stern":13903,"tropical":13904,"kicking":13905,"##inson":13906,"consuming":13907,"##oust":13908,"liability":13909,"packers":13910,"oun":13911,"multiplayer":13912,"sponsors":13913,"bullets":13914,"audit":13915,"notorious":13916,"##illery":13917,"administrator":13918,"lac":13919,"intake":13920,"##ck":13921,"nonsense":13922,"##afe":13923,"vendors":13924,"theoretical":13925,"dude":13926,"equation":13927,"hod":13928,"misconduct":13929,"biden":13930,"tire":13931,"legislators":13932,"rd":13933,"mentions":13934,"berg":13935,"quinn":13936,"scripts":13937,"exploitation":13938,"submission":13939,"##mble":13940,"##eep":13941,"1960":13942,"enlight":13943,"determining":13944,"##haul":13945,"delib":13946,"mck":13947,"preferences":13948,"measuring":13949,"rhythm":13950,"extending":13951,"immers":13952,"##uum":13953,"indef":13954,"amnesty":13955,"##lection":13956,"shipped":13957,"artwork":13958,"firefight":13959,"slic":13960,"##hh":13961,"troubled":13962,"goth":13963,"networking":13964,"lakes":13965,"##points":13966,"terrain":13967,"judici":13968,"##opy":13969,"medi":13970,"plum":13971,"firearm":13972,"utc":13973,"shi":13974,"##iri":13975,"cla":13976,"angels":13977,"meditation":13978,"##zo":13979,"grandfather":13980,"##uki":13981,"affiliate":13982,"##van":13983,"##utt":13984,"stub":13985,"analog":13986,"attribute":13987,"aub":13988,"propr":13989,"backlash":13990,"lex":13991,"sells":13992,"aboard":13993,"mercury":13994,"spray":13995,"felony":13996,"bridges":13997,"##73":13998,"rocky":13999,"backers":14000,"apocal":14001,"turb":14002,"packs":14003,"##opia":14004,"##orrent":14005,"rash":14006,"horizont":14007,"philosophical":14008,"pirates":14009,"forests":14010,"nancy":14011,"haun":14012,"750":14013,"completing":14014,"helmet":14015,"useless":14016,"artistic":14017,"eleven":14018,"##urt":14019,"##atus":14020,"jesse":14021,"nationally":14022,"prosperity":14023,"yo":14024,"obligations":14025,"newer":14026,"inh":14027,"utterly":14028,"stimulus":14029,"feminism":14030,"judiciary":14031,"plates":14032,"boxing":14033,"beam":14034,"considerably":14035,"midst":14036,"genuinely":14037,"rental":14038,"spite":14039,"peninsula":14040,"##troll":14041,"reset":14042,"bacon":14043,"joel":14044,"prey":14045,"relies":14046,"liz":14047,"relate":14048,"arabic":14049,"patience":14050,"brotherhood":14051,"maintains":14052,"##etz":14053,"dip":14054,"##quit":14055,"outlet":14056,"lieuten":14057,"inability":14058,"amateur":14059,"slides":14060,"refere":14061,"reinforce":14062,"pretend":14063,"bans":14064,"shapes":14065,"objectives":14066,"jessica":14067,"##mouth":14068,"til":14069,"manages":14070,"##omo":14071,"##conn":14072,"tourist":14073,"signatures":14074,"##ui":14075,"80s":14076,"##uity":14077,"pleasant":14078,"revelations":14079,"12th":14080,"neutrality":14081,"analytics":14082,"portrait":14083,"glasses":14084,"##ulous":14085,"uss":14086,"entrepreneur":14087,"centered":14088,"beats":14089,"demonstrates":14090,"##dled":14091,"jaw":14092,"cer":14093,"mills":14094,"hearings":14095,"extends":14096,"proposition":14097,"eternal":14098,"companion":14099,"doom":14100,"garcia":14101,"##unc":14102,"bipartisan":14103,"compact":14104,"##shot":14105,"doubts":14106,"arbitrary":14107,"##affe":14108,"cox":14109,"yam":14110,"shadows":14111,"speeches":14112,"navigate":14113,"##ppo":14114,"confronted":14115,"rex":14116,"pirate":14117,"mast":14118,"##rad":14119,"upside":14120,"tac":14121,"flows":14122,"costume":14123,"proving":14124,"anonymity":14125,"medieval":14126,"colin":14127,"rus":14128,"##ulsion":14129,"victories":14130,"successor":14131,"destructive":14132,"flooding":14133,"contributor":14134,"financially":14135,"travels":14136,"antibiot":14137,"austerity":14138,"##hran":14139,"austria":14140,"cares":14141,"lacks":14142,"plun":14143,"##borough":14144,"settlements":14145,"17th":14146,"dissent":14147,"undoubtedly":14148,"hav":14149,"ree":14150,"negotiating":14151,"##bish":14152,"dum":14153,"quantity":14154,"##hem":14155,"suited":14156,"##len":14157,"certified":14158,"digest":14159,"broadcasting":14160,"lazy":14161,"murders":14162,"cousin":14163,"outlined":14164,"##hydr":14165,"cater":14166,"hotels":14167,"nashville":14168,"guided":14169,"glac":14170,"physician":14171,"descend":14172,"##osaur":14173,"13th":14174,"laying":14175,"beside":14176,"spends":14177,"##urring":14178,"arrangements":14179,"samuel":14180,"associations":14181,"committees":14182,"##atural":14183,"##mines":14184,"pivot":14185,"illustrated":14186,"salaries":14187,"panthers":14188,"das":14189,"parameter":14190,"borr":14191,"nvidia":14192,"##hard":14193,"exter":14194,"satan":14195,"arrives":14196,"reviewing":14197,"facilitate":14198,"##aha":14199,"175":14200,"credible":14201,"regulated":14202,"casualties":14203,"sheets":14204,"ws":14205,"cycles":14206,"priorit":14207,"portray":14208,"necessity":14209,"tablets":14210,"humil":14211,"overhaul":14212,"chim":14213,"vague":14214,"sweeping":14215,"##puted":14216,"holmes":14217,"unbel":14218,"pastor":14219,"keyword":14220,"##pace":14221,"analyzed":14222,"joh":14223,"finn":14224,"##days":14225,"fever":14226,"mend":14227,"elevated":14228,"hypocr":14229,"redistr":14230,"renov":14231,"reh":14232,"ambul":14233,"manus":14234,"caval":14235,"interestingly":14236,"tokens":14237,"##ullah":14238,"finale":14239,"macro":14240,"##tag":14241,"subscribers":14242,"##jar":14243,"vessels":14244,"weed":14245,"kicks":14246,"##okers":14247,"cubs":14248,"1965":14249,"handy":14250,"nj":14251,"halloween":14252,"greed":14253,"ours":14254,"##ranean":14255,"49ers":14256,"convincing":14257,"lighter":14258,"##orable":14259,"inspire":14260,"donor":14261,"muscles":14262,"carib":14263,"1964":14264,"prone":14265,"kremlin":14266,"relent":14267,"correspondent":14268,"transcript":14269,"refusal":14270,"contempl":14271,"vacuum":14272,"reiter":14273,"conform":14274,"adoles":14275,"allah":14276,"caut":14277,"assembled":14278,"dire":14279,"segreg":14280,"miner":14281,"assassination":14282,"mistaken":14283,"##fund":14284,"tournaments":14285,"fog":14286,"voiced":14287,"tehran":14288,"##uri":14289,"workshop":14290,"jacket":14291,"cem":14292,"stu":14293,"16th":14294,"##uccess":14295,"sealed":14296,"##inos":14297,"soy":14298,"ti":14299,"##retion":14300,"contamin":14301,"attackers":14302,"treasure":14303,"tempt":14304,"sudan":14305,"##âãâãâãâãâãâãâãâã":14306,"fixing":14307,"prohibition":14308,"trademark":14309,"injection":14310,"collections":14311,"correction":14312,"##85":14313,"prisons":14314,"sync":14315,"deputies":14316,"moss":14317,"mk":14318,"linkedin":14319,"maid":14320,"##ailing":14321,"debris":14322,"##yst":14323,"dairy":14324,"embraced":14325,"ethereum":14326,"subjected":14327,"sach":14328,"assange":14329,"sharks":14330,"plag":14331,"109":14332,"##inate":14333,"dow":14334,"homeown":14335,"1945":14336,"businessman":14337,"##market":14338,"disclosed":14339,"##inging":14340,"##eston":14341,"##ounding":14342,"saves":14343,"pairs":14344,"slice":14345,"labs":14346,"##mingham":14347,"zach":14348,"broadly":14349,"hollow":14350,"designing":14351,"crunch":14352,"holidays":14353,"steph":14354,"dimension":14355,"hardest":14356,"sier":14357,"inherent":14358,"llc":14359,"tennis":14360,"substitute":14361,"musk":14362,"achievements":14363,"wordpress":14364,"lips":14365,"wii":14366,"##chez":14367,"expressions":14368,"##giving":14369,"risky":14370,"jurisdiction":14371,"swall":14372,"qualifying":14373,"vine":14374,"evolve":14375,"cigarette":14376,"tactic":14377,"##46":14378,"##iments":14379,"##dem":14380,"neurons":14381,"boeing":14382,"angela":14383,"##mith":14384,"tomm":14385,"##yon":14386,"underw":14387,"specify":14388,"characterized":14389,"aides":14390,"attraction":14391,"offline":14392,"birmingham":14393,"sticks":14394,"censorship":14395,"survivor":14396,"relying":14397,"nitr":14398,"overtime":14399,"##ulin":14400,"##inery":14401,"##reach":14402,"declaring":14403,"blizz":14404,"baseline":14405,"portrayed":14406,"sanction":14407,"##etti":14408,"togg":14409,"15th":14410,"poetry":14411,"luther":14412,"maneu":14413,"##most":14414,"##itary":14415,"stig":14416,"testament":14417,"burger":14418,"rays":14419,"endorsement":14420,"valued":14421,"shoe":14422,"vatic":14423,"##opath":14424,"pockets":14425,"shelf":14426,"imports":14427,"dominate":14428,"nasty":14429,"barrels":14430,"affiliated":14431,"indianapolis":14432,"recreational":14433,"fury":14434,"magazines":14435,"analyze":14436,"banning":14437,"fictional":14438,"discourse":14439,"gramm":14440,"##onts":14441,"valve":14442,"mohammed":14443,"casino":14444,"##iaz":14445,"jungle":14446,"calories":14447,"##eva":14448,"##dc":14449,"##inces":14450,"satisfaction":14451,"##iguez":14452,"socially":14453,"##89":14454,"msnbc":14455,"##oner":14456,"iter":14457,"wolves":14458,"intentionally":14459,"##aires":14460,"ain":14461,"priced":14462,"correlation":14463,"prisoner":14464,"violating":14465,"##71":14466,"strat":14467,"committing":14468,"14th":14469,"penny":14470,"##ippers":14471,"102":14472,"##js":14473,"metric":14474,"apologize":14475,"vibr":14476,"overturn":14477,"laughed":14478,"gul":14479,"grasp":14480,"heated":14481,"opted":14482,"facial":14483,"broadway":14484,"prayers":14485,"readily":14486,"ate":14487,"epidemic":14488,"sticking":14489,"##andez":14490,"##wid":14491,"favorable":14492,"cherry":14493,"gore":14494,"atmospheric":14495,"vatican":14496,"hydro":14497,"colony":14498,"misunder":14499,"pierre":14500,"fifteen":14501,"varying":14502,"nuts":14503,"pec":14504,"swap":14505,"shortage":14506,"initiated":14507,"frontier":14508,"rodgers":14509,"iq":14510,"bronze":14511,"homosexuality":14512,"nobel":14513,"columns":14514,"spear":14515,"lemon":14516,"foul":14517,"organised":14518,"ion":14519,"stakes":14520,"recordings":14521,"diesel":14522,"surpass":14523,"##osi":14524,"f1":14525,"##orus":14526,"credited":14527,"chad":14528,"expectation":14529,"whatsapp":14530,"##uting":14531,"aiming":14532,
[...]
