{"version":"1.0","truncation":null,"padding":null,"added_tokens":[{"id":0,"special":true,"content":"[PAD]","single_word":false,"lstrip":false,"rstrip":false,"normalized":false},{"id":1,"special":true,"content":"[UNK]","single_word":false,"lstrip":false,"rstrip":false,"normalized":false},{"id":2,"special":true,"content":"[CLS]","single_word":false,"lstrip":false,"rstrip":false,"normalized":false},{"id":3,"special":true,"content":"[SEP]","single_word":false,"lstrip":false,"rstrip":false,"normalized":false},{"id":4,"special":true,"content":"[MASK]","single_word":false,"lstrip":false,"rstrip":false,"normalized":false}],"normalizer":{"type":"BertNormalizer","clean_text":false,"handle_chinese_chars":false,"strip_accents":false,"lowercase":true},"pre_tokenizer":{"type":"BertPreTokenizer"},"post_processor":null,"decoder":{"type":"WordPiece","prefix":"##","cleanup":true},"model":{"type":"WordPiece","unk_token":"[UNK]","continuing_subword_prefix":"##","max_input_chars_per_word":100,"vocab":{"[PAD]":0,"[UNK]":1,"[CLS]":2,"[SEP]":3,"[MASK]":4,"!":5,"\"":6,"#":7,"$":8,"%":9,"&":10,"'":11,"(":12,")":13,"*":14,"+":15,",":16,"-":17,".":18,"/":19,"0":20,"1":21,"2":22,"3":23,"4":24,"5":25,"6":26,"7":27,"8":28,"9":29,":":30,";":31,"<":32,"=":33,">":34,"?":35,"@":36,"[":37,"\\":38,"]":39,"^":40,"_":41,"`":42,"a":43,"b":44,"c":45,"d":46,"e":47,"f":48,"g":49,"h":50,"i":51,"j":52,"k":53,"l":54,"m":55,"n":56,"o":57,"p":58,"q":59,"r":60,"s":61,"t":62,"u":63,"v":64,"w":65,"x":66,"y":67,"z":68,"{":69,"|":70,"}":71,"~":72,"":73,"":74,"":75,"":76,"":77,"":78,"":79,"":80,"":81,"":82,"":83,"¡":84,"¢":85,"£":86,"¥":87,"¦":88,"§":89,"©":90,"«":91,"­":92,"®":93,"¯":94,"°":95,"±":96,"²":97,"³":98,"´":99,"µ":100,"¶":101,"·":102,"¸":103,"¹":104,"º":105,"»":106,"¼":107,"½":108,"×":109,"ß":110,"à":111,"á":112,"â":113,"ã":114,"ä":115,"å":116,"æ":117,"ç":118,"è":119,"é":120,"ê":121,"ë":122,"ì":123,"í":124,"î":125,"ï":126,"ð":127,"ñ":128,"ò":129,"ó":130,"ô":131,"õ":132,"ö":133,"÷":134,"ø":135,"ù":136,"ú":137,"û":138,"ü":139,"ý":140,"þ":141,"ā":142,"ă":143,"ć":144,"č":145,"đ":146,"ē":147,"ę":148,"ě":149,"ğ":150,"ī":151,"ı":152,"ł":153,"ń":154,"ň":155,"ō":156,"œ":157,"ř":158,"ś":159,"ş":160,"š":161,"ţ":162,"ū":163,"ů":164,"ž":165,"ɐ":166,"ə":167,"ɛ":168,"ʌ":169,"ʒ":170,"ʔ":171,"ʻ":172,"ˈ":173,"ː":174,"˜":175,"̇":176,"ά":177,"έ":178,"ή":179,"ί":180,"α":181,"β":182,"γ":183,"δ":184,"ε":185,"η":186,"θ":187,"ι":188,"κ":189,"λ":190,"μ":191,"ν":192,"ξ":193,"ο":194,"π":195,"ρ":196,"ς":197,"σ":198,"τ":199,"υ":200,"φ":201,"χ":202,"ω":203,"ό":204,"ύ":205,"ώ":206,"а":207,"б":208,"в":209,"г":210,"д":211,"е":212,"ж":213,"з":214,"и":215,"й":216,"к":217,"л":218,"м":219,"н":220,"о":221,"п":222,"р":223,"с":224,"т":225,"у":226,"ф":227,"х":228,"ц":229,"ч":230,"ш":231,"щ":232,"ы":233,"ь":234,"э":235,"ю":236,"я":237,"ё":238,"ѕ":239,"і":240,"י":241,"ש":242,"،":243,"ا":244,"ب":245,"ة":246,"ت":247,"ح":248,"د":249,"ر":250,"ز":251,"س":252,"ط":253,"ظ":254,"ع":255,"ف":256,"ق":257,"ك":258,"ل":259,"م":260,"ن":261,"ه":262,"و":263,"ي":264,"ی":265,"द":266,"र":267,"ल":268,"व":269,"ि":270,"ु":271,"्":272,"ਾ":273,"ก":274,"ข":275,"ง":276,"ด":277,"ท":278,"น":279,"ป":280,"ม":281,"ย":282,"ร":283,"ล":284,"ว":285,"ห":286,"อ":287,"า":288,"ี":289,"เ":290,"ไ":291,"่":292,"้":293,"๋":294,"ა":295,"ი":296,"ḍ":297,"ḷ":298,"ṃ":299,"ṇ":300,"ṛ":301,"ṣ":302,"ṭ":303,"ἀ":304,"ἰ":305,"ὀ":306,"ὐ":307,"ὕ":308,"ῖ":309,"ῶ":310,"​":311,"‎":312,"‐":313,"‑":314,"–":315,"—":316,"―":317,"‘":318,"’":319,"‚":320,"“":321,"”":322,"„":323,"‡":324,"•":325,"․":326,"…":327,"′":328,"″":329,"›":330,"※":331,"⁄":332,"₂":333,"€":334,"™":335,"→":336,"↓":337,"⇓":338,"−":339,"∞":340,"∥":341,"∷":342,"∼":343,"≥":344,"─":345,"┃":346,"█":347,"■":348,"▪":349,"►":350,"▼":351,"◊":352,"★":353,"♦":354,"❤":355,"➜":356,"ⵏ":357,"、":358,"。":359,"々":360,"〈":361,"〉":362,"「":363,"」":364,"『":365,"』":366,"あ":367,"い":368,"う":369,"え":370,"お":371,"か":372,"が":373,"き":374,"く":375,"け":376,"げ":377,"こ":378,"さ":379,"し":380,"じ":381,"す":382,"ず":383,"そ":384,"ぞ":385,"た":386,"だ":387,"ち":388,"っ":389,"つ":390,"て":391,"で":392,"と":393,"ど":394,"な":395,"に":396,"の":397,"は":398,"ば":399,"び":400,"へ":401,"べ":402,"ま":403,"め":404,"も":405,"や":406,"よ":407,"ら":408,"り":409,"る":410,"れ":411,"ろ":412,"わ":413,"を":414,"ん":415,"ァ":416,"ア":417,"ィ":418,"イ":419,"ゥ":420,"ウ":421,"ェ":422,"エ":423,"ォ":424,"オ":425,"カ":426,"キ":427,"ギ":428,"ク":429,"グ":430,"ゲ":431,"コ":432,"ゴ":433,"サ":434,"シ":435,"ジ":436,"ス":437,"ズ":438,"セ":439,"ソ":440,"ゾ":441,"タ":442,"ダ":443,"チ":444,"ッ":445,"ツ":446,"テ":447,"デ":448,"ト":449,"ド":450,"ナ":451,"ニ":452,"ネ":453,"ノ":454,"バ":455,"ヒ":456,"ビ":457,"ピ":458,"フ":459,"ブ":460,"プ":461,"ヘ":462,"ホ":463,"ボ":464,"マ":465,"ミ":466,"ム":467,"メ":468,"モ":469,"ャ":470,"ヤ":471,"ュ":472,"ユ":473,"ョ":474,"ラ":475,"リ":476,"ル":477,"レ":478,"ロ":479,"ワ":480,"ン":481,"ヴ":482,"・":483,"ー":484,"ㅋ":485,"一":486,"上":487,"下":488,"不":489,"中":490,"事":491,"亡":492,"京":493,"人":494,"他":495,"以":496,"件":497,"位":498,"低":499,"体":500,"何":501,"作":502,"係":503,"側":504,"傷":505,"先":506,"光":507,"入":508,"全":509,"公":510,"内":511,"出":512,"分":513,"切":514,"初":515,"判":516,"別":517,"前":518,"力":519,"助":520,"動":521,"北":522,"占":523,"原":524,"取":525,"可":526,"同":527,"名":528,"向":529,"告":530,"員":531,"問":532,"営":533,"因":534,"団":535,"在":536,"地":537,"域":538,"報":539,"場":540,"外":541,"多":542,"夜":543,"大":544,"失":545,"始":546,"子":547,"存":548,"学":549,"定":550,"実":551,"家":552,"容":553,"密":554,"察":555,"審":556,"対":557,"射":558,"小":559,"局":560,"履":561,"山":562,"峠":563,"崩":564,"州":565,"常":566,"年":567,"度":568,"式":569,"引":570,"当":571,"彼":572,"征":573,"後":574,"性":575,"想":576,"態":577,"折":578,"持":579,"捜":580,"探":581,"接":582,"推":583,"撃":584,"放":585,"文":586,"料":587,"斜":588,"新":589,"方":590,"日":591,"明":592,"時":593,"書":594,"最":595,"月":596,"有":597,"服":598,"木":599,"本":600,"東":601,"果":602,"査":603,"森":604,"検":605,"極":606,"機":607,"次":608,"死":609,"残":610,"気":611,"渓":612,"温":613,"測":614,"点":615,"無":616,"然":617,"版":618,"物":619,"特":620,"状":621,"現":622,"球":623,"理":624,"生":625,"画":626,"症":627,"発":628,"登":629,"的":630,"目":631,"直":632,"県":633,"真":634,"着":635,"知":636,"研":637,"示":638,"社":639,"科":640,"秘":641,"究":642,"立":643,"索":644,"終":645,"結":646,"続":647,"線":648,"編":649,"置":650,"考":651,"者":652,"能":653,"脱":654,"自":655,"至":656,"舌":657,"色":658,"落":659,"著":660,"行":661,"衣":662,"裂":663,"要":664,"見":665,"解":666,"記":667,"設":668,"語":669,"説":670,"調":671,"論":672,"警":673,"谷":674,"象":675,"負":676,"資":677,"起":678,"足":679,"跡":680,"身":681,"軍":682,"述":683,"送":684,"通":685,"連":686,"道":687,"遺":688,"部":689,"都":690,"量":691,"長":692,"開":693,"間":694,"関":695,"隊":696,"集":697,"離":698,"難":699,"雪":700,"面":701,"靴":702,"風":703,"験":704,"骨":705,"高":706,"가":707,"각":708,"간":709,"갔":710,"같":711,"개":712,"거":713,"건":714,"걸":715,"검":716,"겁":717,"것":718,"게":719,"겠":720,"겨":721,"견":722,"결":723,"경":724,"계":725,"고":726,"공":727,"과":728,"관":729,"광":730,"구":731,"국":732,"권":733,"그":734,"극":735,"글":736,"금":737,"기":738,"긴":739,"김":740,"까":741,"끝":742,"나":743,"난":744,"날":745,"남":746,"났":747,"내":748,"냐":749,"너":750,"년":751,"노":752,"놓":753,"눈":754,"뉴":755,"느":756,"는":757,"늘":758,"니":759,"님":760,"다":761,"단":762,"담":763,"당":764,"대":765,"더":766,"던":767,"데":768,"도":769,"독":770,"돈":771,"동":772,"됐":773,"되":774,"된":775,"두":776,"드":777,"득":778,"든":779,"들":780,"등":781,"디":782,"딸":783,"때":784,"떠":785,"떳":786,"떻":787,"또":788,"라":789,"람":790,"랑":791,"래":792,"러":793,"런":794,"럼":795,"렇":796,"레":797,"려":798,"로":799,"론":800,"루":801,"르":802,"른":803,"를":804,"름":805,"리":806,"린":807,"마":808,"만":809,"많":810,"말":811,"매":812,"먹":813,"먼":814,"며":815,"면":816,"모":817,"몰":818,"못":819,"무":820,"문":821,"물":822,"뭐":823,"미":824,"민":825,"바":826,"박":827,"밖":828,"반":829,"받":830,"발":831,"밝":832,"버":833,"번":834,"벌":835,"범":836,"법":837,"변":838,"별":839,"병":840,"보":841,"복":842,"본":843,"봤":844,"부":845,"분":846,"불":847,"뷰":848,"비":849,"빠":850,"사":851,"살":852,"상":853,"생":854,"서":855,"석":856,"선":857,"섭":858,"세":859,"소":860,"손":861,"송":862,"수":863,"순":864,"숨":865,"스":866,"슬":867,"시":868,"식":869,"신":870,"실":871,"싫":872,"심":873,"싶":874,"싸":875,"씨":876,"아":877,"안":878,"않":879,"알":880,"았":881,"애":882,"앨":883,"야":884,"약":885,"양":886,"어":887,"억":888,"언":889,"얼":890,"엄":891,"없":892,"었":893,"에":894,"여":895,"연":896,"열":897,"였":898,"영":899,"예":900,"오":901,"온":902,"올":903,"와":904,"왔":905,"왜":906,"요":907,"용":908,"우":909,"운":910,"울":911,"워":912,"원":913,"웠":914,"위":915,"유":916,"으":917,"은":918,"을":919,"음":920,"응":921,"의":922,"이":923,"인":924,"일":925,"있":926,"자":927,"작":928,"잘":929,"장":930,"재":931,"저":932,"적":933,"전":934,"정":935,"제":936,"져":937,"졌":938,"조":939,"좀":940,"주":941,"죽":942,"준":943,"중":944,"증":945,"지":946,"직":947,"진":948,"질":949,"집":950,"쪽":951,"차":952,"찰":953,"참":954,"처":955,"청":956,"체":957,"추":958,"취":959,"친":960,"키":961,"타":962,"터":963,"테":964,"판":965,"편":966,"평":967,"표":968,"하":969,"한":970,"할":971,"함":972,"해":973,"했":974,"행":975,"혀":976,"현":977,"혐":978,"형":979,"혜":980,"호":981,"혹":982,"혼":983,"화":984,"확":985,"활":986,"황":987,"회":988,"후":989,"훈":990,"흥":991,"히":992,"힘":993,"️":994,"﻿":995,"（":996,"）":997,"：":998,"＝":999,"＞":1000,"�":1001,"🐒":1002,"😉":1003,"🙂":1004,"##o":1005,"##b":1006,"##i":1007,"##t":1008,"##a":1009,"##l":1010,"##e":1011,"##h":1012,"##y":1013,"##m":1014,"##n":1015,"##u":1016,"##s":1017,"##c":1018,"##k":1019,"##r":1020,"##v":1021,"##f":1022,"##g":1023,"##z":1024,"##d":1025,"##件":1026,"##の":1027,"##一":1028,"##部":1029,"##が":1030,"##出":1031,"##版":1032,"##物":1033,"##や":1034,"##ス":1035,"##ヴ":1036,"##ェ":1037,"##ル":1038,"##ド":1039,"##ロ":1040,"##フ":1041,"##ク":1042,"##州":1043,"##地":1044,"##メ":1045,"##デ":1046,"##ィ":1047,"##ア":1048,"##で":1049,"##公":1050,"##に":1051,"##さ":1052,"##れ":1053,"##る":1054,"##よ":1055,"##う":1056,"##な":1057,"##っ":1058,"##た":1059,"##q":1060,"##5":1061,"##1":1062,"##7":1063,"##2":1064,"##­":1065,"##p":1066,"##x":1067,"##0":1068,"##é":1069,"##w":1070,"##3":1071,"##4":1072,"##а":1073,"##н":1074,"##о":1075,"##й":1076,"##9":1077,"##j":1078,"##8":1079,"##리":1080,"##ä":1081,"##6":1082,"##다":1083,"##가":1084,"##도":1085,"##×":1086,"##":1087,"##í":1088,"##→":1089,"##е":1090,"##м":1091,"##ü":1092,"##ل":1093,"##س":1094,"##ط":1095,"##ة":1096,"##하":1097,"##고":1098,"##á":1099,"##":1100,"##å":1101,"##°":1102,"##각":1103,"##나":1104,"##직":1105,"##금":1106,"##으":1107,"##로":1108,"##ñ":1109,"##察":1110,"##当":1111,"##局":1112,"##特":1113,"##別":1114,"##可":1115,"##を":1116,"##し":1117,"##と":1118,"##報":1119,"##告":1120,"##て":1121,"##い":1122,"##は":1123,"##通":1124,"##常":1125,"##ι":1126,"##는":1127,"##해":1128,"##ó":1129,"##두":1130,"##ー":1131,"##ン":1132,"##ž":1133,"##우":1134,"##보":1135,"##ř":1136,"##ě":1137,"##崩":1138,"##斜":1139,"##度":1140,"##以":1141,"##上":1142,"##発":1143,"##生":1144,"##す":1145,"##こ":1146,"##多":1147,"##く":1148,"##광":1149,"##석":1150,"##씨":1151,"##랑":1152,"##式":1153,"##資":1154,"##料":1155,"##者":1156,"##ち":1157,"##日":1158,"##記":1159,"##니":1160,"##이":1161,"##":1162,"##장":1163,"##되":1164,"##모":1165,"##사":1166,"##인":1167,"##의":1168,"##한":1169,"##에":1170,"##º":1171,"##야":1172,"##기":1173,"##했":1174,"##던":1175,"##ð":1176,"##ʻ":1177,"##ý":1178,"##ṣ":1179,"##ш":1180,"##и":1181,"##ā":1182,"##ī":1183,"##説":1184,"##事":1185,"##秘":1186,"##ソ":1187,"##ビ":1188,"##エ":1189,"##ト":1190,"##時":1191,"##書":1192,"##か":1193,"##ê":1194,"##상":1195,"##р":1196,"##с":1197,"##т":1198,"##ṇ":1199,"##ع":1200,"##ا":1201,"##م":1202,"##ي":1203,"##문":1204,"##最":1205,"##終":1206,"##的":1207,"##調":1208,"##査":1209,"##結":1210,"##果":1211,"##л":1212,"##ь":1213,"##ы":1214,"##래":1215,"##д":1216,"##з":1217,"##в":1218,"##è":1219,"##č":1220,"##â":1221,"##€":1222,"##":1223,"##ă":1224,"##ß":1225,"##며":1226,"##를":1227,"##子":1228,"##ţ":1229,"##러":1230,"##면":1231,"##ō":1232,"##라":1233,"##ò":1234,"##÷":1235,"##コ":1236,"##ラ":1237,"##イ":1238,"##離":1239,"##位":1240,"##置":1241,"##々":1242,"##見":1243,"##つ":1244,"##り":1245,"##à":1246,"##ら":1247,"##彼":1248,"##放":1249,"##射":1250,"##線":1251,"##検":1252,"##ѕ":1253,"##람":1254,"##서":1255,"##ö":1256,"##려":1257,"##ό":1258,"##λ":1259,"##υ":1260,"##β":1261,"##δ":1262,"##ο":1263,"##ς":1264,"##억":1265,"##호":1266,"##오":1267,"##分":1268,"##衣":1269,"##服":1270,"##雪":1271,"##失":1272,"##ま":1273,"##あ":1274,"##峠":1275,"##行":1276,"##リ":1277,"##ダ":1278,"##ゴ":1279,"##š":1280,"##ú":1281,"##ر":1282,"##ك":1283,"##ت":1284,"##ж":1285,"##у":1286,"##거":1287,"##п":1288,"##г":1289,"##ę":1290,"##찰":1291,"##к":1292,"##و":1293,"##ن":1294,"##‎":1295,"##게":1296,"##조":1297,"##비":1298,"##北":1299,"##中":1300,"##�":1301,"##았":1302,"##시":1303,"##경":1304,"##내":1305,"##만":1306,"##지":1307,"##참":1308,"##국":1309,"##어":1310,"##ч":1311,"##я":1312,"##œ":1313,"##벌":1314,"##ォ":1315,"##ズ":1316,"##ジ":1317,"##域":1318,"##示":1319,"##ρ":1320,"##π":1321,"##τ":1322,"##死":1323,"##亡":1324,"##も":1325,"##데":1326,"##™":1327,"##소":1328,"##송":1329,"##법":1330,"##든":1331,"##울":1332,"##і":1333,"##年":1334,"##민":1335,"##κ":1336,"##ί":1337,"##미":1338,"##원":1339,"##х":1340,"##ν":1341,"##μ":1342,"##α":1343,"##đ":1344,"##®":1345,"##´":1346,"##ṃ":1347,"##ś":1348,"##ก":1349,"##่":1350,"##ย":1351,"##า":1352,"##ง":1353,"##チ":1354,"##ヤ":1355,"##½":1356,"##ː":1357,"##د":1358,"##ق":1359,"##ぞ":1360,"##無":1361,"##関":1362,"##係":1363,"##目":1364,"##撃":1365,"##キ":1366,"##ャ":1367,"##プ":1368,"##設":1369,"##営":1370,"##容":1371,"##だ":1372,"##ø":1373,"##б":1374,"##혀":1375,"##져":1376,"##ਾ":1377,"##ล":1378,"##ไ":1379,"##ม":1380,"##้":1381,"##할":1382,"##夜":1383,"##オ":1384,"##レ":1385,"##色":1386,"##光":1387,"##球":1388,"##山":1389,"##面":1390,"##小":1391,"##체":1392,"##애":1393,"##아":1394,"##シ":1395,"##対":1396,"##開":1397,"##始":1398,"##め":1399,"##人":1400,"##遺":1401,"##体":1402,"##探":1403,"##月":1404,"##要":1405,"##집":1406,"##을":1407,"##ç":1408,"##ว":1409,"##ห":1410,"##ů":1411,"##ş":1412,"##검":1413,"##증":1414,"##ḍ":1415,"##後":1416,"##ボ":1417,"##ć":1418,"##진":1419,"##까":1420,"##験":1421,"##겠":1422,"##겁":1423,"##느":1424,"##떳":1425,"##질":1426,"##³":1427,"##ï":1428,"##性":1429,"##名":1430,"##응":1431,"##登":1432,"##点":1433,"##ε":1434,"##난":1435,"##ゥ":1436,"##ニ":1437,"##ナ":1438,"##ゾ":1439,"##タ":1440,"##ョ":1441,"##骨":1442,"##ど":1443,"##折":1444,"##섭":1445,"##論":1446,"##ń":1447,"##ح":1448,"##¢":1449,"##황":1450,"##±":1451,"##ṛ":1452,"##훈":1453,"##ピ":1454,"##け":1455,"##었":1456,"##더":1457,"##ب":1458,"##들":1459,"##ギ":1460,"##ф":1461,"##​":1462,"##안":1463,"##र":1464,"##ु":1465,"##ल":1466,"##ि":1467,"##べ":1468,"##щ":1469,"##直":1470,"##接":1471,"##じ":1472,"##道":1473,"##研":1474,"##究":1475,"##범":1476,"##æ":1477,"##자":1478,"##렇":1479,"##ὐ":1480,"##バ":1481,"##お":1482,"##ū":1483,"##실":1484,"##극":1485,"##연":1486,"##양":1487,"##征":1488,"##長":1489,"##引":1490,"##돈":1491,"##음":1492,"##ッ":1493,"##웠":1494,"##ю":1495,"##傷":1496,"##考":1497,"##え":1498,"##전":1499,"##차":1500,"##ュ":1501,"##ァ":1502,"##ノ":1503,"##ه":1504,"##ц":1505,"##과":1506,"##ξ":1507,"##ύ":1508,"##サ":1509,"##당":1510,"##機":1511,"##密":1512,"##文":1513,"##送":1514,"##外":1515,"##負":1516,"##ず":1517,"##정":1518,"##심":1519,"##회":1520,"##생":1521,"##활":1522,"##마":1523,"##적":1524,"##겨":1525,"##레":1526,"##ά":1527,"##️":1528,"##떠":1529,"##냐":1530,"##索":1531,"##隊":1532,"##ホ":1533,"##◊":1534,"##♦":1535,"##간":1536,"##˜":1537,"##¦":1538,"##":1539,"##テ":1540,"##持":1541,"##真":1542,"##原":1543,"##全":1544,"##わ":1545,"##득":1546,"##됐":1547,"##늘":1548,"##知":1549,"##단":1550,"##不":1551,"##気":1552,"##難":1553,"##떻":1554,"##î":1555,"##못":1556,"##ô":1557,"##語":1558,"##은":1559,"##ა":1560,"##ი":1561,"##긴":1562,"##ı":1563,"##ğ":1564,"##⁄":1565,"##大":1566,"##間":1567,"##ミ":1568,"##何":1569,"##場":1570,"##渓":1571,"##谷":1572,"##因":1573,"##能":1574,"##ん":1575,"##처":1576,"##럼":1577,"##森":1578,"##審":1579,"##問":1580,"##セ":1581,"##ด":1582,"##ท":1583,"##걸":1584,"##저":1585,"##ë":1586,"##定":1587,"##び":1588,"##":1589,"##":1590,"##년":1591,"##ی":1592,"##η":1593,"##ש":1594,"##작":1595,"##向":1596,"##ム":1597,"##물":1598,"##ㅋ":1599,"##테":1600,"##변":1601,"##取":1602,"##き":1603,"##測":1604,"##量":1605,"##助":1606,"##動":1607,"##ヘ":1608,"##入":1609,"##밖":1610,"##함":1611,"##科":1612,"##家":1613,"##現":1614,"##有":1615,"##力":1616,"##明":1617,"##ã":1618,"##̇":1619,"##−":1620,"##건":1621,"##マ":1622,"##木":1623,"##先":1624,"##ɐ":1625,"##ʔ":1626,"##ツ":1627,"##형":1628,"##残":1629,"##올":1630,"##제":1631,"##﻿":1632,"##터":1633,"##뷰":1634,"##린":1635,"##ё":1636,"##신":1637,"##ή":1638,"##γ":1639,"##드":1640,"##공":1641,"##द":1642,"##्":1643,"##捜":1644,"##û":1645,"##軍":1646,"##警":1647,"##げ":1648,"##高":1649,"##そ":1650,"##他":1651,"##靴":1652,"##履":1653,"##初":1654,"##著":1655,"##ネ":1656,"##県":1657,"##워":1658,"##운":1659,"##õ":1660,"##타":1661,"##²":1662,"##름":1663,"##ṭ":1664,"##살":1665,"##カ":1666,"##였":1667,"##순":1668,"##ʒ":1669,"##ˈ":1670,"##빠":1671,"##혜":1672,"##έ":1673,"##状":1674,"##態":1675,"##低":1676,"##温":1677,"##症":1678,"##起":1679,"##ร":1680,"##เ":1681,"##อ":1682,"##ω":1683,"##着":1684,"##舌":1685,"##解":1686,"##י":1687,"##都":1688,"##많":1689,"##번":1690,"##르":1691,"##へ":1692,"##복":1693,"##占":1694,"##무":1695,"##ば":1696,"##와":1697,"##実":1698,"##분":1699,"##員":1700,"##졌":1701,"##足":1702,"##ウ":1703,"##切":1704,"##ɛ":1705,"##갔":1706,"##判":1707,"##요":1708,"##현":1709,"##至":1710,"##ʌ":1711,"##ì":1712,"##¸":1713,"##内":1714,"##方":1715,"##裂":1716,"##σ":1717,"##런":1718,"##반":1719,"##ň":1720,"##⇓":1721,"##동":1722,"##ł":1723,"##된":1724,"##관":1725,"##э":1726,"##＞":1727,"##画":1728,"##跡":1729,"##재":1730,"##왔":1731,"##말":1732,"##前":1733,"##ユ":1734,"##¼":1735,"##＝":1736,"##ブ":1737,"##구":1738,"##표":1739,"##대":1740,"##θ":1741,"##혼":1742,"##부":1743,"##청":1744,"##견":1745,"##혹":1746,"##때":1747,"##続":1748,"##述":1749,"##너":1750,"##주":1751,"##루":1752,"##매":1753,"##推":1754,"##열":1755,"##노":1756,"##ろ":1757,"##連":1758,"##χ":1759,"##©":1760,"##ə":1761,"##약":1762,"##ظ":1763,"##ف":1764,"##여":1765,"##在":1766,"##学":1767,"##편":1768,"##히":1769,"##ḷ":1770,"##ē":1771,"##놓":1772,"##落":1773,"##作":1774,"##화":1775,"##ῖ":1776,"##下":1777,"##없":1778,"##モ":1779,"##立":1780,"##存":1781,"##ⵏ":1782,"##선":1783,"##스":1784,"##¹":1785,"##용":1786,"##온":1787,"##象":1788,"##론":1789,"##발":1790,"##뉴":1791,"##디":1792,"##団":1793,"##별":1794,"##권":1795,"##ワ":1796,"##":1797,"##次":1798,"##新":1799,"##社":1800,"##담":1801,"##グ":1802,"##수":1803,"##버":1804,"##일":1805,"##東":1806,"##":1807,"##준":1808,"##님":1809,"##理":1810,"##ป":1811,"##흥":1812,"##─":1813,"##想":1814,"##개":1815,"##脱":1816,"##█":1817,"##ี":1818,"##น":1819,"##받":1820,"##極":1821,"##판":1822,"##것":1823,"##本":1824,"##ώ":1825,"##쪽":1826,"##🐒":1827,"##":1828,"##❤":1829,"##확":1830,"##른":1831,"##후":1832,"##φ":1833,"##ῶ":1834,"##自":1835,"##然":1836,"##독":1837,"##예":1838,"##손":1839,"##중":1840,"##위":1841,"##側":1842,"##혐":1843,"##행":1844,"##京":1845,"##∷":1846,"##ز":1847,"##∞":1848,"##봤":1849,"##먼":1850,"##風":1851,"##났":1852,"##ヒ":1853,"##集":1854,"##세":1855,"##있":1856,"##ù":1857,"##ゲ":1858,"##식":1859,"##날":1860,"##身":1861,"##병":1862,"##๋":1863,"##친":1864,"##결":1865,"##₂":1866,"##등":1867,"##불":1868,"th":1869,"##er":1870,"the":1871,"##in":1872,"##on":1873,"##at":1874,"##en":1875,"##es":1876,"##or":1877,"##ed":1878,"##nd":1879,"##ing":1880,"##ar":1881,"##an":1882,"to":1883,"##ou":1884,"in":1885,"##it":1886,"##al":1887,"of":1888,"##is":1889,"and":1890,"##ic":1891,"##as":1892,"##re":1893,"##om":1894,"##ion":1895,"##le":1896,"##ent":1897,"##ll":1898,"re":1899,"be":1900,"##ly":1901,"##st":1902,"##ot":1903,"##ve":1904,"wh":1905,"##id":1906,"on":1907,"##ac":1908,"##ut":1909,"that":1910,"is":1911,"st":1912,"##ow":1913,"##et":1914,"for":1915,"##ay":1916,"##ur":1917,"it":1918,"##am":1919,"##ad":1920,"pr":1921,"##ig":1922,"##se":1923,"##ct":1924,"##ld":1925,"##ver":1926,"##im":1927,"##ir":1928,"##ter":1929,"as":1930,"he":1931,"##ch":1932,"##ith":1933,"##ation":1934,"##ol":1935,"an":1936,"##ce":1937,"with":1938,"de":1939,"##th":1940,"you":1941,"##ers":1942,"##il":1943,"con":1944,"##ere":1945,"we":1946,"was":1947,"se":1948,"##op":1949,"##ill":1950,"ha":1951,"sh":1952,"ch":1953,"##est":1954,"com":1955,"fr":1956,"at":1957,"ne":1958,"##ess":1959,"##ate":1960,"##od":1961,"su":1962,"##ag":1963,"##ke":1964,"##ul":1965,"this":1966,"tr":1967,"##ment":1968,"are":1969,"##igh":1970,"##ain":1971,"##os":1972,"ex":1973,"or":1974,"al":1975,"##ist":1976,"##pp":1977,"not":1978,"##us":1979,"##oc":1980,"by":1981,"##ore":1982,"##ab":1983,"have":1984,"##ity":1985,"##ould":1986,"##if":1987,"##ive":1988,"##um":1989,"##ant":1990,"##un":1991,"from":1992,"le":1993,"##and":1994,"but":1995,"##em":1996,"##ort":1997,"##ies":1998,"go":1999,"##art":2000,"ab":2001,"sp":2002,"##iv":2003,"sa":2004,"pl":2005,"##ie":2006,"##ight":2007,"##ust":2008,"they":2009,"##el":2010,"un":2011,"##ear":2012,"wor":2013,"##ap":2014,"##ally":2015,"his":2016,"has":2017,"##ack":2018,"##all":2019,"##ect":2020,"pro":2021,"do":2022,"##out":2023,"20":2024,"##ard":2025,"en":2026,"##ost":2027,"can":2028,"##gh":2029,"##ome":2030,"ar":2031,"all":2032,"##ud":2033,"##ak":2034,"##ast":2035,"will":2036,"##end":2037,"##our":2038,"so":2039,"ad":2040,"##ib":2041,"##ich":2042,"##ge":2043,"said":2044,"us":2045,"cl":2046,"##ok":2047,"##ial":2048,"out":2049,"who":2050,"up":2051,"me":2052,"te":2053,"one":2054,"their":2055,"br":2056,"##ip":2057,"##ough":2058,"more":2059,"##ans":2060,"##tr":2061,"gr":2062,"##ame":2063,"res":2064,"new":2065,"im":2066,"##ound":2067,"##ions":2068,"comp":2069,"##ice":2070,"##ue":2071,"##ike":2072,"##her":2073,"##ous":2074,"there":2075,"##act":2076,"##ff":2077,"##one":2078,"am":2079,"##oun":2080,"##ia":2081,"##ure":2082,"##og":2083,"##age":2084,"##ong":2085,"man":2086,"about":2087,"##ine":2088,"if":2089,"ac":2090,"year":2091,"ag":2092,"ev":2093,"off":2094,"##ated":2095,"tim":2096,"cr":2097,"which":2098,"##ence":2099,"##pt":2100,"had":2101,"were":2102,"would":2103,"pe":2104,"##iz":2105,"int":2106,"rep":2107,"no":2108,"exp":2109,"what":2110,"##ind":2111,"sc":2112,"##ake":2113,"##ide":2114,"##ub":2115,"like":2116,"##ther":2117,"per":2118,"when":2119,"been":2120,"some":2121,"inc":2122,"co":2123,"##ach":2124,"fe":2125,"dr":2126,"##au":2127,"##ign":2128,"##own":2129,"##ber":2130,"##qu":2131,"part":2132,"af":2133,"tw":2134,"over":2135,"##ays":2136,"dis":2137,"##ace":2138,"##so":2139,"##ary":2140,"than":2141,"bec":2142,"201":2143,"her":2144,"lo":2145,"how":2146,"##able":2147,"just":2148,"##ite":2149,"qu":2150,"app":2151,"##ople":2152,"##ord":2153,"##ire":2154,"##ical":2155,"people":2156,"inter":2157,"##ish":2158,"##ian":2159,"also":2160,"##ose":2161,"my":2162,"##ations":2163,"##ile":2164,"str":2165,"work":2166,"mar":2167,"kn":2168,"##ult":2169,"time":2170,"##ree":2171,"get":2172,"##ass":2173,"your":2174,"##av":2175,"##ens":2176,"she":2177,"them":2178,"bl":2179,"any":2180,"pol":2181,"##int":2182,"fir":2183,"rec":2184,"other":2185,"##ec":2186,"##are":2187,"##ond":2188,"after":2189,"##ick":2190,"comm":2191,"##orm":2192,"its":2193,"ind":2194,"act":2195,"##ance":2196,"##lic":2197,"##ail":2198,"##ase":2199,"imp":2200,"our":2201,"play":2202,"##aw":2203,"##00":2204,"ever":2205,"##ro":2206,"19":2207,"##reat":2208,"fo":2209,"##uc":2210,"pre":2211,"po":2212,"ro":2213,"into":2214,"##amp":2215,"##fer":2216,"##gr":2217,"##ink":2218,"##ings":2219,"acc":2220,"##ition":2221,"bo":2222,"##ory":2223,"##vel":2224,"first":2225,"##oss":2226,"cont":2227,"##ep":2228,"##uct":2229,"ser":2230,"##ors":2231,"##ang":2232,"em":2233,"##ause":2234,"two":2235,"##itt":2236,"##ates":2237,"only":2238,"could":2239,"now":2240,"coun":2241,"ph":2242,"mo":2243,"most":2244,"him":2245,"des":2246,"##ert":2247,"##ious":2248,"may":2249,"##ents":2250,"##lect":2251,"sec":2252,"pres":2253,"##ks":2254,"und":2255,"back":2256,"##ade":2257,"##lo":2258,"bet":2259,"even":2260,"##enc":2261,"jo":2262,"cons":2263,"##ied":2264,"these":2265,"##ft":2266,"##ild":2267,"##ery":2268,"dec":2269,"##hing":2270,"att":2271,"##urn":2272,"did":2273,"because":2274,"don":2275,"again":2276,"bu":2277,"thr":2278,"every":2279,"wr":2280,"##ict":2281,"op":2282,"state":2283,"sy":2284,"##form":2285,"under":2286,"see":2287,"def":2288,"##iver":2289,"##ater":2290,"car":2291,"ob":2292,"##uch":2293,"rel":2294,"##we":2295,"inv":2296,"add":2297,"##ons":2298,"##day":2299,"know":2300,"high":2301,"then":2302,"##ry":2303,"min":2304,"ass":2305,"supp":2306,"##ual":2307,"years":2308,"ke":2309,"##ock":2310,"want":2311,"##erm":2312,"right":2313,"##iss":2314,"##ident":2315,"##ise":2316,"need":2317,"##lud":2318,"##ning":2319,"fl":2320,"##ra":2321,"where":2322,"many":2323,"##sel":2324,"mon":2325,"##wn":2326,"world":2327,"reg":2328,"##ments":2329,"call":2330,"make":2331,"ed":2332,"##ublic":2333,"down":2334,"##les":2335,"gu":2336,"par":2337,"##eric":2338,"##ved":2339,"fu":2340,"col":2341,"way":2342,"rem":2343,"well":2344,"dif":2345,"while":2346,"last":2347,"bel":2348,"contr":2349,"think":2350,"look":2351,"##fore":2352,"##oth":2353,"gen":2354,"##ell":2355,"being":2356,"team":2357,"ear":2358,"sch":2359,"ve":2360,"##oup":2361,"sm":2362,"americ":2363,"##ational":2364,"end":2365,"fin":2366,"##ject":2367,"id":2368,"show":2369,"##olog":2370,"includ":2371,"much":2372,"form":2373,"through":2374,"stud":2375,"##vern":2376,"very":2377,"##iew":2378,"inst":2379,"##ath":2380,"##ating":2381,"##ys":2382,"200":2383,"govern":2384,"##anc":2385,"those":2386,"##ason":2387,"long":2388,"##ump":2389,"dem":2390,"##aking":2391,"##other":2392,"##ily":2393,"##ics":2394,"##urr":2395,"should":2396,"say":2397,"10":2398,"##xt":2399,"##sp":2400,"start":2401,"##uring":2402,"##ative":2403,"##ited":2404,"before":2405,"##ower":2406,"##ities":2407,"report":2408,"sim":2409,"cent":2410,"use":2411,"war":2412,"##ific":2413,"##ased":2414,"good":2415,"##cc":2416,"##ty":2417,"##atch":2418,"does":2419,"ma":2420,"##ible":2421,"sub":2422,"own":2423,"med":2424,"##ting":2425,"cour":2426,"##ange":2427,"game":2428,"char":2429,"prob":2430,"point":2431,"such":2432,"hel":2433,"##ug":2434,"##ts":2435,"##ward":2436,"wee":2437,"here":2438,"##omet":2439,"##ince":2440,"going":2441,"##ters":2442,"##get":2443,"resp":2444,"dep":2445,"##ues":2446,"prod":2447,"eff":2448,"law":2449,"made":2450,"pers":2451,"##eral":2452,"##io":2453,"##az":2454,"mod":2455,"disc":2456,"aut":2457,"##ism":2458,"##ually":2459,"lead":2460,"##ular":2461,"##ving":2462,"##ix":2463,"##ility":2464,"cap":2465,"##llow":2466,"against":2467,"##orn":2468,"differ":2469,"take":2470,"##air":2471,"found":2472,"set":2473,"day":2474,"though":2475,"##up":2476,"##ier":2477,"##its":2478,"##ife":2479,"read":2480,"president":2481,"still":2482,"##illion":2483,"help":2484,"##ful":2485,"offic":2486,"great":2487,"sl":2488,"trans":2489,"three":2490,"government":2491,"##let":2492,"says":2493,"##ood":2494,"##man":2495,"##ope":2496,"somet":2497,"##ists":2498,"##ween":2499,"##ee":2500,"sign":2501,"spec":2502,"##ress":2503,"between":2504,"##ently":2505,"soc":2506,"##stem":2507,"mem":2508,"countr":2509,"prov":2510,"group":2511,"big":2512,"during":2513,"##als":2514,"real":2515,"num":2516,"sur":2517,"lar":2518,"elect":2519,"run":2520,"##ked":2521,"bus":2522,"since":2523,"same":2524,"##gan":2525,"really":2526,"##ying":2527,"system":2528,"around":2529,"both":2530,"hand":2531,"##ives":2532,"##irect":2533,"##ah":2534,"follow":2535,"public":2536,"leg":2537,"##self":2538,"##con":2539,"wom":2540,"##ene":2541,"##bo":2542,"prop":2543,"##yp":2544,"##ote":2545,"##led":2546,"##ork":2547,"##land":2548,"polit":2549,"##cept":2550,"cle":2551,"el":2552,"compan":2553,"##hip":2554,"##cr":2555,"support":2556,"##ient":2557,"##iet":2558,"##uss":2559,"##ames":2560,"##ves":2561,"ret":2562,"sen":2563,"mark":2564,"direct":2565,"##ever":2566,"##read":2567,"##velop":2568,"let":2569,"##ution":2570,"trump":2571,"find":2572,"##ouse":2573,"ho":2574,"det":2575,"conf":2576,"used":2577,"week":2578,"##ures":2579,"tal":2580,"##ton":2581,"person":2582,"fact":2583,"##ather":2584,"art":2585,"red":2586,"develop":2587,"fam":2588,"##cent":2589,"##way":2590,"met":2591,"##ern":2592,"cor":2593,"cre":2594,"progr":2595,"prot":2596,"happ":2597,"##ool":2598,"power":2599,"win":2600,"##ivers":2601,"post":2602,"##ered":2603,"iss":2604,"contin":2605,"##ines":2606,"##ash":2607,"bre":2608,"far":2609,"inf":2610,"##pr":2611,"##ax":2612,"##ik":2613,"##lish":2614,"city":2615,"old":2616,"month":2617,"##ience":2618,"##ave":2619,"commun":2620,"camp":2621,"told":2622,"put":2623,"nor":2624,"ann":2625,"lot":2626,"another":2627,"##istr":2628,"##ph":2629,"##ale":2630,"open":2631,"##ank":2632,"top":2633,"head":2634,"##ices":2635,"av":2636,"eng":2637,"tech":2638,"000":2639,"invest":2640,"second":2641,"adv":2642,"quest":2643,"intern":2644,"each":2645,"##akes":2646,"plan":2647,"##gest":2648,"life":2649,"##erg":2650,"rev":2651,"few":2652,"##ially":2653,"hum":2654,"belie":2655,"##ize":2656,"##ording":2657,"why":2658,"##per":2659,"##ont":2660,"too":2661,"opp":2662,"police":2663,"fil":2664,"##ount":2665,"##str":2666,"never":2667,"news":2668,"ord":2669,"ins":2670,"##lem":2671,"##ages":2672,"##ically":2673,"turn":2674,"##ency":2675,"loc":2676,"##ision":2677,"things":2678,"##ins":2679,"bar":2680,"poss":2681,"however":2682,"best":2683,"pass":2684,"conc":2685,"school":2686,"stand":2687,"requ":2688,"##ants":2689,"something":2690,"12":2691,"##ized":2692,"come":2693,"next":2694,"val":2695,"##ott":2696,"curr":2697,"##ime":2698,"##ior":2699,"##br":2700,"states":2701,"##alth":2702,"different":2703,"hard":2704,"##ead":2705,"##ology":2706,"four":2707,"ll":2708,"##tern":2709,"mil":2710,"ide":2711,"##co":2712,"##ger":2713,"might":2714,"##bs":2715,"##ute":2716,"main":2717,"rele":2718,"proc":2719,"serv":2720,"##err":2721,"11":2722,"according":2723,"air":2724,"##ling":2725,"##thing":2726,"test":2727,"##ody":2728,"##iving":2729,"result":2730,"##bers":2731,"house":2732,"##med":2733,"15":2734,"##ets":2735,"build":2736,"home":2737,"partic":2738,"dat":2739,"season":2740,"sk":2741,"problem":2742,"prof":2743,"##ric":2744,"##ention":2745,"econ":2746,"percent":2747,"##ne":2748,"##ret":2749,"including":2750,"american":2751,"##ri":2752,"list":2753,"econom":2754,"##ark":2755,"full":2756,"without":2757,"auth":2758,"feel":2759,"child":2760,"incre":2761,"national":2762,"product":2763,"import":2764,"seem":2765,"chr":2766,"free":2767,"##iness":2768,"fun":2769,"expl":2770,"##ittle":2771,"sw":2772,"##ull":2773,"##res":2774,"less":2775,"pop":2776,"care":2777,"##ield":2778,"allow":2779,"##ness":2780,"##son":2781,"##ined":2782,"number":2783,"##king":2784,"million":2785,"##pl":2786,"left":2787,"exper":2788,"level":2789,"little":2790,"techn":2791,"spe":2792,"ref":2793,"##ected":2794,"##ced":2795,"ext":2796,"called":2797,"better":2798,"18":2799,"##ner":2800,"beh":2801,"inform":2802,"country":2803,"la":2804,"##ces":2805,"##earch":2806,"research":2807,"##ately":2808,"sol":2809,"pos":2810,"pat":2811,"##ably":2812,"keep":2813,"place":2814,"interest":2815,"near":2816,"mus":2817,"rest":2818,"pay":2819,"face":2820,"ir":2821,"##aim":2822,"effect":2823,"adm":2824,"sou":2825,"mat":2826,"##iting":2827,"cond":2828,"##osed":2829,"arr":2830,"prev":2831,"times":2832,"##red":2833,"got":2834,"##ina":2835,"##ama":2836,"##ways":2837,"book":2838,"using":2839,"design":2840,"eas":2841,"har":2842,"gre":2843,"##ering":2844,"case":2845,"##ital":2846,"bit":2847,"maj":2848,"##til":2849,"##ten":2850,"##ised":2851,"##ats":2852,"program":2853,"cal":2854,"consid":2855,"miss":2856,"didn":2857,"typ":2858,"##over":2859,"press":2860,"move":2861,"##oney":2862,"term":2863,"##ral":2864,"##ains":2865,"##ction":2866,"##eng":2867,"##ocr":2868,"eur":2869,"##ained":2870,"##uck":2871,"simp":2872,"sever":2873,"prom":2874,"stre":2875,"hist":2876,"later":2877,"##ds":2878,"story":2879,"based":2880,"star":2881,"white":2882,"change":2883,"business":2884,"attack":2885,"del":2886,"clear":2887,"##inal":2888,"women":2889,"mid":2890,"mr":2891,"##ned":2892,"major":2893,"court":2894,"ra":2895,"cost":2896,"small":2897,"##hn":2898,"company":2899,"##ived":2900,"##ends":2901,"ste":2902,"organ":2903,"aff":2904,"##ven":2905,"##ense":2906,"class":2907,"appear":2908,"##atur":2909,"mean":2910,"##ator":2911,"##atic":2912,"health":2913,"project":2914,"univers":2915,"author":2916,"gl":2917,"vis":2918,"##line":2919,"polic":2920,"human":2921,"##ister":2922,"##iven":2923,"united":2924,"net":2925,"phot":2926,"30":2927,"lib":2928,"money":2929,"today":2930,"data":2931,"cert":2932,"##less":2933,"process":2934,"always":2935,"pur":2936,"past":2937,"terr":2938,"bas":2939,"##ged":2940,"chang":2941,"##ared":2942,"sing":2943,"once":2944,"party":2945,"important":2946,"rece":2947,"est":2948,"must":2949,"##aff":2950,"record":2951,"democr":2952,"ent":2953,"tax":2954,"##ature":2955,"claim":2956,"##ren":2957,"##ided":2958,"thing":2959,"##ready":2960,"already":2961,"political":2962,"##ians":2963,"fund":2964,"black":2965,"tell":2966,"var":2967,"##wh":2968,"line":2969,"grow":2970,"vide":2971,"men":2972,"making":2973,"view":2974,"##used":2975,"pot":2976,"least":2977,"pa":2978,"until":2979,"##ury":2980,"deb":2981,"opt":2982,"vi":2983,"##stand":2984,"return":2985,"former":2986,"fri":2987,"social":2988,"##be":2989,"##aining":2990,"##me":2991,"##ample":2992,"john":2993,"water":2994,"##erv":2995,"##aph":2996,"large":2997,"hal":2998,"oper":2999,"##app":3000,"##ases":3001,"lear":3002,"199":3003,"##ences":3004,"official":3005,"##ending":3006,"mor":3007,"days":3008,"family":3009,"happen":3010,"land":3011,"##aign":3012,"information":3013,"edit":3014,"games":3015,"media":3016,"campaign":3017,"occ":3018,"sit":3019,"##loy":3020,"actually":3021,"youn":3022,"ap":3023,"##ether":3024,"appro":3025,"##oub":3026,"##att":3027,"market":3028,"13":3029,"##itch":3030,"hu":3031,"kill":3032,"##acy":3033,"night":3034,"vot":3035,"republic":3036,"foot":3037,"kind":3038,"able":3039,"enough":3040,"order":3041,"emp":3042,"##ley":3043,"##ode":3044,"es":3045,"gener":3046,"arg":3047,"##augh":3048,"##ew":3049,"wal":3050,"doesn":3051,"won":3052,"14":3053,"fac":3054,"five":3055,"name":3056,"##unch":3057,"##ired":3058,"##orts":3059,"fed":3060,"several":3061,"##ession":3062,"often":3063,"##mm":3064,"bill":3065,"ant":3066,"sug":3067,"become":3068,"##ief":3069,"working":3070,"away":3071,"non":3072,"##ium":3073,"yet":3074,"##ality":3075,"watch":3076,"exc":3077,"hour":3078,"early":3079,"came":3080,"having":3081,"equ":3082,"##ird":3083,"north":3084,"##ified":3085,"secur":3086,"crit":3087,"sure":3088,"fur":3089,"##gin":3090,"players":3091,"stop":3092,"##ued":3093,"trad":3094,"##ards":3095,"whether":3096,"europe":3097,"##ising":3098,"##ush":3099,"give":3100,"question":3101,"##sh":3102,"deal":3103,"fre":3104,"perform":3105,"16":3106,"lab":3107,"event":3108,"arm":3109,"##ball":3110,"ge":3111,"##ensive":3112,"fut":3113,"sour":3114,"##ipp":3115,"meet":3116,"##crib":3117,"##ides":3118,"##ential":3119,"ca":3120,"complet":3121,"cho":3122,"certain":3123,"##ison":3124,"cover":3125,"##iam":3126,"activ":3127,"york":3128,"priv":3129,"##els":3130,"vers":3131,"##ization":3132,"##ony":3133,"step":3134,"known":3135,"lim":3136,"short":3137,"##empt":3138,"##enn":3139,"among":3140,"took":3141,"25":3142,"##ember":3143,"##erman":3144,"##ove":3145,"##ither":3146,"local":3147,"##itions":3148,"##idence":3149,"asked":3150,"control":3151,"course":3152,"bro":3153,"##ov":3154,"seen":3155,"charac":3156,"##ru":3157,"low":3158,"##icle":3159,"doing":3160,"dev":3161,"orig":3162,"##aps":3163,"within":3164,"dom":3165,"##lex":3166,"university":3167,"alm":3168,"went":3169,"17":3170,"pract":3171,"along":3172,"side":3173,"esp":3174,"sn":3175,"##aken":3176,"love":3177,"given":3178,"pub":3179,"##iety":3180,"general":3181,"##inc":3182,"acr":3183,"likely":3184,"##te":3185,"##ories":3186,"##uary":3187,"example":3188,"succ":3189,"##iously":3190,"sal":3191,"depart":3192,"light":3193,"##aring":3194,"members":3195,"##ought":3196,"investig":3197,"##ended":3198,"possible":3199,"young":3200,"security":3201,"fail":3202,"##ots":3203,"strong":3204,"obama":3205,"##ones":3206,"christ":3207,"future":3208,"hold":3209,"tot":3210,"understand":3211,"video":3212,"##thers":3213,"ce":3214,"##side":3215,"viol":3216,"##ane":3217,"across":3218,"##lf":3219,"interv":3220,"children":3221,"enter":3222,"##que":3223,"space":3224,"##ann":3225,"##ured":3226,"##tt":3227,"##mber":3228,"##ateg":3229,"community":3230,"##urs":3231,"thought":3232,"reason":3233,"addition":3234,"##imate":3235,"announ":3236,"done":3237,"mind":3238,"##ivid":3239,"following":3240,"means":3241,"##work":3242,"film":3243,"##by":3244,"conn":3245,"south":3246,"sound":3247,"##une":3248,"const":3249,"further":3250,"##itter":3251,"##oci":3252,"00":3253,"months":3254,"success":3255,"believe":3256,"russ":3257,"##arch":3258,"##ilar":3259,"getting":3260,"indust":3261,"reported":3262,"others":3263,"office":3264,"almost":3265,"##ination":3266,"fight":3267,"##ware":3268,"half":3269,"mag":3270,"anal":3271,"super":3272,"creat":3273,"100":3274,"##fe":3275,"##ague":3276,"ident":3277,"series":3278,"##lished":3279,"vict":3280,"suggest":3281,"sex":3282,"makes":3283,"rul":3284,"##ted":3285,"##oph":3286,"compet":3287,"cut":3288,"fall":3289,"history":3290,"glo":3291,"ple":3292,"study":3293,"international":3294,"fire":3295,"##itive":3296,"bad":3297,"##ortun":3298,"invol":3299,"issue":3300,"associ":3301,"distr":3302,"mom":3303,"instead":3304,"started":3305,"america":3306,"policy":3307,"##por":3308,"##book":3309,"canad":3310,"##par":3311,"50":3312,"##vers":3313,"##ergy":3314,"milit":3315,"particular":3316,"repres":3317,"scient":3318,"avail":3319,"sho":3320,"food":3321,"tar":3322,"live":3323,"rather":3324,"looking":3325,"##com":3326,"try":3327,"2016":3328,"service":3329,"similar":3330,"area":3331,"ep":3332,"reach":3333,"individ":3334,"##osp":3335,"quick":3336,"key":3337,"idea":3338,"##lement":3339,"imm":3340,"fig":3341,"colle":3342,"##ars":3343,"##ulation":3344,"lat":3345,"##aged":3346,"env":3347,"den":3348,"toget":3349,"together":3350,"foc":3351,"sent":3352,"##ows":3353,"points":3354,"##ference":3355,"cult":3356,"##ai":3357,"cell":3358,"ris":3359,"##ators":3360,"bene":3361,"special":3362,"intr":3363,"impro":3364,"added":3365,"ban":3366,"close":3367,"six":3368,"wind":3369,"isn":3370,"death":3371,"##ape":3372,"anything":3373,"##uction":3374,"protect":3375,"tre":3376,"##ler":3377,"trying":3378,"##back":3379,"mass":3380,"##ances":3381,"##uce":3382,"federal":3383,"dist":3384,"front":3385,"stat":3386,"german":3387,"##imes":3388,"committ":3389,"aust":3390,"##fic":3391,"cam":3392,"center":3393,"individual":3394,"comes":3395,"port":3396,"pick":3397,"##eign":3398,"discuss":3399,"rad":3400,"ago":3401,"##utes":3402,"##bal":3403,"admin":3404,"present":3405,"twitter":3406,"secret":3407,"behind":3408,"cy":3409,"mult":3410,"taken":3411,"##ids":3412,"capt":3413,"recent":3414,"2015":3415,"jud":3416,"##ored":3417,"energy":3418,"complete":3419,"er":3420,"job":3421,"available":3422,"cop":3423,"west":3424,"##ogr":3425,"##uced":3426,"san":3427,"upd":3428,"rights":3429,"nothing":3430,"tit":3431,"vir":3432,"entire":3433,"21":3434,"relig":3435,"init":3436,"pret":3437,"##selves":3438,"##ission":3439,"someone":3440,"development":3441,"email":3442,"mess":3443,"current":3444,"##erc":3445,"##ability":3446,"ey":3447,"player":3448,"##wards":3449,"wa":3450,"god":3451,"employ":3452,"attempt":3453,"access":3454,"wanted":3455,"saying":3456,"probably":3457,"mot":3458,"taking":3459,"gun":3460,"experience":3461,"field":3462,"exec":3463,"hit":3464,"image":3465,"infl":3466,"either":3467,"jour":3468,"##though":3469,"dam":3470,"##igr":3471,"phys":3472,"although":3473,"2014":3474,"dav":3475,"single":3476,"##iron":3477,"##ument":3478,"##ps":3479,"china":3480,"##aper":3481,"match":3482,"##aster":3483,"##0s":3484,"third":3485,"fav":3486,"brit":3487,"##ls":3488,"action":3489,"##ald":3490,"enc":3491,"doub":3492,"##ges":3493,"cann":3494,"break":3495,"room":3496,"bi":3497,"aud":3498,"threat":3499,"exist":3500,"department":3501,"desp":3502,"aver":3503,"cust":3504,"##amed":3505,"coming":3506,"economic":3507,"bring":3508,"rich":3509,"##sw":3510,"che":3511,"doc":3512,"clint":3513,"##ands":3514,"##uly":3515,"educ":3516,"body":3517,"conv":3518,"interview":3519,"##vert":3520,"mill":3521,"league":3522,"concern":3523,"earl":3524,"due":3525,"environ":3526,"summ":3527,"washing":3528,"tra":3529,"##rael":3530,"final":3531,"everything":3532,"countries":3533,"continue":3534,"cand":3535,"##for":3536,"##leg":3537,"late":3538,"woman":3539,"##reme":3540,"chec":3541,"administr":3542,"israel":3543,"##gress":3544,"simply":3545,"price":3546,"lang":3547,"##ipt":3548,"2017":3549,"signific":3550,"election":3551,"hom":3552,"##oy":3553,"##ming":3554,"else":3555,"club":3556,"civ":3557,"tem":3558,"##nes":3559,"##sy":3560,"specific":3561,"meas":3562,"collect":3563,"##iter":3564,"clinton":3565,"##den":3566,"##aces":3567,"##uation":3568,"describ":3569,"ground":3570,"review":3571,"building":3572,"represent":3573,"begin":3574,"street":3575,"share":3576,"minister":3577,"track":3578,"everyone":3579,"vol":3580,"bud":3581,"below":3582,"issues":3583,"matter":3584,"ball":3585,"evidence":3586,"div":3587,"washington":3588,"bank":3589,"director":3590,"target":3591,"et":3592,"##old":3593,"deep":3594,"words":3595,"198":3596,"foreign":3597,"22":3598,"ur":3599,"relations":3600,"scre":3601,"companies":3602,"block":3603,"hope":3604,"##fl":3605,"coup":3606,"chall":3607,"role":3608,"##uff":3609,"wasn":3610,"abs":3611,"military":3612,"true":3613,"outside":3614,"cir":3615,"uk":3616,"##mb":3617,"launch":3618,"treat":3619,"conserv":3620,"24":3621,"billion":3622,"environment":3623,"common":3624,"##ij":3625,"position":3626,"saw":3627,"create":3628,"yes":3629,"legal":3630,"respons":3631,"jan":3632,"diffic":3633,"comb":3634,"repl":3635,"difficult":3636,"link":3637,"mal":3638,"squ":3639,"coach":3640,"2013":3641,"self":3642,"gold":3643,"2012":3644,"custom":3645,"force":3646,"espec":3647,"running":3648,"##yn":3649,"##ival":3650,"##dle":3651,"##ites":3652,"wrote":3653,"especially":3654,"##ule":3655,"##ring":3656,"sand":3657,"leaders":3658,"##use":3659,"whole":3660,"financ":3661,"green":3662,"despite":3663,"##urch":3664,"playing":3665,"led":3666,"agree":3667,"susp":3668,"higher":3669,"article":3670,"technology":3671,"neg":3672,"terror":3673,"##lling":3674,"##ault":3675,"character":3676,"vo":3677,"##ength":3678,"##ify":3679,"obs":3680,"students":3681,"earlier":3682,"pet":3683,"music":3684,"total":3685,"age":3686,"global":3687,"decision":3688,"##ogn":3689,"version":3690,"benef":3691,"##umb":3692,"circ":3693,"dest":3694,"##ney":3695,"significant":3696,"soft":3697,"candid":3698,"society":3699,"pretty":3700,"mc":3701,"pal":3702,"vote":3703,"suff":3704,"expect":3705,"seems":3706,"gir":3707,"hours":3708,"##ibility":3709,"detail":3710,"da":3711,"nation":3712,"coll":3713,"##ully":3714,"##af":3715,"became":3716,"civil":3717,"type":3718,"langu":3719,"dead":3720,"march":3721,"sense":3722,"board":3723,"value":3724,"facebook":3725,"pan":3726,"page":3727,"services":3728,"champ":3729,"answ":3730,"site":3731,"##ively":3732,"decl":3733,"pred":3734,"htt":3735,"##ional":3736,"needs":3737,"talk":3738,"engine":3739,"shoot":3740,"subject":3741,"consider":3742,"potential":3743,"bur":3744,"include":3745,"church":3746,"cit":3747,"##ana":3748,"##ological":3749,"release":3750,"##nal":3751,"##ench":3752,"drop":3753,"network":3754,"40":3755,"##lam":3756,"##orr":3757,"##oud":3758,"related":3759,"##ograph":3760,"provide":3761,"aw":3762,"began":3763,"mov":3764,"##onse":3765,"road":3766,"ill":3767,"statement":3768,"source":3769,"##asing":3770,"##iday":3771,"inj":3772,"##ental":3773,"advert":3774,"speak":3775,"##ural":3776,"above":3777,"##body":3778,"##go":3779,"##aft":3780,"itself":3781,"word":3782,"drug":3783,"object":3784,"shows":3785,"mich":3786,"nec":3787,"##esh":3788,"refer":3789,"##ibut":3790,"cred":3791,"played":3792,"instit":3793,"themselves":3794,"himself":3795,"football":3796,"pain":3797,"note":3798,"execut":3799,"lost":3800,"accept":3801,"online":3802,"heart":3803,"results":3804,"##ender":3805,"##und":3806,"popular":3807,"officials":3808,"broad":3809,"laws":3810,"questions":3811,"##ests":3812,"base":3813,"wall":3814,"##yle":3815,"norm":3816,"rob":3817,"wed":3818,"defense":3819,"changes":3820,"industry":3821,"connect":3822,"##fully":3823,"needed":3824,"released":3825,"##oring":3826,"staff":3827,"host":3828,"stay":3829,"##hood":3830,"recently":3831,"response":3832,"friends":3833,"##ped":3834,"chief":3835,"##iple":3836,"groups":3837,"corre":3838,"approach":3839,"opportun":3840,"photo":3841,"sund":3842,"anyone":3843,"nearly":3844,"consum":3845,"##iod":3846,"##port":3847,"ang":3848,"##istic":3849,"cur":3850,"soon":3851,"##action":3852,"##ilt":3853,"search":3854,"model":3855,"function":3856,"meth":3857,"paul":3858,"living":3859,"##ift":3860,"science":3861,"tele":3862,"sept":3863,"##oint":3864,"hill":3865,"##ster":3866,"heav":3867,"##elt":3868,"personal":3869,"period":3870,"ah":3871,"particip":3872,"sil":3873,"##rew":3874,"mic":3875,"##ms":3876,"pack":3877,"published":3878,"##lim":3879,"ul":3880,"##erty":3881,"address":3882,"east":3883,"mis":3884,"##omp":3885,"##atives":3886,"works":3887,"middle":3888,"private":3889,"oct":3890,"hot":3891,"prim":3892,"goal":3893,"anti":3894,"flo":3895,"forward":3896,"republican":3897,"moment":3898,"college":3899,"di":3900,"shot":3901,"draw":3902,"197":3903,"created":3904,"quite":3905,"scr":3906,"teams":3907,"respond":3908,"##asons":3909,"select":3910,"express":3911,"minutes":3912,"hon":3913,"##oll":3914,"held":3915,"##aced":3916,"strateg":3917,"##load":3918,"longer":3919,"hun":3920,"je":3921,"round":3922,"exact":3923,"##apan":3924,"weeks":3925,"cases":3926,"constr":3927,"introd":3928,"average":3929,"rock":3930,"content":3931,"problems":3932,"shar":3933,"regard":3934,"card":3935,"mater":3936,"tur":3937,"internet":3938,"focus":3939,"##urd":3940,"##ucture":3941,"japan":3942,"race":3943,"wrong":3944,"##attle":3945,"extr":3946,"natur":3947,"park":3948,"americans":3949,"learn":3950,"journal":3951,"##olution":3952,"chance":3953,"arch":3954,"text":3955,"administration":3956,"islam":3957,"##osing":3958,"pict":3959,"2011":3960,"leader":3961,"aug":3962,"webs":3963,"comment":3964,"calif":3965,"##haps":3966,"log":3967,"##lus":3968,"announced":3969,"28":3970,"##ades":3971,"perhaps":3972,"fem":3973,"que":3974,"##key":3975,"##epend":3976,"hop":3977,"oil":3978,"town":3979,"##ished":3980,"friend":3981,"risk":3982,"##ron":3983,"##atures":3984,"##okes":3985,"capital":3986,"easy":3987,"196":3988,"##iding":3989,"leave":3990,"23":3991,"##rop":3992,"##ises":3993,"##medi":3994,"austral":3995,"language":3996,"earth":3997,"influ":3998,"ver":3999,"son":4000,"##rupt":4001,"original":4002,"king":4003,"mond":4004,"independ":4005,"maybe":4006,"reports":4007,"sometimes":4008,"impact":4009,"account":4010,"member":4011,"june":4012,"congress":4013,"fair":4014,"increase":4015,"wide":4016,"worth":4017,"india":4018,"buy":4019,"bal":4020,"pie":4021,"##ugg":4022,"financial":4023,"##ream":4024,"demand":4025,"education":4026,"##ob":4027,"##arter":4028,"manag":4029,"currently":4030,"size":4031,"##ique":4032,"##arr":4033,"studies":4034,"inside":4035,"##thern":4036,"##sec":4037,"##itting":4038,"defin":4039,"ess":4040,"##ex":4041,"unf":4042,"comput":4043,"##ude":4044,"##na":4045,"recogn":4046,"##yr":4047,"dece":4048,"rac":4049,"##cil":4050,"users":4051,"##ellig":4052,"favor":4053,"ways":4054,"expected":4055,"finally":4056,"please":4057,"##ino":4058,"progress":4059,"check":4060,"##uth":4061,"via":4062,"contract":4063,"##ey":4064,"constit":4065,"##ops":4066,"goog":4067,"tues":4068,"ira":4069,"reve":4070,"##ested":4071,"committee":4072,"doll":4073,"27":4074,"production":4075,"tuesday":4076,"happened":4077,"method":4078,"##isl":4079,"##ips":4080,"##where":4081,"sunday":4082,"climate":4083,"intellig":4084,"##oke":4085,"google":4086,"dog":4087,"performance":4088,"sold":4089,"situation":4090,"david":4091,"dig":4092,"##ett":4093,"immedi":4094,"##anger":4095,"rules":4096,"worked":4097,"blood":4098,"##bc":4099,"2010":4100,"##gn":4101,"january":4102,"loss":4103,"##uit":4104,"##cript":4105,"li":4106,"rate":4107,"##lin":4108,"complex":4109,"99":4110,"ran":4111,"teach":4112,"emerg":4113,"friday":4114,"surve":4115,"fans":4116,"tool":4117,"##omm":4118,"turned":4119,"terms":4120,"cannot":4121,"necess":4122,"ten":4123,"european":4124,"##itten":4125,"famil":4126,"relationship":4127,"movement":4128,"##ees":4129,"determ":4130,"web":4131,"phil":4132,"legisl":4133,"anim":4134,"attr":4135,"##ried":4136,"except":4137,"received":4138,"apr":4139,"jack":4140,"surpr":4141,"material":4142,"monday":4143,"##lear":4144,"aren":4145,"ask":4146,"ability":4147,"standard":4148,"il":4149,"##ners":4150,"indic":4151,"central":4152,"##coin":4153,"speed":4154,"californ":4155,"##bert":4156,"couple":4157,"gar":4158,"weap":4159,"obv":4160,"involved":4161,"quickly":4162,"iraq":4163,"british":4164,"thous":4165,"##ese":4166,"##ores":4167,"workers":4168,"confir":4169,"##aming":4170,"amount":4171,"practice":4172,"september":4173,"lay":4174,"oh":4175,"##fect":4176,"contact":4177,"simple":4178,"becom":4179,"applic":4180,"modern":4181,"plans":4182,"estab":4183,"mach":4184,"economy":4185,"sun":4186,"leav":4187,"events":4188,"phone":4189,"cast":4190,"##ging":4191,"built":4192,"poll":4193,"cup":4194,"images":4195,"ok":4196,"takes":4197,"tradition":4198,"gave":4199,"sat":4200,"tv":4201,"##atory":4202,"trade":4203,"##idents":4204,"##ilities":4205,"heard":4206,"##of":4207,"enj":4208,"council":4209,"26":4210,"canada":4211,"figure":4212,"mart":4213,"unl":4214,"syr":4215,"camer":4216,"##ients":4217,"##iff":4218,"discover":4219,"april":4220,"pull":4221,"##ctor":4222,"chair":4223,"prem":4224,"insp":4225,"conference":4226,"respect":4227,"tom":4228,"poor":4229,"lack":4230,"separ":4231,"guard":4232,"ach":4233,"crim":4234,"iran":4235,"##izing":4236,"career":4237,"push":4238,"##onstr":4239,"century":4240,"sens":4241,"##amm":4242,"subs":4243,"decided":4244,"july":4245,"sup":4246,"expert":4247,"eight":4248,"fix":4249,"##eal":4250,"morning":4251,"ele":4252,"lives":4253,"slow":4254,"meeting":4255,"##oon":4256,"hear":4257,"travel":4258,"paper":4259,"##ael":4260,"prior":4261,"bir":4262,"felt":4263,"table":4264,"grand":4265,"##xic":4266,"nove":4267,"wednes":4268,"california":4269,"pen":4270,"color":4271,"communic":4272,"killed":4273,"growth":4274,"training":4275,"behav":4276,"huge":4277,"##ask":4278,"neigh":4279,"veh":4280,"extreme":4281,"considered":4282,"lower":4283,"##ams":4284,"remember":4285,"code":4286,"##tain":4287,"officers":4288,"neighb":4289,"##pect":4290,"mother":4291,"rom":4292,"range":4293,"##estern":4294,"whose":4295,"additional":4296,"wednesday":4297,"hall":4298,"serious":4299,"improve":4300,"father":4301,"wond":4302,"included":4303,"talking":4304,"goes":4305,"corpor":4306,"russia":4307,"fast":4308,"visit":4309,"democratic":4310,"##imum":4311,"december":4312,"fal":4313,"cross":4314,"perfect":4315,"purp":4316,"fear":4317,"compl":4318,"##eech":4319,"seven":4320,"quality":4321,"assist":4322,"dark":4323,"##ening":4324,"speech":4325,"resour":4326,"##raft":4327,"bott":4328,"satur":4329,"##osition":4330,"##ung":4331,"song":4332,"##ibly":4333,"november":4334,"hy":4335,"justice":4336,"##iction":4337,"unc":4338,"afric":4339,"quarter":4340,"numbers":4341,"august":4342,"hands":4343,"deliver":4344,"##ened":4345,"item":4346,"reading":4347,"##off":4348,"##eed":4349,"knew":4350,"##force":4351,"##orters":4352,"##ceed":4353,"imag":4354,"regular":4355,"eg":4356,"offer":4357,"require":4358,"medical":4359,"##ining":4360,"agency":4361,"choice":4362,"analys":4363,"epis":4364,"##20":4365,"guy":4366,"citiz":4367,"reb":4368,"user":4369,"daily":4370,"cause":4371,"hosp":4372,"##icles":4373,"##ober":4374,"forces":4375,"spent":4376,"box":4377,"movie":4378,"tried":4379,"website":4380,"bey":4381,"various":4382,"##iation":4383,"##omb":4384,"officer":4385,"intelligence":4386,"29":4387,"##to":4388,"plat":4389,"alb":4390,"gets":4391,"county":4392,"medic":4393,"skill":4394,"##ider":4395,"areas":4396,"senate":4397,"title":4398,"##cl":4399,"boy":4400,"##play":4401,"previous":4402,"hund":4403,"##etic":4404,"geor":4405,"champions":4406,"35":4407,"wild":4408,"writing":4409,"##light":4410,"##uk":4411,"##uf":4412,"reveal":4413,"2009":4414,"file":4415,"named":4416,"thurs":4417,"##ires":4418,"written":4419,"allowed":4420,"immigr":4421,"software":4422,"sort":4423,"##mp":4424,"##ctions":4425,"concept":4426,"clean":4427,"advertise":4428,"natural":4429,"##oid":4430,"##kn":4431,"##ledge":4432,"culture":4433,"hundred":4434,"island":4435,"##istan":4436,"certainly":4437,"october":4438,"date":4439,"inn":4440,"bitcoin":4441,"##bi":4442,"##ume":4443,"jobs":4444,"kh":4445,"prep":4446,"##idge":4447,"document":4448,"##owd":4449,"upon":4450,"thursday":4451,"union":4452,"##ubb":4453,"##ondon":4454,"victim":4455,"fill":4456,"brown":4457,"starting":4458,"conduct":4459,"beyond":4460,"sett":4461,"exactly":4462,"parents":4463,"interesting":4464,"opportunity":4465,"##cer":4466,"gas":4467,"stories":4468,"trust":4469,"budget":4470,"##atter":4471,"##dr":4472,"saf":4473,"2008":4474,"rap":4475,"##ux":4476,"touch":4477,"william":4478,"particularly":4479,"london":4480,"biggest":4481,"##aut":4482,"republicans":4483,"attention":4484,"##craft":4485,"usually":4486,"majority":4487,"##ification":4488,"pressure":4489,"completely":4490,"swe":4491,"##oles":4492,"commission":4493,"safe":4494,"brought":4495,"##itted":4496,"bush":4497,"ice":4498,"##agement":4499,"systems":4500,"schools":4501,"##arily":4502,"##ida":4503,"features":4504,"donald":4505,"politics":4506,"muslim":4507,"##eter":4508,"##essional":4509,"investigation":4510,"cele":4511,"hous":4512,"ow":4513,"cris":4514,"autom":4515,"executive":4516,"western":4517,"style":4518,"convers":4519,"##ounts":4520,"freed":4521,"http":4522,"mad":4523,"mention":4524,"##zz":4525,"##lly":4526,"answer":4527,"stuff":4528,"population":4529,"##iant":4530,"##sequ":4531,"amaz":4532,"histor":4533,"##aries":4534,"prison":4535,"saturday":4536,"ens":4537,"max":4538,"letter":4539,"fa":4540,"##ety":4541,"critic":4542,"message":4543,"continued":4544,"##bit":4545,"##ament":4546,"##uses":4547,"crime":4548,"##sych":4549,"##oo":4550,"drink":4551,"##encies":4552,"latest":4553,"update":4554,"alle":4555,"spir":4556,"effects":4557,"growing":4558,"achie":4559,"##inated":4560,"##isions":4561,"counter":4562,"wants":4563,"roll":4564,"thinking":4565,"demonstr":4566,"celebr":4567,"##sc":4568,"princ":4569,"##inese":4570,"voters":4571,"ny":4572,"looks":4573,"tor":4574,"##ously":4575,"looked":4576,"property":4577,"enjoy":4578,"deg":4579,"##enced":4580,"effort":4581,"chinese":4582,"##ha":4583,"appar":4584,"blue":4585,"##entially":4586,"cook":4587,"45":4588,"cat":4589,"comments":4590,"##aging":4591,"levels":4592,"kids":4593,"mob":4594,"##ugh":4595,"implement":4596,"leading":4597,"danger":4598,"pun":4599,"##erve":4600,"##ma":4601,"attacks":4602,"psych":4603,"spokes":4604,"##wor":4605,"##imately":4606,"democrats":4607,"debate":4608,"limited":4609,"secretary":4610,"income":4611,"##asc":4612,"##oses":4613,"attorn":4614,"60":4615,"##uments":4616,"peace":4617,"inte":4618,"remain":4619,"reality":4620,"frequ":4621,"germany":4622,"battle":4623,"alone":4624,"##come":4625,"district":4626,"religious":4627,"31":4628,"nuc":4629,"##fort":4630,"print":4631,"blog":4632,"emb":4633,"meaning":4634,"overall":4635,"english":4636,"described":4637,"required":4638,"purch":4639,"wouldn":4640,"disp":4641,"calls":4642,"remains":4643,"##adem":4644,"febr":4645,"write":4646,"authority":4647,"500":4648,"##enge":4649,"regul":4650,"mcc":4651,"sports":4652,"entr":4653,"ready":4654,"increasing":4655,"band":4656,"install":4657,"##aught":4658,"freedom":4659,"february":4660,"mount":4661,"##mon":4662,"army":4663,"summer":4664,"ult":4665,"thus":4666,"plant":4667,"click":4668,"nature":4669,"##uing":4670,"claims":4671,"bow":4672,"##eth":4673,"##ension":4674,"rand":4675,"wife":4676,"reasons":4677,"organization":4678,"physical":4679,"scene":4680,"experi":4681,"ii":4682,"store":4683,"recomm":4684,"flor":4685,"##anced":4686,"russian":4687,"path":4688,"indian":4689,"##ground":4690,"changed":4691,"bord":4692,"jer":4693,"spot":4694,"##reg":4695,"drive":4696,"command":4697,"products":4698,"contribut":4699,"presidential":4700,"surv":4701,"eventually":4702,"criminal":4703,"##mer":4704,"ut":4705,"brain":4706,"carry":4707,"violence":4708,"platform":4709,"safety":4710,"paid":4711,"traff":4712,"stra":4713,"strugg":4714,"fly":4715,"twe":4716,"immediately":4717,"exch":4718,"altern":4719,"##eless":4720,"throughout":4721,"estim":4722,"extra":4723,"analysis":4724,"james":4725,"##ky":4726,"efforts":4727,"profess":4728,"thousands":4729,"prime":4730,"couldn":4731,"status":4732,"mix":4733,"##erson":4734,"exam":4735,"gone":4736,"stage":4737,"sem":4738,"prec":4739,"conditions":4740,"liberal":4741,"walk":4742,"fit":4743,"kore":4744,"academ":4745,"multiple":4746,"kick":4747,"mac":4748,"surr":4749,"toward":4750,"difference":4751,"analy":4752,"nuclear":4753,"eth":4754,"pitch":4755,"costs":4756,"crisis":4757,"parts":4758,"bab":4759,"hair":4760,"increased":4761,"grad":4762,"subst":4763,"prevent":4764,"ign":4765,"##ham":4766,"ones":4767,"directly":4768,"hospital":4769,"download":4770,"happy":4771,"nom":4772,"rout":4773,"##field":4774,"thanks":4775,"manager":4776,"beat":4777,"positive":4778,"conservative":4779,"lines":4780,"ww":4781,"##ford":4782,"provided":4783,"labor":4784,"credit":4785,"integr":4786,"##cs":4787,"mech":4788,"draft":4789,"2007":4790,"##ables":4791,"brand":4792,"cars":4793,"promot":4794,"appears":4795,"stem":4796,"195":4797,"produc":4798,"associated":4799,"##enue":4800,"##astic":4801,"receive":4802,"ahead":4803,"pm":4804,"##iers":4805,"##sa":4806,"plus":4807,"##isc":4808,"showed":4809,"largest":4810,"dan":4811,"liter":4812,"region":4813,"##utions":4814,"##hib":4815,"##ga":4816,"perm":4817,"esc":4818,"measure":4819,"vs":4820,"tex":4821,"disapp":4822,"constitution":4823,"burn":4824,"eu":4825,"spending":4826,"moving":4827,"##inary":4828,"arab":4829,"student":4830,"##ban":4831,"guys":4832,"michael":4833,"designed":4834,"radio":4835,"##ufact":4836,"core":4837,"jaz":4838,"eyes":4839,"die":4840,"towards":4841,"hero":4842,"strength":4843,"clearly":4844,"damage":4845,"##ustr":4846,"smith":4847,"##he":4848,"##anch":4849,"unit":4850,"followed":4851,"beginning":4852,"tour":4853,"trial":4854,"repe":4855,"virt":4856,"challeng":4857,"lin":4858,"##oken":4859,"manufact":4860,"unlike":4861,"##ocks":4862,"##ze":4863,"scen":4864,"predict":4865,"episode":4866,"compared":4867,"sexual":4868,"candidate":4869,"details":4870,"correct":4871,"mer":4872,"##akers":4873,"truth":4874,"##ortion":4875,"##aker":4876,"thank":4877,"senior":4878,"advertisement":4879,"nav":4880,"##64":4881,"failed":4882,"whate":4883,"option":4884,"wood":4885,"##ara":4886,"beg":4887,"##ikes":4888,"whatever":4889,"categ":4890,"door":4891,"brother":4892,"agreement":4893,"micr":4894,"##ypt":4895,"theory":4896,"hell":4897,"save":4898,"opin":4899,"absol":4900,"moved":4901,"relative":4902,"ideas":4903,"citizens":4904,"hyp":4905,"##hold":4906,"##cast":4907,"section":4908,"marri":4909,"helped":4910,"restr":4911,"voice":4912,"origin":4913,"giving":4914,"32":4915,"der":4916,"vill":4917,"french":4918,"##face":4919,"ital":4920,"haven":4921,"coal":4922,"apple":4923,"projects":4924,"activity":4925,"hur":4926,"yourself":4927,"knowledge":4928,"ended":4929,"##box":4930,"shown":4931,"##aint":4932,"feed":4933,"##using":4934,"##ivity":4935,"mission":4936,"computer":4937,"##astr":4938,"defe":4939,"smart":4940,"screen":4941,"florida":4942,"od":4943,"consist":4944,"developed":4945,"normal":4946,"fan":4947,"van":4948,"notice":4949,"books":4950,"individuals":4951,"37":4952,"mexic":4953,"agre":4954,"includes":4955,"greater":4956,"occup":4957,"born":4958,"gives":4959,"murd":4960,"meant":4961,"association":4962,"independent":4963,"##ef":4964,"##ping":4965,"##wise":4966,"sched":4967,"australia":4968,"clos":4969,"scale":4970,"cool":4971,"photos":4972,"encour":4973,"telev":4974,"dream":4975,"dise":4976,"corn":4977,"dut":4978,"fine":4979,"cyc":4980,"album":4981,"www":4982,"religion":4983,"ben":4984,"rule":4985,"##ny":4986,"##ago":4987,"##phone":4988,"policies":4989,"basic":4990,"ath":4991,"##ero":4992,"feature":4993,"passed":4994,"heavy":4995,"resources":4996,"absolute":4997,"sle":4998,"chann":4999,"minor":5000,"reflect":5001,"piece":5002,"narr":5003,"rh":5004,"haw":5005,"slight":5006,"fully":5007,"wait":5008,"square":5009,"forced":5010,"spread":5011,"electric":5012,"authorities":5013,"judge":5014,"jump":5015,"##yan":5016,"##eration":5017,"##iny":5018,"prosec":5019,"uses":5020,"expand":5021,"incident":5022,"##ado":5023,"##ille":5024,"structure":5025,"mechan":5026,"sud":5027,"impress":5028,"shut":5029,"shooting":5030,"reform":5031,"remo":5032,"characters":5033,"##val":5034,"##arian":5035,"coff":5036,"experim":5037,"err":5038,"championship":5039,"##yal":5040,"##berg":5041,"##ios":5042,"attorney":5043,"hol":5044,"tick":5045,"##set":5046,"34":5047,"rise":5048,"##owers":5049,"lob":5050,"avoid":5051,"##ipped":5052,"sanders":5053,"map":5054,"##owing":5055,"crowd":5056,"join":5057,"conflic":5058,"##rim":5059,"##erved":5060,"willing":5061,"count":5062,"reached":5063,"aim":5064,"##orter":5065,"sell":5066,"supposed":5067,"editor":5068,"critical":5069,"chic":5070,"##apt":5071,"advant":5072,"eye":5073,"calling":5074,"primary":5075,"33":5076,"bay":5077,"ip":5078,"lif":5079,"wel":5080,"unique":5081,"learning":5082,"##ev":5083,"defend":5084,"highly":5085,"foundation":5086,"none":5087,"winning":5088,"researchers":5089,"girl":5090,"##enty":5091,"##ocked":5092,"larger":5093,"posted":5094,"chris":5095,"alleged":5096,"myself":5097,"previously":5098,"organiz":5099,"sources":5100,"treatment":5101,"texas":5102,"mike":5103,"##ona":5104,"##sey":5105,"noted":5106,"##unt":5107,"driving":5108,"actions":5109,"politic":5110,"condition":5111,"strategy":5112,"died":5113,"##aur":5114,"illeg":5115,"bottom":5116,"straight":5117,"wil":5118,"##iate":5119,"contain":5120,"continues":5121,"ms":5122,"thom":5123,"places":5124,"affect":5125,"benefits":5126,"behavior":5127,"speaking":5128,"double":5129,"##li":5130,"##ki":5131,"station":5132,"2018":5133,"apart":5134,"gh":5135,"gay":5136,"nice":5137,"therefore":5138,"produced":5139,"minimum":5140,"request":5141,"##istry":5142,"##eno":5143,"powerful":5144,"generation":5145,"necessary":5146,"mist":5147,"trib":5148,"adj":5149,"decades":5150,"highest":5151,"kept":5152,"pattern":5153,"challenge":5154,"mel":5155,"nations":5156,"compar":5157,"partners":5158,"easily":5159,"domin":5160,"weapons":5161,"gree":5162,"rare":5163,"weight":5164,"qual":5165,"indeed":5166,"female":5167,"leaving":5168,"##ula":5169,"spend":5170,"syn":5171,"caused":5172,"36":5173,"goals":5174,"##iance":5175,"propos":5176,"successful":5177,"##ici":5178,"##amb":5179,"weekend":5180,"angel":5181,"fat":5182,"80":5183,"kr":5184,"nut":5185,"tough":5186,"##rec":5187,"spr":5188,"chem":5189,"##room":5190,"picture":5191,"##lor":5192,"##ato":5193,"frank":5194,"destro":5195,"wonder":5196,"pac":5197,"tro":5198,"mostly":5199,"transport":5200,"seemed":5201,"industr":5202,"creating":5203,"bed":5204,"hus":5205,"##down":5206,"management":5207,"christian":5208,"influence":5209,"75":5210,"gal":5211,"lic":5212,"##unk":5213,"raised":5214,"etc":5215,"benefit":5216,"george":5217,"professor":5218,"jazz":5219,"fighting":5220,"environmental":5221,"##roid":5222,"##amples":5223,"flight":5224,"patients":5225,"appeared":5226,"initial":5227,"cities":5228,"notes":5229,"charge":5230,"fox":5231,"##while":5232,"confirmed":5233,"##iar":5234,"pair":5235,"opening":5236,"marriage":5237,"television":5238,"jew":5239,"##uana":5240,"programs":5241,"libr":5242,"##aughter":5243,"ec":5244,"tend":5245,"whom":5246,"194":5247,"knows":5248,"memory":5249,"sales":5250,"##ste":5251,"chap":5252,"machine":5253,"length":5254,"##iced":5255,"lawy":5256,"signed":5257,"opened":5258,"records":5259,"millions":5260,"traffic":5261,"##put":5262,"franc":5263,"defensive":5264,"opposition":5265,"lou":5266,"los":5267,"##iel":5268,"adop":5269,"grant":5270,"quant":5271,"species":5272,"send":5273,"recover":5274,"debt":5275,"thomas":5276,"nine":5277,"##hi":5278,"##ented":5279,"react":5280,"sea":5281,"fresh":5282,"##itely":5283,"happens":5284,"funding":5285,"95":5286,"rat":5287,"##ches":5288,"##ibution":5289,"brief":5290,"generally":5291,"chicago":5292,"rub":5293,"##iles":5294,"##iled":5295,"enforce":5296,"options":5297,"operations":5298,"survey":5299,"agreed":5300,"ali":5301,"uns":5302,"residents":5303,"parties":5304,"audience":5305,"hack":5306,"##ya":5307,"troub":5308,"magaz":5309,"dollars":5310,"families":5311,"anc":5312,"limit":5313,"banks":5314,"display":5315,"competition":5316,"massive":5317,"favorite":5318,"traditional":5319,"ber":5320,"##ba":5321,"##itz":5322,"score":5323,"mah":5324,"professional":5325,"male":5326,"rid":5327,"enem":5328,"##ube":5329,"owners":5330,"understanding":5331,"martin":5332,"##bon":5333,"##onents":5334,"##aked":5335,"brew":5336,"occurr":5337,"choose":5338,"##oft":5339,"feet":5340,"false":5341,"90":5342,"ye":5343,"##uge":5344,"fort":5345,"##ishing":5346,"infr":5347,"occas":5348,"spirit":5349,"64":5350,"70":5351,"vac":5352,"org":5353,"subm":5354,"allows":5355,"windows":5356,"japanese":5357,"mir":5358,"stick":5359,"adult":5360,"scott":5361,"adding":5362,"advoc":5363,"claimed":5364,"rank":5365,"##itness":5366,"whe":5367,"commerc":5368,"assault":5369,"investment":5370,"39":5371,"cas":5372,"river":5373,"wing":5374,"##agon":5375,"robert":5376,"switch":5377,"customers":5378,"floor":5379,"##itude":5380,"##ifying":5381,"spect":5382,"cru":5383,"firm":5384,"accomp":5385,"seeing":5386,"insur":5387,"solid":5388,"canadian":5389,"##ijuana":5390,"##band":5391,"incred":5392,"load":5393,"supporters":5394,"protest":5395,"cells":5396,"separate":5397,"du":5398,"spring":5399,"hillary":5400,"purpose":5401,"models":5402,"##ropri":5403,"syria":5404,"fif":5405,"##iring":5406,"bull":5407,"controver":5408,"snow":5409,"offensive":5410,"driver":5411,"parl":5412,"proper":5413,"islamic":5414,"##10":5415,"stock":5416,"trip":5417,"hundreds":5418,"comfort":5419,"graph":5420,"charges":5421,"produce":5422,"putting":5423,"interested":5424,"sites":5425,"attract":5426,"##iverse":5427,"provides":5428,"bag":5429,"sad":5430,"stone":5431,"explained":5432,"palest":5433,"establish":5434,"hor":5435,"math":5436,"##iest":5437,"##itor":5438,"beaut":5439,"served":5440,"unfortun":5441,"crew":5442,"southern":5443,"award":5444,"names":5445,"##iro":5446,"shared":5447,"instr":5448,"catch":5449,"era":5450,"##ario":5451,"android":5452,"shel":5453,"emot":5454,"transl":5455,"doubt":5456,"worse":5457,"negative":5458,"obviously":5459,"65":5460,"kar":5461,"##dom":5462,"feeling":5463,"cab":5464,"nfl":5465,"##zen":5466,"##icient":5467,"candidates":5468,"digital":5469,"birth":5470,"bomb":5471,"diet":5472,"##cing":5473,"france":5474,"exerc":5475,"active":5476,"extremely":5477,"coffee":5478,"##nn":5479,"##essed":5480,"poly":5481,"communities":5482,"legislation":5483,"camera":5484,"ther":5485,"amb":5486,"coast":5487,"finding":5488,"learned":5489,"device":5490,"scientists":5491,"richard":5492,"##ta":5493,"spl":5494,"cold":5495,"refuge":5496,"parliam":5497,"##yl":5498,"heat":5499,"worst":5500,"##cul":5501,"##vin":5502,"##ston":5503,"dism":5504,"marijuana":5505,"actual":5506,"assum":5507,"##apped":5508,"lose":5509,"2006":5510,"responsible":5511,"becoming":5512,"neighbor":5513,"commercial":5514,"mos":5515,"rough":5516,"##lied":5517,"beer":5518,"closed":5519,"offered":5520,"annual":5521,"believed":5522,"effective":5523,"johnson":5524,"##ipping":5525,"protection":5526,"concerns":5527,"vehicle":5528,"lad":5529,"##ext":5530,"##outh":5531,"iron":5532,"advantage":5533,"fant":5534,"sher":5535,"##odies":5536,"explain":5537,"israeli":5538,"border":5539,"##more":5540,"acqu":5541,"showing":5542,"owner":5543,"standing":5544,"employees":5545,"jeff":5546,"##vant":5547,"##eline":5548,"prefer":5549,"caption":5550,"institute":5551,"migr":5552,"northern":5553,"victory":5554,"items":5555,"dangerous":5556,"exchange":5557,"43":5558,"si":5559,"wage":5560,"##uries":5561,"##che":5562,"wealth":5563,"##estic":5564,"##aine":5565,"sport":5566,"plays":5567,"elements":5568,"prices":5569,"##uters":5570,"parliament":5571,"witness":5572,"register":5573,"optim":5574,"announce":5575,"entirely":5576,"nas":5577,"rates":5578,"##la":5579,"##ica":5580,"commit":5581,"supply":5582,"##board":5583,"##iber":5584,"##airs":5585,"construction":5586,"tools":5587,"magazine":5588,"master":5589,"##ville":5590,"##semb":5591,"solution":5592,"revealed":5593,"cash":5594,"luck":5595,"##cell":5596,"governor":5597,"arrested":5598,"apparently":5599,"49":5600,"horr":5601,"vice":5602,"##iling":5603,"##ounds":5604,"convention":5605,"temper":5606,"slightly":5607,"os":5608,"stad":5609,"planned":5610,"random":5611,"illegal":5612,"francis":5613,"300":5614,"cath":5615,"##gs":5616,"##inate":5617,"usa":5618,"##ipl":5619,"##izes":5620,"otherwise":5621,"transform":5622,"values":5623,"tests":5624,"batter":5625,"kid":5626,"##wood":5627,"shop":5628,"coop":5629,"watching":5630,"failure":5631,"holding":5632,"application":5633,"rang":5634,"ton":5635,"##ipe":5636,"joined":5637,"48":5638,"2000":5639,"##aves":5640,"fourth":5641,"##ospect":5642,"suspect":5643,"42":5644,"mail":5645,"##isation":5646,"##ota":5647,"##oted":5648,"fellow":5649,"flag":5650,"ensure":5651,"ko":5652,"##erry":5653,"advis":5654,"zone":5655,"##ushing":5656,"##umn":5657,"centre":5658,"supreme":5659,"channel":5660,"alex":5661,"bul":5662,"##olic":5663,"truly":5664,"##antly":5665,"easier":5666,"meanwhile":5667,"argument":5668,"##stein":5669,"ham":5670,"pc":5671,"sam":5672,"asking":5673,"frame":5674,"##oster":5675,"controll":5676,"glass":5677,"markets":5678,"listen":5679,"38":5680,"hate":5681,"laugh":5682,"##onent":5683,"##ano":5684,"span":5685,"farm":5686,"vari":5687,"existing":5688,"negot":5689,"storm":5690,"serve":5691,"division":5692,"achieve":5693,"bowl":5694,"dar":5695,"gather":5696,"profile":5697,"opinion":5698,"stadium":5699,"52":5700,"wish":5701,"##my":5702,"##icted":5703,"construct":5704,"surround":5705,"##bur":5706,"##house":5707,"##ca":5708,"braz":5709,"offers":5710,"fell":5711,"partner":5712,"discussion":5713,"virgin":5714,"concerned":5715,"replace":5716,"introduced":5717,"conversation":5718,"hind":5719,"mere":5720,"##men":5721,"##da":5722,"novel":5723,"string":5724,"transfer":5725,"##coming":5726,"pin":5727,"##wide":5728,"##inct":5729,"onto":5730,"sav":5731,"unp":5732,"proposed":5733,"##acity":5734,"##abb":5735,"bob":5736,"decisions":5737,"solar":5738,"initi":5739,"documents":5740,"recommend":5741,"##ih":5742,"##time":5743,"##11":5744,"bell":5745,"minute":5746,"##ancy":5747,"micros":5748,"44":5749,"waiting":5750,"definitely":5751,"##kin":5752,"mayor":5753,"revolution":5754,"spokesman":5755,"jim":5756,"wat":5757,"##rem":5758,"doct":5759,"apply":5760,"193":5761,"missing":5762,"types":5763,"afford":5764,"sounds":5765,"destroy":5766,"comed":5767,"athlet":5768,"adjust":5769,"enforcement":5770,"##fs":5771,"hearing":5772,"resist":5773,"breaking":5774,"55":5775,"pap":5776,"tant":5777,"##bl":5778,"aspect":5779,"clin":5780,"##know":5781,"ultimately":5782,"removed":5783,"louis":5784,"bern":5785,"gain":5786,"jose":5787,"tack":5788,"interp":5789,"fuel":5790,"supported":5791,"allowing":5792,"largely":5793,"repeated":5794,"getty":5795,"decade":5796,"planning":5797,"experts":5798,"medicine":5799,"mobile":5800,"murder":5801,"ju":5802,"##ingly":5803,"runs":5804,"tells":5805,"##works":5806,"infrastr":5807,"carol":5808,"detect":5809,"homes":5810,"gop":5811,"stated":5812,"highlight":5813,"direction":5814,"arrived":5815,"basis":5816,"housing":5817,"library":5818,"saud":5819,"surface":5820,"older":5821,"steph":5822,"scientology":5823,"williams":5824,"##eren":5825,"guess":5826,"requires":5827,"streets":5828,"coverage":5829,"domain":5830,"rain":5831,"consequ":5832,"train":5833,"context":5834,"edge":5835,"turns":5836,"sky":5837,"restaur":5838,"purs":5839,"focused":5840,"launched":5841,"fle":5842,"##ada":5843,"suc":5844,"acknow":5845,"seek":5846,"differences":5847,"elections":5848,"stopped":5849,"copyr":5850,"discovered":5851,"copyright":5852,"ps":5853,"rog":5854,"reuters":5855,"depend":5856,"becomes":5857,"ram":5858,"##ym":5859,"##odes":5860,"##abor":5861,"spoke":5862,"doctor":5863,"crash":5864,"accused":5865,"##azy":5866,"telling":5867,"activities":5868,"suggested":5869,"faith":5870,"pu":5871,"tow":5872,"##ige":5873,"##ils":5874,"atl":5875,"##issions":5876,"schem":5877,"useful":5878,"participants":5879,"infrastructure":5880,"ren":5881,"##gl":5882,"england":5883,"specifically":5884,"prosecut":5885,"rs":5886,"sust":5887,"appoint":5888,"strike":5889,"background":5890,"carl":5891,"absolutely":5892,"jes":5893,"vul":5894,"unless":5895,"britain":5896,"ded":5897,"yell":5898,"##ole":5899,"plants":5900,"attend":5901,"2003":5902,"issued":5903,"alternative":5904,"disease":5905,"66":5906,"##atically":5907,"##ulf":5908,"##igned":5909,"setting":5910,"african":5911,"tweet":5912,"na":5913,"reject":5914,"appeal":5915,"mont":5916,"miles":5917,"obvious":5918,"##eness":5919,"basically":5920,"identified":5921,"emergency":5922,"41":5923,"bon":5924,"ty":5925,"##ka":5926,"##ani":5927,"##olf":5928,"weak":5929,"democracy":5930,"##isf":5931,"##osen":5932,"interact":5933,"writ":5934,"providing":5935,"developing":5936,"domestic":5937,"injury":5938,"imagine":5939,"dim":5940,"eat":5941,"tun":5942,"##ius":5943,"##za":5944,"##cel":5945,"bridge":5946,"imposs":5947,"skin":5948,"feels":5949,"skills":5950,"##arm":5951,"##acher":5952,"earn":5953,"2005":5954,"articles":5955,"files":5956,"smaller":5957,"https":5958,"subscrib":5959,"conflict":5960,"las":5961,"vast":5962,"##uate":5963,"ship":5964,"##pper":5965,"##ption":5966,"believes":5967,"leadership":5968,"princip":5969,"degree":5970,"identity":5971,"balance":5972,"relatively":5973,"zero":5974,"##oom":5975,"##itable":5976,"hasn":5977,"crack":5978,"immigration":5979,"sleep":5980,"alloc":5981,"interests":5982,"healthy":5983,"suggests":5984,"hang":5985,"pil":5986,"assemb":5987,"returned":5988,"dropped":5989,"47":5990,"##usion":5991,"appropri":5992,"accounts":5993,"studio":5994,"##ression":5995,"corporate":5996,"rapid":5997,"rush":5998,"##equ":5999,"##ront":6000,"##gb":6001,"##aks":6002,"newsp":6003,"2019":6004,"advanced":6005,"keeping":6006,"honest":6007,"regarding":6008,"established":6009,"##oked":6010,"coord":6011,"standards":6012,"paying":6013,"scientific":6014,"girls":6015,"##ulated":6016,"cancer":6017,"photograph":6018,"operation":6019,"window":6020,"originally":6021,"palestin":6022,"rene":6023,"task":6024,"##gers":6025,"prospect":6026,"seed":6027,"reduce":6028,"##cription":6029,"victims":6030,"cart":6031,"cards":6032,"sitting":6033,"##ques":6034,"wars":6035,"currency":6036,"instruct":6037,"54":6038,"gard":6039,"consc":6040,"2001":6041,"senator":6042,"raise":6043,"ron":6044,"##ox":6045,"##nel":6046,"##irt":6047,"neither":6048,"drivers":6049,"testing":6050,"businesses":6051,"views":6052,"innov":6053,"ment":6054,"ox":6055,"rose":6056,"ryan":6057,"##osh":6058,"cloud":6059,"seconds":6060,"changing":6061,"sharp":6062,"##enoord":6063,"unfortunately":6064,"53":6065,"bond":6066,"resc":6067,"carbon":6068,"metal":6069,"terrorism":6070,"impossible":6071,"01":6072,"mary":6073,"tact":6074,"##ae":6075,"##ris":6076,"##ari":6077,"trick":6078,"abuse":6079,"afgh":6080,"twice":6081,"accur":6082,"owned":6083,"labour":6084,"steps":6085,"budd":6086,"responsibility":6087,"fol":6088,"gall":6089,"placed":6090,"proceed":6091,"managed":6092,"possibility":6093,"conclud":6094,"equal":6095,"privacy":6096,"committed":6097,"veter":6098,"stan":6099,"##ulate":6100,"discrim":6101,"location":6102,"##arko":6103,"exclus":6104,"dollar":6105,"pip":6106,"##onom":6107,"pool":6108,"presence":6109,"swed":6110,"##resp":6111,"korea":6112,"##icip":6113,"##istics":6114,"recall":6115,"##otten":6116,"mentioned":6117,"purchase":6118,"powers":6119,"aircraft":6120,"harm":6121,"voting":6122,"equip":6123,"dyn":6124,"ped":6125,"wear":6126,"##emen":6127,"broken":6128,"symb":6129,"flat":6130,"africa":6131,"organizations":6132,"chapter":6133,"vision":6134,"##ener":6135,"amend":6136,"eval":6137,"capacity":6138,"##ception":6139,"stars":6140,"measures":6141,"##going":6142,"yards":6143,"##inn":6144,"finished":6145,"##onto":6146,"votes":6147,"arms":6148,"yeah":6149,"ken":6150,"##antic":6151,"##roll":6152,"facing":6153,"losing":6154,"nick":6155,"sac":6156,"wik":6157,"##itory":6158,"intel":6159,"parent":6160,"bigger":6161,"internal":6162,"philos":6163,"angeles":6164,"brazil":6165,"lie":6166,"##ble":6167,"tourn":6168,"affected":6169,"##onym":6170,"presented":6171,"attempts":6172,"neighborhood":6173,"nh":6174,"helping":6175,"considering":6176,"sudden":6177,"aware":6178,"sides":6179,"##tained":6180,"variety":6181,"figures":6182,"greek":6183,"sector":6184,"##enses":6185,"buff":6186,"familiar":6187,"oly":6188,"##ata":6189,"##ola":6190,"neur":6191,"alleg":6192,"##erties":6193,"elected":6194,"factors":6195,"planet":6196,"patr":6197,"visual":6198,"taxes":6199,"ceo":6200,"mexico":6201,"rum":6202,"clar":6203,"charged":6204,"factor":6205,"technical":6206,"devices":6207,"##ophy":6208,"broadcast":6209,"complexity":6210,"toronto":6211,"occurred":6212,"dial":6213,"tight":6214,"killing":6215,"connection":6216,"afghan":6217,"46":6218,"mental":6219,"##iated":6220,"##inating":6221,"##agr":6222,"##ander":6223,"craft":6224,"guide":6225,"circum":6226,"lived":6227,"mas":6228,"sample":6229,"##ker":6230,"beach":6231,"weather":6232,"diss":6233,"struct":6234,"instance":6235,"protes":6236,"funds":6237,"cuts":6238,"linked":6239,"nyarko":6240,"daughter":6241,"jon":6242,"##pm":6243,"##awn":6244,"moon":6245,"potentially":6246,"publish":6247,"politicians":6248,"beautif":6249,"olymp":6250,"caught":6251,"mand":6252,"##aud":6253,"##kins":6254,"##gu":6255,"##arant":6256,"##outs":6257,"compr":6258,"seriously":6259,"founder":6260,"famous":6261,"penn":6262,"##town":6263,"##mas":6264,"##ship":6265,"##ania":6266,"param":6267,"voted":6268,"fi":6269,"fest":6270,"jones":6271,"rail":6272,"supporting":6273,"cultural":6274,"drugs":6275,"51":6276,"bbc":6277,"lake":6278,"concent":6279,"consult":6280,"positions":6281,"steve":6282,"appearance":6283,"recorded":6284,"faced":6285,"widely":6286,"coalition":6287,"microsoft":6288,"gi":6289,"horn":6290,"rod":6291,"##uel":6292,"##igan":6293,"prepared":6294,"insurance":6295,"bes":6296,"mort":6297,"wid":6298,"shape":6299,"##enda":6300,"assess":6301,"magic":6302,"motiv":6303,"hurt":6304,"##ken":6305,"##itation":6306,"alt":6307,"worry":6308,"remind":6309,"remained":6310,"governments":6311,"charl":6312,"passing":6313,"faster":6314,"tag":6315,"spons":6316,"clim":6317,"fired":6318,"signs":6319,"eastern":6320,"methods":6321,"liqu":6322,"baby":6323,"##nam":6324,"##aded":6325,"##uls":6326,"carr":6327,"##others":6328,"typically":6329,"cannab":6330,"penal":6331,"saudi":6332,"bodies":6333,"sor":6334,"##head":6335,"##right":6336,"##agn":6337,"##anta":6338,"armed":6339,"joint":6340,"throw":6341,"wrest":6342,"finish":6343,"arrest":6344,"videos":6345,"proposal":6346,"concentr":6347,"##hol":6348,"teen":6349,"resident":6350,"writer":6351,"starts":6352,"elim":6353,"weapon":6354,"satisf":6355,"egypt":6356,"increasingly":6357,"gender":6358,"gaming":6359,"jun":6360,"weren":6361,"##uous":6362,"##oned":6363,"##igg":6364,"nobody":6365,"emph":6366,"##well":6367,"ministry":6368,"refused":6369,"amazing":6370,"nasa":6371,"equipment":6372,"##lig":6373,"##lies":6374,"##uted":6375,"selling":6376,"##essions":6377,"collection":6378,"premier":6379,"din":6380,"##ding":6381,"carried":6382,"engineering":6383,"carolina":6384,"cow":6385,"ire":6386,"##enger":6387,"##agues":6388,"trail":6389,"covered":6390,"linux":6391,"husband":6392,"##18":6393,"##ibute":6394,"decide":6395,"seeking":6396,"guarant":6397,"talks":6398,"fixed":6399,"industrial":6400,"lu":6401,"##iot":6402,"agent":6403,"fey":6404,"forms":6405,"possibly":6406,"happening":6407,"copy":6408,"panel":6409,"analyst":6410,"##32":6411,"complic":6412,"statements":6413,"2002":6414,"argued":6415,"totally":6416,"sar":6417,"##fc":6418,"sharing":6419,"shift":6420,"intended":6421,"default":6422,"magn":6423,"corner":6424,"troops":6425,"85":6426,"##do":6427,"retr":6428,"wearing":6429,"orange":6430,"##emp":6431,"##ansion":6432,"2004":6433,"investors":6434,"practices":6435,"entertain":6436,"suffered":6437,"astr":6438,"bost":6439,"jav":6440,"tiss":6441,"reference":6442,"sequ":6443,"seasons":6444,"##ogen":6445,"recru":6446,"proced":6447,"bringing":6448,"shares":6449,"pak":6450,"##lock":6451,"##lines":6452,"##real":6453,"##tered":6454,"seg":6455,"##pped":6456,"schol":6457,"tempor":6458,"hawai":6459,"bid":6460,"##uations":6461,"rein":6462,"##iders":6463,"abortion":6464,"##gry":6465,"writes":6466,"defence":6467,"paris":6468,"retire":6469,"revenue":6470,"terrorist":6471,"filled":6472,"category":6473,"error":6474,"##aints":6475,"column":6476,"pointed":6477,"handle":6478,"lots":6479,"conclus":6480,"initially":6481,"challenges":6482,"iv":6483,"les":6484,"util":6485,"##aj":6486,"##ez":6487,"##gor":6488,"stret":6489,"##illing":6490,"agencies":6491,"confidence":6492,"ruling":6493,"combined":6494,"australian":6495,"400":6496,"aid":6497,"gap":6498,"ske":6499,"wire":6500,"##30":6501,"##stream":6502,"royal":6503,"guid":6504,"remaining":6505,"posts":6506,"consumer":6507,"essential":6508,"chairman":6509,"boston":6510,"fish":6511,"mun":6512,"##acing":6513,"##verse":6514,"expensive":6515,"joe":6516,"fing":6517,"rup":6518,"anth":6519,"plenty":6520,"nov":6521,"aftern":6522,"implic":6523,"deput":6524,"identify":6525,"updates":6526,"employment":6527,"motion":6528,"miller":6529,"customer":6530,"vehicles":6531,"conducted":6532,"ancient":6533,"oce":6534,"pic":6535,"##owed":6536,"##ocol":6537,"helps":6538,"schedul":6539,"breat":6540,"jail":6541,"pages":6542,"##bn":6543,"##omen":6544,"myth":6545,"marg":6546,"boost":6547,"secure":6548,"flash":6549,"maintain":6550,"grew":6551,"regardless":6552,"leaves":6553,"okay":6554,"cu":6555,"cia":6556,"ring":6557,"##ita":6558,"evil":6559,"scores":6560,"everybody":6561,"developers":6562,"conservatives":6563,"substant":6564,"virginia":6565,"##mark":6566,"examples":6567,"anyway":6568,"electron":6569,"exercise":6570,"3d":6571,"fake":6572,"kat":6573,"lit":6574,"mu":6575,"##any":6576,"##ales":6577,"shad":6578,"accident":6579,"belong":6580,"turning":6581,"matters":6582,"element":6583,"sale":6584,"tast":6585,"##isher":6586,"##stone":6587,"seat":6588,"##oking":6589,"brad":6590,"edition":6591,"remove":6592,"greatest":6593,"winter":6594,"excited":6595,"urban":6596,"hotel":6597,"animals":6598,"entry":6599,"roughly":6600,"##how":6601,"##wr":6602,"##erate":6603,"offering":6604,"##ords":6605,"##ensions":6606,"formula":6607,"plane":6608,"audio":6609,"feyenoord":6610,"ell":6611,"om":6612,"rot":6613,"tap":6614,"##gen":6615,"##osure":6616,"apprec":6617,"playoff":6618,"##ictions":6619,"perspect":6620,"encoun":6621,"determined":6622,"dismiss":6623,"renew":6624,"emphas":6625,"fbi":6626,"##19":6627,"##erous":6628,"isis":6629,"spell":6630,"universe":6631,"distance":6632,"circumst":6633,"##pass":6634,"topic":6635,"filed":6636,"increases":6637,"guns":6638,"pictures":6639,"soldiers":6640,"estimated":6641,"chemical":6642,"protesters":6643,"thread":6644,"##oma":6645,"##ette":6646,"##amental":6647,"##kel":6648,"##ighter":6649,"lee":6650,"columb":6651,"creative":6652,"determine":6653,"animal":6654,"interpret":6655,"afternoon":6656,"viet":6657,"forget":6658,"##ura":6659,"##ansas":6660,"crimes":6661,"##ucks":6662,"regime":6663,"subsequ":6664,"quarterback":6665,"experienced":6666,"closer":6667,"mahiro":6668,"vulner":6669,"56":6670,"native":6671,"yemen":6672,"##aver":6673,"##xual":6674,"##icated":6675,"frustr":6676,"##ours":6677,"##ucing":6678,"leads":6679,"advance":6680,"newslet":6681,"criticism":6682,"tiny":6683,"##der":6684,"##point":6685,"andrew":6686,"cry":6687,"herself":6688,"located":6689,"##atured":6690,"critics":6691,"declared":6692,"femin":6693,"ireland":6694,"ba":6695,"bure":6696,"##bre":6697,"##ini":6698,"congr":6699,"##ights":6700,"intent":6701,"mars":6702,"paral":6703,"personally":6704,"datab":6705,"jesus":6706,"bol":6707,"vent":6708,"##ati":6709,"##otyp":6710,"aside":6711,"involve":6712,"motor":6713,"##ography":6714,"essentially":6715,"communication":6716,"disappoint":6717,"youth":6718,"##abilities":6719,"ariz":6720,"featured":6721,"dram":6722,"evening":6723,"finance":6724,"extent":6725,"christmas":6726,"entered":6727,"micro":6728,"applications":6729,"##reh":6730,"forg":6731,"##uration":6732,"asia":6733,"comic":6734,"communications":6735,"gm":6736,"hat":6737,"ash":6738,"##atell":6739,"strange":6740,"humans":6741,"##loyment":6742,"updated":6743,"consumers":6744,"az":6745,"bound":6746,"mut":6747,"##ias":6748,"##yc":6749,"##ket":6750,"##isters":6751,"##ayed":6752,"discl":6753,"talent":6754,"admitted":6755,"observ":6756,"significantly":6757,"lawsuit":6758,"expressed":6759,"pulled":6760,"experiment":6761,"lock":6762,"nic":6763,"row":6764,"rally":6765,"##ss":6766,"ongoing":6767,"##urb":6768,"contrast":6769,"##othes":6770,"mode":6771,"findings":6772,"reduced":6773,"functions":6774,"connected":6775,"treas":6776,"turk":6777,"surprising":6778,"lawyer":6779,"trouble":6780,"beautiful":6781,"tissue":6782,"bureau":6783,"cnn":6784,"fash":6785,"tail":6786,"##enth":6787,"offense":6788,"explo":6789,"##ups":6790,"fundamental":6791,"completed":6792,"institutions":6793,"ghost":6794,"ol":6795,"sought":6796,"##aling":6797,"shock":6798,"##ager":6799,"valid":6800,"##standing":6801,"##ibuted":6802,"##inet":6803,"##oms":6804,"units":6805,"crazy":6806,"##izz":6807,"##roit":6808,"silver":6809,"jersey":6810,"francisco":6811,"battery":6812,"symbol":6813,"entertainment":6814,"##asy":6815,"##illa":6816,"prove":6817,"boys":6818,"advice":6819,"approx":6820,"broke":6821,"radical":6822,"yester":6823,"responded":6824,"hopes":6825,"village":6826,"controvers":6827,"gang":6828,"nba":6829,"rising":6830,"wake":6831,"wave":6832,"proud":6833,"resol":6834,"legit":6835,"corrupt":6836,"explan":6837,"classic":6838,"opportunities":6839,"teaching":6840,"pakistan":6841,"62":6842,"giant":6843,"satell":6844,"tear":6845,"reaction":6846,"reserve":6847,"phase":6848,"shouldn":6849,"thoughts":6850,"faces":6851,"emails":6852,"yesterday":6853,"##isted":6854,"##abe":6855,"scar":6856,"regional":6857,"wins":6858,"##place":6859,"reportedly":6860,"collabor":6861,"script":6862,"galax":6863,"negoti":6864,"fashion":6865,"bare":6866,"batt":6867,"gear":6868,"##ns":6869,"##onic":6870,"yout":6871,"shr":6872,"pled":6873,"reporters":6874,"joke":6875,"knowing":6876,"##ologies":6877,"capable":6878,"ukr":6879,"illustr":6880,"amazon":6881,"bought":6882,"##acle":6883,"teacher":6884,"detroit":6885,"150":6886,"importance":6887,"violent":6888,"academic":6889,"begins":6890,"pure":6891,"##arks":6892,"aband":6893,"sci":6894,"stress":6895,"married":6896,"decre":6897,"monit":6898,"opposed":6899,"operating":6900,"sugar":6901,"discussed":6902,"volume":6903,"kingdom":6904,"newspaper":6905,"##de":6906,"##amin":6907,"missed":6908,"stream":6909,"movies":6910,"package":6911,"enemy":6912,"stretch":6913,"##ador":6914,"hey":6915,"excell":6916,"gov":6917,"amp":6918,"scot":6919,"192":6920,"warning":6921,"realize":6922,"moral":6923,"activists":6924,"treated":6925,"declined":6926,"jackson":6927,"kir":6928,"##onna":6929,"resolution":6930,"perman":6931,"##encing":6932,"relevant":6933,"existence":6934,"wilson":6935,"merely":6936,"##ii":6937,"##rees":6938,"forest":6939,"chart":6940,"##ector":6941,"drag":6942,"phen":6943,"warr":6944,"ordered":6945,"affairs":6946,"argue":6947,"enterpr":6948,"champion":6949,"honor":6950,"pieces":6951,"muslims":6952,"virtual":6953,"welcome":6954,"papers":6955,"dynam":6956,"ocean":6957,"##tle":6958,"exhib":6959,"##anda":6960,"usual":6961,"upgr":6962,"flav":6963,"ends":6964,"warned":6965,"auto":6966,"readers":6967,"memor":6968,"promise":6969,"walking":6970,"italy":6971,"restaurant":6972,"bat":6973,"morm":6974,"##dp":6975,"##inent":6976,"##rel":6977,"##abil":6978,"##uster":6979,"charles":6980,"follows":6981,"surprise":6982,"wheel":6983,"##erb":6984,"##itect":6985,"##iture":6986,"cham":6987,"contains":6988,"##what":6989,"films":6990,"distribution":6991,"latter":6992,"destr":6993,"assistant":6994,"uncert":6995,"drinking":6996,"##respond":6997,"tournament":6998,"63":6999,"##makers":7000,"##icit":7001,"##ading":7002,"atm":7003,"algor":7004,"##aped":7005,"incor":7006,"reporting":7007,"talked":7008,"correspond":7009,"household":7010,"profit":7011,"causes":7012,"competitive":7013,"deaths":7014,"flood":7015,"dogs":7016,"syrian":7017,"literally":7018,"therap":7019,"afghanistan":7020,"fasc":7021,"hr":7022,"proof":7023,"agenda":7024,"expansion":7025,"sym":7026,"buildings":7027,"squad":7028,"injuries":7029,"route":7030,"algorith":7031,"##nic":7032,"forum":7033,"gross":7034,"opponents":7035,"slowly":7036,"py":7037,"ray":7038,"sick":7039,"theat":7040,"##iti":7041,"##ache":7042,"quiet":7043,"underst":7044,"defined":7045,"##lands":7046,"percentage":7047,"severe":7048,"injured":7049,"deputy":7050,"perspective":7051,"cens":7052,"muse":7053,"##otic":7054,"shots":7055,"unus":7056,"applied":7057,"ourselves":7058,"depth":7059,"numerous":7060,"electr":7061,"picked":7062,"heavily":7063,"turkey":7064,"architect":7065,"amendment":7066,"dad":7067,"mouth":7068,"ride":7069,"forth":7070,"desk":7071,"transition":7072,"milk":7073,"tested":7074,"correl":7075,"exception":7076,"defeat":7077,"comfortable":7078,"split":7079,"writers":7080,"youtube":7081,"cos":7082,"cole":7083,"driven":7084,"anywhere":7085,"##road":7086,"kevin":7087,"combat":7088,"objects":7089,"##draw":7090,"jewish":7091,"spanish":7092,"bench":7093,"neut":7094,"##usal":7095,"marc":7096,"serving":7097,"nearby":7098,"trading":7099,"traditions":7100,"unlikely":7101,"comparison":7102,"dipl":7103,"hoc":7104,"mi":7105,"##16":7106,"##edia":7107,"suit":7108,"bright":7109,"somewhat":7110,"thinks":7111,"prompt":7112,"causing":7113,"controversial":7114,"59":7115,"rend":7116,"##iration":7117,"weird":7118,"allen":7119,"manning":7120,"warm":7121,"confident":7122,"universal":7123,"younger":7124,"journey":7125,"historical":7126,"disappear":7127,"manufactur":7128,"occasion":7129,"conscious":7130,"hide":7131,"luc":7132,"ru":7133,"rif":7134,"raw":7135,"wound":7136,"##po":7137,"##lets":7138,"explains":7139,"soul":7140,"greg":7141,"basket":7142,"watched":7143,"links":7144,"peter":7145,"accepted":7146,"surveill":7147,"sustain":7148,"##pa":7149,"branch":7150,"##ached":7151,"dish":7152,"flow":7153,"campus":7154,"authors":7155,"denied":7156,"cheap":7157,"subjects":7158,"##iciency":7159,"mathem":7160,"fab":7161,"mm":7162,"##ml":7163,"##orage":7164,"##lying":7165,"shall":7166,"##osite":7167,"unable":7168,"adapt":7169,"loved":7170,"kelly":7171,"instru":7172,"artist":7173,"advent":7174,"bills":7175,"brook":7176,"moments":7177,"escape":7178,"mine":7179,"tree":7180,"##oul":7181,"isol":7182,"stable":7183,"pra":7184,"trend":7185,"alco":7186,"assert":7187,"##ologist":7188,"##whel":7189,"##iami":7190,"##known":7191,"announcement":7192,"##oe":7193,"##here":7194,"inher":7195,"##ayer":7196,"##ulations":7197,"grown":7198,"overse":7199,"flu":7200,"explos":7201,"effectively":7202,"1998":7203,"represents":7204,"inspired":7205,"allegedly":7206,"appropriate":7207,"surveillance":7208,"57":7209,"72":7210,"boss":7211,"gam":7212,"jord":7213,"lt":7214,"vit":7215,"##iques":7216,"##icing":7217,"sets":7218,"listed":7219,"steel":7220,"fairly":7221,"surprised":7222,"delivered":7223,"immigrants":7224,"sweet":7225,"estimates":7226,"schedule":7227,"buddh":7228,"races":7229,"##bor":7230,"stood":7231,"enh":7232,"acting":7233,"server":7234,"adds":7235,"minim":7236,"##elling":7237,"territory":7238,"marketing":7239,"label":7240,"multi":7241,"attempted":7242,"golden":7243,"michigan":7244,"mountain":7245,"uncertain":7246,"bin":7247,"ht":7248,"lord":7249,"session":7250,"tas":7251,"##era":7252,"##osph":7253,"plug":7254,"decent":7255,"medium":7256,"properties":7257,"config":7258,"harv":7259,"facility":7260,"##anny":7261,"impressive":7262,"registered":7263,"doctors":7264,"ast":7265,"##mates":7266,"##12":7267,"prince":7268,"alert":7269,"dozen":7270,"emissions":7271,"publicly":7272,"letters":7273,"funny":7274,"improved":7275,"cyber":7276,"davis":7277,"expression":7278,"progressive":7279,"ticket":7280,"bang":7281,"tan":7282,"tab":7283,"taught":7284,"##iable":7285,"thir":7286,"##itarian":7287,"##iger":7288,"counsel":7289,"remark":7290,"creation":7291,"approved":7292,"matches":7293,"speaker":7294,"friendly":7295,"teachers":7296,"ohio":7297,"experiences":7298,"constitutional":7299,"partnership":7300,"pacific":7301,"refugees":7302,"joseph":7303,"58":7304,"pir":7305,"##bel":7306,"button":7307,"##acks":7308,"ending":7309,"barack":7310,"victor":7311,"latin":7312,"institution":7313,"queen":7314,"confirm":7315,"guardian":7316,"transportation":7317,"adults":7318,"cannabis":7319,"rupee":7320,"pd":7321,"sin":7322,"voc":7323,"wisc":7324,"##min":7325,"##pir":7326,"##icul":7327,"lew":7328,"scored":7329,"scoring":7330,"targets":7331,"suffering":7332,"necessarily":7333,"subsid":7334,"flying":7335,"cooper":7336,"tantric":7337,"bio":7338,"kim":7339,"patch":7340,"##uable":7341,"##rison":7342,"spain":7343,"agents":7344,"somehow":7345,"fold":7346,"signing":7347,"stands":7348,"strongly":7349,"physics":7350,"baseball":7351,"selection":7352,"colorado":7353,"cycle":7354,"consequences":7355,"paralle":7356,"phenomen":7357,"diplom":7358,"cd":7359,"##taining":7360,"##idden":7361,"##etr":7362,"unknown":7363,"disag":7364,"imper":7365,"facts":7366,"protests":7367,"irish":7368,"walked":7369,"falling":7370,"threats":7371,"owls":7372,"carrying":7373,"scheme":7374,"miami":7375,"pock":7376,"##ien":7377,"##ek":7378,"##uated":7379,"##orted":7380,"##weight":7381,"genetic":7382,"redd":7383,"requirements":7384,"mechanism":7385,"suddenly":7386,"circumstances":7387,"ga":7388,"jay":7389,"kil":7390,"lies":7391,"##ko":7392,"##14":7393,"repr":7394,"overwhel":7395,"recording":7396,"embr":7397,"##onsin":7398,"guil":7399,"extended":7400,"captain":7401,"wisconsin":7402,"dcs":7403,"##sl":7404,"##wal":7405,"shif":7406,"prohib":7407,"meat":7408,"tea":7409,"evolution":7410,"drone":7411,"index":7412,"pover":7413,"classes":7414,"closely":7415,"regulations":7416,"galaxy":7417,"bath":7418,"coc":7419,"sister":7420,"chosen":7421,"aggress":7422,"evol":7423,"scand":7424,"contest":7425,"orders":7426,"cutting":7427,"materials":7428,"maximum":7429,"consistent":7430,"arizona":7431,"jul":7432,"rig":7433,"##rich":7434,"##iser":7435,"bear":7436,"##cher":7437,"chick":7438,"brian":7439,"acts":7440,"buying":7441,"downtown":7442,"##ternal":7443,"ideology":7444,"matt":7445,"approval":7446,"meetings":7447,"compete":7448,"definition":7449,"roger":7450,"scheduled":7451,"jam":7452,"sab":7453,"sight":7454,"##17":7455,"##erves":7456,"##icide":7457,"##char":7458,"sees":7459,"intention":7460,"reput":7461,"desire":7462,"desper":7463,"##ancing":7464,"depending":7465,"officially":7466,"continuing":7467,"heads":7468,"colleagues":7469,"assistance":7470,"adopt":7471,"palestinian":7472,"database":7473,"tort":7474,"##elines":7475,"unemp":7476,"reporter":7477,"apps":7478,"veget":7479,"valley":7480,"debut":7481,"##orrow":7482,"mistake":7483,"quantum":7484,"yellow":7485,"ble":7486,"##lv":7487,"##ck":7488,"##pan":7489,"##aled":7490,"storage":7491,"noticed":7492,"abc":7493,"cruc":7494,"struck":7495,"colon":7496,"directed":7497,"promised":7498,"acknowled":7499,"nhl":7500,"divers":7501,"jur":7502,"kings":7503,"sinc":7504,"##inity":7505,"##inals":7506,"##arters":7507,"disrupt":7508,"worldwide":7509,"##ashed":7510,"promote":7511,"networks":7512,"alongside":7513,"constant":7514,"falls":7515,"observed":7516,"houses":7517,"frequency":7518,"korean":7519,"fifth":7520,"alcohol":7521,"jordan":7522,"##pe":7523,"##arth":7524,"soil":7525,"manif":7526,"blame":7527,"holly":7528,"calcul":7529,"landers":7530,"versions":7531,"selected":7532,"frequently":7533,"struggle":7534,"##chester":7535,"commitment":7536,"tackle":7537,"succeed":7538,"museum":7539,"800":7540,"eric":7541,"likes":7542,"soph":7543,"##west":7544,"stuck":7545,"anonym":7546,"welf":7547,"orient":7548,"leaf":7549,"plot":7550,"moves":7551,"elite":7552,"winner":7553,"topics":7554,"espn":7555,"detailed":7556,"immediate":7557,"daniel":7558,"scenes":7559,"incredible":7560,"incredibly":7561,"poverty":7562,"loud":7563,"tel":7564,"upper":7565,"yog":7566,"##otes":7567,"angry":7568,"regener":7569,"##enny":7570,"stronger":7571,"tracks":7572,"drawn":7573,"polls":7574,"songs":7575,"welfare":7576,"74":7577,"jr":7578,"kong":7579,"ott":7580,"##col":7581,"##ingu":7582,"##unte":7583,"bloom":7584,"empt":7585,"handed":7586,"retail":7587,"fewer":7588,"opposite":7589,"harder":7590,"claiming":7591,"##apping":7592,"shortly":7593,"distinct":7594,"godd":7595,"volunte":7596,"recognize":7597,"controlled":7598,"repeatedly":7599,"intellect":7600,"liquid":7601,"sorry":7602,"foss":7603,"iq":7604,"mur":7605,"thin":7606,"stores":7607,"##asts":7608,"transm":7609,"passion":7610,"deeply":7611,"khan":7612,"italian":7613,"comedy":7614,"columbia":7615,"drew":7616,"liver":7617,"ta":7618,"tall":7619,"##uits":7620,"inqu":7621,"abd":7622,"brothers":7623,"mainstream":7624,"liberals":7625,"odd":7626,"cruz":7627,"festival":7628,"approximately":7629,"dub":7630,"pushing":7631,"rice":7632,"##oral":7633,"##cho":7634,"arts":7635,"allies":7636,"##ologists":7637,"putin":7638,"liberty":7639,"independence":7640,"catal":7641,"dedicated":7642,"assembly":7643,"discrimination":7644,"sacr":7645,"05":7646,"rival":7647,"ont":7648,"shield":7649,"cha":7650,"##apse":7651,"brut":7652,"compens":7653,"compreh":7654,"disaster":7655,"theme":7656,"remote":7657,"confront":7658,"raising":7659,"returning":7660,"kinds":7661,"excess":7662,"performed":7663,"limits":7664,"favour":7665,"hoping":7666,"narrative":7667,"rescue":7668,"guilty":7669,"dall":7670,"iphone":7671,"jason":7672,"##mond":7673,"##eda":7674,"##areness":7675,"sty":7676,"seattle":7677,"upcoming":7678,"somebody":7679,"backed":7680,"humanity":7681,"holds":7682,"titles":7683,"##exp":7684,"racial":7685,"fantasy":7686,"temperature":7687,"icon":7688,"kurd":7689,"##bed":7690,"##ito":7691,"somewhere":7692,"##ifications":7693,"infect":7694,"arguments":7695,"##ographic":7696,"awes":7697,"awareness":7698,"recognition":7699,"pushed":7700,"punish":7701,"contributions":7702,"mixed":7703,"excellent":7704,"dw":7705,"hen":7706,"fraud":7707,"unif":7708,"grass":7709,"crypt":7710,"extension":7711,"extrem":7712,"ruled":7713,"risks":7714,"elsewhere":7715,"navig":7716,"catholic":7717,"aspects":7718,"understood":7719,"98":7720,"hong":7721,"##rd":7722,"##ena":7723,"clock":7724,"client":7725,"strik":7726,"developer":7727,"possession":7728,"typical":7729,"fields":7730,"coaches":7731,"racing":7732,"degrees":7733,"scotland":7734,"bike":7735,"cere":7736,"dc":7737,"nar":7738,"rating":7739,"roster":7740,"##laim":7741,"##onn":7742,"##lla":7743,"truck":7744,"grav":7745,"##ogue":7746,"twin":7747,"disord":7748,"province":7749,"condem":7750,"dealing":7751,"references":7752,"romney":7753,"academy":7754,"hindu":7755,"02":7756,"fiction":7757,"nurs":7758,"sir":7759,"##night":7760,"##imm":7761,"chlor":7762,"1999":7763,"choices":7764,"messages":7765,"hopefully":7766,"conclusion":7767,"hollywood":7768,"eld":7769,"tank":7770,"tony":7771,"##ded":7772,"##sters":7773,"worried":7774,"proved":7775,"##otted":7776,"explor":7777,"solutions":7778,"occur":7779,"sanctions":7780,"scenario":7781,"granted":7782,"04":7783,"67":7784,"bom":7785,"bits":7786,"##oman":7787,"##illy":7788,"lean":7789,"spo":7790,"enth":7791,"rolling":7792,"earned":7793,"courts":7794,"headed":7795,"sentence":7796,"georg":7797,"horned":7798,"sending":7799,"##view":7800,"##inations":7801,"##illed":7802,"dry":7803,"##upid":7804,"artists":7805,"solo":7806,"harass":7807,"taxp":7808,"describe":7809,"resource":7810,"precise":7811,"feedback":7812,"properly":7813,"subscribe":7814,"pilot":7815,"explanation":7816,"61":7817,"68":7818,"eb":7819,"##aire":7820,"##cy":7821,"##dy":7822,"forec":7823,"franch":7824,"unw":7825,"adam":7826,"outcome":7827,"formed":7828,"extensive":7829,"patient":7830,"trees":7831,"describes":7832,"replaced":7833,"referred":7834,"layer":7835,"license":7836,"pi":7837,"vige":7838,"##hr":7839,"##mat":7840,"##fr":7841,"##rey":7842,"stim":7843,"##ilit":7844,"##agan":7845,"trig":7846,"perce":7847,"feat":7848,"breed":7849,"listening":7850,"attacked":7851,"exciting":7852,"controls":7853,"advertising":7854,"historic":7855,"mccain":7856,"nomine":7857,"dominant":7858,"folks":7859,"vigeant":7860,"dal":7861,"gaz":7862,"hubb":7863,"lind":7864,"pump":7865,"reward":7866,"whis":7867,"##chain":7868,"chose":7869,"brings":7870,"newly":7871,"##rete":7872,"techniques":7873,"250":7874,"targeted":7875,"priority":7876,"surrounding":7877,"comprom":7878,"hockey":7879,"dallas":7880,"merc":7881,"##aa":7882,"##een":7883,"##han":7884,"##repr":7885,"pros":7886,"withdraw":7887,"strict":7888,"goods":7889,"discount":7890,"technologies":7891,"funded":7892,"1996":7893,"captured":7894,"combination":7895,"thousand":7896,"purposes":7897,"duty":7898,"stephen":7899,"awesome":7900,"mak":7901,"pok":7902,"sid":7903,"sessions":7904,"##ties":7905,"##esy":7906,"##orse":7907,"##asion":7908,"##etime":7909,"conce":7910,"sole":7911,"output":7912,"##licit":7913,"founded":7914,"legend":7915,"patri":7916,"payments":7917,"clubs":7918,"representative":7919,"answers":7920,"owl":7921,"virtually":7922,"patterns":7923,"mirr":7924,"unusual":7925,"ak":7926,"flex":7927,"hans":7928,"##gg":7929,"height":7930,"agric":7931,"anna":7932,"##cover":7933,"keeps":7934,"musc":7935,"returns":7936,"regularly":7937,"literature":7938,"73":7939,"nbc":7940,"nato":7941,"ros":7942,"rape":7943,"##bell":7944,"##alf":7945,"##asp":7946,"chain":7947,"orch":7948,"alph":7949,"phr":7950,"resulting":7951,"receiving":7952,"minds":7953,"losses":7954,"emerged":7955,"behavi":7956,"hyd":7957,"ultimate":7958,"cycling":7959,"apartment":7960,"scholars":7961,"permanent":7962,"##osphere":7963,"82":7964,"cable":7965,"gate":7966,"hay":7967,"ku":7968,"yield":7969,"regions":7970,"##athan":7971,"realized":7972,"holy":7973,"situations":7974,"facilities":7975,"versus":7976,"replied":7977,"journalists":7978,"premium":7979,"complaint":7980,"lobby":7981,"alien":7982,"electronic":7983,"neutral":7984,"mathemat":7985,"parallel":7986,"reputation":7987,"agricult":7988,"eating":7989,"pul":7990,"pope":7991,"rav":7992,"ts":7993,"tied":7994,"vic":7995,"zeal":7996,"##va":7997,"##isa":7998,"ford":7999,"anger":8000,"outl":8001,"manip":8002,"marsh":8003,"##awa":8004,"mole":8005,"barr":8006,"payment":8007,"similarly":8008,"normally":8009,"lawyers":8010,"philosophy":8011,"bird":8012,"tone":8013,"##pg":8014,"##ws":8015,"ingr":8016,"##itar":8017,"hash":8018,"blocks":8019,"boat":8020,"contem":8021,"deficit":8022,"assume":8023,"supports":8024,"puts":8025,"ideal":8026,"arrange":8027,"entit":8028,"austin":8029,"templ":8030,"congressional":8031,"03":8032,"76":8033,"##lers":8034,"forfe":8035,"##ched":8036,"anx":8037,"alliance":8038,"sov":8039,"##ounced":8040,"marked":8041,"capit":8042,"protected":8043,"belief":8044,"valuable":8045,"resulted":8046,"creates":8047,"capture":8048,"contributed":8049,"encourage":8050,"bj":8051,"cad":8052,"dna":8053,"pound":8054,"sony":8055,"tip":8056,"##ico":8057,"conver":8058,"habit":8059,"fred":8060,"##ifies":8061,"abu":8062,"compare":8063,"amid":8064,"hadn":8065,"dress":8066,"assets":8067,"retired":8068,"reasonable":8069,"collective":8070,"enemies":8071,"initiative":8072,"lewis":8073,"##die":8074,"##win":8075,"##icial":8076,"##ayers":8077,"asian":8078,"weigh":8079,"seats":8080,"perp":8081,"simpl":8082,"terrible":8083,"circuit":8084,"primarily":8085,"emotional":8086,"tower":8087,"complicated":8088,"mormon":8089,"regenerative":8090,"enthus":8091,"69":8092,"aj":8093,"buck":8094,"##bar":8095,"##sen":8096,"##ighters":8097,"##usive":8098,"lev":8099,"fees":8100,"surg":8101,"locations":8102,"matth":8103,"biology":8104,"relationships":8105,"principles":8106,"##gbt":8107,"satellite":8108,"fought":8109,"lgbt":8110,"pod":8111,"##uts":8112,"##osis":8113,"enorm":8114,"loyal":8115,"decline":8116,"attended":8117,"hole":8118,"represented":8119,"recovery":8120,"rapidly":8121,"vietnam":8122,"vulnerable":8123,"enterprise":8124,"gym":8125,"pad":8126,"##40":8127,"##erd":8128,"##isan":8129,"stupid":8130,"##owa":8131,"manner":8132,"myst":8133,"guest":8134,"engage":8135,"hardware":8136,"terrorists":8137,"corporations":8138,"prisoners":8139,"installed":8140,"ethnic":8141,"minority":8142,"narrow":8143,"08":8144,"cod":8145,"dod":8146,"hurr":8147,"vr":8148,"ves":8149,"x64":8150,"##fall":8151,"inev":8152,"input":8153,"rear":8154,"prote":8155,"##sea":8156,"##iment":8157,"waste":8158,"unn":8159,"brows":8160,"component":8161,"manage":8162,"peak":8163,"actor":8164,"description":8165,"obtained":8166,"factory":8167,"mainly":8168,"viewers":8169,"anticip":8170,"equival":8171,"obser":8172,"allegations":8173,"empty":8174,"soviet":8175,"##ora":8176,"##rect":8177,"pron":8178,"##igen":8179,"suicide":8180,"grid":8181,"amounts":8182,"explicit":8183,"prepar":8184,"oblig":8185,"smo":8186,"propag":8187,"opponent":8188,"informed":8189,"affil":8190,"discussions":8191,"improvement":8192,"navy":8193,"ukraine":8194,"basketball":8195,"cited":8196,"dust":8197,"hidden":8198,"porn":8199,"samples":8200,"##anes":8201,"deleg":8202,"##keep":8203,"##abled":8204,"anymore":8205,"fool":8206,"##ucc":8207,"presum":8208,"registr":8209,"deploy":8210,"transpar":8211,"careful":8212,"1994":8213,"apolog":8214,"empire":8215,"representatives":8216,"screens":8217,"responses":8218,"naturally":8219,"iraqi":8220,"automatic":8221,"enjoyed":8222,"lucky":8223,"wrestling":8224,"aer":8225,"gotten":8226,"ky":8227,"naz":8228,"ted":8229,"vary":8230,"##rid":8231,"##gian":8232,"##33":8233,"##ares":8234,"disney":8235,"contribute":8236,"demands":8237,"weekly":8238,"reduction":8239,"airport":8240,"programming":8241,"salt":8242,"employee":8243,"reviews":8244,"introduction":8245,"celebrate":8246,"07":8247,"fc":8248,"hits":8249,"iowa":8250,"##hab":8251,"##uine":8252,"stead":8253,"shit":8254,"exists":8255,"alive":8256,"engaged":8257,"##riend":8258,"##iveness":8259,"deeper":8260,"strategic":8261,"bh":8262,"cree":8263,"ft":8264,"fault":8265,"som":8266,"thor":8267,"##esis":8268,"iter":8269,"chances":8270,"joining":8271,"parking":8272,"belt":8273,"efficient":8274,"finds":8275,"personnel":8276,"requests":8277,"raf":8278,"reaching":8279,"rejected":8280,"penalty":8281,"cosm":8282,"goddess":8283,"ale":8284,"gulf":8285,"##xit":8286,"##wart":8287,"##arked":8288,"conven":8289,"sev":8290,"frag":8291,"saved":8292,"outstanding":8293,"##acted":8294,"exposed":8295,"boom":8296,"minnes":8297,"monthly":8298,"1997":8299,"threatened":8300,"diagn":8301,"implementation":8302,"cabinet":8303,"accurate":8304,"exclusive":8305,"disagree":8306,"77":8307,"bunch":8308,"cub":8309,"gig":8310,"vanc":8311,"theor":8312,"##ouver":8313,"triple":8314,"modi":8315,"legacy":8316,"democrat":8317,"generate":8318,"lights":8319,"paint":8320,"journalist":8321,"elev":8322,"principle":8323,"manufacturing":8324,"begun":8325,"adopted":8326,"shadow":8327,"taste":8328,"ontario":8329,"minnesota":8330,"bak":8331,"germ":8332,"hud":8333,"nich":8334,"rick":8335,"sed":8336,"token":8337,"sum":8338,"##apol":8339,"##sole":8340,"blind":8341,"formation":8342,"shoulder":8343,"carefully":8344,"prominent":8345,"visible":8346,"involving":8347,"banned":8348,"blockchain":8349,"collapse":8350,"perfectly":8351,"utility":8352,"tickets":8353,"81":8354,"ties":8355,"tie":8356,"##rum":8357,"##esc":8358,"##ctic":8359,"deals":8360,"saving":8361,"##enders":8362,"ads":8363,"coins":8364,"invent":8365,"keys":8366,"warming":8367,"avenue":8368,"profession":8369,"practical":8370,"routine":8371,"nutr":8372,"destroyed":8373,"chamber":8374,"therapy":8375,"intellectual":8376,"bor":8377,"oz":8378,"pace":8379,"rent":8380,"uber":8381,"##tig":8382,"prize":8383,"outs":8384,"herit":8385,"beta":8386,"obam":8387,"legs":8388,"operate":8389,"christie":8390,"constantly":8391,"pleas":8392,"collected":8393,"voices":8394,"innoc":8395,"categories":8396,"sherlock":8397,"concluded":8398,"giants":8399,"sympt":8400,"vancouver":8401,"fert":8402,"kur":8403,"pill":8404,"tut":8405,"till":8406,"##pro":8407,"##celer":8408,"console":8409,"wash":8410,"strip":8411,"serves":8412,"whereas":8413,"busy":8414,"processing":8415,"covers":8416,"drawing":8417,"racist":8418,"extraord":8419,"mexican":8420,"ipad":8421,"##ihad":8422,"87":8423,"ax":8424,"dou":8425,"jac":8426,"kiss":8427,"##ua":8428,"##don":8429,"##inter":8430,"##inator":8431,"rely":8432,"##vereign":8433,"##pping":8434,"abb":8435,"sovereign":8436,"##iana":8437,"strikes":8438,"edward":8439,"##lete":8440,"societ":8441,"info":8442,"concrete":8443,"portion":8444,"blocked":8445,"ultr":8446,"unclear":8447,"survive":8448,"bernie":8449,"garden":8450,"sweden":8451,"newsletter":8452,"matthew":8453,"88":8454,"bubb":8455,"kent":8456,"pour":8457,"rational":8458,"santa":8459,"ven":8460,"##part":8461,"##word":8462,"##██":8463,"##rell":8464,"revel":8465,"##osexual":8466,"roy":8467,"##raid":8468,"##elled":8469,"signal":8470,"larry":8471,"handful":8472,"##phones":8473,"testim":8474,"technique":8475,"covering":8476,"liked":8477,"indicate":8478,"discovery":8479,"exchang":8480,"advocates":8481,"controversy":8482,"sheriff":8483,"retirement":8484,"unemployment":8485,"79":8486,"86":8487,"jokes":8488,"##aid":8489,"##ystem":8490,"##mo":8491,"##pu":8492,"##idency":8493,"trends":8494,"spots":8495,"190":8496,"publication":8497,"promises":8498,"footage":8499,"statistics":8500,"grounds":8501,"tomorrow":8502,"veteran":8503,"destruction":8504,"crucial":8505,"dir":8506,"hamm":8507,"ly":8508,"lists":8509,"##gas":8510,"##oric":8511,"acceler":8512,"##aws":8513,"root":8514,"boot":8515,"conspir":8516,"relief":8517,"monitor":8518,"simult":8519,"handling":8520,"win64":8521,"beliefs":8522,"hardly":8523,"iii":8524,"casual":8525,"olympic":8526,"hubbard":8527,"97":8528,"96":8529,"wides":8530,"##care":8531,"##greg":8532,"resign":8533,"amy":8534,"manchester":8535,"drones":8536,"consens":8537,"assass":8538,"lawmakers":8539,"protocol":8540,"1990s":8541,"investigators":8542,"threatening":8543,"citizen":8544,"clinical":8545,"appointed":8546,"equivalent":8547,"simultane":8548,"bac":8549,"fisc":8550,"ic":8551,"mile":8552,"ramp":8553,"tenn":8554,"##hy":8555,"##can":8556,"stack":8557,"##etts":8558,"fruit":8559,"gray":8560,"whenever":8561,"twenty":8562,"formal":8563,"soccer":8564,"elsa":8565,"brexit":8566,"campaigns":8567,"bias":8568,"suspended":8569,"sensitive":8570,"achieved":8571,"migrants":8572,"resistance":8573,"tactics":8574,"negotiations":8575,"600":8576,"cogn":8577,"gains":8578,"oreg":8579,"##fire":8580,"##jan":8581,"##oning":8582,"##vey":8583,"##opher":8584,"alter":8585,"##ivals":8586,"plastic":8587,"outr":8588,"bron":8589,"##iano":8590,"##ecess":8591,"##orship":8592,"depends":8593,"bars":8594,"passes":8595,"laid":8596,"solve":8597,"organized":8598,"hunt":8599,"islands":8600,"electricity":8601,"accompan":8602,"barely":8603,"uniform":8604,"hurric":8605,"oregon":8606,"dance":8607,"gained":8608,"lun":8609,"pent":8610,"##bour":8611,"beij":8612,"chel":8613,"##estr":8614,"external":8615,"uncon":8616,"uncom":8617,"##ibr":8618,"##ibilities":8619,"marks":8620,"##sels":8621,"genuine":8622,"offices":8623,"##inson":8624,"machines":8625,"recommended":8626,"aimed":8627,"industries":8628,"besides":8629,"atmosphere":8630,"reddit":8631,"beijing":8632,"sams":8633,"wine":8634,"##stal":8635,"spin":8636,"plain":8637,"doz":8638,"enable":8639,"##endum":8640,"closing":8641,"upset":8642,"scan":8643,"afraid":8644,"##icks":8645,"attitude":8646,"bug":8647,"define":8648,"smile":8649,"efficiency":8650,"anne":8651,"courtesy":8652,"processes":8653,"argues":8654,"physic":8655,"rounds":8656,"##aska":8657,"visitors":8658,"producing":8659,"holiday":8660,"fortun":8661,"horse":8662,"mosc":8663,"algorithm":8664,"uncertainty":8665,"franchise":8666,"83":8667,"84":8668,"dun":8669,"gor":8670,"gift":8671,"kin":8672,"pence":8673,"wages":8674,"##bec":8675,"##15":8676,"##py":8677,"##pread":8678,"##acare":8679,"##season":8680,"asks":8681,"ark":8682,"intense":8683,"ministers":8684,"format":8685,"absor":8686,"participate":8687,"challenging":8688,"##burg":8689,"patrick":8690,"pocket":8691,"obamacare":8692,"widespread":8693,"700":8694,"hired":8695,"lam":8696,"##su":8697,"##fit":8698,"confer":8699,"noting":8700,"notion":8701,"abstr":8702,"doors":8703,"crow":8704,"##auc":8705,"pregn":8706,"buzz":8707,"##ressed":8708,"##print":8709,"estate":8710,"1995":8711,"lowest":8712,"investigations":8713,"immune":8714,"##sylv":8715,"referring":8716,"##under":8717,"ranked":8718,"rarely":8719,"ruby":8720,"spiritual":8721,"pennsylv":8722,"monitoring":8723,"1st":8724,"78":8725,"gonna":8726,"lens":8727,"wis":8728,"##bing":8729,"##top":8730,"thick":8731,"##stit":8732,"##umin":8733,"plate":8734,"prey":8735,"inval":8736,"proven":8737,"explore":8738,"delay":8739,"organisation":8740,"landsc":8741,"generated":8742,"activist":8743,"privile":8744,"snap":8745,"entering":8746,"distributed":8747,"trek":8748,"suffer":8749,"delivery":8750,"implemented":8751,"producer":8752,"wonderful":8753,"chicken":8754,"moscow":8755,"bail":8756,"cul":8757,"dick":8758,"echo":8759,"fulf":8760,"hint":8761,"##iat":8762,"##inem":8763,"toy":8764,"##alia":8765,"##ashing":8766,"##ller":8767,"beating":8768,"shout":8769,"trillion":8770,"meg":8771,"components":8772,"##ounting":8773,"exposure":8774,"##aches":8775,"hern":8776,"interaction":8777,"shell":8778,"recipe":8779,"thrown":8780,"mini":8781,"monarch":8782,"seemingly":8783,"programme":8784,"successfully":8785,"massach":8786,"banking":8787,"pettig":8788,"engineers":8789,"permission":8790,"establishment":8791,"aggressive":8792,"enormous":8793,"pettigrew":8794,"09":8795,"waves":8796,"yard":8797,"##woman":8798,"##thr":8799,"chip":8800,"exceed":8801,"albert":8802,"##usetts":8803,"##apore":8804,"crown":8805,"actors":8806,"joy":8807,"reducing":8808,"universities":8809,"singapore":8810,"suspected":8811,"struggling":8812,"stanford":8813,"legitimate":8814,"warrant":8815,"incorpor":8816,"massachusetts":8817,"dur":8818,"punch":8819,"tay":8820,"tri":8821,"##umes":8822,"##actions":8823,"repair":8824,"marco":8825,"##uctive":8826,"presidency":8827,"throwing":8828,"avo":8829,"scientist":8830,"attempting":8831,"expectations":8832,"introduce":8833,"logic":8834,"recognized":8835,"inspect":8836,"settlement":8837,"graduate":8838,"ignore":8839,"horiz":8840,"temporary":8841,"surgery":8842,"pennsylvania":8843,"eag":8844,"hou":8845,"pit":8846,"roles":8847,"##born":8848,"##pool":8849,"##iner":8850,"toler":8851,"##etics":8852,"ups":8853,"incidents":8854,"personality":8855,"##otte":8856,"##engers":8857,"singing":8858,"##ova":8859,"devast":8860,"circle":8861,"silent":8862,"indicated":8863,"cameras":8864,"apparent":8865,"platforms":8866,"georgia":8867,"nominee":8868,"bass":8869,"jets":8870,"ri":8871,"ry":8872,"vl":8873,"##aria":8874,"##ione":8875,"##lyn":8876,"##ima":8877,"fee":8878,"##berry":8879,"rook":8880,"everywhere":8881,"regulation":8882,"transit":8883,"superior":8884,"benefic":8885,"summit":8886,"addressed":8887,"corporation":8888,"heroes":8889,"odds":8890,"proposals":8891,"##agram":8892,"dinner":8893,"subsequent":8894,"treasury":8895,"dave":8896,"hitting":8897,"josh":8898,"jihad":8899,"rus":8900,"terry":8901,"vital":8902,"vector":8903,"##oying":8904,"##wan":8905,"##ja":8906,"##olit":8907,"trave":8908,"##andez":8909,"brill":8910,"loan":8911,"marvel":8912,"containing":8913,"endorse":8914,"##ikh":8915,"swim":8916,"estimate":8917,"exclud":8918,"surely":8919,"convin":8920,"interviews":8921,"referendum":8922,"rocket":8923,"automatically":8924,"expanded":8925,"prosecutors":8926,"innovation":8927,"cowbo":8928,"##otype":8929,"featuring":8930,"dozens":8931,"cig":8932,"lying":8933,"tips":8934,"wolf":8935,"##ni":8936,"abroad":8937,"202":8938,"grade":8939,"polar":8940,"roots":8941,"invited":8942,"monster":8943,"studying":8944,"centers":8945,"heading":8946,"euro":8947,"ballot":8948,"engineer":8949,"touchdown":8950,"conversations":8951,"ridicul":8952,"farmers":8953,"rifle":8954,"fiscal":8955,"##lah":8956,"##east":8957,"##endo":8958,"grab":8959,"incomp":8960,"marine":8961,"phones":8962,"carn":8963,"assad":8964,"guitar":8965,"discip":8966,"elig":8967,"artific":8968,"extend":8969,"behalf":8970,"array":8971,"deliber":8972,"steam":8973,"visited":8974,"landing":8975,"divided":8976,"silence":8977,"websites":8978,"iranian":8979,"walker":8980,"berlin":8981,"vacc":8982,"bullet":8983,"gathered":8984,"prosecutor":8985,"pipeline":8986,"turkish":8987,"sciences":8988,"consciousness":8989,"reprod":8990,"smooth":8991,"gent":8992,"mit":8993,"x6":8994,"##eters":8995,"alan":8996,"##ipedia":8997,"drunk":8998,"partly":8999,"knife":9000,"##urray":9001,"barcel":9002,"feelings":9003,"189":9004,"violations":9005,"furthermore":9006,"suggesting":9007,"fallen":9008,"statist":9009,"stayed":9010,"participation":9011,"settings":9012,"cooking":9013,"dutch":9014,"ratio":9015,"skept":9016,"makabe":9017,"zealand":9018,"samsung":9019,"dict":9020,"jury":9021,"##och":9022,"##ses":9023,"inequ":9024,"revers":9025,"stun":9026,"forever":9027,"shah":9028,"tries":9029,"leon":9030,"##ials":9031,"recip":9032,"mining":9033,"fled":9034,"##aham":9035,"denver":9036,"temp":9037,"##umble":9038,"birds":9039,"scandal":9040,"92":9041,"cort":9042,"gut":9043,"hd":9044,"kitch":9045,"lane":9046,"oak":9047,"rab":9048,"##oot":9049,"##fast":9050,"##ala":9051,"stake":9052,"stages":9053,"anton":9054,"deaf":9055,"butt":9056,"anybody":9057,"economics":9058,"attacking":9059,"immun":9060,"restrictions":9061,"jews":9062,"fantastic":9063,"tonight":9064,"implications":9065,"substantial":9066,"corruption":9067,"overwhelming":9068,"convinced":9069,"94":9070,"jere":9071,"kl":9072,"mitch":9073,"ot":9074,"pale":9075,"vert":9076,"##rog":9077,"shipping":9078,"##udes":9079,"justin":9080,"interior":9081,"blow":9082,"desert":9083,"surf":9084,"harry":9085,"##tenance":9086,"importantly":9087,"argent":9088,"creator":9089,"judges":9090,"1980s":9091,"popularity":9092,"walls":9093,"robot":9094,"1970s":9095,"oklah":9096,"tweeted":9097,"analysts":9098,"javas":9099,"fel":9100,"mild":9101,"##met":9102,"##uild":9103,"##ries":9104,"chat":9105,"##iev":9106,"scope":9107,"worker":9108,"roof":9109,"##veland":9110,"colors":9111,"metro":9112,"cream":9113,"ordinary":9114,"admit":9115,"receiver":9116,"equally":9117,"equality":9118,"##feld":9119,"improving":9120,"respectively":9121,"fears":9122,"prepare":9123,"printed":9124,"entrance":9125,"borders":9126,"opinions":9127,"occupy":9128,"procedure":9129,"hawaiian":9130,"instrument":9131,"remarkable":9132,"yoga":9133,"trigger":9134,"testimony":9135,"cigar":9136,"barcelona":9137,"javascript":9138,"2nd":9139,"nod":9140,"##50":9141,"##water":9142,"infer":9143,"trained":9144,"2020":9145,"replic":9146,"drama":9147,"firing":9148,"##graph":9149,"centuries":9150,"persu":9151,"persons":9152,"proph":9153,"concert":9154,"glad":9155,"##lessly":9156,"rhet":9157,"finger":9158,"breath":9159,"forfeiture":9160,"awards":9161,"pel":9162,"tum":9163,"vet":9164,"##zy":9165,"prol":9166,"asyl":9167,"exit":9168,"clash":9169,"noise":9170,"##ensity":9171,"firms":9172,"opens":9173,"remarks":9174,"gene":9175,"autonom":9176,"cleveland":9177,"##ika":9178,"intervention":9179,"hung":9180,"managing":9181,"##arrass":9182,"commissioner":9183,"diseases":9184,"accomplish":9185,"acknowledge":9186,"carlos":9187,"guidelines":9188,"manifest":9189,"innocent":9190,"bind":9191,"kansas":9192,"qa":9193,"##bod":9194,"##80":9195,"inner":9196,"##oming":9197,"##see":9198,"deem":9199,"##ulating":9200,"lect":9201,"unions":9202,"syd":9203,"##ateral":9204,"studied":9205,"annivers":9206,"streaming":9207,"midfield":9208,"foods":9209,"epic":9210,"inflation":9211,"consideration":9212,"speaks":9213,"acceptable":9214,"embarrass":9215,"utah":9216,"sustainable":9217,"fossil":9218,"inquir":9219,"ingred":9220,"89":9221,"fisher":9222,"han":9223,"mp":9224,"tub":9225,"ug":9226,"##hd":9227,"##ji":9228,"##isons":9229,"##omes":9230,"sus":9231,"suite":9232,"spaces":9233,"##ouri":9234,"scout":9235,"##gression":9236,"underm":9237,"invasion":9238,"colour":9239,"##xture":9240,"reader":9241,"##leton":9242,"maintenance":9243,"populations":9244,"technological":9245,"calm":9246,"salary":9247,"investigate":9248,"sixth":9249,"protecting":9250,"disturb":9251,"portr":9252,"picks":9253,"sufficient":9254,"complaints":9255,"indiana":9256,"wealthy":9257,"framework":9258,"assessment":9259,"municip":9260,"venture":9261,"abandoned":9262,"oklahoma":9263,"asylum":9264,"dies":9265,"wise":9266,"##mun":9267,"##eria":9268,"inch":9269,"##uten":9270,"stations":9271,"##iler":9272,"##ills":9273,"shirt":9274,"exempt":9275,"alab":9276,"craw":9277,"quoted":9278,"blast":9279,"##athy":9280,"pointing":9281,"module":9282,"setup":9283,"delhi":9284,"firef":9285,"cycl":9286,"balt":9287,"contracts":9288,"legislative":9289,"roman":9290,"psychological":9291,"predicted":9292,"waters":9293,"encounter":9294,"dramatic":9295,"registration":9296,"consensus":9297,"chelsea":9298,"dump":9299,"hip":9300,"jet":9301,"mt":9302,"rou":9303,"vig":9304,"##vp":9305,"##24":9306,"20th":9307,"acid":9308,"overcome":9309,"##uces":9310,"moderate":9311,"transg":9312,"requested":9313,"arrive":9314,"entrepr":9315,"voter":9316,"wales":9317,"breaks":9318,"homosexual":9319,"eastl":9320,"demanding":9321,"improvements":9322,"episodes":9323,"brotherhood":9324,"pupp":9325,"maryland":9326,"structures":9327,"phenomenon":9328,"extraordinary":9329,"houston":9330,"entreprene":9331,"hed":9332,"hamp":9333,"lunch":9334,"por":9335,"toxic":9336,"##ali":9337,"stl":9338,"##abet":9339,"reserved":9340,"overs":9341,"attached":9342,"symp":9343,"flick":9344,"musical":9345,"viewed":9346,"globe":9347,"improv":9348,"declar":9349,"illness":9350,"mechanics":9351,"affordable":9352,"atlantic":9353,"appreciate":9354,"diversity":9355,"cbs":9356,"hes":9357,"lux":9358,"ml":9359,"nu":9360,"nur":9361,"osc":9362,"##je":9363,"theories":9364,"##ader":9365,"sean":9366,"lever":9367,"grabb":9368,"instant":9369,"depression":9370,"memo":9371,"headqu":9372,"profits":9373,"swift":9374,"fundra":9375,"competing":9376,"judg":9377,"biological":9378,"homeless":9379,"hybr":9380,"##haust":9381,"commander":9382,"producers":9383,"ownership":9384,"lady":9385,"montreal":9386,"kirk":9387,"sydney":9388,"anniversary":9389,"4th":9390,"fame":9391,"fighters":9392,"gem":9393,"gdp":9394,"##mate":9395,"##aron":9396,"##esty":9397,"##agger":9398,"drove":9399,"bold":9400,"designer":9401,"missile":9402,"questioned":9403,"trem":9404,"virus":9405,"urg":9406,"ranks":9407,"counterpart":9408,"arabia":9409,"encouraged":9410,"lobster":9411,"horror":9412,"dependent":9413,"wounded":9414,"tasks":9415,"cowboys":9416,"06":9417,"ka":9418,"mant":9419,"##dam":9420,"##dog":9421,"prest":9422,"haiti":9423,"##ipts":9424,"grind":9425,"compat":9426,"vegas":9427,"engagement":9428,"swing":9429,"arguing":9430,"failing":9431,"titled":9432,"civilian":9433,"consumption":9434,"##inois":9435,"survival":9436,"examination":9437,"semi":9438,"burning":9439,"mistakes":9440,"adviser":9441,"sarah":9442,"interpretation":9443,"involvement":9444,"imperial":9445,"capitol":9446,"71":9447,"bust":9448,"cav":9449,"citing":9450,"dos":9451,"dates":9452,"dating":9453,"gott":9454,"lyn":9455,"pink":9456,"rural":9457,"sr":9458,"ze":9459,"##fare":9460,"stored":9461,"exhaust":9462,"##aping":9463,"usage":9464,"drum":9465,"relation":9466,"relax":9467,"contribution":9468,"##bridge":9469,"##nedy":9470,"visiting":9471,"neck":9472,"broader":9473,"eggs":9474,"integrity":9475,"conventional":9476,"residential":9477,"anthony":9478,"manufacturers":9479,"mirror":9480,"nutrition":9481,"symptoms":9482,"conspiracy":9483,"dual":9484,"diam":9485,"maps":9486,"tape":9487,"ward":9488,"xbox":9489,"##13":9490,"##s":9491,"##inction":9492,"##icon":9493,"##ication":9494,"forb":9495,"##adel":9496,"##osc":9497,"notable":9498,"##unction":9499,"unr":9500,"unexp":9501,"##iah":9502,"export":9503,"displ":9504,"myster":9505,"indigen":9506,"contained":9507,"underground":9508,"politically":9509,"hook":9510,"membership":9511,"investigating":9512,"violation":9513,"millenn":9514,"civilians":9515,"connections":9516,"hoped":9517,"drinks":9518,"demonstrate":9519,"purchased":9520,"diego":9521,"temperatures":9522,"seeds":9523,"kennedy":9524,"contempor":9525,"inequality":9526,"alabama":9527,"gif":9528,"hire":9529,"ter":9530,"tes":9531,"um":9532,"wings":9533,"##ti":9534,"##etch":9535,"inclus":9536,"coin":9537,"loose":9538,"blank":9539,"startup":9540,"stepped":9541,"##backs":9542,"void":9543,"obsc":9544,"languages":9545,"demanded":9546,"arena":9547,"sweep":9548,"##kyo":9549,"expanding":9550,"##burgh":9551,"doctr":9552,"bonus":9553,"swedish":9554,"guarantee":9555,"indigenous":9556,"bour":9557,"ib":9558,"murray":9559,"nin":9560,"##kh":9561,"##itals":9562,"reverse":9563,"##acc":9564,"##imp":9565,"chord":9566,"una":9567,"resem":9568,"overt":9569,"preced":9570,"##angel":9571,"##iox":9572,"reads":9573,"hob":9574,"menu":9575,"involves":9576,"convicted":9577,"difficulty":9578,"strategies":9579,"computers":9580,"racism":9581,"ratings":9582,"submitted":9583,"replacement":9584,"charlie":9585,"emphasis":9586,"ee":9587,"ji":9588,"pitt":9589,"vel":9590,"wol":9591,"##fol":9592,"##alo":9593,"nev":9594,"##eman":9595,"##oko":9596,"crop":9597,"interse":9598,"##away":9599,"##ucking":9600,"assigned":9601,"contrary":9602,"subur":9603,"powered":9604,"insert":9605,"designs":9606,"distingu":9607,"deadly":9608,"burden":9609,"roads":9610,"searching":9611,"towns":9612,"promoting":9613,"graphics":9614,"alexander":9615,"battles":9616,"buddhist":9617,"elder":9618,"phrase":9619,"mystery":9620,"conferences":9621,"unexpected":9622,"93":9623,"cm":9624,"dol":9625,"hub":9626,"locked":9627,"nerv":9628,"##dd":9629,"##istent":9630,"butter":9631,"adequ":9632,"##ibutes":9633,"##iang":9634,"accomm":9635,"##anged":9636,"120":9637,"authent":9638,"libert":9639,"operator":9640,"antib":9641,"departments":9642,"presentation":9643,"employed":9644,"suspic":9645,"objective":9646,"hosted":9647,"functional":9648,"focusing":9649,"indicates":9650,"defeated":9651,"acknowledged":9652,"comprehensive":9653,"hernandez":9654,"taylor":9655,"accommod":9656,"diverse":9657,"pounds":9658,"sant":9659,"##yer":9660,"##person":9661,"stir":9662,"sect":9663,"shocked":9664,"chad":9665,"##uma":9666,"##elle":9667,"clients":9668,"aga":9669,"appe":9670,"interrog":9671,"nowhere":9672,"assign":9673,"investments":9674,"childhood":9675,"##ucky":9676,"facilit":9677,"##shop":9678,"illinois":9679,"1960s":9680,"neighbour":9681,"preparing":9682,"laboratory":9683,"container":9684,"emotion":9685,"junior":9686,"forgotten":9687,"occasionally":9688,"anonymous":9689,"perceived":9690,"poké":9691,"entitled":9692,"cats":9693,"fate":9694,"fuck":9695,"gn":9696,"nat":9697,"##lu":9698,"##cro":9699,"##39":9700,"##olen":9701,"dear":9702,"##ili":9703,"abilities":9704,"spoken":9705,"##apher":9706,"##endous":9707,"clothes":9708,"intim":9709,"repeal":9710,"coh":9711,"defender":9712,"warn":9713,"communist":9714,"performing":9715,"picking":9716,"divor":9717,"absence":9718,"coaching":9719,"speakers":9720,"philipp":9721,"settle":9722,"ecos":9723,"cooperation":9724,"instructions":9725,"dialogue":9726,"flavor":9727,"overseas":9728,"rookie":9729,"jeremy":9730,"transgender":9731,"bump":9732,"bible":9733,"cous":9734,"ein":9735,"lift":9736,"##car":9737,"threw":9738,"anderson":9739,"##oto":9740,"stability":9741,"forcing":9742,"##ami":9743,"comics":9744,"unh":9745,"parks":9746,"lawr":9747,"##ierce":9748,"builds":9749,"missouri":9750,"cambod":9751,"commonly":9752,"collins":9753,"reveals":9754,"##uko":9755,"concepts":9756,"correctly":9757,"hypothes":9758,"ranking":9759,"taxpayers":9760,"invalid":9761,"landscape":9762,"kitchen":9763,"ecosystem":9764,"cauc":9765,"cinem":9766,"hence":9767,"pix":9768,"rome":9769,"rah":9770,"riot":9771,"##gar":9772,"inject":9773,"##aki":9774,"knee":9775,"campbell":9776,"filter":9777,"insisted":9778,"##riers":9779,"restore":9780,"irr":9781,"classified":9782,"1993":9783,"21st":9784,"volunt":9785,"targeting":9786,"contacted":9787,"greece":9788,"refugee":9789,"pursue":9790,"wireless":9791,"harvard":9792,"sincl":9793,"hurricane":9794,"artificial":9795,"bread":9796,"cs":9797,"gord":9798,"tang":9799,"torn":9800,"##lar":9801,"##theless":9802,"##ilton":9803,"arc":9804,"timing":9805,"##enson":9806,"##icking":9807,"discour":9808,"differently":9809,"##itsu":9810,"lets":9811,"nevertheless":9812,"movements":9813,"healthcare":9814,"1992":9815,"api":9816,"additionally":9817,"discussing":9818,"hunter":9819,"constitu":9820,"settled":9821,"editorial":9822,"spectrum":9823,"athletic":9824,"wikipedia":9825,"theatre":9826,"juris":9827,"arkansas":9828,"rhetoric":9829,"hybrid":9830,"borr":9831,"danny":9832,"ease":9833,"ric":9834,"tai":9835,"wider":9836,"##bul":9837,"##erce":9838,"##eries":9839,"tokyo":9840,"##itors":9841,"reign":9842,"##othing":9843,"std":9844,"pride":9845,"nel":9846,"aged":9847,"crick":9848,"##aching":9849,"counts":9850,"supplies":9851,"teammates":9852,"courses":9853,"senators":9854,"posting":9855,"sandbox":9856,"hearts":9857,"soldier":9858,"consistently":9859,"athletes":9860,"highlights":9861,"dynamic":9862,"fabric":9863,"chaos":9864,"brilliant":9865,"sinclair":9866,"dying":9867,"kit":9868,"lav":9869,"sorts":9870,"vamp":9871,"##arre":9872,"stere":9873,"##the":9874,"chuck":9875,"fro":9876,"adams":9877,"upload":9878,"coher":9879,"##ails":9880,"moore":9881,"opio":9882,"smoke":9883,"discont":9884,"##eney":9885,"corps":9886,"infant":9887,"secondary":9888,"maintained":9889,"productivity":9890,"summary":9891,"malcol":9892,"approaches":9893,"telephone":9894,"jacket":9895,"layout":9896,"tweets":9897,"sprint":9898,"unpre":9899,"honestly":9900,"upgrade":9901,"henry":9902,"malcolm":9903,"jar":9904,"lag":9905,"ng":9906,"ross":9907,"##lings":9908,"##zing":9909,"##wa":9910,"##oux":9911,"##ouch":9912,"stolen":9913,"##sell":9914,"shaped":9915,"notably":9916,"ages":9917,"incent":9918,"margin":9919,"mold":9920,"worlds":9921,"smell":9922,"legally":9923,"##iko":9924,"##phia":9925,"insight":9926,"releases":9927,"starcraft":9928,"lineback":9929,"dominated":9930,"publ":9931,"damaged":9932,"burst":9933,"legislature":9934,"inspiration":9935,"districts":9936,"embass":9937,"nomination":9938,"merkel":9939,"reforms":9940,"licens":9941,"loaded":9942,"graphic":9943,"bureaucr":9944,"html":9945,"torture":9946,"compensation":9947,"harassment":9948,"propaganda":9949,"theoret":9950,"##apolis":9951,"simultaneously":9952,"##croft":9953,"lawrence":9954,"nan":9955,"nsa":9956,"##list":9957,"##mail":9958,"##­t":9959,"##orious":9960,"##thood":9961,"shir":9962,"strain":9963,"sheet":9964,"everyday":9965,"transaction":9966,"openly":9967,"110":9968,"explaining":9969,"admission":9970,"1990":9971,"christopher":9972,"##comes":9973,"rooms":9974,"interviewed":9975,"emerging":9976,"promotion":9977,"defendant":9978,"awarded":9979,"bombing":9980,"preferred":9981,"segment":9982,"pledge":9983,"punishment":9984,"browser":9985,"abstract":9986,"headquarters":9987,"bam":9988,"golf":9989,"nca":9990,"tu":9991,"wo":9992,"##orous":9993,"##leans":9994,"delic":9995,"leices":9996,"##acking":9997,"enfor":9998,"arctic":9999,"adap":10000,"perry":10001,"quote":10002,"interface":10003,"strang":10004,"actively":10005,"underlying":10006,"defending":10007,"mineral":10008,"supplement":10009,"schm":10010,"smoking":10011,"instagram":10012,"##athers":10013,"helpful":10014,"##mann":10015,"reds":10016,"insult":10017,"lineup":10018,"associate":10019,"execution":10020,"convince":10021,"tracking":10022,"bankrupt":10023,"shooter":10024,"scratch":10025,"jean":10026,"queens":10027,"cameron":10028,"wondering":10029,"ignor":10030,"integrated":10031,"brewing":10032,"acquired":10033,"koch":10034,"palestinians":10035,"mortg":10036,"playoffs":10037,"minimal":10038,"anxiety":10039,"ncaa":10040,"au":10041,"hood":10042,"ist":10043,"nest":10044,"rt":10045,"tables":10046,"wet":10047,"##fers":10048,"##aly":10049,"##icate":10050,"##rets":10051,"beings":10052,"dean":10053,"nex":10054,"unve":10055,"ally":10056,"moreover":10057,"##izab":10058,"afp":10059,"knock":10060,"reck":10061,"lesson":10062,"designers":10063,"pressing":10064,"superv":10065,"badly":10066,"winds":10067,"measured":10068,"##flix":10069,"hunting":10070,"commentary":10071,"unfair":10072,"documentary":10073,"##lihood":10074,"flights":10075,"controller":10076,"veterans":10077,"recruit":10078,"thorough":10079,"ridiculous":10080,"judgment":10081,"aaron":10082,"bent":10083,"hi":10084,"ios":10085,"mamm":10086,"sits":10087,"##pal":10088,"##wich":10089,"stance":10090,"shame":10091,"##aka":10092,"cro":10093,"cra":10094,"coinc":10095,"##aug":10096,"commerce":10097,"accus":10098,"backs":10099,"backing":10100,"obtain":10101,"charity":10102,"caps":10103,"greatly":10104,"speculation":10105,"surge":10106,"elastic":10107,"mississ":10108,"stops":10109,"austr":10110,"educational":10111,"advertisements":10112,"regulatory":10113,"hacking":10114,"weakness":10115,"neighborhoods":10116,"subsequently":10117,"decreased":10118,"rendering":10119,"bathroom":10120,"muscle":10121,"germans":10122,"heritage":10123,"dirty":10124,"##adelphia":10125,"leicester":10126,"boun":10127,"km":10128,"lor":10129,"##zer":10130,"theft":10131,"priest":10132,"##apers":10133,"clark":10134,"bru":10135,"scared":10136,"recre":10137,"poison":10138,"polling":10139,"wanting":10140,"talib":10141,"engines":10142,"laur":10143,"appearances":10144,"certific":10145,"##shire":10146,"christians":10147,"##anna":10148,"judicial":10149,"deadline":10150,"answered":10151,"considerable":10152,"awa":10153,"approached":10154,"##ollo":10155,"capitalism":10156,"managers":10157,"hydr":10158,"criticized":10159,"meaningful":10160,"struggled":10161,"substance":10162,"aims":10163,"supposedly":10164,"containers":10165,"loading":10166,"witnesses":10167,"coordinator":10168,"oxy":10169,"widget":10170,"brooklyn":10171,"outrage":10172,"7th":10173,"91":10174,"ai":10175,"bm":10176,"fits":10177,"fighter":10178,"gamb":10179,"jenn":10180,"pp":10181,"vend":10182,"##bury":10183,"##aus":10184,"##eing":10185,"##eys":10186,"##zel":10187,"##jo":10188,"seiz":10189,"enroll":10190,"canon":10191,"grace":10192,"grave":10193,"graham":10194,"imposed":10195,"attending":10196,"electoral":10197,"##boy":10198,"holl":10199,"netflix":10200,"apollo":10201,"billions":10202,"executives":10203,"packed":10204,"archae":10205,"pictured":10206,"influential":10207,"philadelphia":10208,"rhy":10209,"snowden":10210,"assumed":10211,"stephan":10212,"interactions":10213,"gallery":10214,"eliminate":10215,"sequence":10216,"pdf":10217,"kilomet":10218,"desperate":10219,"sophistic":10220,"kentucky":10221,"cb":10222,"cum":10223,"dian":10224,"ferr":10225,"rit":10226,"##bow":10227,"##nc":10228,"##net":10229,"##vent":10230,"##utive":10231,"hab":10232,"##kee":10233,"traged":10234,"##anted":10235,"##eland":10236,"arsen":10237,"perception":10238,"quit":10239,"fires":10240,"reliable":10241,"remov":10242,"insist":10243,"lessons":10244,"arrival":10245,"mrs":10246,"libya":10247,"empower":10248,"excuse":10249,"##teen":10250,"##ographer":10251,"##ompson":10252,"verb":10253,"spokesperson":10254,"embed":10255,"derived":10256,"lifetime":10257,"motivated":10258,"procedures":10259,"hawaii":10260,"dismissed":10261,"adventure":10262,"bloomberg":10263,"gravity":10264,"stimul":10265,"explicitly":10266,"exchanges":10267,"nervous":10268,"jurisd":10269,"ay":10270,"kerry":10271,"nak":10272,"pending":10273,"##no":10274,"##cos":10275,"##gie":10276,"thompson":10277,"ine":10278,"inaug":10279,"##isations":10280,"##omed":10281,"stal":10282,"stating":10283,"asp":10284,"sections":10285,"sauce":10286,"peer":10287,"dragon":10288,"overl":10289,"indones":10290,"poet":10291,"##inking":10292,"accum":10293,"asset":10294,"keith":10295,"elizab":10296,"letting":10297,"confused":10298,"talented":10299,"funeral":10300,"missions":10301,"raises":10302,"snip":10303,"urged":10304,"petition":10305,"exceptions":10306,"sensor":10307,"medicare":10308,"##ubbed":10309,"rolled":10310,"demonstrated":10311,"peaceful":10312,"jumped":10313,"lobb":10314,"##itzer":10315,"wheat":10316,"migration":10317,"ranging":10318,"variable":10319,"prospects":10320,"pyth":10321,"vitamin":10322,"striking":10323,"gaza":10324,"compromise":10325,"behaviour":10326,"enthusi":10327,"deemed":10328,"contemporary":10329,"elizabeth":10330,"biz":10331,"dv":10332,"goth":10333,"ni":10334,"rosen":10335,"tong":10336,"tens":10337,"tune":10338,"##hand":10339,"##dale":10340,"##state":10341,"spark":10342,"manual":10343,"deserve":10344,"monet":10345,"paras":10346,"##isms":10347,"followers":10348,"oppose":10349,"steven":10350,"##attan":10351,"choosing":10352,"damn":10353,"physically":10354,"matching":10355,"1980":10356,"buried":10357,"functionality":10358,"influenced":10359,"pollution":10360,"pulling":10361,"rebel":10362,"boxes":10363,"mountains":10364,"ignored":10365,"trials":10366,"occupied":10367,"errors":10368,"gathering":10369,"savings":10370,"stanley":10371,"guaranteed":10372,"guidance":10373,"adoption":10374,"societies":10375,"3rd":10376,"gest":10377,"jane":10378,"mps":10379,"nap":10380,"sv":10381,"yan":10382,"##pc":10383,"##enz":10384,"##itudes":10385,"##eted":10386,"alaska":10387,"reserv":10388,"evident":10389,"loop":10390,"##look":10391,"warren":10392,"proportion":10393,"camps":10394,"refers":10395,"harris":10396,"variation":10397,"tradem":10398,"ceiling":10399,"couples":10400,"awful":10401,"staying":10402,"egg":10403,"kicked":10404,"substit":10405,"escal":10406,"channels":10407,"experiments":10408,"tunnel":10409,"fingers":10410,"surprisingly":10411,"enhance":10412,"kurdish":10413,"prosper":10414,"municipal":10415,"bib":10416,"bone":10417,"kenny":10418,"mud":10419,"ufc":10420,"##post":10421,"##60":10422,"##onia":10423,"##urity":10424,"ank":10425,"leak":10426,"##emic":10427,"prox":10428,"imam":10429,"donors":10430,"highway":10431,"provision":10432,"tale":10433,"engaging":10434,"revol":10435,"raj":10436,"singer":10437,"epa":10438,"treaty":10439,"combine":10440,"panic":10441,"momentum":10442,"attorneys":10443,"repeat":10444,"duke":10445,"shopping":10446,"exclusively":10447,"explosion":10448,"liverpool":10449,"disorder":10450,"eligible":10451,"intimid":10452,"dil":10453,"dawn":10454,"hier":10455,"sque":10456,"##gun":10457,"##86":10458,"shed":10459,"chocol":10460,"##agic":10461,"leaked":10462,"spotted":10463,"nose":10464,"howard":10465,"preference":10466,"relie":10467,"longtime":10468,"passive":10469,"passenger":10470,"chron":10471,"harper":10472,"morgan":10473,"salv":10474,"encry":10475,"1989":10476,"regarded":10477,"##etta":10478,"birthday":10479,"puzz":10480,"correlation":10481,"##arthy":10482,"##laimed":10483,"tremendous":10484,"pokémon":10485,"embassy":10486,"bc":10487,"bun":10488,"bah":10489,"dj":10490,"ecl":10491,"gand":10492,"mol":10493,"maker":10494,"pear":10495,"qb":10496,"sod":10497,"tons":10498,"tired":10499,"##──":10500,"##asters":10501,"##lli":10502,"seized":10503,"abund":10504,"##ela":10505,"cluster":10506,"manh":10507,"servers":10508,"probability":10509,"respected":10510,"confusion":10511,"affair":10512,"visa":10513,"generations":10514,"latex":10515,"reviewed":10516,"misc":10517,"documented":10518,"frequent":10519,"analyt":10520,"burned":10521,"encouraging":10522,"ambass":10523,"suspects":10524,"louisiana":10525,"jonathan":10526,"java":10527,"fascinating":10528,"isolated":10529,"ottawa":10530,"presumably":10531,"tennes":10532,"taliban":10533,"0x":10534,"bother":10535,"baker":10536,"cord":10537,"gary":10538,"ld":10539,"lau":10540,"mour":10541,"nie":10542,"##tes":10543,"##life":10544,"##har":10545,"##mes":10546,"##uj":10547,"##gy":10548,"##war":10549,"therm":10550,"##aro":10551,"inbox":10552,"##itivity":10553,"andre":10554,"##olo":10555,"##oded":10556,"orth":10557,"##apes":10558,"exped":10559,"guests":10560,"finals":10561,"modified":10562,"##cedented":10563,"##ucker":10564,"walks":10565,"noneth":10566,"geomet":10567,"##ippi":10568,"deny":10569,"hitler":10570,"checks":10571,"describing":10572,"volat":10573,"1988":10574,"earthqu":10575,"garage":10576,"jerry":10577,"surviv":10578,"examine":10579,"advocate":10580,"sioux":10581,"clinic":10582,"hanging":10583,"sponsored":10584,"marginal":10585,"crystal":10586,"vocal":10587,"vegetables":10588,"transmission":10589,"unprecedented":10590,"nonetheless":10591,"jung":10592,"nit":10593,"riding":10594,"rivals":10595,"tier":10596,"##sch":10597,"##ón":10598,"##esa":10599,"##omial":10600,"stats":10601,"##cht":10602,"##ila":10603,"##aga":10604,"orbit":10605,"##ortions":10606,"abol":10607,"spy":10608,"evac":10609,"genes":10610,"gameplay":10611,"ordin":10612,"180":10613,"preview":10614,"promising":10615,"killer":10616,"facult":10617,"##shot":10618,"cops":10619,"administrative":10620,"representing":10621,"1986":10622,"conservation":10623,"curious":10624,"scrut":10625,"intelligent":10626,"demonstration":10627,"utter":10628,"##iosity":10629,"occasional":10630,"beauty":10631,"surrounded":10632,"restaurants":10633,"mathematical":10634,"##bourne":10635,"qaeda":10636,"tennessee":10637,"cock":10638,"dup":10639,"gee":10640,"holes":10641,"pas":10642,"pist":10643,"rivers":10644,"torr":10645,"va":10646,"##iw":10647,"##uating":10648,"theater":10649,"bever":10650,"whist":10651,"orland":10652,"align":10653,"##ifer":10654,"bruce":10655,"evangel":10656,"mycroft":10657,"recon":10658,"consol":10659,"obst":10660,"studios":10661,"demo":10662,"barrel":10663,"refr":10664,"patent":10665,"pleased":10666,"audi":10667,"representation":10668,"credits":10669,"robber":10670,"wedding":10671,"parker":10672,"##attered":10673,"alternatives":10674,"revolutionary":10675,"fleet":10676,"atlanta":10677,"egyptian":10678,"collaboration":10679,"ingredients":10680,"ritual":10681,"bizarre":10682,"bapt":10683,"fer":10684,"nash":10685,"pig":10686,"pension":10687,"sized":10688,"tends":10689,"##burn":10690,"##ho":10691,"##press":10692,"##arity":10693,"##iller":10694,"shorter":10695,"##estyle":10696,"fried":10697,"##agu":10698,"trapped":10699,"meal":10700,"bra":10701,"crush":10702,"19th":10703,"keen":10704,"endors":10705,"formally":10706,"signals":10707,"refuse":10708,"stein":10709,"steal":10710,"organic":10711,"fundament":10712,"fails":10713,"minded":10714,"inflamm":10715,"panels":10716,"periods":10717,"1975":10718,"chancell":10719,"traveling":10720,"neighbors":10721,"darkness":10722,"rebels":10723,"##worth":10724,"jerusal":10725,"initiatives":10726,"proceedings":10727,"renewable":10728,"disappointed":10729,"precisely":10730,"deployed":10731,"tesla":10732,"mississippi":10733,"arsenal":10734,"jerusalem":10735,"dash":10736,"verm":10737,"##oen":10738,"##eas":10739,"##mi":10740,"##map":10741,"##row":10742,"##gi":10743,"##ester":10744,"##anth":10745,"##adim":10746,"##igation":10747,"alice":10748,"unt":10749,"outlets":10750,"composed":10751,"##active":10752,"evans":10753,"incons":10754,"##berts":10755,"recession":10756,"##eck":10757,"deck":10758,"charter":10759,"handled":10760,"prototype":10761,"header":10762,"requiring":10763,"greens":10764,"robust":10765,"communicate":10766,"spokeswoman":10767,"woods":10768,"dreams":10769,"synth":10770,"parenthood":10771,"buffer":10772,"publishing":10773,"resolve":10774,"desktop":10775,"brutal":10776,"iterator":10777,"##donald":10778,"oakland":10779,"declaration":10780,"frozen":10781,"craig":10782,"aur":10783,"jess":10784,"kas":10785,"mock":10786,"ns":10787,"nons":10788,"ough":10789,"##eb":10790,"##fa":10791,"##enues":10792,"##eding":10793,"reid":10794,"shore":10795,"##ando":10796,"sake":10797,"uncover":10798,"arbit":10799,"outcomes":10800,"meets":10801,"loves":10802,"bund":10803,"flip":10804,"##ella":10805,"warfare":10806,"transactions":10807,"certification":10808,"blacks":10809,"traded":10810,"##ophob":10811,"copies":10812,"significance":10813,"divide":10814,"absent":10815,"girlf":10816,"nationwide":10817,"silicon":10818,"beaten":10819,"restrict":10820,"occupation":10821,"experimental":10822,"qualified":10823,"fatal":10824,"shelter":10825,"recommendations":10826,"olympics":10827,"charlotte":10828,"azerb":10829,"diplomatic":10830,"embrace":10831,"bacter":10832,"pentagon":10833,"ambassador":10834,"orlando":10835,"bip":10836,"cc":10837,"cinc":10838,"ging":10839,"gil":10840,"mall":10841,"##olling":10842,"##hal":10843,"##hire":10844,"##uity":10845,"##will":10846,"##inite":10847,"rewards":10848,"stamp":10849,"stabil":10850,"##aying":10851,"##imb":10852,"##ira":10853,"##ilateral":10854,"convert":10855,"consec":10856,"##usc":10857,"leap":10858,"crude":10859,"feb":10860,"blues":10861,"descript":10862,"donation":10863,"assists":10864,"depos":10865,"##ixon":10866,"capability":10867,"signature":10868,"metrop":10869,"passengers":10870,"humanitarian":10871,"occurs":10872,"divisions":10873,"hosts":10874,"angle":10875,"printing":10876,"dispute":10877,"produces":10878,"permit":10879,"arabic":10880,"impression":10881,"rankings":10882,"assuming":10883,"tynd":10884,"parameters":10885,"cocaine":10886,"agriculture":10887,"inevitable":10888,"abbott":10889,"appeals":10890,"aston":10891,"benn":10892,"bones":10893,"cave":10894,"fare":10895,"furn":10896,"tib":10897,"vp":10898,"ware":10899,"yah":10900,"##100":10901,"##29":10902,"andy":10903,"##asm":10904,"anarch":10905,"##agers":10906,"orleans":10907,"worship":10908,"griff":10909,"compound":10910,"##grad":10911,"boards":10912,"donations":10913,"earning":10914,"slide":10915,"##ahu":10916,"barb":10917,"maintaining":10918,"researcher":10919,"harsh":10920,"euros":10921,"performances":10922,"shoes":10923,"figured":10924,"beneath":10925,"distant":10926,"males":10927,"collaps":10928,"1970":10929,"respondents":10930,"journalism":10931,"requirement":10932,"rebuild":10933,"accomplished":10934,"fifty":10935,"wikile":10936,"frustrated":10937,"newsletters":10938,"##ycle":10939,"prompted":10940,"manufacturer":10941,"accompanied":10942,"mysterious":10943,"doctrine":10944,"taiwan":10945,"tragedy":10946,"manhattan":10947,"ought":10948,"arbitr":10949,"azerbai":10950,"cincinn":10951,"tyndall":10952,"bash":10953,"cbc":10954,"hond":10955,"lap":10956,"niger":10957,"ub":10958,"v20":10959,"##oop":10960,"##zi":10961,"##xx":10962,"##itative":10963,"##station":10964,"heck":10965,"##oln":10966,"ships":10967,"##aved":10968,"accord":10969,"undert":10970,"supplied":10971,"guards":10972,"contrad":10973,"capabilities":10974,"188":10975,"1991":10976,"lands":10977,"##olds":10978,"malays":10979,"dropping":10980,"curve":10981,"texts":10982,"1965":10983,"chairs":10984,"bottle":10985,"##zza":10986,"brandon":10987,"championships":10988,"chemistry":10989,"laughs":10990,"principal":10991,"households":10992,"electrical":10993,"styles":10994,"professionals":10995,"python":10996,"chocolate":10997,"consecutive":10998,"wikileaks":10999,"900":11000,"dm":11001,"eager":11002,"linc":11003,"lyr":11004,"sd":11005,"venue":11006,"zak":11007,"zomb":11008,"##bian":11009,"##pers":11010,"##erity":11011,"##erning":11012,"##ington":11013,"##arms":11014,"todd":11015,"##entions":11016,"recept":11017,"stall":11018,"cheney":11019,"##ocl":11020,"##iva":11021,"energ":11022,"usc":11023,"clothing":11024,"compact":11025,"nobel":11026,"phant":11027,"consent":11028,"decor":11029,"reluct":11030,"demol":11031,"101":11032,"simon":11033,"realistic":11034,"directors":11035,"developments":11036,"headlines":11037,"invested":11038,"possess":11039,"passage":11040,"maine":11041,"grey":11042,"epid":11043,"accessible":11044,"checking":11045,"##ynth":11046,"sandy":11047,"painful":11048,"acceptance":11049,"packages":11050,"addressing":11051,"##holders":11052,"restricted":11053,"##iciently":11054,"quantity":11055,"submit":11056,"retrie":11057,"feminist":11058,"plugin":11059,"bjp":11060,"publisher":11061,"sophisticated":11062,"lincoln":11063,"bart":11064,"masc":11065,"##iology":11066,"##tains":11067,"##mony":11068,"##nbc":11069,"##gust":11070,"##onaut":11071,"bears":11072,"##ateur":11073,"triang":11074,"##ante":11075,"##acked":11076,"outdo":11077,"reply":11078,"partially":11079,"overd":11080,"overnight":11081,"demon":11082,"shoulders":11083,"courage":11084,"barn":11085,"chronic":11086,"irre":11087,"stewart":11088,"visits":11089,"operational":11090,"criteria":11091,"amongst":11092,"canadians":11093,"curiosity":11094,"casting":11095,"remembered":11096,"complained":11097,"smartphone":11098,"impressed":11099,"conflicts":11100,"briefly":11101,"casino":11102,"carries":11103,"##break":11104,"observations":11105,"tears":11106,"cryptoc":11107,"leonard":11108,"inquiry":11109,"chancellor":11110,"cincinnati":11111,"aqu":11112,"cake":11113,"foster":11114,"hitch":11115,"lions":11116,"pond":11117,"silly":11118,"tam":11119,"witch":11120,"yu":11121,"##base":11122,"##fo":11123,"##­ing":11124,"##power":11125,"##34":11126,"##36":11127,"##isive":11128,"##aya":11129,"##imore":11130,"##olas":11131,"##opes":11132,"brus":11133,"gro":11134,"crops":11135,"##acha":11136,"poland":11137,"commod":11138,"contents":11139,"deserves":11140,"wright":11141,"obstr":11142,"regret":11143,"subtle":11144,"owns":11145,"modest":11146,"slam":11147,"corp":11148,"filing":11149,"bitter":11150,"landed":11151,"violated":11152,"checked":11153,"destination":11154,"##rupted":11155,"analyses":11156,"spirits":11157,"examined":11158,"counties":11159,"ancest":11160,"variables":11161,"attendance":11162,"molec":11163,"seventh":11164,"argentina":11165,"baltimore":11166,"hedge":11167,"nexus":11168,"bic":11169,"duration":11170,"f1":11171,"lik":11172,"mice":11173,"mouse":11174,"rug":11175,"tent":11176,"tig":11177,"tamp":11178,"##pie":11179,"##inge":11180,"beef":11181,"haz":11182,"chim":11183,"chop":11184,"chest":11185,"unm":11186,"teeth":11187,"resort":11188,"partial":11189,"disgust":11190,"quad":11191,"interim":11192,"reconstr":11193,"flowers":11194,"remed":11195,"##umph":11196,"providers":11197,"elective":11198,"productive":11199,"##plus":11200,"delight":11201,"receives":11202,"nightm":11203,"nights":11204,"identical":11205,"collecting":11206,"greenhouse":11207,"sensitivity":11208,"hospitals":11209,"ethical":11210,"countless":11211,"transformed":11212,"constructed":11213,"allocator":11214,"praised":11215,"colonial":11216,"dublin":11217,"forecast":11218,"template":11219,"pronounced":11220,"bubble":11221,"wisdom":11222,"opioid":11223,"hierarch":11224,"ct":11225,"lined":11226,"mg":11227,"md":11228,"mack":11229,"nint":11230,"roth":11231,"rbi":11232,"##lie":11233,"##name":11234,"##esth":11235,"##arios":11236,"toss":11237,"##isco":11238,"##reen":11239,"whit":11240,"stocks":11241,"leban":11242,"hispan":11243,"expense":11244,"drought":11245,"##owned":11246,"twel":11247,"emer":11248,"phoen":11249,"presents":11250,"reloc":11251,"provider":11252,"187":11253,"arrests":11254,"calc":11255,"bases":11256,"socialist":11257,"departure":11258,"employers":11259,"1984":11260,"replacing":11261,"expects":11262,"bloody":11263,"respective":11264,"maxim":11265,"celebration":11266,"integration":11267,"duties":11268,"constructor":11269,"detective":11270,"ronald":11271,"accuracy":11272,"marshall":11273,"beneficial":11274,"discipline":11275,"luxury":11276,"indonesia":11277,"nintendo":11278,"fm":11279,"mls":11280,"node":11281,"##upp":11282,"##father":11283,"##itories":11284,"##isk":11285,"##amine":11286,"##ching":11287,"##odox":11288,"sued":11289,"spider":11290,"sax":11291,"safer":11292,"une":11293,"unre":11294,"unreal":11295,"##ears":11296,"##endar":11297,"compuls":11298,"##ogether":11299,"aging":11300,"##aukee":11301,"##quest":11302,"workforce":11303,"##aving":11304,"counted":11305,"preserve":11306,"backup":11307,"edwards":11308,"wells":11309,"releasing":11310,"airlines":11311,"sketch":11312,"delayed":11313,"nether":11314,"operators":11315,"investigated":11316,"militants":11317,"uran":11318,"absurd":11319,"neglect":11320,"drops":11321,"painted":11322,"heaven":11323,"speeds":11324,"wildstein":11325,"struggles":11326,"routes":11327,"scenarios":11328,"prosecution":11329,"sudan":11330,"removing":11331,"melbourne":11332,"displayed":11333,"recalled":11334,"brazilian":11335,"margar":11336,"dramatically":11337,"praise":11338,"tanks":11339,"ceremony":11340,"preparation":11341,"screensh":11342,"lunar":11343,"grabbed":11344,"faculty":11345,"5th":11346,"ald":11347,"db":11348,"dy":11349,"diox":11350,"dubbed":11351,"gosp":11352,"liv":11353,"lapt":11354,"mes":11355,"naked":11356,"sig":11357,"sier":11358,"uri":11359,"##iop":11360,"##tz":11361,"##ports":11362,"##arn":11363,"##itic":11364,"reagan":11365,"beast":11366,"##acles":11367,"hem":11368,"anime":11369,"##oper":11370,"chase":11371,"alike":11372,"butler":11373,"unac":11374,"unpr":11375,"cancel":11376,"##hero":11377,"ampl":11378,"blu":11379,"indians":11380,"defended":11381,"flower":11382,"genre":11383,"generic":11384,"clever":11385,"projected":11386,"viable":11387,"140":11388,"equipped":11389,"keyboard":11390,"averaged":11391,"addresses":11392,"essay":11393,"semin":11394,"occasions":11395,"bulls":11396,"attracted":11397,"bulk":11398,"juice":11399,"evaluation":11400,"structural":11401,"concentration":11402,"evolved":11403,"exploration":11404,"ultra":11405,"crowds":11406,"privilege":11407,"discontin":11408,"laund":11409,"bish":11410,"beng":11411,"fierce":11412,"gore":11413,"lb":11414,"ling":11415,"lan":11416,"lamb":11417,"pse":11418,"rings":11419,"samp":11420,"slo":11421,"tyr":11422,"vene":11423,"x7":11424,"##bage":11425,"##ean":11426,"##mith":11427,"##kk":11428,"##waukee":11429,"inhab":11430,"reh":11431,"neil":11432,"compelling":11433,"expenses":11434,"intercept":11435,"indie":11436,"roberts":11437,"mood":11438,"desc":11439,"addiction":11440,"flour":11441,"wayne":11442,"instances":11443,"norwe":11444,"filmm":11445,"##string":11446,"possibilities":11447,"concerning":11448,"milwaukee":11449,"testified":11450,"lesser":11451,"186":11452,"stev":11453,"devoted":11454,"sanct":11455,"existed":11456,"quebec":11457,"1967":11458,"layers":11459,"complain":11460,"ethics":11461,"##rooms":11462,"scottish":11463,"baghd":11464,"jefferson":11465,"interactive":11466,"dimin":11467,"cartoon":11468,"architecture":11469,"disappeared":11470,"victoria":11471,"steady":11472,"einstein":11473,"baghdad":11474,"cache":11475,"dang":11476,"rud":11477,"ss":11478,"saint":11479,"ti":11480,"##ao":11481,"##vi":11482,"##igue":11483,"shan":11484,"shake":11485,"chips":11486,"alar":11487,"cancell":11488,"grip":11489,"grants":11490,"reson":11491,"resigned":11492,"ambit":11493,"amateur":11494,"##ogy":11495,"strat":11496,"marines":11497,"##onduct":11498,"impl":11499,"parad":11500,"finishing":11501,"probabilities":11502,"moder":11503,"deter":11504,"win32":11505,"opposing":11506,"125":11507,"particles":11508,"technically":11509,"colleges":11510,"sentenced":11511,"##owski":11512,"portfol":11513,"radar":11514,"suspension":11515,"characteristics":11516,"palm":11517,"participated":11518,"mounted":11519,"measurements":11520,"feeding":11521,"translation":11522,"acquis":11523,"intentions":11524,"shocking":11525,"memorial":11526,"vladim":11527,"rouge":11528,"yahoo":11529,"cryptocurr":11530,"vladimir":11531,"bt":11532,"bog":11533,"ferg":11534,"mb":11535,"mim":11536,"sne":11537,"tak":11538,"vik":11539,"##iac":11540,"##lined":11541,"##hall":11542,"##ng":11543,"##cons":11544,"##wall":11545,"thro":11546,"##atism":11547,"##oration":11548,"##omo":11549,"##omy":11550,"##urance":11551,"##irical":11552,"##ols":11553,"whoever":11554,"likelihood":11555,"dressed":11556,"##iley":11557,"blitz":11558,"afterwards":11559,"secular":11560,"suppose":11561,"profound":11562,"pressed":11563,"editors":11564,"glob":11565,"multip":11566,"homeland":11567,"expecting":11568,"churches":11569,"searches":11570,"responding":11571,"poorly":11572,"criminals":11573,"tablet":11574,"cleaning":11575,"madison":11576,"##heim":11577,"cycles":11578,"spreading":11579,"lifestyle":11580,"defenders":11581,"folk":11582,"philosoph":11583,"altogether":11584,"satisfied":11585,"trailer":11586,"census":11587,"configuration":11588,"chlorine":11589,"diamond":11590,"brussels":11591,"tigers":11592,"dioxide":11593,"norwegian":11594,"cot":11595,"dip":11596,"eve":11597,"fury":11598,"fiber":11599,"gad":11600,"ian":11601,"lone":11602,"lisa":11603,"mh":11604,"pose":11605,"powd":11606,"rr":11607,"rocks":11608,"v4":11609,"wy":11610,"wore":11611,"##lan":11612,"##lav":11613,"##uably":11614,"inches":11615,"##asive":11616,"stom":11617,"static":11618,"delet":11619,"trophy":11620,"##ocity":11621,"sak":11622,"##ardi":11623,"comparing":11624,"beck":11625,"##ensen":11626,"monsters":11627,"genius":11628,"ears":11629,"memories":11630,"breast":11631,"believing":11632,"barry":11633,"128":11634,"##riors":11635,"preval":11636,"recordings":11637,"traders":11638,"##ipper":11639,"##text":11640,"cheese":11641,"educated":11642,"archive":11643,"worthy":11644,"animation":11645,"fastest":11646,"catastr":11647,"psychology":11648,"babies":11649,"hyper":11650,"advocacy":11651,"bags":11652,"unfortunate":11653,"horrible":11654,"rangers":11655,"achievement":11656,"jimmy":11657,"sustained":11658,"motivation":11659,"sponsor":11660,"carrier":11661,"solely":11662,"protein":11663,"nazi":11664,"rafael":11665,"tutor":11666,"sovereignty":11667,"gotta":11668,"linebacker":11669,"whistle":11670,"catastroph":11671,"ger":11672,"hiring":11673,"rated":11674,"wwe":11675,"zones":11676,"##oz":11677,"##iary":11678,"##iors":11679,"##mans":11680,"##ram":11681,"##page":11682,"##35":11683,"##jud":11684,"##orth":11685,"##eds":11686,"reass":11687,"##step":11688,"prix":11689,"prayer":11690,"trap":11691,"clou":11692,"outer":11693,"##ouses":11694,"evie":11695,"offseason":11696,"scroll":11697,"disabled":11698,"loving":11699,"seeks":11700,"carter":11701,"suppress":11702,"controlling":11703,"showc":11704,"warriors":11705,"##ahn":11706,"viewing":11707,"130":11708,"arguably":11709,"gods":11710,"treating":11711,"searched":11712,"surveys":11713,"traveled":11714,"celebrity":11715,"experiencing":11716,"survived":11717,"defeats":11718,"politician":11719,"tribe":11720,"qualifying":11721,"flags":11722,"scholar":11723,"kurdistan":11724,"infection":11725,"transparency":11726,"##stitution":11727,"hesit":11728,"pitts":11729,"mortgage":11730,"removal":11731,"ineff":11732,"gospel":11733,"bot":11734,"cpu":11735,"lip":11736,"mate":11737,"nag":11738,"rip":11739,"vow":11740,"wip":11741,"##rie":11742,"##fw":11743,"##fish":11744,"asc":11745,"shin":11746,"##agen":11747,"enabled":11748,"brush":11749,"grac":11750,"##pton":11751,"dispar":11752,"quarters":11753,"knocked":11754,"##uctions":11755,"phill":11756,"backl":11757,"10th":11758,"##aze":11759,"retain":11760,"turner":11761,"115":11762,"##news":11763,"exploring":11764,"refusal":11765,"haram":11766,"harrison":11767,"calendar":11768,"simpson":11769,"cleared":11770,"appearing":11771,"taxi":11772,"hugh":11773,"caution":11774,"lighting":11775,"suggestions":11776,"protections":11777,"distinction":11778,"radiation":11779,"screw":11780,"circles":11781,"accepting":11782,"garc":11783,"enjoying":11784,"revealing":11785,"immigrant":11786,"heroin":11787,"affects":11788,"tendency":11789,"reactions":11790,"emotions":11791,"laden":11792,"sporting":11793,"watson":11794,"gardens":11795,"##anyahu":11796,"censorship":11797,"bombs":11798,"alpha":11799,"pregnant":11800,"alberta":11801,"carnival":11802,"antonio":11803,"vertical":11804,"autonomous":11805,"gordon":11806,"oxygen":11807,"girlfriend":11808,"apt":11809,"boring":11810,"dere":11811,"fib":11812,"npr":11813,"pier":11814,"pony":11815,"ruth":11816,"sib":11817,"tensions":11818,"zoo":11819,"##front":11820,"##zuel":11821,"tomb":11822,"ing":11823,"##rels":11824,"pri":11825,"pricing":11826,"seam":11827,"shy":11828,"##uson":11829,"##astically":11830,"thereby":11831,"##acts":11832,"##inder":11833,"scor":11834,"drill":11835,"supporter":11836,"medal":11837,"##erald":11838,"poster":11839,"oldest":11840,"investor":11841,"netanyahu":11842,"federation":11843,"securities":11844,"dealt":11845,"esports":11846,"announcing":11847,"davies":11848,"blocking":11849,"launching":11850,"difficulties":11851,"awk":11852,"robb":11853,"logo":11854,"verd":11855,"tenure":11856,"boyf":11857,"psychiat":11858,"dispos":11859,"mechanical":11860,"recovered":11861,"polyg":11862,"hamilton":11863,"atlas":11864,"penalties":11865,"magnitude":11866,"hrv":11867,"forums":11868,"oriented":11869,"volunteers":11870,"disorders":11871,"whiskey":11872,"delegates":11873,"divorce":11874,"trademark":11875,"phantom":11876,"phoenix":11877,"venezuel":11878,"ambitious":11879,"ferguson":11880,"bod":11881,"dign":11882,"dumb":11883,"fucking":11884,"hatch":11885,"hann":11886,"kal":11887,"v5":11888,"wade":11889,"##hamm":11890,"##22":11891,"toll":11892,"##itably":11893,"betr":11894,"belo":11895,"##uting":11896,"triv":11897,"tragic":11898,"unity":11899,"##asted":11900,"##endra":11901,"clip":11902,"grim":11903,"##achel":11904,"drives":11905,"loans":11906,"justify":11907,"mario":11908,"##itty":11909,"bugs":11910,"metall":11911,"winners":11912,"##prop":11913,"optional":11914,"##appropri":11915,"strongest":11916,"creature":11917,"firearms":11918,"portra":11919,"custody":11920,"cheaper":11921,"robin":11922,"connecting":11923,"##limited":11924,"honour":11925,"hunger":11926,"##udeau":11927,"castle":11928,"documentation":11929,"sweat":11930,"safely":11931,"clicking":11932,"reflects":11933,"sadly":11934,"palestine":11935,"innovative":11936,"oxford":11937,"luke":11938,"astronaut":11939,"threads":11940,"incorrect":11941,"severely":11942,"narc":11943,"condemned":11944,"cognitive":11945,"broncos":11946,"##olitan":11947,"unrest":11948,"hypothesis":11949,"ignorance":11950,"monetary":11951,"gandhi":11952,"pseud":11953,"pittsburgh":11954,"dor":11955,"gab":11956,"js":11957,"pend":11958,"pause":11959,"pont":11960,"##city":11961,"##anim":11962,"##isible":11963,"##icia":11964,"##omin":11965,"rever":11966,"##idal":11967,"sto":11968,"pries":11969,"##igo":11970,"##chron":11971,"anch":11972,"weaken":11973,"hav":11974,"##agh":11975,"unlimited":11976,"##asty":11977,"##ipse":11978,"timeline":11979,"justified":11980,"commons":11981,"playstation":11982,"##eryl":11983,"belg":11984,"instantly":11985,"longest":11986,"modes":11987,"founding":11988,"economist":11989,"steep":11990,"##appy":11991,"questionable":11992,"southwest":11993,"conservatism":11994,"billionaire":11995,"citation":11996,"logical":11997,"laying":11998,"fitness":11999,"kicking":12000,"linear":12001,"organizers":12002,"comparable":12003,"limitations":12004,"shelf":12005,"exercises":12006,"parliamentary":12007,"advisory":12008,"flew":12009,"tuned":12010,"rushed":12011,"buffalo":12012,"segreg":12013,"hatred":12014,"thirty":12015,"institutional":12016,"##minth":12017,"ebola":12018,"##keeper":12019,"kurds":12020,"uncomfort":12021,"##through":12022,"statistical":12023,"ugly":12024,"hampshire":12025,"oscar":12026,"nelson":12027,"consolid":12028,"netherlands":12029,"bite":12030,"dot":12031,"dive":12032,"gp":12033,"gates":12034,"hug":12035,"naugh":12036,"raz":12037,"sons":12038,"vague":12039,"wand":12040,"##bb":12041,"##iating":12042,"##ros":12043,"##jack":12044,"tok":12045,"inse":12046,"##urg":12047,"##ads":12048,"##estone":12049,"fract":12050,"atom":12051,"trudeau":12052,"##ifice":12053,"tefl":12054,"compass":12055,"##izer":12056,"likewise":12057,"actress":12058,"##000":12059,"##ucted":12060,"counting":12061,"desynth":12062,"synd":12063,"flaw":12064,"provisions":12065,"metab":12066,"advances":12067,"freely":12068,"admits":12069,"prevention":12070,"costume":12071,"liberties":12072,"##beat":12073,"nonpro":12074,"##enna":12075,"1000":12076,"competitors":12077,"denial":12078,"summar":12079,"declare":12080,"prediction":12081,"telecom":12082,"impacts":12083,"computing":12084,"philip":12085,"wildlife":12086,"touched":12087,"historically":12088,"demonstrations":12089,"flynn":12090,"tourists":12091,"switched":12092,"translate":12093,"dieter":12094,"witnessed":12095,"transferred":12096,"pinter":12097,"appointment":12098,"laser":12099,"newspapers":12100,"exhibition":12101,"instruments":12102,"pirate":12103,"jamie":12104,"iconic":12105,"nursing":12106,"fertility":12107,"intersection":12108,"adequate":12109,"warnings":12110,"rhyth":12111,"eclipse":12112,"##eastern":12113,"priesthood":12114,"teflon":12115,"ave":12116,"aub":12117,"kel":12118,"ned":12119,"vw":12120,"##oa":12121,"##eera":12122,"##eri":12123,"##erk":12124,"toe":12125,"##lled":12126,"rewr":12127,"whites":12128,"conway":12129,"chacha":12130,"##ighth":12131,"##ocal":12132,"plaint":12133,"##ibe":12134,"clust":12135,"brands":12136,"##izza":12137,"twist":12138,"append":12139,"105":12140,"respiration":12141,"##azi":12142,"artic":12143,"humor":12144,"184":12145,"raid":12146,"160":12147,"availability":12148,"1987":12149,"1983":12150,"palin":12151,"friendship":12152,"misle":12153,"##ettes":12154,"uncle":12155,"jazeera":12156,"tourism":12157,"merch":12158,"instruction":12159,"##cules":12160,"sixt":12161,"applying":12162,"adjusted":12163,"harmful":12164,"evaluate":12165,"##agraph":12166,"publishers":12167,"##guard":12168,"substantially":12169,"volunteer":12170,"excessive":12171,"hydro":12172,"hydra":12173,"agricultural":12174,"unnecess":12175,"horizon":12176,"endorsement":12177,"nevada":12178,"cambodia":12179,"seizure":12180,"scrutiny":12181,"twelve":12182,"emerge":12183,"sierra":12184,"6th":12185,"dys":12186,"hart":12187,"hog":12188,"hiding":12189,"jpg":12190,"kan":12191,"moss":12192,"mothers":12193,"nc":12194,"sizes":12195,"##eem":12196,"##hum":12197,"##riet":12198,"##gate":12199,"##lee":12200,"beaver":12201,"##acular":12202,"##urai":12203,"##aments":12204,"conj":12205,"##opa":12206,"fraction":12207,"##ardo":12208,"resume":12209,"imf":12210,"composition":12211,"aggression":12212,"scary":12213,"partisan":12214,"interference":12215,"workshop":12216,"indirect":12217,"##aware":12218,"carson":12219,"assured":12220,"eddie":12221,"belgian":12222,"endang":12223,"##ologically":12224,"probe":12225,"helminth":12226,"##lett":12227,"metaph":12228,"continuous":12229,"infected":12230,"popul":12231,"considers":12232,"midnight":12233,"entities":12234,"johnny":12235,"russians":12236,"cultures":12237,"motors":12238,"cheer":12239,"civic":12240,"palace":12241,"wallace":12242,"correction":12243,"indication":12244,"##world":12245,"##monton":12246,"ladies":12247,"batteries":12248,"ranges":12249,"mandate":12250,"astronom":12251,"breathing":12252,"encountered":12253,"frustration":12254,"feminism":12255,"pledged":12256,"algorithms":12257,"mathematics":12258,"arrangement":12259,"triumph":12260,"temple":12261,"sympath":12262,"mantra":12263,"displays":12264,"certificate":12265,"batch":12266,"fet":12267,"hors":12268,"kay":12269,"nik":12270,"nixon":12271,"pork":12272,"rubb":12273,"sends":12274,"v8":12275,"##hl":12276,"##math":12277,"##names":12278,"##uum":12279,"##és":12280,"##words":12281,"##ía":12282,"##onz":12283,"##ori":12284,"toys":12285,"##aser":12286,"beers":12287,"beans":12288,"##irs":12289,"helic":12290,"shakes":12291,"##ulative":12292,"alarm":12293,"reserves":12294,"ammun":12295,"peers":12296,"twil":12297,"themes":12298,"polish":12299,"consists":12300,"paragraph":12301,"buses":12302,"elabor":12303,"##crack":12304,"retained":12305,"currencies":12306,"mainland":12307,"problematic":12308,"profiles":12309,"greed":12310,"terminal":12311,"marketplace":12312,"kills":12313,"filming":12314,"portal":12315,"execute":12316,"breakfast":12317,"balls":12318,"females":12319,"1968":12320,"independently":12321,"balanced":12322,"attributes":12323,"indicating":12324,"romantic":12325,"assisted":12326,"khmer":12327,"rapt":12328,"ensuring":12329,"mobil":12330,"surrog":12331,"1950s":12332,"advantages":12333,"highlighted":12334,"broadcasting":12335,"##ulsion":12336,"abandon":12337,"mixture":12338,"##walk":12339,"orientation":12340,"##onnell":12341,"outlined":12342,"perpetr":12343,"loyalty":12344,"eagles":12345,"oversight":12346,"bankruptcy":12347,"austria":12348,"embedded":12349,"vermont":12350,"compulsory":12351,"unaccept":12352,"stomach":12353,"plaintiff":12354,"ammunition":12355,"burr":12356,"dak":12357,"fishing":12358,"gt":12359,"hz":12360,"ja":12361,"lac":12362,"mitt":12363,"makers":12364,"rushing":12365,"sic":12366,"slic":12367,"til":12368,"##ais":12369,"##mal":12370,"##uates":12371,"##km":12372,"##rix":12373,"##erving":12374,"##itis":12375,"##star":12376,"##amy":12377,"##opp":12378,"altered":12379,"leather":12380,"doi":12381,"groc":12382,"##izations":12383,"herald":12384,"recount":12385,"acted":12386,"impose":12387,"edmonton":12388,"goodman":12389,"median":12390,"##ussion":12391,"detention":12392,"breach":12393,"headline":12394,"investing":12395,"revenge":12396,"poses":12397,"pressures":12398,"debates":12399,"namely":12400,"equity":12401,"portable":12402,"trait":12403,"##mingham":12404,"##umbled":12405,"civilization":12406,"predecess":12407,"hosting":12408,"participating":12409,"1979":12410,"turb":12411,"verify":12412,"separated":12413,"expertise":12414,"rebell":12415,"dispatch":12416,"professors":12417,"promoted":12418,"meantime":12419,"closest":12420,"athe":12421,"jumping":12422,"1945":12423,"attractive":12424,"acquire":12425,"laughing":12426,"pursuing":12427,"montana":12428,"pilots":12429,"bradley":12430,"spells":12431,"chemicals":12432,"##iasm":12433,"shifts":12434,"molecules":12435,"podcast":12436,"transparent":12437,"stunning":12438,"fundraising":12439,"counterparts":12440,"compatible":12441,"cricket":12442,"tibet":12443,"zakaria":12444,"uncomfortable":12445,"bb":12446,"binary":12447,"cass":12448,"diver":12449,"gb":12450,"gib":12451,"lion":12452,"lust":12453,"pione":12454,"sink":12455,"v2":12456,"wiz":12457,"##hu":12458,"##maker":12459,"##found":12460,"##western":12461,"##arians":12462,"ink":12463,"inhib":12464,"##isers":12465,"fore":12466,"trim":12467,"##osa":12468,"usb":12469,"grate":12470,"##ueller":12471,"manus":12472,"##inea":12473,"nood":12474,"quotes":12475,"moham":12476,"carp":12477,"##issa":12478,"##seless":12479,"colin":12480,"endless":12481,"##urred":12482,"startups":12483,"deport":12484,"mete":12485,"advised":12486,"12th":12487,"##bron":12488,"ideological":12489,"airline":12490,"listing":12491,"chrom":12492,"authorized":12493,"morris":12494,"huff":12495,"stopping":12496,"##ippers":12497,"privately":12498,"devil":12499,"lightning":12500,"understands":12501,"violate":12502,"spacecraft":12503,"##byn":12504,"urge":12505,"mcd":12506,"citations":12507,"norman":12508,"curry":12509,"sharks":12510,"1969":12511,"eleph":12512,"priorities":12513,"birmingham":12514,"interestingly":12515,"celebrated":12516,"prevented":12517,"burns":12518,"strengthen":12519,"challenged":12520,"libraries":12521,"allocated":12522,"conclude":12523,"concentrations":12524,"katie":12525,"thirds":12526,"##uccess":12527,"libertarian":12528,"cousin":12529,"bmw":12530,"jurisdiction":12531,"evangelical":12532,"nonsense":12533,"bennett":12534,"twilight":12535,"cure":12536,"css":12537,"fn":12538,"gw":12539,"kab":12540,"lut":12541,"mans":12542,"pizza":12543,"rasp":12544,"tc":12545,"tension":12546,"tube":12547,"##note":12548,"inappropri":12549,"##lements":12550,"##chen":12551,"debr":12552,"##thur":12553,"troll":12554,"##umber":12555,"##udge":12556,"usd":12557,"cliff":12558,"bryan":12559,"##troll":12560,"manga":12561,"noah":12562,"overr":12563,"##itement":12564,"workplace":12565,"blond":12566,"blamed":12567,"commands":12568,"indo":12569,"prelim":12570,"pharm":12571,"reli":12572,"assange":12573,"warner":12574,"deployment":12575,"cape":12576,"slot":12577,"annually":12578,"revenues":12579,"##lessness":12580,"formerly":12581,"##shore":12582,"practicing":12583,"holder":12584,"magical":12585,"creatures":12586,"portland":12587,"musicians":12588,"mcm":12589,"painting":12590,"hostile":12591,"focuses":12592,"queer":12593,"buyers":12594,"defining":12595,"determination":12596,"animated":12597,"inspector":12598,"mcconnell":12599,"downloaded":12600,"drafted":12601,"manufactured":12602,"hello":12603,"reflected":12604,"360":12605,"assumption":12606,"kidn":12607,"pcb":12608,"##block":12609,"detection":12610,"pursuit":12611,"photographs":12612,"lieuten":12613,"dialect":12614,"##avery":12615,"mutual":12616,"isolation":12617,"devastating":12618,"sectors":12619,"philippines":12620,"infantry":12621,"accusations":12622,"lobbying":12623,"ankle":12624,"earthquake":12625,"helicop":12626,"911":12627,"bucks":12628,"dirt":12629,"fda":12630,"gill":12631,"gaining":12632,"kyle":12633,"len":12634,"nun":12635,"ome":12636,"piano":12637,"##rin":12638,"##25":12639,"##99":12640,"isa":12641,"##uro":12642,"##ims":12643,"##chi":12644,"trace":12645,"##oshi":12646,"spike":12647,"unst":12648,"unanim":12649,"enrich":12650,"brid":12651,"unders":12652,"underway":12653,"suppl":12654,"guild":12655,"infinite":12656,"insane":12657,"##inski":12658,"185":12659,"effectiveness":12660,"severity":12661,"raiders":12662,"secured":12663,"cease":12664,"reasonably":12665,"southeast":12666,"superhero":12667,"portug":12668,"cyn":12669,"titan":12670,"sensex":12671,"executed":12672,"sooner":12673,"hungry":12674,"cardinals":12675,"traditionally":12676,"##uki":12677,"filling":12678,"sexuality":12679,"franklin":12680,"optimistic":12681,"athlete":12682,"mentor":12683,"tactical":12684,"reminded":12685,"climb":12686,"eliminated":12687,"vietnames":12688,"inherit":12689,"harvest":12690,"condemn":12691,"swimming":12692,"unveiled":12693,"habits":12694,"portfolio":12695,"unacceptable":12696,"vietnamese":12697,"bou":12698,"ds":12699,"daw":12700,"horm":12701,"houth":12702,"kate":12703,"kern":12704,"lamp":12705,"lazy":12706,"mason":12707,"m19":12708,"mvp":12709,"pine":12710,"rust":12711,"tempt":12712,"##hill":12713,"##mn":12714,"##ci":12715,"##zed":12716,"thai":12717,"##inces":12718,"bearing":12719,"wholes":12720,"stark":12721,"##ilers":12722,"sel":12723,"chains":12724,"sue":12725,"##keley":12726,"trips":12727,"##umer":12728,"leagues":12729,"whats":12730,"##uber":12731,"stressed":12732,"blade":12733,"##icked":12734,"imprison":12735,"contam":12736,"secrets":12737,"attitudes":12738,"invisible":12739,"wherever":12740,"smugg":12741,"102":12742,"##ugos":12743,"slog":12744,"slower":12745,"norway":12746,"revised":12747,"barg":12748,"designated":12749,"greene":12750,"affir":12751,"##beit":12752,"northwest":12753,"salaries":12754,"##ophys":12755,"intrusive":12756,"environments":12757,"screaming":12758,"##umbling":12759,"chiefs":12760,"hills":12761,"attributed":12762,"cups":12763,"separately":12764,"bottles":12765,"trusted":12766,"punk":12767,"closure":12768,"albums":12769,"##atoes":12770,"berkeley":12771,"cathed":12772,"variations":12773,"crashed":12774,"earnings":12775,"parameter":12776,"teenagers":12777,"conclusions":12778,"observation":12779,"quietly":12780,"marcus":12781,"enhanced":12782,"revelation":12783,"fortunately":12784,"russell":12785,"nurse":12786,"coherence":12787,"fundamentally":12788,"clouds":12789,"beloved":12790,"pinterest":12791,"mohammed":12792,"9th":12793,"aka":12794,"bann":12795,"cant":12796,"dh":12797,"dough":12798,"dare":12799,"duck":12800,"hir":12801,"kik":12802,"mum":12803,"nx":12804,"pays":12805,"vibr":12806,"wow":12807,"wii":12808,"##oh":12809,"##mother":12810,"##vy":12811,"##130":12812,"##85":12813,"##atar":12814,"##aru":12815,"ster":12816,"forty":12817,"##amous":12818,"##advant":12819,"seas":12820,"##oca":12821,"##una":12822,"sparked":12823,"clay":12824,"brave":12825,"aggreg":12826,"disadvant":12827,"mayer":12828,"presidents":12829,"wrap":12830,"genoc":12831,"instinct":12832,"centered":12833,"medi":12834,"provinc":12835,"meta":12836,"meter":12837,"happiness":12838,"planes":12839,"turnover":12840,"111":12841,"##cedes":12842,"harvey":12843,"questioning":12844,"sentences":12845,"banner":12846,"judo":12847,"viral":12848,"breakdown":12849,"biom":12850,"earliest":12851,"ahl":12852,"introducing":12853,"texture":12854,"##obi":12855,"##etti":12856,"garbage":12857,"conversion":12858,"measurement":12859,"affecting":12860,"tribune":12861,"destroying":12862,"occurring":12863,"vacation":12864,"transformation":12865,"sleeping":12866,"reminder":12867,"benchmark":12868,"soulkey":12869,"adaptation":12870,"fluid":12871,"gamers":12872,"confirmation":12873,"sacrifice":12874,"legendary":12875,"habitat":12876,"observer":12877,"resignation":12878,"midfielder":12879,"eeg":12880,"outdoor":12881,"80s":12882,"dated":12883,"noun":12884,"sq":12885,"saints":12886,"tac":12887,"wi":12888,"##bro":12889,"##uz":12890,"##cott":12891,"##watch":12892,"##orate":12893,"##organ":12894,"##eded":12895,"##lev":12896,"##leting":12897,"reun":12898,"##adesh":12899,"##immer":12900,"sealed":12901,"neo":12902,"alumin":12903,"arn":12904,"compiled":12905,"mann":12906,"scales":12907,"afl":12908,"overly":12909,"howe":12910,"##iani":12911,"marry":12912,"indef":12913,"##erto":12914,"flaws":12915,"guinea":12916,"schiz":12917,"systematic":12918,"redistr":12919,"corro":12920,"continent":12921,"aviation":12922,"##coins":12923,"refusing":12924,"starter":12925,"photographer":12926,"territories":12927,"170":12928,"suggestion":12929,"distribut":12930,"##books":12931,"##comed":12932,"specialist":12933,"administer":12934,"pretend":12935,"conviction":12936,"1982":12937,"hopeful":12938,"floating":12939,"1976":12940,"1960":12941,"madrid":12942,"preventing":12943,"naval":12944,"villain":12945,"minorities":12946,"christianity":12947,"spectacle":12948,"spectacular":12949,"528":12950,"dimensions":12951,"recruiting":12952,"symbols":12953,"exhibit":12954,"buddhism":12955,"subsidies":12956,"desperately":12957,"passionate":12958,"navigation":12959,"disturbing":12960,"inclusion":12961,"resemb":12962,"authentic":12963,"cohen":12964,"vampire":12965,"theoretical":12966,"robbery":12967,"molecular":12968,"##piece":12969,"cotton":12970,"awkward":12971,"boyfriend":12972,"belgium":12973,"cf":12974,"fond":12975,"goss":12976,"kot":12977,"mast":12978,"ndp":12979,"pt":12980,"pile":12981,"pyr":12982,"rall":12983,"sigh":12984,"v6":12985,"wp":12986,"##iere":12987,"##mers":12988,"##nesty":12989,"##kr":12990,"##gt":12991,"##isb":12992,"ree":12993,"beats":12994,"dea":12995,"seal":12996,"fright":12997,"trucks":12998,"albeit":12999,"spar":13000,"plag":13001,"plun":13002,"##udin":13003,"##akh":13004,"clo":13005,"gren":13006,"newton":13007,"amnesty":13008,"coat":13009,"knight":13010,"blake":13011,"aftermath":13012,"serge":13013,"php":13014,"##icts":13015,"caller":13016,"parado":13017,"fuels":13018,"helm":13019,"##isman":13020,"legends":13021,"metres":13022,"infring":13023,"insider":13024,"aired":13025,"sword":13026,"careers":13027,"admir":13028,"arriving":13029,"harmon":13030,"organisations":13031,"variant":13032,"grows":13033,"caf":13034,"immense":13035,"1981":13036,"malware":13037,"considerably":13038,"telegraph":13039,"ahmed":13040,"commented":13041,"1966":13042,"digit":13043,"delivering":13044,"350":13045,"gasol":13046,"princess":13047,"macro":13048,"integrative":13049,"promotions":13050,"mercedes":13051,"smartphones":13052,"qualities":13053,"krist":13054,"freshman":13055,"fortune":13056,"mandatory":13057,"cuuko":13058,"resolved":13059,"ukrain":13060,"mechanisms":13061,"leafs":13062,"perpet":13063,"inevitably":13064,"anticipated":13065,"affiliate":13066,"doug":13067,"diesel":13068,"entrepreneurs":13069,"obscure":13070,"shirts":13071,"laptop":13072,"globally":13073,"grateful":13074,"ace":13075,"daugh":13076,"dude":13077,"fence":13078,"gag":13079,"het":13080,"honey":13081,"mueller":13082,"sisters":13083,"tire":13084,"vin":13085,"von":13086,"##obe":13087,"##iq":13088,"##cam":13089,"##kok":13090,"##46":13091,"##てい":13092,"##oner":13093,"##ede":13094,"##anks":13095,"##reach":13096,"heel":13097,"##oli":13098,"chin":13099,"notorious":13100,"abusive":13101,"plum":13102,"placing":13103,"unch":13104,"hass":13105,"brok":13106,"comply":13107,"noon":13108,"expend":13109,"perl":13110,"incoming":13111,"overview":13112,"quot":13113,"applies":13114,"straw":13115,"pole":13116,"##erte":13117,"backwards":13118,"regards":13119,"forming":13120,"subway":13121,"directions":13122,"confusing":13123,"datas":13124,"skip":13125,"listened":13126,"missiles":13127,"northeast":13128,"limiting":13129,"origins":13130,"practically":13131,"mindset":13132,"identifying":13133,"sexually":13134,"robinson":13135,"consumed":13136,"archives":13137,"congressman":13138,"automob":13139,"regulators":13140,"trafficking":13141,"alternate":13142,"precision":13143,"gradually":13144,"categor":13145,"defendants":13146,"dominance":13147,"qualify":13148,"nutcrack":13149,"ambul":13150,"glasses":13151,"tricky":13152,"##iggered":13153,"sequel":13154,"temporarily":13155,"reinfor":13156,"electronics":13157,"belongs":13158,"exploit":13159,"satellites":13160,"bangkok":13161,"favourite":13162,"scholarship":13163,"varying":13164,"inspection":13165,"distinguish":13166,"bacteria":13167,"lyrics":13168,"reluctant":13169,"preliminary":13170,"corrobor":13171,"paradox":13172,"cel":13173,"divid":13174,"fict":13175,"mint":13176,"mug":13177,"nost":13178,"ov":13179,"pv":13180,"pere":13181,"xml":13182,"##bart":13183,"##tag":13184,"##eh":13185,"##function":13186,"##gary":13187,"##drop":13188,"reed":13189,"##stock":13190,"sha":13191,"chords":13192,"trash":13193,"leaks":13194,"##eling":13195,"unav":13196,"doom":13197,"##izon":13198,"##ubs":13199,"overha":13200,"quinn":13201,"marath":13202,"yours":13203,"blown":13204,"impair":13205,"moz":13206,"guided":13207,"discipl":13208,"confess":13209,"corbyn":13210,"password":13211,"prevail":13212,"operated":13213,"reasoning":13214,"##comm":13215,"cambridge":13216,"damaging":13217,"doubled":13218,"threaten":13219,"1985":13220,"url":13221,"treatments":13222,"staffers":13223,"##security":13224,"essays":13225,"penetr":13226,"hallow":13227,"crossed":13228,"skilled":13229,"browns":13230,"citizenship":13231,"agrees":13232,"illegally":13233,"frankly":13234,"bedroom":13235,"establishing":13236,"polymer":13237,"luckily":13238,"laughed":13239,"patrol":13240,"masters":13241,"consulting":13242,"consultant":13243,"purely":13244,"decrease":13245,"breeding":13246,"flexibility":13247,"skeptical":13248,"ninth":13249,"suburban":13250,"ricche":13251,"metropolitan":13252,"griffin":13253,"hispanic":13254,"uranium":13255,"garcia":13256,"90s":13257,"bp":13258,"bands":13259,"cair":13260,"fog":13261,"kle":13262,"lod":13263,"mask":13264,"pants":13265,"roc":13266,"wals":13267,"yugos":13268,"zion":13269,"##bound":13270,"##core":13271,"##70":13272,"##jani":13273,"##orig":13274,"##isp":13275,"##uto":13276,"healing":13277,"##ilst":13278,"shops":13279,"chor":13280,"sull":13281,"suitable":13282,"abrupt":13283,"20██":13284,"allied":13285,"brig":13286,"brains":13287,"##ptions":13288,"pepper":13289,"intens":13290,"incumb":13291,"quo":13292,"bless":13293,"##ucked":13294,"boil":13295,"phar":13296,"invented":13297,"editing":13298,"charging":13299,"probable":13300,"depr":13301,"discounts":13302,"slaughter":13303,"economists":13304,"organizing":13305,"entity":13306,"halt":13307,"operates":13308,"apost":13309,"generous":13310,"generating":13311,"labels":13312,"privat":13313,"failures":13314,"connor":13315,"sounded":13316,"doubts":13317,"urging":13318,"financing":13319,"approaching":13320,"sonic":13321,"accountability":13322,"subscription":13323,"wondered":13324,"purple":13325,"conducting":13326,"contributor":13327,"permitted":13328,"murdered":13329,"riders":13330,"vacuum":13331,"solidarity":13332,"achievements":13333,"rainbow":13334,"sacred":13335,"tournaments":13336,"elementary":13337,"renewed":13338,"disclosure":13339,"succeeded":13340,"taxpayer":13341,"flexible":13342,"barrier":13343,"arrangements":13344,"enthusiasm":13345,"fragment":13346,"pleasure":13347,"##borne":13348,"touchdowns":13349,"mitchell":13350,"vigil":13351,"dolph":13352,"adapted":13353,"thoroughly":13354,"azerbaijan":13355,"mascul":13356,"margaret":13357,"ricchezza":13358,"yugoslav":13359,"ain":13360,"aesth":13361,"cze":13362,"gian":13363,"gps":13364,"gpu":13365,"hp":13366,"hod":13367,"hend":13368,"jake":13369,"pup":13370,"##ois":13371,"##log":13372,"##yton":13373,"##mouth":13374,"##nik":13375,"##uously":13376,"##sk":13377,"##rick":13378,"##fix":13379,"##alg":13380,"##isy":13381,"##llo":13382,"##vet":13383,"##acent":13384,"##acies":13385,"ate":13386,"suits":13387,"trop":13388,"triggered":13389,"##anded":13390,"spends":13391,"arthur":13392,"outright":13393,"brick":13394,"brenn":13395,"residence":13396,"manaf":13397,"intu":13398,"expose":13399,"dischar":13400,"accounting":13401,"undoub":13402,"##encer":13403,"donate":13404,"defines":13405,"cargo":13406,"fluct":13407,"edges":13408,"smash":13409,"surplus":13410,"proposition":13411,"##ype":13412,"##otech":13413,"meters":13414,"accordingly":13415,"technic":13416,"refres":13417,"restoration":13418,"streak":13419,"glory":13420,"religions":13421,"breakthrough":13422,"replay":13423,"goldman":13424,"financially":13425,"agreements":13426,"observe":13427,"burgl":13428,"objectives":13429,"broadband":13430,"verizon":13431,"definitive":13432,"penins":13433,"innings":13434,"swept":13435,"benj":13436,"springs":13437,"lengthy":13438,"aliens":13439,"cruel":13440,"translated":13441,"towers":13442,"nhs":13443,"rumors":13444,"disappointing":13445,"ltl":13446,"disruption":13447,"alphabet":13448,"templates":13449,"converted":13450,"paleo":13451,"hobby":13452,"prosperity":13453,"orthodox":13454,"arbitrary":13455,"powder":13456,"tokens":13457,"auburn":13458,"meteor":13459,"lieutenant":13460,"cathedral":13461,"overhaul":13462,"halloween":13463,"manafort":13464,"undoubted":13465,"aap":13466,"aids":13467,"kg":13468,"kits":13469,"rx":13470,"uint":13471,"wrec":13472,"##oche":13473,"##tin":13474,"##ement":13475,"##haw":13476,"##ycl":13477,"##nas":13478,"##nie":13479,"##pear":13480,"##ен":13481,"##atus":13482,"##edict":13483,"tol":13484,"##item":13485,"##idays":13486,"stays":13487,"heating":13488,"##chool":13489,"frog":13490,"##ulu":13491,"##unc":13492,"sail":13493,"mew":13494,"gran":13495,"compiler":13496,"offshore":13497,"scal":13498,"##achment":13499,"##quer":13500,"disse":13501,"marx":13502,"sheer":13503,"##licity":13504,"deciding":13505,"relatives":13506,"mines":13507,"fla":13508,"##atively":13509,"##aza":13510,"retreat":13511,"infamous":13512,"barrels":13513,"112":13514,"economies":13515,"classical":13516,"apology":13517,"fights":13518,"identification":13519,"victories":13520,"##ophren":13521,"pleaded":13522,"reaches":13523,"protective":13524,"austerity":13525,"convinc":13526,"interviewer":13527,"declining":13528,"angular":13529,"diabet":13530,"draws":13531,"1971":13532,"exceptional":13533,"lacking":13534,"falcons":13535,"##ascar":13536,"purchasing":13537,"installation":13538,"pitches":13539,"graduated":13540,"merit":13541,"reflection":13542,"lifted":13543,"tribes":13544,"tribun":13545,"sticking":13546,"wheels":13547,"poly130":13548,"novels":13549,"seekers":13550,"tyler":13551,"subscribing":13552,"mentions":13553,"bonds":13554,"concentrated":13555,"utilities":13556,"rotation":13557,"boundaries":13558,"cdc":13559,"confrontation":13560,"narendra":13561,"withdrawal":13562,"vessel":13563,"revelations":13564,"travelling":13565,"buttons":13566,"cigarettes":13567,"undermine":13568,"dvd":13569,"rhythm":13570,"unnecessary":13571,"provincial":13572,"schizophren":13573,"walsh":13574,"benjamin":13575,"poly1305":13576,"bald":13577,"fitting":13578,"gs":13579,"lon":13580,"nerd":13581,"rib":13582,"rash":13583,"ses":13584,"uh":13585,"xi":13586,"yang":13587,"zub":13588,"zwill":13589,"##oly":13590,"##kar":13591,"##ray":13592,"##3d":13593,"##ра":13594,"##∷∷":13595,"thail":13596,"whilst":13597,"stones":13598,"forests":13599,"##igley":13600,"##sein":13601,"weaker":13602,"##oding":13603,"##istically":13604,"abused":13605,"spite":13606,"##ivan":13607,"plaus":13608,"##arded":13609,"recyc":13610,"donor":13611,"throws":13612,"edited":13613,"colours":13614,"governance":13615,"detected":13616,"reduces":13617,"breit":13618,"milan":13619,"freeze":13620,"solved":13621,"casey":13622,"costumes":13623,"organisms":13624,"##bek":13625,"excer":13626,"equation":13627,"labs":13628,"shook":13629,"destiny":13630,"subjected":13631,"entries":13632,"spotlight":13633,"pitching":13634,"welcomed":13635,"mosque":13636,"optimal":13637,"tackles":13638,"consequence":13639,"mentally":13640,"lesbian":13641,"accidentally":13642,"microb":13643,"charts":13644,"dynamics":13645,"ltd":13646,"prohibition":13647,"blew":13648,"telesc":13649,"ravens":13650,"fertil":13651,"genuinely":13652,"avoided":13653,"gifts":13654,"licensed":13655,"unpredict":13656,"sanctuary":13657,"backlash":13658,"shakespear":13659,"whatsapp":13660,"genocide":13661,"brennan":13662,"diabetes":13663,"thailand":13664,"cute":13665,"dining":13666,"density":13667,"hated":13668,"json":13669,"lied":13670,"merg":13671,"mounting":13672,"nm":13673,"pon":13674,"rc":13675,"rio":13676,"tm":13677,"tory":13678,"##oons":13679,"##hub":13680,"##mad":13681,"##mel":13682,"##rical":13683,"##dled":13684,"##pad":13685,"##jar":13686,"##inform":13687,"##icut":13688,"reception":13689,"##storm":13690,"##acon":13691,"heated":13692,"##chu":13693,"chee":13694,"trains":13695,"plural":13696,"##ieval":13697,"proving":13698,"outlook":13699,"##ounding":13700,"justices":13701,"interf":13702,"poke":13703,"roch":13704,"##ingsb":13705,"preserved":13706,"relating":13707,"minus":13708,"lasting":13709,"simulation":13710,"maid":13711,"slavery":13712,"specified":13713,"##ahan":13714,"##arkar":13715,"extending":13716,"arranged":13717,"classroom":13718,"certified":13719,"eventual":13720,"pubmed":13721,"associations":13722,"intrig":13723,"encl":13724,"traum":13725,"responds":13726,"superm":13727,"historian":13728,"rolls":13729,"purchases":13730,"precious":13731,"heavyweight":13732,"ecu":13733,"reactor":13734,"switching":13735,"bobby":13736,"recommendation":13737,"tricks":13738,"width":13739,"brady":13740,"batman":13741,"pirates":13742,"shifting":13743,"observers":13744,"obligations":13745,"avoiding":13746,"deliberately":13747,"binding":13748,"entrepreneur":13749,"leverage":13750,"overturn":13751,"elderly":13752,"caucus":13753,"voluntary":13754,"geometry":13755,"ordinance":13756,"audiences":13757,"endorsed":13758,"inflammatory":13759,"throat":13760,"sakurai":13761,"nonprofit":13762,"chacha20":13763,"misleading":13764,"inappropriate":13765,"daughters":13766,"peninsula":13767,"undoubtedly":13768,"zwillingsb":13769,"breitbart":13770,"excerpt":13771,"bast":13772,"bikes":13773,"boko":13774,"dent":13775,"gonz":13776,"hilar":13777,"kor":13778,"mong":13779,"nz":13780,"nathan":13781,"pand":13782,"piv":13783,"porter":13784,"ridge":13785,"sard":13786,"uz":13787,"v1":13788,"vod":13789,"vag":13790,"wag":13791,"xl":13792,"##iya":13793,"##like":13794,"##21":13795,"##inters":13796,"##orum":13797,"##anet":13798,"##isen":13799,"reyn":13800,"fors":13801,"prisons":13802,"##iments":13803,"##ules":13804,"alger":13805,"##ppers":13806,"##alling":13807,"grain":13808,"gramm":13809,"complement":13810,"offended":13811,"offset":13812,"pew":13813,"appal":13814,"demographic":13815,"medieval":13816,"modify":13817,"founders":13818,"lara":13819,"skull":13820,"chrome":13821,"arrives":13822,"midst":13823,"glac":13824,"processor":13825,"singh":13826,"##shape":13827,"domains":13828,"lovely":13829,"##feed":13830,"specialized":13831,"damages":13832,"averaging":13833,"chef":13834,"credibility":13835,"connecticut":13836,"goalkeeper":13837,"1973":13838,"rocky":13839,"islamist":13840,"suprem":13841,"crossing":13842,"imagined":13843,"demonstrates":13844,"demonstrators":13845,"contributing":13846,"permits":13847,"villages":13848,"tribute":13849,"hussein":13850,"assumptions":13851,"##respons":13852,"satisfy":13853,"interpreted":13854,"ghosts":13855,"destructive":13856,"astro":13857,"navigate":13858,"leaning":13859,"gorge":13860,"gentle":13861,"veto":13862,"susan":13863,"homosexuality":13864,"urgent":13865,"accommodate":13866,"stimulus":13867,"utterly":13868,"triangle":13869,"cryptocurrency":13870,"priests":13871,"segregation":13872,"compassion":13873,"czech":13874,"dile":13875,"eug":13876,"hut":13877,"jama":13878,"lanes":13879,"mend":13880,"ninet":13881,"oath":13882,"rider":13883,"sacks":13884,"td":13885,"tet":13886,"wounds":13887,"##oard":13888,"##hard":13889,"##mart":13890,"##gd":13891,"thumb":13892,"##onal":13893,"anders":13894,"##eta":13895,"##amo":13896,"##igm":13897,"hein":13898,"heap":13899,"##child":13900,"##illo":13901,"shade":13902,"cher":13903,"chill":13904,"tricia":13905,"##ifty":13906,"lex":13907,"aborig":13908,"spart":13909,"unto":13910,"##ective":13911,"enlar":13912,"cance":13913,"bros":13914,"brun":13915,"complim":13916,"##auer":13917,"bloc":13918,"desired":13919,"##fty":13920,"decomp":13921,"wrapped":13922,"underne":13923,"defam":13924,"flows":13925,"##oths":13926,"smiling":13927,"fines":13928,"108":13929,"socio":13930,"##cripts":13931,"confed":13932,"designing":13933,"calgary":13934,"authoritarian":13935,"glimp":13936,"empirical":13937,"geo":13938,"17th":13939,"##ophone":13940,"massac":13941,"titans":13942,"richards":13943,"traits":13944,"launches":13945,"legalization":13946,"credited":13947,"extract":13948,"liability":13949,"unlaw":13950,"grandfather":13951,"speeches":13952,"imagination":13953,"frequencies":13954,"blogs":13955,"mccarthy":13956,"pitchers":13957,"hawks":13958,"licenses":13959,"karen":13960,"##iggy":13961,"##ogenic":13962,"frustrating":13963,"disappointment":13964,"disclose":13965,"correspondent":13966,"cooperative":13967,"sincere":13968,"extremist":13969,"strictly":13970,"casualties":13971,"##hydr":13972,"flickr":13973,"sweeping":13974,"facilitate":13975,"incentive":13976,"istan":13977,"tongue":13978,"tampa":13979,"appendix":13980,"dakota":13981,"underneath":13982,"glimpse":13983,"aide":13984,"bard":13985,"berg":13986,"beryl":13987,"cp":13988,"erect":13989,"eighth":13990,"git":13991,"gaw":13992,"ig":13993,"kash":13994,"mph":13995,"nes":13996,"nir":13997,"rats":13998,"tucker":13999,"wang":14000,"##tail":14001,"##mons":14002,"##rt":14003,"##ras":14004,"##rost":14005,"##dem":14006,"##wing":14007,"##itated":14008,"##idi":14009,"stabb":14010,"##ayd":14011,"defer":14012,"wasted":14013,"chew":14014,"##ista":14015,"##abad":14016,"plates":14017,"unrel":14018,"dose":14019,"adoles":14020,"outbreak":14021,"uphold":14022,"tehr":14023,"##tra":14024,"graves":14025,"##actic":14026,"##inez":14027,"intensity":14028,"sheets":14029,"playback":14030,"##roots":14031,"foil":14032,"accidents":14033,"boats":14034,"monop":14035,"parade":14036,"maur":14037,"foundations":14038,"slip":14039,"realm":14040,"laroche":14041,"##boards":14042,"directive":14043,"##iki":14044,"##iker":14045,"olds":14046,"barron":14047,"maintains":14048,"posed":14049,"typed":14050,"starters":14051,"steak":14052,"processed":14053,"approve":14054,"performers":14055,"geographic":14056,"lightweight":14057,"creativity":14058,"colleague":14059,"sentiment":14060,"administrator":14061,"homan":14062,"mckin":14063,"packs":14064,"1977":14065,"1972":14066,"compliance":14067,"##screen":14068,"literary":14069,"marriages":14070,"shuttle":14071,"comparisons":14072,"unsuccess":14073,"hacked":14074,"catching":14075,"carlton":14076,"clarity":14077,"tags":14078,"climbing":14079,"anthrop":14080,"pakistani":14081,"corresponding":14082,"explosive":14083,"shifted":14084,"patriot":14085,"toyota":14086,"eagle":14087,"prophet":14088,"wolves":14089,"interrogation":14090,"emotionally":14091,"bambi":14092,"poetry":14093,"misconduct":14094,"jungle":14095,"uncovered":14096,"furniture":14097,"collapsed":14098,"honda":14099,"remedy":14100,"lebanon":14101,"acquisition":14102,"trivial":14103,"raspberry":14104,"istanbul":14105,"3shape":14106,"curs":14107,"dental":14108,"dancing":14109,"io":14110,"kam":14111,"moses":14112,"nj":14113,"naming":14114,"oc":14115,"pow":14116,"rage":14117,"render":14118,"tide":14119,"v7":14120,"ya":14121,"â€":14122,"##live":14123,"##eenth":14124,"##nish":14125,"##cat":14126,"##kit":14127,"##far":14128,"##dn":14129,"##pat":14130,"##ри":14131,"##ör":14132,"thunder":14133,"##inates":14134,"toile":14135,"##icism":14136,"isil":14137,"ismail":14138,"##eto":14139,"##urt":14140,"##tery":14141,"##term":14142,"##terior":14143,"sham":14144,"frances":14145,"unbel":14146,"adr":14147,"compos":14148,"##heric":14149,"crus":14150,"coy":14151,"dried":14152,"workout":14153,"induced":14154,"prejud":14155,"rover":14156,"serp":14157,"##lection":14158,"undergo":14159,"guilt":14160,"parth":14161,"colomb":14162,"lasted":14163,"##elly":14164,"103":14165,"transc":14166,"sometime":14167,"runner":14168,"talents":14169,"farms":14170,"advancing":14171,"insists":14172,"locally":14173,"barriers":14174,"##lington":14175,"##rians":14176,"switzer":14177,"laure":14178,"##affe":14179,"emplo":14180,"excitement":14181,"dealers":14182,"completion":14183,"256":14184,"associates":14185,"risen":14186,"multipl":14187,"waited":14188,"matched":14189,"threatens":14190,"responsibilities":14191,"pete":14192,"nationally":14193,"collar":14194,"michelle":14195,"broadc":14196,"lawsuits":14197,"expressing":14198,"honored":14199,"unfold":14200,"martinez":14201,"fixing":14202,"tablets":14203,"punished":14204,"pitcher":14205,"escaped":14206,"tougher":14207,"##agonist":14208,"insurg":14209,"negotiate":14210,"wishes":14211,"savarkar":14212,"appealing":14213,"photography":14214,"proceeding":14215,"rodr":14216,"cannabino":14217,"cuomo":14218,"congrat":14219,"gangs":14220,"legitim":14221,"mormons":14222,"embraced":14223,"sacrament":14224,"striker":14225,"pulse":14226,"fulfill":14227,"shouted":14228,"lynch":14229,"jiuj":14230,"antibodies":14231,"##­tion":14232,"holland":14233,"wheaton":14234,"nigeria":14235,"##hammad":14236,"omega":14237,"ukrainian":14238,"zwillingsbiber":14239,"reynolds":14240,"appalach":14241,"jiujitsu":14242,"2d":14243,"cer":14244,"cater":14245,"codes":14246,"dorm":14247,"dread":14248,"eq":14249,"fs":14250,"fern":14251,"fathers":14252,"gau":14253,"kerm":14254,"lately":14255,"nord":14256,"piggy":14257,"rack":14258,"sf":14259,"tin":14260,"vim":14261,"##oise":14262,"##eu":14263,"##eur":14264,"##55":14265,"##90":14266,"##orph":14267,"##armed":14268,"inmates":14269,"##idel":14270,"##acco":14271,"##sexual":14272,"##tering":14273,"heels":14274,"##olan":14275,"trin":14276,"##unting":14277,"aboard":14278,"enab":14279,"outfit":14280,"incon":14281,"cox":14282,"##quote":14283,"disprop":14284,"query":14285,"##ulture":14286,"indict":14287,"impe":14288,"implies":14289,"serum":14290,"carriers":14291,"reliance":14292,"##onsc":14293,"minne":14294,"##rah":14295,"colored":14296,"##space":14297,"retal":14298,"hollow":14299,"artif":14300,"##ashi":14301,"annoying":14302,"insights":14303,"##ullah":14304,"costly":14305,"##atories":14306,"receivers":14307,"opted":14308,"optical":14309,"socialism":14310,"##apper":14311,"freak":14312,"rises":14313,"##forward":14314,"injust":14315,"advertised":14316,"norms":14317,"ahmad":14318,"float":14319,"verified":14320,"##ugging":14321,"digest":14322,"determining":14323,"feared":14324,"medicaid":14325,"mobility":14326,"examining":14327,"kicks":14328,"kickst":14329,"##held":14330,"thankfully":14331,"willingness":14332,"straightforward":14333,"apartments":14334,"1944":14335,"hackers":14336,"cabal":14337,"dietary":14338,"horrific":14339,"advisor":14340,"tactic":14341,"crafted":14342,"teenager":14343,"litigation":14344,"steelers":14345,"confronted":14346,"nurses":14347,"proteins":14348,"apologize":14349,"caval":14350,"encryption":14351,"survivors":14352,"malaysia":14353,"commodity":14354,"bicycle":14355,"bishop":14356,"alarming":14357,"deleted":14358,"naughright":14359,"endangered":14360,"chromos":14361,"tehran":14362,"minneapolis":14363,"dum":14364,"dame":14365,"dire":14366,"hm":14367,"krem":14368,"nig":14369,"oudin":14370,"pens":14371,"pts":14372,"ports":14373,"sb":14374,"soup":14375,"v10":14376,"##iological":14377,"##hin":14378,"##mir":14379,"##marks":14380,"##fund":14381,"##gow":14382,"reiter":14383,"##stick":14384,"##owitz":14385,"##etically":14386,"hew":14387,"heights":14388,"delete":14389,"##opard":14390,"fron":14391,"fruits":14392,"neat":14393,"sul":14394,"##keys":14395,"##ulates":14396,"oral":14397,"##unct":14398,"unite":14399,"##ource":14400,"cloth":14401,"brom":14402,"brack":14403,"##ipher":14404,"newest":14405,"cros":14406,"##izable":14407,"feud":14408,"##berger":14409,"overlo":14410,"overhead":14411,"blowing":14412,"prescrib":14413,"monument":14414,"edmond":14415,"downward":14416,"ende":14417,"finland":14418,"##urring":14419,"chargers":14420,"disconn":14421,"surpass":14422,"continually":14423,"headset":14424,"##rients":14425,"productions":14426,"musk":14427,"bitcoins":14428,"glenn":14429,"liber":14430,"billy":14431,"armor":14432,"activated":14433,"lowen":14434,"##apeut":14435,"statue":14436,"trauma":14437,"balloon":14438,"scream":14439,"characterized":14440,"credential":14441,"functioning":14442,"capitalist":14443,"unconsc":14444,"randy":14445,"surviving":14446,"fitz":14447,"ignoring":14448,"lifting":14449,"angela":14450,"briefing":14451,"submission":14452,"cruise":14453,"karl":14454,"##ylan":14455,"advisers":14456,"juan":14457,"cracked":14458,"##onomic":14459,"sponsorship":14460,"utilized":14461,"boliv":14462,"treasure":14463,"oliver":14464,"dragged":14465,"upgrades":14466,"rifles":14467,"htc":14468,"crypto":14469,"bombers":14470,"patriots":14471,"behaviors":14472,"dodgers":14473,"convenience":14474,"inauguration":14475,"bipart":14476,"##heimer":14477,"venezuela":14478,"grocery":14479,"fictional":14480,"mewes":14481,"kermit":14482,"disproportion":14483,"celt":14484,"dre":14485,"dale":14486,"gays":14487,"hike":14488,"kath":14489,"lending":14490,"niss":14491,"nascar":14492,"rim":14493,"sock":14494,"tup":14495,"useless":14496,"xen":14497,"##った":14498,"##26":14499,"##pin":14500,"##onut":14501,"##oro":14502,"##inging":14503,"tob":14504,"relying":14505,"stig":14506,"fork":14507,"##ayal":14508,"##uri":14509,"iteration":14510,"##verning":14511,"##cha":14512,"##oples":14513,"trav":14514,"##ocy":14515,"##ifier":14516,"governing":14517,"##arts":14518,"worries":14519,
[...]
