[PAD]
[UNK]
[CLS]
[SEP]
[MASK]
!
"
#
$
%
&
'
(
)
*
+
,
-
.
/
0
1
2
3
4
5
6
7
8
9
:
;
<
=
>
?
@
[
\
]
^
_
`
a
b
c
d
e
f
g
h
i
j
k
l
m
n
o
p
q
r
s
t
u
v
w
x
y
z
{
|
}
~











¡
¢
£
¥
¦
§
©
«
­
®
¯
°
±
²
³
´
µ
¶
·
¸
¹
º
»
¼
½
×
ß
à
á
â
ã
ä
å
æ
ç
è
é
ê
ë
ì
í
î
ï
ð
ñ
ò
ó
ô
õ
ö
÷
ø
ù
ú
û
ü
ý
þ
ā
ă
ć
č
đ
ē
ę
ě
ğ
ī
ı
ł
ń
ň
ō
œ
ř
ś
ş
š
ţ
ū
ů
ž
ɐ
ə
ɛ
ʌ
ʒ
ʔ
ʻ
ˈ
ː
˜
̇
ά
έ
ή
ί
α
β
γ
δ
ε
η
θ
ι
κ
λ
μ
ν
ξ
ο
π
ρ
ς
σ
τ
υ
φ
χ
ω
ό
ύ
ώ
а
б
в
г
д
е
ж
з
и
й
к
л
м
н
о
п
р
с
т
у
ф
х
ц
ч
ш
щ
ы
ь
э
ю
я
ё
ѕ
і
י
ש
،
ا
ب
ة
ت
ح
د
ر
ز
س
ط
ظ
ع
ف
ق
ك
ل
م
ن
ه
و
ي
ی
द
र
ल
व
ि
ु
्
ਾ
ก
ข
ง
ด
ท
น
ป
ม
ย
ร
ล
ว
ห
อ
า
ี
เ
ไ
่
้
๋
ა
ი
ḍ
ḷ
ṃ
ṇ
ṛ
ṣ
ṭ
ἀ
ἰ
ὀ
ὐ
ὕ
ῖ
ῶ
​
‎
‐
‑
–
—
―
‘
’
‚
“
”
„
‡
•
․
…
′
″
›
※
⁄
₂
€
™
→
↓
⇓
−
∞
∥
∷
∼
≥
─
┃
█
■
▪
►
▼
◊
★
♦
❤
➜
ⵏ
、
。
々
〈
〉
「
」
『
』
あ
い
う
え
お
か
が
き
く
け
げ
こ
さ
し
じ
す
ず
そ
ぞ
た
だ
ち
っ
つ
て
で
と
ど
な
に
の
は
ば
び
へ
べ
ま
め
も
や
よ
ら
り
る
れ
ろ
わ
を
ん
ァ
ア
ィ
イ
ゥ
ウ
ェ
エ
ォ
オ
カ
キ
ギ
ク
グ
ゲ
コ
ゴ
サ
シ
ジ
ス
ズ
セ
ソ
ゾ
タ
ダ
チ
ッ
ツ
テ
デ
ト
ド
ナ
ニ
ネ
ノ
バ
ヒ
ビ
ピ
フ
ブ
プ
ヘ
ホ
ボ
マ
ミ
ム
メ
モ
ャ
ヤ
ュ
ユ
ョ
ラ
リ
ル
レ
ロ
ワ
ン
ヴ
・
ー
ㅋ
一
上
下
不
中
事
亡
京
人
他
以
件
位
低
体
何
作
係
側
傷
先
光
入
全
公
内
出
分
切
初
判
別
前
力
助
動
北
占
原
取
可
同
名
向
告
員
問
営
因
団
在
地
域
報
場
外
多
夜
大
失
始
子
存
学
定
実
家
容
密
察
審
対
射
小
局
履
山
峠
崩
州
常
年
度
式
引
当
彼
征
後
性
想
態
折
持
捜
探
接
推
撃
放
文
料
斜
新
方
日
明
時
書
最
月
有
服
木
本
東
果
査
森
検
極
機
次
死
残
気
渓
温
測
点
無
然
版
物
特
状
現
球
理
生
画
症
発
登
的
目
直
県
真
着
知
研
示
社
科
秘
究
立
索
終
結
続
線
編
置
考
者
能
脱
自
至
舌
色
落
著
行
衣
裂
要
見
解
記
設
語
説
調
論
警
谷
象
負
資
起
足
跡
身
軍
述
送
通
連
道
遺
部
都
量
長
開
間
関
隊
集
離
難
雪
面
靴
風
験
骨
高
가
각
간
갔
같
개
거
건
걸
검
겁
것
게
겠
겨
견
결
경
계
고
공
과
관
광
구
국
권
그
극
글
금
기
긴
김
까
끝
나
난
날
남
났
내
냐
너
년
노
놓
눈
뉴
느
는
늘
니
님
다
단
담
당
대
더
던
데
도
독
돈
동
됐
되
된
두
드
득
든
들
등
디
딸
때
떠
떳
떻
또
라
람
랑
래
러
런
럼
렇
레
려
로
론
루
르
른
를
름
리
린
마
만
많
말
매
먹
먼
며
면
모
몰
못
무
문
물
뭐
미
민
바
박
밖
반
받
발
밝
버
번
벌
범
법
변
별
병
보
복
본
봤
부
분
불
뷰
비
빠
사
살
상
생
서
석
선
섭
세
소
손
송
수
순
숨
스
슬
시
식
신
실
싫
심
싶
싸
씨
아
안
않
알
았
애
앨
야
약
양
어
억
언
얼
엄
없
었
에
여
연
열
였
영
예
오
온
올
와
왔
왜
요
용
우
운
울
워
원
웠
위
유
으
은
을
음
응
의
이
인
일
있
자
작
잘
장
재
저
적
전
정
제
져
졌
조
좀
주
죽
준
중
증
지
직
진
질
집
쪽
차
찰
참
처
청
체
추
취
친
키
타
터
테
판
편
평
표
하
한
할
함
해
했
행
혀
현
혐
형
혜
호
혹
혼
화
확
활
황
회
후
훈
흥
히
힘
️
﻿
（
）
：
＝
＞
�
🐒
😉
🙂
##o
##b
##i
##t
##a
##l
##e
##h
##y
##m
##n
##u
##s
##c
##k
##r
##v
##f
##g
##z
##d
##件
##の
##一
##部
##が
##出
##版
##物
##や
##ス
##ヴ
##ェ
##ル
##ド
##ロ
##フ
##ク
##州
##地
##メ
##デ
##ィ
##ア
##で
##公
##に
##さ
##れ
##る
##よ
##う
##な
##っ
##た
##q
##5
##1
##7
##2
##­
##p
##x
##0
##é
##w
##3
##4
##а
##н
##о
##й
##9
##j
##8
##리
##ä
##6
##다
##가
##도
##×
##
##í
##→
##е
##м
##ü
##ل
##س
##ط
##ة
##하
##고
##á
##
##å
##°
##각
##나
##직
##금
##으
##로
##ñ
##察
##当
##局
##特
##別
##可
##を
##し
##と
##報
##告
##て
##い
##は
##通
##常
##ι
##는
##해
##ó
##두
##ー
##ン
##ž
##우
##보
##ř
##ě
##崩
##斜
##度
##以
##上
##発
##生
##す
##こ
##多
##く
##광
##석
##씨
##랑
##式
##資
##料
##者
##ち
##日
##記
##니
##이
##
##장
##되
##모
##사
##인
##의
##한
##에
##º
##야
##기
##했
##던
##ð
##ʻ
##ý
##ṣ
##ш
##и
##ā
##ī
##説
##事
##秘
##ソ
##ビ
##エ
##ト
##時
##書
##か
##ê
##상
##р
##с
##т
##ṇ
##ع
##ا
##م
##ي
##문
##最
##終
##的
##調
##査
##結
##果
##л
##ь
##ы
##래
##д
##з
##в
##è
##č
##â
##€
##
##ă
##ß
##며
##를
##子
##ţ
##러
##면
##ō
##라
##ò
##÷
##コ
##ラ
##イ
##離
##位
##置
##々
##見
##つ
##り
##à
##ら
##彼
##放
##射
##線
##検
##ѕ
##람
##서
##ö
##려
##ό
##λ
##υ
##β
##δ
##ο
##ς
##억
##호
##오
##分
##衣
##服
##雪
##失
##ま
##あ
##峠
##行
##リ
##ダ
##ゴ
##š
##ú
##ر
##ك
##ت
##ж
##у
##거
##п
##г
##ę
##찰
##к
##و
##ن
##‎
##게
##조
##비
##北
##中
##�
##았
##시
##경
##내
##만
##지
##참
##국
##어
##ч
##я
##œ
##벌
##ォ
##ズ
##ジ
##域
##示
##ρ
##π
##τ
##死
##亡
##も
##데
##™
##소
##송
##법
##든
##울
##і
##年
##민
##κ
##ί
##미
##원
##х
##ν
##μ
##α
##đ
##®
##´
##ṃ
##ś
##ก
##่
##ย
##า
##ง
##チ
##ヤ
##½
##ː
##د
##ق
##ぞ
##無
##関
##係
##目
##撃
##キ
##ャ
##プ
##設
##営
##容
##だ
##ø
##б
##혀
##져
##ਾ
##ล
##ไ
##ม
##้
##할
##夜
##オ
##レ
##色
##光
##球
##山
##面
##小
##체
##애
##아
##シ
##対
##開
##始
##め
##人
##遺
##体
##探
##月
##要
##집
##을
##ç
##ว
##ห
##ů
##ş
##검
##증
##ḍ
##後
##ボ
##ć
##진
##까
##験
##겠
##겁
##느
##떳
##질
##³
##ï
##性
##名
##응
##登
##点
##ε
##난
##ゥ
##ニ
##ナ
##ゾ
##タ
##ョ
##骨
##ど
##折
##섭
##論
##ń
##ح
##¢
##황
##±
##ṛ
##훈
##ピ
##け
##었
##더
##ب
##들
##ギ
##ф
##​
##안
##र
##ु
##ल
##ि
##べ
##щ
##直
##接
##じ
##道
##研
##究
##범
##æ
##자
##렇
##ὐ
##バ
##お
##ū
##실
##극
##연
##양
##征
##長
##引
##돈
##음
##ッ
##웠
##ю
##傷
##考
##え
##전
##차
##ュ
##ァ
##ノ
##ه
##ц
##과
##ξ
##ύ
##サ
##당
##機
##密
##文
##送
##外
##負
##ず
##정
##심
##회
##생
##활
##마
##적
##겨
##레
##ά
##️
##떠
##냐
##索
##隊
##ホ
##◊
##♦
##간
##˜
##¦
##
##テ
##持
##真
##原
##全
##わ
##득
##됐
##늘
##知
##단
##不
##気
##難
##떻
##î
##못
##ô
##語
##은
##ა
##ი
##긴
##ı
##ğ
##⁄
##大
##間
##ミ
##何
##場
##渓
##谷
##因
##能
##ん
##처
##럼
##森
##審
##問
##セ
##ด
##ท
##걸
##저
##ë
##定
##び
##
##
##년
##ی
##η
##ש
##작
##向
##ム
##물
##ㅋ
##테
##변
##取
##き
##測
##量
##助
##動
##ヘ
##入
##밖
##함
##科
##家
##現
##有
##力
##明
##ã
##̇
##−
##건
##マ
##木
##先
##ɐ
##ʔ
##ツ
##형
##残
##올
##제
##﻿
##터
##뷰
##린
##ё
##신
##ή
##γ
##드
##공
##द
##्
##捜
##û
##軍
##警
##げ
##高
##そ
##他
##靴
##履
##初
##著
##ネ
##県
##워
##운
##õ
##타
##²
##름
##ṭ
##살
##カ
##였
##순
##ʒ
##ˈ
##빠
##혜
##έ
##状
##態
##低
##温
##症
##起
##ร
##เ
##อ
##ω
##着
##舌
##解
##י
##都
##많
##번
##르
##へ
##복
##占
##무
##ば
##와
##実
##분
##員
##졌
##足
##ウ
##切
##ɛ
##갔
##判
##요
##현
##至
##ʌ
##ì
##¸
##内
##方
##裂
##σ
##런
##반
##ň
##⇓
##동
##ł
##된
##관
##э
##＞
##画
##跡
##재
##왔
##말
##前
##ユ
##¼
##＝
##ブ
##구
##표
##대
##θ
##혼
##부
##청
##견
##혹
##때
##続
##述
##너
##주
##루
##매
##推
##열
##노
##ろ
##連
##χ
##©
##ə
##약
##ظ
##ف
##여
##在
##学
##편
##히
##ḷ
##ē
##놓
##落
##作
##화
##ῖ
##下
##없
##モ
##立
##存
##ⵏ
##선
##스
##¹
##용
##온
##象
##론
##발
##뉴
##디
##団
##별
##권
##ワ
##
##次
##新
##社
##담
##グ
##수
##버
##일
##東
##
##준
##님
##理
##ป
##흥
##─
##想
##개
##脱
##█
##ี
##น
##받
##極
##판
##것
##本
##ώ
##쪽
##🐒
##
##❤
##확
##른
##후
##φ
##ῶ
##自
##然
##독
##예
##손
##중
##위
##側
##혐
##행
##京
##∷
##ز
##∞
##봤
##먼
##風
##났
##ヒ
##集
##세
##있
##ù
##ゲ
##식
##날
##身
##병
##๋
##친
##결
##₂
##등
##불
th
##er
the
##in
##on
##at
##en
##es
##or
##ed
##nd
##ing
##ar
##an
to
##ou
in
##it
##al
of
##is
and
##ic
##as
##re
##om
##ion
##le
##ent
##ll
re
be
##ly
##st
##ot
##ve
wh
##id
on
##ac
##ut
that
is
st
##ow
##et
for
##ay
##ur
it
##am
##ad
pr
##ig
##se
##ct
##ld
##ver
##im
##ir
##ter
as
he
##ch
##ith
##ation
##ol
an
##ce
with
de
##th
you
##ers
##il
con
##ere
we
was
se
##op
##ill
ha
sh
ch
##est
com
fr
at
ne
##ess
##ate
##od
su
##ag
##ke
##ul
this
tr
##ment
are
##igh
##ain
##os
ex
or
al
##ist
##pp
not
##us
##oc
by
##ore
##ab
have
##ity
##ould
##if
##ive
##um
##ant
##un
from
le
##and
but
##em
##ort
##ies
go
##art
ab
sp
##iv
sa
pl
##ie
##ight
##ust
they
##el
un
##ear
wor
##ap
##ally
his
has
##ack
##all
##ect
pro
do
##out
20
##ard
en
##ost
can
##gh
##ome
ar
all
##ud
##ak
##ast
will
##end
##our
so
ad
##ib
##ich
##ge
said
us
cl
##ok
##ial
out
who
up
me
te
one
their
br
##ip
##ough
more
##ans
##tr
gr
##ame
res
new
im
##ound
##ions
comp
##ice
##ue
##ike
##her
##ous
there
##act
##ff
##one
am
##oun
##ia
##ure
##og
##age
##ong
man
about
##ine
if
ac
year
ag
ev
off
##ated
tim
cr
which
##ence
##pt
had
were
would
pe
##iz
int
rep
no
exp
what
##ind
sc
##ake
##ide
##ub
like
##ther
per
when
been
some
inc
co
##ach
fe
dr
##au
##ign
##own
##ber
##qu
part
af
tw
over
##ays
dis
##ace
##so
##ary
than
bec
201
her
lo
how
##able
just
##ite
qu
app
##ople
##ord
##ire
##ical
people
inter
##ish
##ian
also
##ose
my
##ations
##ile
str
work
mar
kn
##ult
time
##ree
get
##ass
your
##av
##ens
she
them
bl
any
pol
##int
fir
rec
other
##ec
##are
##ond
after
##ick
comm
##orm
its
ind
act
##ance
##lic
##ail
##ase
imp
our
play
##aw
##00
ever
##ro
19
##reat
fo
##uc
pre
po
ro
into
##amp
##fer
##gr
##ink
##ings
acc
##ition
bo
##ory
##vel
first
##oss
cont
##ep
##uct
ser
##ors
##ang
em
##ause
two
##itt
##ates
only
could
now
coun
ph
mo
most
him
des
##ert
##ious
may
##ents
##lect
sec
pres
##ks
und
back
##ade
##lo
bet
even
##enc
jo
cons
##ied
these
##ft
##ild
##ery
dec
##hing
att
##urn
did
because
don
again
bu
thr
every
wr
##ict
op
state
sy
##form
under
see
def
##iver
##ater
car
ob
##uch
rel
##we
inv
add
##ons
##day
know
high
then
##ry
min
ass
supp
##ual
years
ke
##ock
want
##erm
right
##iss
##ident
##ise
need
##lud
##ning
fl
##ra
where
many
##sel
mon
##wn
world
reg
##ments
call
make
ed
##ublic
down
##les
gu
par
##eric
##ved
fu
col
way
rem
well
dif
while
last
bel
contr
think
look
##fore
##oth
gen
##ell
being
team
ear
sch
ve
##oup
sm
americ
##ational
end
fin
##ject
id
show
##olog
includ
much
form
through
stud
##vern
very
##iew
inst
##ath
##ating
##ys
200
govern
##anc
those
##ason
long
##ump
dem
##aking
##other
##ily
##ics
##urr
should
say
10
##xt
##sp
start
##uring
##ative
##ited
before
##ower
##ities
report
sim
cent
use
war
##ific
##ased
good
##cc
##ty
##atch
does
ma
##ible
sub
own
med
##ting
cour
##ange
game
char
prob
point
such
hel
##ug
##ts
##ward
wee
here
##omet
##ince
going
##ters
##get
resp
dep
##ues
prod
eff
law
made
pers
##eral
##io
##az
mod
disc
aut
##ism
##ually
lead
##ular
##ving
##ix
##ility
cap
##llow
against
##orn
differ
take
##air
found
set
day
though
##up
##ier
##its
##ife
read
president
still
##illion
help
##ful
offic
great
sl
trans
three
government
##let
says
##ood
##man
##ope
somet
##ists
##ween
##ee
sign
spec
##ress
between
##ently
soc
##stem
mem
countr
prov
group
big
during
##als
real
num
sur
lar
elect
run
##ked
bus
since
same
##gan
really
##ying
system
around
both
hand
##ives
##irect
##ah
follow
public
leg
##self
##con
wom
##ene
##bo
prop
##yp
##ote
##led
##ork
##land
polit
##cept
cle
el
compan
##hip
##cr
support
##ient
##iet
##uss
##ames
##ves
ret
sen
mark
direct
##ever
##read
##velop
let
##ution
trump
find
##ouse
ho
det
conf
used
week
##ures
tal
##ton
person
fact
##ather
art
red
develop
fam
##cent
##way
met
##ern
cor
cre
progr
prot
happ
##ool
power
win
##ivers
post
##ered
iss
contin
##ines
##ash
bre
far
inf
##pr
##ax
##ik
##lish
city
old
month
##ience
##ave
commun
camp
told
put
nor
ann
lot
another
##istr
##ph
##ale
open
##ank
top
head
##ices
av
eng
tech
000
invest
second
adv
quest
intern
each
##akes
plan
##gest
life
##erg
rev
few
##ially
hum
belie
##ize
##ording
why
##per
##ont
too
opp
police
fil
##ount
##str
never
news
ord
ins
##lem
##ages
##ically
turn
##ency
loc
##ision
things
##ins
bar
poss
however
best
pass
conc
school
stand
requ
##ants
something
12
##ized
come
next
val
##ott
curr
##ime
##ior
##br
states
##alth
different
hard
##ead
##ology
four
ll
##tern
mil
ide
##co
##ger
might
##bs
##ute
main
rele
proc
serv
##err
11
according
air
##ling
##thing
test
##ody
##iving
result
##bers
house
##med
15
##ets
build
home
partic
dat
season
sk
problem
prof
##ric
##ention
econ
percent
##ne
##ret
including
american
##ri
list
econom
##ark
full
without
auth
feel
child
incre
national
product
import
seem
chr
free
##iness
fun
expl
##ittle
sw
##ull
##res
less
pop
care
##ield
allow
##ness
##son
##ined
number
##king
million
##pl
left
exper
level
little
techn
spe
ref
##ected
##ced
ext
called
better
18
##ner
beh
inform
country
la
##ces
##earch
research
##ately
sol
pos
pat
##ably
keep
place
interest
near
mus
rest
pay
face
ir
##aim
effect
adm
sou
mat
##iting
cond
##osed
arr
prev
times
##red
got
##ina
##ama
##ways
book
using
design
eas
har
gre
##ering
case
##ital
bit
maj
##til
##ten
##ised
##ats
program
cal
consid
miss
didn
typ
##over
press
move
##oney
term
##ral
##ains
##ction
##eng
##ocr
eur
##ained
##uck
simp
sever
prom
stre
hist
later
##ds
story
based
star
white
change
business
attack
del
clear
##inal
women
mid
mr
##ned
major
court
ra
cost
small
##hn
company
##ived
##ends
ste
organ
aff
##ven
##ense
class
appear
##atur
mean
##ator
##atic
health
project
univers
author
gl
vis
##line
polic
human
##ister
##iven
united
net
phot
30
lib
money
today
data
cert
##less
process
always
pur
past
terr
bas
##ged
chang
##ared
sing
once
party
important
rece
est
must
##aff
record
democr
ent
tax
##ature
claim
##ren
##ided
thing
##ready
already
political
##ians
fund
black
tell
var
##wh
line
grow
vide
men
making
view
##used
pot
least
pa
until
##ury
deb
opt
vi
##stand
return
former
fri
social
##be
##aining
##me
##ample
john
water
##erv
##aph
large
hal
oper
##app
##ases
lear
199
##ences
official
##ending
mor
days
family
happen
land
##aign
information
edit
games
media
campaign
occ
sit
##loy
actually
youn
ap
##ether
appro
##oub
##att
market
13
##itch
hu
kill
##acy
night
vot
republic
foot
kind
able
enough
order
emp
##ley
##ode
es
gener
arg
##augh
##ew
wal
doesn
won
14
fac
five
name
##unch
##ired
##orts
fed
several
##ession
often
##mm
bill
ant
sug
become
##ief
working
away
non
##ium
yet
##ality
watch
exc
hour
early
came
having
equ
##ird
north
##ified
secur
crit
sure
fur
##gin
players
stop
##ued
trad
##ards
whether
europe
##ising
##ush
give
question
##sh
deal
fre
perform
16
lab
event
arm
##ball
ge
##ensive
fut
sour
##ipp
meet
##crib
##ides
##ential
ca
complet
cho
certain
##ison
cover
##iam
activ
york
priv
##els
vers
##ization
##ony
step
known
lim
short
##empt
##enn
among
took
25
##ember
##erman
##ove
##ither
local
##itions
##idence
asked
control
course
bro
##ov
seen
charac
##ru
low
##icle
doing
dev
orig
##aps
within
dom
##lex
university
alm
went
17
pract
along
side
esp
sn
##aken
love
given
pub
##iety
general
##inc
acr
likely
##te
##ories
##uary
example
succ
##iously
sal
depart
light
##aring
members
##ought
investig
##ended
possible
young
security
fail
##ots
strong
obama
##ones
christ
future
hold
tot
understand
video
##thers
ce
##side
viol
##ane
across
##lf
interv
children
enter
##que
space
##ann
##ured
##tt
##mber
##ateg
community
##urs
thought
reason
addition
##imate
announ
done
mind
##ivid
following
means
##work
film
##by
conn
south
sound
##une
const
further
##itter
##oci
00
months
success
believe
russ
##arch
##ilar
getting
indust
reported
others
office
almost
##ination
fight
##ware
half
mag
anal
super
creat
100
##fe
##ague
ident
series
##lished
vict
suggest
sex
makes
rul
##ted
##oph
compet
cut
fall
history
glo
ple
study
international
fire
##itive
bad
##ortun
invol
issue
associ
distr
mom
instead
started
america
policy
##por
##book
canad
##par
50
##vers
##ergy
milit
particular
repres
scient
avail
sho
food
tar
live
rather
looking
##com
try
2016
service
similar
area
ep
reach
individ
##osp
quick
key
idea
##lement
imm
fig
colle
##ars
##ulation
lat
##aged
env
den
toget
together
foc
sent
##ows
points
##ference
cult
##ai
cell
ris
##ators
bene
special
intr
impro
added
ban
close
six
wind
isn
death
##ape
anything
##uction
protect
tre
##ler
trying
##back
mass
##ances
##uce
federal
dist
front
stat
german
##imes
committ
aust
##fic
cam
center
individual
comes
port
pick
##eign
discuss
rad
ago
##utes
##bal
admin
present
twitter
secret
behind
cy
mult
taken
##ids
capt
recent
2015
jud
##ored
energy
complete
er
job
available
cop
west
##ogr
##uced
san
upd
rights
nothing
tit
vir
entire
21
relig
init
pret
##selves
##ission
someone
development
email
mess
current
##erc
##ability
ey
player
##wards
wa
god
employ
attempt
access
wanted
saying
probably
mot
taking
gun
experience
field
exec
hit
image
infl
either
jour
##though
dam
##igr
phys
although
2014
dav
single
##iron
##ument
##ps
china
##aper
match
##aster
##0s
third
fav
brit
##ls
action
##ald
enc
doub
##ges
cann
break
room
bi
aud
threat
exist
department
desp
aver
cust
##amed
coming
economic
bring
rich
##sw
che
doc
clint
##ands
##uly
educ
body
conv
interview
##vert
mill
league
concern
earl
due
environ
summ
washing
tra
##rael
final
everything
countries
continue
cand
##for
##leg
late
woman
##reme
chec
administr
israel
##gress
simply
price
lang
##ipt
2017
signific
election
hom
##oy
##ming
else
club
civ
tem
##nes
##sy
specific
meas
collect
##iter
clinton
##den
##aces
##uation
describ
ground
review
building
represent
begin
street
share
minister
track
everyone
vol
bud
below
issues
matter
ball
evidence
div
washington
bank
director
target
et
##old
deep
words
198
foreign
22
ur
relations
scre
companies
block
hope
##fl
coup
chall
role
##uff
wasn
abs
military
true
outside
cir
uk
##mb
launch
treat
conserv
24
billion
environment
common
##ij
position
saw
create
yes
legal
respons
jan
diffic
comb
repl
difficult
link
mal
squ
coach
2013
self
gold
2012
custom
force
espec
running
##yn
##ival
##dle
##ites
wrote
especially
##ule
##ring
sand
leaders
##use
whole
financ
green
despite
##urch
playing
led
agree
susp
higher
article
technology
neg
terror
##lling
##ault
character
vo
##ength
##ify
obs
students
earlier
pet
music
total
age
global
decision
##ogn
version
benef
##umb
circ
dest
##ney
significant
soft
candid
society
pretty
mc
pal
vote
suff
expect
seems
gir
hours
##ibility
detail
da
nation
coll
##ully
##af
became
civil
type
langu
dead
march
sense
board
value
facebook
pan
page
services
champ
answ
site
##ively
decl
pred
htt
##ional
needs
talk
engine
shoot
subject
consider
potential
bur
include
church
cit
##ana
##ological
release
##nal
##ench
drop
network
40
##lam
##orr
##oud
related
##ograph
provide
aw
began
mov
##onse
road
ill
statement
source
##asing
##iday
inj
##ental
advert
speak
##ural
above
##body
##go
##aft
itself
word
drug
object
shows
mich
nec
##esh
refer
##ibut
cred
played
instit
themselves
himself
football
pain
note
execut
lost
accept
online
heart
results
##ender
##und
popular
officials
broad
laws
questions
##ests
base
wall
##yle
norm
rob
wed
defense
changes
industry
connect
##fully
needed
released
##oring
staff
host
stay
##hood
recently
response
friends
##ped
chief
##iple
groups
corre
approach
opportun
photo
sund
anyone
nearly
consum
##iod
##port
ang
##istic
cur
soon
##action
##ilt
search
model
function
meth
paul
living
##ift
science
tele
sept
##oint
hill
##ster
heav
##elt
personal
period
ah
particip
sil
##rew
mic
##ms
pack
published
##lim
ul
##erty
address
east
mis
##omp
##atives
works
middle
private
oct
hot
prim
goal
anti
flo
forward
republican
moment
college
di
shot
draw
197
created
quite
scr
teams
respond
##asons
select
express
minutes
hon
##oll
held
##aced
strateg
##load
longer
hun
je
round
exact
##apan
weeks
cases
constr
introd
average
rock
content
problems
shar
regard
card
mater
tur
internet
focus
##urd
##ucture
japan
race
wrong
##attle
extr
natur
park
americans
learn
journal
##olution
chance
arch
text
administration
islam
##osing
pict
2011
leader
aug
webs
comment
calif
##haps
log
##lus
announced
28
##ades
perhaps
fem
que
##key
##epend
hop
oil
town
##ished
friend
risk
##ron
##atures
##okes
capital
easy
196
##iding
leave
23
##rop
##ises
##medi
austral
language
earth
influ
ver
son
##rupt
original
king
mond
independ
maybe
reports
sometimes
impact
account
member
june
congress
fair
increase
wide
worth
india
buy
bal
pie
##ugg
financial
##ream
demand
education
##ob
##arter
manag
currently
size
##ique
##arr
studies
inside
##thern
##sec
##itting
defin
ess
##ex
unf
comput
##ude
##na
recogn
##yr
dece
rac
##cil
users
##ellig
favor
ways
expected
finally
please
##ino
progress
check
##uth
via
contract
##ey
constit
##ops
goog
tues
ira
reve
##ested
committee
doll
27
production
tuesday
happened
method
##isl
##ips
##where
sunday
climate
intellig
##oke
google
dog
performance
sold
situation
david
dig
##ett
immedi
##anger
rules
worked
blood
##bc
2010
##gn
january
loss
##uit
##cript
li
rate
##lin
complex
99
ran
teach
emerg
friday
surve
fans
tool
##omm
turned
terms
cannot
necess
ten
european
##itten
famil
relationship
movement
##ees
determ
web
phil
legisl
anim
attr
##ried
except
received
apr
jack
surpr
material
monday
##lear
aren
ask
ability
standard
il
##ners
indic
central
##coin
speed
californ
##bert
couple
gar
weap
obv
involved
quickly
iraq
british
thous
##ese
##ores
workers
confir
##aming
amount
practice
september
lay
oh
##fect
contact
simple
becom
applic
modern
plans
estab
mach
economy
sun
leav
events
phone
cast
##ging
built
poll
cup
images
ok
takes
tradition
gave
sat
tv
##atory
trade
##idents
##ilities
heard
##of
enj
council
26
canada
figure
mart
unl
syr
camer
##ients
##iff
discover
april
pull
##ctor
chair
prem
insp
conference
respect
tom
poor
lack
separ
guard
ach
crim
iran
##izing
career
push
##onstr
century
sens
##amm
subs
decided
july
sup
expert
eight
fix
##eal
morning
ele
lives
slow
meeting
##oon
hear
travel
paper
##ael
prior
bir
felt
table
grand
##xic
nove
wednes
california
pen
color
communic
killed
growth
training
behav
huge
##ask
neigh
veh
extreme
considered
lower
##ams
remember
code
##tain
officers
neighb
##pect
mother
rom
range
##estern
whose
additional
wednesday
hall
serious
improve
father
wond
included
talking
goes
corpor
russia
fast
visit
democratic
##imum
december
fal
cross
perfect
purp
fear
compl
##eech
seven
quality
assist
dark
##ening
speech
resour
##raft
bott
satur
##osition
##ung
song
##ibly
november
hy
justice
##iction
unc
afric
quarter
numbers
august
hands
deliver
##ened
item
reading
##off
##eed
knew
##force
##orters
##ceed
imag
regular
eg
offer
require
medical
##ining
agency
choice
analys
epis
##20
guy
citiz
reb
user
daily
cause
hosp
##icles
##ober
forces
spent
box
movie
tried
website
bey
various
##iation
##omb
officer
intelligence
29
##to
plat
alb
gets
county
medic
skill
##ider
areas
senate
title
##cl
boy
##play
previous
hund
##etic
geor
champions
35
wild
writing
##light
##uk
##uf
reveal
2009
file
named
thurs
##ires
written
allowed
immigr
software
sort
##mp
##ctions
concept
clean
advertise
natural
##oid
##kn
##ledge
culture
hundred
island
##istan
certainly
october
date
inn
bitcoin
##bi
##ume
jobs
kh
prep
##idge
document
##owd
upon
thursday
union
##ubb
##ondon
victim
fill
brown
starting
conduct
beyond
sett
exactly
parents
interesting
opportunity
##cer
gas
stories
trust
budget
##atter
##dr
saf
2008
rap
##ux
touch
william
particularly
london
biggest
##aut
republicans
attention
##craft
usually
majority
##ification
pressure
completely
swe
##oles
commission
safe
brought
##itted
bush
ice
##agement
systems
schools
##arily
##ida
features
donald
politics
muslim
##eter
##essional
investigation
cele
hous
ow
cris
autom
executive
western
style
convers
##ounts
freed
http
mad
mention
##zz
##lly
answer
stuff
population
##iant
##sequ
amaz
histor
##aries
prison
saturday
ens
max
letter
fa
##ety
critic
message
continued
##bit
##ament
##uses
crime
##sych
##oo
drink
##encies
latest
update
alle
spir
effects
growing
achie
##inated
##isions
counter
wants
roll
thinking
demonstr
celebr
##sc
princ
##inese
voters
ny
looks
tor
##ously
looked
property
enjoy
deg
##enced
effort
chinese
##ha
appar
blue
##entially
cook
45
cat
comments
##aging
levels
kids
mob
##ugh
implement
leading
danger
pun
##erve
##ma
attacks
psych
spokes
##wor
##imately
democrats
debate
limited
secretary
income
##asc
##oses
attorn
60
##uments
peace
inte
remain
reality
frequ
germany
battle
alone
##come
district
religious
31
nuc
##fort
print
blog
emb
meaning
overall
english
described
required
purch
wouldn
disp
calls
remains
##adem
febr
write
authority
500
##enge
regul
mcc
sports
entr
ready
increasing
band
install
##aught
freedom
february
mount
##mon
army
summer
ult
thus
plant
click
nature
##uing
claims
bow
##eth
##ension
rand
wife
reasons
organization
physical
scene
experi
ii
store
recomm
flor
##anced
russian
path
indian
##ground
changed
bord
jer
spot
##reg
drive
command
products
contribut
presidential
surv
eventually
criminal
##mer
ut
brain
carry
violence
platform
safety
paid
traff
stra
strugg
fly
twe
immediately
exch
altern
##eless
throughout
estim
extra
analysis
james
##ky
efforts
profess
thousands
prime
couldn
status
mix
##erson
exam
gone
stage
sem
prec
conditions
liberal
walk
fit
kore
academ
multiple
kick
mac
surr
toward
difference
analy
nuclear
eth
pitch
costs
crisis
parts
bab
hair
increased
grad
subst
prevent
ign
##ham
ones
directly
hospital
download
happy
nom
rout
##field
thanks
manager
beat
positive
conservative
lines
ww
##ford
provided
labor
credit
integr
##cs
mech
draft
2007
##ables
brand
cars
promot
appears
stem
195
produc
associated
##enue
##astic
receive
ahead
pm
##iers
##sa
plus
##isc
showed
largest
dan
liter
region
##utions
##hib
##ga
perm
esc
measure
vs
tex
disapp
constitution
burn
eu
spending
moving
##inary
arab
student
##ban
guys
michael
designed
radio
##ufact
core
jaz
eyes
die
towards
hero
strength
clearly
damage
##ustr
smith
##he
##anch
unit
followed
beginning
tour
trial
repe
virt
challeng
lin
##oken
manufact
unlike
##ocks
##ze
scen
predict
episode
compared
sexual
candidate
details
correct
mer
##akers
truth
##ortion
##aker
thank
senior
advertisement
nav
##64
failed
whate
option
wood
##ara
beg
##ikes
whatever
categ
door
brother
agreement
micr
##ypt
theory
hell
save
opin
absol
moved
relative
ideas
citizens
hyp
##hold
##cast
section
marri
helped
restr
voice
origin
giving
32
der
vill
french
##face
ital
haven
coal
apple
projects
activity
hur
yourself
knowledge
ended
##box
shown
##aint
feed
##using
##ivity
mission
computer
##astr
defe
smart
screen
florida
od
consist
developed
normal
fan
van
notice
books
individuals
37
mexic
agre
includes
greater
occup
born
gives
murd
meant
association
independent
##ef
##ping
##wise
sched
australia
clos
scale
cool
photos
encour
telev
dream
dise
corn
dut
fine
cyc
album
www
religion
ben
rule
##ny
##ago
##phone
policies
basic
ath
##ero
feature
passed
heavy
resources
absolute
sle
chann
minor
reflect
piece
narr
rh
haw
slight
fully
wait
square
forced
spread
electric
authorities
judge
jump
##yan
##eration
##iny
prosec
uses
expand
incident
##ado
##ille
structure
mechan
sud
impress
shut
shooting
reform
remo
characters
##val
##arian
coff
experim
err
championship
##yal
##berg
##ios
attorney
hol
tick
##set
34
rise
##owers
lob
avoid
##ipped
sanders
map
##owing
crowd
join
conflic
##rim
##erved
willing
count
reached
aim
##orter
sell
supposed
editor
critical
chic
##apt
advant
eye
calling
primary
33
bay
ip
lif
wel
unique
learning
##ev
defend
highly
foundation
none
winning
researchers
girl
##enty
##ocked
larger
posted
chris
alleged
myself
previously
organiz
sources
treatment
texas
mike
##ona
##sey
noted
##unt
driving
actions
politic
condition
strategy
died
##aur
illeg
bottom
straight
wil
##iate
contain
continues
ms
thom
places
affect
benefits
behavior
speaking
double
##li
##ki
station
2018
apart
gh
gay
nice
therefore
produced
minimum
request
##istry
##eno
powerful
generation
necessary
mist
trib
adj
decades
highest
kept
pattern
challenge
mel
nations
compar
partners
easily
domin
weapons
gree
rare
weight
qual
indeed
female
leaving
##ula
spend
syn
caused
36
goals
##iance
propos
successful
##ici
##amb
weekend
angel
fat
80
kr
nut
tough
##rec
spr
chem
##room
picture
##lor
##ato
frank
destro
wonder
pac
tro
mostly
transport
seemed
industr
creating
bed
hus
##down
management
christian
influence
75
gal
lic
##unk
raised
etc
benefit
george
professor
jazz
fighting
environmental
##roid
##amples
flight
patients
appeared
initial
cities
notes
charge
fox
##while
confirmed
##iar
pair
opening
marriage
television
jew
##uana
programs
libr
##aughter
ec
tend
whom
194
knows
memory
sales
##ste
chap
machine
length
##iced
lawy
signed
opened
records
millions
traffic
##put
franc
defensive
opposition
lou
los
##iel
adop
grant
quant
species
send
recover
debt
thomas
nine
##hi
##ented
react
sea
fresh
##itely
happens
funding
95
rat
##ches
##ibution
brief
generally
chicago
rub
##iles
##iled
enforce
options
operations
survey
agreed
ali
uns
residents
parties
audience
hack
##ya
troub
magaz
dollars
families
anc
limit
banks
display
competition
massive
favorite
traditional
ber
##ba
##itz
score
mah
professional
male
rid
enem
##ube
owners
understanding
martin
##bon
##onents
##aked
brew
occurr
choose
##oft
feet
false
90
ye
##uge
fort
##ishing
infr
occas
spirit
64
70
vac
org
subm
allows
windows
japanese
mir
stick
adult
scott
adding
advoc
claimed
rank
##itness
whe
commerc
assault
investment
39
cas
river
wing
##agon
robert
switch
customers
floor
##itude
##ifying
spect
cru
firm
accomp
seeing
insur
solid
canadian
##ijuana
##band
incred
load
supporters
protest
cells
separate
du
spring
hillary
purpose
models
##ropri
syria
fif
##iring
bull
controver
snow
offensive
driver
parl
proper
islamic
##10
stock
trip
hundreds
comfort
graph
charges
produce
putting
interested
sites
attract
##iverse
provides
bag
sad
stone
explained
palest
establish
hor
math
##iest
##itor
beaut
served
unfortun
crew
southern
award
names
##iro
shared
instr
catch
era
##ario
android
shel
emot
transl
doubt
worse
negative
obviously
65
kar
##dom
feeling
cab
nfl
##zen
##icient
candidates
digital
birth
bomb
diet
##cing
france
exerc
active
extremely
coffee
##nn
##essed
poly
communities
legislation
camera
ther
amb
coast
finding
learned
device
scientists
richard
##ta
spl
cold
refuge
parliam
##yl
heat
worst
##cul
##vin
##ston
dism
marijuana
actual
assum
##apped
lose
2006
responsible
becoming
neighbor
commercial
mos
rough
##lied
beer
closed
offered
annual
believed
effective
johnson
##ipping
protection
concerns
vehicle
lad
##ext
##outh
iron
advantage
fant
sher
##odies
explain
israeli
border
##more
acqu
showing
owner
standing
employees
jeff
##vant
##eline
prefer
caption
institute
migr
northern
victory
items
dangerous
exchange
43
si
wage
##uries
##che
wealth
##estic
##aine
sport
plays
elements
prices
##uters
parliament
witness
register
optim
announce
entirely
nas
rates
##la
##ica
commit
supply
##board
##iber
##airs
construction
tools
magazine
master
##ville
##semb
solution
revealed
cash
luck
##cell
governor
arrested
apparently
49
horr
vice
##iling
##ounds
convention
temper
slightly
os
stad
planned
random
illegal
francis
300
cath
##gs
##inate
usa
##ipl
##izes
otherwise
transform
values
tests
batter
kid
##wood
shop
coop
watching
failure
holding
application
rang
ton
##ipe
joined
48
2000
##aves
fourth
##ospect
suspect
42
mail
##isation
##ota
##oted
fellow
flag
ensure
ko
##erry
advis
zone
##ushing
##umn
centre
supreme
channel
alex
bul
##olic
truly
##antly
easier
meanwhile
argument
##stein
ham
pc
sam
asking
frame
##oster
controll
glass
markets
listen
38
hate
laugh
##onent
##ano
span
farm
vari
existing
negot
storm
serve
division
achieve
bowl
dar
gather
profile
opinion
stadium
52
wish
##my
##icted
construct
surround
##bur
##house
##ca
braz
offers
fell
partner
discussion
virgin
concerned
replace
introduced
conversation
hind
mere
##men
##da
novel
string
transfer
##coming
pin
##wide
##inct
onto
sav
unp
proposed
##acity
##abb
bob
decisions
solar
initi
documents
recommend
##ih
##time
##11
bell
minute
##ancy
micros
44
waiting
definitely
##kin
mayor
revolution
spokesman
jim
wat
##rem
doct
apply
193
missing
types
afford
sounds
destroy
comed
athlet
adjust
enforcement
##fs
hearing
resist
breaking
55
pap
tant
##bl
aspect
clin
##know
ultimately
removed
louis
bern
gain
jose
tack
interp
fuel
supported
allowing
largely
repeated
getty
decade
planning
experts
medicine
mobile
murder
ju
##ingly
runs
tells
##works
infrastr
carol
detect
homes
gop
stated
highlight
direction
arrived
basis
housing
library
saud
surface
older
steph
scientology
williams
##eren
guess
requires
streets
coverage
domain
rain
consequ
train
context
edge
turns
sky
restaur
purs
focused
launched
fle
##ada
suc
acknow
seek
differences
elections
stopped
copyr
discovered
copyright
ps
rog
reuters
depend
becomes
ram
##ym
##odes
##abor
spoke
doctor
crash
accused
##azy
telling
activities
suggested
faith
pu
tow
##ige
##ils
atl
##issions
schem
useful
participants
infrastructure
ren
##gl
england
specifically
prosecut
rs
sust
appoint
strike
background
carl
absolutely
jes
vul
unless
britain
ded
yell
##ole
plants
attend
2003
issued
alternative
disease
66
##atically
##ulf
##igned
setting
african
tweet
na
reject
appeal
mont
miles
obvious
##eness
basically
identified
emergency
41
bon
ty
##ka
##ani
##olf
weak
democracy
##isf
##osen
interact
writ
providing
developing
domestic
injury
imagine
dim
eat
tun
##ius
##za
##cel
bridge
imposs
skin
feels
skills
##arm
##acher
earn
2005
articles
files
smaller
https
subscrib
conflict
las
vast
##uate
ship
##pper
##ption
believes
leadership
princip
degree
identity
balance
relatively
zero
##oom
##itable
hasn
crack
immigration
sleep
alloc
interests
healthy
suggests
hang
pil
assemb
returned
dropped
47
##usion
appropri
accounts
studio
##ression
corporate
rapid
rush
##equ
##ront
##gb
##aks
newsp
2019
advanced
keeping
honest
regarding
established
##oked
coord
standards
paying
scientific
girls
##ulated
cancer
photograph
operation
window
originally
palestin
rene
task
##gers
prospect
seed
reduce
##cription
victims
cart
cards
sitting
##ques
wars
currency
instruct
54
gard
consc
2001
senator
raise
ron
##ox
##nel
##irt
neither
drivers
testing
businesses
views
innov
ment
ox
rose
ryan
##osh
cloud
seconds
changing
sharp
##enoord
unfortunately
53
bond
resc
carbon
metal
terrorism
impossible
01
mary
tact
##ae
##ris
##ari
trick
abuse
afgh
twice
accur
owned
labour
steps
budd
responsibility
fol
gall
placed
proceed
managed
possibility
conclud
equal
privacy
committed
veter
stan
##ulate
discrim
location
##arko
exclus
dollar
pip
##onom
pool
presence
swed
##resp
korea
##icip
##istics
recall
##otten
mentioned
purchase
powers
aircraft
harm
voting
equip
dyn
ped
wear
##emen
broken
symb
flat
africa
organizations
chapter
vision
##ener
amend
eval
capacity
##ception
stars
measures
##going
yards
##inn
finished
##onto
votes
arms
yeah
ken
##antic
##roll
facing
losing
nick
sac
wik
##itory
intel
parent
bigger
internal
philos
angeles
brazil
lie
##ble
tourn
affected
##onym
presented
attempts
neighborhood
nh
helping
considering
sudden
aware
sides
##tained
variety
figures
greek
sector
##enses
buff
familiar
oly
##ata
##ola
neur
alleg
##erties
elected
factors
planet
patr
visual
taxes
ceo
mexico
rum
clar
charged
factor
technical
devices
##ophy
broadcast
complexity
toronto
occurred
dial
tight
killing
connection
afghan
46
mental
##iated
##inating
##agr
##ander
craft
guide
circum
lived
mas
sample
##ker
beach
weather
diss
struct
instance
protes
funds
cuts
linked
nyarko
daughter
jon
##pm
##awn
moon
potentially
publish
politicians
beautif
olymp
caught
mand
##aud
##kins
##gu
##arant
##outs
compr
seriously
founder
famous
penn
##town
##mas
##ship
##ania
param
voted
fi
fest
jones
rail
supporting
cultural
drugs
51
bbc
lake
concent
consult
positions
steve
appearance
recorded
faced
widely
coalition
microsoft
gi
horn
rod
##uel
##igan
prepared
insurance
bes
mort
wid
shape
##enda
assess
magic
motiv
hurt
##ken
##itation
alt
worry
remind
remained
governments
charl
passing
faster
tag
spons
clim
fired
signs
eastern
methods
liqu
baby
##nam
##aded
##uls
carr
##others
typically
cannab
penal
saudi
bodies
sor
##head
##right
##agn
##anta
armed
joint
throw
wrest
finish
arrest
videos
proposal
concentr
##hol
teen
resident
writer
starts
elim
weapon
satisf
egypt
increasingly
gender
gaming
jun
weren
##uous
##oned
##igg
nobody
emph
##well
ministry
refused
amazing
nasa
equipment
##lig
##lies
##uted
selling
##essions
collection
premier
din
##ding
carried
engineering
carolina
cow
ire
##enger
##agues
trail
covered
linux
husband
##18
##ibute
decide
seeking
guarant
talks
fixed
industrial
lu
##iot
agent
fey
forms
possibly
happening
copy
panel
analyst
##32
complic
statements
2002
argued
totally
sar
##fc
sharing
shift
intended
default
magn
corner
troops
85
##do
retr
wearing
orange
##emp
##ansion
2004
investors
practices
entertain
suffered
astr
bost
jav
tiss
reference
sequ
seasons
##ogen
recru
proced
bringing
shares
pak
##lock
##lines
##real
##tered
seg
##pped
schol
tempor
hawai
bid
##uations
rein
##iders
abortion
##gry
writes
defence
paris
retire
revenue
terrorist
filled
category
error
##aints
column
pointed
handle
lots
conclus
initially
challenges
iv
les
util
##aj
##ez
##gor
stret
##illing
agencies
confidence
ruling
combined
australian
400
aid
gap
ske
wire
##30
##stream
royal
guid
remaining
posts
consumer
essential
chairman
boston
fish
mun
##acing
##verse
expensive
joe
fing
rup
anth
plenty
nov
aftern
implic
deput
identify
updates
employment
motion
miller
customer
vehicles
conducted
ancient
oce
pic
##owed
##ocol
helps
schedul
breat
jail
pages
##bn
##omen
myth
marg
boost
secure
flash
maintain
grew
regardless
leaves
okay
cu
cia
ring
##ita
evil
scores
everybody
developers
conservatives
substant
virginia
##mark
examples
anyway
electron
exercise
3d
fake
kat
lit
mu
##any
##ales
shad
accident
belong
turning
matters
element
sale
tast
##isher
##stone
seat
##oking
brad
edition
remove
greatest
winter
excited
urban
hotel
animals
entry
roughly
##how
##wr
##erate
offering
##ords
##ensions
formula
plane
audio
feyenoord
ell
om
rot
tap
##gen
##osure
apprec
playoff
##ictions
perspect
encoun
determined
dismiss
renew
emphas
fbi
##19
##erous
isis
spell
universe
distance
circumst
##pass
topic
filed
increases
guns
pictures
soldiers
estimated
chemical
protesters
thread
##oma
##ette
##amental
##kel
##ighter
lee
columb
creative
determine
animal
interpret
afternoon
viet
forget
##ura
##ansas
crimes
##ucks
regime
subsequ
quarterback
experienced
closer
mahiro
vulner
56
native
yemen
##aver
##xual
##icated
frustr
##ours
##ucing
leads
advance
newslet
criticism
tiny
##der
##point
andrew
cry
herself
located
##atured
critics
declared
femin
ireland
ba
bure
##bre
##ini
congr
##ights
intent
mars
paral
personally
datab
jesus
bol
vent
##ati
##otyp
aside
involve
motor
##ography
essentially
communication
disappoint
youth
##abilities
ariz
featured
dram
evening
finance
extent
christmas
entered
micro
applications
##reh
forg
##uration
asia
comic
communications
gm
hat
ash
##atell
strange
humans
##loyment
updated
consumers
az
bound
mut
##ias
##yc
##ket
##isters
##ayed
discl
talent
admitted
observ
significantly
lawsuit
expressed
pulled
experiment
lock
nic
row
rally
##ss
ongoing
##urb
contrast
##othes
mode
findings
reduced
functions
connected
treas
turk
surprising
lawyer
trouble
beautiful
tissue
bureau
cnn
fash
tail
##enth
offense
explo
##ups
fundamental
completed
institutions
ghost
ol
sought
##aling
shock
##ager
valid
##standing
##ibuted
##inet
##oms
units
crazy
##izz
##roit
silver
jersey
francisco
battery
symbol
entertainment
##asy
##illa
prove
boys
advice
approx
broke
radical
yester
responded
hopes
village
controvers
gang
nba
rising
wake
wave
proud
resol
legit
corrupt
explan
classic
opportunities
teaching
pakistan
62
giant
satell
tear
reaction
reserve
phase
shouldn
thoughts
faces
emails
yesterday
##isted
##abe
scar
regional
wins
##place
reportedly
collabor
script
galax
negoti
fashion
bare
batt
gear
##ns
##onic
yout
shr
pled
reporters
joke
knowing
##ologies
capable
ukr
illustr
amazon
bought
##acle
teacher
detroit
150
importance
violent
academic
begins
pure
##arks
aband
sci
stress
married
decre
monit
opposed
operating
sugar
discussed
volume
kingdom
newspaper
##de
##amin
missed
stream
movies
package
enemy
stretch
##ador
hey
excell
gov
amp
scot
192
warning
realize
moral
activists
treated
declined
jackson
kir
##onna
resolution
perman
##encing
relevant
existence
wilson
merely
##ii
##rees
forest
chart
##ector
drag
phen
warr
ordered
affairs
argue
enterpr
champion
honor
pieces
muslims
virtual
welcome
papers
dynam
ocean
##tle
exhib
##anda
usual
upgr
flav
ends
warned
auto
readers
memor
promise
walking
italy
restaurant
bat
morm
##dp
##inent
##rel
##abil
##uster
charles
follows
surprise
wheel
##erb
##itect
##iture
cham
contains
##what
films
distribution
latter
destr
assistant
uncert
drinking
##respond
tournament
63
##makers
##icit
##ading
atm
algor
##aped
incor
reporting
talked
correspond
household
profit
causes
competitive
deaths
flood
dogs
syrian
literally
therap
afghanistan
fasc
hr
proof
agenda
expansion
sym
buildings
squad
injuries
route
algorith
##nic
forum
gross
opponents
slowly
py
ray
sick
theat
##iti
##ache
quiet
underst
defined
##lands
percentage
severe
injured
deputy
perspective
cens
muse
##otic
shots
unus
applied
ourselves
depth
numerous
electr
picked
heavily
turkey
architect
amendment
dad
mouth
ride
forth
desk
transition
milk
tested
correl
exception
defeat
comfortable
split
writers
youtube
cos
cole
driven
anywhere
##road
kevin
combat
objects
##draw
jewish
spanish
bench
neut
##usal
marc
serving
nearby
trading
traditions
unlikely
comparison
dipl
hoc
mi
##16
##edia
suit
bright
somewhat
thinks
prompt
causing
controversial
59
rend
##iration
weird
allen
manning
warm
confident
universal
younger
journey
historical
disappear
manufactur
occasion
conscious
hide
luc
ru
rif
raw
wound
##po
##lets
explains
soul
greg
basket
watched
links
peter
accepted
surveill
sustain
##pa
branch
##ached
dish
flow
campus
authors
denied
cheap
subjects
##iciency
mathem
fab
mm
##ml
##orage
##lying
shall
##osite
unable
adapt
loved
kelly
instru
artist
advent
bills
brook
moments
escape
mine
tree
##oul
isol
stable
pra
trend
alco
assert
##ologist
##whel
##iami
##known
announcement
##oe
##here
inher
##ayer
##ulations
grown
overse
flu
explos
effectively
1998
represents
inspired
allegedly
appropriate
surveillance
57
72
boss
gam
jord
lt
vit
##iques
##icing
sets
listed
steel
fairly
surprised
delivered
immigrants
sweet
estimates
schedule
buddh
races
##bor
stood
enh
acting
server
adds
minim
##elling
territory
marketing
label
multi
attempted
golden
michigan
mountain
uncertain
bin
ht
lord
session
tas
##era
##osph
plug
decent
medium
properties
config
harv
facility
##anny
impressive
registered
doctors
ast
##mates
##12
prince
alert
dozen
emissions
publicly
letters
funny
improved
cyber
davis
expression
progressive
ticket
bang
tan
tab
taught
##iable
thir
##itarian
##iger
counsel
remark
creation
approved
matches
speaker
friendly
teachers
ohio
experiences
constitutional
partnership
pacific
refugees
joseph
58
pir
##bel
button
##acks
ending
barack
victor
latin
institution
queen
confirm
guardian
transportation
adults
cannabis
rupee
pd
sin
voc
wisc
##min
##pir
##icul
lew
scored
scoring
targets
suffering
necessarily
subsid
flying
cooper
tantric
bio
kim
patch
##uable
##rison
spain
agents
somehow
fold
signing
stands
strongly
physics
baseball
selection
colorado
cycle
consequences
paralle
phenomen
diplom
cd
##taining
##idden
##etr
unknown
disag
imper
facts
protests
irish
walked
falling
threats
owls
carrying
scheme
miami
pock
##ien
##ek
##uated
##orted
##weight
genetic
redd
requirements
mechanism
suddenly
circumstances
ga
jay
kil
lies
##ko
##14
repr
overwhel
recording
embr
##onsin
guil
extended
captain
wisconsin
dcs
##sl
##wal
shif
prohib
meat
tea
evolution
drone
index
pover
classes
closely
regulations
galaxy
bath
coc
sister
chosen
aggress
evol
scand
contest
orders
cutting
materials
maximum
consistent
arizona
jul
rig
##rich
##iser
bear
##cher
chick
brian
acts
buying
downtown
##ternal
ideology
matt
approval
meetings
compete
definition
roger
scheduled
jam
sab
sight
##17
##erves
##icide
##char
sees
intention
reput
desire
desper
##ancing
depending
officially
continuing
heads
colleagues
assistance
adopt
palestinian
database
tort
##elines
unemp
reporter
apps
veget
valley
debut
##orrow
mistake
quantum
yellow
ble
##lv
##ck
##pan
##aled
storage
noticed
abc
cruc
struck
colon
directed
promised
acknowled
nhl
divers
jur
kings
sinc
##inity
##inals
##arters
disrupt
worldwide
##ashed
promote
networks
alongside
constant
falls
observed
houses
frequency
korean
fifth
alcohol
jordan
##pe
##arth
soil
manif
blame
holly
calcul
landers
versions
selected
frequently
struggle
##chester
commitment
tackle
succeed
museum
800
eric
likes
soph
##west
stuck
anonym
welf
orient
leaf
plot
moves
elite
winner
topics
espn
detailed
immediate
daniel
scenes
incredible
incredibly
poverty
loud
tel
upper
yog
##otes
angry
regener
##enny
stronger
tracks
drawn
polls
songs
welfare
74
jr
kong
ott
##col
##ingu
##unte
bloom
empt
handed
retail
fewer
opposite
harder
claiming
##apping
shortly
distinct
godd
volunte
recognize
controlled
repeatedly
intellect
liquid
sorry
foss
iq
mur
thin
stores
##asts
transm
passion
deeply
khan
italian
comedy
columbia
drew
liver
ta
tall
##uits
inqu
abd
brothers
mainstream
liberals
odd
cruz
festival
approximately
dub
pushing
rice
##oral
##cho
arts
allies
##ologists
putin
liberty
independence
catal
dedicated
assembly
discrimination
sacr
05
rival
ont
shield
cha
##apse
brut
compens
compreh
disaster
theme
remote
confront
raising
returning
kinds
excess
performed
limits
favour
hoping
narrative
rescue
guilty
dall
iphone
jason
##mond
##eda
##areness
sty
seattle
upcoming
somebody
backed
humanity
holds
titles
##exp
racial
fantasy
temperature
icon
kurd
##bed
##ito
somewhere
##ifications
infect
arguments
##ographic
awes
awareness
recognition
pushed
punish
contributions
mixed
excellent
dw
hen
fraud
unif
grass
crypt
extension
extrem
ruled
risks
elsewhere
navig
catholic
aspects
understood
98
hong
##rd
##ena
clock
client
strik
developer
possession
typical
fields
coaches
racing
degrees
scotland
bike
cere
dc
nar
rating
roster
##laim
##onn
##lla
truck
grav
##ogue
twin
disord
province
condem
dealing
references
romney
academy
hindu
02
fiction
nurs
sir
##night
##imm
chlor
1999
choices
messages
hopefully
conclusion
hollywood
eld
tank
tony
##ded
##sters
worried
proved
##otted
explor
solutions
occur
sanctions
scenario
granted
04
67
bom
bits
##oman
##illy
lean
spo
enth
rolling
earned
courts
headed
sentence
georg
horned
sending
##view
##inations
##illed
dry
##upid
artists
solo
harass
taxp
describe
resource
precise
feedback
properly
subscribe
pilot
explanation
61
68
eb
##aire
##cy
##dy
forec
franch
unw
adam
outcome
formed
extensive
patient
trees
describes
replaced
referred
layer
license
pi
vige
##hr
##mat
##fr
##rey
stim
##ilit
##agan
trig
perce
feat
breed
listening
attacked
exciting
controls
advertising
historic
mccain
nomine
dominant
folks
vigeant
dal
gaz
hubb
lind
pump
reward
whis
##chain
chose
brings
newly
##rete
techniques
250
targeted
priority
surrounding
comprom
hockey
dallas
merc
##aa
##een
##han
##repr
pros
withdraw
strict
goods
discount
technologies
funded
1996
captured
combination
thousand
purposes
duty
stephen
awesome
mak
pok
sid
sessions
##ties
##esy
##orse
##asion
##etime
conce
sole
output
##licit
founded
legend
patri
payments
clubs
representative
answers
owl
virtually
patterns
mirr
unusual
ak
flex
hans
##gg
height
agric
anna
##cover
keeps
musc
returns
regularly
literature
73
nbc
nato
ros
rape
##bell
##alf
##asp
chain
orch
alph
phr
resulting
receiving
minds
losses
emerged
behavi
hyd
ultimate
cycling
apartment
scholars
permanent
##osphere
82
cable
gate
hay
ku
yield
regions
##athan
realized
holy
situations
facilities
versus
replied
journalists
premium
complaint
lobby
alien
electronic
neutral
mathemat
parallel
reputation
agricult
eating
pul
pope
rav
ts
tied
vic
zeal
##va
##isa
ford
anger
outl
manip
marsh
##awa
mole
barr
payment
similarly
normally
lawyers
philosophy
bird
tone
##pg
##ws
ingr
##itar
hash
blocks
boat
contem
deficit
assume
supports
puts
ideal
arrange
entit
austin
templ
congressional
03
76
##lers
forfe
##ched
anx
alliance
sov
##ounced
marked
capit
protected
belief
valuable
resulted
creates
capture
contributed
encourage
bj
cad
dna
pound
sony
tip
##ico
conver
habit
fred
##ifies
abu
compare
amid
hadn
dress
assets
retired
reasonable
collective
enemies
initiative
lewis
##die
##win
##icial
##ayers
asian
weigh
seats
perp
simpl
terrible
circuit
primarily
emotional
tower
complicated
mormon
regenerative
enthus
69
aj
buck
##bar
##sen
##ighters
##usive
lev
fees
surg
locations
matth
biology
relationships
principles
##gbt
satellite
fought
lgbt
pod
##uts
##osis
enorm
loyal
decline
attended
hole
represented
recovery
rapidly
vietnam
vulnerable
enterprise
gym
pad
##40
##erd
##isan
stupid
##owa
manner
myst
guest
engage
hardware
terrorists
corporations
prisoners
installed
ethnic
minority
narrow
08
cod
dod
hurr
vr
ves
x64
##fall
inev
input
rear
prote
##sea
##iment
waste
unn
brows
component
manage
peak
actor
description
obtained
factory
mainly
viewers
anticip
equival
obser
allegations
empty
soviet
##ora
##rect
pron
##igen
suicide
grid
amounts
explicit
prepar
oblig
smo
propag
opponent
informed
affil
discussions
improvement
navy
ukraine
basketball
cited
dust
hidden
porn
samples
##anes
deleg
##keep
##abled
anymore
fool
##ucc
presum
registr
deploy
transpar
careful
1994
apolog
empire
representatives
screens
responses
naturally
iraqi
automatic
enjoyed
lucky
wrestling
aer
gotten
ky
naz
ted
vary
##rid
##gian
##33
##ares
disney
contribute
demands
weekly
reduction
airport
programming
salt
employee
reviews
introduction
celebrate
07
fc
hits
iowa
##hab
##uine
stead
shit
exists
alive
engaged
##riend
##iveness
deeper
strategic
bh
cree
ft
fault
som
thor
##esis
iter
chances
joining
parking
belt
efficient
finds
personnel
requests
raf
reaching
rejected
penalty
cosm
goddess
ale
gulf
##xit
##wart
##arked
conven
sev
frag
saved
outstanding
##acted
exposed
boom
minnes
monthly
1997
threatened
diagn
implementation
cabinet
accurate
exclusive
disagree
77
bunch
cub
gig
vanc
theor
##ouver
triple
modi
legacy
democrat
generate
lights
paint
journalist
elev
principle
manufacturing
begun
adopted
shadow
taste
ontario
minnesota
bak
germ
hud
nich
rick
sed
token
sum
##apol
##sole
blind
formation
shoulder
carefully
prominent
visible
involving
banned
blockchain
collapse
perfectly
utility
tickets
81
ties
tie
##rum
##esc
##ctic
deals
saving
##enders
ads
coins
invent
keys
warming
avenue
profession
practical
routine
nutr
destroyed
chamber
therapy
intellectual
bor
oz
pace
rent
uber
##tig
prize
outs
herit
beta
obam
legs
operate
christie
constantly
pleas
collected
voices
innoc
categories
sherlock
concluded
giants
sympt
vancouver
fert
kur
pill
tut
till
##pro
##celer
console
wash
strip
serves
whereas
busy
processing
covers
drawing
racist
extraord
mexican
ipad
##ihad
87
ax
dou
jac
kiss
##ua
##don
##inter
##inator
rely
##vereign
##pping
abb
sovereign
##iana
strikes
edward
##lete
societ
info
concrete
portion
blocked
ultr
unclear
survive
bernie
garden
sweden
newsletter
matthew
88
bubb
kent
pour
rational
santa
ven
##part
##word
##██
##rell
revel
##osexual
roy
##raid
##elled
signal
larry
handful
##phones
testim
technique
covering
liked
indicate
discovery
exchang
advocates
controversy
sheriff
retirement
unemployment
79
86
jokes
##aid
##ystem
##mo
##pu
##idency
trends
spots
190
publication
promises
footage
statistics
grounds
tomorrow
veteran
destruction
crucial
dir
hamm
ly
lists
##gas
##oric
acceler
##aws
root
boot
conspir
relief
monitor
simult
handling
win64
beliefs
hardly
iii
casual
olympic
hubbard
97
96
wides
##care
##greg
resign
amy
manchester
drones
consens
assass
lawmakers
protocol
1990s
investigators
threatening
citizen
clinical
appointed
equivalent
simultane
bac
fisc
ic
mile
ramp
tenn
##hy
##can
stack
##etts
fruit
gray
whenever
twenty
formal
soccer
elsa
brexit
campaigns
bias
suspended
sensitive
achieved
migrants
resistance
tactics
negotiations
600
cogn
gains
oreg
##fire
##jan
##oning
##vey
##opher
alter
##ivals
plastic
outr
bron
##iano
##ecess
##orship
depends
bars
passes
laid
solve
organized
hunt
islands
electricity
accompan
barely
uniform
hurric
oregon
dance
gained
lun
pent
##bour
beij
chel
##estr
external
uncon
uncom
##ibr
##ibilities
marks
##sels
genuine
offices
##inson
machines
recommended
aimed
industries
besides
atmosphere
reddit
beijing
sams
wine
##stal
spin
plain
doz
enable
##endum
closing
upset
scan
afraid
##icks
attitude
bug
define
smile
efficiency
anne
courtesy
processes
argues
physic
rounds
##aska
visitors
producing
holiday
fortun
horse
mosc
algorithm
uncertainty
franchise
83
84
dun
gor
gift
kin
pence
wages
##bec
##15
##py
##pread
##acare
##season
asks
ark
intense
ministers
format
absor
participate
challenging
##burg
patrick
pocket
obamacare
widespread
700
hired
lam
##su
##fit
confer
noting
notion
abstr
doors
crow
##auc
pregn
buzz
##ressed
##print
estate
1995
lowest
investigations
immune
##sylv
referring
##under
ranked
rarely
ruby
spiritual
pennsylv
monitoring
1st
78
gonna
lens
wis
##bing
##top
thick
##stit
##umin
plate
prey
inval
proven
explore
delay
organisation
landsc
generated
activist
privile
snap
entering
distributed
trek
suffer
delivery
implemented
producer
wonderful
chicken
moscow
bail
cul
dick
echo
fulf
hint
##iat
##inem
toy
##alia
##ashing
##ller
beating
shout
trillion
meg
components
##ounting
exposure
##aches
hern
interaction
shell
recipe
thrown
mini
monarch
seemingly
programme
successfully
massach
banking
pettig
engineers
permission
establishment
aggressive
enormous
pettigrew
09
waves
yard
##woman
##thr
chip
exceed
albert
##usetts
##apore
crown
actors
joy
reducing
universities
singapore
suspected
struggling
stanford
legitimate
warrant
incorpor
massachusetts
dur
punch
tay
tri
##umes
##actions
repair
marco
##uctive
presidency
throwing
avo
scientist
attempting
expectations
introduce
logic
recognized
inspect
settlement
graduate
ignore
horiz
temporary
surgery
pennsylvania
eag
hou
pit
roles
##born
##pool
##iner
toler
##etics
ups
incidents
personality
##otte
##engers
singing
##ova
devast
circle
silent
indicated
cameras
apparent
platforms
georgia
nominee
bass
jets
ri
ry
vl
##aria
##ione
##lyn
##ima
fee
##berry
rook
everywhere
regulation
transit
superior
benefic
summit
addressed
corporation
heroes
odds
proposals
##agram
dinner
subsequent
treasury
dave
hitting
josh
jihad
rus
terry
vital
vector
##oying
##wan
##ja
##olit
trave
##andez
brill
loan
marvel
containing
endorse
##ikh
swim
estimate
exclud
surely
convin
interviews
referendum
rocket
automatically
expanded
prosecutors
innovation
cowbo
##otype
featuring
dozens
cig
lying
tips
wolf
##ni
abroad
202
grade
polar
roots
invited
monster
studying
centers
heading
euro
ballot
engineer
touchdown
conversations
ridicul
farmers
rifle
fiscal
##lah
##east
##endo
grab
incomp
marine
phones
carn
assad
guitar
discip
elig
artific
extend
behalf
array
deliber
steam
visited
landing
divided
silence
websites
iranian
walker
berlin
vacc
bullet
gathered
prosecutor
pipeline
turkish
sciences
consciousness
reprod
smooth
gent
mit
x6
##eters
alan
##ipedia
drunk
partly
knife
##urray
barcel
feelings
189
violations
furthermore
suggesting
fallen
statist
stayed
participation
settings
cooking
dutch
ratio
skept
makabe
zealand
samsung
dict
jury
##och
##ses
inequ
revers
stun
forever
shah
tries
leon
##ials
recip
mining
fled
##aham
denver
temp
##umble
birds
scandal
92
cort
gut
hd
kitch
lane
oak
rab
##oot
##fast
##ala
stake
stages
anton
deaf
butt
anybody
economics
attacking
immun
restrictions
jews
fantastic
tonight
implications
substantial
corruption
overwhelming
convinced
94
jere
kl
mitch
ot
pale
vert
##rog
shipping
##udes
justin
interior
blow
desert
surf
harry
##tenance
importantly
argent
creator
judges
1980s
popularity
walls
robot
1970s
oklah
tweeted
analysts
javas
fel
mild
##met
##uild
##ries
chat
##iev
scope
worker
roof
##veland
colors
metro
cream
ordinary
admit
receiver
equally
equality
##feld
improving
respectively
fears
prepare
printed
entrance
borders
opinions
occupy
procedure
hawaiian
instrument
remarkable
yoga
trigger
testimony
cigar
barcelona
javascript
2nd
nod
##50
##water
infer
trained
2020
replic
drama
firing
##graph
centuries
persu
persons
proph
concert
glad
##lessly
rhet
finger
breath
forfeiture
awards
pel
tum
vet
##zy
prol
asyl
exit
clash
noise
##ensity
firms
opens
remarks
gene
autonom
cleveland
##ika
intervention
hung
managing
##arrass
commissioner
diseases
accomplish
acknowledge
carlos
guidelines
manifest
innocent
bind
kansas
qa
##bod
##80
inner
##oming
##see
deem
##ulating
lect
unions
syd
##ateral
studied
annivers
streaming
midfield
foods
epic
inflation
consideration
speaks
acceptable
embarrass
utah
sustainable
fossil
inquir
ingred
89
fisher
han
mp
tub
ug
##hd
##ji
##isons
##omes
sus
suite
spaces
##ouri
scout
##gression
underm
invasion
colour
##xture
reader
##leton
maintenance
populations
technological
calm
salary
investigate
sixth
protecting
disturb
portr
picks
sufficient
complaints
indiana
wealthy
framework
assessment
municip
venture
abandoned
oklahoma
asylum
dies
wise
##mun
##eria
inch
##uten
stations
##iler
##ills
shirt
exempt
alab
craw
quoted
blast
##athy
pointing
module
setup
delhi
firef
cycl
balt
contracts
legislative
roman
psychological
predicted
waters
encounter
dramatic
registration
consensus
chelsea
dump
hip
jet
mt
rou
vig
##vp
##24
20th
acid
overcome
##uces
moderate
transg
requested
arrive
entrepr
voter
wales
breaks
homosexual
eastl
demanding
improvements
episodes
brotherhood
pupp
maryland
structures
phenomenon
extraordinary
houston
entreprene
hed
hamp
lunch
por
toxic
##ali
stl
##abet
reserved
overs
attached
symp
flick
musical
viewed
globe
improv
declar
illness
mechanics
affordable
atlantic
appreciate
diversity
cbs
hes
lux
ml
nu
nur
osc
##je
theories
##ader
sean
lever
grabb
instant
depression
memo
headqu
profits
swift
fundra
competing
judg
biological
homeless
hybr
##haust
commander
producers
ownership
lady
montreal
kirk
sydney
anniversary
4th
fame
fighters
gem
gdp
##mate
##aron
##esty
##agger
drove
bold
designer
missile
questioned
trem
virus
urg
ranks
counterpart
arabia
encouraged
lobster
horror
dependent
wounded
tasks
cowboys
06
ka
mant
##dam
##dog
prest
haiti
##ipts
grind
compat
vegas
engagement
swing
arguing
failing
titled
civilian
consumption
##inois
survival
examination
semi
burning
mistakes
adviser
sarah
interpretation
involvement
imperial
capitol
71
bust
cav
citing
dos
dates
dating
gott
lyn
pink
rural
sr
ze
##fare
stored
exhaust
##aping
usage
drum
relation
relax
contribution
##bridge
##nedy
visiting
neck
broader
eggs
integrity
conventional
residential
anthony
manufacturers
mirror
nutrition
symptoms
conspiracy
dual
diam
maps
tape
ward
xbox
##13
##s
##inction
##icon
##ication
forb
##adel
##osc
notable
##unction
unr
unexp
##iah
export
displ
myster
indigen
contained
underground
politically
hook
membership
investigating
violation
millenn
civilians
connections
hoped
drinks
demonstrate
purchased
diego
temperatures
seeds
kennedy
contempor
inequality
alabama
gif
hire
ter
tes
um
wings
##ti
##etch
inclus
coin
loose
blank
startup
stepped
##backs
void
obsc
languages
demanded
arena
sweep
##kyo
expanding
##burgh
doctr
bonus
swedish
guarantee
indigenous
bour
ib
murray
nin
##kh
##itals
reverse
##acc
##imp
chord
una
resem
overt
preced
##angel
##iox
reads
hob
menu
involves
convicted
difficulty
strategies
computers
racism
ratings
submitted
replacement
charlie
emphasis
ee
ji
pitt
vel
wol
##fol
##alo
nev
##eman
##oko
crop
interse
##away
##ucking
assigned
contrary
subur
powered
insert
designs
distingu
deadly
burden
roads
searching
towns
promoting
graphics
alexander
battles
buddhist
elder
phrase
mystery
conferences
unexpected
93
cm
dol
hub
locked
nerv
##dd
##istent
butter
adequ
##ibutes
##iang
accomm
##anged
120
authent
libert
operator
antib
departments
presentation
employed
suspic
objective
hosted
functional
focusing
indicates
defeated
acknowledged
comprehensive
hernandez
taylor
accommod
diverse
pounds
sant
##yer
##person
stir
sect
shocked
chad
##uma
##elle
clients
aga
appe
interrog
nowhere
assign
investments
childhood
##ucky
facilit
##shop
illinois
1960s
neighbour
preparing
laboratory
container
emotion
junior
forgotten
occasionally
anonymous
perceived
poké
entitled
cats
fate
fuck
gn
nat
##lu
##cro
##39
##olen
dear
##ili
abilities
spoken
##apher
##endous
clothes
intim
repeal
coh
defender
warn
communist
performing
picking
divor
absence
coaching
speakers
philipp
settle
ecos
cooperation
instructions
dialogue
flavor
overseas
rookie
jeremy
transgender
bump
bible
cous
ein
lift
##car
threw
anderson
##oto
stability
forcing
##ami
comics
unh
parks
lawr
##ierce
builds
missouri
cambod
commonly
collins
reveals
##uko
concepts
correctly
hypothes
ranking
taxpayers
invalid
landscape
kitchen
ecosystem
cauc
cinem
hence
pix
rome
rah
riot
##gar
inject
##aki
knee
campbell
filter
insisted
##riers
restore
irr
classified
1993
21st
volunt
targeting
contacted
greece
refugee
pursue
wireless
harvard
sincl
hurricane
artificial
bread
cs
gord
tang
torn
##lar
##theless
##ilton
arc
timing
##enson
##icking
discour
differently
##itsu
lets
nevertheless
movements
healthcare
1992
api
additionally
discussing
hunter
constitu
settled
editorial
spectrum
athletic
wikipedia
theatre
juris
arkansas
rhetoric
hybrid
borr
danny
ease
ric
tai
wider
##bul
##erce
##eries
tokyo
##itors
reign
##othing
std
pride
nel
aged
crick
##aching
counts
supplies
teammates
courses
senators
posting
sandbox
hearts
soldier
consistently
athletes
highlights
dynamic
fabric
chaos
brilliant
sinclair
dying
kit
lav
sorts
vamp
##arre
stere
##the
chuck
fro
adams
upload
coher
##ails
moore
opio
smoke
discont
##eney
corps
infant
secondary
maintained
productivity
summary
malcol
approaches
telephone
jacket
layout
tweets
sprint
unpre
honestly
upgrade
henry
malcolm
jar
lag
ng
ross
##lings
##zing
##wa
##oux
##ouch
stolen
##sell
shaped
notably
ages
incent
margin
mold
worlds
smell
legally
##iko
##phia
insight
releases
starcraft
lineback
dominated
publ
damaged
burst
legislature
inspiration
districts
embass
nomination
merkel
reforms
licens
loaded
graphic
bureaucr
html
torture
compensation
harassment
propaganda
theoret
##apolis
simultaneously
##croft
lawrence
nan
nsa
##list
##mail
##­t
##orious
##thood
shir
strain
sheet
everyday
transaction
openly
110
explaining
admission
1990
christopher
##comes
rooms
interviewed
emerging
promotion
defendant
awarded
bombing
preferred
segment
pledge
punishment
browser
abstract
headquarters
bam
golf
nca
tu
wo
##orous
##leans
delic
leices
##acking
enfor
arctic
adap
perry
quote
interface
strang
actively
underlying
defending
mineral
supplement
schm
smoking
instagram
##athers
helpful
##mann
reds
insult
lineup
associate
execution
convince
tracking
bankrupt
shooter
scratch
jean
queens
cameron
wondering
ignor
integrated
brewing
acquired
koch
palestinians
mortg
playoffs
minimal
anxiety
ncaa
au
hood
ist
nest
rt
tables
wet
##fers
##aly
##icate
##rets
beings
dean
nex
unve
ally
moreover
##izab
afp
knock
reck
lesson
designers
pressing
superv
badly
winds
measured
##flix
hunting
commentary
unfair
documentary
##lihood
flights
controller
veterans
recruit
thorough
ridiculous
judgment
aaron
bent
hi
ios
mamm
sits
##pal
##wich
stance
shame
##aka
cro
cra
coinc
##aug
commerce
accus
backs
backing
obtain
charity
caps
greatly
speculation
surge
elastic
mississ
stops
austr
educational
advertisements
regulatory
hacking
weakness
neighborhoods
subsequently
decreased
rendering
bathroom
muscle
germans
heritage
dirty
##adelphia
leicester
boun
km
lor
##zer
theft
priest
##apers
clark
bru
scared
recre
poison
polling
wanting
talib
engines
laur
appearances
certific
##shire
christians
##anna
judicial
deadline
answered
considerable
awa
approached
##ollo
capitalism
managers
hydr
criticized
meaningful
struggled
substance
aims
supposedly
containers
loading
witnesses
coordinator
oxy
widget
brooklyn
outrage
7th
91
ai
bm
fits
fighter
gamb
jenn
pp
vend
##bury
##aus
##eing
##eys
##zel
##jo
seiz
enroll
canon
grace
grave
graham
imposed
attending
electoral
##boy
holl
netflix
apollo
billions
executives
packed
archae
pictured
influential
philadelphia
rhy
snowden
assumed
stephan
interactions
gallery
eliminate
sequence
pdf
kilomet
desperate
sophistic
kentucky
cb
cum
dian
ferr
rit
##bow
##nc
##net
##vent
##utive
hab
##kee
traged
##anted
##eland
arsen
perception
quit
fires
reliable
remov
insist
lessons
arrival
mrs
libya
empower
excuse
##teen
##ographer
##ompson
verb
spokesperson
embed
derived
lifetime
motivated
procedures
hawaii
dismissed
adventure
bloomberg
gravity
stimul
explicitly
exchanges
nervous
jurisd
ay
kerry
nak
pending
##no
##cos
##gie
thompson
ine
inaug
##isations
##omed
stal
stating
asp
sections
sauce
peer
dragon
overl
indones
poet
##inking
accum
asset
keith
elizab
letting
confused
talented
funeral
missions
raises
snip
urged
petition
exceptions
sensor
medicare
##ubbed
rolled
demonstrated
peaceful
jumped
lobb
##itzer
wheat
migration
ranging
variable
prospects
pyth
vitamin
striking
gaza
compromise
behaviour
enthusi
deemed
contemporary
elizabeth
biz
dv
goth
ni
rosen
tong
tens
tune
##hand
##dale
##state
spark
manual
deserve
monet
paras
##isms
followers
oppose
steven
##attan
choosing
damn
physically
matching
1980
buried
functionality
influenced
pollution
pulling
rebel
boxes
mountains
ignored
trials
occupied
errors
gathering
savings
stanley
guaranteed
guidance
adoption
societies
3rd
gest
jane
mps
nap
sv
yan
##pc
##enz
##itudes
##eted
alaska
reserv
evident
loop
##look
warren
proportion
camps
refers
harris
variation
tradem
ceiling
couples
awful
staying
egg
kicked
substit
escal
channels
experiments
tunnel
fingers
surprisingly
enhance
kurdish
prosper
municipal
bib
bone
kenny
mud
ufc
##post
##60
##onia
##urity
ank
leak
##emic
prox
imam
donors
highway
provision
tale
engaging
revol
raj
singer
epa
treaty
combine
panic
momentum
attorneys
repeat
duke
shopping
exclusively
explosion
liverpool
disorder
eligible
intimid
dil
dawn
hier
sque
##gun
##86
shed
chocol
##agic
leaked
spotted
nose
howard
preference
relie
longtime
passive
passenger
chron
harper
morgan
salv
encry
1989
regarded
##etta
birthday
puzz
correlation
##arthy
##laimed
tremendous
pokémon
embassy
bc
bun
bah
dj
ecl
gand
mol
maker
pear
qb
sod
tons
tired
##──
##asters
##lli
seized
abund
##ela
cluster
manh
servers
probability
respected
confusion
affair
visa
generations
latex
reviewed
misc
documented
frequent
analyt
burned
encouraging
ambass
suspects
louisiana
jonathan
java
fascinating
isolated
ottawa
presumably
tennes
taliban
0x
bother
baker
cord
gary
ld
lau
mour
nie
##tes
##life
##har
##mes
##uj
##gy
##war
therm
##aro
inbox
##itivity
andre
##olo
##oded
orth
##apes
exped
guests
finals
modified
##cedented
##ucker
walks
noneth
geomet
##ippi
deny
hitler
checks
describing
volat
1988
earthqu
garage
jerry
surviv
examine
advocate
sioux
clinic
hanging
sponsored
marginal
crystal
vocal
vegetables
transmission
unprecedented
nonetheless
jung
nit
riding
rivals
tier
##sch
##ón
##esa
##omial
stats
##cht
##ila
##aga
orbit
##ortions
abol
spy
evac
genes
gameplay
ordin
180
preview
promising
killer
facult
##shot
cops
administrative
representing
1986
conservation
curious
scrut
intelligent
demonstration
utter
##iosity
occasional
beauty
surrounded
restaurants
mathematical
##bourne
qaeda
tennessee
cock
dup
gee
holes
pas
pist
rivers
torr
va
##iw
##uating
theater
bever
whist
orland
align
##ifer
bruce
evangel
mycroft
recon
consol
obst
studios
demo
barrel
refr
patent
pleased
audi
representation
credits
robber
wedding
parker
##attered
alternatives
revolutionary
fleet
atlanta
egyptian
collaboration
ingredients
ritual
bizarre
bapt
fer
nash
pig
pension
sized
tends
##burn
##ho
##press
##arity
##iller
shorter
##estyle
fried
##agu
trapped
meal
bra
crush
19th
keen
endors
formally
signals
refuse
stein
steal
organic
fundament
fails
minded
inflamm
panels
periods
1975
chancell
traveling
neighbors
darkness
rebels
##worth
jerusal
initiatives
proceedings
renewable
disappointed
precisely
deployed
tesla
mississippi
arsenal
jerusalem
dash
verm
##oen
##eas
##mi
##map
##row
##gi
##ester
##anth
##adim
##igation
alice
unt
outlets
composed
##active
evans
incons
##berts
recession
##eck
deck
charter
handled
prototype
header
requiring
greens
robust
communicate
spokeswoman
woods
dreams
synth
parenthood
buffer
publishing
resolve
desktop
brutal
iterator
##donald
oakland
declaration
frozen
craig
aur
jess
kas
mock
ns
nons
ough
##eb
##fa
##enues
##eding
reid
shore
##ando
sake
uncover
arbit
outcomes
meets
loves
bund
flip
##ella
warfare
transactions
certification
blacks
traded
##ophob
copies
significance
divide
absent
girlf
nationwide
silicon
beaten
restrict
occupation
experimental
qualified
fatal
shelter
recommendations
olympics
charlotte
azerb
diplomatic
embrace
bacter
pentagon
ambassador
orlando
bip
cc
cinc
ging
gil
mall
##olling
##hal
##hire
##uity
##will
##inite
rewards
stamp
stabil
##aying
##imb
##ira
##ilateral
convert
consec
##usc
leap
crude
feb
blues
descript
donation
assists
depos
##ixon
capability
signature
metrop
passengers
humanitarian
occurs
divisions
hosts
angle
printing
dispute
produces
permit
arabic
impression
rankings
assuming
tynd
parameters
cocaine
agriculture
inevitable
abbott
appeals
aston
benn
bones
cave
fare
furn
tib
vp
ware
yah
##100
##29
andy
##asm
anarch
##agers
orleans
worship
griff
compound
##grad
boards
donations
earning
slide
##ahu
barb
maintaining
researcher
harsh
euros
performances
shoes
figured
beneath
distant
males
collaps
1970
respondents
journalism
requirement
rebuild
accomplished
fifty
wikile
frustrated
newsletters
##ycle
prompted
manufacturer
accompanied
mysterious
doctrine
taiwan
tragedy
manhattan
ought
arbitr
azerbai
cincinn
tyndall
bash
cbc
hond
lap
niger
ub
v20
##oop
##zi
##xx
##itative
##station
heck
##oln
ships
##aved
accord
undert
supplied
guards
contrad
capabilities
188
1991
lands
##olds
malays
dropping
curve
texts
1965
chairs
bottle
##zza
brandon
championships
chemistry
laughs
principal
households
electrical
styles
professionals
python
chocolate
consecutive
wikileaks
900
dm
eager
linc
lyr
sd
venue
zak
zomb
##bian
##pers
##erity
##erning
##ington
##arms
todd
##entions
recept
stall
cheney
##ocl
##iva
energ
usc
clothing
compact
nobel
phant
consent
decor
reluct
demol
101
simon
realistic
directors
developments
headlines
invested
possess
passage
maine
grey
epid
accessible
checking
##ynth
sandy
painful
acceptance
packages
addressing
##holders
restricted
##iciently
quantity
submit
retrie
feminist
plugin
bjp
publisher
sophisticated
lincoln
bart
masc
##iology
##tains
##mony
##nbc
##gust
##onaut
bears
##ateur
triang
##ante
##acked
outdo
reply
partially
overd
overnight
demon
shoulders
courage
barn
chronic
irre
stewart
visits
operational
criteria
amongst
canadians
curiosity
casting
remembered
complained
smartphone
impressed
conflicts
briefly
casino
carries
##break
observations
tears
cryptoc
leonard
inquiry
chancellor
cincinnati
aqu
cake
foster
hitch
lions
pond
silly
tam
witch
yu
##base
##fo
##­ing
##power
##34
##36
##isive
##aya
##imore
##olas
##opes
brus
gro
crops
##acha
poland
commod
contents
deserves
wright
obstr
regret
subtle
owns
modest
slam
corp
filing
bitter
landed
violated
checked
destination
##rupted
analyses
spirits
examined
counties
ancest
variables
attendance
molec
seventh
argentina
baltimore
hedge
nexus
bic
duration
f1
lik
mice
mouse
rug
tent
tig
tamp
##pie
##inge
beef
haz
chim
chop
chest
unm
teeth
resort
partial
disgust
quad
interim
reconstr
flowers
remed
##umph
providers
elective
productive
##plus
delight
receives
nightm
nights
identical
collecting
greenhouse
sensitivity
hospitals
ethical
countless
transformed
constructed
allocator
praised
colonial
dublin
forecast
template
pronounced
bubble
wisdom
opioid
hierarch
ct
lined
mg
md
mack
nint
roth
rbi
##lie
##name
##esth
##arios
toss
##isco
##reen
whit
stocks
leban
hispan
expense
drought
##owned
twel
emer
phoen
presents
reloc
provider
187
arrests
calc
bases
socialist
departure
employers
1984
replacing
expects
bloody
respective
maxim
celebration
integration
duties
constructor
detective
ronald
accuracy
marshall
beneficial
discipline
luxury
indonesia
nintendo
fm
mls
node
##upp
##father
##itories
##isk
##amine
##ching
##odox
sued
spider
sax
safer
une
unre
unreal
##ears
##endar
compuls
##ogether
aging
##aukee
##quest
workforce
##aving
counted
preserve
backup
edwards
wells
releasing
airlines
sketch
delayed
nether
operators
investigated
militants
uran
absurd
neglect
drops
painted
heaven
speeds
wildstein
struggles
routes
scenarios
prosecution
sudan
removing
melbourne
displayed
recalled
brazilian
margar
dramatically
praise
tanks
ceremony
preparation
screensh
lunar
grabbed
faculty
5th
ald
db
dy
diox
dubbed
gosp
liv
lapt
mes
naked
sig
sier
uri
##iop
##tz
##ports
##arn
##itic
reagan
beast
##acles
hem
anime
##oper
chase
alike
butler
unac
unpr
cancel
##hero
ampl
blu
indians
defended
flower
genre
generic
clever
projected
viable
140
equipped
keyboard
averaged
addresses
essay
semin
occasions
bulls
attracted
bulk
juice
evaluation
structural
concentration
evolved
exploration
ultra
crowds
privilege
discontin
laund
bish
beng
fierce
gore
lb
ling
lan
lamb
pse
rings
samp
slo
tyr
vene
x7
##bage
##ean
##mith
##kk
##waukee
inhab
reh
neil
compelling
expenses
intercept
indie
roberts
mood
desc
addiction
flour
wayne
instances
norwe
filmm
##string
possibilities
concerning
milwaukee
testified
lesser
186
stev
devoted
sanct
existed
quebec
1967
layers
complain
ethics
##rooms
scottish
baghd
jefferson
interactive
dimin
cartoon
architecture
disappeared
victoria
steady
einstein
baghdad
cache
dang
rud
ss
saint
ti
##ao
##vi
##igue
shan
shake
chips
alar
cancell
grip
grants
reson
resigned
ambit
amateur
##ogy
strat
marines
##onduct
impl
parad
finishing
probabilities
moder
deter
win32
opposing
125
particles
technically
colleges
sentenced
##owski
portfol
radar
suspension
characteristics
palm
participated
mounted
measurements
feeding
translation
acquis
intentions
shocking
memorial
vladim
rouge
yahoo
cryptocurr
vladimir
bt
bog
ferg
mb
mim
sne
tak
vik
##iac
##lined
##hall
##ng
##cons
##wall
thro
##atism
##oration
##omo
##omy
##urance
##irical
##ols
whoever
likelihood
dressed
##iley
blitz
afterwards
secular
suppose
profound
pressed
editors
glob
multip
homeland
expecting
churches
searches
responding
poorly
criminals
tablet
cleaning
madison
##heim
cycles
spreading
lifestyle
defenders
folk
philosoph
altogether
satisfied
trailer
census
configuration
chlorine
diamond
brussels
tigers
dioxide
norwegian
cot
dip
eve
fury
fiber
gad
ian
lone
lisa
mh
pose
powd
rr
rocks
v4
wy
wore
##lan
##lav
##uably
inches
##asive
stom
static
delet
trophy
##ocity
sak
##ardi
comparing
beck
##ensen
monsters
genius
ears
memories
breast
believing
barry
128
##riors
preval
recordings
traders
##ipper
##text
cheese
educated
archive
worthy
animation
fastest
catastr
psychology
babies
hyper
advocacy
bags
unfortunate
horrible
rangers
achievement
jimmy
sustained
motivation
sponsor
carrier
solely
protein
nazi
rafael
tutor
sovereignty
gotta
linebacker
whistle
catastroph
ger
hiring
rated
wwe
zones
##oz
##iary
##iors
##mans
##ram
##page
##35
##jud
##orth
##eds
reass
##step
prix
prayer
trap
clou
outer
##ouses
evie
offseason
scroll
disabled
loving
seeks
carter
suppress
controlling
showc
warriors
##ahn
viewing
130
arguably
gods
treating
searched
surveys
traveled
celebrity
experiencing
survived
defeats
politician
tribe
qualifying
flags
scholar
kurdistan
infection
transparency
##stitution
hesit
pitts
mortgage
removal
ineff
gospel
bot
cpu
lip
mate
nag
rip
vow
wip
##rie
##fw
##fish
asc
shin
##agen
enabled
brush
grac
##pton
dispar
quarters
knocked
##uctions
phill
backl
10th
##aze
retain
turner
115
##news
exploring
refusal
haram
harrison
calendar
simpson
cleared
appearing
taxi
hugh
caution
lighting
suggestions
protections
distinction
radiation
screw
circles
accepting
garc
enjoying
revealing
immigrant
heroin
affects
tendency
reactions
emotions
laden
sporting
watson
gardens
##anyahu
censorship
bombs
alpha
pregnant
alberta
carnival
antonio
vertical
autonomous
gordon
oxygen
girlfriend
apt
boring
dere
fib
npr
pier
pony
ruth
sib
tensions
zoo
##front
##zuel
tomb
ing
##rels
pri
pricing
seam
shy
##uson
##astically
thereby
##acts
##inder
scor
drill
supporter
medal
##erald
poster
oldest
investor
netanyahu
federation
securities
dealt
esports
announcing
davies
blocking
launching
difficulties
awk
robb
logo
verd
tenure
boyf
psychiat
dispos
mechanical
recovered
polyg
hamilton
atlas
penalties
magnitude
hrv
forums
oriented
volunteers
disorders
whiskey
delegates
divorce
trademark
phantom
phoenix
venezuel
ambitious
ferguson
bod
dign
dumb
fucking
hatch
hann
kal
v5
wade
##hamm
##22
toll
##itably
betr
belo
##uting
triv
tragic
unity
##asted
##endra
clip
grim
##achel
drives
loans
justify
mario
##itty
bugs
metall
winners
##prop
optional
##appropri
strongest
creature
firearms
portra
custody
cheaper
robin
connecting
##limited
honour
hunger
##udeau
castle
documentation
sweat
safely
clicking
reflects
sadly
palestine
innovative
oxford
luke
astronaut
threads
incorrect
severely
narc
condemned
cognitive
broncos
##olitan
unrest
hypothesis
ignorance
monetary
gandhi
pseud
pittsburgh
dor
gab
js
pend
pause
pont
##city
##anim
##isible
##icia
##omin
rever
##idal
sto
pries
##igo
##chron
anch
weaken
hav
##agh
unlimited
##asty
##ipse
timeline
justified
commons
playstation
##eryl
belg
instantly
longest
modes
founding
economist
steep
##appy
questionable
southwest
conservatism
billionaire
citation
logical
laying
fitness
kicking
linear
organizers
comparable
limitations
shelf
exercises
parliamentary
advisory
flew
tuned
rushed
buffalo
segreg
hatred
thirty
institutional
##minth
ebola
##keeper
kurds
uncomfort
##through
statistical
ugly
hampshire
oscar
nelson
consolid
netherlands
bite
dot
dive
gp
gates
hug
naugh
raz
sons
vague
wand
##bb
##iating
##ros
##jack
tok
inse
##urg
##ads
##estone
fract
atom
trudeau
##ifice
tefl
compass
##izer
likewise
actress
##000
##ucted
counting
desynth
synd
flaw
provisions
metab
advances
freely
admits
prevention
costume
liberties
##beat
nonpro
##enna
1000
competitors
denial
summar
declare
prediction
telecom
impacts
computing
philip
wildlife
touched
historically
demonstrations
flynn
tourists
switched
translate
dieter
witnessed
transferred
pinter
appointment
laser
newspapers
exhibition
instruments
pirate
jamie
iconic
nursing
fertility
intersection
adequate
warnings
rhyth
eclipse
##eastern
priesthood
teflon
ave
aub
kel
ned
vw
##oa
##eera
##eri
##erk
toe
##lled
rewr
whites
conway
chacha
##ighth
##ocal
plaint
##ibe
clust
brands
##izza
twist
append
105
respiration
##azi
artic
humor
184
raid
160
availability
1987
1983
palin
friendship
misle
##ettes
uncle
jazeera
tourism
merch
instruction
##cules
sixt
applying
adjusted
harmful
evaluate
##agraph
publishers
##guard
substantially
volunteer
excessive
hydro
hydra
agricultural
unnecess
horizon
endorsement
nevada
cambodia
seizure
scrutiny
twelve
emerge
sierra
6th
dys
hart
hog
hiding
jpg
kan
moss
mothers
nc
sizes
##eem
##hum
##riet
##gate
##lee
beaver
##acular
##urai
##aments
conj
##opa
fraction
##ardo
resume
imf
composition
aggression
scary
partisan
interference
workshop
indirect
##aware
carson
assured
eddie
belgian
endang
##ologically
probe
helminth
##lett
metaph
continuous
infected
popul
considers
midnight
entities
johnny
russians
cultures
motors
cheer
civic
palace
wallace
correction
indication
##world
##monton
ladies
batteries
ranges
mandate
astronom
breathing
encountered
frustration
feminism
pledged
algorithms
mathematics
arrangement
triumph
temple
sympath
mantra
displays
certificate
batch
fet
hors
kay
nik
nixon
pork
rubb
sends
v8
##hl
##math
##names
##uum
##és
##words
##ía
##onz
##ori
toys
##aser
beers
beans
##irs
helic
shakes
##ulative
alarm
reserves
ammun
peers
twil
themes
polish
consists
paragraph
buses
elabor
##crack
retained
currencies
mainland
problematic
profiles
greed
terminal
marketplace
kills
filming
portal
execute
breakfast
balls
females
1968
independently
balanced
attributes
indicating
romantic
assisted
khmer
rapt
ensuring
mobil
surrog
1950s
advantages
highlighted
broadcasting
##ulsion
abandon
mixture
##walk
orientation
##onnell
outlined
perpetr
loyalty
eagles
oversight
bankruptcy
austria
embedded
vermont
compulsory
unaccept
stomach
plaintiff
ammunition
burr
dak
fishing
gt
hz
ja
lac
mitt
makers
rushing
sic
slic
til
##ais
##mal
##uates
##km
##rix
##erving
##itis
##star
##amy
##opp
altered
leather
doi
groc
##izations
herald
recount
acted
impose
edmonton
goodman
median
##ussion
detention
breach
headline
investing
revenge
poses
pressures
debates
namely
equity
portable
trait
##mingham
##umbled
civilization
predecess
hosting
participating
1979
turb
verify
separated
expertise
rebell
dispatch
professors
promoted
meantime
closest
athe
jumping
1945
attractive
acquire
laughing
pursuing
montana
pilots
bradley
spells
chemicals
##iasm
shifts
molecules
podcast
transparent
stunning
fundraising
counterparts
compatible
cricket
tibet
zakaria
uncomfortable
bb
binary
cass
diver
gb
gib
lion
lust
pione
sink
v2
wiz
##hu
##maker
##found
##western
##arians
ink
inhib
##isers
fore
trim
##osa
usb
grate
##ueller
manus
##inea
nood
quotes
moham
carp
##issa
##seless
colin
endless
##urred
startups
deport
mete
advised
12th
##bron
ideological
airline
listing
chrom
authorized
morris
huff
stopping
##ippers
privately
devil
lightning
understands
violate
spacecraft
##byn
urge
mcd
citations
norman
curry
sharks
1969
eleph
priorities
birmingham
interestingly
celebrated
prevented
burns
strengthen
challenged
libraries
allocated
conclude
concentrations
katie
thirds
##uccess
libertarian
cousin
bmw
jurisdiction
evangelical
nonsense
bennett
twilight
cure
css
fn
gw
kab
lut
mans
pizza
rasp
tc
tension
tube
##note
inappropri
##lements
##chen
debr
##thur
troll
##umber
##udge
usd
cliff
bryan
##troll
manga
noah
overr
##itement
workplace
blond
blamed
commands
indo
prelim
pharm
reli
assange
warner
deployment
cape
slot
annually
revenues
##lessness
formerly
##shore
practicing
holder
magical
creatures
portland
musicians
mcm
painting
hostile
focuses
queer
buyers
defining
determination
animated
inspector
mcconnell
downloaded
drafted
manufactured
hello
reflected
360
assumption
kidn
pcb
##block
detection
pursuit
photographs
lieuten
dialect
##avery
mutual
isolation
devastating
sectors
philippines
infantry
accusations
lobbying
ankle
earthquake
helicop
911
bucks
dirt
fda
gill
gaining
kyle
len
nun
ome
piano
##rin
##25
##99
isa
##uro
##ims
##chi
trace
##oshi
spike
unst
unanim
enrich
brid
unders
underway
suppl
guild
infinite
insane
##inski
185
effectiveness
severity
raiders
secured
cease
reasonably
southeast
superhero
portug
cyn
titan
sensex
executed
sooner
hungry
cardinals
traditionally
##uki
filling
sexuality
franklin
optimistic
athlete
mentor
tactical
reminded
climb
eliminated
vietnames
inherit
harvest
condemn
swimming
unveiled
habits
portfolio
unacceptable
vietnamese
bou
ds
daw
horm
houth
kate
kern
lamp
lazy
mason
m19
mvp
pine
rust
tempt
##hill
##mn
##ci
##zed
thai
##inces
bearing
wholes
stark
##ilers
sel
chains
sue
##keley
trips
##umer
leagues
whats
##uber
stressed
blade
##icked
imprison
contam
secrets
attitudes
invisible
wherever
smugg
102
##ugos
slog
slower
norway
revised
barg
designated
greene
affir
##beit
northwest
salaries
##ophys
intrusive
environments
screaming
##umbling
chiefs
hills
attributed
cups
separately
bottles
trusted
punk
closure
albums
##atoes
berkeley
cathed
variations
crashed
earnings
parameter
teenagers
conclusions
observation
quietly
marcus
enhanced
revelation
fortunately
russell
nurse
coherence
fundamentally
clouds
beloved
pinterest
mohammed
9th
aka
bann
cant
dh
dough
dare
duck
hir
kik
mum
nx
pays
vibr
wow
wii
##oh
##mother
##vy
##130
##85
##atar
##aru
ster
forty
##amous
##advant
seas
##oca
##una
sparked
clay
brave
aggreg
disadvant
mayer
presidents
wrap
genoc
instinct
centered
medi
provinc
meta
meter
happiness
planes
turnover
111
##cedes
harvey
questioning
sentences
banner
judo
viral
breakdown
biom
earliest
ahl
introducing
texture
##obi
##etti
garbage
conversion
measurement
affecting
tribune
destroying
occurring
vacation
transformation
sleeping
reminder
benchmark
soulkey
adaptation
fluid
gamers
confirmation
sacrifice
legendary
habitat
observer
resignation
midfielder
eeg
outdoor
80s
dated
noun
sq
saints
tac
wi
##bro
##uz
##cott
##watch
##orate
##organ
##eded
##lev
##leting
reun
##adesh
##immer
sealed
neo
alumin
arn
compiled
mann
scales
afl
overly
howe
##iani
marry
indef
##erto
flaws
guinea
schiz
systematic
redistr
corro
continent
aviation
##coins
refusing
starter
photographer
territories
170
suggestion
distribut
##books
##comed
specialist
administer
pretend
conviction
1982
hopeful
floating
1976
1960
madrid
preventing
naval
villain
minorities
christianity
spectacle
spectacular
528
dimensions
recruiting
symbols
exhibit
buddhism
subsidies
desperately
passionate
navigation
disturbing
inclusion
resemb
authentic
cohen
vampire
theoretical
robbery
molecular
##piece
cotton
awkward
boyfriend
belgium
cf
fond
goss
kot
mast
ndp
pt
pile
pyr
rall
sigh
v6
wp
##iere
##mers
##nesty
##kr
##gt
##isb
ree
beats
dea
seal
fright
trucks
albeit
spar
plag
plun
##udin
##akh
clo
gren
newton
amnesty
coat
knight
blake
aftermath
serge
php
##icts
caller
parado
fuels
helm
##isman
legends
metres
infring
insider
aired
sword
careers
admir
arriving
harmon
organisations
variant
grows
caf
immense
1981
malware
considerably
telegraph
ahmed
commented
1966
digit
delivering
350
gasol
princess
macro
integrative
promotions
mercedes
smartphones
qualities
krist
freshman
fortune
mandatory
cuuko
resolved
ukrain
mechanisms
leafs
perpet
inevitably
anticipated
affiliate
doug
diesel
entrepreneurs
obscure
shirts
laptop
globally
grateful
ace
daugh
dude
fence
gag
het
honey
mueller
sisters
tire
vin
von
##obe
##iq
##cam
##kok
##46
##てい
##oner
##ede
##anks
##reach
heel
##oli
chin
notorious
abusive
plum
placing
unch
hass
brok
comply
noon
expend
perl
incoming
overview
quot
applies
straw
pole
##erte
backwards
regards
forming
subway
directions
confusing
datas
skip
listened
missiles
northeast
limiting
origins
practically
mindset
identifying
sexually
robinson
consumed
archives
congressman
automob
regulators
trafficking
alternate
precision
gradually
categor
defendants
dominance
qualify
nutcrack
ambul
glasses
tricky
##iggered
sequel
temporarily
reinfor
electronics
belongs
exploit
satellites
bangkok
favourite
scholarship
varying
inspection
distinguish
bacteria
lyrics
reluctant
preliminary
corrobor
paradox
cel
divid
fict
mint
mug
nost
ov
pv
pere
xml
##bart
##tag
##eh
##function
##gary
##drop
reed
##stock
sha
chords
trash
leaks
##eling
unav
doom
##izon
##ubs
overha
quinn
marath
yours
blown
impair
moz
guided
discipl
confess
corbyn
password
prevail
operated
reasoning
##comm
cambridge
damaging
doubled
threaten
1985
url
treatments
staffers
##security
essays
penetr
hallow
crossed
skilled
browns
citizenship
agrees
illegally
frankly
bedroom
establishing
polymer
luckily
laughed
patrol
masters
consulting
consultant
purely
decrease
breeding
flexibility
skeptical
ninth
suburban
ricche
metropolitan
griffin
hispanic
uranium
garcia
90s
bp
bands
cair
fog
kle
lod
mask
pants
roc
wals
yugos
zion
##bound
##core
##70
##jani
##orig
##isp
##uto
healing
##ilst
shops
chor
sull
suitable
abrupt
20██
allied
brig
brains
##ptions
pepper
intens
incumb
quo
bless
##ucked
boil
phar
invented
editing
charging
probable
depr
discounts
slaughter
economists
organizing
entity
halt
operates
apost
generous
generating
labels
privat
failures
connor
sounded
doubts
urging
financing
approaching
sonic
accountability
subscription
wondered
purple
conducting
contributor
permitted
murdered
riders
vacuum
solidarity
achievements
rainbow
sacred
tournaments
elementary
renewed
disclosure
succeeded
taxpayer
flexible
barrier
arrangements
enthusiasm
fragment
pleasure
##borne
touchdowns
mitchell
vigil
dolph
adapted
thoroughly
azerbaijan
mascul
margaret
ricchezza
yugoslav
ain
aesth
cze
gian
gps
gpu
hp
hod
hend
jake
pup
##ois
##log
##yton
##mouth
##nik
##uously
##sk
##rick
##fix
##alg
##isy
##llo
##vet
##acent
##acies
ate
suits
trop
triggered
##anded
spends
arthur
outright
brick
brenn
residence
manaf
intu
expose
dischar
accounting
undoub
##encer
donate
defines
cargo
fluct
edges
smash
surplus
proposition
##ype
##otech
meters
accordingly
technic
refres
restoration
streak
glory
religions
breakthrough
replay
goldman
financially
agreements
observe
burgl
objectives
broadband
verizon
definitive
penins
innings
swept
benj
springs
lengthy
aliens
cruel
translated
towers
nhs
rumors
disappointing
ltl
disruption
alphabet
templates
converted
paleo
hobby
prosperity
orthodox
arbitrary
powder
tokens
auburn
meteor
lieutenant
cathedral
overhaul
halloween
manafort
undoubted
aap
aids
kg
kits
rx
uint
wrec
##oche
##tin
##ement
##haw
##ycl
##nas
##nie
##pear
##ен
##atus
##edict
tol
##item
##idays
stays
heating
##chool
frog
##ulu
##unc
sail
mew
gran
compiler
offshore
scal
##achment
##quer
disse
marx
sheer
##licity
deciding
relatives
mines
fla
##atively
##aza
retreat
infamous
barrels
112
economies
classical
apology
fights
identification
victories
##ophren
pleaded
reaches
protective
austerity
convinc
interviewer
declining
angular
diabet
draws
1971
exceptional
lacking
falcons
##ascar
purchasing
installation
pitches
graduated
merit
reflection
lifted
tribes
tribun
sticking
wheels
poly130
novels
seekers
tyler
subscribing
mentions
bonds
concentrated
utilities
rotation
boundaries
cdc
confrontation
narendra
withdrawal
vessel
revelations
travelling
buttons
cigarettes
undermine
dvd
rhythm
unnecessary
provincial
schizophren
walsh
benjamin
poly1305
bald
fitting
gs
lon
nerd
rib
rash
ses
uh
xi
yang
zub
zwill
##oly
##kar
##ray
##3d
##ра
##∷∷
thail
whilst
stones
forests
##igley
##sein
weaker
##oding
##istically
abused
spite
##ivan
plaus
##arded
recyc
donor
throws
edited
colours
governance
detected
reduces
breit
milan
freeze
solved
casey
costumes
organisms
##bek
excer
equation
labs
shook
destiny
subjected
entries
spotlight
pitching
welcomed
mosque
optimal
tackles
consequence
mentally
lesbian
accidentally
microb
charts
dynamics
ltd
prohibition
blew
telesc
ravens
fertil
genuinely
avoided
gifts
licensed
unpredict
sanctuary
backlash
shakespear
whatsapp
genocide
brennan
diabetes
thailand
cute
dining
density
hated
json
lied
merg
mounting
nm
pon
rc
rio
tm
tory
##oons
##hub
##mad
##mel
##rical
##dled
##pad
##jar
##inform
##icut
reception
##storm
##acon
heated
##chu
chee
trains
plural
##ieval
proving
outlook
##ounding
justices
interf
poke
roch
##ingsb
preserved
relating
minus
lasting
simulation
maid
slavery
specified
##ahan
##arkar
extending
arranged
classroom
certified
eventual
pubmed
associations
intrig
encl
traum
responds
superm
historian
rolls
purchases
precious
heavyweight
ecu
reactor
switching
bobby
recommendation
tricks
width
brady
batman
pirates
shifting
observers
obligations
avoiding
deliberately
binding
entrepreneur
leverage
overturn
elderly
caucus
voluntary
geometry
ordinance
audiences
endorsed
inflammatory
throat
sakurai
nonprofit
chacha20
misleading
inappropriate
daughters
peninsula
undoubtedly
zwillingsb
breitbart
excerpt
bast
bikes
boko
dent
gonz
hilar
kor
mong
nz
nathan
pand
piv
porter
ridge
sard
uz
v1
vod
vag
wag
xl
##iya
##like
##21
##inters
##orum
##anet
##isen
reyn
fors
prisons
##iments
##ules
alger
##ppers
##alling
grain
gramm
complement
offended
offset
pew
appal
demographic
medieval
modify
founders
lara
skull
chrome
arrives
midst
glac
processor
singh
##shape
domains
lovely
##feed
specialized
damages
averaging
chef
credibility
connecticut
goalkeeper
1973
rocky
islamist
suprem
crossing
imagined
demonstrates
demonstrators
contributing
permits
villages
tribute
hussein
assumptions
##respons
satisfy
interpreted
ghosts
destructive
astro
navigate
leaning
gorge
gentle
veto
susan
homosexuality
urgent
accommodate
stimulus
utterly
triangle
cryptocurrency
priests
segregation
compassion
czech
dile
eug
hut
jama
lanes
mend
ninet
oath
rider
sacks
td
tet
wounds
##oard
##hard
##mart
##gd
thumb
##onal
anders
##eta
##amo
##igm
hein
heap
##child
##illo
shade
cher
chill
tricia
##ifty
lex
aborig
spart
unto
##ective
enlar
cance
bros
brun
complim
##auer
bloc
desired
##fty
decomp
wrapped
underne
defam
flows
##oths
smiling
fines
108
socio
##cripts
confed
designing
calgary
authoritarian
glimp
empirical
geo
17th
##ophone
massac
titans
richards
traits
launches
legalization
credited
extract
liability
unlaw
grandfather
speeches
imagination
frequencies
blogs
mccarthy
pitchers
hawks
licenses
karen
##iggy
##ogenic
frustrating
disappointment
disclose
correspondent
cooperative
sincere
extremist
strictly
casualties
##hydr
flickr
sweeping
facilitate
incentive
istan
tongue
tampa
appendix
dakota
underneath
glimpse
aide
bard
berg
beryl
cp
erect
eighth
git
gaw
ig
kash
mph
nes
nir
rats
tucker
wang
##tail
##mons
##rt
##ras
##rost
##dem
##wing
##itated
##idi
stabb
##ayd
defer
wasted
chew
##ista
##abad
plates
unrel
dose
adoles
outbreak
uphold
tehr
##tra
graves
##actic
##inez
intensity
sheets
playback
##roots
foil
accidents
boats
monop
parade
maur
foundations
slip
realm
laroche
##boards
directive
##iki
##iker
olds
barron
maintains
posed
typed
starters
steak
processed
approve
performers
geographic
lightweight
creativity
colleague
sentiment
administrator
homan
mckin
packs
1977
1972
compliance
##screen
literary
marriages
shuttle
comparisons
unsuccess
hacked
catching
carlton
clarity
tags
climbing
anthrop
pakistani
corresponding
explosive
shifted
patriot
toyota
eagle
prophet
wolves
interrogation
emotionally
bambi
poetry
misconduct
jungle
uncovered
furniture
collapsed
honda
remedy
lebanon
acquisition
trivial
raspberry
istanbul
3shape
curs
dental
dancing
io
kam
moses
nj
naming
oc
pow
rage
render
tide
v7
ya
â€
##live
##eenth
##nish
##cat
##kit
##far
##dn
##pat
##ри
##ör
thunder
##inates
toile
##icism
isil
ismail
##eto
##urt
##tery
##term
##terior
sham
frances
unbel
adr
compos
##heric
crus
coy
dried
workout
induced
prejud
rover
serp
##lection
undergo
guilt
parth
colomb
lasted
##elly
103
transc
sometime
runner
talents
farms
advancing
insists
locally
barriers
##lington
##rians
switzer
laure
##affe
emplo
excitement
dealers
completion
256
associates
risen
multipl
waited
matched
threatens
responsibilities
pete
nationally
collar
michelle
broadc
lawsuits
expressing
honored
unfold
martinez
fixing
tablets
punished
pitcher
escaped
tougher
##agonist
insurg
negotiate
wishes
savarkar
appealing
photography
proceeding
rodr
cannabino
cuomo
congrat
gangs
legitim
mormons
embraced
sacrament
striker
pulse
fulfill
shouted
lynch
jiuj
antibodies
##­tion
holland
wheaton
nigeria
##hammad
omega
ukrainian
zwillingsbiber
reynolds
appalach
jiujitsu
2d
cer
cater
codes
dorm
dread
eq
fs
fern
fathers
gau
kerm
lately
nord
piggy
rack
sf
tin
vim
##oise
##eu
##eur
##55
##90
##orph
##armed
inmates
##idel
##acco
##sexual
##tering
heels
##olan
trin
##unting
aboard
enab
outfit
incon
cox
##quote
disprop
query
##ulture
indict
impe
implies
serum
carriers
reliance
##onsc
minne
##rah
colored
##space
retal
hollow
artif
##ashi
annoying
insights
##ullah
costly
##atories
receivers
opted
optical
socialism
##apper
freak
rises
##forward
injust
advertised
norms
ahmad
float
verified
##ugging
digest
determining
feared
medicaid
mobility
examining
kicks
kickst
##held
thankfully
willingness
straightforward
apartments
1944
hackers
cabal
dietary
horrific
advisor
tactic
crafted
teenager
litigation
steelers
confronted
nurses
proteins
apologize
caval
encryption
survivors
malaysia
commodity
bicycle
bishop
alarming
deleted
naughright
endangered
chromos
tehran
minneapolis
dum
dame
dire
hm
krem
nig
oudin
pens
pts
ports
sb
soup
v10
##iological
##hin
##mir
##marks
##fund
##gow
reiter
##stick
##owitz
##etically
hew
heights
delete
##opard
fron
fruits
neat
sul
##keys
##ulates
oral
##unct
unite
##ource
cloth
brom
brack
##ipher
newest
cros
##izable
feud
##berger
overlo
overhead
blowing
prescrib
monument
edmond
downward
ende
finland
##urring
chargers
disconn
surpass
continually
headset
##rients
productions
musk
bitcoins
glenn
liber
billy
armor
activated
lowen
##apeut
statue
trauma
balloon
scream
characterized
credential
functioning
capitalist
unconsc
randy
surviving
fitz
ignoring
lifting
angela
briefing
submission
cruise
karl
##ylan
advisers
juan
cracked
##onomic
sponsorship
utilized
boliv
treasure
oliver
dragged
upgrades
rifles
htc
crypto
bombers
patriots
behaviors
dodgers
convenience
inauguration
bipart
##heimer
venezuela
grocery
fictional
mewes
kermit
disproportion
celt
dre
dale
gays
hike
kath
lending
niss
nascar
rim
sock
tup
useless
xen
##った
##26
##pin
##onut
##oro
##inging
tob
relying
stig
fork
##ayal
##uri
iteration
##verning
##cha
##oples
trav
##ocy
##ifier
governing
##arts
worries
enlight
cla
compounds
amd
amber
peoples
intend
pert
sheep
##amps
##amped
accent
contempt
decides
wrigley
caring
regen
teammate
104
maz
modifications
handgun
##aho
publications
artistic
farming
##phy
revival
comeback
11th
simplicity
attacker
stealing
liberation
varies
morrison
##loyd
wallet
furious
banana
statute
secretly
##ogram
volt
misunder
cardinal
township
impacted
accounted
essence
##uthor
indicators
eleven
hearings
travels
priorit
grandmother
falk
rebounds
##haq
promotional
##eva
nicely
troubles
##chez
commitments
rogers
##glas
jesse
assembled
instructor
accurately
liquor
exploited
folder
pockets
outlaw
steadily
culm
cortex
embarrassing
scouting
cyclists
forbes
velocity
suspicious
torrent
inhabit
portrait
insect
shakespeare
appalachian
kremlin
endeav
biko
cpp
cage
dix
fancy
gd
lope
lakes
nail
pund
pipe
rf
uc
ucl
wives
yale
##bull
##yard
##van
##dling
##но
##atics
##oria
tomm
##itary
ishaq
##iguous
##chem
degr
della
##think
sear
chand
neural
##ocad
clause
grat
manages
crap
intensive
noble
twins
interven
strings
stranger
stripped
blend
blizz
indul
monk
##ellar
##airy
redempt
##rium
refuses
extends
18th
raids
##bean
##ews
watches
175
cement
001
creators
identities
firearm
frontier
committing
presenting
biography
collision
##afrost
declaring
methane
scramb
verbal
recognised
garlic
inspiring
sensors
hymn
celebrating
battlefield
academics
permafrost
defeating
rubber
brewery
duo
therapeut
preferences
bernard
juven
coordinate
recalls
pedest
dissent
satisfaction
negotiating
illustrated
memorable
branches
catalonia
grassroots
convenient
niche
routinely
tolerance
tumor
suburbs
voluntarily
jessica
deterior
rebellion
tribunal
rochdale
unlawful
gawker
##aydah
parthas
lopez
aster
jen
jaw
kap
lingu
nerve
nifty
vault
wend
zoom
##iens
##hem
##cor
##vo
##28
##wick
##inery
##arb
topped
inexp
##icious
##asian
rect
##otr
sta
##ationally
##iltr
haul
chant
neph
suited
##andy
gob
meals
mega
newer
offence
crore
peyton
scare
scattered
##ecd
everton
rooted
##gren
descent
undergrad
##week
##eller
americas
governors
charities
##ugu
persist
readily
propriet
deterr
tales
famously
winn
postseason
bark
profitable
behave
irs
mature
smallest
stepping
organize
##atural
basics
walter
##ovic
denying
judging
auditor
candy
reviewing
240
sandwich
characteristic
musician
mcdonald
drawer
1974
queue
influences
digging
teachings
jackie
unlock
premise
premiere
separation
conceptual
automated
madonna
surrender
positively
1950
hypocr
maple
tribal
troubled
optimization
instructed
rosechu
evaluated
rumor
rumours
##otypes
gmail
correlated
prompting
labeled
spoilers
vessels
douglas
assassination
monarchy
excluded
clashes
precedent
delicious
reconcil
gingrich
warehouse
barbara
zombie
obstruction
hazard
metallica
noodles
luther
m1918
dolphins
schizophrenia
zubaydah
dilemm
unbeliev
ci
cope
dylan
heter
kenn
sie
sikh
tb
tul
umb
voy
vowed
za
##ele
##eason
##nity
##cut
##­c
thorn
##erland
toes
reich
beth
##style
##ete
##uru
##aman
##ampton
pruss
conform
congreg
shipped
exagger
orb
notre
abortions
##elson
##uded
##ichu
crying
fever
thresh
carib
relent
flesh
pars
idaho
##terson
##aires
provinces
realise
realised
electorate
##ahl
propose
internally
insuff
locals
concussion
hardest
admitting
promin
starring
baseline
vienna
equil
investigative
competitor
banning
foreigners
selfish
petr
mcg
sufficiently
sunderland
consume
consuming
##object
recognise
##attering
regulate
crowded
krug
rubio
ambition
jeffrey
1930s
rails
worrying
luis
appreciated
emphasized
vulnerability
enterprises
calculated
hinduism
vicious
kissing
matthews
fortunate
deafness
felony
abundance
volatile
sampling
cancelled
horses
elaborate
convincing
unpredictable
switzerland
70s
bree
bilateral
cite
denn
dairy
hij
iw
jor
loses
rfc
yo
£6
