{"version":"1.0","truncation":null,"padding":null,"added_tokens":[{"id":0,"special":true,"content":"[PAD]","single_word":false,"lstrip":false,"rstrip":false,"normalized":false},{"id":1,"special":true,"content":"[UNK]","single_word":false,"lstrip":false,"rstrip":false,"normalized":false},{"id":2,"special":true,"content":"[CLS]","single_word":false,"lstrip":false,"rstrip":false,"normalized":false},{"id":3,"special":true,"content":"[SEP]","single_word":false,"lstrip":false,"rstrip":false,"normalized":false},{"id":4,"special":true,"content":"[MASK]","single_word":false,"lstrip":false,"rstrip":false,"normalized":false}],"normalizer":{"type":"BertNormalizer","clean_text":false,"handle_chinese_chars":false,"strip_accents":false,"lowercase":true},"pre_tokenizer":{"type":"BertPreTokenizer"},"post_processor":null,"decoder":{"type":"WordPiece","prefix":"##","cleanup":true},"model":{"type":"WordPiece","unk_token":"[UNK]","continuing_subword_prefix":"##","max_input_chars_per_word":100,"vocab":{"[PAD]":0,"[UNK]":1,"[CLS]":2,"[SEP]":3,"[MASK]":4,"!":5,"&":6,"'":7,"-":8,".":9,"?":10,"a":11,"b":12,"c":13,"d":14,"e":15,"f":16,"g":17,"h":18,"i":19,"j":20,"k":21,"l":22,"m":23,"n":24,"o":25,"p":26,"q":27,"r":28,"s":29,"t":30,"u":31,"v":32,"w":33,"x":34,"y":35,"z":36,"##t":37,"##a":38,"##r":39,"##l":40,"##e":41,"##d":42,"##y":43,"##s":44,"##u":45,"##i":46,"##n":47,"##g":48,"##h":49,"##x":50,"##z":51,"##p":52,"##o":53,"##w":54,"##k":55,"##m":56,"##c":57,"##f":58,"##v":59,"##b":60,"##q":61,"##j":62,"th":63,"##ou":64,"you":65,"##at":66,"the":67,"##re":68,"##in":69,"wh":70,"##an":71,"do":72,"##er":73,"it":74,"that":75,"to":76,"##ing":77,"##ay":78,"what":79,"go":80,"##ll":81,"he":82,"an":83,"##ow":84,"##es":85,"##et":86,"##is":87,"##oo":88,"##ea":89,"on":90,"##it":91,"we":92,"##om":93,"is":94,"and":95,"##ut":96,"##ee":97,"##ig":98,"##ke":99,"ha":100,"##or":101,"##se":102,"##ve":103,"no":104,"in":105,"##id":106,"##le":107,"oh":108,"##ht":109,"##ck":110,"ok":111,"okay":112,"this":113,"##ight":114,"sh":115,"##ar":116,"there":117,"re":118,"##on":119,"your":120,"wan":121,"##en":122,"can":123,"##ook":124,"here":125,"##as":126,"##na":127,"li":128,"##ome":129,"of":130,"are":131,"##ld":132,"don":133,"yea":134,"have":135,"yeah":136,"see":137,"ba":138,"be":139,"##ir":140,"me":141,"one":142,"##ch":143,"did":144,"##ere":145,"##st":146,"st":147,"##th":148,"like":149,"want":150,"right":151,"put":152,"look":153,"##ie":154,"where":155,"##ink":156,"##ad":157,"##od":158,"##ic":159,"get":160,"for":161,"kn":162,"##am":163,"##im":164,"##ith":165,"let":166,"##ur":167,"with":168,"they":169,"ta":170,"gon":171,"up":172,"##itt":173,"##ed":174,"know":175,"##ould":176,"she":177,"gonna":178,"good":179,"ch":180,"pl":181,"ju":182,"think":183,"##ver":184,"not":185,"ll":186,"was":187,"at":188,"so":189,"who":190,"all":191,"##pp":192,"now":193,"some":194,"how":195,"tr":196,"##un":197,"litt":198,"little":199,"ma":200,"##ill":201,"does":202,"rea":203,"say":204,"out":205,"bo":206,"##dy":207,"##all":208,"ah":209,"##ter":210,"mo":211,"##ther":212,"come":213,"just":214,"##ell":215,"ab":216,"##my":217,"well":218,"##wn":219,"yes":220,"my":221,"but":222,"mom":223,"too":224,"wanna":225,"hu":226,"al":227,"##op":228,"##ind":229,"going":230,"them":231,"##nd":232,"##ose":233,"##out":234,"down":235,"play":236,"got":237,"##and":238,"##one":239,"##ce":240,"mommy":241,"##ly":242,"about":243,"##us":244,"##um":245,"##ot":246,"##al":247,"##ice":248,"back":249,"##ain":250,"her":251,"big":252,"huh":253,"##au":254,"if":255,"##ick":256,"dr":257,"##by":258,"bl":259,"fr":260,"br":261,"over":262,"##ty":263,"dad":264,"co":265,"would":266,"##il":267,"eat":268,"hm":269,"or":270,"his":271,"aha":272,"why":273,"##ap":274,"him":275,"car":276,"##eth":277,"##ear":278,"cl":279,"make":280,"then":281,"##nt":282,"doing":283,"##ery":284,"baby":285,"more":286,"sp":287,"when":288,"##oug":289,"##ide":290,"daddy":291,"tw":292,"##ive":293,"take":294,"##uck":295,"##ank":296,"sa":297,"very":298,"##ure":299,"##ame":300,"##eep":301,"##ge":302,"ne":303,"book":304,"##hm":305,"##eed":306,"##ause":307,"mhm":308,"##ound":309,"##day":310,"##ber":311,"any":312,"off":313,"cr":314,"will":315,"bec":316,"wat":317,"##ff":318,"those":319,"because":320,"gr":321,"pre":322,"need":323,"##lly":324,"##oney":325,"##os":326,"el":327,"tell":328,"##right":329,"two":330,"alright":331,"som":332,"##ast":333,"bu":334,"tur":335,"these":336,"sw":337,"##ies":338,"##ish":339,"happ":340,"were":341,"other":342,"##ack":343,"thank":344,"by":345,"thing":346,"##ab":347,"##ry":348,"##ite":349,"##ny":350,"##ock":351,"##ouse":352,"##ine":353,"##king":354,"##ong":355,"has":356,"##ue":357,"fl":358,"sl":359,"##ers":360,"wa":361,"nice":362,"else":363,"##other":364,"ar":365,"##ough":366,"##gg":367,"may":368,"could":369,"ball":370,"##em":371,"##ime":372,"wor":373,"##ething":374,"something":375,"##ct":376,"##ush":377,"didn":378,"ho":379,"pu":380,"honey":381,"turn":382,"give":383,"uh":384,"mm":385,"##ess":386,"##way":387,"man":388,"##ree":389,"##oom":390,"boy":391,"cat":392,"said":393,"##be":394,"way":395,"bir":396,"sit":397,"##are":398,"mu":399,"as":400,"should":401,"##air":402,"time":403,"try":404,"pret":405,"really":406,"ag":407,"##art":408,"##ore":409,"read":410,"another":411,"com":412,"gre":413,"rem":414,"##ul":415,"happen":416,"hel":417,"##ble":418,"kind":419,"##ember":420,"whi":421,"remember":422,"##ath":423,"doesn":424,"##ool":425,"house":426,"maybe":427,"##ting":428,"goes":429,"sc":430,"hand":431,"col":432,"su":433,"##unny":434,"help":435,"##ip":436,"had":437,"lo":438,"##eet":439,"thr":440,"##el":441,"##aw":442,"call":443,"##ant":444,"again":445,"##ang":446,"bet":447,"gu":448,"ever":449,"fi":450,"show":451,"hi":452,"gir":453,"color":454,"##iss":455,"find":456,"pic":457,"##ds":458,"##oon":459,"##ol":460,"##aur":461,"from":462,"##ah":463,"box":464,"cook":465,"wait":466,"op":467,"hey":468,"bear":469,"um":470,"away":471,"pretty":472,"tal":473,"##ace":474,"##up":475,"se":476,"girl":477,"name":478,"us":479,"mean":480,"##thing":481,"##ture":482,"##oop":483,"today":484,"qu":485,"##ild":486,"water":487,"##ent":488,"hold":489,"di":490,"bye":491,"##our":492,"pe":493,"##side":494,"##orn":495,"isn":496,"##ys":497,"picture":498,"##ease":499,"##ob":500,"wow":501,"bre":502,"##ark":503,"open":504,"pr":505,"ve":506,"use":507,"##eel":508,"##est":509,"around":510,"sure":511,"foo":512,"##ist":513,"please":514,"ready":515,"blue":516,"went":517,"watch":518,"wr":519,"red":520,"##irst":521,"##ak":522,"pie":523,"##ute":524,"sleep":525,"##ph":526,"looks":527,"won":528,"##ven":529,"chair":530,"every":531,"##ful":532,"##oh":533,"bed":534,"##les":535,"sm":536,"##age":537,"push":538,"##pe":539,"##een":540,"three":541,"things":542,"##ked":543,"##aper":544,"che":545,"night":546,"lot":547,"says":548,"##qu":549,"##ep":550,"better":551,"min":552,"bird":553,"##ving":554,"##ate":555,"##ion":556,"int":557,"first":558,"which":559,"##chool":560,"happened":561,"##der":562,"##ody":563,"new":564,"le":565,"day":566,"dog":567,"home":568,"head":569,"lea":570,"##ought":571,"##urt":572,"##lf":573,"hear":574,"##oor":575,"sho":576,"hor":577,"school":578,"draw":579,"sweet":580,"har":581,"##ally":582,"##ump":583,"und":584,"kitt":585,"##end":586,"room":587,"##kes":588,"sn":589,"##mp":590,"hat":591,"hair":592,"mil":593,"care":594,"##llo":595,"squ":596,"##ake":597,"hello":598,"##oss":599,"mou":600,"truck":601,"milk":602,"##body":603,"under":604,"throw":605,"much":606,"our":607,"green":608,"work":609,"duck":610,"##ama":611,"bring":612,"en":613,"bit":614,"str":615,"train":616,"ey":617,"pick":618,"af":619,"##ange":620,"##ade":621,"##av":622,"ex":623,"peop":624,"talk":625,"done":626,"people":627,"laur":628,"mon":629,"break":630,"pig":631,"called":632,"mat":633,"yell":634,"##illy":635,"##ady":636,"##ass":637,"drink":638,"stor":639,"funny":640,"wal":641,"##key":642,"boo":643,"keep":644,"am":645,"laura":646,"ro":647,"##zz":648,"pen":649,"paper":650,"yep":651,"mama":652,"##uff":653,"fix":654,"ad":655,"love":656,"into":657,"cou":658,"juice":659,"din":660,"pull":661,"fish":662,"mouth":663,"cle":664,"##xt":665,"table":666,"fin":667,"whoop":668,"##oc":669,"many":670,"woo":671,"##ta":672,"##og":673,"##oke":674,"pee":675,"##ves":676,"minute":677,"stay":678,"fall":679,"long":680,"wear":681,"##ard":682,"##res":683,"na":684,"after":685,"top":686,"yellow":687,"##ead":688,"gl":689,"clean":690,"next":691,"stick":692,"oop":693,"close":694,"##ft":695,"still":696,"might":697,"##ggie":698,"getting":699,"cup":700,"app":701,"hard":702,"##red":703,"##irt":704,"##hone":705,"##cle":706,"nose":707,"made":708,"##ma":709,"te":710,"cow":711,"great":712,"finish":713,"story":714,"door":715,"looking":716,"sweetie":717,"hurt":718,"##tt":719,"tea":720,"four":721,"yay":722,"##self":723,"egg":724,"##ash":725,"##own":726,"##imal":727,"animal":728,"bea":729,"sing":730,"their":731,"sar":732,"shall":733,"cookie":734,"##ub":735,"block":736,"bunny":737,"piece":738,"##iam":739,"saw":740,"tape":741,"thought":742,"ooh":743,"##ether":744,"##ag":745,"toys":746,"kittie":747,"old":748,"##sh":749,"##orning":750,"fun":751,"wee":752,"supp":753,"morning":754,"sarah":755,"##ream":756,"careful":757,"eating":758,"sor":759,"silly":760,"ear":761,"last":762,"pet":763,"playing":764,"fri":765,"doll":766,"william":767,"leave":768,"##ise":769,"##unch":770,"whoops":771,"ti":772,"pot":773,"##ton":774,"comes":775,"floor":776,"feel":777,"##fore":778,"five":779,"##ix":780,"came":781,"light":782,"jump":783,"before":784,"##ummy":785,"##gether":786,"together":787,"rec":788,"##mo":789,"hun":790,"child":791,"part":792,"coming":793,"mark":794,"##ater":795,"ross":796,"##ne":797,"bott":798,"##ually":799,"bus":800,"##ac":801,"making":802,"cut":803,"stuff":804,"grand":805,"kiss":806,"diff":807,"doggie":808,"while":809,"anything":810,"##pl":811,"orange":812,"##ous":813,"##ew":814,"foot":815,"fing":816,"air":817,"##ouch":818,"wash":819,"##rew":820,"bath":821,"birth":822,"fell":823,"though":824,"##leph":825,"birthday":826,"build":827,"tree":828,"stand":829,"move":830,"##ug":831,"hands":832,"through":833,"only":834,"outside":835,"wants":836,"face":837,"mic":838,"food":839,"hot":840,"adam":841,"differe":842,"##omi":843,"##arm":844,"##ane":845,"em":846,"eyes":847,"##ple":848,"fit":849,"##ach":850,"even":851,"##opp":852,"start":853,"whoa":854,"ride":855,"run":856,"##ave":857,"job":858,"sna":859,"aw":860,"horse":861,"tom":862,"stop":863,"bag":864,"snow":865,"##itch":866,"store":867,"gotta":868,"gone":869,"sk":870,"guess":871,"dan":872,"must":873,"buy":874,"been":875,"apple":876,"touch":877,"butter":878,"##ima":879,"recor":880,"nomi":881,"mother":882,"naima":883,"abe":884,"bar":885,"different":886,"peek":887,"pupp":888,"inside":889,"er":890,"bad":891,"cold":892,"tick":893,"##ese":894,"oops":895,"yet":896,"real":897,"walk":898,"fire":899,"tow":900,"list":901,"side":902,"##row":903,"##irty":904,"act":905,"flow":906,"##ctor":907,"write":908,"white":909,"wheel":910,"aren":911,"enough":912,"##ister":913,"shoes":914,"##sed":915,"##osaur":916,"##ich":917,"##ond":918,"id":919,"mar":920,"later":921,"dres":922,"letter":923,"happy":924,"leg":925,"wind":926,"##itting":927,"ale":928,"broke":929,"money":930,"un":931,"song":932,"##bit":933,"choo":934,"##ness":935,"par":936,"sorry":937,"##igh":938,"suppose":939,"idea":940,"rock":941,"sound":942,"##ren":943,"pop":944,"ones":945,"animals":946,"##fast":947,"##oman":948,"##man":949,"breakfast":950,"##icke":951,"cray":952,"guy":953,"button":954,"crayon":955,"pat":956,"kid":957,"##ipp":958,"##gry":959,"num":960,"cheese":961,"sun":962,"##oth":963,"trying":964,"listen":965,"alex":966,"##ana":967,"page":968,"##ri":969,"##ster":970,"cir":971,"goodness":972,"lady":973,"feet":974,"##imes":975,"##ants":976,"de":977,"roll":978,"brush":979,"##ins":980,"##ont":981,"ask":982,"##airs":983,"actually":984,"bel":985,"##iel":986,"shirt":987,"swim":988,"miss":989,"cream":990,"bang":991,"ahead":992,"bow":993,"nap":994,"found":995,"yourself":996,"catch":997,"ice":998,"blocks":999,"coff":1000,"pur":1001,"coffee":1002,"##dle":1003,"spoon":1004,"cry":1005,"never":1006,"nin":1007,"ring":1008,"same":1009,"po":1010,"prob":1011,"sand":1012,"everything":1013,"##iding":1014,"chicke":1015,"saying":1016,"chicken":1017,"##ably":1018,"rab":1019,"##ort":1020,"took":1021,"fly":1022,"probably":1023,"books":1024,"##rop":1025,"putting":1026,"##wh":1027,"##ied":1028,"##most":1029,"bite":1030,"##ra":1031,"almost":1032,"##aboo":1033,"rabbit":1034,"dinosaur":1035,"supposed":1036,"##ger":1037,"##bo":1038,"talking":1039,"sec":1040,"toy":1041,"end":1042,"sitting":1043,"##cy":1044,"black":1045,"than":1046,"##ather":1047,"##bb":1048,"hop":1049,"yours":1050,"pretend":1051,"somebody":1052,"ton":1053,"mouse":1054,"six":1055,"##ia":1056,"microp":1057,"da":1058,"cam":1059,"blow":1060,"##ready":1061,"whole":1062,"already":1063,"lunch":1064,"yester":1065,"yesterday":1066,"stuck":1067,"eleph":1068,"lily":1069,"cookies":1070,"microphone":1071,"wasn":1072,"set":1073,"forg":1074,"dirty":1075,"roman":1076,"bab":1077,"quack":1078,"##avor":1079,"count":1080,"##where":1081,"##ile":1082,"place":1083,"##ts":1084,"##mer":1085,"cloth":1086,"hors":1087,"peter":1088,"##ner":1089,"teeth":1090,"game":1091,"lots":1092,"##room":1093,"tired":1094,"arm":1095,"rain":1096,"somet":1097,"peekaboo":1098,"eas":1099,"small":1100,"dri":1101,"friend":1102,"##ces":1103,"ten":1104,"fo":1105,"round":1106,"##aug":1107,"unt":1108,"having":1109,"boat":1110,"##athan":1111,"gosh":1112,"pol":1113,"seven":1114,"pink":1115,"##ey":1116,"makes":1117,"exc":1118,"gave":1119,"##rs":1120,"mine":1121,"live":1122,"puzz":1123,"##ipe":1124,"airpl":1125,"noise":1126,"##ation":1127,"ham":1128,"hungry":1129,"tre":1130,"##fe":1131,"hit":1132,"wonder":1133,"##ning":1134,"number":1135,"la":1136,"eight":1137,"blank":1138,"##orrow":1139,"##ling":1140,"star":1141,"ban":1142,"nina":1143,"brown":1144,"eth":1145,"mess":1146,"recorder":1147,"left":1148,"bug":1149,"cake":1150,"high":1151,"ethan":1152,"wanted":1153,"favor":1154,"finger":1155,"##ls":1156,"nathan":1157,"taking":1158,"##tle":1159,"##imb":1160,"wrong":1161,"yup":1162,"ow":1163,"##ways":1164,"week":1165,"bottle":1166,"finished":1167,"monkey":1168,"pictures":1169,"matter":1170,"bump":1171,"likes":1172,"wet":1173,"clothes":1174,"ra":1175,"##iger":1176,"sometimes":1177,"cute":1178,"##iz":1179,"lion":1180,"pain":1181,"happens":1182,"purple":1183,"##era":1184,"##ary":1185,"gi":1186,"bat":1187,"dinner":1188,"grandma":1189,"airplane":1190,"elephant":1191,"window":1192,"ap":1193,"phone":1194,"##ator":1195,"both":1196,"##stairs":1197,"chr":1198,"tomorrow":1199,"sock":1200,"puppy":1201,"nathaniel":1202,"##ily":1203,"rest":1204,"##ious":1205,"glass":1206,"tail":1207,"favorite":1208,"oink":1209,"##uh":1210,"until":1211,"needs":1212,"tickle":1213,"##kin":1214,"##ask":1215,"gar":1216,"##ets":1217,"boom":1218,"seen":1219,"party":1220,"frog":1221,"beh":1222,"##ase":1223,"cause":1224,"choc":1225,"chocol":1226,"eggs":1227,"farm":1228,"jose":1229,"dress":1230,"##ian":1231,"##ball":1232,"slide":1233,"used":1234,"always":1235,"##sent":1236,"chocolate":1237,"screw":1238,"told":1239,"moo":1240,"puzzle":1241,"##ci":1242,"joseph":1243,"sleeping":1244,"hang":1245,"present":1246,"second":1247,"front":1248,"##ming":1249,"doctor":1250,"##isy":1251,"##ends":1252,"word":1253,"pants":1254,"fu":1255,"behind":1256,"##eak":1257,"fast":1258,"##nie":1259,"soon":1260,"gets":1261,"guys":1262,"babies":1263,"shake":1264,"pieces":1265,"broken":1266,"mus":1267,"eye":1268,"flowers":1269,"eve":1270,"zoo":1271,"camera":1272,"stre":1273,"climb":1274,"kitch":1275,"kitchen":1276,"##eal":1277,"nope":1278,"being":1279,"##la":1280,"doo":1281,"poo":1282,"crack":1283,"circle":1284,"friends":1285,"jen":1286,"pres":1287,"##rot":1288,"eng":1289,"pock":1290,"diaper":1291,"##ither":1292,"jack":1293,"##iny":1294,"scr":1295,"nothing":1296,"##unk":1297,"hole":1298,"marky":1299,"##ape":1300,"chew":1301,"tast":1302,"kids":1303,"shoe":1304,"yummy":1305,"##ert":1306,"##sy":1307,"##ib":1308,"wearing":1309,"beaut":1310,"cool":1311,"everybody":1312,"##amp":1313,"##ans":1314,"children":1315,"bowl":1316,"haven":1317,"moon":1318,"##erry":1319,"jo":1320,"##oun":1321,"means":1322,"nine":1323,"##more":1324,"##opped":1325,"christ":1326,"spill":1327,"anymore":1328,"vi":1329,"thom":1330,"thomas":1331,"corn":1332,"per":1333,"##lc":1334,"swimming":1335,"crayons":1336,"##dd":1337,"nur":1338,"##so":1339,"##ike":1340,"swing":1341,"dump":1342,"music":1343,"loo":1344,"##asket":1345,"blanket":1346,"bread":1347,"welc":1348,"wouldn":1349,"fine":1350,"pigg":1351,"lear":1352,"##li":1353,"welcome":1354,"##oup":1355,"yog":1356,"sheep":1357,"spe":1358,"dry":1359,"also":1360,"police":1361,"kinda":1362,"ac":1363,"either":1364,"knock":1365,"poor":1366,"dolly":1367,"drive":1368,"fingers":1369,"mag":1370,"##cil":1371,"pa":1372,"##eh":1373,"##per":1374,"roo":1375,"whose":1376,"spid":1377,"woof":1378,"teach":1379,"sleepy":1380,"sad":1381,"cars":1382,"##angle":1383,"pocket":1384,"##br":1385,"pencil":1386,"beach":1387,"boun":1388,"##erest":1389,"##cial":1390,"##pack":1391,"basket":1392,"balloon":1393,"cere":1394,"interest":1395,"##act":1396,"hum":1397,"square":1398,"con":1399,"mov":1400,"##ord":1401,"tra":1402,"ste":1403,"cereal":1404,"##mas":1405,"ate":1406,"backpack":1407,"beauti":1408,"##igg":1409,"bottom":1410,"banana":1411,"toast":1412,"crying":1413,"##unt":1414,"feed":1415,"neck":1416,"grow":1417,"viol":1418,"scare":1419,"check":1420,"##idge":1421,"ding":1422,"del":1423,"inst":1424,"own":1425,"beautiful":1426,"wall":1427,"##ames":1428,"mail":1429,"seat":1430,"wheels":1431,"pump":1432,"##tor":1433,"clock":1434,"change":1435,"##her":1436,"thanks":1437,"special":1438,"##az":1439,"monster":1440,"##erson":1441,"##aul":1442,"tonight":1443,"chick":1444,"spell":1445,"engine":1446,"christmas":1447,"##ato":1448,"carry":1449,"##ity":1450,"aunt":1451,"horsie":1452,"tiny":1453,"##oud":1454,"comb":1455,"ears":1456,"sal":1457,"couldn":1458,"wipe":1459,"carrot":1460,"street":1461,"such":1462,"mel":1463,"colors":1464,"tv":1465,"learn":1466,"meow":1467,"apart":1468,"best":1469,"##anta":1470,"father":1471,"bubb":1472,"##ries":1473,"brother":1474,"pro":1475,"##utes":1476,"bigger":1477,"holding":1478,"track":1479,"hiding":1480,"park":1481,"sounds":1482,"##cing":1483,"oo":1484,"person":1485,"minutes":1486,"dance":1487,"far":1488,"forgot":1489,"sister":1490,"flower":1491,"dear":1492,"pill":1493,"##aught":1494,"##ucky":1495,"ge":1496,"##pping":1497,"##gar":1498,"mr":1499,"##ale":1500,"towel":1501,"##ars":1502,"clown":1503,"mir":1504,"pour":1505,"##int":1506,"spot":1507,"paint":1508,"santa":1509,"hur":1510,"tall":1511,"smell":1512,"words":1513,"few":1514,"each":1515,"win":1516,"##anut":1517,"##urp":1518,"lost":1519,"peanut":1520,"warm":1521,"##umb":1522,"twen":1523,"twenty":1524,"##pa":1525,"spider":1526,"toes":1527,"motor":1528,"max":1529,"movie":1530,"yogurt":1531,"##iff":1532,"socks":1533,"ground":1534,"mix":1535,"##pt":1536,"##eez":1537,"turtle":1538,"teleph":1539,"##apes":1540,"hope":1541,"sick":1542,"hug":1543,"legs":1544,"full":1545,"half":1546,"asked":1547,"ted":1548,"cover":1549,"paul":1550,"##ove":1551,"sat":1552,"beep":1553,"dis":1554,"taste":1555,"bubbles":1556,"yeh":1557,"someone":1558,"playd":1559,"underst":1560,"potty":1561,"telephone":1562,"birds":1563,"soup":1564,"yum":1565,"hee":1566,"walking":1567,"tummy":1568,"vis":1569,"##bble":1570,"##ides":1571,"snake":1572,"mister":1573,"##ards":1574,"hammer":1575,"pillow":1576,"sky":1577,"dark":1578,"violet":1579,"buck":1580,"##iet":1581,"grass":1582,"##ddy":1583,"understand":1584,"##ust":1585,"##if":1586,"sugar":1587,"butterf":1588,"visit":1589,"pin":1590,"##llow":1591,"year":1592,"tiger":1593,"heard":1594,"##ood":1595,"once":1596,"pan":1597,"##lla":1598,"candy":1599,"plate":1600,"somewhere":1601,"suit":1602,"playdoh":1603,"sally":1604,"reading":1605,"upstairs":1606,"bell":1607,"dressed":1608,"##uit":1609,"##ier":1610,"##berry":1611,"boys":1612,"straw":1613,"kick":1614,"sea":1615,"lap":1616,"pap":1617,"##wich":1618,"quite":1619,"interesting":1620,"tower":1621,"bee":1622,"##mpty":1623,"letters":1624,"sandwich":1625,"oli":1626,"riding":1627,"grandpa":1628,"belong":1629,"ph":1630,"clos":1631,"##ouble":1632,"##unn":1633,"pumpkin":1634,"working":1635,"brought":1636,"quiet":1637,"##lin":1638,"pea":1639,"##ror":1640,"swe":1641,"teddy":1642,"step":1643,"thinking":1644,"string":1645,"busy":1646,"running":1647,"gent":1648,"##ula":1649,"record":1650,"instead":1651,"bout":1652,"mich":1653,"baa":1654,"neat":1655,"supper":1656,"geor":1657,"ele":1658,"hide":1659,"tooth":1660,"looked":1661,"tight":1662,"ref":1663,"##anda":1664,"##uela":1665,"tractor":1666,"reach":1667,"mirror":1668,"god":1669,"##akes":1670,"delic":1671,"##avy":1672,"circ":1673,"trees":1674,"rais":1675,"couple":1676,"tri":1677,"##ugg":1678,"easy":1679,"manuela":1680,"its":1681,"scared":1682,"shut":1683,"press":1684,"ri":1685,"##led":1686,"barn":1687,"rub":1688,"##ence":1689,"drawing":1690,"beg":1691,"true":1692,"oat":1693,"##amb":1694,"sticky":1695,"glasses":1696,"road":1697,"rob":1698,"med":1699,"vroom":1700,"##ince":1701,"delicious":1702,"hipp":1703,"##estion":1704,"wood":1705,"bob":1706,"surp":1707,"char":1708,"##iting":1709,"##ney":1710,"giving":1711,"policeman":1712,"surpr":1713,"meat":1714,"crash":1715,"stra":1716,"building":1717,"cla":1718,"ru":1719,"##ett":1720,"wake":1721,"forget":1722,"##ens":1723,"lives":1724,"straight":1725,"ter":1726,"dancing":1727,"##sc":1728,"##issa":1729,"##ize":1730,"kang":1731,"tub":1732,"falling":1733,"##ever":1734,"##ieve":1735,"trip":1736,"card":1737,"closed":1738,"snack":1739,"##son":1740,"upside":1741,"june":1742,"soft":1743,"##icy":1744,"##atch":1745,"bridge":1746,"quick":1747,"watching":1748,"short":1749,"usually":1750,"question":1751,"##agon":1752,"##ael":1753,"fro":1754,"spr":1755,"elmo":1756,"cather":1757,"catherine":1758,"driver":1759,"##lie":1760,"paj":1761,"##ms":1762,"##ance":1763,"anyway":1764,"birdie":1765,"king":1766,"works":1767,"bounce":1768,"tap":1769,"heavy":1770,"lil":1771,"happening":1772,"##io":1773,"##aroo":1774,"able":1775,"pooh":1776,"late":1777,"cur":1778,"dogs":1779,"butterfly":1780,"bon":1781,"cour":1782,"##ope":1783,"daisy":1784,"##augh":1785,"kangaroo":1786,"slipp":1787,"bought":1788,"##oe":1789,"bears":1790,"proble":1791,"##rench":1792,"bike":1793,"urs":1794,"belly":1795,"without":1796,"dish":1797,"loud":1798,"laugh":1799,"##rel":1800,"##iddle":1801,"trouble":1802,"girls":1803,"##ment":1804,"##ction":1805,"michael":1806,"band":1807,"wigg":1808,"##aff":1809,"share":1810,"living":1811,"##urn":1812,"squish":1813,"uncle":1814,"motorcy":1815,"fam":1816,"##bage":1817,"along":1818,"##able":1819,"buttons":1820,"triangle":1821,"mach":1822,"squeak":1823,"fox":1824,"pack":1825,"trick":1826,"dada":1827,"medic":1828,"kal":1829,"land":1830,"believe":1831,"ursula":1832,"##fu":1833,"spl":1834,"giraff":1835,"flying":1836,"dec":1837,"garage":1838,"line":1839,"tunn":1840,"##izz":1841,"donkey":1842,"refr":1843,"tunnel":1844,"sam":1845,"##use":1846,"papa":1847,"refriger":1848,"eh":1849,"jam":1850,"joh":1851,"knew":1852,"##ummer":1853,"eric":1854,"fig":1855,"mad":1856,"sort":1857,"kalie":1858,"john":1859,"standing":1860,"batter":1861,"melissa":1862,"empty":1863,"tong":1864,"refrigerator":1865,"lamb":1866,"ran":1867,"dropped":1868,"days":1869,"kitty":1870,"##ork":1871,"ben":1872,"match":1873,"mummy":1874,"##issed":1875,"##oot":1876,"##ered":1877,"momma":1878,"##berries":1879,"tire":1880,"gold":1881,"super":1882,"##oy":1883,"spin":1884,"nut":1885,"clap":1886,"wag":1887,"turned":1888,"missing":1889,"motorcycle":1890,"near":1891,"played":1892,"drinking":1893,"scratch":1894,"nurs":1895,"owl":1896,"medicine":1897,"downstairs":1898,"arms":1899,"driving":1900,"des":1901,"tie":1902,"vac":1903,"claus":1904,"jell":1905,"summer":1906,"heart":1907,"knows":1908,"##gu":1909,"##vel":1910,"alone":1911,"##amas":1912,"##pit":1913,"coat":1914,"pete":1915,"garbage":1916,"loves":1917,"tongue":1918,"ed":1919,"rice":1920,"##cer":1921,"ago":1922,"leaves":1923,"dream":1924,"excuse":1925,"bugs":1926,"hill":1927,"beans":1928,"balls":1929,"##ler":1930,"##ud":1931,"reg":1932,"##oppy":1933,"dav":1934,"##oat":1935,"##ors":1936,"##aser":1937,"##thew":1938,"matthew":1939,"figure":1940,"lad":1941,"ty":1942,"couch":1943,"##ha":1944,"thirty":1945,"##ines":1946,"meg":1947,"drop":1948,"dinosaurs":1949,"caught":1950,"rat":1951,"##ony":1952,"anybody":1953,"class":1954,"terri":1955,"shar":1956,"waiting":1957,"##ents":1958,"cracker":1959,"##wards":1960,"turning":1961,"fork":1962,"toot":1963,"nobody":1964,"jumping":1965,"past":1966,"##bow":1967,"piggy":1968,"##umble":1969,"hon":1970,"middle":1971,"##bye":1972,"singing":1973,"dollars":1974,"##leep":1975,"asleep":1976,"giraffe":1977,"most":1978,"telling":1979,"##ggy":1980,"trucks":1981,"hurry":1982,"problem":1983,"wish":1984,"shh":1985,"meet":1986,"##ils":1987,"ducks":1988,"family":1989,"kinds":1990,"scary":1991,"jenny":1992,"gentle":1993,"gas":1994,"soap":1995,"nana":1996,"##let":1997,"washing":1998,"david":1999,"##meal":2000,"shape":2001,"hos":2002,"plane":2003,"early":2004,"horses":2005,"pay":2006,"turkey":2007,"fixed":2008,"football":2009,"since":2010,"plan":2011,"##icycle":2012,"hoo":2013,"##bur":2014,"##aster":2015,"fruit":2016,"machine":2017,"fight":2018,"pad":2019,"boots":2020,"dough":2021,"##ire":2022,"craw":2023,"sees":2024,"carri":2025,"grab":2026,"ke":2027,"rh":2028,"vo":2029,"lie":2030,"##ada":2031,"mind":2032,"rug":2033,"##ife":2034,"##over":2035,"heh":2036,"stairs":2037,"ernie":2038,"oatmeal":2039,"goat":2040,"cowbo":2041,"wagon":2042,"pool":2043,"rach":2044,"ann":2045,"base":2046,"floppy":2047,"squir":2048,"nurse":2049,"hook":2050,"##ign":2051,"##astic":2052,"##ips":2053,"pajamas":2054,"lu":2055,"free":2056,"takes":2057,"goodbye":2058,"chairs":2059,"cal":2060,"##bre":2061,"frank":2062,"##zzy":2063,"napkin":2064,"hospit":2065,"sau":2066,"yucky":2067,"##ates":2068,"hospital":2069,"##seum":2070,"##iling":2071,"museum":2072,"writing":2073,"exact":2074,"##aces":2075,"carrots":2076,"body":2077,"ly":2078,"##to":2079,"mickey":2080,"missed":2081,"matty":2082,"nor":2083,"##ect":2084,"cost":2085,"slow":2086,"yer":2087,"##ron":2088,"lay":2089,"trav":2090,"using":2091,"started":2092,"acc":2093,"tu":2094,"space":2095,"smart":2096,"teacher":2097,"mrs":2098,"##igator":2099,"dragon":2100,"rocks":2101,"raisins":2102,"travis":2103,"whee":2104,"##ala":2105,"hurts":2106,"alligator":2107,"pigs":2108,"##ages":2109,"dee":2110,"pizz":2111,"##ating":2112,"potato":2113,"fits":2114,"goo":2115,"buddy":2116,"##sw":2117,"##ik":2118,"fraser":2119,"afra":2120,"afraid":2121,"splash":2122,"horn":2123,"##cked":2124,"himself":2125,"penny":2126,"glad":2127,"bucket":2128,"tad":2129,"tiss":2130,"##uch":2131,"everywhere":2132,"apples":2133,"dingo":2134,"course":2135,"exactly":2136,"poop":2137,"thirst":2138,"flat":2139,"nan":2140,"##ten":2141,"ind":2142,"chang":2143,"bless":2144,"strong":2145,"magic":2146,"##oll":2147,"##any":2148,"tomato":2149,"mary":2150,"acr":2151,"##fully":2152,"megan":2153,"sent":2154,"times":2155,"twel":2156,"moving":2157,"thirsty":2158,"men":2159,"threw":2160,"chug":2161,"corner":2162,"fore":2163,"##eat":2164,"##len":2165,"##ener":2166,"lift":2167,"weren":2168,"##get":2169,"libr":2170,"drum":2171,"gum":2172,"ouch":2173,"##inc":2174,"dirt":2175,"fill":2176,"cha":2177,"##pper":2178,"##alk":2179,"everyone":2180,"angry":2181,"mac":2182,"trains":2183,"raining":2184,"carriage":2185,"rachel":2186,"##don":2187,"tweet":2188,"squeez":2189,"auntie":2190,"circus":2191,"robin":2192,"cap":2193,"gard":2194,"ry":2195,"non":2196,"##ident":2197,"comp":2198,"cups":2199,"george":2200,"jelly":2201,"##keys":2202,"##cept":2203,"##ntain":2204,"rocking":2205,"across":2206,"cont":2207,"hour":2208,"key":2209,"chin":2210,"picked":2211,"mush":2212,"ruff":2213,"town":2214,"clip":2215,"boop":2216,"##case":2217,"##ated":2218,"##nald":2219,"##pped":2220,"pizza":2221,"cooking":2222,"duckie":2223,"piggie":2224,"york":2225,"##ng":2226,"donald":2227,"pear":2228,"##ding":2229,"dar":2230,"##iday":2231,"backwards":2232,"fold":2233,"tear":2234,"grapes":2235,"cowboy":2236,"pipe":2237,"##ya":2238,"##ym":2239,"library":2240,"dum":2241,"##ica":2242,"roof":2243,"fair":2244,"merry":2245,"names":2246,"tig":2247,"twelve":2248,"cu":2249,"peep":2250,"shopping":2251,"garden":2252,"shower":2253,"amanda":2254,"pony":2255,"gor":2256,"hen":2257,"##ited":2258,"##ird":2259,"eleven":2260,"hallow":2261,"##und":2262,"cats":2263,"patsy":2264,"ryan":2265,"ser":2266,"thumb":2267,"cards":2268,"sciss":2269,"puppet":2270,"farmer":2271,"keys":2272,"halloween":2273,"pushing":2274,"fence":2275,"ros":2276,"##ings":2277,"sticker":2278,"##box":2279,"witch":2280,"mountain":2281,"scissors":2282,"oil":2283,"answ":2284,"save":2285,"umbre":2286,"except":2287,"lights":2288,"lose":2289,"cleaning":2290,"bunch":2291,"shapes":2292,"sunday":2293,"point":2294,"charlie":2295,"ladder":2296,"pow":2297,"##eas":2298,"years":2299,"##ocked":2300,"hippo":2301,"##via":2302,"board":2303,"groc":2304,"world":2305,"scar":2306,"kat":2307,"craz":2308,"numbers":2309,"presents":2310,"toe":2311,"erin":2312,"olivia":2313,"nest":2314,"jumped":2315,"cash":2316,"sink":2317,"##land":2318,"##ps":2319,"whatever":2320,"##amed":2321,"judy":2322,"glue":2323,"##ipped":2324,"##co":2325,"trunk":2326,"lois":2327,"bathroom":2328,"barre":2329,"jacket":2330,"panc":2331,"crazy":2332,"cind":2333,"french":2334,"##ried":2335,"##nif":2336,"haha":2337,"shark":2338,"cliff":2339,"cried":2340,"underne":2341,"underneath":2342,"fur":2343,"jill":2344,"##anger":2345,"tissue":2346,"bert":2347,"fres":2348,"knife":2349,"easter":2350,"strawberry":2351,"lem":2352,"sign":2353,"##ro":2354,"whist":2355,"seeds":2356,"gran":2357,"surprise":2358,"umbrella":2359,"wheat":2360,"##omer":2361,"shouldn":2362,"smile":2363,"belongs":2364,"closet":2365,"voice":2366,"bes":2367,"imp":2368,"shell":2369,"oce":2370,"ug":2371,"##vor":2372,"throwing":2373,"case":2374,"lind":2375,"res":2376,"##rick":2377,"##fish":2378,"##book":2379,"ariel":2380,"##ught":2381,"fe":2382,"ko":2383,"##esday":2384,"knocked":2385,"tools":2386,"grape":2387,"month":2388,"rings":2389,"##etti":2390,"aid":2391,"##rr":2392,"##ric":2393,"##old":2394,"##vis":2395,"liked":2396,"reason":2397,"switch":2398,"##time":2399,"plant":2400,"knee":2401,"##ellent":2402,"coll":2403,"veget":2404,"rolling":2405,"easier":2406,"cindere":2407,"cough":2408,"met":2409,"named":2410,"yuck":2411,"##tie":2412,"tried":2413,"office":2414,"fif":2415,"smoo":2416,"follow":2417,"excellent":2418,"spag":2419,"drawer":2420,"rooster":2421,"##andy":2422,"eats":2423,"anywhere":2424,"cross":2425,"##ular":2426,"sauce":2427,"ga":2428,"stove":2429,"##aps":2430,"##eart":2431,"hund":2432,"painting":2433,"cinderella":2434,"spagh":2435,"bicycle":2436,"hanging":2437,"theo":2438,"crunch":2439,"grover":2440,"holes":2441,"pengu":2442,"feeling":2443,"messy":2444,"satur":2445,"##nic":2446,"##noon":2447,"##bug":2448,"##ons":2449,"##inkle":2450,"##oopy":2451,"afternoon":2452,"begin":2453,"dishes":2454,"ocean":2455,"por":2456,"row":2457,"##gie":2458,"myself":2459,"trevor":2460,"spaghetti":2461,"##kend":2462,"stickers":2463,"fresh":2464,"woman":2465,"sha":2466,"station":2467,"##unh":2468,"##etheart":2469,"##ache":2470,"awoh":2471,"sweetheart":2472,"hundred":2473,"saturday":2474,"fre":2475,"ze":2476,"##ddle":2477,"##mon":2478,"##inky":2479,"##gel":2480,"weekend":2481,"stars":2482,"sharp":2483,"##hunh":2484,"##ised":2485,"##als":2486,"squirt":2487,"winter":2488,"##eek":2489,"##ote":2490,"feels":2491,"##osaurus":2492,"jennif":2493,"##iffy":2494,"river":2495,"jennifer":2496,"##do":2497,"calling":2498,"snoopy":2499,"hoor":2500,"whale":2501,"picnic":2502,"squirrel":2503,"accident":2504,"squeeze":2505,"gun":2506,"rad":2507,"rather":2508,"##ones":2509,"stopped":2510,"potat":2511,"hooray":2512,"miffy":2513,"puddle":2514,"dig":2515,"whis":2516,"maisy":2517,"preschool":2518,"bur":2519,"fan":2520,"onto":2521,"crib":2522,"princ":2523,"shovel":2524,"cows":2525,"city":2526,"low":2527,"lick":2528,"friday":2529,"expl":2530,"beads":2531,"register":2532,"franklin":2533,"##zen":2534,"##illa":2535,"gram":2536,"hunhunh":2537,"cord":2538,"wild":2539,"##ios":2540,"##ible":2541,"bal":2542,"##itter":2543,"tray":2544,"stories":2545,"keeps":2546,"emily":2547,"##ipper":2548,"kent":2549,"pages":2550,"##fy":2551,"life":2552,"##ches":2553,"##sters":2554,"trash":2555,"skin":2556,"ladybug":2557,"pretending":2558,"tracks":2559,"answer":2560,"clifford":2561,"mam":2562,"mice":2563,"rich":2564,"##iv":2565,"cheer":2566,"monkeys":2567,"snap":2568,"wonderful":2569,"##ald":2570,"##anas":2571,"weener":2572,"pulling":2573,"chickens":2574,"##ertain":2575,"balloons":2576,"bib":2577,"rope":2578,"salt":2579,"princess":2580,"danger":2581,"goose":2582,"bam":2583,"##umm":2584,"swish":2585,"sticks":2586,"rubber":2587,"##ppy":2588,"liz":2589,"seem":2590,"britt":2591,"cromer":2592,"mud":2593,"queen":2594,"poin":2595,"bananas":2596,"ruby":2597,"lemon":2598,"certain":2599,"sir":2600,"dood":2601,"ext":2602,"##oebe":2603,"ain":2604,"rid":2605,"rac":2606,"van":2607,"##ret":2608,"##erp":2609,"neigh":2610,"bull":2611,"bubble":2612,"camp":2613,"##fect":2614,"wiggle":2615,"katie":2616,"smooth":2617,"##ho":2618,"stir":2619,"bright":2620,"crab":2621,"worry":2622,"hats":2623,"fixing":2624,"##ium":2625,"##zer":2626,"##ety":2627,"##olf":2628,"##ress":2629,"unl":2630,"##brush":2631,"spells":2632,"brittany":2633,"lucky":2634,"pile":2635,"sim":2636,"##oni":2637,"stool":2638,"state":2639,"muff":2640,"falls":2641,"dollar":2642,"phoebe":2643,"##zel":2644,"diap":2645,"marie":2646,"spilled":2647,"born":2648,"rides":2649,"yard":2650,"##ji":2651,"scream":2652,"percy":2653,"perfect":2654,"battery":2655,"edge":2656,"rattle":2657,"cast":2658,"oct":2659,"##ween":2660,"ship":2661,"bol":2662,"##allow":2663,"spank":2664,"worm":2665,"between":2666,"##iano":2667,"ribb":2668,"ce":2669,"popp":2670,"##tr":2671,"cutting":2672,"whistle":2673,"bill":2674,"kay":2675,"##thur":2676,"chugg":2677,"arthur":2678,"laund":2679,"weeks":2680,"vacation":2681,"fel":2682,"osc":2683,"piano":2684,"##zy":2685,"##ises":2686,"noisy":2687,"choke":2688,"plastic":2689,"click":2690,"bone":2691,"size":2692,"##nce":2693,"bah":2694,"meant":2695,"##ched":2696,"handle":2697,"helping":2698,"kitten":2699,"listening":2700,"purse":2701,"lying":2702,"haw":2703,"thinks":2704,"safe":2705,"guit":2706,"hambur":2707,"growing":2708,"carrying":2709,"baaee":2710,"linda":2711,"koala":2712,"sell":2713,"##uce":2714,"##ka":2715,"ups":2716,"##ilt":2717,"rainbow":2718,"terrible":2719,"games":2720,"atta":2721,"soph":2722,"##ggies":2723,"sudd":2724,"pottie":2725,"puppies":2726,"belt":2727,"crackers":2728,"##donald":2729,"nonna":2730,"sudden":2731,"jess":2732,"mash":2733,"zoom":2734,"toad":2735,"##asty":2736,"bother":2737,"broom":2738,"opened":2739,"patrick":2740,"excited":2741,"oscar":2742,"hy":2743,"meas":2744,"nat":2745,"##fin":2746,"chest":2747,"cart":2748,"art":2749,"emma":2750,"starts":2751,"surprised":2752,"cents":2753,"jim":2754,"mike":2755,"sle":2756,"##bra":2757,"ant":2758,"asking":2759,"coloring":2760,"picking":2761,"lovely":2762,"pops":2763,"climbing":2764,"guitar":2765,"##kins":2766,"##fic":2767,"##boo":2768,"##arter":2769,"pepper":2770,"scrub":2771,"desk":2772,"seesaw":2773,"laundry":2774,"ais":2775,"ach":2776,"je":2777,"sy":2778,"##erg":2779,"##omp":2780,"sweets":2781,"magaz":2782,"fifty":2783,"shoot":2784,"##ode":2785,"##uring":2786,"tool":2787,"spit":2788,"buzz":2789,"kisses":2790,"sweater":2791,"nuts":2792,"baseball":2793,"##app":2794,"##fort":2795,"seems":2796,"patty":2797,"##dding":2798,"circles":2799,"##truck":2800,"lou":2801,"tee":2802,"##con":2803,"##ory":2804,"maggie":2805,"potatos":2806,"diapers":2807,"ble":2808,"mc":2809,"gobble":2810,"andrew":2811,"beds":2812,"turns":2813,"lar":2814,"##ikes":2815,"quarter":2816,"wrap":2817,"smoke":2818,"cous":2819,"##board":2820,"bench":2821,"crawl":2822,"pancakes":2823,"gate":2824,"wo":2825,"##uum":2826,"##col":2827,"##ston":2828,"cheek":2829,"map":2830,"scoop":2831,"leaf":2832,"awful":2833,"sophie":2834,"lid":2835,"mer":2836,"woke":2837,"##dri":2838,"blueberries":2839,"blowing":2840,"screwdri":2841,"tastes":2842,"changed":2843,"screwdriver":2844,"plen":2845,"si":2846,"##lk":2847,"dot":2848,"##vent":2849,"add":2850,"longer":2851,"songs":2852,"toothbrush":2853,"vacuum":2854,"chugga":2855,"plenty":2856,"james":2857,"panda":2858,"send":2859,"wide":2860,"##iver":2861,"##inger":2862,"crank":2863,"sticking":2864,"peas":2865,"batteries":2866,"cab":2867,"seth":2868,"vale":2869,"##ided":2870,"gramp":2871,"caterp":2872,"pocketbook":2873,"laughing":2874,"type":2875,"caterpill":2876,"bumble":2877,"##bul":2878,"bean":2879,"##ield":2880,"camel":2881,"legos":2882,"disapp":2883,"suitcase":2884,"bonk":2885,"richard":2886,"valent":2887,"ses":2888,"##ues":2889,"##port":2890,"##fl":2891,"##orm":2892,"##lda":2893,"stack":2894,"chim":2895,"sesame":2896,"du":2897,"drew":2898,"mitt":2899,"peel":2900,"wolf":2901,"ya":2902,"zip":2903,"##ker":2904,"##icop":2905,"clay":2906,"helicop":2907,"pract":2908,"harold":2909,"sneez":2910,"hulk":2911,"cock":2912,"wave":2913,"sneak":2914,"matt":2915,"walked":2916,"elephants":2917,"frogs":2918,"recording":2919,"magazine":2920,"helicopter":2921,"dead":2922,"ee":2923,"mill":2924,"whoo":2925,"##cha":2926,"##str":2927,"croc":2928,"hilda":2929,"##ola":2930,"##ept":2931,"tele":2932,"##tte":2933,"neckl":2934,"beginning":2935,"castle":2936,"bush":2937,"gig":2938,"jilly":2939,"mist":2940,"oven":2941,"##ina":2942,"beat":2943,"bran":2944,"fift":2945,"kissing":2946,"salad":2947,"indian":2948,"##vision":2949,"zebra":2950,"burn":2951,"oy":2952,"##arent":2953,"least":2954,"blankie":2955,"peanuts":2956,"jessica":2957,"curt":2958,"dess":2959,"jan":2960,"shop":2961,"shelf":2962,"stroll":2963,"fifteen":2964,"ca":2965,"rect":2966,"##uss":2967,"##ables":2968,"##itely":2969,"pulled":2970,"dolls":2971,"secret":2972,"sus":2973,"till":2974,"wrench":2975,"##zo":2976,"puts":2977,"##ief":2978,"group":2979,"##aren":2980,"georgie":2981,"tadah":2982,"ribbon":2983,"gho":2984,"ob":2985,"rough":2986,"zipper":2987,"toil":2988,"##cky":2989,"chips":2990,"chalk":2991,"washed":2992,"defin":2993,"television":2994,"curtain":2995,"ghost":2996,"##ole":2997,"##mber":2998,"tor":2999,"shad":3000,"clear":3001,"earth":3002,"oliver":3003,"forest":3004,"macar":3005,"extra":3006,"dessert":3007,"##bar":3008,"forty":3009,"mall":3010,"order":3011,"elbow":3012,"wah":3013,"showing":3014,"bringing":3015,"ambul":3016,"spring":3017,"bend":3018,"deep":3019,"deal":3020,"race":3021,"young":3022,"##ites":3023,"shot":3024,"stamp":3025,"att":3026,"alph":3027,"blah":3028,"##place":3029,"lego":3030,"basketball":3031,"slippers":3032,"doodle":3033,"crocod":3034,"ell":3035,"kept":3036,"##nies":3037,"twinkle":3038,"wra":3039,"roar":3040,"##ette":3041,"mushroom":3042,"dangerous":3043,"gigi":3044,"definitely":3045,"ambulance":3046,"##nis":3047,"##ward":3048,"##cup":3049,"news":3050,"necklace":3051,"fred":3052,"chant":3053,"boston":3054,"boxes":3055,"stayed":3056,"raisin":3057,"toilet":3058,"macaroni":3059,"ay":3060,"##ining":3061,"chip":3062,"huge":3063,"herself":3064,"sail":3065,"hasn":3066,"scoo":3067,"prop":3068,"stays":3069,"giant":3070,"vegetables":3071,"##fortable":3072,"##aa":3073,"##rum":3074,"anyone":3075,"swallow":3076,"monday":3077,"chewing":3078,"interested":3079,"alphab":3080,"cub":3081,"##ril":3082,"##ouses":3083,"loose":3084,"besides":3085,"months":3086,"bank":3087,"billy":3088,"karen":3089,"rip":3090,"##lves":3091,"##cl":3092,"cann":3093,"trans":3094,"broc":3095,"strip":3096,"fact":3097,"faster":3098,"gerry":3099,"##haps":3100,"##ze":3101,"##mies":3102,"flip":3103,"load":3104,"##bbie":3105,"windows":3106,"perhaps":3107,"learned":3108,"jamie":3109,"terrific":3110,"caterpillar":3111,"stroller":3112,"crocodile":3113,"chantilly":3114,"ger":3115,"##te":3116,"##tuce":3117,"##bles":3118,"##ering":3119,"lettuce":3120,"cho":3121,"fran":3122,"pretzel":3123,"older":3124,"padding":3125,"rosie":3126,"dya":3127,"pal":3128,"tough":3129,"doggies":3130,"##oda":3131,"plum":3132,"##ussy":3133,"speak":3134,"flash":3135,"waff":3136,"runs":3137,"barrel":3138,"bones":3139,"sue":3140,"##anna":3141,"grown":3142,"puff":3143,"##ions":3144,"harry":3145,"##uffy":3146,"tex":3147,"whoopsie":3148,"moved":3149,"batht":3150,"magn":3151,"regular":3152,"radio":3153,"##coli":3154,"broccoli":3155,"gab":3156,"rib":3157,"sil":3158,"wings":3159,"##nut":3160,"##mother":3161,"##ba":3162,"##ature":3163,"##ley":3164,"##urch":3165,"parts":3166,"bags":3167,"restaur":3168,"strawberries":3169,"gail":3170,"shadow":3171,"paddington":3172,"av":3173,"coo":3174,"houses":3175,"thirt":3176,"glo":3177,"dollie":3178,"danny":3179,"joe":3180,"steps":3181,"##lies":3182,"##mel":3183,"##read":3184,"##ching":3185,"chase":3186,"showed":3187,"dire":3188,"cleaner":3189,"treat":3190,"fuzzy":3191,"quickly":3192,"frozen":3193,"es":3194,"kim":3195,"##ca":3196,"third":3197,"wed":3198,"helped":3199,"strange":3200,"doors":3201,"country":3202,"puzzles":3203,"humm":3204,"rack":3205,"wip":3206,"stea":3207,"stone":3208,"slee":3209,"##ored":3210,"costum":3211,"goofy":3212,"penguin":3213,"valentine":3214,"bark":3215,"cone":3216,"jar":3217,"ought":3218,"vill":3219,"wil":3220,"##tain":3221,"##tles":3222,"##ced":3223,"none":3224,"boing":3225,"carp":3226,"everyday":3227,"pushed":3228,"minnie":3229,"smaller":3230,"stret":3231,"contain":3232,"grocer":3233,"certainly":3234,"felt":3235,"upset":3236,"cor":3237,"dut":3238,"fa":3239,"iron":3240,"pass":3241,"simb":3242,"inv":3243,"bees":3244,"sweep":3245,"compl":3246,"cranky":3247,"alphabet":3248,"simba":3249,"kite":3250,"tim":3251,"##nesday":3252,"todd":3253,"loll":3254,"parrot":3255,"suddenly":3256,"mcdonald":3257,"rectangle":3258,"bathtub":3259,"thirteen":3260,"whether":3261,"##eter":3262,"##eared":3263,"##icle":3264,"##opus":3265,"flap":3266,"nicely":3267,"sits":3268,"talked":3269,"kitties":3270,"fishing":3271,"##ipping":3272,"gently":3273,"restaurant":3274,"wednesday":3275,"tasty":3276,"##ense":3277,"awake":3278,"fireman":3279,"henry":3280,"unless":3281,"octopus":3282,"mistake":3283,"dip":3284,"kill":3285,"hall":3286,"shout":3287,"##urs":3288,"##ops":3289,"cutie":3290,"touching":3291,"higher":3292,"climbed":3293,"honk":3294,"comput":3295,"tigger":3296,"gramma":3297,"punch":3298,"tank":3299,"tent":3300,"##me":3301,"ants":3302,"##ckle":3303,"cand":3304,"plants":3305,"beard":3306,"aislin":3307,"yawn":3308,"ribbit":3309,"ket":3310,"naught":3311,"##coon":3312,"##erries":3313,"tot":3314,"places":3315,"sold":3316,"player":3317,"crow":3318,"flies":3319,"exciting":3320,"begins":3321,"frost":3322,"barrette":3323,"aislinn":3324,"naughty":3325,"cre":3326,"cage":3327,"dent":3328,"furn":3329,"pil":3330,"tip":3331,"##teen":3332,"##ex":3333,"##iture":3334,"##asp":3335,"##chy":3336,"coco":3337,"taken":3338,"brushing":3339,"missus":3340,"##ized":3341,"closer":3342,"darling":3343,"furniture":3344,"gee":3345,"lis":3346,"less":3347,"rake":3348,"sandy":3349,"##rup":3350,"##light":3351,"##ss":3352,"##cope":3353,"tells":3354,"float":3355,"arr":3356,"##gged":3357,"comfortable":3358,"remind":3359,"breath":3360,"monsters":3361,"piglet":3362,"pole":3363,"baba":3364,"tennis":3365,"kate":3366,"poss":3367,"church":3368,"##tern":3369,"abc":3370,"lean":3371,"fourteen":3372,"snakes":3373,"puppets":3374,"choose":3375,"polar":3376,"gives":3377,"pasta":3378,"rhym":3379,"hehe":3380,"granola":3381,"ceiling":3382,"hay":3383,"##ient":3384,"##gest":3385,"##ject":3386,"brace":3387,"built":3388,"##acked":3389,"stef":3390,"decided":3391,"cheerios":3392,"jes":3393,"opp":3394,"seal":3395,"##ga":3396,"##ky":3397,"##corn":3398,"##osh":3399,"##aham":3400,"uses":3401,"diam":3402,"opens":3403,"opening":3404,"kittens":3405,"pennies":3406,"popcorn":3407,"##iled":3408,"pail":3409,"##angled":3410,"cousin":3411,"chimney":3412,"computer":3413,"lisa":3414,"duh":3415,"hitting":3416,"joke":3417,"##pot":3418,"##isc":3419,"lip":3420,"##icul":3421,"brave":3422,"calls":3423,"wrote":3424,"laurie":3425,"airport":3426,"polly":3427,"salty":3428,"lucy":3429,"grocery":3430,"hamburger":3431,"cannot":3432,"cin":3433,"ev":3434,"wire":3435,"##da":3436,"##uction":3437,"##ccer":3438,"donna":3439,"bagel":3440,"soggy":3441,"soccer":3442,"cove":3443,"crumb":3444,"##iper":3445,"lob":3446,"throat":3447,"exp":3448,"sandbox":3449,"feeding":3450,"violin":3451,"bells":3452,"rhin":3453,"captain":3454,"import":3455,"bulldo":3456,"cave":3457,"kl":3458,"lines":3459,"pas":3460,"parent":3461,"wre":3462,"##ted":3463,"##ees":3464,"island":3465,"cherry":3466,"moment":3467,"##ulu":3468,"sew":3469,"watermel":3470,"spiders":3471,"groceries":3472,"lock":3473,"lulu":3474,"##aking":3475,"##cake":3476,"##ination":3477,"##iddy":3478,"##chair":3479,"forth":3480,"jun":3481,"plays":3482,"needed":3483,"smiling":3484,"harder":3485,"pickle":3486,"boot":3487,"jumps":3488,"hurting":3489,"measure":3490,"gloves":3491,"important":3492,"cot":3493,"tem":3494,"thurs":3495,"##ete":3496,"colin":3497,"against":3498,"prince":3499,"spoons":3500,"mixed":3501,"thursday":3502,"den":3503,"kit":3504,"war":3505,"##gi":3506,"weh":3507,"##encer":3508,"candle":3509,"stom":3510,"##urf":3511,"##ppie":3512,"eaten":3513,"spencer":3514,"carefully":3515,"biting":3516,"nail":3517,"mustache":3518,"friendly":3519,"lived":3520,"bumped":3521,"pinch":3522,"pointing":3523,"raccoon":3524,"muffin":3525,"fle":3526,"ima":3527,"pair":3528,"ret":3529,"son":3530,"suck":3531,"sides":3532,"lips":3533,"stew":3534,"##gging":3535,"erase":3536,"lions":3537,"robot":3538,"decide":3539,"bracelet":3540,"bulldozer":3541,"nah":3542,"pound":3543,"sunny":3544,"soda":3545,"##walk":3546,"becky":3547,"##ters":3548,"flag":3549,"finally":3550,"teapot":3551,"starting":3552,"joey":3553,"##ustr":3554,"pond":3555,"rose":3556,"tangled":3557,"##iers":3558,"##bs":3559,"##ower":3560,"##elle":3561,"brian":3562,"market":3563,"skunk":3564,"rabbits":3565,"drives":3566,"squishy":3567,"north":3568,"container":3569,"gym":3570,"ginger":3571,"ssh":3572,"golf":3573,"plain":3574,"plug":3575,"abs":3576,"orang":3577,"##ornia":3578,"underw":3579,"bites":3580,"brothers":3581,"##ifornia":3582,"decor":3583,"california":3584,"cube":3585,"powder":3586,"bolt":3587,"dentist":3588,"covered":3589,"yo":3590,"yall":3591,"dora":3592,"##onge":3593,"sale":3594,"prom":3595,"snugg":3596,"wears":3597,"nursery":3598,"village":3599,"die":3600,"pussy":3601,"vide":3602,"##rm":3603,"##lish":3604,"##go":3605,"thump":3606,"##sey":3607,"##stick":3608,"upon":3609,"alive":3610,"sponge":3611,"eliz":3612,"##iest":3613,"flour":3614,"##olk":3615,"quit":3616,"dizzy":3617,"snort":3618,"awh":3619,"buying":3620,"deer":3621,"swinging":3622,"belle":3623,"texas":3624,"imag":3625,"caboo":3626,"kr":3627,"nicke":3628,"##gs":3629,"##hoo":3630,"##bing":3631,"##joy":3632,"andy":3633,"shoo":3634,"##adad":3635,"chas":3636,"bud":3637,"watched":3638,"beaver":3639,"sometime":3640,"chris":3641,"stomach":3642,"awhile":3643,"bum":3644,"cel":3645,"jing":3646,"lake":3647,"nick":3648,"##mark":3649,"##bor":3650,"above":3651,"huckle":3652,"carol":3653,"helps":3654,"##aws":3655,"cleaned":3656,"tires":3657,"mustard":3658,"rail":3659,"screws":3660,"steering":3661,"lizard":3662,"direction":3663,"during":3664,"field":3665,"giddy":3666,"lone":3667,"rode":3668,"tel":3669,"hah":3670,"##selves":3671,"shak":3672,"shamp":3673,"rex":3674,"outta":3675,"##alley":3676,"hers":3677,"graham":3678,"sword":3679,"worried":3680,"ash":3681,"##ulp":3682,"betty":3683,"enjoy":3684,"difference":3685,"shirts":3686,"wondering":3687,"swings":3688,"smells":3689,"taping":3690,"lobster":3691,"shampoo":3692,"cass":3693,"vit":3694,"##house":3695,"##wise":3696,"##que":3697,"##ined":3698,"wha":3699,"##ition":3700,"noises":3701,"##icked":3702,"knot":3703,"humpty":3704,"biggest":3705,"babys":3706,"spark":3707,"squash":3708,"woods":3709,"##ogr":3710,"naked":3711,"nails":3712,"eighteen":3713,"gift":3714,"trail":3715,"instrum":3716,"##screw":3717,"slipper":3718,"tuesday":3719,"barrels":3720,"mittens":3721,"lollip":3722,"flew":3723,"aqu":3724,"dam":3725,"ew":3726,"jane":3727,"lamp":3728,"pir":3729,"##gl":3730,"##mit":3731,"##owed":3732,"##oodle":3733,"liam":3734,"seed":3735,"bax":3736,"taught":3737,"drill":3738,"helm":3739,"##ention":3740,"booboo":3741,"coun":3742,"awfully":3743,"tommy":3744,"dumptruck":3745,"painted":3746,"scratchy":3747,"tigers":3748,"gorilla":3749,"explain":3750,"camping":3751,"hid":3752,"pard":3753,"heal":3754,"##ices":3755,"knees":3756,"chat":3757,"##athers":3758,"unscrew":3759,"april":3760,"movies":3761,"elect":3762,"court":3763,"lyn":3764,"nancy":3765,"tomatoes":3766,"oppos":3767,"jingle":3768,"vitam":3769,"cakes":3770,"jay":3771,"popped":3772,"ut":3773,"weird":3774,"##icer":3775,"tricycle":3776,"##bled":3777,"smo":3778,"leaving":3779,"fishies":3780,"dumpty":3781,"conne":3782,"spray":3783,"package":3784,"silver":3785,"carpet":3786,"pardon":3787,"dw":3788,"ray":3789,"wool":3790,"##par":3791,"seeing":3792,"notice":3793,"gotten":3794,"##otam":3795,"brick":3796,"gray":3797,"turtles":3798,"scot":3799,"locked":3800,"glor":3801,"kidding":3802,"##boat":3803,"boats":3804,"mailman":3805,"spots":3806,"butterflies":3807,"supermark":3808,"fighting":3809,"filled":3810,"popsicle":3811,"diamond":3812,"dust":3813,"kath":3814,"zer":3815,"##anes":3816,"held":3817,"##oring":3818,"inc":3819,"plates":3820,"##alls":3821,"drank":3822,"twist":3823,"##olute":3824,"heads":3825,"duckling":3826,"highchair":3827,"pencils":3828,"bouncy":3829,"froggie":3830,"pajama":3831,"gordon":3832,"achoo":3833,"syrup":3834,"grampa":3835,"hummus":3836,"costume":3837,"absolute":3838,"caboose":3839,"supermarket":3840,"burp":3841,"dist":3842,"##ying":3843,"annie":3844,"angel":3845,"##ison":3846,"shiny":3847,"##arium":3848,"waste":3849,"sof":3850,"##ella":3851,"##opotam":3852,"buh":3853,"blueberry":3854,"shorts":3855,"slept":3856,"courtney":3857,"hood":3858,"rasp":3859,"sense":3860,"tar":3861,"##hy":3862,"##ja":3863,"weather":3864,"##chup":3865,"trade":3866,"clou":3867,"span":3868,"nemo":3869,"otherwise":3870,"##abeth":3871,"grey":3872,"bedroom":3873,"##xteen":3874,"bottles":3875,"##opping":3876,"oopsie":3877,"banging":3878,"chicks":3879,"##aughter":3880,"hippopotam":3881,"crawling":3882,"ugh":3883,"sixteen":3884,"sleeve":3885,"ketchup":3886,"elizabeth":3887,"electric":3888,"absolutely":3889,"deed":3890,"jon":3891,"luck":3892,"mum":3893,"rul":3894,"##men":3895,"dol":3896,"hea":3897,"bacon":3898,"##iew":3899,"##ado":3900,"flavor":3901,"finding":3902,"watering":3903,"##eenex":3904,"amaz":3905,"loved":3906,"snail":3907,"parade":3908,"ninet":3909,"steve":3910,"norman":3911,"candles":3912,"kleenex":3913,"lonely":3914,"gloria":3915,"zero":3916,"died":3917,"hint":3918,"ker":3919,"sear":3920,"stu":3921,"stones":3922,"sore":3923,"grew":3924,"sub":3925,"bedtime":3926,"##asses":3927,"squares":3928,"slowly":3929,"jillian":3930,"vanilla":3931,"cabin":3932,"sneakers":3933,"parents":3934,"hippopotamus":3935,"bom":3936,"cem":3937,"eey":3938,"loop":3939,"tat":3940,"##med":3941,"##cles":3942,"##ann":3943,"cheep":3944,"##andra":3945,"bleep":3946,"cloud":3947,"crane":3948,"scoot":3949,"naomi":3950,"##othy":3951,"counting":3952,"kicking":3953,"beef":3954,"began":3955,"##venteen":3956,"branch":3957,"gabby":3958,"toddler":3959,"nineteen":3960,"bunn":3961,"cop":3962,"poke":3963,"sou":3964,"##iot":3965,"##gr":3966,"##mond":3967,"reind":3968,"##thy":3969,"##iced":3970,"chain":3971,"gross":3972,"others":3973,"peck":3974,"prot":3975,"prize":3976,"pockets":3977,"tadi":3978,"resc":3979,"feather":3980,"practice":3981,"scooter":3982,"totally":3983,"cocoa":3984,"stefan":3985,"helmet":3986,"bunnies":3987,"reinde":3988,"dep":3989,"mart":3990,"pitch":3991,"tam":3992,"##hopp":3993,"##can":3994,"##bie":3995,"##jo":3996,"bare":3997,"chop":3998,"##ppers":3999,"colored":4000,"seventeen":4001,"joanna":4002,"grasshopp":4003,"matches":4004,"washington":4005,"calf":4006,"fairy":4007,"ugly":4008,"penguins":4009,"shaking":4010,"fancy":4011,"cordur":4012,"spanking":4013,"watermelon":4014,"aquarium":4015,"kathy":4016,"bun":4017,"wi":4018,"##sie":4019,"##gers":4020,"##brow":4021,"##uth":4022,"##opher":4023,"##andel":4024,"overalls":4025,"crick":4026,"holds":4027,"storm":4028,"dollies":4029,"towards":4030,"roller":4031,"airplanes":4032,"eyebrow":4033,"beauty":4034,"christopher":4035,"mixer":4036,"tricky":4037,"nursie":4038,"planet":4039,"luke":4040,"beside":4041,"large":4042,"mushrooms":4043,"##iscuit":4044,"lollipop":4045,"connect":4046,"heaven":4047,"corduroy":4048,"bay":4049,"##ki":4050,"thin":4051,"heat":4052,"##essed":4053,"##ids":4054,"eater":4055,"##aped":4056,"exer":4057,"staying":4058,"skirt":4059,"learning":4060,"questions":4061,"crunchy":4062,"crumbs":4063,"eeyore":4064,"bin":4065,"biscuit":4066,"daughter":4067,"lab":4068,"##ray":4069,"##dge":4070,"almond":4071,"frustr":4072,"brand":4073,"##gels":4074,"pens":4075,"march":4076,"debbie":4077,"##oodles":4078,"tripod":4079,"magnet":4080,"clouds":4081,"age":4082,"fool":4083,"kab":4084,"mass":4085,"##ial":4086,"##paper":4087,"anne":4088,"tax":4089,"alice":4090,"pudding":4091,"horton":4092,"ours":4093,"barbar":4094,"post":4095,"sisters":4096,"bobby":4097,"snacks":4098,"##road":4099,"feathers":4100,"whisper":4101,"complete":4102,"underwear":4103,"video":4104,"railroad":4105,"dolph":4106,"bas":4107,"dat":4108,"faces":4109,"noodles":4110,"ore":4111,"pos":4112,"sled":4113,"dor":4114,"whats":4115,"troll":4116,"spread":4117,"##ocks":4118,"worked":4119,"##ooper":4120,"sleeps":4121,"##ocer":4122,"bathing":4123,"tickling":4124,"##cially":4125,"walls":4126,"closing":4127,"attached":4128,"pilot":4129,"counter":4130,"study":4131,"protect":4132,"exerc":4133,"barbara":4134,"est":4135,"rumm":4136,"tied":4137,"va":4138,"##lets":4139,"##dered":4140,"##bee":4141,"tock":4142,"bake":4143,"allowed":4144,"splin":4145,"whenever":4146,"breaking":4147,"teas":4148,"fellow":4149,"snowing":4150,"mars":4151,"nursing":4152,"dreams":4153,"hours":4154,"oranges":4155,"nickel":4156,"chasing":4157,"fer":4158,"fil":4159,"josh":4160,"mur":4161,"meal":4162,"pins":4163,"test":4164,"wore":4165,"yah":4166,"yikes":4167,"##ridge":4168,"##wah":4169,"itself":4170,"##chio":4171,"stock":4172,"stood":4173,"dried":4174,"grac":4175,"##ared":4176,"guh":4177,"shows":4178,"sean":4179,"sept":4180,"drinks":4181,"##ubb":4182,"rolled":4183,"starfish":4184,"conc":4185,"disc":4186,"papers":4187,"jello":4188,"dumbo":4189,"waffle":4190,"stretch":4191,"dandel":4192,"pon":4193,"rin":4194,"##ena":4195,"babe":4196,"stat":4197,"stella":4198,"jung":4199,"clunk":4200,"spend":4201,"aguh":4202,"proud":4203,"##ressed":4204,"beak":4205,"daniel":4206,"curly":4207,"curious":4208,"vegetable":4209,"curtains":4210,"rhinocer":4211,"september":4212,"esc":4213,"gigg":4214,"lang":4215,"noodle":4216,"wease":4217,"##ual":4218,"##ioc":4219,"##ount":4220,"chance":4221,"fries":4222,"spare":4223,"waving":4224,"difficul":4225,"walks":4226,"owls":4227,"apron":4228,"spiderman":4229,"peach":4230,"lately":4231,"golden":4232,"freight":4233,"reindeer":4234,"rhinoceros":4235,"weasel":4236,"borrow":4237,"dub":4238,"double":4239,"sang":4240,"##uary":4241,"##isandy":4242,"shr":4243,"stinky":4244,"##inker":4245,"##ila":4246,"##umpy":4247,"hung":4248,"markers":4249,"skip":4250,"barney":4251,"patient":4252,"##ations":4253,"fingerna":4254,"bumpity":4255,"straighten":4256,"metal":4257,"porridge":4258,"disappeared":4259,"proper":4260,"jungle":4261,"hose":4262,"tush":4263,"##rus":4264,"beer":4265,"diddle":4266,"hush":4267,"coke":4268,"hmm":4269,"flound":4270,"##els":4271,"brend":4272,"##ippy":4273,"laa":4274,"jenell":4275,"scram":4276,"windy":4277,"olives":4278,"tapioc":4279,"landed":4280,"figured":4281,"sharing":4282,"changing":4283,"whisk":4284,"attach":4285,"pretzels":4286,"arrive":4287,"difficult":4288,"tapioca":4289,"doug":4290,"han":4291,"jas":4292,"wife":4293,"##nger":4294,"##ges":4295,"##head":4296,"##zing":4297,"##iness":4298,"dots":4299,"##chu":4300,"noticed":4301,"moves":4302,"cozy":4303,"crad":4304,"becca":4305,"brings":4306,"##occhio":4307,"##agag":4308,"pots":4309,"ringing":4310,"owie":4311,"constr":4312,"deliver":4313,"pouring":4314,"mixing":4315,"pinocchio":4316,"tighten":4317,"popping":4318,"woah":4319,"##cloth":4320,"choice":4321,"cinna":4322,"sofa":4323,"flounder":4324,"cond":4325,"los":4326,"##lic":4327,"##ded":4328,"##gh":4329,"##pants":4330,"##oosh":4331,"##onds":4332,"##ldow":4333,"dong":4334,"mem":4335,"didldow":4336,"sting":4337,"##ically":4338,"maine":4339,"mop":4340,"mommies":4341,"##pecially":4342,"yelling":4343,"geese":4344,"buckle":4345,"spinning":4346,"jimmy":4347,"millisandy":4348,"wrapping":4349,"especially":4350,"frosting":4351,"return":4352,"kaboom":4353,"ast":4354,"berries":4355,"mask":4356,"ni":4357,"ped":4358,"wom":4359,"##hoe":4360,"itsy":4361,"beet":4362,"##though":4363,"##pple":4364,"##ung":4365,"bozo":4366,"although":4367,"gotcha":4368,"drip":4369,"grouch":4370,"##oscope":4371,"##elf":4372,"rocket":4373,"fuzz":4374,"##lier":4375,"stepped":4376,"checking":4377,"taller":4378,"crashed":4379,"slippery":4380,"forever":4381,"scarf":4382,"simple":4383,"screaming":4384,"newspaper":4385,"steam":4386,"temper":4387,"snuggle":4388,"cinnamon":4389,"hate":4390,"ripped":4391,"ur":4392,"##yl":4393,"##no":4394,"##py":4395,"##val":4396,"##band":4397,"toddy":4398,"hamp":4399,"##ida":4400,"##ases":4401,"##adada":4402,"##ales":4403,"carl":4404,"peppers":4405,"wrist":4406,"lotta":4407,"bitsy":4408,"nappie":4409,"sings":4410,"below":4411,"lawn":4412,"knocking":4413,"thanksgi":4414,"pillows":4415,"freezer":4416,"pancake":4417,"passe":4418,"lynn":4419,"taxi":4420,"langu":4421,"thanksgiving":4422,"dick":4423,"jeez":4424,"ki":4425,"lass":4426,"wars":4427,"##ring":4428,"##lia":4429,"##bi":4430,"##eaking":4431,"pliers":4432,"arrow":4433,"sugg":4434,"amount":4435,"glove":4436,"sidewalk":4437,"dribble":4438,"hamster":4439,"pumpkins":4440,"johnny":4441,"doughnut":4442,"basement":4443,"squirre":4444,"racket":4445,"ax":4446,"jer":4447,"jac":4448,"les":4449,"##antern":4450,"##erv":4451,"##uto":4452,"##vers":4453,"##under":4454,"hugging":4455,"drove":4456,"worms":4457,"##pect":4458,"underpants":4459,"walrus":4460,"earlier":4461,"rocky":4462,"blankets":4463,"##lax":4464,"miriam":4465,"meeting":4466,"neighbor":4467,"attention":4468,"##glasses":4469,"ponies":4470,"cradle":4471,"kissed":4472,"san":4473,"relax":4474,"##ical":4475,"##icorn":4476,"bock":4477,"##ota":4478,"club":4479,"spitting":4480,"muah":4481,"ass":4482,"duckies":4483,"badji":4484,"unicorn":4485,"bowling":4486,"piggies":4487,"##ault":4488,"sweat":4489,"problems":4490,"goldfish":4491,"horns":4492,"company":4493,"serious":4494,"cartoon":4495,"teeny":4496,"junk":4497,"promise":4498,"imagine":4499,"celery":4500,"trailer":4501,"damn":4502,"amazing":4503,"cabinet":4504,"martin":4505,"scrambled":4506,"astron":4507,"tin":4508,"yar":4509,"##yle":4510,"##yard":4511,"##ved":4512,"shave":4513,"rep":4514,"##ences":4515,"plus":4516,"bobo":4517,"cathy":4518,"talks":4519,"fourth":4520,"tickles":4521,"married":4522,"napkins":4523,"sandra":4524,"horsies":4525,"project":4526,"towels":4527,"mountains":4528,"##ivy":4529,"blew":4530,"janet":4531,"construction":4532,"language":4533,"squirrels":4534,"ron":4535,"sip":4536,"tinker":4537,"view":4538,"zoe":4539,"##aut":4540,"thick":4541,"web":4542,"##onk":4543,"##cher":4544,"##ican":4545,"soy":4546,"##une":4547,"bok":4548,"hol":4549,"foods":4550,"smash":4551,"picks":4552,"roast":4553,"grandmother":4554,"moose":4555,"stepping":4556,"winnie":4557,"design":4558,"contr":4559,"further":4560,"granny":4561,"collect":4562,"##ergart":4563,"cheeks":4564,"gracious":4565,"astronaut":4566,"bunk":4567,"cape":4568,"dime":4569,"fant":4570,"fuss":4571,"jeep":4572,"mis":4573,"nar":4574,"##wuh":4575,"##vey":4576,"member":4577,"##ader":4578,"human":4579,"blink":4580,"ari":4581,"mul":4582,"birdies":4583,"ducky":4584,"piglets":4585,"dining":4586,"##ogn":4587,"hardly":4588,"bouncing":4589,"seats":4590,"clowns":4591,"squeaky":4592,"tuna":4593,"cuz":4594,"power":4595,"sneeze":4596,"pirate":4597,"healthy":4598,"vaivy":4599,"splinter":4600,"yarn":4601,"dab":4602,"pouch":4603,"runny":4604,"##ued":4605,"##form":4606,"##vin":4607,"##bed":4608,"whom":4609,"##ester":4610,"##ider":4611,"##enter":4612,"wherever":4613,"puddy":4614,"ways":4615,"##angles":4616,"potter":4617,"microw":4618,"stops":4619,"fireplace":4620,"untie":4621,"ragged":4622,"##ensive":4623,"tapes":4624,"colle":4625,"crossing":4626,"ache":4627,"tamar":4628,"dorothy":4629,"##ergarten":4630,"microwave":4631,"cree":4632,"digg":4633,"jerry":4634,"##af":4635,"thous":4636,"itchy":4637,"weigh":4638,"##icles":4639,"forward":4640,"july":4641,"trave":4642,"fris":4643,"fright":4644,"fridge":4645,"crown":4646,"sliding":4647,"wax":4648,"worse":4649,"recogn":4650,"builder":4651,"firetruck":4652,"purp":4653,"message":4654,"paints":4655,"mailbox":4656,"combination":4657,"wiggles":4658,"goats":4659,"calm":4660,"freder":4661,"elliot":4662,"wilson":4663,"creature":4664,"wires":4665,"completely":4666,"raggedy":4667,"thousand":4668,"fed":4669,"lantern":4670,"nib":4671,"paw":4672,"sch":4673,"wing":4674,"toby":4675,"seek":4676,"##adill":4677,"pluto":4678,"sol":4679,"themselves":4680,"backyard":4681,"spout":4682,"dial":4683,"milksh":4684,"##zzle":4685,"##zzie":4686,"fishy":4687,"clever":4688,"tippy":4689,"stuffed":4690,"ideas":4691,"dev":4692,"rolls":4693,"spilling":4694,"reaching":4695,"hippos":4696,"wooden":4697,"buildings":4698,"##ika":4699,"wrapped":4700,"cooked":4701,"instrument":4702,"chatty":4703,"opposite":4704,"bricks":4705,"south":4706,"cell":4707,"emp":4708,"gener":4709,"oval":4710,"##night":4711,"##cri":4712,"helen":4713,"shaped":4714,"rel":4715,"dripping":4716,"blood":4717,"coal":4718,"##iles":4719,"spaces":4720,"flor":4721,"oposs":4722,"team":4723,"hotel":4724,"evening":4725,"armadill":4726,"tails":4727,"##ddie":4728,"steph":4729,"combing":4730,"covers":4731,"curls":4732,"nursies":4733,"porch":4734,"avoc":4735,"jesse":4736,"deedee":4737,"cricket":4738,"frederick":4739,"opossum":4740,"kna":4741,"messed":4742,"pac":4743,"surf":4744,"##ua":4745,"##umy":4746,"##gy":4747,"##he":4748,"thunder":4749,"##asa":4750,"##aming":4751,"carey":4752,"stands":4753,"realize":4754,"unha":4755,"patting":4756,"treas":4757,"confu":4758,"chicka":4759,"hugs":4760,"disney":4761,"##usty":4762,"tyr":4763,"saucer":4764,"shells":4765,"following":4766,"bambi":4767,"bothering":4768,"possible":4769,"rhymes":4770,"rescue":4771,"teasing":4772,"dandelion":4773,"holiday":4774,"avocado":4775,"amy":4776,"eddie":4777,"ken":4778,"mim":4779,"munch":4780,"pier":4781,"sippy":4782,"ver":4783,"yoy":4784,"##sa":4785,"##nee":4786,"##guh":4787,"##ks":4788,"##cat":4789,"##com":4790,"##ckey":4791,"##bell":4792,"##bered":4793,"##inal":4794,"##sect":4795,"insect":4796,"##ened":4797,"bagels":4798,"stink":4799,"##illou":4800,"dadada":4801,"saf":4802,"cra":4803,"become":4804,"diandra":4805,"##ately":4806,"horri":4807,"sara":4808,"ski":4809,"skating":4810,"polish":4811,"acorn":4812,"conf":4813,"phot":4814,"mostly":4815,"resting":4816,"caillou":4817,"susie":4818,"sailboat":4819,"flashlight":4820,"dutch":4821,"ashes":4822,"pitcher":4823,"properly":4824,"leslie":4825,"unhappy":4826,"treasure":4827,"hic":4828,"nu":4829,"rush":4830,"tumble":4831,"##tion":4832,"##las":4833,"##door":4834,"##ses":4835,"##hurt":4836,"##oint":4837,"##reen":4838,"whad":4839,"##anic":4840,"##isp":4841,"ink":4842,"##chch":4843,"##stal":4844,"stup":4845,"tramp":4846,"##ophone":4847,"##ander":4848,"brief":4849,"carries":4850,"shoulder":4851,"harvey":4852,"exam":4853,"roy":4854,"cupboard":4855,"beast":4856,"partic":4857,"toward":4858,"sunglasses":4859,"yoghurt":4860,"oof":4861,"pinea":4862,"toothp":4863,"laughed":4864,"darth":4865,"serv":4866,"skinny":4867,"striped":4868,"wilbur":4869,"rhyme":4870,"grasshopper":4871,"arrived":4872,"temperature":4873,"digging":4874,"cuck":4875,"ges":4876,"rag":4877,"##ail":4878,"##ience":4879,"##ndy":4880,"##rect":4881,"##owing":4882,"states":4883,"outdoor":4884,"justin":4885,"ali":4886,"brain":4887,"grumpy":4888,"slip":4889,"drawers":4890,"envel":4891,"breaks":4892,"keeping":4893,"amer":4894,"##rily":4895,"ninety":4896,"prov":4897,"##ugged":4898,"wiggily":4899,"sammy":4900,"nanny":4901,"drums":4902,"porcup":4903,"lowly":4904,"grammy":4905,"balance":4906,"hamburgers":4907,"ellie":4908,"waffles":4909,"shouted":4910,"expensive":4911,"ducklings":4912,"whiskers":4913,"beetle":4914,"bitt":4915,"equ":4916,"fab":4917,"kam":4918,"mi":4919,"pip":4920,"rar":4921,"valley":4922,"zack":4923,"##vator":4924,"tony":4925,"##ooked":4926,"wendy":4927,"isab":4928,"##idi":4929,"baker":4930,"tag":4931,"##ede":4932,"chester":4933,"elana":4934,"separ":4935,"pride":4936,"##quit":4937,"afterwards":4938,"skipped":4939,"sounded":4940,"bumper":4941,"batman":4942,"elevator":4943,"rule":4944,"sprink":4945,"tricks":4946,"erica":4947,"lemonade":4948,"artist":4949,"correct":4950,"jesus":4951,"lipstick":4952,"spanish":4953,"eyebrows":4954,"statue":4955,"confused":4956,"mimi":4957,"horrible":4958,"pineapple":4959,"cuckoo":4960,"cig":4961,"cooper":4962,"dumb":4963,"gulp":4964,"master":4965,"sile":4966,"tit":4967,"vol":4968,"##uk":4969,"##ko":4970,"##cases":4971,"##fasa":4972,"whining":4973,"##ken":4974,"renee":4975,"stomp":4976,"##ural":4977,"##bert":4978,"pup":4979,"mufasa":4980,"##olas":4981,"price":4982,"pickles":4983,"cupcake":4984,"business":4985,"snowfl":4986,"barking":4987,"easily":4988,"engineer":4989,"suitcases":4990,"jammies":4991,"ladies":4992,"paste":4993,"shaving":4994,"ladybugs":4995,"smoothie":4996,"simon":4997,"mashed":4998,"jeff":4999,"disappear":5000,"burned":5001,"propell":5002,"soldier":5003,"jonathan":5004,"memory":5005,"milkshake":5006,"spacesh":5007,"stupid":5008,"particular":5009,"bead":5010,"cale":5011,"nuh":5012,"pou":5013,"pies":5014,"path":5015,"ripe":5016,"vase":5017,"##dr":5018,"##za":5019,"##idd":5020,"shy":5021,"shining":5022,"##ara":5023,"baking":5024,"stud":5025,"knob":5026,"plop":5027,"bored":5028,"##outs":5029,"carried":5030,"twice":5031,"##aste":5032,"##embered":5033,"remembered":5034,"smily":5035,"leop":5036,"##tail":5037,"yaya":5038,"firef":5039,"lazy":5040,"chickie":5041,"drops":5042,"pears":5043,"indians":5044,"transm":5045,"cotton":5046,"vitamins":5047,"losing":5048,"hiccup":5049,"calend":5050,"ema":5051,"math":5052,"okey":5053,"vader":5054,"##ned":5055,"##how":5056,"##vy":5057,"##jou":5058,"toaster":5059,"heeh":5060,"wedding":5061,"##omes":5062,"steth":5063,"##addy":5064,"##itts":5065,"llama":5066,"someplace":5067,"tries":5068,"hus":5069,"needle":5070,"swiper":5071,"flush":5072,"waking":5073,"scri":5074,"pray":5075,"snuffy":5076,"expect":5077,"single":5078,"marker":5079,"eraser":5080,"alec":5081,"swims":5082,"bangs":5083,"catching":5084,"doctors":5085,"peaches":5086,"hearts":5087,"laying":5088,"tears":5089,"measuring":5090,"franc":5091,"wreck":5092,"rules":5093,"cement":5094,"trolley":5095,"recognize":5096,"nibble":5097,"florida":5098,"toothpaste":5099,"boring":5100,"cust":5101,"lin":5102,"pau":5103,"xyl":5104,"##lers":5105,"##less":5106,"##xy":5107,"dokey":5108,"often":5109,"##irl":5110,"trape":5111,"mos":5112,"bookcase":5113,"crooked":5114,"grill":5115,"alrightie":5116,"turkeys":5117,"comfy":5118,"kindergarten":5119,"log":5120,"ope":5121,"leila":5122,"##aga":5123,"skate":5124,"skates":5125,"seconds":5126,"seventy":5127,"dresses":5128,"dumped":5129,"bounces":5130,"salmon":5131,"oatios":5132,"tuba":5133,"desert":5134,"##burgh":5135,"nanette":5136,"pointed":5137,"merrily":5138,"grampy":5139,"mattress":5140,"whoosh":5141,"invited":5142,"breathe":5143,"##ograp":5144,"raspberries":5145,"cigare":5146,"stethoscope":5147,"xylophone":5148,"bing":5149,"dun":5150,"dah":5151,"hip":5152,"mwuh":5153,"pj":5154,"pant":5155,"pitts":5156,"self":5157,"vir":5158,"##tage":5159,"##gn":5160,"##gin":5161,"##ware":5162,"##cr":5163,"##bu":5164,"##je":5165,"whew":5166,"##iter":5167,"inter":5168,"##idence":5169,"##name":5170,"donut":5171,"mech":5172,"##choo":5173,"steak":5174,"##ico":5175,"##amole":5176,"alad":5177,"cocon":5178,"neither":5179,"cran":5180,"grizz":5181,"budle":5182,"waves":5183,"reads":5184,"helper":5185,"hadn":5186,"guac":5187,"##oline":5188,"smurf":5189,"pushes":5190,"training":5191,"keeper":5192,"##ubby":5193,"ticket":5194,"bumpy":5195,"wallet":5196,"sandwiches":5197,"quietly":5198,"charles":5199,"ruin":5200,"##ments":5201,"macdonald":5202,"digger":5203,"cousins":5204,"##flower":5205,"elbows":5206,"cottage":5207,"shaky":5208,"joshua":5209,"fingernails":5210,"douglas":5211,"fantastic":5212,"kamut":5213,"calendar":5214,"pittsburgh":5215,"coconut":5216,"guacamole":5217,"eag":5218,"ostr":5219,"rum":5220,"tug":5221,"terry":5222,"##iya":5223,"##fr":5224,"##vious":5225,"##ini":5226,"##lle":5227,"stan":5228,"putt":5229,"##icing":5230,"someday":5231,"##umber":5232,"##icky":5233,"##ilocks":5234,"willy":5235,"swam":5236,"touched":5237,"bars":5238,"barber":5239,"##ract":5240,"engines":5241,"english":5242,"seals":5243,"phil":5244,"strings":5245,"froggy":5246,"giraffes":5247,"goldilocks":5248,"##leton":5249,"cowboys":5250,"tube":5251,"tissues":5252,"sentence":5253,"katy":5254,"licking":5255,"baloney":5256,"krist":5257,"telet":5258,"electricity":5259,"frustrated":5260,"dolphin":5261,"pierre":5262,"porcupine":5263,"isabelle":5264,"francis":5265,"ostrich":5266,"bi":5267,"hank":5268,"rap":5269,"yolk":5270,"##tered":5271,"##fit":5272,"##ative":5273,"doh":5274,"ins":5275,"mex":5276,"sheet":5277,"jupit":5278,"julia":5279,"claws":5280,"cries":5281,"elastic":5282,"somers":5283,"flaming":5284,"hockey":5285,"progr":5286,"checked":5287,"yelled":5288,"tops":5289,"towers":5290,"sideways":5291,"president":5292,"lambs":5293,"goldie":5294,"nonno":5295,"explore":5296,"jean":5297,"mitten":5298,"torto":5299,"abcs":5300,"copy":5301,"suggest":5302,"narrow":5303,"mulberry":5304,"firefight":5305,"jupiter":5306,"program":5307,"nn":5308,"raw":5309,"##den":5310,"##die":5311,"##mm":5312,"weist":5313,"cane":5314,"baw":5315,"##odod":5316,"cherries":5317,"speed":5318,"sport":5319,"##gey":5320,"cracked":5321,"##ffic":5322,"shove":5323,"sniff":5324,"eyed":5325,"walnut":5326,"fishie":5327,"##agu":5328,"ends":5329,"##bbles":5330,"blows":5331,"banjo":5332,"##izes":5333,"join":5334,"dryer":5335,"teaching":5336,"grows":5337,"charge":5338,"slipped":5339,"scratched":5340,"saved":5341,"muffins":5342,"perfectly":5343,"stripes":5344,"control":5345,"frisbee":5346,"purpose":5347,"outdoors":5348,"mosquit":5349,"aug":5350,"cred":5351,"dest":5352,"mumm":5353,"noon":5354,"nerv":5355,"pter":5356,"pine":5357,"piper":5358,"wine":5359,"zo":5360,"##rod":5361,"##mill":5362,"##mine":5363,"##coat":5364,"itch":5365,"gob":5366,"shade":5367,"chuck":5368,"##ille":5369,"clack":5370,"spy":5371,"##ffy":5372,"bup":5373,"baller":5374,"shoulders":5375,"sculp":5376,"guest":5377,"leap":5378,"sorts":5379,"tik":5380,"handsome":5381,"acting":5382,"wheelbar":5383,"sandals":5384,"##eye":5385,"owe":5386,"bumps":5387,"mood":5388,"ooaa":5389,"##usting":5390,"machines":5391,"dadaji":5392,"edna":5393,"norm":5394,"fifth":5395,"palace":5396,"directions":5397,"teles":5398,"stocking":5399,"armadillo":5400,"briefcase":5401,"envelope":5402,"poured":5403,"hiccups":5404,"august":5405,"nervous":5406,"cd":5407,"cent":5408,"dies":5409,"date":5410,"rusty":5411,"ss":5412,"salley":5413,"tuck":5414,"wu":5415,"zach":5416,"##you":5417,"##uct":5418,"##work":5419,"##cess":5420,"##bah":5421,"##ities":5422,"cans":5423,"##chief":5424,"##ielle":5425,"tables":5426,"chir":5427,"note":5428,"outfit":5429,"##cember":5430,"drool":5431,"saus":5432,"griz":5433,"bul":5434,"helpful":5435,"##shire":5436,"danielle":5437,"err":5438,"ticklish":5439,"marty":5440,"parking":5441,"popeye":5442,"december":5443,"brushes":5444,"yoga":5445,"steg":5446,"steven":5447,"sharon":5448,"paying":5449,"freezing":5450,"##iki":5451,"rosy":5452,"mamm":5453,"racing":5454,"pattycake":5455,"bleh":5456,"siren":5457,"susan":5458,"stamps":5459,"magnets":5460,"wiping":5461,"factor":5462,"crowded":5463,"incred":5464,"esther":5465,"women":5466,"yoyo":5467,"spaceship":5468,"leopard":5469,"husband":5470,"scribble":5471,"wheelbarrow":5472,"telescope":5473,"dak":5474,"lor":5475,"lun":5476,"mid":5477,"nich":5478,"ps":5479,"ramp":5480,"##aly":5481,"##acle":5482,"##mat":5483,"##cut":5484,"##cock":5485,"thread":5486,"dock":5487,"##ising":5488,"##oos":5489,"##ora":5490,"##ene":5491,"##store":5492,"maker":5493,"alarm":5494,"fry":5495,"cluck":5496,"spicy":5497,"twins":5498,"##rystal":5499,"hopping":5500,"loaf":5501,"leash":5502,"washcloth":5503,"garlic":5504,"convers":5505,"hooked":5506,"chinese":5507,"crabs":5508,"felix":5509,"clickety":5510,"quarters":5511,"dipsy":5512,"yawning":5513,"vitamin":5514,"dwar":5515,"whispering":5516,"jasmine":5517,"hampshire":5518,"stephen":5519,"virgin":5520,"mechanic":5521,"kristen":5522,"credit":5523,"nicholas":5524,"virginia":5525,"cav":5526,"dou":5527,"ent":5528,"fiddle":5529,"linc":5530,"nicer":5531,"rrr":5532,"vest":5533,"wuh":5534,"##line":5535,"##iar":5536,"##nog":5537,"##oard":5538,"doop":5539,"doggy":5540,"goog":5541,"heidi":5542,"weed":5543,"##enas":5544,"stage":5545,"##tha":5546,"knick":5547,"julie":5548,"truth":5549,"aboard":5550,"hero":5551,"drag":5552,"cob":5553,"org":5554,"##hmallow":5555,"##uel":5556,"flop":5557,"given":5558,"##ores":5559,"##oln":5560,"usher":5561,"##ogna":5562,"eggnog":5563,"kiddo":5564,"bowls":5565,"pokey":5566,"sixty":5567,"dale":5568,"raincoat":5569,"smallest":5570,"eighty":5571,"traffic":5572,"melt":5573,"peace":5574,"stepmother":5575,"barnes":5576,"sprouts":5577,"famil":5578,"hills":5579,"paddle":5580,"costs":5581,"pennys":5582,"sharks":5583,"poppop":5584,"louder":5585,"german":5586,"grownup":5587,"exercise":5588,"marshmallow":5589,"##ubbies":5590,"tushie":5591,"cartoons":5592,"insects":5593,"##ispies":5594,"##ograph":5595,"destr":5596,"bent":5597,"dare":5598,"fet":5599,"gay":5600,"jap":5601,"ot":5602,"pit":5603,"pik":5604,"rot":5605,"##hi":5606,"##va":5607,"anten":5608,"##esome":5609,"##oms":5610,"rece":5611,"##che":5612,"letting":5613,"chi":5614,"chief":5615,"plugged":5616,"alike":5617,"blind":5618,"frumble":5619,"bront":5620,"carn":5621,"sack":5622,"buff":5623,"slides":5624,"army":5625,"##artment":5626,"finds":5627,"##ently":5628,"bits":5629,"fishes":5630,"awesome":5631,"patch":5632,"patric":5633,"polka":5634,"bats":5635,"rud":5636,"typ":5637,"rhode":5638,"freeze":5639,"##bread":5640,"indeed":5641,"sentences":5642,"forehead":5643,"china":5644,"coughing":5645,"cheerio":5646,"hydr":5647,"january":5648,"cubes":5649,"reminds":5650,"babysitter":5651,"scotch":5652,"dabee":5653,"tortoise":5654,"ballerina":5655,"factory":5656,"lincoln":5657,"japan":5658,"patricia":5659,"fash":5660,"lee":5661,"led":5662,"ol":5663,"port":5664,"ske":5665,"winky":5666,"##gah":5667,"##hah":5668,"##pard":5669,"##we":5670,"##cht":5671,"##ju":5672,"tore":5673,"gown":5674,"inches":5675,"lia":5676,"##cho":5677,"steal":5678,"uppy":5679,"mali":5680,"boiling":5681,"buster":5682,"slice":5683,"guard":5684,"##phy":5685,"wondered":5686,"headache":5687,"rooms":5688,"adv":5689,"pulls":5690,"woody":5691,"nai":5692,"hunm":5693,"poison":5694,"##boree":5695,"hamm":5696,"joy":5697,"##bridge":5698,"feeder":5699,"hurray":5700,"oatio":5701,"dreaming":5702,"mushy":5703,"serve":5704,"witches":5705,"aids":5706,"guns":5707,"seemed":5708,"points":5709,"bologna":5710,"natural":5711,"babaji":5712,"babysit":5713,"concert":5714,"passenger":5715,"knack":5716,"firefighter":5717,"diesel":5718,"conversation":5719,"aim":5720,"center":5721,"igu":5722,"lane":5723,"nasty":5724,"rash":5725,"sill":5726,"sour":5727,"vel":5728,"wiz":5729,"##rah":5730,"##yah":5731,"##gle":5732,"##pie":5733,"##ok":5734,"##anie":5735,"tofu":5736,"##ayay":5737,"onions":5738,"##lebr":5739,"chose":5740,"notes":5741,"somehow":5742,"trou":5743,"bop":5744,"drain":5745,"speaking":5746,"ark":5747,"holy":5748,"hopper":5749,"screen":5750,"##elia":5751,"hih":5752,"smush":5753,"nighttime":5754,"ada":5755,"pets":5756,"hunting":5757,"marks":5758,"rossy":5759,"grandaddy":5760,"marvel":5761,"##balls":5762,"climbs":5763,"teachers":5764,"googey":5765,"ponytail":5766,"liza":5767,"celebr":5768,"jeans":5769,"woggie":5770,"invite":5771,"cindy":5772,"giggle":5773,"ronnie":5774,"craig":5775,"providence":5776,"separate":5777,"transmitter":5778,"grizzly":5779,"sculpture":5780,"stegosaurus":5781,"incredible":5782,"psst":5783,"doub":5784,"fashion":5785,"berry":5786,"bikes":5787,"homes":5788,"pent":5789,"sig":5790,"tul":5791,"##town":5792,"##ior":5793,"##cumber":5794,"whine":5795,"##utta":5796,"##igan":5797,"##sels":5798,"area":5799,"##stem":5800,"jug":5801,"maple":5802,"blues":5803,"##aputta":5804,"clam":5805,"cro":5806,"pref":5807,"fluffy":5808,"wakes":5809,"##ggle":5810,"uhp":5811,"scale":5812,"diving":5813,"chees":5814,"advent":5815,"##ogs":5816,"peeking":5817,"##ttes":5818,"##aged":5819,"##shine":5820,"dean":5821,"catches":5822,"##erald":5823,"instr":5824,"forgotten":5825,"##umbling":5826,"hammering":5827,"visiting":5828,"season":5829,"reached":5830,"medium":5831,"clapping":5832,"tyler":5833,"splashing":5834,"folding":5835,"cucumber":5836,"gorge":5837,"furry":5838,"grapefr":5839,"collar":5840,"hyenas":5841,"branches":5842,"caf":5843,"obvious":5844,"fredrick":5845,"floating":5846,"sewing":5847,"murphy":5848,"rinse":5849,"frightened":5850,"puttaputta":5851,"somersault":5852,"troubles":5853,"pentagon":5854,"grapefruit":5855,"bould":5856,"cod":5857,"gerald":5858,"icing":5859,"jagu":5860,"nipp":5861,"pomp":5862,"ruth":5863,"tut":5864,"##lor":5865,"##uw":5866,"##hh":5867,"##oes":5868,"##cos":5869,"##atter":5870,"dom":5871,"##eap":5872,"##omb":5873,"ohp":5874,"shed":5875,"shore":5876,"##onna":5877,"##stache":5878,"stream":5879,"##imp":5880,"##ppity":5881,"bobbie":5882,"boiled":5883,"##aint":5884,"dadd":5885,"##apa":5886,"spo":5887,"crush":5888,"##aba":5889,"harv":5890,"moustache":5891,"##ago":5892,"realized":5893,"firemen":5894,"unz":5895,"deck":5896,"asks":5897,"rainy":5898,"##aska":5899,"musical":5900,"driveway":5901,"root":5902,"sprinkle":5903,"matching":5904,"balan":5905,"##ival":5906,"selling":5907,"sleigh":5908,"system":5909,"##ergy":5910,"swallowed":5911,"germs":5912,"puffed":5913,"sleeves":5914,"##eteria":5915,"killed":5916,"wrest":5917,"instruments":5918,"raspberry":5919,"##ground":5920,"brenda":5921,"grouchy":5922,"lawnm":5923,"lassie":5924,"devil":5925,"surface":5926,"heehee":5927,"panties":5928,"cranberry":5929,"teletubbies":5930,"olive":5931,"adventure":5932,"cafeteria":5933,"fog":5934,"gah":5935,"kicked":5936,"ling":5937,"moom":5938,"marm":5939,"ott":5940,"pause":5941,"pans":5942,"packed":5943,"paws":5944,"vine":5945,"##yc":5946,"##iana":5947,"##gen":5948,"##wi":5949,"##weed":5950,"##cet":5951,"whales":5952,"doink":5953,"doot":5954,"anth":5955,"##etery":5956,"##vember":5957,"november":5958,"shit":5959,"wand":5960,"##ency":5961,"##erence":5962,"tahoe":5963,"gonga":5964,"chik":5965,"whoever":5966,"littler":5967,"main":5968,"mob":5969,"dropping":5970,"blouse":5971,"bloat":5972,"coach":5973,"grade":5974,"buggy":5975,"happily":5976,"slinger":5977,"puh":5978,"##essa":5979,"commer":5980,"##ipment":5981,"hiking":5982,"##tails":5983,"snowy":5984,"stores":5985,"mothers":5986,"marry":5987,"poster":5988,"tons":5989,"setting":5990,"settle":5991,"muscles":5992,"disg":5993,"split":5994,"spinach":5995,"##ude":5996,"forks":5997,"luc":5998,"answered":5999,"hyena":6000,"blend":6001,"##ormor":6002,"franny":6003,"smoked":6004,"target":6005,"cemetery":6006,"brendon":6007,"creep":6008,"empire":6009,"##umyumy":6010,"equipment":6011,"propeller":6012,"walnuts":6013,"dakota":6014,"antenna":6015,"doubt":6016,"jaguar":6017,"lawnmower":6018,"ak":6019,"bong":6020,"fau":6021,"gus":6022,"gaz":6023,"krystal":6024,"las":6025,"muck":6026,"ts":6027,"tart":6028,"teet":6029,"voom":6030,"wig":6031,"##say":6032,"##used":6033,"##uation":6034,"##ias":6035,"##fle":6036,"##bac":6037,"##basket":6038,"##oming":6039,"stole":6040,"##ami":6041,"sheets":6042,"chee":6043,"chic":6044,"pleas":6045,"butch":6046,"##alo":6047,"blub":6048,"brid":6049,"clo":6050,"fla":6051,"flute":6052,"ballet":6053,"##essor":6054,"sully":6055,"logs":6056,"hike":6057,"waited":6058,"##oopers":6059,"lotion":6060,"hearing":6061,"snuff":6062,"strikes":6063,"##oci":6064,"appeared":6065,"hunt":6066,"snails":6067,"margie":6068,"ninth":6069,"polite":6070,"raff":6071,"spills":6072,"cons":6073,"bottoms":6074,"seaweed":6075,"michelle":6076,"triangles":6077,"superman":6078,"fighter":6079,"grabbed":6080,"chased":6081,"impressed":6082,"ghosts":6083,"costumes":6084,"timer":6085,"possib":6086,"flags":6087,"baxter":6088,"wastebasket":6089,"kermit":6090,"subway":6091,"film":6092,"associ":6093,"confus":6094,"chikada":6095,"fidd":6096,"gw":6097,"jet":6098,"jour":6099,"koosh":6100,"lump":6101,"net":6102,"tinky":6103,"wicked":6104,"##rap":6105,"##uctor":6106,"##ives":6107,"##ired":6108,"##pr":6109,"##wash":6110,"##cul":6111,"##fs":6112,"##bus":6113,"##erial":6114,"hedge":6115,"##esting":6116,"##etts":6117,"##ita":6118,"##itzen":6119,"sher":6120,"bald":6121,"baked":6122,"##adee":6123,"chilly":6124,"##veral":6125,"boss":6126,"blast":6127,"blitzen":6128,"##ilar":6129,"eaters":6130,"clop":6131,"clues":6132,"willie":6133,"grain":6134,"##acks":6135,"flu":6136,"flick":6137,"flint":6138,"agree":6139,"##awa":6140,"several":6141,"ush":6142,"pebbles":6143,"##aka":6144,"##ques":6145,"schoolbus":6146,"undressed":6147,"hatch":6148,"hairy":6149,"miles":6150,"mousie":6151,"pigtails":6152,"##ardess":6153,"recently":6154,"##acing":6155,"##uga":6156,"danced":6157,"marbles":6158,"parked":6159,"suns":6160,"sunshine":6161,"counted":6162,"rains":6163,"tender":6164,"poodle":6165,"scrap":6166,"drying":6167,"knocks":6168,"saddle":6169,"winner":6170,"suits":6171,"georg":6172,"tractors":6173,"ruf":6174,"wiggly":6175,"contin":6176,"cudd":6177,"scarry":6178,"##robe":6179,"granma":6180,"smiled":6181,"ridicul":6182,"clearly":6183,"stewardess":6184,"gymboree":6185,"gingerbread":6186,"nicky":6187,"twisted":6188,"ruler":6189,"massach":6190,"kiwi":6191,"jersey":6192,"schm":6193,"photograph":6194,"american":6195,"volcan":6196,"prayers":6197,"mummie":6198,"mobile":6199,"disgusting":6200,"flintst":6201,"ridiculous":6202,"cy":6203,"fever":6204,"glen":6205,"kell":6206,"lal":6207,"law":6208,"ms":6209,"poppy":6210,"rang":6211,"##lot":6212,"##ners":6213,"##ober":6214,"##wa":6215,"##munk":6216,"##van":6217,"##ints":6218,"italy":6219,"##aya":6220,"##ooey":6221,"sham":6222,"ships":6223,"##arian":6224,"repe":6225,"canada":6226,"stopping":6227,"wanting":6228,"boink":6229,"##usetts":6230,"##aling":6231,"##alade":6232,"##alator":6233,"backhoe":6234,"dra":6235,"blond":6236,"orch":6237,"cara":6238,"nect":6239,"bub":6240,"arf":6241,"##emone":6242,"##ession":6243,"comm":6244,"greg":6245,"##ulah":6246,"##olog":6247,"cookbook":6248,"##ohead":6249,"snoo":6250,"squid":6251,"ourselves":6252,"worker":6253,"exper":6254,"dino":6255,"fallen":6256,"glued":6257,"lightning":6258,"cuts":6259,"cutter":6260,"marsh":6261,"marching":6262,"unb":6263,"listens":6264,"treating":6265,"fudge":6266,"hopefully":6267,"refle":6268,"rubbing":6269,"cardboard":6270,"taped":6271,"kangaroos":6272,"squishing":6273,"planets":6274,"carrier":6275,"pooping":6276,"tearing":6277,"roses":6278,"potatohead":6279,"october":6280,"bolts":6281,"sledding":6282,"merma":6283,"sneezed":6284,"bushes":6285,"chipmunk":6286,"avril":6287,"evan":6288,"##uctions":6289,"hidden":6290,"opposites":6291,"scott":6292,"bomber":6293,"tatt":6294,"##annosaurus":6295,"dolphins":6296,"escalator":6297,"##cribe":6298,"##heit":6299,"tyrannosaurus":6300,"eagle":6301,"mexico":6302,"hydrant":6303,"wizard":6304,"marmalade":6305,"anthony":6306,"lasag":6307,"georgia":6308,"massachusetts":6309,"nectar":6310,"cas":6311,"gall":6312,"gunk":6313,"ian":6314,"icky":6315,"ign":6316,"jord":6317,"lined":6318,"pun":6319,"wob":6320,"zub":6321,"##cal":6322,"##vet":6323,"dod":6324,"hend":6325,"shame":6326,"theresa":6327,"wanda":6328,"donny":6329,"bak":6330,"##adi":6331,"##ury":6332,"##itten":6333,"chubby":6334,"juli":6335,"trot":6336,"molly":6337,"alou":6338,"##opes":6339,"##ussels":6340,"##ume":6341,"brussels":6342,"coins":6343,"clipp":6344,"grate":6345,"slim":6346,"arg":6347,"mane":6348,"betsy":6349,"##issy":6350,"quilt":6351,"##obi":6352,"prick":6353,"print":6354,"prote":6355,"smith":6356,"haircut":6357,"energy":6358,"strap":6359,"adul":6360,"cleans":6361,"##aca":6362,"bathrobe":6363,"tickly":6364,"##onda":6365,"marg":6366,"##rika":6367,"mississ":6368,"daffy":6369,"tickled":6370,"dresser":6371,"dressing":6372,"cones":6373,"spelling":6374,"bubba":6375,"covering":6376,"squished":6377,"##uddle":6378,"planes":6379,"jellyfish":6380,"##undheit":6381,"signs":6382,"shaun":6383,"whisp":6384,"mamma":6385,"ribbons":6386,"million":6387,"attack":6388,"sweeping":6389,"evil":6390,"pounds":6391,"pirates":6392,"dwonk":6393,"sears":6394,"barely":6395,"college":6396,"bitty":6397,"silence":6398,"titus":6399,"aladar":6400,"francisco":6401,"chirp":6402,"sausage":6403,"mammals":6404,"skeleton":6405,"cheesy":6406,"raffi":6407,"bask":6408,"banda":6409,"cau":6410,"cuddle":6411,"east":6412,"fussy":6413,"gam":6414,"mowing":6415,"nugg":6416,"odd":6417,"psh":6418,"veter":6419,"west":6420,"ye":6421,"##uc":6422,"##gth":6423,"##oad":6424,"##mont":6425,"younger":6426,"##erque":6427,"##ows":6428,"##oma":6429,"##ening":6430,"##chie":6431,"sty":6432,"stable":6433,"form":6434,"tacos":6435,"cheet":6436,"mot":6437,"almon":6438,"albu":6439,"##ucks":6440,"prep":6441,"flakes":6442,"sloth":6443,"muddy":6444,"scuffy":6445,"loi":6446,"colorful":6447,"quart":6448,"written":6449,"##querque":6450,"undo":6451,"workers":6452,"apparent":6453,"hungar":6454,"emerg":6455,"##ippi":6456,"raking":6457,"apric":6458,"farmers":6459,"vik":6460,"tallulah":6461,"wiggling":6462,"ehrm":6463,"scratching":6464,"nurses":6465,"rats":6466,"goof":6467,"maryse":6468,"##ngers":6469,"followed":6470,"burger":6471,"larry":6472,"cabbage":6473,"duke":6474,"peeling":6475,"tanker":6476,"leaning":6477,"passed":6478,"yoink":6479,"carolina":6480,"cassie":6481,"department":6482,"frustrating":6483,"oreos":6484,"vermont":6485,"skiing":6486,"gesundheit":6487,"bawk":6488,"bulb":6489,"japanese":6490,"instructions":6491,"gorgeous":6492,"obviously":6493,"boulder":6494,"commercial":6495,"faucet":6496,"chicago":6497,"blonde":6498,"mississippi":6499,"bandaids":6500,"veterin":6501,"albuquerque":6502,"apparently":6503,"hungarian":6504,"apricot":6505,"aar":6506,"dal":6507,"dede":6508,"echo":6509,"folk":6510,"gilly":6511,"hoot":6512,"im":6513,"mor":6514,"mead":6515,"oomp":6516,"rod":6517,"rise":6518,"tune":6519,"wad":6520,"yack":6521,"##lest":6522,"##de":6523,"##din":6524,"##dom":6525,"##uing":6526,"##oid":6527,"##fall":6528,"##bly":6529,"##rey":6530,"doc":6531,"##itz":6532,"##utton":6533,"rent":6534,"canoe":6535,"known":6536,"charm":6537,"juicy":6538,"hump":6539,"alaska":6540,"france":6541,"orig":6542,"##eryl":6543,"spear":6544,"spent":6545,"##geant":6546,"necess":6547,"officer":6548,"grr":6549,"elmer":6550,"bust":6551,"slam":6552,"mayonna":6553,"situation":6554,"prett":6555,"agre":6556,"scales":6557,"##olph":6558,"##ilda":6559,"prud":6560,"watches":6561,"wrink":6562,"writes":6563,"wont":6564,"nights":6565,"snip":6566,"squigg":6567,"throws":6568,"booster":6569,"rocked":6570,"penis":6571,"glug":6572,"glory":6573,"##acty":6574,"stuffy":6575,"records":6576,"tickets":6577,"marissa":6578,"alexander":6579,"ended":6580,"##bbling":6581,"##iley":6582,"eighth":6583,"messing":6584,"jackie":6585,"dumping":6586,"melted":6587,"smelling":6588,"visited":6589,"##oodood":6590,"peacock":6591,"landing":6592,"coats":6593,"edges":6594,"rattles":6595,"squeezing":6596,"sergeant":6597,"radi":6598,"pointy":6599,"toolbox":6600,"valentines":6601,"cubs":6602,"loader":6603,"lesson":6604,"##adadada":6605,"silverware":6606,"kerpl":6607,"fooling":6608,"basically":6609,"conductor":6610,"passengers":6611,"doughnuts":6612,"collection":6613,"snowflakes":6614,"flamingo":6615,"midnight":6616,"organ":6617,"marshmallows":6618,"buffalo":6619,"domin":6620,"clothing":6621,"mermaid":6622,"protein":6623,"gammy":6624,"aaron":6625,"oompapa":6626,"mayonnaise":6627,"au":6628,"bou":6629,"dive":6630,"eddy":6631,"ic":6632,"jew":6633,"kh":6634,"lent":6635,"mas":6636,"ny":6637,"nic":6638,"olie":6639,"rumble":6640,"rory":6641,"ting":6642,"ven":6643,"##aid":6644,"##ral":6645,"##sley":6646,"##ull":6647,"##wood":6648,"##ats":6649,"thee":6650,"heel":6651,"##omm":6652,"##orter":6653,"##sen":6654,"incl":6655,"shish":6656,"shana":6657,"##nal":6658,"stain":6659,"style":6660,"##odon":6661,"##odacty":6662,"##amin":6663,"tripped":6664,"boppie":6665,"abbie":6666,"##ilk":6667,"twerp":6668,"##bers":6669,"became":6670,"grace":6671,"##ems":6672,"worn":6673,"holl":6674,"##bec":6675,"##ulous":6676,"##athon":6677,"peg":6678,"##quet":6679,"leo":6680,"amen":6681,"robert":6682,"woohoo":6683,"appre":6684,"appoint":6685,"##uba":6686,"##ager":6687,"tiki":6688,"footpr":6689,"micr":6690,"action":6691,"unpl":6692,"pox":6693,"tooka":6694,"cambridge":6695,"battle":6696,"chewy":6697,"apartment":6698,"farther":6699,"warmer":6700,"cardinal":6701,"foxes":6702,"bene":6703,"##oyoy":6704,"##udud":6705,"fruits":6706,"changes":6707,"buried":6708,"similar":6709,"torn":6710,"germ":6711,"choices":6712,"frannie":6713,"parrots":6714,"kettle":6715,"rhino":6716,"decorate":6717,"mumma":6718,"grasshoppers":6719,"sweaters":6720,"creatures":6721,"disneyland":6722,"cigarette":6723,"pterodacty":6724,"unzip":6725,"associated":6726,"alouette":6727,"margare":6728,"cheetah":6729,"almonds":6730,"aut":6731,"aun":6732,"aud":6733,"beth":6734,"bzz":6735,"daw":6736,"dew":6737,"ferry":6738,"gather":6739,"hoop":6740,"nie":6741,"nun":6742,"nala":6743,"wink":6744,"wise":6745,"##rie":6746,"##lvan":6747,"##ez":6748,"##ders":6749,"##ients":6750,"##ged":6751,"##here":6752,"##pan":6753,"##kle":6754,"##bth":6755,"##jor":6756,"therm":6757,"dozen":6758,"toph":6759,"heck":6760,"ang":6761,"onion":6762,"weight":6763,"noah":6764,"invis":6765,"##idents":6766,"##ari":6767,"repl":6768,"cant":6769,"lilly":6770,"steel":6771,"##ics":6772,"tab":6773,"chu":6774,"plans":6775,"##vert":6776,"trim":6777,"trace":6778,"myumm":6779,"crust":6780,"elves":6781,"budd":6782,"slot":6783,"slinky":6784,"worth":6785,"hoppity":6786,"catal":6787,"oper":6788,"meanwh":6789,"headed":6790,"##ava":6791,"rover":6792,"rolly":6793,"tablecloth":6794,"##ubub":6795,"olds":6796,"lastname":6797,"grandp":6798,"snaps":6799,"marble":6800,"parlor":6801,"parsley":6802,"beluga":6803,"favorites":6804,"england":6805,"jackets":6806,"tasted":6807,"##sylvan":6808,"paid":6809,"##bruary":6810,"##tory":6811,"disp":6812,"seagu":6813,"charlot":6814,"crashing":6815,"kingdom":6816,"slipping":6817,"squeaks":6818,"benj":6819,"owlets":6820,"gaspard":6821,"planning":6822,"gooey":6823,"chuga":6824,"folded":6825,"lindsay":6826,"february":6827,"gaby":6828,"##ummies":6829,"lizards":6830,"bahbah":6831,"susp":6832,"treats":6833,"soldiers":6834,"frosty":6835,"decorations":6836,"label":6837,"condition":6838,"repair":6839,"pacif":6840,"fabulous":6841,"students":6842,"trapezo":6843,"entire":6844,"carnival":6845,"tulip":6846,"daddies":6847,"otto":6848,"lucille":6849,"possibly":6850,"hendrika":6851,"julius":6852,"emergency":6853,"appreci":6854,"invisible":6855,"meanwhile":6856,"seagull":6857,"charlotte":6858,"bitter":6859,"cad":6860,"cush":6861,"det":6862,"dem":6863,"dup":6864,"eeat":6865,"gen":6866,"lise":6867,"luh":6868,"lugg":6869,"mention":6870,"sur":6871,"soopers":6872,"vig":6873,"##ai":6874,"##ris":6875,"##down":6876,"##nsylvan":6877,"##hill":6878,"##hirt":6879,"##hood":6880,"##wis":6881,"##wee":6882,"##cent":6883,"##father":6884,"dove":6885,"dope":6886,"##lley":6887,"anemone":6888,"##order":6889,"ohio":6890,"shorter":6891,"##ona":6892,"lif":6893,"begg":6894,"##chou":6895,"stair":6896,"stubb":6897,"trump":6898,"outer":6899,"momm":6900,"hula":6901,"nem":6902,"grind":6903,"flopp":6904,"hoe":6905,"lola":6906,"waterfall":6907,"holder":6908,"thrown":6909,"greens":6910,"pennsylvan":6911,"##mae":6912,"##acy":6913,"mustn":6914,"##rowrow":6915,"unw":6916,"pattern":6917,"listened":6918,"hoping":6919,"sixth":6920,"untied":6921,"pinkie":6922,"raz":6923,"raise":6924,"cracking":6925,"peri":6926,"seash":6927,"recorded":6928,"softly":6929,"lands":6930,"crawled":6931,"burning":6932,"screamed":6933,"louis":6934,"louise":6935,"practically":6936,"practicing":6937,"plums":6938,"flashing":6939,"wiped":6940,"timmy":6941,"express":6942,"imagination":6943,"shooting":6944,"distract":6945,"search":6946,"loops":6947,"position":6948,"jason":6949,"delivery":6950,"returned":6951,"axe":6952,"travel":6953,"safety":6954,"nuuw":6955,"destroy":6956,"rudolph":6957,"fiddler":6958,"journey":6959,"volcano":6960,"ignore":6961,"slimy":6962,"shishi":6963,"margaret":6964,"benjamin":6965,"trumpet":6966,"pennsylvania":6967,"aff":6968,"coop":6969,"dice":6970,"dimes":6971,"dying":6972,"fault":6973,"gy":6974,"ja":6975,"jeal":6976,"ka":6977,"kool":6978,"pose":6979,"testing":6980,"tummies":6981,"vote":6982,"wou":6983,"##roo":6984,"##huh":6985,"##hones":6986,"##pir":6987,"##wow":6988,"##cakes":6989,"##bird":6990,"thorn":6991,"##anche":6992,"##anodon":6993,"##llas":6994,"invent":6995,"shook":6996,"reds":6997,"liqu":6998,"##irds":6999,"##sted":7000,"plow":7001,"nowhere":7002,"boil":7003,"wellfle":7004,"##auce":7005,"##icka":7006,"babye":7007,"worst":7008,"agra":7009,"helga":7010,"scan":7011,"science":7012,"diet":7013,"priv":7014,"##aker":7015,"nightie":7016,"minn":7017,"introd":7018,"harp":7019,"snar":7020,"eyel":7021,"pige":7022,"adj":7023,"fisher":7024,"teacup":7025,"##shirt":7026,"parties":7027,"washer":7028,"hotd":7029,"snows":7030,"dancer":7031,"univer":7032,"devel":7033,"laid":7034,"streets":7035,"##ansas":7036,"magnif":7037,"pills":7038,"spotted":7039,"hurrah":7040,"curl":7041,"curve":7042,"curved":7043,"bonnie":7044,"bands":7045,"alligators":7046,"applesauce":7047,"lifted":7048,"mushed":7049,"darn":7050,"scaring":7051,"lower":7052,"riders":7053,"stirring":7054,"simp":7055,"mistakes":7056,"wipers":7057,"watermelons":7058,"##walker":7059,"gymn":7060,"krispies":7061,"cassandra":7062,"eighteenth":7063,"discuss":7064,"fingernail":7065,"neighborhood":7066,"trampoline":7067,"weeds":7068,"fashioned":7069,"balancing":7070,"wrestle":7071,"flintstones":7072,"unbutton":7073,"whispered":7074,"baskets":7075,"meadow":7076,"appointment":7077,"pterodactyl":7078,"trapezoid":7079,"jealous":7080,"wellfleet":7081,"aur":7082,"coot":7083,"der":7084,"eee":7085,"eff":7086,"fou":7087,"gep":7088,"ill":7089,"imit":7090,"jigg":7091,"jail":7092,"kiki":7093,"lit":7094,"lord":7095,"mun":7096,"navy":7097,"tid":7098,"tide":7099,"tant":7100,"tup":7101,"vee":7102,"vers":7103,"wack":7104,"wins":7105,"yoda":7106,"zoop":7107,"##ties":7108,"##aby":7109,"##dah":7110,"##yley":7111,"##iosaurus":7112,"##poon":7113,"##vie":7114,"##bal":7115,"theater":7116,"angels":7117,"##ital":7118,"webs":7119,"hazel":7120,"##orse":7121,"noses":7122,"shine":7123,"##arily":7124,"##asy":7125,"##nado":7126,"##eded":7127,"chomp":7128,"llamas":7129,"allerg":7130,"allison":7131,"trit":7132,"trap":7133,"bos":7134,"moby":7135,"abu":7136,"##inda":7137,"##aine":7138,"frying":7139,"bra":7140,"##ility":7141,"history":7142,"ahahah":7143,"clips":7144,"sake":7145,"sailed":7146,"##eedle":7147,"##berly":7148,"cros":7149,"##ement":7150,"remembering":7151,"handed":7152,"lolly":7153,"colorado":7154,"##oli":7155,"breast":7156,"useful":7157,"homework":7158,"unders":7159,"snoring":7160,"enter":7161,"material":7162,"amelia":7163,"fixit":7164,"adadada":7165,"mouthful":7166,"cupcakes":7167,"##asha":7168,"##shield":7169,"##neys":7170,"washes":7171,"ericka":7172,"windshield":7173,"unif":7174,"parach":7175,"deh":7176,"microphones":7177,"sets":7178,"pinky":7179,"hits":7180,"jenko":7181,"chewbac":7182,"perf":7183,"roots":7184,"roosters":7185,"##bras":7186,"chickadee":7187,"saturn":7188,"skywalker":7189,"godmother":7190,"hippity":7191,"##etto":7192,"volley":7193,"resp":7194,"zebras":7195,"lifegu":7196,"octagon":7197,"hawk":7198,"address":7199,"tornado":7200,"scooby":7201,"loosen":7202,"texture":7203,"kimberly":7204,"faith":7205,"timothy":7206,"mcdonalds":7207,"enjoying":7208,"distance":7209,"oreg":7210,"hamper":7211,"##yleys":7212,"tumbled":7213,"service":7214,"sprinkler":7215,"cooperate":7216,"##crack":7217,"budleyley":7218,"budleyleys":7219,"smurfs":7220,"luncht":7221,"dwarfs":7222,"receiver":7223,"malik":7224,"prefer":7225,"nipple":7226,"pompoms":7227,"teetee":7228,"confusing":7229,"shamu":7230,"jordan":7231,"bakery":7232,"beneath":7233,"vigor":7234,"beggars":7235,"razor":7236,"develop":7237,"aurora":7238,"chewbacca":7239,"lunchtime":7240,"caca":7241,"ere":7242,"ole":7243,"sight":7244,"sigh":7245,"sizz":7246,"session":7247,"tease":7248,"vim":7249,"vrr":7250,"yoo":7251,"##dar":7252,"##nel":7253,"##gre":7254,"##gown":7255,"##hist":7256,"##mint":7257,"##cc":7258,"##fly":7259,"##back":7260,"##jah":7261,"##atops":7262,"##antha":7263,"liber":7264,"baum":7265,"stale":7266,"fort":7267,"knight":7268,"tah":7269,"tale":7270,"##itted":7271,"chart":7272,"chopped":7273,"chchch":7274,"cheap":7275,"rear":7276,"mole":7277,"drown":7278,"bloom":7279,"blanche":7280,"frame":7281,"brr":7282,"brrm":7283,"dadadada":7284,"##apika":7285,"saber":7286,"offer":7287,"cru":7288,"pred":7289,"swan":7290,"swiss":7291,"flipped":7292,"slid":7293,"slug":7294,"asha":7295,"common":7296,"scor":7297,"loly":7298,"prod":7299,"pleased":7300,"nightgown":7301,"lewis":7302,"##umpt":7303,"gluck":7304,"doorbell":7305,"##agus":7306,"funnies":7307,"petey":7308,"dollhouse":7309,"buses":7310,"##aced":7311,"grandmas":7312,"kissy":7313,"snowball":7314,"badada":7315,"winding":7316,"uncom":7317,"brushed":7318,"bows":7319,"seventh":7320,"brownies":7321,"joan":7322,"joking":7323,"scares":7324,"delight":7325,"ooching":7326,"playdough":7327,"phooey":7328,"closes":7329,"michigan":7330,"tighter":7331,"##uggle":7332,"roads":7333,"claire":7334,"bandors":7335,"samantha":7336,"spinosaurus":7337,"nearly":7338,"davis":7339,"wishing":7340,"gasoline":7341,"grabbing":7342,"keith":7343,"nora":7344,"flatten":7345,"jiminy":7346,"peppermint":7347,"disappoint":7348,"sneezing":7349,"object":7350,"stepsister":7351,"##asponda":7352,"dennis":7353,"rays":7354,"connected":7355,"heavens":7356,"biscuits":7357,"urch":7358,"fussing":7359,"tyran":7360,"pipes":7361,"snowflake":7362,"bingo":7363,"central":7364,"pikapika":7365,"rotten":7366,"marvelous":7367,"moomilk":7368,"cuddly":7369,"radiator":7370,"pigeons":7371,"gymnastic":7372,"gepetto":7373,"tantrum":7374,"allergic":7375,"crossed":7376,"uniform":7377,"liberty":7378,"ape":7379,"bind":7380,"bree":7381,"cact":7382,"cork":7383,"gal":7384,"hut":7385,"mod":7386,"pod":7387,"pout":7388,"rol":7389,"sized":7390,"tanta":7391,"var":7392,"##yond":7393,"##ule":7394,"##iy":7395,"##gone":7396,"##gama":7397,"##xagon":7398,"##obe":7399,"##ford":7400,"thre":7401,"##ata":7402,"##anor":7403,"toto":7404,"heater":7405,"hexagon":7406,"##ometer":7407,"##utz":7408,"inform":7409,"##ooky":7410,"beyond":7411,"stump":7412,"putcher":7413,"chann":7414,"##unzel":7415,"littlest":7416,"mah":7417,"moe":7418,"butt":7419,"drug":7420,"blame":7421,"blown":7422,"brun":7423,"orzo":7424,"cargo":7425,"clar":7426,"babykins":7427,"twir":7428,"twos":7429,"tweedle":7430,"grad":7431,"buys":7432,"buba":7433,"happier":7434,"##acka":7435,"mang":7436,"mug":7437,"muh":7438,"mupp":7439,"aspar":7440,"aspir":7441,"##ulars":7442,"handker":7443,"betta":7444,"firew":7445,"##issie":7446,"watercol":7447,"diane":7448,"pew":7449,"prair":7450,"sleeper":7451,"smack":7452,"##enders":7453,"strum":7454,"straps":7455,"peoples":7456,"mouths":7457,"##oculars":7458,"tegama":7459,"sorta":7460,"lighter":7461,"recomm":7462,"##neck":7463,"rung":7464,"##ichi":7465,"windmill":7466,"unst":7467,"unus":7468,"##rence":7469,"missy":7470,"misses":7471,"##rops":7472,"##bbing":7473,"lunchbox":7474,"tenth":7475,"excused":7476,"scrape":7477,"jojo":7478,"##ounce":7479,"dumper":7480,"combed":7481,"smelly":7482,"disgu":7483,"panacka":7484,"trips":7485,"motorcycles":7486,"packing":7487,"packages":7488,"wags":7489,"tying":7490,"hooks":7491,"tucked":7492,"dragonfly":7493,"splashy":7494,"sells":7495,"nature":7496,"caterpillars":7497,"ellen":7498,"loading":7499,"plumber":7500,"gabi":7501,"carpenter":7502,"complain":7503,"underwater":7504,"giddyup":7505,"gifts":7506,"exercises":7507,"jacques":7508,"smashed":7509,"cellar":7510,"general":7511,"kenny":7512,"rags":7513,"paula":7514,"donuts":7515,"tugboat":7516,"rapunzel":7517,"mosquito":7518,"errand":7519,"germany":7520,"iguana":7521,"troublesome":7522,"topham":7523,"catalog":7524,"appreciate":7525,"luggage":7526,"tupty":7527,"oregon":7528,"sizzle":7529,"scorp":7530,"uncomfortable":7531,"tyranosaurus":7532,"asparagus":7533,"handkerchief":7534,"recommend":7535,"cong":7536,"dart":7537,"fart":7538,"foss":7539,"fences":7540,"izzy":7541,"ku":7542,"lau":7543,"lond":7544,"lala":7545,"lena":7546,"mormor":7547,"ping":7548,"pipp":7549,"puss":7550,"pbth":7551,"rolf":7552,"sant":7553,"sass":7554,"sitter":7555,"tou":7556,"tend":7557,"vic":7558,"zaz":7559,"##ased":7560,"##rill":7561,"##rica":7562,"##ift":7563,"##horse":7564,"##zan":7565,"##win":7566,"##field":7567,"##buh":7568,"##bors":7569,"whack":7570,"##erk":7571,"heels":7572,"andre":7573,"nola":7574,"ing":7575,"inez":7576,"shir":7577,"shock":7578,"shakes":7579,"canal":7580,"##icated":7581,"knives":7582,"goody":7583,"chow":7584,"wasp":7585,"maam":7586,"moth":7587,"hugged":7588,"blob":7589,"brakes":7590,"dadda":7591,"carton":7592,"clover":7593,"spud":7594,"twirl":7595,"grumble":7596,"eli":7597,"bugg":7598,"##isha":7599,"slacks":7600,"manager":7601,"remote":7602,"colt":7603,"suds":7604,"fizzie":7605,"section":7606,"pegs":7607,"prizes":7608,"##quo":7609,"daytime":7610,"dayja":7611,"headlight":7612,"headband":7613,"africa":7614,"##aves":7615,"exh":7616,"boos":7617,"amig":7618,"roger":7619,"roars":7620,"mighty":7621,"doorway":7622,"tipped":7623,"##moth":7624,"washie":7625,"baths":7626,"##opper":7627,"skink":7628,"badly":7629,"banged":7630,"bowwow":7631,"leftover":7632,"##ians":7633,"##liflower":7634,"const":7635,"trapped":7636,"growling":7637,"owner":7638,"melting":7639,"straws":7640,"eleanor":7641,"charac":7642,"ruined":7643,"kanga":7644,"edward":7645,"classroom":7646,"pads":7647,"voices":7648,"squeezed":7649,"yucko":7650,"radish":7651,"mammoth":7652,"rider":7653,"neighbors":7654,"##ressive":7655,"unlock":7656,"popsicles":7657,"##booboo":7658,"merc":7659,"eek":7660,"obs":7661,"total":7662,"sucker":7663,"diego":7664,"nickels":7665,"celia":7666,"sixteenth":7667,"binoculars":7668,"filthy":7669,"##agagagag":7670,"pedal":7671,"sweatshirt":7672,"amye":7673,"safari":7674,"custom":7675,"cigarettes":7676,"normally":7677,"familiar":7678,"brontosaurus":7679,"types":7680,"laney":7681,"tonsils":7682,"blender":7683,"pleasure":7684,"sunset":7685,"cauliflower":7686,"icicles":7687,"faithful":7688,"yoohoo":7689,"funniest":7690,"urchin":7691,"cactus":7692,"unusual":7693,"toucan":7694,"dy":7695,"deter":7696,"egy":7697,"gear":7698,"irel":7699,"ivy":7700,"kites":7701,"len":7702,"liter":7703,"oak":7704,"py":7705,"peak":7706,"piya":7707,"rom":7708,"sieve":7709,"sched":7710,"tan":7711,"tumbling":7712,"vot":7713,"wound":7714,"wisc":7715,"##aked":7716,"##rat":7717,"##rit":7718,"##rac":7719,"##lo":7720,"##lah":7721,"##kie":7722,"##mar":7723,"##cers":7724,"##cson":7725,"##fth":7726,"##birds":7727,"##ern":7728,"##owa":7729,"##owoo":7730,"##esota":7731,"##oric":7732,"##sel":7733,"lim":7734,"licked":7735,"beets":7736,"steep":7737,"##iction":7738,"##urty":7739,"gond":7740,"chores":7741,"jugg":7742,"ally":7743,"tricer":7744,"mol":7745,"aboo":7746,"alab":7747,"downtown":7748,"dries":7749,"drunk":7750,"bleed":7751,"orna":7752,"spat":7753,"spir":7754,"neph":7755,"booksh":7756,"prehist":7757,"elvis":7758,"##abi":7759,"flaps":7760,"waist":7761,"hoag":7762,"hola":7763,"mans":7764,"##ulture":7765,"scall":7766,"score":7767,"loving":7768,"thrill":7769,"cheers":7770,"cheating":7771,"mini":7772,"level":7773,"hears":7774,"##ossible":7775,"ench":7776,"falled":7777,"yellows":7778,"glitter":7779,"gluing":7780,"camels":7781,"recipe":7782,"grandfather":7783,"micah":7784,"##achu":7785,"walker":7786,"dazzle":7787,"fastest":7788,"muscle":7789,"eyeball":7790,"scrumpt":7791,"cooler":7792,"perro":7793,"##unted":7794,"checkers":7795,"chickies":7796,"prof":7797,"disco":7798,"darker":7799,"panther":7800,"rivet":7801,"##ledge":7802,"laughs":7803,"describe":7804,"soapy":7805,"accidents":7806,"tucson":7807,"index":7808,"twelfth":7809,"darrot":7810,"##roach":7811,"impossible":7812,"uguh":7813,"crunched":7814,"##onsin":7815,"frere":7816,"added":7817,"typew":7818,"obi":7819,"chalkboard":7820,"mallard":7821,"transform":7822,"palm":7823,"direct":7824,"duty":7825,"arrange":7826,"diamonds":7827,"denver":7828,"thumper":7829,"cassette":7830,"smokes":7831,"jonathon":7832,"depends":7833,"oreo":7834,"stockings":7835,"escape":7836,"example":7837,"miaw":7838,"sprinkles":7839,"customer":7840,"duncan":7841,"pjs":7842,"explorer":7843,"zoey":7844,"chuckie":7845,"caves":7846,"otter":7847,"continue":7848,"glenmae":7849,"repeat":7850,"argum":7851,"prudence":7852,"includ":7853,"dispos":7854,"mommily":7855,"liquid":7856,"minnesota":7857,"cootchy":7858,"veena":7859,"disappointed":7860,"stepsisters":7861,"information":7862,"prairie":7863,"london":7864,"shirley":7865,"exhau":7866,"ireland":7867,"wisconsin":7868,"alabama":7869,"nephew":7870,"prehistoric":7871,"scrumptious":7872,"aven":7873,"bw":7874,"bod":7875,"bicy":7876,"cody":7877,"dinky":7878,"fir":7879,"gur":7880,"hick":7881,"kuh":7882,"mow":7883,"naw":7884,"oz":7885,"poom":7886,"reel":7887,"sod":7888,"titch":7889,"val":7890,"wider":7891,"za":7892,"zs":7893,"zuc":7894,"##lins":7895,"##hog":7896,"##kim":7897,"##kuh":7898,"##vous":7899,"##jay":7900,"##inea":7901,"##anan":7902,"toss":7903,"##oof":7904,"##its":7905,"##itive":7906,"lic":7907,"liking":7908,"beater":7909,"##chini":7910,"stitch":7911,"stung":7912,"##ades":7913,"##adig":7914,"##itters":7915,"chunk":7916,"chops":7917,"plaster":7918,"tricked":7919,"##unately":7920,"maur":7921,"##illas":7922,"bobbing":7923,"mold":7924,"drac":7925,"##ili":7926,"hiss":7927,"spilt":7928,"sakes":7929,"grave":7930,"flee":7931,"pub":7932,"scold":7933,"##elope":7934,"##antic":7935,"guinea":7936,"file":7937,"quin":7938,"cheat":7939,"leather":7940,"sweety":7941,"harbor":7942,"robe":7943,"teppy":7944,"beam":7945,"sarasponda":7946,"sawing":7947,"##agara":7948,"floors":7949,"barbec":7950,"erased":7951,"badger":7952,"hops":7953,"pretended":7954,"babes":7955,"babar":7956,"##ational":7957,"pressed":7958,"chewies":7959,"yogurty":7960,"spelled":7961,"paintbrush":7962,"tallest":7963,"seahorse":7964,"terms":7965,"terrence":7966,"bandage":7967,"shared":7968,"##orks":7969,"benny":7970,"classes":7971,"honest":7972,"filling":7973,"koal":7974,"freak":7975,"kentucky":7976,"scrubbing":7977,"fifteenth":7978,"bending":7979,"globe":7980,"wipes":7981,"corin":7982,"lollie":7983,"candies":7984,"possum":7985,"junky":7986,"chases":7987,"ashay":7988,"burped":7989,"tarzan":7990,"searching":7991,"crickets":7992,"basil":7993,"shrimp":7994,"niagara":7995,"mischie":7996,"aliens":7997,"america":7998,"skateboard":7999,"guests":8000,"normal":8001,"googly":8002,"grownups":8003,"hopperoo":8004,"signal":8005,"harvard":8006,"reflection":8007,"prepare":8008,"kerplunk":8009,"holland":8010,"chuka":8011,"grandpas":8012,"suspenders":8013,"conditioner":8014,"pacifier":8015,"lifting":8016,"stubborn":8017,"fountain":8018,"undershirt":8019,"parachute":8020,"volleyball":8021,"lifeguard":8022,"gymnastics":8023,"breeze":8024,"channel":8025,"aspirin":8026,"fireworks":8027,"zazu":8028,"headlights":8029,"literally":8030,"triceratops":8031,"hoagie":8032,"zucchini":8033,"mischievous":8034,"cum":8035,"dea":8036,"dave":8037,"damp":8038,"fake":8039,"hive":8040,"iced":8041,"kar":8042,"kaa":8043,"lissa":8044,"mower":8045,"pish":8046,"pel":8047,"pork":8048,"pitter":8049,"rout":8050,"rah":8051,"ricky":8052,"site":8053,"teen":8054,"vin":8055,"wy":8056,"weak":8057,"zig":8058,"##riter":8059,"##eobe":8060,"##di":8061,"##uv":8062,"##ieth":8063,"##gent":8064,"##goat":8065,"##hee":8066,"##zie":8067,"##ped":8068,"##kn":8069,"##koo":8070,"##mined":8071,"##cro":8072,"##jump":8073,"doin":8074,"whatchu":8075,"##llab":8076,"##ision":8077,"##igs":8078,"##kerel":8079,"noel":8080,"shim":8081,"sheryl":8082,"rew":8083,"##nager":8084,"donkeys":8085,"##chen":8086,"stap":8087,"stem":8088,"stren":8089,"##iment":8090,"shelves":8091,"ched":8092,"soaking":8093,"trooper":8094,"maise":8095,"major":8096,"huggie":8097,"##umum":8098,"backs":8099,"backing":8100,"frown":8101,"bru":8102,"brav":8103,"brach":8104,"bruce":8105,"bryc":8106,"orph":8107,"claw":8108,"spee":8109,"twis":8110,"saving":8111,"anytime":8112,"grrr":8113,"prec":8114,"telly":8115,"swir":8116,"thankyou":8117,"thingy":8118,"arch":8119,"holly":8120,"hokey":8121,"manage":8122,"manners":8123,"aside":8124,"agah":8125,"agug":8126,"##aho":8127,"##entr":8128,"leia":8129,"harmon":8130,"hairs":8131,"underoos":8132,"bootie":8133,"roared":8134,"lovey":8135,"woolly":8136,"potties":8137,"recy":8138,"snapped":8139,"gonegone":8140,"eras":8141,"walkie":8142,"idaho":8143,"united":8144,"def":8145,"death":8146,"brushu":8147,"belts":8148,"flys":8149,"baboon":8150,"foam":8151,"bumping":8152,"raft":8153,"boomp":8154,"behave":8155,"##laim":8156,"jokes":8157,"percent":8158,"chicky":8159,"combs":8160,"miracle":8161,"pheobe":8162,"tights":8163,"pressure":8164,"surprises":8165,"kings":8166,"curlers":8167,"##ootd":8168,"nearby":8169,"rhy":8170,"luna":8171,"saucers":8172,"accord":8173,"splashed":8174,"poops":8175,"poopoo":8176,"stronger":8177,"magical":8178,"nonsen":8179,"pearl":8180,"fairies":8181,"peepee":8182,"lemons":8183,"whistling":8184,"burst":8185,"mamama":8186,"vanessa":8187,"unload":8188,"safely":8189,"teenager":8190,"bumblebee":8191,"rectangles":8192,"obst":8193,"attic":8194,"billygoat":8195,"speaker":8196,"shadows":8197,"eskim":8198,"oughtoh":8199,"passy":8200,"lessons":8201,"wrecked":8202,"warn":8203,"plugs":8204,"decorating":8205,"shoots":8206,"nickname":8207,"shaker":8208,"explained":8209,"bundle":8210,"foolish":8211,"posies":8212,"concentr":8213,"discover":8214,"dandelions":8215,"wompa":8216,"collecting":8217,"humans":8218,"blinking":8219,"related":8220,"brains":8221,"silent":8222,"mathilda":8223,"grilled":8224,"sports":8225,"goblins":8226,"drooling":8227,"lorry":8228,"feta":8229,"hammers":8230,"velcro":8231,"tsk":8232,"cheered":8233,"bridges":8234,"cassey":8235,"nuggets":8236,"necessarily":8237,"agreed":8238,"dominoes":8239,"footprints":8240,"unplug":8241,"aunty":8242,"cushion":8243,"period":8244,"hotdogs":8245,"univers":8246,"simply":8247,"triton":8248,"##cracker":8249,"tahini":8250,"chchchch":8251,"mangos":8252,"watercolors":8253,"lauren":8254,"determined":8255,"typewriter":8256,"argument":8257,"disposal":8258,"bicycles":8259,"dracula":8260,"barbecue":8261,"wyoming":8262,"strength":8263,"maisey":8264,"brycie":8265,"orphan":8266,"harmonica":8267,"nonsense":8268,"aah":8269,"austr":8270,"bers":8271,"bass":8272,"dau":8273,"eur":8274,"fuel":8275,"facing":8276,"handy":8277,"kansas":8278,"mea":8279,"nt":8280,"omel":8281,"rr":8282,"ree":8283,"rand":8284,"sz":8285,"sard":8286,"sucky":8287,"tus":8288,"tuh":8289,"vera":8290,"volk":8291,"vroo":8292,"xav":8293,"yipp":8294,"yuh":8295,"##tan":8296,"##agg":8297,"##dles":8298,"##uu":8299,"##num":8300,"##ging":8301,"##kh":8302,"##crow":8303,"##boom":8304,"##bucks":8305,"whatch":8306,"golly":8307,"##eaked":8308,"iss":8309,"##utch":8310,"##utter":8311,"haul":8312,"infe":8313,"replace":8314,"lill":8315,"lies":8316,"lizzie":8317,"doncha":8318,"##erec":8319,"##icut":8320,"uppie":8321,"##itty":8322,"trad":8323,"myst":8324,"toots":8325,"##alian":8326,"backward":8327,"frag":8328,"fritz":8329,"coc":8330,"carve":8331,"sab":8332,"neh":8333,"bookstore":8334,"offic":8335,"crummy":8336,"gravy":8337,"pregn":8338,"needles":8339,"elaine":8340,"##abab":8341,"##nyum":8342,"flood":8343,"hopped":8344,"pudd":8345,"##athered":8346,"scene":8347,"##ission":8348,"usual":8349,"##ouri":8350,"pron":8351,"##estra":8352,"smiles":8353,"undone":8354,"talkin":8355,"mont":8356,"walt":8357,"booth":8358,"rogers":8359,"fixes":8360,"adah":8361,"advert":8362,"cousc":8363,"fins":8364,"##ocus":8365,"longest":8366,"afterward":8367,"appear":8368,"hardest":8369,"finishing":8370,"##agen":8371,"funnel":8372,"feelings":8373,"snowman":8374,"dances":8375,"erie":8376,"maria":8377,"marily":8378,"winds":8379,"sunflower":8380,"##inski":8381,"##onto":8382,"missouri":8383,"poll":8384,"##wheel":8385,"tonic":8386,"dawn":8387,"fozzie":8388,"staring":8389,"starbucks":8390,"brownie":8391,"messes":8392,"raind":8393,"##izer":8394,"##izing":8395,"jenessa":8396,"chewed":8397,"moons":8398,"viole":8399,"speck":8400,"growl":8401,"scarecrow":8402,"dingaling":8403,"melts":8404,"##aled":8405,"meatball":8406,"taperec":8407,"dishwash":8408,"famous":8409,"scratches":8410,"wished":8411,"rachi":8412,"pooped":8413,"drumstick":8414,"mackerel":8415,"eleventh":8416,"planted":8417,"follows":8418,"paintings":8419,"rows":8420,"burnt":8421,"##rete":8422,"##hole":8423,"hawai":8424,"larger":8425,"largest":8426,"sneezy":8427,"transcri":8428,"cooled":8429,"stretched":8430,"stretching":8431,"containers":8432,"sweeper":8433,"crowd":8434,"reminded":8435,"sucking":8436,"decoration":8437,"rodeo":8438,"sparkles":8439,"deedle":8440,"amazed":8441,"submar":8442,"rescued":8443,"buns":8444,"connecticut":8445,"concrete":8446,"rinny":8447,"tinkerbell":8448,"interrup":8449,"suggested":8450,"goblin":8451,"pikachu":8452,"hammock":8453,"harvest":8454,"photographs":8455,"kelly":8456,"lasagne":8457,"adults":8458,"wrinkled":8459,"bouill":8460,"jewel":8461,"venus":8462,"microscope":8463,"thermometer":8464,"cantal":8465,"steelers":8466,"duper":8467,"seashell":8468,"adjust":8469,"scorpion":8470,"victor":8471,"customers":8472,"schedule":8473,"ornaments":8474,"spatula":8475,"bookshelf":8476,"cootchykoo":8477,"exhausted":8478,"avenue":8479,"university":8480,"berserk":8481,"sardines":8482,"volksw":8483,"infection":8484,"couscous":8485,"marilyn":8486,"violent":8487,"dishwasher":8488,"aggie":8489,"bough":8490,"cages":8491,"dunk":8492,"fal":8493,"gummy":8494,"goud":8495,"jere":8496,"jaw":8497,"jones":8498,"mwah":8499,"ner":8500,"noo":8501,"ooo":8502,"poc":8503,"sss":8504,"ties":8505,"yw":8506,"yee":8507,"yob":8508,"zzz":8509,"##tic":8510,"##abye":8511,"##rau":8512,"##ni":8513,"##ox":8514,"##kay":8515,"##mary":8516,"##cin":8517,"thor":8518,"##atic":8519,"##rets":8520,"##inet":8521,"##esh":8522,"##eable":8523,"##ution":8524,"shre":8525,"##arar":8526,"canes":8527,"diddy":8528,"stiff":8529,"##inks":8530,"tack":8531,"uphill":8532,"shelly":8533,"goodies":8534,"chichi":8535,"however":8536,"maid":8537,"mack":8538,"mazy":8539,"boards":8540,"abr":8541,"alb":8542,"##osed":8543,"fried":8544,"overnight":8545,"corey":8546,"ordered":8547,"clipped":8548,"twink":8549,"##ured":8550,"nept":8551,"critter":8552,"crispies":8553,"waters":8554,"grin":8555,"swear":8556,"flight":8557,"flops":8558,"ariz":8559,"mandy":8560,"manny":8561,"muzzle":8562,"remove":8563,"helium":8564,"columb":8565,"##awe":8566,"cooks":8567,"div":8568,"opener":8569,"veh":8570,"##ists":8571,"##ohoh":8572,"lexy":8573,"leah":8574,"leaking":8575,"snatch":8576,"squoosh":8577,"strom":8578,"coup":8579,"eggy":8580,"bunnys":8581,"recyc":8582,"hunters":8583,"##acola":8584,"cutters":8585,"bathie":8586,"emmy":8587,"skull":8588,"marvin":8589,"unh":8590,"unfort":8591,"patter":8592,"brusha":8593,"poy":8594,"##ropri":8595,"secrets":8596,"hoped":8597,"cloths":8598,"hamsters":8599,"starving":8600,"browns":8601,"raf":8602,"apolog":8603,"chrissie":8604,"garfield":8605,"##cific":8606,"humming":8607,"delma":8608,"bubbly":8609,"winning":8610,"##overed":8611,"beeper":8612,"beeping":8613,"disaster":8614,"rubb":8615,"forgetting":8616,"tubby":8617,"drivers":8618,"bonka":8619,"hoses":8620,"voila":8621,"annoy":8622,"tadp":8623,"lifts":8624,"chaos":8625,"contest":8626,"roofs":8627,"rosita":8628,"nests":8629,"barrettes":8630,"bury":8631,"answering":8632,"poppleton":8633,"bills":8634,"kaylia":8635,"hyper":8636,"vacuuming":8637,"##flies":8638,"stacking":8639,"chimpan":8640,"groups":8641,"sailor":8642,"cannon":8643,"choking":8644,"cords":8645,"shouting":8646,"piles":8647,"leaned":8648,"rosemary":8649,"orangut":8650,"promised":8651,"sparkly":8652,"spanked":8653,"tata":8654,"depot":8655,"seventeenth":8656,"massage":8657,"ferris":8658,"tushy":8659,"memor":8660,"urgent":8661,"suggestion":8662,"jacob":8663,"traveling":8664,"generous":8665,"##umyum":8666,"##heim":8667,"stinks":8668,"craft":8669,"servant":8670,"flamingos":8671,"rawr":8672,"shoveling":8673,"wuzzy":8674,"cavities":8675,"peaceful":8676,"ruthie":8677,"spoil":8678,"vinegar":8679,"consid":8680,"gwen":8681,"schmutz":8682,"drawn":8683,"orchestra":8684,"experiment":8685,"tattly":8686,"gunkies":8687,"veterinary":8688,"original":8689,"prettiest":8690,"squiggly":8691,"organized":8692,"nicole":8693,"niece":8694,"mentioned":8695,"louisiana":8696,"distracted":8697,"eyelash":8698,"rolie":8699,"errands":8700,"sassy":8701,"ingred":8702,"bugga":8703,"bodies":8704,"public":8705,"koalas":8706,"kaaee":8707,"pelican":8708,"shimmy":8709,"eskimo":8710,"fragile":8711,"cocacola":8712,"pregnant":8713,"submarine":8714,"bouillon":8715,"volkswagen":8716,"gouda":8717,"yobaby":8718,"neptune":8719,"arizona":8720,"columbus":8721,"recycling":8722,"unfortunately":8723,"agg":8724,"ber":8725,"bumb":8726,"cider":8727,"dink":8728,"dim":8729,"dash":8730,"diction":8731,"fee":8732,"gary":8733,"hitch":8734,"homer":8735,"jed":8736,"kale":8737,"lakes":8738,"lens":8739,"latch":8740,"mut":8741,"oog":8742,"pta":8743,"rare":8744,"rump":8745,"ranger":8746,"sens":8747,"tiles":8748,"yap":8749,"yak":8750,"##rom":8751,"##lag":8752,"##sp":8753,"##hat":8754,"##oink":8755,"##kah":8756,"##mates":8757,"##care":8758,"##fty":8759,"##ban":8760,"##oupe":8761,"##attered":8762,"##inct":8763,"##inals":8764,"dott":8765,"topp":8766,"anna":8767,"isad":8768,"habit":8769,"halves":8770,"##idt":8771,"##ido":8772,"shann":8773,"meets":8774,"##eren":8775,"stared":8776,"putty":8777,"##adoo":8778,"##odo":8779,"knead":8780,"chopping":8781,"plat":8782,"allen":8783,"mal":8784,"reaction":8785,"moan":8786,"playground":8787,"##lyn":8788,"##umn":8789,"##otive":8790,"bloop":8791,"bloss":8792,"frys":8793,"overboard":8794,"clim":8795,"spic":8796,"spike":8797,"twin":8798,"##hmm":8799,"flav":8800,"slap":8801,"##otherium":8802,"uhh":8803,"mule":8804,"asht":8805,"agu":8806,"locom":8807,"meaning":8808,"proc":8809,"sleepover":8810,"pushpa":8811,"chef":8812,"daycare":8813,"hatt":8814,"hatched":8815,"squeaking":8816,"milkman":8817,"enorm":8818,"strike":8819,"trained":8820,"picker":8821,"talkative":8822,"boof":8823,"among":8824,"peng":8825,"wooly":8826,"glub":8827,"approach":8828,"fours":8829,"sorting":8830,"williams":8831,"tipping":8832,"footst":8833,"skill":8834,"guessing":8835,"colder":8836,"rocker":8837,"##ippers":8838,"rollie":8839,"spoonful":8840,"ninny":8841,"poking":8842,"##bba":8843,"placemat":8844,"exclaim":8845,"givin":8846,"batch":8847,"farmie":8848,"fasten":8849,"jolly":8850,"joanie":8851,"spect":8852,"bounced":8853,"humid":8854,"owns":8855,"clocks":8856,"understood":8857,"visits":8858,"phys":8859,"phones":8860,"oatie":8861,"meatballs":8862,"tubes":8863,"tunnels":8864,"ladders":8865,"pasture":8866,"pastels":8867,"accessor":8868,"pizzas":8869,"poopie":8870,"indoor":8871,"librarian":8872,"ouchie":8873,"tweety":8874,"##ymb":8875,"gorillas":8876,"hens":8877,"serving":8878,"umbrellas":8879,"powers":8880,"crunching":8881,"castles":8882,"chestnut":8883,"##ficent":8884,"pepperoni":8885,"cheeky":8886,"adda":8887,"sneaky":8888,"sneaker":8889,"toronto":8890,"complicated":8891,"hallway":8892,"sewed":8893,"denise":8894,"pussycat":8895,"videos":8896,"sparks":8897,"sparkler":8898,"health":8899,"scotty":8900,"soul":8901,"splinters":8902,"hungary":8903,"arrows":8904,"walruses":8905,"stephanie":8906,"acorns":8907,"treasures":8908,"rushing":8909,"alien":8910,"pipo":8911,"particularly":8912,"email":8913,"aladdin":8914,"bibbie":8915,"noone":8916,"lungs":8917,"mechanics":8918,"fetch":8919,"##hibit":8920,"brontotherium":8921,"portug":8922,"malificent":8923,"aimee":8924,"tutu":8925,"baldy":8926,"rufus":8927,"lalala":8928,"snooze":8929,"lasagna":8930,"wobbly":8931,"dododod":8932,"prickly":8933,"quarts":8934,"destroyed":8935,"private":8936,"drugstore":8937,"muppets":8938,"unstuck":8939,"fossil":8940,"spudinski":8941,"leftovers":8942,"character":8943,"mercury":8944,"transformers":8945,"quincy":8946,"rewind":8947,"brachiosaurus":8948,"recycle":8949,"ntuu":8950,"tusks":8951,"xavia":8952,"##nyumnyum":8953,"taperecorder":8954,"jewelry":8955,"cantaloupe":8956,"abraham":8957,"orangutan":8958,"##heimer":8959,"ingredients":8960,"isadora":8961,"shannon":8962,"locomotive":8963,"enormous":8964,"bible":8965,"cee":8966,"cormor":8967,"dre":8968,"dere":8969,"dang":8970,"eel":8971,"fem":8972,"gau":8973,"gil":8974,"hond":8975,"igl":8976,"iowa":8977,"jou":8978,"kin":8979,"kirst":8980,"kaka":8981,"lurch":8982,"mamas":8983,"mumbling":8984,"pf":8985,"peed":8986,"sem":8987,"saint":8988,"teep":8989,"tinkle":8990,"terence":8991,"vamp":8992,"vulture":8993,"yu":8994,"zuggle":8995,"##tin":8996,"##aque":8997,"##ein":8998,"##iber":8999,"##ials":9000,"##iately":9001,"##nor":9002,"##goo":9003,"##ham":9004,"##xious":9005,"##oids":9006,"##well":9007,"##mouse":9008,"##fri":9009,"##foot":9010,"##jour":9011,"tha":9012,"##inked":9013,"whites":9014,"dogg":9015,"items":9016,"hem":9017,"ankle":9018,"##itions":9019,"##utian":9020,"##ige":9021,"inj":9022,"infin":9023,"shiver":9024,"rebe":9025,"rept":9026,"reva":9027,"##onia":9028,"##nap":9029,"dont":9030,"bailey":9031,"lookin":9032,"force":9033,"within":9034,"taco":9035,"chap":9036,"champ":9037,"allow":9038,"trust":9039,"traps":9040,"male":9041,"moist":9042,"##ello":9043,"yessie":9044,"hub":9045,"gotchu":9046,"##umsy":9047,"bry":9048,"bramb":9049,"coin":9050,"coaster":9051,"cobra":9052,"carwin":9053,"clumsy":9054,"sailing":9055,"neato":9056,"anyways":9057,"swell":9058,"swirl":9059,"sling":9060,"slime":9061,"slave":9062,"waw":9063,"wavy":9064,"maya":9065,"uhhh":9066,"greif":9067,"greggy":9068,"remembers":9069,"colander":9070,"##iputian":9071,"loy":9072,"gug":9073,"guah":9074,"showers":9075,"cooker":9076,"sexy":9077,"quik":9078,"dijou":9079,"beddie":9080,"whichever":9081,"newt":9082,"newton":9083,"leads":9084,"##ending":9085,"sneaking":9086,"hatching":9087,"careless":9088,"squeal":9089,"pickup":9090,"exhibit":9091,"monk":9092,"clement":9093,"appropri":9094,"finishes":9095,"supplies":9096,"petting":9097,"lighthouse":9098,"cutest":9099,"fella":9100,"##acha":9101,"skipping":9102,"wheelchair":9103,"numnum":9104,"bangle":9105,"foggy":9106,"tread":9107,"launch":9108,"##lings":9109,"chrissy":9110,"hanger":9111,"event":9112,"specific":9113,"toasted":9114,"checks":9115,"melon":9116,"melinda":9117,"turtleneck":9118,"##ifty":9119,"kicks":9120,"belonged":9121,"phew":9122,"tightly":9123,"delicate":9124,"pressing":9125,"##ambler":9126,"##ensie":9127,"decision":9128,"lambie":9129,"dreamed":9130,"figures":9131,"fighters":9132,"crawls":9133,"rachael":9134,"poopy":9135,"cashier":9136,"bertie":9137,"reasons":9138,"switched":9139,"zeven":9140,"gung":9141,"chugging":9142,"jessie":9143,"magazines":9144,"scooping":9145,"merrill":9146,"dukes":9147,"beats":9148,"oyster":9149,"cafe":9150,"shades":9151,"loaded":9152,"steamed":9153,"killing":9154,"floats":9155,"sews":9156,"snuggly":9157,"smoking":9158,"spraying":9159,"distur":9160,"softer":9161,"bomb":9162,"##mediately":9163,"tammy":9164,"murray":9165,"discovered":9166,"escaped":9167,"delivering":9168,"stingray":9169,"carlos":9170,"mischief":9171,"creepy":9172,"solar":9173,"armadillos":9174,"kenobi":9175,"whadja":9176,"royal":9177,"servants":9178,"bitten":9179,"rarr":9180,"stomping":9181,"propellers":9182,"heehaw":9183,"mexican":9184,"shovels":9185,"mosquitos":9186,"docks":9187,"dwarves":9188,"cobwe":9189,"celebrate":9190,"celebration":9191,"croak":9192,"seasons":9193,"spoiled":9194,"coaches":9195,"kooshball":9196,"##washir":9197,"chipmunks":9198,"tattoo":9199,"adult":9200,"veterinarian":9201,"immediately":9202,"charming":9203,"##oodoodoo":9204,"seagulls":9205,"floppity":9206,"woujou":9207,"introduce":9208,"version":9209,"cruz":9210,"egypt":9211,"thrilled":9212,"professor":9213,"stitches":9214,"maura":9215,"corinna":9216,"bravo":9217,"speech":9218,"erasing":9219,"rhyming":9220,"vrooom":9221,"yippee":9222,"lilliputian":9223,"mystery":9224,"raindrops":9225,"flavored":9226,"cormorant":9227,"kirsten":9228,"teepee":9229,"brambles":9230,"aster":9231,"cit":9232,"dell":9233,"deet":9234,"dja":9235,"dune":9236,"et":9237,"eah":9238,"eug":9239,"ease":9240,"ella":9241,"fas":9242,"fear":9243,"gang":9244,"gaga":9245,"gathered":9246,"ick":9247,"kix":9248,"kuk":9249,"lark":9250,"lag":9251,"lining":9252,"laka":9253,"nay":9254,"nad":9255,"puck":9256,"pist":9257,"ral":9258,"sizes":9259,"tour":9260,"tamb":9261,"tips":9262,"uff":9263,"woll":9264,"yank":9265,"yol":9266,"zone":9267,"zag":9268,"zeren":9269,"##rove":9270,"##lock":9271,"##ujah":9272,"##ially":9273,"##nn":9274,"##zal":9275,"##off":9276,"##cocks":9277,"##fied":9278,"##ville":9279,"##bat":9280,"##bast":9281,"##born":9282,"##juba":9283,"##atos":9284,"##inney":9285,"##ances":9286,"dow":9287,"toena":9288,"gog":9289,"anxious":9290,"##ishm":9291,"haunted":9292,"inf":9293,"oklah":9294,"sherry":9295,"##eny":9296,"##irk":9297,"didi":9298,"stab":9299,"##adah":9300,"##icent":9301,"getcher":9302,"knitting":9303,"chame":9304,"chica":9305,"plunk":9306,"noticing":9307,"soak":9308,"soaked":9309,"##ppies":9310,"bog":9311,"##ellite":9312,"abby":9313,"huff":9314,"alan":9315,"##opy":9316,"playin":9317,"players":9318,"playful":9319,"blaster":9320,"brrr":9321,"cole":9322,"clue":9323,"spins":9324,"saves":9325,"bookie":9326,"offering":9327,"gro":9328,"gruff":9329,"grater":9330,"swipe":9331,"swamp":9332,"flames":9333,"slurp":9334,"slips":9335,"wald":9336,"argu":9337,"##ggles":9338,"hollow":9339,"mmmm":9340,"mango":9341,"aga":9342,"greet":9343,"remain":9344,"whiz":9345,"whipped":9346,"suff":9347,"##iption":9348,"##eline":9349,"##elujah":9350,"##antly":9351,"fires":9352,"##aurus":9353,"##ahah":9354,"sebast":9355,"dix":9356,"diver":9357,"##oboo":9358,"prun":9359,"fooled":9360,"bedelia":9361,"lever":9362,"lead":9363,"shoem":9364,"shoel":9365,"##ended":9366,"mous":9367,"##adeh":9368,"adi":9369,"adada":9370,"admit":9371,"glider":9372,"singer":9373,"petes":9374,"petun":9375,"tika":9376,"jumpjump":9377,"recital":9378,"##acas":9379,"##acles":9380,"standard":9381,"emerson":9382,"dandy":9383,"towing":9384,"activ":9385,"actual":9386,"marc":9387,"maracas":9388,"choos":9389,"choochoo":9390,"naps":9391,"crystal":9392,"sandal":9393,"##whinney":9394,"camper":9395,"easiest":9396,"excav":9397,"banner":9398,"razzle":9399,"giya":9400,"cools":9401,"christina":9402,"nursed":9403,"yogi":9404,"steer":9405,"halfway":9406,"satellite":9407,"buckles":9408,"buckets":9409,"understands":9410,"pinwheel":9411,"shuttle":9412,"rubbed":9413,"##ensak":9414,"term":9415,"triple":9416,"softball":9417,"curled":9418,"medicines":9419,"splish":9420,"madeline":9421,"johnnie":9422,"##uda":9423,"terribly":9424,"planting":9425,"planned":9426,"grabs":9427,"lulla":9428,"##alaf":9429,"horned":9430,"magician":9431,"macwhinney":9432,"gardens":9433,"rye":9434,"thumbkin":9435,"casey":9436,"smooch":9437,"shaft":9438,"shaggy":9439,"princesses":9440,"poppins":9441,"arte":9442,"aisle":9443,"dotty":9444,"chimneys":9445,"sneezes":9446,"cockle":9447,"shots":9448,"attract":9449,"roaring":9450,"ayayay":9451,"silo":9452,"steady":9453,"ironing":9454,"thirteenth":9455,"hallelujah":9456,"punching":9457,"tanks":9458,"klunk":9459,"skunks":9460,"hucklecat":9461,"lollipops":9462,"chatter":9463,"lynx":9464,"jingleheimer":9465,"tarant":9466,"barefoot":9467,"exercising":9468,"gracie":9469,"giggling":9470,"shrie":9471,"shrunk":9472,"nibbling":9473,"designs":9474,"collected":9475,"examine":9476,"fabian":9477,"fabric":9478,"trapeze":9479,"philip":9480,"notebook":9481,"familia":9482,"chih":9483,"ledge":9484,"advance":9485,"joyce":9486,"iguanodon":9487,"settled":9488,"snuffle":9489,"schmidt":9490,"dalmat":9491,"lentil":9492,"angler":9493,"replied":9494,"cadet":9495,"koolaid":9496,"snarls":9497,"magnifying":9498,"jiggle":9499,"tidy":9500,"bossy":9501,"perfor":9502,"talent":9503,"objects":9504,"threat":9505,"clarinet":9506,"grumbled":9507,"gondola":9508,"juggling":9509,"molasses":9510,"including":9511,"hickory":9512,"sodor":9513,"##adiga":9514,"##chenia":9515,"cheddar":9516,"meals":9517,"sabina":9518,"puddles":9519,"advertis":9520,"##rauchenia":9521,"apologize":9522,"dictionary":9523,"jedi":9524,"female":9525,"hondo":9526,"igloo":9527,"vampire":9528,"##friend":9529,"loyal":9530,"eugene":9531,"tambour":9532,"wollensak":9533,"oklahoma":9534,"chamele":9535,"sebastian":9536,"bash":9537,"cia":9538,"cera":9539,"cyl":9540,"dud":9541,"dites":9542,"dude":9543,"eil":9544,"fad":9545,"fff":9546,"fought":9547,"fathers":9548,"gn":9549,"gates":9550,"hides":9551,"ir":9552,"icy":9553,"jaws":9554,"kook":9555,"kak":9556,"lat":9557,"loon":9558,"lumpy":9559,"mia":9560,"ng":9561,"nee":9562,"nifty":9563,"oun":9564,"pers":9565,"pumb":9566,"pals":9567,"ras":9568,"rick":9569,"rav":9570,"ruh":9571,"rising":9572,"siew":9573,"tanger":9574,"vrum":9575,"wight":9576,"yod":9577,"yick":9578,"yicky":9579,"zin":9580,"##tied":9581,"##roll":9582,"##lod":9583,"##eg":9584,"##eater":9585,"##eled":9586,"##ega":9587,"##ssed":9588,"##uly":9589,"##uish":9590,"##po":9591,"##wack":9592,"##mie":9593,"##mos":9594,"##mart":9595,"##cast":9596,"##ccess":9597,"##vah":9598,"##view":9599,"##bot":9600,"##atika":9601,"whiny":9602,"##anus":9603,"doves":9604,"##eral":9605,"thatza":9606,"tossed":9607,"goal":9608,"goos":9609,"goggles":9610,"heav":9611,"anh":9612,"##owers":9613,"##ooo":9614,"##ommy":9615,"anderson":9616,"haz":9617,"hast":9618,"nod":9619,"nodd":9620,"inch":9621,"inky":9622,"##cker":9623,"shield":9624,"##onstr":9625,"cany":9626,"canad":9627,"cance":9628,"##nam":9629,"bach":9630,"baab":9631,"stam":9632,"wanta":9633,"forwards":9634,"##amame":9635,"##ims":9636,"taun":9637,"tags":9638,"gonzo":9639,"chall":9640,"chess":9641,"chopper":9642,"jum":9643,"##verse":9644,"maze":9645,"rearr":9646,"moi":9647,"moly":9648,"abuh":9649,"##otch":9650,"##alee":9651,"blade":9652,"bron":9653,"dadadad":9654,"dadadadada":9655,"cobb":9656,"cling":9657,"clipper":9658,"makeup":9659,"spoke":9660,"##berg":9661,"crook":9662,"cruel":9663,"becomes":9664,"swip":9665,"swoosh":9666,"##abata":9667,"fluff":9668,"flipper":9669,"slight":9670,"arrr":9671,"shoulda":9672,"whip":9673,"scree":9674,"handing":9675,"handles":9676,"success":9677,"fives":9678,"shown":9679,"boxc":9680,"tales":9681,"quiver":9682,"brew":9683,"prints":9684,"##isted":9685,"pushba":9686,"nightm":9687,"mindy":9688,"leak":9689,"shocked":9690,"hart":9691,"snore":9692,"squaw":9693,"stromb":9694,"pickled":9695,"matzo":9696,"stork":9697,"roch":9698,"penne":9699,"adm":9700,"adadad":9701,"dinah":9702,"##ocious":9703,"##taun":9704,"appl":9705,"appet":9706,"storybook":9707,"beams":9708,"##agers":9709,"support":9710,"mornings":9711,"tibble":9712,"snapping":9713,"snowballs":9714,"baron":9715,"barbie":9716,"badega":9717,"marked":9718,"marion":9719,"uns":9720,"unc":9721,"paris":9722,"rockabye":9723,"patience":9724,"patients":9725,"degre":9726,"##ontas":9727,"creamer":9728,"naptime":9729,"counts":9730,"lotsa":9731,"rained":9732,"messages":9733,"dinnertime":9734,"hangs":9735,"jenna":9736,"##unka":9737,"##unky":9738,"tasting":9739,"sadly":9740,"concer":9741,"beautifully":9742,"oozing":9743,"pourquo":9744,"hurried":9745,"smelled":9746,"warmed":9747,"telephones":9748,"visitors":9749,"peacocks":9750,"refer":9751,"cardinals":9752,"curvy":9753,"superher":9754,"vacc":9755,"edamame":9756,"wishes":9757,"gentlemen":9758,"squirters":9759,"calcul":9760,"museums":9761,"indiana":9762,"acrob":9763,"menn":9764,"gumd":9765,"gums":9766,"fills":9767,"macaque":9768,"answers":9769,"collap":9770,"colleen":9771,"accidentally":9772,"radido":9773,"licks":9774,"bamboo":9775,"##etyboom":9776,"piled":9777,"muffet":9778,"poppa":9779,"poppies":9780,"artich":9781,"anteater":9782,"buzzing":9783,"waved":9784,"millions":9785,"burns":9786,"oysters":9787,"stamped":9788,"racketyboom":9789,"barks":9790,"toddlers":9791,"diplod":9792,"tentagon":9793,"tipto":9794,"breathing":9795,"sucks":9796,"robots":9797,"##sticks":9798,"caroline":9799,"swordfish":9800,"ewok":9801,"lamps":9802,"drilling":9803,"labels":9804,"teaspoon":9805,"giggles":9806,"hankey":9807,"hanabata":9808,"loses":9809,"kiawe":9810,"jacque":9811,"clubs":9812,"seriously":9813,"fantasy":9814,"powerful":9815,"lanterns":9816,"emptied":9817,"gespard":9818,"rarara":9819,"correctly":9820,"volume":9821,"jeffrey":9822,"knobs":9823,"sniffed":9824,"pteranodon":9825,"tikuh":9826,"sausages":9827,"mammal":9828,"silliest":9829,"smushed":9830,"sculptures":9831,"gahead":9832,"creepmouse":9833,"akk":9834,"gallop":9835,"lentils":9836,"nyum":9837,"dawson":9838,"buddah":9839,"fisherman":9840,"effort":9841,"effect":9842,"entertain":9843,"respons":9844,"predic":9845,"bindergarten":9846,"bruno":9847,"catalogue":9848,"obsessed":9849,"dye":9850,"length":9851,"bleeding":9852,"##jays":9853,"license":9854,"precious":9855,"album":9856,"annoying":9857,"exclaimed":9858,"portugal":9859,"infinity":9860,"appropriate":9861,"treadmill":9862,"easel":9863,"fascin":9864,"lagoon":9865,"yolky":9866,"prunes":9867,"excavator":9868,"lullaby":9869,"tambourine":9870,"ciao":9871,"eileen":9872,"pumbaa":9873,"zinn":9874,"nodded":9875,"canadian":9876,"baabaa":9877,"stamford":9878,"tauntaun":9879,"stromboli":9880,"degrees":9881,"pourquoi":9882,"diplodocus":9883,"bid":9884,"bink":9885,"bess":9886,"crew":9887,"dall":9888,"due":9889,"dair":9890,"dug":9891,"gour":9892,"gag":9893,"gita":9894,"hing":9895,"kush":9896,"kyle":9897,"lam":9898,"mct":9899,"mort":9900,"mguh":9901,"nummy":9902,"oly":9903,"occ":9904,"pum":9905,"psy":9906,"rif":9907,"russ":9908,"ropes":9909,"sank":9910,"une":9911,"vrm":9912,"wib":9913,"zee":9914,"##tim":9915,"##rh":9916,"##loo":9917,"##ebe":9918,"##doo":9919,"##doh":9920,"##dump":9921,"##dog":9922,"##yn":9923,"##iah":9924,"##ique":9925,"##nest":9926,"##zell":9927,"##oah":9928,"##kad":9929,"##kest":9930,"##kker":9931,"##vable":9932,"##bars":9933,"##jabi":9934,"##outh":9935,"##reme":9936,"##anced":9937,"itty":9938,"##ayo":9939,"hell":9940,"anch":9941,"##owow":9942,"##owary":9943,"##iser":9944,"##uttle":9945,"haza":9946,"nos":9947,"nois":9948,"shm":9949,"shush":9950,"shift":9951,"##arty":9952,"##arrow":9953,"rev":9954,"wann":9955,"##ookie":9956,"libba":9957,"bakes":9958,"balc":9959,"backed":9960,"beating":9961,"##irap":9962,"stings":9963,"##adel":9964,"gettin":9965,"gong":9966,"knowing":9967,"cher":9968,"ching":9969,"chry":9970,"chucky":9971,"cheryl":9972,"chili":9973,"plowing":9974,"alley":9975,"howard":9976,"trough":9977,"tromb":9978,"truly":9979,"litter":9980,"maa":9981,"mavis":9982,"aba":9983,"moments":9984,"alison":9985,"albert":9986,"theme":9987,"##aloo":9988,"##alala":9989,"heron":9990,"biggy":9991,"bla":9992,"blea":9993,"brook":9994,"cocoon":9995,"##apers":9996,"carter":9997,"carrie":9998,"spong":9999,"spooky":10000,"daddys":10001,"twent":10002,"tweez":10003,"twigs":10004,"##ivered":10005,"##amel":10006,"neil":10007,"anyplace":10008,"anyhow":10009,"crisp":10010,"watered":10011,"grant":10012,"elise":10013,"bully":10014,"buoy":10015,"sway":10016,"swoop":10017,"mayzie":10018,"##ema":10019,"hog":10020,"mani":10021,"##belie":10022,"grease":10023,"greasy":10024,"scuttle":10025,"##anted":10026,"guide":10027,"fier":10028,"##ahontas":10029,"##enta":10030,"diana":10031,"pecul":10032,"pra":10033,"fooba":10034,"wrigg":10035,"##phia":10036,"##venient":10037,"smil":10038,"inta":10039,"newborn":10040,"leot":10041,"legg":10042,"legged":10043,"lekker":10044,"leader":10045,"harness":10046,"cares":10047,"mouses":10048,"underground":10049,"strain":10050,"strang":10051,"stripe":10052,"stranger":10053,"talkie":10054,"drinker":10055,"walmart":10056,"boog":10057,"amber":10058,"adding":10059,"diner":10060,"##ocirap":10061,"wooba":10062,"peered":10063,"peeled":10064,"peeyou":10065,"peejays":10066,"nappies":10067,"nosed":10068,"tech":10069,"doorman":10070,"beagle":10071,"oldest":10072,"petals":10073,"lightbul":10074,"birthdays":10075,"builds":10076,"##ugh":10077,"aware":10078,"tomatos":10079,"snowed":10080,"skim":10081,"skies":10082,"buyed":10083,"appledump":10084,"barge":10085,"barry":10086,"sunda":10087,"suntan":10088,"poems":10089,"##orte":10090,"highest":10091,"##erai":10092,"oinkoink":10093,"musk":10094,"eyeglasses":10095,"jackson":10096,"cooling":10097,"moonlight":10098,"corners":10099,"##eheh":10100,"rooft":10101,"conv":10102,"convenient":10103,"stevie":10104,"backpacks":10105,"necks":10106,"growed":10107,"##intosh":10108,"motorb":10109,"disk":10110,"bucks":10111,"candyland":10112,"seaside":10113,"phy":10114,"phon":10115,"closest":10116,"##ugging":10117,"woodpe":10118,"##scious":10119,"##scotch":10120,"shortly":10121,"bonked":10122,"bonjour":10123,"ehe":10124,"deser":10125,"ladys":10126,"hoof":10127,"fights":10128,"grabby":10129,"announce":10130,"dragons":10131,"drumming":10132,"caps":10133,"compared":10134,"stickerbirds":10135,"powdered":10136,"cinda":10137,"signed":10138,"whistles":10139,"impressive":10140,"##vory":10141,"spaghettios":10142,"sharpen":10143,"sharpener":10144,"picnics":10145,"pointer":10146,"doodled":10147,"extinct":10148,"extreme":10149,"raced":10150,"kayak":10151,"clicking":10152,"rainbows":10153,"louie":10154,"bleat":10155,"woa":10156,"sending":10157,"##flowers":10158,"cockat":10159,"necklaces":10160,"bushy":10161,"beatles":10162,"aye":10163,"scooch":10164,"##clear":10165,"transcribe":10166,"stripy":10167,"plumer":10168,"plumerai":10169,"esp":10170,"villagers":10171,"invest":10172,"crows":10173,"dental":10174,"fourteenth":10175,"hayst":10176,"eva":10177,"lobsters":10178,"junior":10179,"fields":10180,"cassowary":10181,"knots":10182,"utah":10183,"smokest":10184,"subject":10185,"nineteenth":10186,"positive":10187,"whatsa":10188,"feria":10189,"goldenrod":10190,"borrowed":10191,"tightening":10192,"pedals":10193,"dickory":10194,"weighs":10195,"solve":10196,"solid":10197,"munching":10198,"rushed":10199,"mikey":10200,"student":10201,"expected":10202,"##jection":10203,"##iyaiya":10204,"philadel":10205,"tikatika":10206,"tablespoon":10207,"organic":10208,"destruct":10209,"advice":10210,"velocirap":10211,"cucumbers":10212,"pompom":10213,"adventures":10214,"pleasant":10215,"snuffles":10216,"cycle":10217,"bubby":10218,"marsha":10219,"punjabi":10220,"yeow":10221,"prepared":10222,"bouquet":10223,"stains":10224,"autumn":10225,"buddha":10226,"demonstr":10227,"thorns":10228,"derrick":10229,"perfume":10230,"development":10231,"predator":10232,"twirling":10233,"congrat":10234,"santie":10235,"andrea":10236,"amigos":10237,"firm":10238,"gravel":10239,"fleece":10240,"honestly":10241,"accordion":10242,"obstacle":10243,"europe":10244,"omelette":10245,"randall":10246,"issue":10247,"officers":10248,"waltzing":10249,"hawaii":10250,"falcon":10251,"pocahontas":10252,"ywanna":10253,"shrek":10254,"approached":10255,"physical":10256,"derek":10257,"clementine":10258,"eventually":10259,"tattooed":10260,"nadine":10261,"ralph":10262,"##jubajuba":10263,"##ishment":10264,"shoemaker":10265,"mousse":10266,"dalmatian":10267,"cylind":10268,"rascal":10269,"yodel":10270,"swiping":10271,"nightmare":10272,"calculator":10273,"jacqueline":10274,"mctats":10275,"balcony":10276,"chrys":10277,"trombone":10278,"sponges":10279,"peculiar":10280,"appledumpling":10281,"philadelphia":10282,"velociraptor":10283,"congratul":10284,"aer":10285,"bj":10286,"bure":10287,"bound":10288,"burt":10289,"ds":10290,"een":10291,"fat":10292,"fak":10293,"fatter":10294,"gap":10295,"gerg":10296,"ih":10297,"ivory":10298,"jake":10299,"kee":10300,"lug":10301,"loun":10302,"lava":10303,"meen":10304,"mik":10305,"nip":10306,"nadi":10307,"obo":10308,"oint":10309,"pom":10310,"pam":10311,"pest":10312,"pave":10313,"pairs":10314,"pss":10315,"pledge":10316,"ram":10317,"rust":10318,"sen":10319,"sel":10320,"umy":10321,"von":10322,"vines":10323,"viley":10324,"wes":10325,"weap":10326,"yumyum":10327,"##tog":10328,"##ram":10329,"##rock":10330,"##rav":10331,"##lee":10332,"##long":10333,"##lane":10334,"##luh":10335,"##loe":10336,"##dub":10337,"##dling":10338,"##duh":10339,"##year":10340,"##yote":10341,"##uy":10342,"##uced":10343,"##ioli":10344,"##ns":10345,"##gee":10346,"##heh":10347,"##psy":10348,"##olen":10349,"##for":10350,"##bop":10351,"##boop":10352,"##burn":10353,"##aters":10354,"##atosaurus":10355,"##rest":10356,"##ino":10357,"toasty":10358,"tobac":10359,"whatta":10360,"het":10361,"height":10362,"ana":10363,"ange":10364,"##isk":10365,"##ooly":10366,"##itor":10367,"weep":10368,"weeny":10369,"##igot":10370,"##ords":10371,"inn":10372,"injection":10373,"shucks":10374,"requ":10375,"wander":10376,"##ldem":10377,"donchou":10378,"bap":10379,"bagg":10380,"##iring":10381,"meh":10382,"meme":10383,"stare":10384,"##ading":10385,"##adon":10386,"##odie":10387,"ford":10388,"kneel":10389,"##uro":10390,"##ittles":10391,"##edy":10392,"shel":10393,"chill":10394,"chitty":10395,"chloe":10396,"##ppa":10397,"tram":10398,"trop":10399,"##unun":10400,"mala":10401,"abba":10402,"myster":10403,"altog":10404,"downhill":10405,"##alia":10406,"background":10407,"herb":10408,"hercul":10409,"##auqu":10410,"blush":10411,"broad":10412,"coyote":10413,"orn":10414,"caramel":10415,"cleared":10416,"spu":10417,"sparrow":10418,"spigot":10419,"cris":10420,"willing":10421,"becoming":10422,"##osion":10423,"elf":10424,"turkle":10425,"swift":10426,"swords":10427,"##abl":10428,"##abear":10429,"##nyard":10430,"flown":10431,"flippers":10432,"slices":10433,"wagging":10434,"arn":10435,"arri":10436,"##ctic":10437,"mant":10438,"cattle":10439,"timeout":10440,"comfort":10441,"##ipes":10442,"loli":10443,"##ela":10444,"##elp":10445,"##anging":10446,"##angular":10447,"guava":10448,"##oles":10449,"##olved":10450,"waits":10451,"waitress":10452,"##ups":10453,"##upials":10454,"seuss":10455,"quacked":10456,"##ential":10457,"pez":10458,"peps":10459,"##eps":10460,"minor":10461,"intell":10462,"daylight":10463,"leapt":10464,"harm":10465,"undies":10466,"snout":10467,"squeaked":10468,"mount":10469,"strut":10470,"##avior":10471,"mats":10472,"matilda":10473,"##uffs":10474,"##uffle":10475,"cleo":10476,"final":10477,"whoopie":10478,"peeing":10479,"napping":10480,"cleaners":10481,"eggpl":10482,"sorter":10483,"lightyear":10484,"partner":10485,"grandson":10486,"##play":10487,"runway":10488,"snazzy":10489,"awawa":10490,"tomcat":10491,"skittles":10492,"dana":10493,"barley":10494,"barnyard":10495,"differently":10496,"firehouse":10497,"fireflies":10498,"wheeler":10499,"margi":10500,"unbelie":10501,"paras":10502,"sunburn":10503,"deb":10504,"defe":10505,"swimmer":10506,"poked":10507,"##what":10508,"toystore":10509,"daily":10510,"dapper":10511,"countries":10512,"foil":10513,"poles":10514,"bumpa":10515,"behavior":10516,"##iance":10517,"##mings":10518,"sooner":10519,"cracks":10520,"scraps":10521,"joined":10522,"cornmeal":10523,"loos":10524,"policemen":10525,"pappy":10526,"connie":10527,"connor":10528,"salam":10529,"prolly":10530,"hurric":10531,"groundhog":10532,"tummyache":10533,"##oodoo":10534,"pheas":10535,"sweating":10536,"recorders":10537,"baaaa":10538,"robbie":10539,"woodcock":10540,"crashes":10541,"##ettes":10542,"terrap":10543,"bandana":10544,"machrauchenia":10545,"johnson":10546,"ranch":10547,"randy":10548,"nutty":10549,"nutcracker":10550,"classmates":10551,"gasped":10552,"hooey":10553,"kevin":10554,"rhodie":10555,"voldem":10556,"lullab":10557,"lays":10558,"layer":10559,"##swick":10560,"splashes":10561,"tadu":10562,"india":10563,"compass":10564,"compartment":10565,"rosies":10566,"koko":10567,"switching":10568,"coughed":10569,"digby":10570,"burrow":10571,"explod":10572,"exploring":10573,"wildebe":10574,"baltim":10575,"racquet":10576,"diapie":10577,"meantime":10578,"hawks":10579,"antelope":10580,"woken":10581,"gramps":10582,"cocktail":10583,"torture":10584,"wrapper":10585,"freddy":10586,"alphabets":10587,"cubby":10588,"silk":10589,"stretchy":10590,"fail":10591,"shouts":10592,"pilgr":10593,"leanne":10594,"duhkuh":10595,"bravely":10596,"sewer":10597,"juniper":10598,"raccoons":10599,"pounding":10600,"thumping":10601,"eliza":10602,"enjoyed":10603,"squashing":10604,"squashed":10605,"helmets":10606,"connection":10607,"luckily":10608,"bombs":10609,"copies":10610,"copying":10611,"reindeers":10612,"bases":10613,"marsupials":10614,"ferdie":10615,"murder":10616,"##wahwah":10617,"shrink":10618,"hanuk":10619,"kaboomps":10620,"beetles":10621,"uranus":10622,"jerami":10623,"relaxing":10624,"members":10625,"solution":10626,"dialing":10627,"devon":10628,"cello":10629,"generally":10630,"examined":10631,"envelopes":10632,"equals":10633,"nuhhuh":10634,"cranberries":10635,"elastics":10636,"mummies":10637,"zoete":10638,"lori":10639,"rrrr":10640,"poisoned":10641,"poisonous":10642,"gazagg":10643,"flicker":10644,"##ology":10645,"argue":10646,"waddle":10647,"canoeing":10648,"humps":10649,"wrinkly":10650,"mason":10651,"footprint":10652,"thermos":10653,"tablet":10654,"floppys":10655,"unwrap":10656,"expression":10657,"affect":10658,"unbuttoned":10659,"imitate":10660,"wacky":10661,"joanne":10662,"modern":10663,"brunswick":10664,"chowder":10665,"amigo":10666,"radishes":10667,"voted":10668,"limb":10669,"scallop":10670,"scallops":10671,"scolding":10672,"karate":10673,"pishy":10674,"route":10675,"staple":10676,"twisting":10677,"pollen":10678,"vehicle":10679,"rubbish":10680,"memorial":10681,"considered":10682,"climber":10683,"ashtray":10684,"footsteps":10685,"kinana":10686,"chapter":10687,"bryce":10688,"cobwebs":10689,"kukabear":10690,"groan":10691,"advertisement":10692,"tangerine":10693,"heavier":10694,"hazard":10695,"hasta":10696,"canyon":10697,"challen":10698,"hartzell":10699,"responsib":10700,"fascinated":10701,"dallas":10702,"fierce":10703,"sundae":10704,"motorbike":10705,"doodledoo":10706,"extremely":10707,"plumeria":10708,"haystack":10709,"smokestack":10710,"cylinder":10711,"congratulations":10712,"eeney":10713,"lounge":10714,"oboe":10715,"ointment":10716,"tobacco":10717,"baggage":10718,"altogether":10719,"hercules":10720,"##auqua":10721,"terrapin":10722,"voldemorte":10723,"wildebeest":10724,"baltimore":10725,"hanukkah":10726,"jeramiah":10727,"gazaggers":10728,"aa":10729,"ace":10730,"aya":10731,"bion":10732,"bond":10733,"biz":10734,"biddy":10735,"cases":10736,"ded":10737,"ditch":10738,"eg":10739,"fum":10740,"fond":10741,"fans":10742,"fitted":10743,"gast":10744,"gert":10745,"gadiga":10746,"hound":10747,"igen":10748,"jig":10749,"jock":10750,"jody":10751,"jars":10752,"kan":10753,"kaz":10754,"lur":10755,"lars":10756,"laces":10757,"munka":10758,"nack":10759,"oot":10760,"pth":10761,"pand":10762,"sis":10763,"sump":10764,"tay":10765,"tcha":10766,"tina":10767,"tangles":10768,"uht":10769,"uba":10770,"vet":10771,"voc":10772,"varen":10773,"wis":10774,"wea":10775,"yow":10776,"yoop":10777,"yike":10778,"zat":10779,"zeek":10780,"##aving":10781,"##rag":10782,"##sky":10783,"##uate":10784,"##uzz":10785,"##iat":10786,"##iji":10787,"##not":10788,"##gor":10789,"##gna":10790,"##xes":10791,"##zee":10792,"##zers":10793,"##pin":10794,"##ogg":10795,"##wor":10796,"##mn":10797,"##mee":10798,"##mission":10799,"##cies":10800,"##cour":10801,"##cile":10802,"##fold":10803,"##bet":10804,"##ben":10805,"##bill":10806,"##bil":10807,"##bag":10808,"thip":10809,"whir":10810,"##anation":10811,"dowa":10812,"##erate":10813,"italian":10814,"tone":10815,"gosp":10816,"heman":10817,"heather":10818,"heating":10819,"anak":10820,"angie":10821,"angle":10822,"##eton":10823,"##ooom":10824,"##uttered":10825,"##igold":10826,"hav":10827,"##vere":10828,"nother":10829,"##ckon":10830,"##arre":10831,"##arrh":10832,"reverse":10833,"wank":10834,"##nad":10835,"lime":10836,"livie":10837,"##ldron":10838,"yeast":10839,"bait":10840,"baggie":10841,"bebe":10842,"beige":10843,"meggie":10844,"mellas":10845,"##ereo":10846,"##sto":10847,"##stone":10848,"##stool":10849,"##storm":10850,"stall":10851,"stoop":10852,"stress":10853,"stereo":10854,"##addle":10855,"getcha":10856,"##ams":10857,"##amoo":10858,"##imum":10859,"##urra":10860,"##urity":10861,"tackle":10862,"upper":10863,"knowledge":10864,"cham":10865,"juggle":10866,"sox":10867,"soil":10868,"trish":10869,"mak":10870,"maps":10871,"boin":10872,"hup":10873,"huds":10874,"hubb":10875,"huey":10876,"playhouse":10877,"##uma":10878,"##alis":10879,"##ality":10880,"herd":10881,"huhuh":10882,"drips":10883,"broth":10884,"briar":10885,"overhead":10886,"coast":10887,"cobs":10888,"##ilada":10889,"carving":10890,"carmen":10891,"clause":10892,"clang":10893,"sper":10894,"spice":10895,"spock":10896,"spine":10897,"spices":10898,"##uckle":10899,"##geon":10900,"nev":10901,"cramp":10902,"crumble":10903,"watery":10904,"grun":10905,"grip":10906,"prepar":10907,"buds":10908,"bucy":10909,"##ished":10910,"happiness":10911,"##ababa":10912,"##aburra":10913,"flore":10914,"slink":10915,"slither":10916,"hoy":10917,"hoh":10918,"hok":10919,"hob":10920,"mmwah":10921,"managed":10922,"boyfriend":10923,"cath":10924,"##beat":10925,"comic":10926,"scab":10927,"scra":10928,"scamp":10929,"##ipi":10930,"throne":10931,"##elor":10932,"hiya":10933,"##olored":10934,"option":10935,"meanie":10936,"diarrh":10937,"brett":10938,"prog":10939,"writer":10940,"smarty":10941,"minie":10942,"shoppers":10943,"schools":10944,"drawbridge":10945,"##umps":10946,"snuck":10947,"hates":10948,"hatches":10949,"throwed":10950,"encour":10951,"struck":10952,"afric":10953,"monst":10954,"monks":10955,"breakdown":10956,"walter":10957,"booby":10958,"boohoo":10959,"boobal":10960,"amph":10961,"penelope":10962,"fixer":10963,"adeh":10964,"adios":10965,"##ogo":10966,"naar":10967,"glow":10968,"teething":10969,"##ashed":10970,"theirs":10971,"sarabi":10972,"##sha":10973,"funeral":10974,"weewee":10975,"lighting":10976,"lightening":10977,"jumper":10978,"recall":10979,"hunka":10980,"foots":10981,"movement":10982,"##ugug":10983,"throughout":10984,"##achoo":10985,"runner":10986,"skit":10987,"touches":10988,"touchdown":10989,"peekamoo":10990,"ernest":10991,"idiot":10992,"marjor":10993,"marigold":10994,"unhunh":10995,"ideal":10996,"popular":10997,"foundation":10998,"catcher":10999,"purr":11000,"sandman":11001,"##whel":11002,"security":11003,"cami":11004,"blower":11005,"forgets":11006,"armor":11007,"peekaboos":11008,"foe":11009,"rounds":11010,"untangle":11011,"starve":11012,"owen":11013,"matters":11014,"giants":11015,"apatosaurus":11016,"bothered":11017,"##uhuh":11018,"zoobs":11019,"pookey":11020,"##ibr":11021,"##ounced":11022,"perform":11023,"piggys":11024,"acre":11025,"convert":11026,"cereals":11027,"##aults":11028,"melk":11029,"learns":11030,"hurdy":11031,"warmly":11032,"maxwell":11033,"pinches":11034,"seas":11035,"peam":11036,"busybox":11037,"drawings":11038,"robber":11039,"robins":11040,"charged":11041,"ruining":11042,"shortri":11043,"froggies":11044,"curse":11045,"packs":11046,"jammy":11047,"figuring":11048,"tongs":11049,"benches":11050,"desper":11051,"summertime":11052,"heartbeat":11053,"gasala":11054,"hooh":11055,"paddy":11056,"kev":11057,"minds":11058,"minding":11059,"calv":11060,"accent":11061,"maryland":11062,"macintosh":11063,"squeezes":11064,"capital":11065,"fairly":11066,"serves":11067,"served":11068,"thumbs":11069,"##psack":11070,"trunks":11071,"lemmee":11072,"whistled":11073,"whistler":11074,"smiley":11075,"oceans":11076,"reasonable":11077,"meter":11078,"gaggle":11079,"explode":11080,"explosion":11081,"explanation":11082,"balo":11083,"##iva":11084,"stirred":11085,"unlocked":11086,"laundrom":11087,"handlebars":11088,"toadstool":11089,"hyp":11090,"hyster":11091,"measles":11092,"artoo":11093,"article":11094,"antlers":11095,"buzzer":11096,"mcd":11097,"woowoo":11098,"hulks":11099,"##strom":11100,"beatle":11101,"oblong":11102,"tort":11103,"clearing":11104,"deeper":11105,"stamping":11106,"transport":11107,"loads":11108,"choked":11109,"puffer":11110,"gabil":11111,"ribs":11112,"##baby":11113,"##liest":11114,"director":11115,"stealing":11116,"boingo":11117,"corny":11118,"timiam":11119,"honkers":11120,"punched":11121,"##mez":11122,"yawned":11123,"created":11124,"##chyou":11125,"reminding":11126,"evans":11127,"booties":11128,"measures":11129,"temp":11130,"##eteer":11131,"snuggling":11132,"huckleberry":11133,"sparkle":11134,"tattle":11135,"bunting":11136,"posy":11137,"protected":11138,"yahyah":11139,"rinsed":11140,"proudly":11141,"borrowing":11142,"straightening":11143,"delivers":11144,"nibbles":11145,"carlo":11146,"frighten":11147,"knapsack":11148,"holidays":11149,"polished":11150,"nuclear":11151,"whadaya":11152,"##ailable":11153,"tonya":11154,"separated":11155,"cooperating":11156,"cooperative":11157,"title":11158,"spaceships":11159,"expecting":11160,"swimsuit":11161,"##cription":11162,"interview":11163,"##frog":11164,"teletubby":11165,"somersaults":11166,"rawring":11167,"speeding":11168,"sniffing":11169,"mosquitoes":11170,"leapfrog":11171,"chirps":11172,"##hiy":11173,"rude":11174,"##piece":11175,"croiss":11176,"decker":11177,"moomoo":11178,"creeping":11179,"##umyumyumyumy":11180,"hedgehog":11181,"sunsuit":11182,"cyril":11183,"kellogg":11184,"rangy":11185,"boinka":11186,"dragged":11187,"clippers":11188,"clippety":11189,"cauldron":11190,"goofed":11191,"origami":11192,"necessary":11193,"slammed":11194,"prettier":11195,"prudential":11196,"dominos":11197,"##oyoyoyoy":11198,"autom":11199,"aunts":11200,"audience":11201,"bzzzz":11202,"##ubububub":11203,"surv":11204,"unwind":11205,"seashore":11206,"afford":11207,"gyere":11208,"jaques":11209,"magnificent":11210,"flattened":11211,"variet":11212,"disguise":11213,"complaining":11214,"handkerchiefs":11215,"pippo":11216,"sudsy":11217,"romper":11218,"miniature":11219,"enchanted":11220,"enchilada":11221,"##heehee":11222,"concentrate":11223,"australia":11224,"jeremy":11225,"chimpanzee":11226,"eyelashes":11227,"aggrav":11228,"ooga":11229,"##laglag":11230,"dottie":11231,"indoors":11232,"gaudy":11233,"doggys":11234,"moistur":11235,"wawawa":11236,"gugug":11237,"zevenber":11238,"disturb":11239,"deetoo":11240,"yankee":11241,"stabil":11242,"arguing":11243,"adiadi":11244,"kookaburra":11245,"ravioli":11246,"yickity":11247,"bachelor":11248,"rochelle":11249,"akkor":11250,"dairy":11251,"olymp":11252,"anchor":11253,"twentieth":11254,"tweezers":11255,"strangers":11256,"musketeer":11257,"rooftops":11258,"woodpecker":11259,"investig":11260,"predators":11261,"bureau":11262,"meeney":11263,"mysterious":11264,"spuds":11265,"pepsi":11266,"eggplant":11267,"unbelievable":11268,"hurricane":11269,"cubbyhole":11270,"bizarre":11271,"gertie":11272,"jocko":11273,"pandas":11274,"sumpin":11275,"gospal":11276,"anakin":11277,"mellason":11278,"hudson":11279,"hubbard":11280,"diarrhea":11281,"african":11282,"boobaloo":11283,"marjorie":11284,"laundromat":11285,"aright":11286,"bx":11287,"border":11288,"basha":11289,"cymb":11290,"diss":11291,"dummy":11292,"dudud":11293,"ddoh":11294,"ep":11295,"ec":11296,"fut":11297,"fare":11298,"fest":11299,"fist":11300,"fitting":11301,"faint":11302,"gan":11303,"gill":11304,"gem":11305,"gree":11306,"gina":11307,"gambler":11308,"hans":11309,"hnn":11310,"ihiy":11311,"kk":11312,"kaw":11313,"kah":11314,"kather":11315,"kobi":11316,"lair":11317,"lumber":11318,"mand":11319,"mile":11320,"mooky":11321,"nash":11322,"nitch":11323,"nyah":11324,"pi":11325,"pure":11326,"pong":11327,"parm":11328,"pookie":11329,"que":11330,"ric":11331,"rop":11332,"ripping":11333,"rico":11334,"sush":11335,"sul":11336,"sque":11337,"tun":11338,"tugging":11339,"tiring":11340,"uf":11341,"vous":11342,"zipped":11343,"##low":11344,"##ev":11345,"##ego":11346,"##uine":11347,"##uah":11348,"##iant":11349,"##nth":11350,"##nuh":11351,"##han":11352,"##zes":11353,"##pat":11354,"##pth":11355,"##pace":11356,"##papers":11357,"##wy":11358,"##watch":11359,"##kow":11360,"##keep":11361,"##kles":11362,"##call":11363,"##bies":11364,"##broom":11365,"##jamas":11366,"thay":11367,"thigh":11368,"##reens":11369,"##inken":11370,"whaa":11371,"whacha":11372,"##anana":11373,"##anza":11374,"##erable":11375,"tont":11376,"gogo":11377,"heey":11378,"heated":11379,"ankles":11380,"##owl":11381,"##owo":11382,"##etic":11383,"##etown":11384,"##itee":11385,"##itlin":11386,"##eered":11387,"##ori":11388,"##orus":11389,"##oride":11390,"##lem":11391,"##leine":11392,"##lection":11393,"shou":11394,"shen":11395,"shady":11396,"shred":11397,"##arant":11398,"relie":11399,"rebec":11400,"wandered":11401,"canals":11402,"liver":11403,"limp":11404,"limit":11405,"donno":11406,"bac":11407,"bale":11408,"##ircle":11409,"didoo":11410,"##stein":11411,"stur":11412,"stout":11413,"stacked":11414,"stinker":11415,"##thas":11416,"likely":11417,"##adum":11418,"##aduct":11419,"##odle":11420,"##icircle":11421,"forms":11422,"##amom":11423,"theyego":11424,"gonk":11425,"upward":11426,"chea":11427,"chum":11428,"chem":11429,"chute":11430,"chrystal":11431,"judge":11432,"jude":11433,"atl":11434,"allj":11435,"alleg":11436,"howdy":11437,"trow":11438,"trike":11439,"troy":11440,"troopers":11441,"##unity":11442,"makin":11443,"outg":11444,"boa":11445,"boc":11446,"boar":11447,"boast":11448,"ahman":11449,"##thern":11450,"##eller":11451,"abuel":11452,"myr":11453,"butcher":11454,"moma":11455,"##uming":11456,"##ots":11457,"##otta":11458,"hermit":11459,"drummer":11460,"drooly":11461,"blup":11462,"blither":11463,"blocked":11464,"bras":11465,"overwhel":11466,"woulda":11467,"##aping":11468,"clun":11469,"clipping":11470,"sple":11471,"spik":11472,"spying":11473,"twine":11474,"sails":11475,"##dayou":11476,"##bern":11477,"offered":11478,"crump":11479,"crinkle":11480,"##ffer":11481,"previous":11482,"turbo":11483,"turban":11484,"swoll":11485,"##abad":11486,"##abble":11487,"##abah":11488,"##ryl":11489,"flea":11490,"flake":11491,"floss":11492,"sla":11493,"slate":11494,"host":11495,"hobble":11496,"puds":11497,"puert":11498,"turnips":11499,"##bees":11500,"agh":11501,"reader":11502,"comin":11503,"comet":11504,"##ult":11505,"##athery":11506,"scout":11507,"scient":11508,"scuba":11509,"screens":11510,"colby":11511,"sup":11512,"##ipt":11513,"loc":11514,"##eless":11515,"guda":11516,"guzzle":11517,"guarant":11518,"hibern":11519,"girly":11520,"##olve":11521,"##olic":11522,"##olite":11523,"fromage":11524,"opin":11525,"opera":11526,"quail":11527,"quidd":11528,"dialed":11529,"pros":11530,"surely":11531,"smock":11532,"nighting":11533,"minimum":11534,"leans":11535,"leanna":11536,"horiz":11537,"snitch":11538,"snores":11539,"hairdo":11540,"truckie":11541,"milky":11542,"stroke":11543,"picky":11544,"booga":11545,"boogle":11546,"##uffed":11547,"ador":11548,"##ocent":11549,"longport":11550,"longneck":11551,"##resso":11552,"##eaded":11553,"glee":11554,"glam":11555,"glide":11556,"glitch":11557,"##fted":11558,"madeleine":11559,"tees":11560,"doorkn":11561,"##aging":11562,"##ship":11563,"petrie":11564,"tile":11565,"jumpy":11566,"jumpin":11567,"partly":11568,"stuffing":11569,"grandm":11570,"hotter":11571,"adams":11572,"##achio":11573,"jobs":11574,"skis":11575,"barrow":11576,"barbell":11577,"barrac":11578,"peeka":11579,"badge":11580,"tickoo":11581,"firecracker":11582,"marx":11583,"marge":11584,"maroon":11585,"marmo":11586,"marian":11587,"unpack":11588,"chooses":11589,"rockrock":11590,"pats":11591,"kidney":11592,"kiddie":11593,"sunflowers":11594,"belie":11595,"creams":11596,"poach":11597,"##rope":11598,"##wheat":11599,"##rase":11600,"ending":11601,"thanked":11602,"hopscotch":11603,"camer":11604,"excl":11605,"hamlet":11606,"starry":11607,"banthas":11608,"fingerp":11609,"bumpety":11610,"##iously":11611,"behaving":11612,"chocolates":11613,"screwing":11614,"eyeballs":11615,"poof":11616,"scraped":11617,"chews":11618,"##amps":11619,"jogging":11620,"viaduct":11621,"perla":11622,"musician":11623,"specially":11624,"accept":11625,"magoo":11626,"magenta":11627,"roosky":11628,"##broke":11629,"##iggy":11630,"delivered":11631,"instant":11632,"owned":11633,"wallpaper":11634,"salami":11635,"prove":11636,"pours":11637,"spotty":11638,"warming":11639,"grounds":11640,"buckled":11641,"understanding":11642,"##ify":11643,"visitor":11644,"pinched":11645,"kicky":11646,"neatly":11647,"toothies":11648,"mirrors":11649,"raised":11650,"riot":11651,"robbers":11652,"##ension":11653,"cardamom":11654,"curves":11655,"bonus":11656,"foxy":11657,"packet":11658,"splatter":11659,"decides":11660,"sample":11661,"tongues":11662,"desi":11663,"jellies":11664,"##bury":11665,"##burg":11666,"pools":11667,"##ective":11668,"slower":11669,"##ikiki":11670,"poopies":11671,"nanana":11672,"gumby":11673,"##inced":11674,"##incetown":11675,"keyhole":11676,"pearls":11677,"sinking":11678,"improve":11679,"impolite":11680,"lindsey":11681,"kokow":11682,"zeke":11683,"squirts":11684,"digs":11685,"mamaw":11686,"cheerful":11687,"doodoo":11688,"ridden":11689,"racoon":11690,"bullet":11691,"bullets":11692,"cecile":11693,"clicks":11694,"zooming":11695,"broombroom":11696,"lids":11697,"merced":11698,"addition":11699,"practiced":11700,"crocus":11701,"crocodiles":11702,"newspapers":11703,"fredonia":11704,"frances":11705,"bathtime":11706,"restaurants":11707,"kimmy":11708,"rackets":11709,"upsetting":11710,"coral":11711,"fax":11712,"passport":11713,"involved":11714,"crept":11715,"pilch":11716,"opposed":11717,"lipton":11718,"pinchers":11719,"sonny":11720,"krusty":11721,"swingset":11722,"babysitting":11723,"sparky":11724,"aqua":11725,"##glar":11726,"smokey":11727,"sprayed":11728,"blueberrys":11729,"cloudy":11730,"dolce":11731,"searched":11732,"labor":11733,"magnetic":11734,"estim":11735,"statues":11736,"wombat":11737,"steamroll":11738,"wristwatch":11739,"bocka":11740,"sweaty":11741,"shaved":11742,"controll":11743,"miserable":11744,"multic":11745,"pottery":11746,"creek":11747,"weighed":11748,"travels":11749,"traveled":11750,"frightening":11751,"thousands":11752,"relations":11753,"pacie":11754,"surfing":11755,"munchie":11756,"safer":11757,"photo":11758,"provincetown":11759,"masterpiece":11760,"disappearing":11761,"studio":11762,"leopards":11763,"mathew":11764,"prayer":11765,"eager":11766,"hankie":11767,"speeder":11768,"bulbs":11769,"rrrrr":11770,"receive":11771,"arkansas":11772,"signa":11773,"tulips":11774,"nipples":11775,"tuttle":11776,"ottoman":11777,"sherman":11778,"fluoride":11779,"scraping":11780,"flintstone":11781,"orchid":11782,"experience":11783,"gunky":11784,"nugget":11785,"pshsh":11786,"styrac":11787,"folks":11788,"humper":11789,"busts":11790,"nicest":11791,"micros":11792,"gathering":11793,"slots":11794,"operation":11795,"operator":11796,"pacific":11797,"cushions":11798,"detective":11799,"stairway":11800,"grinder":11801,"gypsy":11802,"adjusting":11803,"snowsuit":11804,"delighted":11805,"pods":11806,"bubaly":11807,"kully":11808,"santas":11809,"##buhbuh":11810,"pyram":11811,"pyjamas":11812,"voting":11813,"aboobooboo":11814,"spiral":11815,"directly":11816,"zsipi":11817,"chunks":11818,"cummings":11819,"twisty":11820,"billygoats":11821,"bundled":11822,"australian":11823,"reef":11824,"szabad":11825,"##khkh":11826,"pronounce":11827,"transcribing":11828,"seashells":11829,"removed":11830,"coupons":11831,"tadpoles":11832,"bumbles":11833,"platform":11834,"blossoms":11835,"boofoo":11836,"rebel":11837,"champion":11838,"allowance":11839,"pistachio":11840,"toenails":11841,"infant":11842,"waldo":11843,"petunias":11844,"marcus":11845,"chameleon":11846,"ounces":11847,"goosie":11848,"canceled":11849,"screech":11850,"superhero":11851,"vaccination":11852,"acrobat":11853,"artichoke":11854,"tiptoes":11855,"rifle":11856,"uneven":11857,"bleach":11858,"brookline":11859,"leggings":11860,"strainer":11861,"convinced":11862,"espresso":11863,"chrysalis":11864,"fakir":11865,"minoru":11866,"challenge":11867,"gaston":11868,"##mnop":11869,"sperm":11870,"nevada":11871,"monstees":11872,"amphib":11873,"mcduff":11874,"investigate":11875,"cymbals":11876,"kawadee":11877,"katherine":11878,"sushi":11879,"thayer":11880,"heeygo":11881,"relief":11882,"rebecca":11883,"allegiance":11884,"abuelo":11885,"crumpled":11886,"swollen":11887,"puerto":11888,"guarantee":11889,"quidditch":11890,"doorknob":11891,"kokowk":11892,"mercedes":11893,"steamroller":11894,"multicolored":11895,"styracosaurus":11896,"ath":11897,"azal":11898,"bv":11899,"bim":11900,"bends":11901,"bled":11902,"bwah":11903,"cure":11904,"coor":11905,"cres":11906,"cities":11907,"davy":11908,"eggie":11909,"eensie":11910,"ff":11911,"fea":11912,"fen":11913,"fang":11914,"faced":11915,"gain":11916,"gul":11917,"gutch":11918,"hool":11919,"ich":11920,"imm":11921,"jos":11922,"kw":11923,"kap":11924,"kurt":11925,"kich":11926,"kik":11927,"lub":11928,"mee":11929,"mick":11930,"mour":11931,"mate":11932,"mets":11933,"mung":11934,"ning":11935,"ned":11936,"niet":11937,"ndar":11938,"national":11939,"ou":11940,"ox":11941,"oar":11942,"ple":11943,"pah":11944,"pix":11945,"pamp":11946,"punky":11947,"rus":11948,"ramb":11949,"rises":11950,"sow":11951,"soo":11952,"sons":11953,"sooey":11954,"symb":11955,"tic":11956,"tater":11957,"tud":11958,"tents":11959,"tasha":11960,"uw":11961,"uzz":11962,"vag":11963,"vane":11964,"vily":11965,"vrap":11966,"woop":11967,"wren":11968,"woud":11969,"yey":11970,"zipping":11971,"##tly":11972,"##axes":11973,"##ran":11974,"##rome":11975,"##rain":11976,"##rape":11977,"##leen":11978,"##yer":11979,"##sit":11980,"##nc":11981,"##nang":11982,"##nier":11983,"##gum":11984,"##hive":11985,"##hold":11986,"##zilla":11987,"##zema":11988,"##pach":11989,"##kl":11990,"##kken":11991,"##met":11992,"##mak":11993,"##miah":11994,"##cade":11995,"##fg":11996,"##fst":11997,"##fire":11998,"##vi":11999,"##bl":12000,"##bank":12001,"##bob":12002,"thy":12003,"##atin":12004,"##atives":12005,"thero":12006,"##inas":12007,"##inth":12008,"##inum":12009,"##inting":12010,"##inton":12011,"##anth":12012,"doom":12013,"doops":12014,"##erps":12015,"whatchoo":12016,"heb":12017,"##ism":12018,"##isies":12019,"##ooh":12020,"##eah":12021,"##eables":12022,"##itzy":12023,"##itude":12024,"weensie":12025,"isra":12026,"##igley":12027,"hare":12028,"hagg":12029,"haired":12030,"infl":12031,"intern":12032,"##aroma":12033,"reun":12034,"repa":12035,"reckon":12036,"##onis":12037,"##onic":12038,"##oned":12039,"wands":12040,"wancha":12041,"##ooklee":12042,"##nail":12043,"liv":12044,"lizzy":12045,"donchu":12046,"bauck":12047,"baggy":12048,"babbling":12049,"##chur":12050,"##erer":12051,"##stand":12052,"stacy":12053,"##thm":12054,"wantcher":12055,"putnam":12056,"##adoodle":12057,"##adryl":12058,"knox":12059,"##amic":12060,"##urally":12061,"taki":12062,"taffy":12063,"##edom":12064,"goodie":12065,"chimes":12066,"cheez":12067,"chandel":12068,"chorus":12069,"chooklee":12070,"pleaded":12071,"jugs":12072,"juices":12073,"judie":12074,"wasting":12075,"howling":12076,"##unct":12077,"##ills":12078,"mose":12079,"mock":12080,"moss":12081,"aband":12082,"abra":12083,"abuela":12084,"buttered":12085,"##opa":12086,"##ndid":12087,"##anded":12088,"##using":12089,"##uses":12090,"##ali":12091,"##icki":12092,"##ickle":12093,"drape":12094,"dripped":12095,"draf":12096,"drinken":12097,"bloo":12098,"blimp":12099,"blades":12100,"bri":12101,"brit":12102,"bride":12103,"brist":12104,"brake":12105,"overd":12106,"cos":12107,"coinc":12108,"copper":12109,"##ilot":12110,"##ilts":12111,"##ilities":12112,"carb":12113,"##ethin":12114,"clu":12115,"clare":12116,"clogs":12117,"spain":12118,"##idel":12119,"twerps":12120,"##anky":12121,"sax":12122,"sav":12123,"nebr":12124,"##eedoo":12125,"##eedeed":12126,"offers":12127,"craters":12128,"graz":12129,"##oses":12130,"elis":12131,"somethin":12132,"buzzy":12133,"turquo":12134,"swung":12135,"##iesta":12136,"thingama":12137,"##abu":12138,"##abul":12139,"##abra":12140,"flup":12141,"flipping":12142,"flutter":12143,"slop":12144,"slup":12145,"slided":12146,"waah":12147,"arctic":12148,"coulda":12149,"##ctagon":12150,"hofst":12151,"pupa":12152,"uhuhuh":12153,"##bean":12154,"##arti":12155,"comment":12156,"comics":12157,"##ulas":12158,"##ulation":12159,"kinduv":12160,"##atha":12161,"##tinguish":12162,"scattered":12163,"handful":12164,"sug":12165,"suzy":12166,"succ":12167,"helpers":12168,"##ipede":12169,"loan":12170,"logging":12171,"loki":12172,"lofty":12173,"guessed":12174,"hives":12175,"##olantern":12176,"waiter":12177,"##upa":12178,"sequ":12179,"dion":12180,"wowee":12181,"wowie":12182,"pran":12183,"prim":12184,"prices":12185,"veggies":12186,"##este":12187,"footing":12188,"##istent":12189,"bluebird":12190,"##aki":12191,"##phal":12192,"##oho":12193,"beddy":12194,"newest":12195,"doghouse":12196,"heading":12197,"draws":12198,"harrow":12199,"harps":12200,"harley":12201,"snive":12202,"snug":12203,"milking":12204,"squea":12205,"squigley":12206,"thrower":12207,"duckbill":12208,"##amacall":12209,"bitatin":12210,"mona":12211,"yells":12212,"storys":12213,"ambr":12214,"amuse":12215,"adadadada":12216,"fishhead":12217,"peeked":12218,"teh":12219,"greatest":12220,"yayayay":12221,"sawmill":12222,"thoughts":12223,"thoughtful":12224,"##shy":12225,"petra":12226,"petsey":12227,"tii":12228,"lightly":12229,"recess":12230,"recipes":12231,"hunter":12232,"markie":12233,"##acinth":12234,"grandd":12235,"emu":12236,"emph":12237,"emory":12238,"embar":12239,"startled":12240,"bagi":12241,"storeman":12242,"sket":12243,"skys":12244,"beener":12245,"erik":12246,"erika":12247,"colds":12248,"walkin":12249,"##ichord":12250,"ident":12251,"martha":12252,"chooch":12253,"patches":12254,"sung":12255,"sunlight":12256,"##rian":12257,"mission":12258,"neverland":12259,"poly":12260,"poker":12261,"sander":12262,"##ortre":12263,"##raft":12264,"daisies":12265,"babble":12266,"bababa":12267,"untw":12268,"excess":12269,"trem":12270,"highway":12271,"highland":12272,"bumpers":12273,"baton":12274,"sockies":12275,"boomdi":12276,"hangers":12277,"streak":12278,"doof":12279,"pooey":12280,"prescription":12281,"jacks":12282,"jackolantern":12283,"coolest":12284,"childrens":12285,"jokken":12286,"perman":12287,"permission":12288,"##life":12289,"pale":12290,"pails":12291,"trauma":12292,"##iggers":12293,"growls":12294,"checkout":12295,"deliber":12296,"seated":12297,"##aza":12298,"meowing":12299,"apartments":12300,"bubbling":12301,"parks":12302,"dears":12303,"toesies":12304,"sickness":12305,"paulie":12306,"beeps":12307,"darkness":12308,"pinching":12309,"panic":12310,"panett":12311,"beecer":12312,"beehive":12313,"phony":12314,"phrase":12315,"quieter":12316,"eleg":12317,"election":12318,"toothie":12319,"toothache":12320,"refres":12321,"reaches":12322,"godzilla":12323,"oaty":12324,"roadgr":12325,"bobcat":12326,"chariot":12327,"tubbie":12328,"##sons":12329,"shortening":12330,"kingston":12331,"taps":12332,"courte":12333,"bandit":12334,"shares":12335,"trickortre":12336,"splat":12337,"jammie":12338,"maddy":12339,"benadryl":12340,"nutr":12341,"nutme":12342,"edible":12343,"dreamer":12344,"##udab":12345,"rataxes":12346,"honor":12347,"honked":12348,"hurrying":12349,"footballs":12350,"rugs":12351,"hehheh":12352,"wagons":12353,"hooking":12354,"lux":12355,"freeway":12356,"lyle":12357,"tupper":12358,"smarties":12359,"horner":12360,"nanold":12361,"changeables":12362,"content":12363,"folder":12364,"catsup":12365,"scarves":12366,"nestle":12367,"fresca":12368,"frescade":12369,"##rof":12370,"ugah":12371,"resist":12372,"##rictor":12373,"smoothing":12374,"porpo":12375,"rowing":12376,"freckle":12377,"freedom":12378,"squirted":12379,"diguh":12380,"burrit":12381,"balull":12382,"extension":12383,"riddles":12384,"brighter":12385,"crabby":12386,"hyacinth":12387,"naturally":12388,"scrubby":12389,"spits":12390,"mcgre":12391,"gobbled":12392,"lara":12393,"woggy":12394,"scooper":12395,"dotd":12396,"duc":12397,"millen":12398,"gigantic":12399,"mallet":12400,"youngest":12401,"scooting":12402,"##aaaa":12403,"swallowing":12404,"##zees":12405,"speaks":12406,"puffs":12407,"avoid":12408,"available":12409,"faking":12410,"inviting":12411,"beeser":12412,"timon":12413,"octopuses":12414,"mistaken":12415,"computers":12416,"tentacles":12417,"floated":12418,"locks":12419,"warren":12420,"warned":12421,"golfer":12422,"absor":12423,"decorated":12424,"promises":12425,"##adadah":12426,"celeste":12427,"nickle":12428,"shaka":12429,"tuesdays":12430,"dumptrucks":12431,"explaining":12432,"unscrewing":12433,"dusty":12434,"buhb":12435,"kerchief":12436,"subtle":12437,"cheeped":12438,"copilot":12439,"chains":12440,"labell":12441,"basic":12442,"data":12443,"positions":12444,"protecting":12445,"ferv":12446,"filmed":12447,"yahoo":12448,"stretcher":12449,"static":12450,"clunkam":12451,"spending":12452,"rhinoceroses":12453,"straightened":12454,"hmmm":12455,"##agaga":12456,"jacyn":12457,"jacuzz":12458,"##ervation":12459,"tiniest":12460,"smashing":12461,"designed":12462,"astronauts":12463,"bunkhouse":12464,"misunder":12465,"narf":12466,"mult":12467,"milkshakes":12468,"cells":12469,"release":12470,"relieve":12471,"flora":12472,"verb":12473,"verbal":12474,"conference":12475,"flashlights":12476,"whaddayou":12477,"examination":12478,"porcupines":12479,"zackary":12480,"sprinkling":12481,"corrected":12482,"pasteur":12483,"nuhnuh":12484,"custard":12485,"linl":12486,"eagles":12487,"bih":12488,"dohs":12489,"insisted":12490,"firefighters":12491,"gobot":12492,"leaping":12493,"tikaroma":12494,"tucking":12495,"zachary":12496,"##bahbah":12497,"leashes":12498,"entr":12499,"meltdown":12500,"families":12501,"paddled":12502,"blindfold":12503,"typing":12504,"aiming":12505,"hopperoos":12506,"hihuh":12507,"geraldine":12508,"##ombom":12509,"##imples":12510,"crushed":12511,"unzipped":12512,"balanced":12513,"wrestling":12514,"gazpach":12515,"flax":12516,"flapping":12517,"confusion":12518,"sherlock":12519,"sherbet":12520,"blasted":12521,"fluid":12522,"cynth":12523,"lalight":12524,"reflect":12525,"cleanser":12526,"rented":12527,"charms":12528,"rattlesna":12529,"masur":12530,"masking":12531,"venom":12532,"stained":12533,"audio":12534,"weights":12535,"grandparent":12536,"entirely":12537,"cadabra":12538,"stubbed":12539,"patterns":12540,"periw":12541,"posey":12542,"wouja":12543,"introduced":12544,"hotdog":12545,"universe":12546,"discussing":12547,"braids":12548,"developed":12549,"sighed":12550,"drowned":12551,"brrmm":12552,"slugs":12553,"product":12554,"dennison":12555,"tantrums":12556,"binding":12557,"model":12558,"various":12559,"threes":12560,"muppet":12561,"shocking":12562,"constrictor":12563,"spirit":12564,"gurdy":12565,"zsupa":12566,"teensie":12567,"vinny":12568,"vinnie":12569,"frowning":12570,"bruised":12571,"swirly":12572,"defro":12573,"##ootdoot":12574,"according":12575,"traded":12576,"tootsie":12577,"montana":12578,"interrupt":12579,"jawas":12580,"tackled":12581,"twinkie":12582,"flights":12583,"rafi":12584,"tadpole":12585,"chimpanzees":12586,"sensitive":12587,"moaned":12588,"spectacle":12589,"humidity":12590,"dododododod":12591,"dangling":12592,"yuppy":12593,"shivering":12594,"reptiles":12595,"hubc":12596,"##washira":12597,"##washiraga":12598,"asteroid":12599,"dixie":12600,"shoelace":12601,"activity":12602,"tarantula":12603,"shriek":12604,"bashful":12605,"gnashed":12606,"latest":12607,"ngwashiraga":12608,"rearranging":12609,"cobbler":12610,"brewster":12611,"squawk":12612,"gumdrop":12613,"entertainment":12614,"predict":12615,"zinnias":12616,"swaying":12617,"smiler":12618,"technic":12619,"phonograph":12620,"western":12621,"innocent":12622,"arriving":12623,"intellig":12624,"looser":12625,"salamander":12626,"pheasants":12627,"exploded":12628,"bionic":12629,"vocabul":12630,"havarti":12631,"spocket":12632,"shortribs":12633,"yahyahyah":12634,"croissant":12635,"variety":12636,"stabilize":12637,"olympia":12638,"dissolve":12639,"eczema":12640,"ganoboo":12641,"roping":12642,"##keeper":12643,"tonto":12644,"outgrow":12645,"splendid":12646,"spiky":12647,"opinion":12648,"adorable":12649,"teeshirt":12650,"grandmommy":12651,"barracuda":12652,"believes":12653,"fingerpaint":12654,"microspace":12655,"athlet":12656,"feast":12657,"kapl":12658,"kichel":12659,"ningwashira":12660,"ndaroma":12661,"symbol":12662,"woudjou":12663,"israel":12664,"haggis":12665,"repaired":12666,"coincidence":12667,"nebraska":12668,"turquoise":12669,"thingamaj":12670,"hofstra":12671,"harpsichord":12672,"##amacallits":12673,"ambrose":12674,"embarr":12675,"panettone":12676,"roadgrader":12677,"courteous":12678,"nutmeg":12679,"tupperware":12680,"mcgregor":12681,"jacyntha":12682,"jacuzzi":12683,"gazpacho":12684,"cynthia":12685,"vocabulary":12686,"aver":12687,"ads":12688,"bart":12689,"bucky":12690,"cer":12691,"cly":12692,"cack":12693,"cue":12694,"code":12695,"cory":12696,"culture":12697,"dv":12698,"eiff":12699,"eels":12700,"fame":12701,"fert":12702,"fled":12703,"feat":12704,"faker":12705,"gush":12706,"gucky":12707,"gumpy":12708,"giles":12709,"gwhat":12710,"higg":12711,"iz":12712,"ire":12713,"js":12714,"jad":12715,"koo":12716,"kom":12717,"kers":12718,"keen":12719,"kipper":12720,"kyou":12721,"kelp":12722,"lum":12723,"lend":12724,"lous":12725,"mit":12726,"mmy":12727,"mime":12728,"mild":12729,"mowed":12730,"mgah":12731,"nere":12732,"nell":12733,"nix":12734,"od":12735,"oi":12736,"oom":12737,"obe":12738,"pes":12739,"pome":12740,"pff":12741,"pry":12742,"pem":12743,"pne":12744,"pont":12745,"pia":12746,"range":12747,"rins":12748,"roun":12749,"ridge":12750,"rakes":12751,"races":12752,"rambler":12753,"rups":12754,"sly":12755,"sash":12756,"sib":12757,"sony":12758,"sissie":12759,"tch":12760,"tame":12761,"tla":12762,"tumb":12763,"tchu":12764,"una":12765,"vald":12766,"vutch":12767,"vibr":12768,"wick":12769,"wally":12770,"wif":12771,"ying":12772,"yam":12773,"yac":12774,"zay":12775,"zur":12776,"##round":12777,"##ros":12778,"##rush":12779,"##ruff":12780,"##rider":12781,"##raine":12782,"##lit":12783,"##losaurus":12784,"##linda":12785,"##eor":12786,"##eys":12787,"##ection":12788,"##du":12789,"##dry":12790,"##dew":12791,"##yne":12792,"##si":12793,"##uled":12794,"##ih":12795,"##net":12796,"##nas":12797,"##nge":12798,"##gan":12799,"##gay":12800,"##gas":12801,"##game":12802,"##gue":12803,"##girl":12804,"##hook":12805,"##harm":12806,"##heart":12807,"##xp":12808,"##oir":12809,"##ost":12810,"##worm":12811,"##mation":12812,"##mony":12813,"##cream":12814,"##fer":12815,"##vv":12816,"##vas":12817,"##vation":12818,"##junk":12819,"thund":12820,"thwack":12821,"##oufl":12822,"younge":12823,"##real":12824,"##rent":12825,"##reds":12826,"##resent":12827,"##inny":12828,"whirl":12829,"##ani":12830,"##anemone":12831,"doe":12832,"dos":12833,"dose":12834,"doog":12835,"dodo":12836,"dome":12837,"dodge":12838,"doreen":12839,"##eror":12840,"##eroni":12841,"itching":12842,"torr":12843,"toffer":12844,"##ayee":12845,"whatd":12846,"whatie":12847,"gover":12848,"goob":12849,"golem":12850,"##lling":12851,"##llis":12852,"##llie":12853,"hedd":12854,"anah":12855,"anci":12856,"anky":12857,"##esan":12858,"##esque":12859,"##etri":12860,"##utauqua":12861,"##igo":12862,"hal":12863,"hag":12864,"hap":12865,"hail":12866,"inner":12867,"##idid":12868,"##idocious":12869,"##lene":12870,"thistle":12871,"shee":12872,"shal":12873,"shines":12874,"shattered":12875,"shuffle":12876,"rene":12877,"report":12878,"##onse":12879,"##enan":12880,"##asion":12881,"##nace":12882,"##naway":12883,"lied":12884,"areas":12885,"based":12886,"begged":12887,"##ira":12888,"##chet":12889,"##choke":12890,"##chrome":12891,"##stalk":12892,"##tham":12893,"##aday":12894,"##adar":12895,"##adab":12896,"##icill":12897,"##ication":12898,"getchu":12899,"getchyou":12900,"knif":12901,"##ament":12902,"##urning":12903,"tak":12904,"tac":12905,"taj":12906,"tailed":12907,"upright":12908,"##eden":12909,"sheila":12910,"goods":12911,"chub":12912,"chances":12913,"plast":12914,"plump":12915,"plural":12916,"plaid":12917,"soci":12918,"somem":12919,"tripping":12920,"reass":12921,"outs":12922,"outline":12923,"bold":12924,"ahh":12925,"ahem":12926,"##teria":12927,"abee":12928,"abner":12929,"abbot":12930,"moms":12931,"alum":12932,"altern":12933,"##oplane":12934,"##indle":12935,"gots":12936,"##andoah":12937,"##umonia":12938,"##alus":12939,"##icexp":12940,"hersh":12941,"drippy":12942,"drury":12943,"drinked":12944,"blonk":12945,"bro":12946,"brack":12947,"brio":12948,"brandy":12949,"##ilight":12950,"##ilist":12951,"oriana":12952,"orders":12953,"##apoo":12954,"##apen":12955,"carouse":12956,"carla":12957,"cartr":12958,"carved":12959,"clup":12960,"clinton":12961,"##ntable":12962,"sputtered":12963,"spindle":12964,"twitch":12965,"twilight":12966,"neater":12967,"offices":12968,"crink":12969,"criss":12970,"crude":12971,"critters":12972,"willary":12973,"beca":12974,"grav":12975,"griff":12976,"griet":12977,"graves":12978,"prem":12979,"turntable":12980,"##abo":12981,"##abug":12982,"##abesque":12983,"flips":12984,"fleas":12985,"flopping":12986,"slob":12987,"sloppy":12988,"slicing":12989,"waa":12990,"ware":12991,"archa":12992,"archie":12993,"arabesque":12994,"mayer":12995,"mayor":12996,"couldjou":12997,"ballgame":12998,"hoho":12999,"hova":13000,"pups":13001,"honeydew":13002,"mmm":13003,"cattie":13004,"sites":13005,"mua":13006,"tryin":13007,"ages":13008,"como":13009,"gret":13010,"housework":13011,"household":13012,"scouts":13013,"handling":13014,"cola":13015,"sull":13016,"sues":13017,"sucked":13018,"lok":13019,"loxy":13020,"local":13021,"loaves":13022,"lolo":13023,"##antage":13024,"##anged":13025,"gull":13026,"guguh":13027,"gusto":13028,"##olo":13029,"##olves":13030,"opa":13031,"ump":13032,"meanest":13033,"##tures":13034,"dik":13035,"dipped":13036,"pecan":13037,"##obile":13038,"breyne":13039,"openings":13040,"bluejay":13041,"watcha":13042,"piepie":13043,"##phen":13044,"##phone":13045,"smear":13046,"smud":13047,"smarter":13048,"mint":13049,"minus":13050,"inton":13051,"lex":13052,"leon":13053,"leigh":13054,"leana":13055,"dogfish":13056,"homely":13057,"leaps":13058,"leafy":13059,"##oori":13060,"shoving":13061,"sweetest":13062,"militee":13063,"squamps":13064,"trucker":13065,"stripped":13066,"eyi":13067,"talkies":13068,"matines":13069,"booger":13070,"amar":13071,"rober":13072,"##zza":13073,"##zzling":13074,"adoo":13075,"adds":13076,"advis":13077,"coupl":13078,"napper":13079,"nappity":13080,"gloss":13081,"glac":13082,"append":13083,"eggies":13084,"##ubon":13085,"blocking":13086,"##agah":13087,"##shk":13088,"##shit":13089,"##shove":13090,"supply":13091,"pettic":13092,"##nez":13093,"kisser":13094,"footed":13095,"mics":13096,"foodies":13097,"awa":13098,"skipper":13099,"barna":13100,"peeky":13101,"peekie":13102,"peekboo":13103,"erm":13104,"walkiet":13105,"firecrack":13106,"active":13107,"whitey":13108,"##icho":13109,"##ichich":13110,"marco":13111,"uno":13112,"##nessee":13113,"sounding":13114,"##mans":13115,"patio":13116,"patted":13117,"sunsc":13118,"feets":13119,"iceberg":13120,"icecream":13121,"cryst":13122,"poe":13123,"poet":13124,"poem":13125,"sandcast":13126,"##ortunity":13127,"toybox":13128,"camoufl":13129,"babaa":13130,"horsy":13131,"tennessee":13132,"pinks":13133,"excite":13134,"treacle":13135,"banza":13136,"raked":13137,"apu":13138,"apeek":13139,"sockie":13140,"caused":13141,"puzzled":13142,"hangnail":13143,"dooby":13144,"jenni":13145,"scrunch":13146,"##ibly":13147,"cornbread":13148,"perch":13149,"dumps":13150,"##lift":13151,"drydry":13152,"magna":13153,"rooting":13154,"sadd":13155,"bounty":13156,"humor":13157,"conce":13158,"concept":13159,"conscious":13160,"##iggs":13161,"toasting":13162,"feeds":13163,"mailing":13164,"mailtruck":13165,"seattle":13166,"pumping":13167,"clockwise":13168,"sales":13169,"salug":13170,"persons":13171,"display":13172,"distinguish":13173,"yumma":13174,"##ified":13175,"##ifier":13176,"##ifrag":13177,"pinata":13178,"##uitje":13179,"seam":13180,"seaanemone":13181,"beebee":13182,"teddys":13183,"baaa":13184,"godfather":13185,"circling":13186,"rubs":13187,"charging":13188,"runaway":13189,"##scr":13190,"quicker":13191,"shortcut":13192,"sprat":13193,"sprout":13194,"springs":13195,"curry":13196,"livingroom":13197,"packie":13198,"jammed":13199,"madame":13200,"sorted":13201,"emptying":13202,"goldrush":13203,"supercal":13204,"nutrit":13205,"descri":13206,"educ":13207,"dreamt":13208,"couches":13209,"meghan":13210,"forklift":13211,"wishy":13212,"gentleman":13213,"gaspar":13214,"hoohoo":13215,"paddling":13216,"crawly":13217,"annette":13218,"squirting":13219,"franky":13220,"norstrom":13221,"northern":13222,"accur":13223,"access":13224,"tuppy":13225,"dragonflies":13226,"pizzeroni":13227,"flatter":13228,"nannie":13229,"menu":13230,"chautauqua":13231,"##alkie":13232,"macr":13233,"chinnie":13234,"boops":13235,"sundays":13236,"sinks":13237,"fury":13238,"furious":13239,"furnace":13240,"granpa":13241,"feathery":13242,"koa":13243,"##rician":13244,"meteor":13245,"crosses":13246,"crosswalk":13247,"gagg":13248,"hundreds":13249,"stations":13250,"sharpened":13251,"rivers":13252,"riverside":13253,"whisking":13254,"burke":13255,"fanning":13256,"princip":13257,"baloo":13258,"trays":13259,"mamam":13260,"richie":13261,"##ivity":13262,"bibby":13263,"bibble":13264,"goosey":13265,"rubbers":13266,"vanish":13267,"bullies":13268,"bullshit":13269,"campfire":13270,"stirs":13271,"unlike":13272,"muffy":13273,"screams":13274,"chokechoke":13275,"hamburglar":13276,"upsided":13277,"attaches":13278,"zoomed":13279,"bothers":13280,"broomsticks":13281,"hygi":13282,"natasha":13283,"sleds":13284,"syll":13285,"scoops":13286,"mercer":13287,"screwdrivers":13288,"beanstalk":13289,"cockadoodle":13290,"eeayee":13291,"bushel":13292,"janna":13293,"caitlin":13294,"rectangular":13295,"##ussion":13296,"susy":13297,"obadi":13298,"##oleum":13299,"forests":13300,"mallein":13301,"springtime":13302,"stampede":13303,"attitude":13304,"ayah":13305,"transfor":13306,"franken":13307,"puffin":13308,"magnol":13309,"avi":13310,"countryside":13311,"wiper":13312,"steamy":13313,"failed":13314,"passes":13315,"killer":13316,"creative":13317,"arranged":13318,"opportunity":13319,"expert":13320,"temple":13321,"temetri":13322,"denice":13323,"warning":13324,"retrie":13325,"sonnez":13326,"roselinda":13327,"spongebob":13328,"kris":13329,"##hoohoo":13330,"budluh":13331,"bumming":13332,"##boro":13333,"shakie":13334,"shakoori":13335,"damage":13336,"council":13337,"healing":13338,"dusting":13339,"incre":13340,"tarsha":13341,"flavors":13342,"kerchoo":13343,"stuart":13344,"cabinets":13345,"scootch":13346,"##gran":13347,"rescuing":13348,"pitching":13349,"wired":13350,"brandon":13351,"##ialidocious":13352,"taxis":13353,"dormez":13354,"spreading":13355,"protects":13356,"beaks":13357,"giggled":13358,"shrinks":13359,"dougy":13360,"stinging":13361,"pedest":13362,"peddle":13363,"pedaling":13364,"pedaled":13365,"pediat":13366,"steamshove":13367,"wrists":13368,"amounts":13369,"jerk":13370,"jerked":13371,"jericho":13372,"relaxed":13373,"assuming":13374,"unicorns":13375,"junkie":13376,"reply":13377,"bunka":13378,"membership":13379,"weighing":13380,"purples":13381,"purposes":13382,"nibbled":13383,"schuitje":13384,"solo":13385,"emperor":13386,"relative":13387,"knak":13388,"munchkin":13389,"yoyos":13390,"##cats":13391,"whadju":13392,"equal":13393,"mih":13394,"artistic":13395,"cooperation":13396,"disappears":13397,"transmission":13398,"linoleum":13399,"dunked":13400,"intercom":13401,"mechan":13402,"terrytown":13403,"philharm":13404,"biob":13405,"hanky":13406,"insul":13407,"tortoises":13408,"programs":13409,"bawp":13410,"pinec":13411,"centipede":13412,"wuoh":13413,"sirens":13414,"lorraine":13415,"googoo":13416,"googalee":13417,"receipt":13418,"carniv":13419,"buffers":13420,"typical":13421,"indeedie":13422,"portra":13423,"advanced":13424,"advantage":13425,"babysits":13426,"crochet":13427,"prefers":13428,"preference":13429,"boulders":13430,"daddiji":13431,"creepers":13432,"tarts":13433,"bridget":13434,"sheriff":13435,"volcanos":13436,"glenn":13437,"commun":13438,"cookbooks":13439,"experts":13440,"nectarine":13441,"gallon":13442,"gallery":13443,"jordon":13444,"punishment":13445,"wobble":13446,"clippie":13447,"clippity":13448,"grateful":13449,"whispers":13450,"cuddled":13451,"undoing":13452,"image":13453,"rodger":13454,"spears":13455,"radiant":13456,"icicle":13457,"nyeh":13458,"include":13459,"gracefully":13460,"audubon":13461,"angus":13462,"conditioning":13463,"dopey":13464,"staircase":13465,"##rowrowrowrow":13466,"unwra":13467,"invented":13468,"invention":13469,"scanning":13470,"snarl":13471,"eyelids":13472,"simpsons":13473,"discussion":13474,"illustr":13475,"illino":13476,"imitation":13477,"munster":13478,"versus":13479,"tritan":13480,"bosom":13481,"response":13482,"textures":13483,"vrrum":13484,"vrrmm":13485,"fortnight":13486,"knights":13487,"bloomer":13488,"delightful":13489,"corky":13490,"pouting":13491,"##iyiy":13492,"smacking":13493,"disguised":13494,"fossils":13495,"constantly":13496,"characters":13497,"mercuro":13498,"romantic":13499,"gondolas":13500,"deaf":13501,"davey":13502,"routine":13503,"staples":13504,"tellyt":13505,"swirling":13506,"aguguh":13507,"baboons":13508,"issues":13509,"appears":13510,"dingalingaling":13511,"interrupted":13512,"jeremiah":13513,"nerd":13514,"oooh":13515,"yeehah":13516,"squooshing":13517,"coupon":13518,"rubbery":13519,"crafts":13520,"considering":13521,"aggressive":13522,"dimple":13523,"dashed":13524,"dotted":13525,"toppled":13526,"malt":13527,"blossom":13528,"humidifier":13529,"accessorizing":13530,"##nyumnyumnyumnyum":13531,"dreidel":13532,"injury":13533,"injured":13534,"rebels":13535,"reptile":13536,"dontchu":13537,"oystering":13538,"bombombom":13539,"greeted":13540,"shoelaces":13541,"activities":13542,"choosing":13543,"attractive":13544,"tarantulas":13545,"performing":13546,"talented":13547,"kakas":13548,"miaow":13549,"bronco":13550,"slightly":13551,"boxcar":13552,"boxcars":13553,"concerned":13554,"referring":13555,"collapsed":13556,"bessy":13557,"hinges":13558,"mortar":13559,"occur":13560,"wibble":13561,"leotard":13562,"lightbulb":13563,"phyllo":13564,"deserve":13565,"announcement":13566,"cockatoo":13567,"aeroplane":13568,"gergog":13569,"mikie":13570,"pavement":13571,"selfish":13572,"weapons":13573,"##dubdub":13574,"angela":13575,"crispy":13576,"lullabee":13577,"pilgrims":13578,"groaned":13579,"responsibility":13580,"aaah":13581,"kanobi":13582,"wisest":13583,"convertible":13584,"desperately":13585,"toadstools":13586,"hysterical":13587,"kelloggs":13588,"moisturizer":13589,"zevenbergen":13590,"nashapoo":13591,"parmesan":13592,"squel":13593,"tuner":13594,"shenandoah":13595,"shredded":13596,"bacteria":13597,"sturdy":13598,"trowel":13599,"boasted":13600,"slapping":13601,"hobbledy":13602,"horizon":13603,"glamosh":13604,"poachers":13605,"eagerly":13606,"azaleas":13607,"bvoom":13608,"crescent":13609,"fangs":13610,"hooligan":13611,"kwanza":13612,"lubrider":13613,"mourning":13614,"rambunct":13615,"uzzers":13616,"hebrew":13617,"reunion":13618,"saxophone":13619,"snivelling":13620,"amusement":13621,"skyscr":13622,"untwist":13623,"deliberately":13624,"elegant":13625,"##rofo":13626,"hyacinths":13627,"relieved":13628,"venomous":13629,"grandparents":13630,"intelligent":13631,"clyde":13632,"dvd":13633,"eiffel":13634,"fertil":13635,"jaden":13636,"pomegran":13637,"pembroke":13638,"pneumonia":13639,"pontoon":13640,"roundy":13641,"rupsje":13642,"valdez":13643,"yacht":13644,"zurg":13645,"torrance":13646,"hedda":13647,"ancient":13648,"ankylosaurus":13649,"##icillin":13650,"knifes":13651,"abbott":13652,"aluminum":13653,"##icexpialidocious":13654,"hershey":13655,"##ilisticexpialidocious":13656,"carousel":13657,"grietje":13658,"leigha":13659,"petticoat":13660,"walkietalkie":13661,"firecrackers":13662,"sunscreen":13663,"banzai":13664,"apeekaboo":13665,"##ifragilisticexpialidocious":13666,"supercalifragilisticexpialidocious":13667,"nutritious":13668,"upsidedown":13669,"obadiah":13670,"pediatrician":13671,"steamshovel":13672,"philharmonic":13673,"illinois":13674,"mercurochrome":13675,"lubriderm":13676,"az":13677,"auh":13678,"auch":13679,"auto":13680,"bth":13681,"bil":13682,"bip":13683,"bins":13684,"bord":13685,"bomp":13686,"ced":13687,"cose":13688,"caw":13689,"civ":13690,"cacy":13691,"dit":13692,"dame":13693,"dilly":13694,"daught":13695,"dangled":13696,"dung":13697,"deded":13698,"euh":13699,"eji":13700,"eject":13701,"fay":13702,"foc":13703,"focus":13704,"fiesta":13705,"gh":13706,"gut":13707,"gav":13708,"gasket":13709,"hips":13710,"hooper":13711,"icht":13712,"ivan":13713,"kas":13714,"kink":13715,"kum":13716,"kore":13717,"kist":13718,"kara":13719,"lally":13720,"lac":13721,"lana":13722,"lint":13723,"laser":13724,"lops":13725,"laughter":13726,"mh":13727,"mes":13728,"mck":13729,"mie":13730,"mast":13731,"miam":13732,"mending":13733,"nen":13734,"nam":13735,"nim":13736,"nav":13737,"nation":13738,"nips":13739,"niled":13740,"naming":13741,"nguh":13742,"nava":13743,"nkay":13744,"olly":13745,"ooboo":13746,"oodle":13747,"perry":13748,"panky":13749,"qrs":13750,"reed":13751,"rate":13752,"ratch":13753,"riddle":13754,"sked":13755,"siam":13756,"sym":13757,"sided":13758,"sissy":13759,"tis":13760,"tck":13761,"tum":13762,"tess":13763,"tump":13764,"tres":13765,"tren":13766,"task":13767,"trench":13768,"tilt":13769,"tiggers":13770,"ud":13771,"uke":13772,"vie":13773,"vans":13774,"vina":13775,"verv":13776,"vicki":13777,"ww":13778,"wut":13779,"wup":13780,"ward":13781,"wsh":13782,"xip":13783,"yon":13784,"ysay":13785,"zh":13786,"zing":13787,"zum":13788,"##test":13789,"##tling":13790,"##ao":13791,"##away":13792,"##aire":13793,"##rin":13794,"##rid":13795,"##rim":13796,"##rol":13797,"##rison":13798,"##lar":13799,"##dong":13800,"##diggy":13801,"##yp":13802,"##yoo":13803,"##sz":13804,"##sht":13805,"##uous":13806,"##uity":13807,"##ii":13808,"##iere":13809,"##ius":13810,"##ires":13811,"##ioos":13812,"##nay":13813,"##nem":13814,"##hogs":13815,"##xon":13816,"##zb":13817,"##zat":13818,"##zit":13819,"##zam":13820,"##zag":13821,"##zio":13822,"##put":13823,"##pink":13824,"##pbth":13825,"##oing":13826,"##oen":13827,"##war":13828,"##wen":13829,"##wie":13830,"##wab":13831,"##weet":13832,"##water":13833,"##woof":13834,"##mers":13835,"##mate":13836,"##made":13837,"##mire":13838,"##mured":13839,"##cke":13840,"##fur":13841,"##fbr":13842,"##falaf":13843,"##vir":13844,"##vane":13845,"##bite":13846,"##bush":13847,"##bler":13848,"##bud":13849,"##jar":13850,"##juh":13851,"##jkl":13852,"thi":13853,"thaw":13854,"##atry":13855,"##atta":13856,"##atient":13857,"therap":13858,"##rett":13859,"##rette":13860,"##recal":13861,"##inoni":13862,"whin":13863,"whas":13864,"whuh":13865,"##ano":13866,"##anch":13867,"##anium":13868,"dory":13869,"doody":13870,"##erie":13871,"##erad":13872,"##erts":13873,"##erole":13874,"tott":13875,"##inging":13876,"##ayla":13877,"whatt":13878,"goin":13879,"godd":13880,"gohead":13881,"goopy":13882,"heugh":13883,"hesit":13884,"##esth":13885,"##esiosaurus":13886,"##etition":13887,"##etzal":13888,"##isture":13889,"##oooo":13890,"ons":13891,"##itation":13892,"##itiki":13893,"##ompl":13894,"##uting":13895,"##igrette":13896,"haup":13897,"##orice":13898,"##sem":13899,"noth":13900,"noble":13901,"nosy":13902,"novel":13903,"inqu":13904,"input":13905,"##idges":13906,"##lele":13907,"ohohoh":13908,"shau":13909,"shaw":13910,"shaz":13911,"##aro":13912,"##arma":13913,"therefore":13914,"rena":13915,"reward":13916,"##onment":13917,"wana":13918,"##enist":13919,"##enade":13920,"##enoids":13921,"cancer":13922,"##ookal":13923,"##asis":13924,"liar":13925,"liana":13926,"lila":13927,"lijah":13928,"##ldon":13929,"bady":13930,"bazam":13931,"beware":13932,"##irky":13933,"##chee":13934,"##change":13935,"##chya":13936,"didju":13937,"##stle":13938,"##stood":13939,"##stract":13940,"stal":13941,"staff":13942,"stopper":13943,"##ads":13944,"##icit":13945,"##icia":13946,"forced":13947,"knit":13948,"knieve":13949,"knuckle":13950,"##amn":13951,"##amee":13952,"##urance":13953,"tacky":13954,"upp":13955,"uptown":13956,"##edure":13957,"sheba":13958,"sheldon":13959,"goodnight":13960,"chur":13961,"chutes":13962,"chubb":13963,"chuk":13964,"chacha":13965,"platter":13966,"placing":13967,"placed":13968,"plaza":13969,"plesiosaurus":13970,"jup":13971,"jull":13972,"juic":13973,"atmos":13974,"sole":13975,"trist":13976,"tracing":13977,"tracy":13978,"mau":13979,"mare":13980,"maure":13981,"mailed":13982,"##illiant":13983,"outing":13984,"bolly":13985,"bogey":13986,"##allic":13987,"mover":13988,"mopping":13989,"moham":13990,"moisture":13991,"abl":13992,"abah":13993,"ability":13994,"ababab":13995,"abababa":13996,"abstract":13997,"huggy":13998,"hupple":13999,"hullab":14000,"##ophy":14001,"downy":14002,"downward":14003,"##anders":14004,"##celia":14005,"mommys":14006,"##alight":14007,"##alaka":14008,"##alayo":14009,"herbert":14010,"bigs":14011,"##aup":14012,"drome":14013,"drama":14014,"drapes":14015,"##byes":14016,"blot":14017,"blaz":14018,"blizz":14019,"blinked":14020,"bluish":14021,"fraid":14022,"fruity":14023,"brat":14024,"bray":14025,"brigh":14026,"brib":14027,"brok":14028,"brilliant":14029,"overall":14030,"dadadah":14031,"cogna":14032,"wouldju":14033,"##ilee":14034,"hmp":14035,"orbit":14036,"ordin":14037,"ahah":14038,"whyn":14039,"carib":14040,"carney":14041,"carwen":14042,"clopp":14043,"##ntime":14044,"spun":14045,"spiny":14046,"twas":14047,"sag":14048,"##ures":14049,"neg":14050,"crit":14051,"crock":14052,"crang":14053,"crate":14054,"crater":14055,"crops":14056,"cranes":14057,"willow":14058,"groom":14059,"grump":14060,"grub":14061,"grunt":14062,"prevent":14063,"##osophy":14064,"teller":14065,"buggie":14066,"buggies":14067,"bulk":14068,"buda":14069,"bugging":14070,"buggle":14071,"swatter":14072,"werew":14073,"##abod":14074,"##aboom":14075,"##abelle":14076,"##ockis":14077,"hass":14078,"flik":14079,"slugg":14080,"slosh":14081,"sliced":14082,"wazit":14083,"arts":14084,"argh":14085,"##ggin":14086,"##gger":14087,"##ggly":14088,"mayflower":14089,"##emburg":14090,"##ctuary":14091,"##ushy":14092,"##ushush":14093,"hoow":14094,"pud":14095,"mmd":14096,"manual":14097,"manche":14098,"muggy":14099,"agaga":14100,"agatha":14101,"comum":14102,"comets":14103,"greedy":14104,"##ulate":14105,"scat":14106,"scen":14107,"suz":14108,"suess":14109,"suzie":14110,"hadda":14111,"lov":14112,"loley":14113,"##elt":14114,"##awawa":14115,"guided":14116,"fizz":14117,"hiked":14118,"##olis":14119,"##olar":14120,"##ahockis":14121,"opt":14122,"umm":14123,"talula":14124,"##upup":14125,"selection":14126,"##tured":14127,"quetzal":14128,"holders":14129,"diagon":14130,"divers":14131,"pey":14132,"pepe":14133,"peatry":14134,"breather":14135,"prance":14136,"priya":14137,"prior":14138,"veil":14139,"useless":14140,"##isto":14141,"##isticated":14142,"##akie":14143,"sleepers":14144,"##phere":14145,"##phones":14146,"##vence":14147,"##peh":14148,"chex":14149,"cheery":14150,"##queak":14151,"##epend":14152,"mines":14153,"minne":14154,"birdhouse":14155,"leh":14156,"leoni":14157,"lefty":14158,"dayton":14159,"league":14160,"horror":14161,"harves":14162,"harri":14163,"undress":14164,"snor":14165,"snoop":14166,"sneaked":14167,"underman":14168,"greenish":14169,"workman":14170,"workben":14171,"envir":14172,"struggle":14173,"exit":14174,"exists":14175,"exxon":14176,"talker":14177,"monitor":14178,"mater":14179,"stormy":14180,"boogie":14181,"booba":14182,"boogers":14183,"amara":14184,"role":14185,"penises":14186,"penicillin":14187,"adject":14188,"adior":14189,"adeded":14190,"adenoids":14191,"coupe":14192,"dina":14193,"finch":14194,"finest":14195,"glea":14196,"glim":14197,"glows":14198,"cleanest":14199,"closely":14200,"cowgirl":14201,"greatgr":14202,"shallow":14203,"##ubu":14204,"blockbu":14205,"##shed":14206,"function":14207,"earn":14208,"peters":14209,"hunk":14210,"hunts":14211,"parton":14212,"rossie":14213,"##aco":14214,"##acular":14215,"##pleton":14216,"footsie":14217,"airline":14218,"washy":14219,"emm":14220,"snappers":14221,"stoplight":14222,"bagah":14223,"snowmen":14224,"stored":14225,"musta":14226,"buttery":14227,"barked":14228,"erases":14229,"baddy":14230,"walkwalk":14231,"towed":14232,"acts":14233,"wheeling":14234,"mara":14235,"margar":14236,"marlin":14237,"moneys":14238,"unicycle":14239,"uncon":14240,"unstick":14241,"uncles":14242,"rockets":14243,"##mance":14244,"buttoning":14245,"crayoning":14246,"kidnap":14247,"cheesecake":14248,"##rior":14249,"debor":14250,"rollers":14251,"##ieland":14252,"swimmy":14253,"bower":14254,"purim":14255,"posters":14256,"probly":14257,"rabber":14258,"rabies":14259,"rabbie":14260,"secure":14261,"toyota":14262,"blackbird":14263,"##bbell":14264,"hopes":14265,"tonka":14266,"wholewheat":14267,"lunchie":14268,"quacking":14269,"horserad":14270,"dribbling":14271,"drifted":14272,"foal":14273,"foster":14274,"politely":14275,"wonderland":14276,"lappy":14277,"starch":14278,"starter":14279,"banbury":14280,"ethans":14281,"raay":14282,"rails":14283,"##ization":14284,"lioness":14285,"painter":14286,"painful":14287,"gib":14288,"batty":14289,"battered":14290,"apf":14291,"##atory":14292,"chrah":14293,"farms":14294,"farmhouse":14295,"##sentially":14296,"screwed":14297,"mooth":14298,"mooshy":14299,"presenting":14300,"wordless":14301,"mussels":14302,"zoos":14303,"poos":14304,"circled":14305,"preser":14306,"engaged":14307,"scrapes":14308,"moonie":14309,"moonlit":14310,"violen":14311,"perk":14312,"dumpy":14313,
[...]
