[PAD]
[UNK]
[CLS]
[SEP]
[MASK]
!
&
'
-
.
?
a
b
c
d
e
f
g
h
i
j
k
l
m
n
o
p
q
r
s
t
u
v
w
x
y
z
##t
##a
##r
##l
##e
##d
##y
##s
##u
##i
##n
##g
##h
##x
##z
##p
##o
##w
##k
##m
##c
##f
##v
##b
##q
##j
th
##ou
you
##at
the
##re
##in
wh
##an
do
##er
it
that
to
##ing
##ay
what
go
##ll
he
an
##ow
##es
##et
##is
##oo
##ea
on
##it
we
##om
is
and
##ut
##ee
##ig
##ke
ha
##or
##se
##ve
no
in
##id
##le
oh
##ht
##ck
ok
okay
this
##ight
sh
##ar
there
re
##on
your
wan
##en
can
##ook
here
##as
##na
li
##ome
of
are
##ld
don
yea
have
yeah
see
ba
be
##ir
me
one
##ch
did
##ere
##st
st
##th
like
want
right
put
look
##ie
where
##ink
##ad
##od
##ic
get
for
kn
##am
##im
##ith
let
##ur
with
they
ta
gon
up
##itt
##ed
know
##ould
she
gonna
good
ch
pl
ju
think
##ver
not
ll
was
at
so
who
all
##pp
now
some
how
tr
##un
litt
little
ma
##ill
does
rea
say
out
bo
##dy
##all
ah
##ter
mo
##ther
come
just
##ell
ab
##my
well
##wn
yes
my
but
mom
too
wanna
hu
al
##op
##ind
going
them
##nd
##ose
##out
down
play
got
##and
##one
##ce
mommy
##ly
about
##us
##um
##ot
##al
##ice
back
##ain
her
big
huh
##au
if
##ick
dr
##by
bl
fr
br
over
##ty
dad
co
would
##il
eat
hm
or
his
aha
why
##ap
him
car
##eth
##ear
cl
make
then
##nt
doing
##ery
baby
more
sp
when
##oug
##ide
daddy
tw
##ive
take
##uck
##ank
sa
very
##ure
##ame
##eep
##ge
ne
book
##hm
##eed
##ause
mhm
##ound
##day
##ber
any
off
cr
will
bec
wat
##ff
those
because
gr
pre
need
##lly
##oney
##os
el
tell
##right
two
alright
som
##ast
bu
tur
these
sw
##ies
##ish
happ
were
other
##ack
thank
by
thing
##ab
##ry
##ite
##ny
##ock
##ouse
##ine
##king
##ong
has
##ue
fl
sl
##ers
wa
nice
else
##other
ar
##ough
##gg
may
could
ball
##em
##ime
wor
##ething
something
##ct
##ush
didn
ho
pu
honey
turn
give
uh
mm
##ess
##way
man
##ree
##oom
boy
cat
said
##be
way
bir
sit
##are
mu
as
should
##air
time
try
pret
really
ag
##art
##ore
read
another
com
gre
rem
##ul
happen
hel
##ble
kind
##ember
whi
remember
##ath
doesn
##ool
house
maybe
##ting
goes
sc
hand
col
su
##unny
help
##ip
had
lo
##eet
thr
##el
##aw
call
##ant
again
##ang
bet
gu
ever
fi
show
hi
gir
color
##iss
find
pic
##ds
##oon
##ol
##aur
from
##ah
box
cook
wait
op
hey
bear
um
away
pretty
tal
##ace
##up
se
girl
name
us
mean
##thing
##ture
##oop
today
qu
##ild
water
##ent
hold
di
bye
##our
pe
##side
##orn
isn
##ys
picture
##ease
##ob
wow
bre
##ark
open
pr
ve
use
##eel
##est
around
sure
foo
##ist
please
ready
blue
went
watch
wr
red
##irst
##ak
pie
##ute
sleep
##ph
looks
won
##ven
chair
every
##ful
##oh
bed
##les
sm
##age
push
##pe
##een
three
things
##ked
##aper
che
night
lot
says
##qu
##ep
better
min
bird
##ving
##ate
##ion
int
first
which
##chool
happened
##der
##ody
new
le
day
dog
home
head
lea
##ought
##urt
##lf
hear
##oor
sho
hor
school
draw
sweet
har
##ally
##ump
und
kitt
##end
room
##kes
sn
##mp
hat
hair
mil
care
##llo
squ
##ake
hello
##oss
mou
truck
milk
##body
under
throw
much
our
green
work
duck
##ama
bring
en
bit
str
train
ey
pick
af
##ange
##ade
##av
ex
peop
talk
done
people
laur
mon
break
pig
called
mat
yell
##illy
##ady
##ass
drink
stor
funny
wal
##key
boo
keep
am
laura
ro
##zz
pen
paper
yep
mama
##uff
fix
ad
love
into
cou
juice
din
pull
fish
mouth
cle
##xt
table
fin
whoop
##oc
many
woo
##ta
##og
##oke
pee
##ves
minute
stay
fall
long
wear
##ard
##res
na
after
top
yellow
##ead
gl
clean
next
stick
oop
close
##ft
still
might
##ggie
getting
cup
app
hard
##red
##irt
##hone
##cle
nose
made
##ma
te
cow
great
finish
story
door
looking
sweetie
hurt
##tt
tea
four
yay
##self
egg
##ash
##own
##imal
animal
bea
sing
their
sar
shall
cookie
##ub
block
bunny
piece
##iam
saw
tape
thought
ooh
##ether
##ag
toys
kittie
old
##sh
##orning
fun
wee
supp
morning
sarah
##ream
careful
eating
sor
silly
ear
last
pet
playing
fri
doll
william
leave
##ise
##unch
whoops
ti
pot
##ton
comes
floor
feel
##fore
five
##ix
came
light
jump
before
##ummy
##gether
together
rec
##mo
hun
child
part
coming
mark
##ater
ross
##ne
bott
##ually
bus
##ac
making
cut
stuff
grand
kiss
diff
doggie
while
anything
##pl
orange
##ous
##ew
foot
fing
air
##ouch
wash
##rew
bath
birth
fell
though
##leph
birthday
build
tree
stand
move
##ug
hands
through
only
outside
wants
face
mic
food
hot
adam
differe
##omi
##arm
##ane
em
eyes
##ple
fit
##ach
even
##opp
start
whoa
ride
run
##ave
job
sna
aw
horse
tom
stop
bag
snow
##itch
store
gotta
gone
sk
guess
dan
must
buy
been
apple
touch
butter
##ima
recor
nomi
mother
naima
abe
bar
different
peek
pupp
inside
er
bad
cold
tick
##ese
oops
yet
real
walk
fire
tow
list
side
##row
##irty
act
flow
##ctor
write
white
wheel
aren
enough
##ister
shoes
##sed
##osaur
##ich
##ond
id
mar
later
dres
letter
happy
leg
wind
##itting
ale
broke
money
un
song
##bit
choo
##ness
par
sorry
##igh
suppose
idea
rock
sound
##ren
pop
ones
animals
##fast
##oman
##man
breakfast
##icke
cray
guy
button
crayon
pat
kid
##ipp
##gry
num
cheese
sun
##oth
trying
listen
alex
##ana
page
##ri
##ster
cir
goodness
lady
feet
##imes
##ants
de
roll
brush
##ins
##ont
ask
##airs
actually
bel
##iel
shirt
swim
miss
cream
bang
ahead
bow
nap
found
yourself
catch
ice
blocks
coff
pur
coffee
##dle
spoon
cry
never
nin
ring
same
po
prob
sand
everything
##iding
chicke
saying
chicken
##ably
rab
##ort
took
fly
probably
books
##rop
putting
##wh
##ied
##most
bite
##ra
almost
##aboo
rabbit
dinosaur
supposed
##ger
##bo
talking
sec
toy
end
sitting
##cy
black
than
##ather
##bb
hop
yours
pretend
somebody
ton
mouse
six
##ia
microp
da
cam
blow
##ready
whole
already
lunch
yester
yesterday
stuck
eleph
lily
cookies
microphone
wasn
set
forg
dirty
roman
bab
quack
##avor
count
##where
##ile
place
##ts
##mer
cloth
hors
peter
##ner
teeth
game
lots
##room
tired
arm
rain
somet
peekaboo
eas
small
dri
friend
##ces
ten
fo
round
##aug
unt
having
boat
##athan
gosh
pol
seven
pink
##ey
makes
exc
gave
##rs
mine
live
puzz
##ipe
airpl
noise
##ation
ham
hungry
tre
##fe
hit
wonder
##ning
number
la
eight
blank
##orrow
##ling
star
ban
nina
brown
eth
mess
recorder
left
bug
cake
high
ethan
wanted
favor
finger
##ls
nathan
taking
##tle
##imb
wrong
yup
ow
##ways
week
bottle
finished
monkey
pictures
matter
bump
likes
wet
clothes
ra
##iger
sometimes
cute
##iz
lion
pain
happens
purple
##era
##ary
gi
bat
dinner
grandma
airplane
elephant
window
ap
phone
##ator
both
##stairs
chr
tomorrow
sock
puppy
nathaniel
##ily
rest
##ious
glass
tail
favorite
oink
##uh
until
needs
tickle
##kin
##ask
gar
##ets
boom
seen
party
frog
beh
##ase
cause
choc
chocol
eggs
farm
jose
dress
##ian
##ball
slide
used
always
##sent
chocolate
screw
told
moo
puzzle
##ci
joseph
sleeping
hang
present
second
front
##ming
doctor
##isy
##ends
word
pants
fu
behind
##eak
fast
##nie
soon
gets
guys
babies
shake
pieces
broken
mus
eye
flowers
eve
zoo
camera
stre
climb
kitch
kitchen
##eal
nope
being
##la
doo
poo
crack
circle
friends
jen
pres
##rot
eng
pock
diaper
##ither
jack
##iny
scr
nothing
##unk
hole
marky
##ape
chew
tast
kids
shoe
yummy
##ert
##sy
##ib
wearing
beaut
cool
everybody
##amp
##ans
children
bowl
haven
moon
##erry
jo
##oun
means
nine
##more
##opped
christ
spill
anymore
vi
thom
thomas
corn
per
##lc
swimming
crayons
##dd
nur
##so
##ike
swing
dump
music
loo
##asket
blanket
bread
welc
wouldn
fine
pigg
lear
##li
welcome
##oup
yog
sheep
spe
dry
also
police
kinda
ac
either
knock
poor
dolly
drive
fingers
mag
##cil
pa
##eh
##per
roo
whose
spid
woof
teach
sleepy
sad
cars
##angle
pocket
##br
pencil
beach
boun
##erest
##cial
##pack
basket
balloon
cere
interest
##act
hum
square
con
mov
##ord
tra
ste
cereal
##mas
ate
backpack
beauti
##igg
bottom
banana
toast
crying
##unt
feed
neck
grow
viol
scare
check
##idge
ding
del
inst
own
beautiful
wall
##ames
mail
seat
wheels
pump
##tor
clock
change
##her
thanks
special
##az
monster
##erson
##aul
tonight
chick
spell
engine
christmas
##ato
carry
##ity
aunt
horsie
tiny
##oud
comb
ears
sal
couldn
wipe
carrot
street
such
mel
colors
tv
learn
meow
apart
best
##anta
father
bubb
##ries
brother
pro
##utes
bigger
holding
track
hiding
park
sounds
##cing
oo
person
minutes
dance
far
forgot
sister
flower
dear
pill
##aught
##ucky
ge
##pping
##gar
mr
##ale
towel
##ars
clown
mir
pour
##int
spot
paint
santa
hur
tall
smell
words
few
each
win
##anut
##urp
lost
peanut
warm
##umb
twen
twenty
##pa
spider
toes
motor
max
movie
yogurt
##iff
socks
ground
mix
##pt
##eez
turtle
teleph
##apes
hope
sick
hug
legs
full
half
asked
ted
cover
paul
##ove
sat
beep
dis
taste
bubbles
yeh
someone
playd
underst
potty
telephone
birds
soup
yum
hee
walking
tummy
vis
##bble
##ides
snake
mister
##ards
hammer
pillow
sky
dark
violet
buck
##iet
grass
##ddy
understand
##ust
##if
sugar
butterf
visit
pin
##llow
year
tiger
heard
##ood
once
pan
##lla
candy
plate
somewhere
suit
playdoh
sally
reading
upstairs
bell
dressed
##uit
##ier
##berry
boys
straw
kick
sea
lap
pap
##wich
quite
interesting
tower
bee
##mpty
letters
sandwich
oli
riding
grandpa
belong
ph
clos
##ouble
##unn
pumpkin
working
brought
quiet
##lin
pea
##ror
swe
teddy
step
thinking
string
busy
running
gent
##ula
record
instead
bout
mich
baa
neat
supper
geor
ele
hide
tooth
looked
tight
ref
##anda
##uela
tractor
reach
mirror
god
##akes
delic
##avy
circ
trees
rais
couple
tri
##ugg
easy
manuela
its
scared
shut
press
ri
##led
barn
rub
##ence
drawing
beg
true
oat
##amb
sticky
glasses
road
rob
med
vroom
##ince
delicious
hipp
##estion
wood
bob
surp
char
##iting
##ney
giving
policeman
surpr
meat
crash
stra
building
cla
ru
##ett
wake
forget
##ens
lives
straight
ter
dancing
##sc
##issa
##ize
kang
tub
falling
##ever
##ieve
trip
card
closed
snack
##son
upside
june
soft
##icy
##atch
bridge
quick
watching
short
usually
question
##agon
##ael
fro
spr
elmo
cather
catherine
driver
##lie
paj
##ms
##ance
anyway
birdie
king
works
bounce
tap
heavy
lil
happening
##io
##aroo
able
pooh
late
cur
dogs
butterfly
bon
cour
##ope
daisy
##augh
kangaroo
slipp
bought
##oe
bears
proble
##rench
bike
urs
belly
without
dish
loud
laugh
##rel
##iddle
trouble
girls
##ment
##ction
michael
band
wigg
##aff
share
living
##urn
squish
uncle
motorcy
fam
##bage
along
##able
buttons
triangle
mach
squeak
fox
pack
trick
dada
medic
kal
land
believe
ursula
##fu
spl
giraff
flying
dec
garage
line
tunn
##izz
donkey
refr
tunnel
sam
##use
papa
refriger
eh
jam
joh
knew
##ummer
eric
fig
mad
sort
kalie
john
standing
batter
melissa
empty
tong
refrigerator
lamb
ran
dropped
days
kitty
##ork
ben
match
mummy
##issed
##oot
##ered
momma
##berries
tire
gold
super
##oy
spin
nut
clap
wag
turned
missing
motorcycle
near
played
drinking
scratch
nurs
owl
medicine
downstairs
arms
driving
des
tie
vac
claus
jell
summer
heart
knows
##gu
##vel
alone
##amas
##pit
coat
pete
garbage
loves
tongue
ed
rice
##cer
ago
leaves
dream
excuse
bugs
hill
beans
balls
##ler
##ud
reg
##oppy
dav
##oat
##ors
##aser
##thew
matthew
figure
lad
ty
couch
##ha
thirty
##ines
meg
drop
dinosaurs
caught
rat
##ony
anybody
class
terri
shar
waiting
##ents
cracker
##wards
turning
fork
toot
nobody
jumping
past
##bow
piggy
##umble
hon
middle
##bye
singing
dollars
##leep
asleep
giraffe
most
telling
##ggy
trucks
hurry
problem
wish
shh
meet
##ils
ducks
family
kinds
scary
jenny
gentle
gas
soap
nana
##let
washing
david
##meal
shape
hos
plane
early
horses
pay
turkey
fixed
football
since
plan
##icycle
hoo
##bur
##aster
fruit
machine
fight
pad
boots
dough
##ire
craw
sees
carri
grab
ke
rh
vo
lie
##ada
mind
rug
##ife
##over
heh
stairs
ernie
oatmeal
goat
cowbo
wagon
pool
rach
ann
base
floppy
squir
nurse
hook
##ign
##astic
##ips
pajamas
lu
free
takes
goodbye
chairs
cal
##bre
frank
##zzy
napkin
hospit
sau
yucky
##ates
hospital
##seum
##iling
museum
writing
exact
##aces
carrots
body
ly
##to
mickey
missed
matty
nor
##ect
cost
slow
yer
##ron
lay
trav
using
started
acc
tu
space
smart
teacher
mrs
##igator
dragon
rocks
raisins
travis
whee
##ala
hurts
alligator
pigs
##ages
dee
pizz
##ating
potato
fits
goo
buddy
##sw
##ik
fraser
afra
afraid
splash
horn
##cked
himself
penny
glad
bucket
tad
tiss
##uch
everywhere
apples
dingo
course
exactly
poop
thirst
flat
nan
##ten
ind
chang
bless
strong
magic
##oll
##any
tomato
mary
acr
##fully
megan
sent
times
twel
moving
thirsty
men
threw
chug
corner
fore
##eat
##len
##ener
lift
weren
##get
libr
drum
gum
ouch
##inc
dirt
fill
cha
##pper
##alk
everyone
angry
mac
trains
raining
carriage
rachel
##don
tweet
squeez
auntie
circus
robin
cap
gard
ry
non
##ident
comp
cups
george
jelly
##keys
##cept
##ntain
rocking
across
cont
hour
key
chin
picked
mush
ruff
town
clip
boop
##case
##ated
##nald
##pped
pizza
cooking
duckie
piggie
york
##ng
donald
pear
##ding
dar
##iday
backwards
fold
tear
grapes
cowboy
pipe
##ya
##ym
library
dum
##ica
roof
fair
merry
names
tig
twelve
cu
peep
shopping
garden
shower
amanda
pony
gor
hen
##ited
##ird
eleven
hallow
##und
cats
patsy
ryan
ser
thumb
cards
sciss
puppet
farmer
keys
halloween
pushing
fence
ros
##ings
sticker
##box
witch
mountain
scissors
oil
answ
save
umbre
except
lights
lose
cleaning
bunch
shapes
sunday
point
charlie
ladder
pow
##eas
years
##ocked
hippo
##via
board
groc
world
scar
kat
craz
numbers
presents
toe
erin
olivia
nest
jumped
cash
sink
##land
##ps
whatever
##amed
judy
glue
##ipped
##co
trunk
lois
bathroom
barre
jacket
panc
crazy
cind
french
##ried
##nif
haha
shark
cliff
cried
underne
underneath
fur
jill
##anger
tissue
bert
fres
knife
easter
strawberry
lem
sign
##ro
whist
seeds
gran
surprise
umbrella
wheat
##omer
shouldn
smile
belongs
closet
voice
bes
imp
shell
oce
ug
##vor
throwing
case
lind
res
##rick
##fish
##book
ariel
##ught
fe
ko
##esday
knocked
tools
grape
month
rings
##etti
aid
##rr
##ric
##old
##vis
liked
reason
switch
##time
plant
knee
##ellent
coll
veget
rolling
easier
cindere
cough
met
named
yuck
##tie
tried
office
fif
smoo
follow
excellent
spag
drawer
rooster
##andy
eats
anywhere
cross
##ular
sauce
ga
stove
##aps
##eart
hund
painting
cinderella
spagh
bicycle
hanging
theo
crunch
grover
holes
pengu
feeling
messy
satur
##nic
##noon
##bug
##ons
##inkle
##oopy
afternoon
begin
dishes
ocean
por
row
##gie
myself
trevor
spaghetti
##kend
stickers
fresh
woman
sha
station
##unh
##etheart
##ache
awoh
sweetheart
hundred
saturday
fre
ze
##ddle
##mon
##inky
##gel
weekend
stars
sharp
##hunh
##ised
##als
squirt
winter
##eek
##ote
feels
##osaurus
jennif
##iffy
river
jennifer
##do
calling
snoopy
hoor
whale
picnic
squirrel
accident
squeeze
gun
rad
rather
##ones
stopped
potat
hooray
miffy
puddle
dig
whis
maisy
preschool
bur
fan
onto
crib
princ
shovel
cows
city
low
lick
friday
expl
beads
register
franklin
##zen
##illa
gram
hunhunh
cord
wild
##ios
##ible
bal
##itter
tray
stories
keeps
emily
##ipper
kent
pages
##fy
life
##ches
##sters
trash
skin
ladybug
pretending
tracks
answer
clifford
mam
mice
rich
##iv
cheer
monkeys
snap
wonderful
##ald
##anas
weener
pulling
chickens
##ertain
balloons
bib
rope
salt
princess
danger
goose
bam
##umm
swish
sticks
rubber
##ppy
liz
seem
britt
cromer
mud
queen
poin
bananas
ruby
lemon
certain
sir
dood
ext
##oebe
ain
rid
rac
van
##ret
##erp
neigh
bull
bubble
camp
##fect
wiggle
katie
smooth
##ho
stir
bright
crab
worry
hats
fixing
##ium
##zer
##ety
##olf
##ress
unl
##brush
spells
brittany
lucky
pile
sim
##oni
stool
state
muff
falls
dollar
phoebe
##zel
diap
marie
spilled
born
rides
yard
##ji
scream
percy
perfect
battery
edge
rattle
cast
oct
##ween
ship
bol
##allow
spank
worm
between
##iano
ribb
ce
popp
##tr
cutting
whistle
bill
kay
##thur
chugg
arthur
laund
weeks
vacation
fel
osc
piano
##zy
##ises
noisy
choke
plastic
click
bone
size
##nce
bah
meant
##ched
handle
helping
kitten
listening
purse
lying
haw
thinks
safe
guit
hambur
growing
carrying
baaee
linda
koala
sell
##uce
##ka
ups
##ilt
rainbow
terrible
games
atta
soph
##ggies
sudd
pottie
puppies
belt
crackers
##donald
nonna
sudden
jess
mash
zoom
toad
##asty
bother
broom
opened
patrick
excited
oscar
hy
meas
nat
##fin
chest
cart
art
emma
starts
surprised
cents
jim
mike
sle
##bra
ant
asking
coloring
picking
lovely
pops
climbing
guitar
##kins
##fic
##boo
##arter
pepper
scrub
desk
seesaw
laundry
ais
ach
je
sy
##erg
##omp
sweets
magaz
fifty
shoot
##ode
##uring
tool
spit
buzz
kisses
sweater
nuts
baseball
##app
##fort
seems
patty
##dding
circles
##truck
lou
tee
##con
##ory
maggie
potatos
diapers
ble
mc
gobble
andrew
beds
turns
lar
##ikes
quarter
wrap
smoke
cous
##board
bench
crawl
pancakes
gate
wo
##uum
##col
##ston
cheek
map
scoop
leaf
awful
sophie
lid
mer
woke
##dri
blueberries
blowing
screwdri
tastes
changed
screwdriver
plen
si
##lk
dot
##vent
add
longer
songs
toothbrush
vacuum
chugga
plenty
james
panda
send
wide
##iver
##inger
crank
sticking
peas
batteries
cab
seth
vale
##ided
gramp
caterp
pocketbook
laughing
type
caterpill
bumble
##bul
bean
##ield
camel
legos
disapp
suitcase
bonk
richard
valent
ses
##ues
##port
##fl
##orm
##lda
stack
chim
sesame
du
drew
mitt
peel
wolf
ya
zip
##ker
##icop
clay
helicop
pract
harold
sneez
hulk
cock
wave
sneak
matt
walked
elephants
frogs
recording
magazine
helicopter
dead
ee
mill
whoo
##cha
##str
croc
hilda
##ola
##ept
tele
##tte
neckl
beginning
castle
bush
gig
jilly
mist
oven
##ina
beat
bran
fift
kissing
salad
indian
##vision
zebra
burn
oy
##arent
least
blankie
peanuts
jessica
curt
dess
jan
shop
shelf
stroll
fifteen
ca
rect
##uss
##ables
##itely
pulled
dolls
secret
sus
till
wrench
##zo
puts
##ief
group
##aren
georgie
tadah
ribbon
gho
ob
rough
zipper
toil
##cky
chips
chalk
washed
defin
television
curtain
ghost
##ole
##mber
tor
shad
clear
earth
oliver
forest
macar
extra
dessert
##bar
forty
mall
order
elbow
wah
showing
bringing
ambul
spring
bend
deep
deal
race
young
##ites
shot
stamp
att
alph
blah
##place
lego
basketball
slippers
doodle
crocod
ell
kept
##nies
twinkle
wra
roar
##ette
mushroom
dangerous
gigi
definitely
ambulance
##nis
##ward
##cup
news
necklace
fred
chant
boston
boxes
stayed
raisin
toilet
macaroni
ay
##ining
chip
huge
herself
sail
hasn
scoo
prop
stays
giant
vegetables
##fortable
##aa
##rum
anyone
swallow
monday
chewing
interested
alphab
cub
##ril
##ouses
loose
besides
months
bank
billy
karen
rip
##lves
##cl
cann
trans
broc
strip
fact
faster
gerry
##haps
##ze
##mies
flip
load
##bbie
windows
perhaps
learned
jamie
terrific
caterpillar
stroller
crocodile
chantilly
ger
##te
##tuce
##bles
##ering
lettuce
cho
fran
pretzel
older
padding
rosie
dya
pal
tough
doggies
##oda
plum
##ussy
speak
flash
waff
runs
barrel
bones
sue
##anna
grown
puff
##ions
harry
##uffy
tex
whoopsie
moved
batht
magn
regular
radio
##coli
broccoli
gab
rib
sil
wings
##nut
##mother
##ba
##ature
##ley
##urch
parts
bags
restaur
strawberries
gail
shadow
paddington
av
coo
houses
thirt
glo
dollie
danny
joe
steps
##lies
##mel
##read
##ching
chase
showed
dire
cleaner
treat
fuzzy
quickly
frozen
es
kim
##ca
third
wed
helped
strange
doors
country
puzzles
humm
rack
wip
stea
stone
slee
##ored
costum
goofy
penguin
valentine
bark
cone
jar
ought
vill
wil
##tain
##tles
##ced
none
boing
carp
everyday
pushed
minnie
smaller
stret
contain
grocer
certainly
felt
upset
cor
dut
fa
iron
pass
simb
inv
bees
sweep
compl
cranky
alphabet
simba
kite
tim
##nesday
todd
loll
parrot
suddenly
mcdonald
rectangle
bathtub
thirteen
whether
##eter
##eared
##icle
##opus
flap
nicely
sits
talked
kitties
fishing
##ipping
gently
restaurant
wednesday
tasty
##ense
awake
fireman
henry
unless
octopus
mistake
dip
kill
hall
shout
##urs
##ops
cutie
touching
higher
climbed
honk
comput
tigger
gramma
punch
tank
tent
##me
ants
##ckle
cand
plants
beard
aislin
yawn
ribbit
ket
naught
##coon
##erries
tot
places
sold
player
crow
flies
exciting
begins
frost
barrette
aislinn
naughty
cre
cage
dent
furn
pil
tip
##teen
##ex
##iture
##asp
##chy
coco
taken
brushing
missus
##ized
closer
darling
furniture
gee
lis
less
rake
sandy
##rup
##light
##ss
##cope
tells
float
arr
##gged
comfortable
remind
breath
monsters
piglet
pole
baba
tennis
kate
poss
church
##tern
abc
lean
fourteen
snakes
puppets
choose
polar
gives
pasta
rhym
hehe
granola
ceiling
hay
##ient
##gest
##ject
brace
built
##acked
stef
decided
cheerios
jes
opp
seal
##ga
##ky
##corn
##osh
##aham
uses
diam
opens
opening
kittens
pennies
popcorn
##iled
pail
##angled
cousin
chimney
computer
lisa
duh
hitting
joke
##pot
##isc
lip
##icul
brave
calls
wrote
laurie
airport
polly
salty
lucy
grocery
hamburger
cannot
cin
ev
wire
##da
##uction
##ccer
donna
bagel
soggy
soccer
cove
crumb
##iper
lob
throat
exp
sandbox
feeding
violin
bells
rhin
captain
import
bulldo
cave
kl
lines
pas
parent
wre
##ted
##ees
island
cherry
moment
##ulu
sew
watermel
spiders
groceries
lock
lulu
##aking
##cake
##ination
##iddy
##chair
forth
jun
plays
needed
smiling
harder
pickle
boot
jumps
hurting
measure
gloves
important
cot
tem
thurs
##ete
colin
against
prince
spoons
mixed
thursday
den
kit
war
##gi
weh
##encer
candle
stom
##urf
##ppie
eaten
spencer
carefully
biting
nail
mustache
friendly
lived
bumped
pinch
pointing
raccoon
muffin
fle
ima
pair
ret
son
suck
sides
lips
stew
##gging
erase
lions
robot
decide
bracelet
bulldozer
nah
pound
sunny
soda
##walk
becky
##ters
flag
finally
teapot
starting
joey
##ustr
pond
rose
tangled
##iers
##bs
##ower
##elle
brian
market
skunk
rabbits
drives
squishy
north
container
gym
ginger
ssh
golf
plain
plug
abs
orang
##ornia
underw
bites
brothers
##ifornia
decor
california
cube
powder
bolt
dentist
covered
yo
yall
dora
##onge
sale
prom
snugg
wears
nursery
village
die
pussy
vide
##rm
##lish
##go
thump
##sey
##stick
upon
alive
sponge
eliz
##iest
flour
##olk
quit
dizzy
snort
awh
buying
deer
swinging
belle
texas
imag
caboo
kr
nicke
##gs
##hoo
##bing
##joy
andy
shoo
##adad
chas
bud
watched
beaver
sometime
chris
stomach
awhile
bum
cel
jing
lake
nick
##mark
##bor
above
huckle
carol
helps
##aws
cleaned
tires
mustard
rail
screws
steering
lizard
direction
during
field
giddy
lone
rode
tel
hah
##selves
shak
shamp
rex
outta
##alley
hers
graham
sword
worried
ash
##ulp
betty
enjoy
difference
shirts
wondering
swings
smells
taping
lobster
shampoo
cass
vit
##house
##wise
##que
##ined
wha
##ition
noises
##icked
knot
humpty
biggest
babys
spark
squash
woods
##ogr
naked
nails
eighteen
gift
trail
instrum
##screw
slipper
tuesday
barrels
mittens
lollip
flew
aqu
dam
ew
jane
lamp
pir
##gl
##mit
##owed
##oodle
liam
seed
bax
taught
drill
helm
##ention
booboo
coun
awfully
tommy
dumptruck
painted
scratchy
tigers
gorilla
explain
camping
hid
pard
heal
##ices
knees
chat
##athers
unscrew
april
movies
elect
court
lyn
nancy
tomatoes
oppos
jingle
vitam
cakes
jay
popped
ut
weird
##icer
tricycle
##bled
smo
leaving
fishies
dumpty
conne
spray
package
silver
carpet
pardon
dw
ray
wool
##par
seeing
notice
gotten
##otam
brick
gray
turtles
scot
locked
glor
kidding
##boat
boats
mailman
spots
butterflies
supermark
fighting
filled
popsicle
diamond
dust
kath
zer
##anes
held
##oring
inc
plates
##alls
drank
twist
##olute
heads
duckling
highchair
pencils
bouncy
froggie
pajama
gordon
achoo
syrup
grampa
hummus
costume
absolute
caboose
supermarket
burp
dist
##ying
annie
angel
##ison
shiny
##arium
waste
sof
##ella
##opotam
buh
blueberry
shorts
slept
courtney
hood
rasp
sense
tar
##hy
##ja
weather
##chup
trade
clou
span
nemo
otherwise
##abeth
grey
bedroom
##xteen
bottles
##opping
oopsie
banging
chicks
##aughter
hippopotam
crawling
ugh
sixteen
sleeve
ketchup
elizabeth
electric
absolutely
deed
jon
luck
mum
rul
##men
dol
hea
bacon
##iew
##ado
flavor
finding
watering
##eenex
amaz
loved
snail
parade
ninet
steve
norman
candles
kleenex
lonely
gloria
zero
died
hint
ker
sear
stu
stones
sore
grew
sub
bedtime
##asses
squares
slowly
jillian
vanilla
cabin
sneakers
parents
hippopotamus
bom
cem
eey
loop
tat
##med
##cles
##ann
cheep
##andra
bleep
cloud
crane
scoot
naomi
##othy
counting
kicking
beef
began
##venteen
branch
gabby
toddler
nineteen
bunn
cop
poke
sou
##iot
##gr
##mond
reind
##thy
##iced
chain
gross
others
peck
prot
prize
pockets
tadi
resc
feather
practice
scooter
totally
cocoa
stefan
helmet
bunnies
reinde
dep
mart
pitch
tam
##hopp
##can
##bie
##jo
bare
chop
##ppers
colored
seventeen
joanna
grasshopp
matches
washington
calf
fairy
ugly
penguins
shaking
fancy
cordur
spanking
watermelon
aquarium
kathy
bun
wi
##sie
##gers
##brow
##uth
##opher
##andel
overalls
crick
holds
storm
dollies
towards
roller
airplanes
eyebrow
beauty
christopher
mixer
tricky
nursie
planet
luke
beside
large
mushrooms
##iscuit
lollipop
connect
heaven
corduroy
bay
##ki
thin
heat
##essed
##ids
eater
##aped
exer
staying
skirt
learning
questions
crunchy
crumbs
eeyore
bin
biscuit
daughter
lab
##ray
##dge
almond
frustr
brand
##gels
pens
march
debbie
##oodles
tripod
magnet
clouds
age
fool
kab
mass
##ial
##paper
anne
tax
alice
pudding
horton
ours
barbar
post
sisters
bobby
snacks
##road
feathers
whisper
complete
underwear
video
railroad
dolph
bas
dat
faces
noodles
ore
pos
sled
dor
whats
troll
spread
##ocks
worked
##ooper
sleeps
##ocer
bathing
tickling
##cially
walls
closing
attached
pilot
counter
study
protect
exerc
barbara
est
rumm
tied
va
##lets
##dered
##bee
tock
bake
allowed
splin
whenever
breaking
teas
fellow
snowing
mars
nursing
dreams
hours
oranges
nickel
chasing
fer
fil
josh
mur
meal
pins
test
wore
yah
yikes
##ridge
##wah
itself
##chio
stock
stood
dried
grac
##ared
guh
shows
sean
sept
drinks
##ubb
rolled
starfish
conc
disc
papers
jello
dumbo
waffle
stretch
dandel
pon
rin
##ena
babe
stat
stella
jung
clunk
spend
aguh
proud
##ressed
beak
daniel
curly
curious
vegetable
curtains
rhinocer
september
esc
gigg
lang
noodle
wease
##ual
##ioc
##ount
chance
fries
spare
waving
difficul
walks
owls
apron
spiderman
peach
lately
golden
freight
reindeer
rhinoceros
weasel
borrow
dub
double
sang
##uary
##isandy
shr
stinky
##inker
##ila
##umpy
hung
markers
skip
barney
patient
##ations
fingerna
bumpity
straighten
metal
porridge
disappeared
proper
jungle
hose
tush
##rus
beer
diddle
hush
coke
hmm
flound
##els
brend
##ippy
laa
jenell
scram
windy
olives
tapioc
landed
figured
sharing
changing
whisk
attach
pretzels
arrive
difficult
tapioca
doug
han
jas
wife
##nger
##ges
##head
##zing
##iness
dots
##chu
noticed
moves
cozy
crad
becca
brings
##occhio
##agag
pots
ringing
owie
constr
deliver
pouring
mixing
pinocchio
tighten
popping
woah
##cloth
choice
cinna
sofa
flounder
cond
los
##lic
##ded
##gh
##pants
##oosh
##onds
##ldow
dong
mem
didldow
sting
##ically
maine
mop
mommies
##pecially
yelling
geese
buckle
spinning
jimmy
millisandy
wrapping
especially
frosting
return
kaboom
ast
berries
mask
ni
ped
wom
##hoe
itsy
beet
##though
##pple
##ung
bozo
although
gotcha
drip
grouch
##oscope
##elf
rocket
fuzz
##lier
stepped
checking
taller
crashed
slippery
forever
scarf
simple
screaming
newspaper
steam
temper
snuggle
cinnamon
hate
ripped
ur
##yl
##no
##py
##val
##band
toddy
hamp
##ida
##ases
##adada
##ales
carl
peppers
wrist
lotta
bitsy
nappie
sings
below
lawn
knocking
thanksgi
pillows
freezer
pancake
passe
lynn
taxi
langu
thanksgiving
dick
jeez
ki
lass
wars
##ring
##lia
##bi
##eaking
pliers
arrow
sugg
amount
glove
sidewalk
dribble
hamster
pumpkins
johnny
doughnut
basement
squirre
racket
ax
jer
jac
les
##antern
##erv
##uto
##vers
##under
hugging
drove
worms
##pect
underpants
walrus
earlier
rocky
blankets
##lax
miriam
meeting
neighbor
attention
##glasses
ponies
cradle
kissed
san
relax
##ical
##icorn
bock
##ota
club
spitting
muah
ass
duckies
badji
unicorn
bowling
piggies
##ault
sweat
problems
goldfish
horns
company
serious
cartoon
teeny
junk
promise
imagine
celery
trailer
damn
amazing
cabinet
martin
scrambled
astron
tin
yar
##yle
##yard
##ved
shave
rep
##ences
plus
bobo
cathy
talks
fourth
tickles
married
napkins
sandra
horsies
project
towels
mountains
##ivy
blew
janet
construction
language
squirrels
ron
sip
tinker
view
zoe
##aut
thick
web
##onk
##cher
##ican
soy
##une
bok
hol
foods
smash
picks
roast
grandmother
moose
stepping
winnie
design
contr
further
granny
collect
##ergart
cheeks
gracious
astronaut
bunk
cape
dime
fant
fuss
jeep
mis
nar
##wuh
##vey
member
##ader
human
blink
ari
mul
birdies
ducky
piglets
dining
##ogn
hardly
bouncing
seats
clowns
squeaky
tuna
cuz
power
sneeze
pirate
healthy
vaivy
splinter
yarn
dab
pouch
runny
##ued
##form
##vin
##bed
whom
##ester
##ider
##enter
wherever
puddy
ways
##angles
potter
microw
stops
fireplace
untie
ragged
##ensive
tapes
colle
crossing
ache
tamar
dorothy
##ergarten
microwave
cree
digg
jerry
##af
thous
itchy
weigh
##icles
forward
july
trave
fris
fright
fridge
crown
sliding
wax
worse
recogn
builder
firetruck
purp
message
paints
mailbox
combination
wiggles
goats
calm
freder
elliot
wilson
creature
wires
completely
raggedy
thousand
fed
lantern
nib
paw
sch
wing
toby
seek
##adill
pluto
sol
themselves
backyard
spout
dial
milksh
##zzle
##zzie
fishy
clever
tippy
stuffed
ideas
dev
rolls
spilling
reaching
hippos
wooden
buildings
##ika
wrapped
cooked
instrument
chatty
opposite
bricks
south
cell
emp
gener
oval
##night
##cri
helen
shaped
rel
dripping
blood
coal
##iles
spaces
flor
oposs
team
hotel
evening
armadill
tails
##ddie
steph
combing
covers
curls
nursies
porch
avoc
jesse
deedee
cricket
frederick
opossum
kna
messed
pac
surf
##ua
##umy
##gy
##he
thunder
##asa
##aming
carey
stands
realize
unha
patting
treas
confu
chicka
hugs
disney
##usty
tyr
saucer
shells
following
bambi
bothering
possible
rhymes
rescue
teasing
dandelion
holiday
avocado
amy
eddie
ken
mim
munch
pier
sippy
ver
yoy
##sa
##nee
##guh
##ks
##cat
##com
##ckey
##bell
##bered
##inal
##sect
insect
##ened
bagels
stink
##illou
dadada
saf
cra
become
diandra
##ately
horri
sara
ski
skating
polish
acorn
conf
phot
mostly
resting
caillou
susie
sailboat
flashlight
dutch
ashes
pitcher
properly
leslie
unhappy
treasure
hic
nu
rush
tumble
##tion
##las
##door
##ses
##hurt
##oint
##reen
whad
##anic
##isp
ink
##chch
##stal
stup
tramp
##ophone
##ander
brief
carries
shoulder
harvey
exam
roy
cupboard
beast
partic
toward
sunglasses
yoghurt
oof
pinea
toothp
laughed
darth
serv
skinny
striped
wilbur
rhyme
grasshopper
arrived
temperature
digging
cuck
ges
rag
##ail
##ience
##ndy
##rect
##owing
states
outdoor
justin
ali
brain
grumpy
slip
drawers
envel
breaks
keeping
amer
##rily
ninety
prov
##ugged
wiggily
sammy
nanny
drums
porcup
lowly
grammy
balance
hamburgers
ellie
waffles
shouted
expensive
ducklings
whiskers
beetle
bitt
equ
fab
kam
mi
pip
rar
valley
zack
##vator
tony
##ooked
wendy
isab
##idi
baker
tag
##ede
chester
elana
separ
pride
##quit
afterwards
skipped
sounded
bumper
batman
elevator
rule
sprink
tricks
erica
lemonade
artist
correct
jesus
lipstick
spanish
eyebrows
statue
confused
mimi
horrible
pineapple
cuckoo
cig
cooper
dumb
gulp
master
sile
tit
vol
##uk
##ko
##cases
##fasa
whining
##ken
renee
stomp
##ural
##bert
pup
mufasa
##olas
price
pickles
cupcake
business
snowfl
barking
easily
engineer
suitcases
jammies
ladies
paste
shaving
ladybugs
smoothie
simon
mashed
jeff
disappear
burned
propell
soldier
jonathan
memory
milkshake
spacesh
stupid
particular
bead
cale
nuh
pou
pies
path
ripe
vase
##dr
##za
##idd
shy
shining
##ara
baking
stud
knob
plop
bored
##outs
carried
twice
##aste
##embered
remembered
smily
leop
##tail
yaya
firef
lazy
chickie
drops
pears
indians
transm
cotton
vitamins
losing
hiccup
calend
ema
math
okey
vader
##ned
##how
##vy
##jou
toaster
heeh
wedding
##omes
steth
##addy
##itts
llama
someplace
tries
hus
needle
swiper
flush
waking
scri
pray
snuffy
expect
single
marker
eraser
alec
swims
bangs
catching
doctors
peaches
hearts
laying
tears
measuring
franc
wreck
rules
cement
trolley
recognize
nibble
florida
toothpaste
boring
cust
lin
pau
xyl
##lers
##less
##xy
dokey
often
##irl
trape
mos
bookcase
crooked
grill
alrightie
turkeys
comfy
kindergarten
log
ope
leila
##aga
skate
skates
seconds
seventy
dresses
dumped
bounces
salmon
oatios
tuba
desert
##burgh
nanette
pointed
merrily
grampy
mattress
whoosh
invited
breathe
##ograp
raspberries
cigare
stethoscope
xylophone
bing
dun
dah
hip
mwuh
pj
pant
pitts
self
vir
##tage
##gn
##gin
##ware
##cr
##bu
##je
whew
##iter
inter
##idence
##name
donut
mech
##choo
steak
##ico
##amole
alad
cocon
neither
cran
grizz
budle
waves
reads
helper
hadn
guac
##oline
smurf
pushes
training
keeper
##ubby
ticket
bumpy
wallet
sandwiches
quietly
charles
ruin
##ments
macdonald
digger
cousins
##flower
elbows
cottage
shaky
joshua
fingernails
douglas
fantastic
kamut
calendar
pittsburgh
coconut
guacamole
eag
ostr
rum
tug
terry
##iya
##fr
##vious
##ini
##lle
stan
putt
##icing
someday
##umber
##icky
##ilocks
willy
swam
touched
bars
barber
##ract
engines
english
seals
phil
strings
froggy
giraffes
goldilocks
##leton
cowboys
tube
tissues
sentence
katy
licking
baloney
krist
telet
electricity
frustrated
dolphin
pierre
porcupine
isabelle
francis
ostrich
bi
hank
rap
yolk
##tered
##fit
##ative
doh
ins
mex
sheet
jupit
julia
claws
cries
elastic
somers
flaming
hockey
progr
checked
yelled
tops
towers
sideways
president
lambs
goldie
nonno
explore
jean
mitten
torto
abcs
copy
suggest
narrow
mulberry
firefight
jupiter
program
nn
raw
##den
##die
##mm
weist
cane
baw
##odod
cherries
speed
sport
##gey
cracked
##ffic
shove
sniff
eyed
walnut
fishie
##agu
ends
##bbles
blows
banjo
##izes
join
dryer
teaching
grows
charge
slipped
scratched
saved
muffins
perfectly
stripes
control
frisbee
purpose
outdoors
mosquit
aug
cred
dest
mumm
noon
nerv
pter
pine
piper
wine
zo
##rod
##mill
##mine
##coat
itch
gob
shade
chuck
##ille
clack
spy
##ffy
bup
baller
shoulders
sculp
guest
leap
sorts
tik
handsome
acting
wheelbar
sandals
##eye
owe
bumps
mood
ooaa
##usting
machines
dadaji
edna
norm
fifth
palace
directions
teles
stocking
armadillo
briefcase
envelope
poured
hiccups
august
nervous
cd
cent
dies
date
rusty
ss
salley
tuck
wu
zach
##you
##uct
##work
##cess
##bah
##ities
cans
##chief
##ielle
tables
chir
note
outfit
##cember
drool
saus
griz
bul
helpful
##shire
danielle
err
ticklish
marty
parking
popeye
december
brushes
yoga
steg
steven
sharon
paying
freezing
##iki
rosy
mamm
racing
pattycake
bleh
siren
susan
stamps
magnets
wiping
factor
crowded
incred
esther
women
yoyo
spaceship
leopard
husband
scribble
wheelbarrow
telescope
dak
lor
lun
mid
nich
ps
ramp
##aly
##acle
##mat
##cut
##cock
thread
dock
##ising
##oos
##ora
##ene
##store
maker
alarm
fry
cluck
spicy
twins
##rystal
hopping
loaf
leash
washcloth
garlic
convers
hooked
chinese
crabs
felix
clickety
quarters
dipsy
yawning
vitamin
dwar
whispering
jasmine
hampshire
stephen
virgin
mechanic
kristen
credit
nicholas
virginia
cav
dou
ent
fiddle
linc
nicer
rrr
vest
wuh
##line
##iar
##nog
##oard
doop
doggy
goog
heidi
weed
##enas
stage
##tha
knick
julie
truth
aboard
hero
drag
cob
org
##hmallow
##uel
flop
given
##ores
##oln
usher
##ogna
eggnog
kiddo
bowls
pokey
sixty
dale
raincoat
smallest
eighty
traffic
melt
peace
stepmother
barnes
sprouts
famil
hills
paddle
costs
pennys
sharks
poppop
louder
german
grownup
exercise
marshmallow
##ubbies
tushie
cartoons
insects
##ispies
##ograph
destr
bent
dare
fet
gay
jap
ot
pit
pik
rot
##hi
##va
anten
##esome
##oms
rece
##che
letting
chi
chief
plugged
alike
blind
frumble
bront
carn
sack
buff
slides
army
##artment
finds
##ently
bits
fishes
awesome
patch
patric
polka
bats
rud
typ
rhode
freeze
##bread
indeed
sentences
forehead
china
coughing
cheerio
hydr
january
cubes
reminds
babysitter
scotch
dabee
tortoise
ballerina
factory
lincoln
japan
patricia
fash
lee
led
ol
port
ske
winky
##gah
##hah
##pard
##we
##cht
##ju
tore
gown
inches
lia
##cho
steal
uppy
mali
boiling
buster
slice
guard
##phy
wondered
headache
rooms
adv
pulls
woody
nai
hunm
poison
##boree
hamm
joy
##bridge
feeder
hurray
oatio
dreaming
mushy
serve
witches
aids
guns
seemed
points
bologna
natural
babaji
babysit
concert
passenger
knack
firefighter
diesel
conversation
aim
center
igu
lane
nasty
rash
sill
sour
vel
wiz
##rah
##yah
##gle
##pie
##ok
##anie
tofu
##ayay
onions
##lebr
chose
notes
somehow
trou
bop
drain
speaking
ark
holy
hopper
screen
##elia
hih
smush
nighttime
ada
pets
hunting
marks
rossy
grandaddy
marvel
##balls
climbs
teachers
googey
ponytail
liza
celebr
jeans
woggie
invite
cindy
giggle
ronnie
craig
providence
separate
transmitter
grizzly
sculpture
stegosaurus
incredible
psst
doub
fashion
berry
bikes
homes
pent
sig
tul
##town
##ior
##cumber
whine
##utta
##igan
##sels
area
##stem
jug
maple
blues
##aputta
clam
cro
pref
fluffy
wakes
##ggle
uhp
scale
diving
chees
advent
##ogs
peeking
##ttes
##aged
##shine
dean
catches
##erald
instr
forgotten
##umbling
hammering
visiting
season
reached
medium
clapping
tyler
splashing
folding
cucumber
gorge
furry
grapefr
collar
hyenas
branches
caf
obvious
fredrick
floating
sewing
murphy
rinse
frightened
puttaputta
somersault
troubles
pentagon
grapefruit
bould
cod
gerald
icing
jagu
nipp
pomp
ruth
tut
##lor
##uw
##hh
##oes
##cos
##atter
dom
##eap
##omb
ohp
shed
shore
##onna
##stache
stream
##imp
##ppity
bobbie
boiled
##aint
dadd
##apa
spo
crush
##aba
harv
moustache
##ago
realized
firemen
unz
deck
asks
rainy
##aska
musical
driveway
root
sprinkle
matching
balan
##ival
selling
sleigh
system
##ergy
swallowed
germs
puffed
sleeves
##eteria
killed
wrest
instruments
raspberry
##ground
brenda
grouchy
lawnm
lassie
devil
surface
heehee
panties
cranberry
teletubbies
olive
adventure
cafeteria
fog
gah
kicked
ling
moom
marm
ott
pause
pans
packed
paws
vine
##yc
##iana
##gen
##wi
##weed
##cet
whales
doink
doot
anth
##etery
##vember
november
shit
wand
##ency
##erence
tahoe
gonga
chik
whoever
littler
main
mob
dropping
blouse
bloat
coach
grade
buggy
happily
slinger
puh
##essa
commer
##ipment
hiking
##tails
snowy
stores
mothers
marry
poster
tons
setting
settle
muscles
disg
split
spinach
##ude
forks
luc
answered
hyena
blend
##ormor
franny
smoked
target
cemetery
brendon
creep
empire
##umyumy
equipment
propeller
walnuts
dakota
antenna
doubt
jaguar
lawnmower
ak
bong
fau
gus
gaz
krystal
las
muck
ts
tart
teet
voom
wig
##say
##used
##uation
##ias
##fle
##bac
##basket
##oming
stole
##ami
sheets
chee
chic
pleas
butch
##alo
blub
brid
clo
fla
flute
ballet
##essor
sully
logs
hike
waited
##oopers
lotion
hearing
snuff
strikes
##oci
appeared
hunt
snails
margie
ninth
polite
raff
spills
cons
bottoms
seaweed
michelle
triangles
superman
fighter
grabbed
chased
impressed
ghosts
costumes
timer
possib
flags
baxter
wastebasket
kermit
subway
film
associ
confus
chikada
fidd
gw
jet
jour
koosh
lump
net
tinky
wicked
##rap
##uctor
##ives
##ired
##pr
##wash
##cul
##fs
##bus
##erial
hedge
##esting
##etts
##ita
##itzen
sher
bald
baked
##adee
chilly
##veral
boss
blast
blitzen
##ilar
eaters
clop
clues
willie
grain
##acks
flu
flick
flint
agree
##awa
several
ush
pebbles
##aka
##ques
schoolbus
undressed
hatch
hairy
miles
mousie
pigtails
##ardess
recently
##acing
##uga
danced
marbles
parked
suns
sunshine
counted
rains
tender
poodle
scrap
drying
knocks
saddle
winner
suits
georg
tractors
ruf
wiggly
contin
cudd
scarry
##robe
granma
smiled
ridicul
clearly
stewardess
gymboree
gingerbread
nicky
twisted
ruler
massach
kiwi
jersey
schm
photograph
american
volcan
prayers
mummie
mobile
disgusting
flintst
ridiculous
cy
fever
glen
kell
lal
law
ms
poppy
rang
##lot
##ners
##ober
##wa
##munk
##van
##ints
italy
##aya
##ooey
sham
ships
##arian
repe
canada
stopping
wanting
boink
##usetts
##aling
##alade
##alator
backhoe
dra
blond
orch
cara
nect
bub
arf
##emone
##ession
comm
greg
##ulah
##olog
cookbook
##ohead
snoo
squid
ourselves
worker
exper
dino
fallen
glued
lightning
cuts
cutter
marsh
marching
unb
listens
treating
fudge
hopefully
refle
rubbing
cardboard
taped
kangaroos
squishing
planets
carrier
pooping
tearing
roses
potatohead
october
bolts
sledding
merma
sneezed
bushes
chipmunk
avril
evan
##uctions
hidden
opposites
scott
bomber
tatt
##annosaurus
dolphins
escalator
##cribe
##heit
tyrannosaurus
eagle
mexico
hydrant
wizard
marmalade
anthony
lasag
georgia
massachusetts
nectar
cas
gall
gunk
ian
icky
ign
jord
lined
pun
wob
zub
##cal
##vet
dod
hend
shame
theresa
wanda
donny
bak
##adi
##ury
##itten
chubby
juli
trot
molly
alou
##opes
##ussels
##ume
brussels
coins
clipp
grate
slim
arg
mane
betsy
##issy
quilt
##obi
prick
print
prote
smith
haircut
energy
strap
adul
cleans
##aca
bathrobe
tickly
##onda
marg
##rika
mississ
daffy
tickled
dresser
dressing
cones
spelling
bubba
covering
squished
##uddle
planes
jellyfish
##undheit
signs
shaun
whisp
mamma
ribbons
million
attack
sweeping
evil
pounds
pirates
dwonk
sears
barely
college
bitty
silence
titus
aladar
francisco
chirp
sausage
mammals
skeleton
cheesy
raffi
bask
banda
cau
cuddle
east
fussy
gam
mowing
nugg
odd
psh
veter
west
ye
##uc
##gth
##oad
##mont
younger
##erque
##ows
##oma
##ening
##chie
sty
stable
form
tacos
cheet
mot
almon
albu
##ucks
prep
flakes
sloth
muddy
scuffy
loi
colorful
quart
written
##querque
undo
workers
apparent
hungar
emerg
##ippi
raking
apric
farmers
vik
tallulah
wiggling
ehrm
scratching
nurses
rats
goof
maryse
##ngers
followed
burger
larry
cabbage
duke
peeling
tanker
leaning
passed
yoink
carolina
cassie
department
frustrating
oreos
vermont
skiing
gesundheit
bawk
bulb
japanese
instructions
gorgeous
obviously
boulder
commercial
faucet
chicago
blonde
mississippi
bandaids
veterin
albuquerque
apparently
hungarian
apricot
aar
dal
dede
echo
folk
gilly
hoot
im
mor
mead
oomp
rod
rise
tune
wad
yack
##lest
##de
##din
##dom
##uing
##oid
##fall
##bly
##rey
doc
##itz
##utton
rent
canoe
known
charm
juicy
hump
alaska
france
orig
##eryl
spear
spent
##geant
necess
officer
grr
elmer
bust
slam
mayonna
situation
prett
agre
scales
##olph
##ilda
prud
watches
wrink
writes
wont
nights
snip
squigg
throws
booster
rocked
penis
glug
glory
##acty
stuffy
records
tickets
marissa
alexander
ended
##bbling
##iley
eighth
messing
jackie
dumping
melted
smelling
visited
##oodood
peacock
landing
coats
edges
rattles
squeezing
sergeant
radi
pointy
toolbox
valentines
cubs
loader
lesson
##adadada
silverware
kerpl
fooling
basically
conductor
passengers
doughnuts
collection
snowflakes
flamingo
midnight
organ
marshmallows
buffalo
domin
clothing
mermaid
protein
gammy
aaron
oompapa
mayonnaise
au
bou
dive
eddy
ic
jew
kh
lent
mas
ny
nic
olie
rumble
rory
ting
ven
##aid
##ral
##sley
##ull
##wood
##ats
thee
heel
##omm
##orter
##sen
incl
shish
shana
##nal
stain
style
##odon
##odacty
##amin
tripped
boppie
abbie
##ilk
twerp
##bers
became
grace
##ems
worn
holl
##bec
##ulous
##athon
peg
##quet
leo
amen
robert
woohoo
appre
appoint
##uba
##ager
tiki
footpr
micr
action
unpl
pox
tooka
cambridge
battle
chewy
apartment
farther
warmer
cardinal
foxes
bene
##oyoy
##udud
fruits
changes
buried
similar
torn
germ
choices
frannie
parrots
kettle
rhino
decorate
mumma
grasshoppers
sweaters
creatures
disneyland
cigarette
pterodacty
unzip
associated
alouette
margare
cheetah
almonds
aut
aun
aud
beth
bzz
daw
dew
ferry
gather
hoop
nie
nun
nala
wink
wise
##rie
##lvan
##ez
##ders
##ients
##ged
##here
##pan
##kle
##bth
##jor
therm
dozen
toph
heck
ang
onion
weight
noah
invis
##idents
##ari
repl
cant
lilly
steel
##ics
tab
chu
plans
##vert
trim
trace
myumm
crust
elves
budd
slot
slinky
worth
hoppity
catal
oper
meanwh
headed
##ava
rover
rolly
tablecloth
##ubub
olds
lastname
grandp
snaps
marble
parlor
parsley
beluga
favorites
england
jackets
tasted
##sylvan
paid
##bruary
##tory
disp
seagu
charlot
crashing
kingdom
slipping
squeaks
benj
owlets
gaspard
planning
gooey
chuga
folded
lindsay
february
gaby
##ummies
lizards
bahbah
susp
treats
soldiers
frosty
decorations
label
condition
repair
pacif
fabulous
students
trapezo
entire
carnival
tulip
daddies
otto
lucille
possibly
hendrika
julius
emergency
appreci
invisible
meanwhile
seagull
charlotte
bitter
cad
cush
det
dem
dup
eeat
gen
lise
luh
lugg
mention
sur
soopers
vig
##ai
##ris
##down
##nsylvan
##hill
##hirt
##hood
##wis
##wee
##cent
##father
dove
dope
##lley
anemone
##order
ohio
shorter
##ona
lif
begg
##chou
stair
stubb
trump
outer
momm
hula
nem
grind
flopp
hoe
lola
waterfall
holder
thrown
greens
pennsylvan
##mae
##acy
mustn
##rowrow
unw
pattern
listened
hoping
sixth
untied
pinkie
raz
raise
cracking
peri
seash
recorded
softly
lands
crawled
burning
screamed
louis
louise
practically
practicing
plums
flashing
wiped
timmy
express
imagination
shooting
distract
search
loops
position
jason
delivery
returned
axe
travel
safety
nuuw
destroy
rudolph
fiddler
journey
volcano
ignore
slimy
shishi
margaret
benjamin
trumpet
pennsylvania
aff
coop
dice
dimes
dying
fault
gy
ja
jeal
ka
kool
pose
testing
tummies
vote
wou
##roo
##huh
##hones
##pir
##wow
##cakes
##bird
thorn
##anche
##anodon
##llas
invent
shook
reds
liqu
##irds
##sted
plow
nowhere
boil
wellfle
##auce
##icka
babye
worst
agra
helga
scan
science
diet
priv
##aker
nightie
minn
introd
harp
snar
eyel
pige
adj
fisher
teacup
##shirt
parties
washer
hotd
snows
dancer
univer
devel
laid
streets
##ansas
magnif
pills
spotted
hurrah
curl
curve
curved
bonnie
bands
alligators
applesauce
lifted
mushed
darn
scaring
lower
riders
stirring
simp
mistakes
wipers
watermelons
##walker
gymn
krispies
cassandra
eighteenth
discuss
fingernail
neighborhood
trampoline
weeds
fashioned
balancing
wrestle
flintstones
unbutton
whispered
baskets
meadow
appointment
pterodactyl
trapezoid
jealous
wellfleet
aur
coot
der
eee
eff
fou
gep
ill
imit
jigg
jail
kiki
lit
lord
mun
navy
tid
tide
tant
tup
vee
vers
wack
wins
yoda
zoop
##ties
##aby
##dah
##yley
##iosaurus
##poon
##vie
##bal
theater
angels
##ital
webs
hazel
##orse
noses
shine
##arily
##asy
##nado
##eded
chomp
llamas
allerg
allison
trit
trap
bos
moby
abu
##inda
##aine
frying
bra
##ility
history
ahahah
clips
sake
sailed
##eedle
##berly
cros
##ement
remembering
handed
lolly
colorado
##oli
breast
useful
homework
unders
snoring
enter
material
amelia
fixit
adadada
mouthful
cupcakes
##asha
##shield
##neys
washes
ericka
windshield
unif
parach
deh
microphones
sets
pinky
hits
jenko
chewbac
perf
roots
roosters
##bras
chickadee
saturn
skywalker
godmother
hippity
##etto
volley
resp
zebras
lifegu
octagon
hawk
address
tornado
scooby
loosen
texture
kimberly
faith
timothy
mcdonalds
enjoying
distance
oreg
hamper
##yleys
tumbled
service
sprinkler
cooperate
##crack
budleyley
budleyleys
smurfs
luncht
dwarfs
receiver
malik
prefer
nipple
pompoms
teetee
confusing
shamu
jordan
bakery
beneath
vigor
beggars
razor
develop
aurora
chewbacca
lunchtime
caca
ere
ole
sight
sigh
sizz
session
tease
vim
vrr
yoo
##dar
##nel
##gre
##gown
##hist
##mint
##cc
##fly
##back
##jah
##atops
##antha
liber
baum
stale
fort
knight
tah
tale
##itted
chart
chopped
chchch
cheap
rear
mole
drown
bloom
blanche
frame
brr
brrm
dadadada
##apika
saber
offer
cru
pred
swan
swiss
flipped
slid
slug
asha
common
scor
loly
prod
pleased
nightgown
lewis
##umpt
gluck
doorbell
##agus
funnies
petey
dollhouse
buses
##aced
grandmas
kissy
snowball
badada
winding
uncom
brushed
bows
seventh
brownies
joan
joking
scares
delight
ooching
playdough
phooey
closes
michigan
tighter
##uggle
roads
claire
bandors
samantha
spinosaurus
nearly
davis
wishing
gasoline
grabbing
keith
nora
flatten
jiminy
peppermint
disappoint
sneezing
object
stepsister
##asponda
dennis
rays
connected
heavens
biscuits
urch
fussing
tyran
pipes
snowflake
bingo
central
pikapika
rotten
marvelous
moomilk
cuddly
radiator
pigeons
gymnastic
gepetto
tantrum
allergic
crossed
uniform
liberty
ape
bind
bree
cact
cork
gal
hut
mod
pod
pout
rol
sized
tanta
var
##yond
##ule
##iy
##gone
##gama
##xagon
##obe
##ford
thre
##ata
##anor
toto
heater
hexagon
##ometer
##utz
inform
##ooky
beyond
stump
putcher
chann
##unzel
littlest
mah
moe
butt
drug
blame
blown
brun
orzo
cargo
clar
babykins
twir
twos
tweedle
grad
buys
buba
happier
##acka
mang
mug
muh
mupp
aspar
aspir
##ulars
handker
betta
firew
##issie
watercol
diane
pew
prair
sleeper
smack
##enders
strum
straps
peoples
mouths
##oculars
tegama
sorta
lighter
recomm
##neck
rung
##ichi
windmill
unst
unus
##rence
missy
misses
##rops
##bbing
lunchbox
tenth
excused
scrape
jojo
##ounce
dumper
combed
smelly
disgu
panacka
trips
motorcycles
packing
packages
wags
tying
hooks
tucked
dragonfly
splashy
sells
nature
caterpillars
ellen
loading
plumber
gabi
carpenter
complain
underwater
giddyup
gifts
exercises
jacques
smashed
cellar
general
kenny
rags
paula
donuts
tugboat
rapunzel
mosquito
errand
germany
iguana
troublesome
topham
catalog
appreciate
luggage
tupty
oregon
sizzle
scorp
uncomfortable
tyranosaurus
asparagus
handkerchief
recommend
cong
dart
fart
foss
fences
izzy
ku
lau
lond
lala
lena
mormor
ping
pipp
puss
pbth
rolf
sant
sass
sitter
tou
tend
vic
zaz
##ased
##rill
##rica
##ift
##horse
##zan
##win
##field
##buh
##bors
whack
##erk
heels
andre
nola
ing
inez
shir
shock
shakes
canal
##icated
knives
goody
chow
wasp
maam
moth
hugged
blob
brakes
dadda
carton
clover
spud
twirl
grumble
eli
bugg
##isha
slacks
manager
remote
colt
suds
fizzie
section
pegs
prizes
##quo
daytime
dayja
headlight
headband
africa
##aves
exh
boos
amig
roger
roars
mighty
doorway
tipped
##moth
washie
baths
##opper
skink
badly
banged
bowwow
leftover
##ians
##liflower
const
trapped
growling
owner
melting
straws
eleanor
charac
ruined
kanga
edward
classroom
pads
voices
squeezed
yucko
radish
mammoth
rider
neighbors
##ressive
unlock
popsicles
##booboo
merc
eek
obs
total
sucker
diego
nickels
celia
sixteenth
binoculars
filthy
##agagagag
pedal
sweatshirt
amye
safari
custom
cigarettes
normally
familiar
brontosaurus
types
laney
tonsils
blender
pleasure
sunset
cauliflower
icicles
faithful
yoohoo
funniest
urchin
cactus
unusual
toucan
dy
deter
egy
gear
irel
ivy
kites
len
liter
oak
py
peak
piya
rom
sieve
sched
tan
tumbling
vot
wound
wisc
##aked
##rat
##rit
##rac
##lo
##lah
##kie
##mar
##cers
##cson
##fth
##birds
##ern
##owa
##owoo
##esota
##oric
##sel
lim
licked
beets
steep
##iction
##urty
gond
chores
jugg
ally
tricer
mol
aboo
alab
downtown
dries
drunk
bleed
orna
spat
spir
neph
booksh
prehist
elvis
##abi
flaps
waist
hoag
hola
mans
##ulture
scall
score
loving
thrill
cheers
cheating
mini
level
hears
##ossible
ench
falled
yellows
glitter
gluing
camels
recipe
grandfather
micah
##achu
walker
dazzle
fastest
muscle
eyeball
scrumpt
cooler
perro
##unted
checkers
chickies
prof
disco
darker
panther
rivet
##ledge
laughs
describe
soapy
accidents
tucson
index
twelfth
darrot
##roach
impossible
uguh
crunched
##onsin
frere
added
typew
obi
chalkboard
mallard
transform
palm
direct
duty
arrange
diamonds
denver
thumper
cassette
smokes
jonathon
depends
oreo
stockings
escape
example
miaw
sprinkles
customer
duncan
pjs
explorer
zoey
chuckie
caves
otter
continue
glenmae
repeat
argum
prudence
includ
dispos
mommily
liquid
minnesota
cootchy
veena
disappointed
stepsisters
information
prairie
london
shirley
exhau
ireland
wisconsin
alabama
nephew
prehistoric
scrumptious
aven
bw
bod
bicy
cody
dinky
fir
gur
hick
kuh
mow
naw
oz
poom
reel
sod
titch
val
wider
za
zs
zuc
##lins
##hog
##kim
##kuh
##vous
##jay
##inea
##anan
toss
##oof
##its
##itive
lic
liking
beater
##chini
stitch
stung
##ades
##adig
##itters
chunk
chops
plaster
tricked
##unately
maur
##illas
bobbing
mold
drac
##ili
hiss
spilt
sakes
grave
flee
pub
scold
##elope
##antic
guinea
file
quin
cheat
leather
sweety
harbor
robe
teppy
beam
sarasponda
sawing
##agara
floors
barbec
erased
badger
hops
pretended
babes
babar
##ational
pressed
chewies
yogurty
spelled
paintbrush
tallest
seahorse
terms
terrence
bandage
shared
##orks
benny
classes
honest
filling
koal
freak
kentucky
scrubbing
fifteenth
bending
globe
wipes
corin
lollie
candies
possum
junky
chases
ashay
burped
tarzan
searching
crickets
basil
shrimp
niagara
mischie
aliens
america
skateboard
guests
normal
googly
grownups
hopperoo
signal
harvard
reflection
prepare
kerplunk
holland
chuka
grandpas
suspenders
conditioner
pacifier
lifting
stubborn
fountain
undershirt
parachute
volleyball
lifeguard
gymnastics
breeze
channel
aspirin
fireworks
zazu
headlights
literally
triceratops
hoagie
zucchini
mischievous
cum
dea
dave
damp
fake
hive
iced
kar
kaa
lissa
mower
pish
pel
pork
pitter
rout
rah
ricky
site
teen
vin
wy
weak
zig
##riter
##eobe
##di
##uv
##ieth
##gent
##goat
##hee
##zie
##ped
##kn
##koo
##mined
##cro
##jump
doin
whatchu
##llab
##ision
##igs
##kerel
noel
shim
sheryl
rew
##nager
donkeys
##chen
stap
stem
stren
##iment
shelves
ched
soaking
trooper
maise
major
huggie
##umum
backs
backing
frown
bru
brav
brach
bruce
bryc
orph
claw
spee
twis
saving
anytime
grrr
prec
telly
swir
thankyou
thingy
arch
holly
hokey
manage
manners
aside
agah
agug
##aho
##entr
leia
harmon
hairs
underoos
bootie
roared
lovey
woolly
potties
recy
snapped
gonegone
eras
walkie
idaho
united
def
death
brushu
belts
flys
baboon
foam
bumping
raft
boomp
behave
##laim
jokes
percent
chicky
combs
miracle
pheobe
tights
pressure
surprises
kings
curlers
##ootd
nearby
rhy
luna
saucers
accord
splashed
poops
poopoo
stronger
magical
nonsen
pearl
fairies
peepee
lemons
whistling
burst
mamama
vanessa
unload
safely
teenager
bumblebee
rectangles
obst
attic
billygoat
speaker
shadows
eskim
oughtoh
passy
lessons
wrecked
warn
plugs
decorating
shoots
nickname
shaker
explained
bundle
foolish
posies
concentr
discover
dandelions
wompa
collecting
humans
blinking
related
brains
silent
mathilda
grilled
sports
goblins
drooling
lorry
feta
hammers
velcro
tsk
cheered
bridges
cassey
nuggets
necessarily
agreed
dominoes
footprints
unplug
aunty
cushion
period
hotdogs
univers
simply
triton
##cracker
tahini
chchchch
mangos
watercolors
lauren
determined
typewriter
argument
disposal
bicycles
dracula
barbecue
wyoming
strength
maisey
brycie
orphan
harmonica
nonsense
aah
austr
bers
bass
dau
eur
fuel
facing
handy
kansas
mea
nt
omel
rr
ree
rand
sz
sard
sucky
tus
tuh
vera
volk
vroo
xav
yipp
yuh
##tan
##agg
##dles
##uu
##num
##ging
##kh
##crow
##boom
##bucks
whatch
golly
##eaked
iss
##utch
##utter
haul
infe
replace
lill
lies
lizzie
doncha
##erec
##icut
uppie
##itty
trad
myst
toots
##alian
backward
frag
fritz
coc
carve
sab
neh
bookstore
offic
crummy
gravy
pregn
needles
elaine
##abab
##nyum
flood
hopped
pudd
##athered
scene
##ission
usual
##ouri
pron
##estra
smiles
undone
talkin
mont
walt
booth
rogers
fixes
adah
advert
cousc
fins
##ocus
longest
afterward
appear
hardest
finishing
##agen
funnel
feelings
snowman
dances
erie
maria
marily
winds
sunflower
##inski
##onto
missouri
poll
##wheel
tonic
dawn
fozzie
staring
starbucks
brownie
messes
raind
##izer
##izing
jenessa
chewed
moons
viole
speck
growl
scarecrow
dingaling
melts
##aled
meatball
taperec
dishwash
famous
scratches
wished
rachi
pooped
drumstick
mackerel
eleventh
planted
follows
paintings
rows
burnt
##rete
##hole
hawai
larger
largest
sneezy
transcri
cooled
stretched
stretching
containers
sweeper
crowd
reminded
sucking
decoration
rodeo
sparkles
deedle
amazed
submar
rescued
buns
connecticut
concrete
rinny
tinkerbell
interrup
suggested
goblin
pikachu
hammock
harvest
photographs
kelly
lasagne
adults
wrinkled
bouill
jewel
venus
microscope
thermometer
cantal
steelers
duper
seashell
adjust
scorpion
victor
customers
schedule
ornaments
spatula
bookshelf
cootchykoo
exhausted
avenue
university
berserk
sardines
volksw
infection
couscous
marilyn
violent
dishwasher
aggie
bough
cages
dunk
fal
gummy
goud
jere
jaw
jones
mwah
ner
noo
ooo
poc
sss
ties
yw
yee
yob
zzz
##tic
##abye
##rau
##ni
##ox
##kay
##mary
##cin
thor
##atic
##rets
##inet
##esh
##eable
##ution
shre
##arar
canes
diddy
stiff
##inks
tack
uphill
shelly
goodies
chichi
however
maid
mack
mazy
boards
abr
alb
##osed
fried
overnight
corey
ordered
clipped
twink
##ured
nept
critter
crispies
waters
grin
swear
flight
flops
ariz
mandy
manny
muzzle
remove
helium
columb
##awe
cooks
div
opener
veh
##ists
##ohoh
lexy
leah
leaking
snatch
squoosh
strom
coup
eggy
bunnys
recyc
hunters
##acola
cutters
bathie
emmy
skull
marvin
unh
unfort
patter
brusha
poy
##ropri
secrets
hoped
cloths
hamsters
starving
browns
raf
apolog
chrissie
garfield
##cific
humming
delma
bubbly
winning
##overed
beeper
beeping
disaster
rubb
forgetting
tubby
drivers
bonka
hoses
voila
annoy
tadp
lifts
chaos
contest
roofs
rosita
nests
barrettes
bury
answering
poppleton
bills
kaylia
hyper
vacuuming
##flies
stacking
chimpan
groups
sailor
cannon
choking
cords
shouting
piles
leaned
rosemary
orangut
promised
sparkly
spanked
tata
depot
seventeenth
massage
ferris
tushy
memor
urgent
suggestion
jacob
traveling
generous
##umyum
##heim
stinks
craft
servant
flamingos
rawr
shoveling
wuzzy
cavities
peaceful
ruthie
spoil
vinegar
consid
gwen
schmutz
drawn
orchestra
experiment
tattly
gunkies
veterinary
original
prettiest
squiggly
organized
nicole
niece
mentioned
louisiana
distracted
eyelash
rolie
errands
sassy
ingred
bugga
bodies
public
koalas
kaaee
pelican
shimmy
eskimo
fragile
cocacola
pregnant
submarine
bouillon
volkswagen
gouda
yobaby
neptune
arizona
columbus
recycling
unfortunately
agg
ber
bumb
cider
dink
dim
dash
diction
fee
gary
hitch
homer
jed
kale
lakes
lens
latch
mut
oog
pta
rare
rump
ranger
sens
tiles
yap
yak
##rom
##lag
##sp
##hat
##oink
##kah
##mates
##care
##fty
##ban
##oupe
##attered
##inct
##inals
dott
topp
anna
isad
habit
halves
##idt
##ido
shann
meets
##eren
stared
putty
##adoo
##odo
knead
chopping
plat
allen
mal
reaction
moan
playground
##lyn
##umn
##otive
bloop
bloss
frys
overboard
clim
spic
spike
twin
##hmm
flav
slap
##otherium
uhh
mule
asht
agu
locom
meaning
proc
sleepover
pushpa
chef
daycare
hatt
hatched
squeaking
milkman
enorm
strike
trained
picker
talkative
boof
among
peng
wooly
glub
approach
fours
sorting
williams
tipping
footst
skill
guessing
colder
rocker
##ippers
rollie
spoonful
ninny
poking
##bba
placemat
exclaim
givin
batch
farmie
fasten
jolly
joanie
spect
bounced
humid
owns
clocks
understood
visits
phys
phones
oatie
meatballs
tubes
tunnels
ladders
pasture
pastels
accessor
pizzas
poopie
indoor
librarian
ouchie
tweety
##ymb
gorillas
hens
serving
umbrellas
powers
crunching
castles
chestnut
##ficent
pepperoni
cheeky
adda
sneaky
sneaker
toronto
complicated
hallway
sewed
denise
pussycat
videos
sparks
sparkler
health
scotty
soul
splinters
hungary
arrows
walruses
stephanie
acorns
treasures
rushing
alien
pipo
particularly
email
aladdin
bibbie
noone
lungs
mechanics
fetch
##hibit
brontotherium
portug
malificent
aimee
tutu
baldy
rufus
lalala
snooze
lasagna
wobbly
dododod
prickly
quarts
destroyed
private
drugstore
muppets
unstuck
fossil
spudinski
leftovers
character
mercury
transformers
quincy
rewind
brachiosaurus
recycle
ntuu
tusks
xavia
##nyumnyum
taperecorder
jewelry
cantaloupe
abraham
orangutan
##heimer
ingredients
isadora
shannon
locomotive
enormous
bible
cee
cormor
dre
dere
dang
eel
fem
gau
gil
hond
igl
iowa
jou
kin
kirst
kaka
lurch
mamas
mumbling
pf
peed
sem
saint
teep
tinkle
terence
vamp
vulture
yu
zuggle
##tin
##aque
##ein
##iber
##ials
##iately
##nor
##goo
##ham
##xious
##oids
##well
##mouse
##fri
##foot
##jour
tha
##inked
whites
dogg
items
hem
ankle
##itions
##utian
##ige
inj
infin
shiver
rebe
rept
reva
##onia
##nap
dont
bailey
lookin
force
within
taco
chap
champ
allow
trust
traps
male
moist
##ello
yessie
hub
gotchu
##umsy
bry
bramb
coin
coaster
cobra
carwin
clumsy
sailing
neato
anyways
swell
swirl
sling
slime
slave
waw
wavy
maya
uhhh
greif
greggy
remembers
colander
##iputian
loy
gug
guah
showers
cooker
sexy
quik
dijou
beddie
whichever
newt
newton
leads
##ending
sneaking
hatching
careless
squeal
pickup
exhibit
monk
clement
appropri
finishes
supplies
petting
lighthouse
cutest
fella
##acha
skipping
wheelchair
numnum
bangle
foggy
tread
launch
##lings
chrissy
hanger
event
specific
toasted
checks
melon
melinda
turtleneck
##ifty
kicks
belonged
phew
tightly
delicate
pressing
##ambler
##ensie
decision
lambie
dreamed
figures
fighters
crawls
rachael
poopy
cashier
bertie
reasons
switched
zeven
gung
chugging
jessie
magazines
scooping
merrill
dukes
beats
oyster
cafe
shades
loaded
steamed
killing
floats
sews
snuggly
smoking
spraying
distur
softer
bomb
##mediately
tammy
murray
discovered
escaped
delivering
stingray
carlos
mischief
creepy
solar
armadillos
kenobi
whadja
royal
servants
bitten
rarr
stomping
propellers
heehaw
mexican
shovels
mosquitos
docks
dwarves
cobwe
celebrate
celebration
croak
seasons
spoiled
coaches
kooshball
##washir
chipmunks
tattoo
adult
veterinarian
immediately
charming
##oodoodoo
seagulls
floppity
woujou
introduce
version
cruz
egypt
thrilled
professor
stitches
maura
corinna
bravo
speech
erasing
rhyming
vrooom
yippee
lilliputian
mystery
raindrops
flavored
cormorant
kirsten
teepee
brambles
aster
cit
dell
deet
dja
dune
et
eah
eug
ease
ella
fas
fear
gang
gaga
gathered
ick
kix
kuk
lark
lag
lining
laka
nay
nad
puck
pist
ral
sizes
tour
tamb
tips
uff
woll
yank
yol
zone
zag
zeren
##rove
##lock
##ujah
##ially
##nn
##zal
##off
##cocks
##fied
##ville
##bat
##bast
##born
##juba
##atos
##inney
##ances
dow
toena
gog
anxious
##ishm
haunted
inf
oklah
sherry
##eny
##irk
didi
stab
##adah
##icent
getcher
knitting
chame
chica
plunk
noticing
soak
soaked
##ppies
bog
##ellite
abby
huff
alan
##opy
playin
players
playful
blaster
brrr
cole
clue
spins
saves
bookie
offering
gro
gruff
grater
swipe
swamp
flames
slurp
slips
wald
argu
##ggles
hollow
mmmm
mango
aga
greet
remain
whiz
whipped
suff
##iption
##eline
##elujah
##antly
fires
##aurus
##ahah
sebast
dix
diver
##oboo
prun
fooled
bedelia
lever
lead
shoem
shoel
##ended
mous
##adeh
adi
adada
admit
glider
singer
petes
petun
tika
jumpjump
recital
##acas
##acles
standard
emerson
dandy
towing
activ
actual
marc
maracas
choos
choochoo
naps
crystal
sandal
##whinney
camper
easiest
excav
banner
razzle
giya
cools
christina
nursed
yogi
steer
halfway
satellite
buckles
buckets
understands
pinwheel
shuttle
rubbed
##ensak
term
triple
softball
curled
medicines
splish
madeline
johnnie
##uda
terribly
planting
planned
grabs
lulla
##alaf
horned
magician
macwhinney
gardens
rye
thumbkin
casey
smooch
shaft
shaggy
princesses
poppins
arte
aisle
dotty
chimneys
sneezes
cockle
shots
attract
roaring
ayayay
silo
steady
ironing
thirteenth
hallelujah
punching
tanks
klunk
skunks
hucklecat
lollipops
chatter
lynx
jingleheimer
tarant
barefoot
exercising
gracie
giggling
shrie
shrunk
nibbling
designs
collected
examine
fabian
fabric
trapeze
philip
notebook
familia
chih
ledge
advance
joyce
iguanodon
settled
snuffle
schmidt
dalmat
lentil
angler
replied
cadet
koolaid
snarls
magnifying
jiggle
tidy
bossy
perfor
talent
objects
threat
clarinet
grumbled
gondola
juggling
molasses
including
hickory
sodor
##adiga
##chenia
cheddar
meals
sabina
puddles
advertis
##rauchenia
apologize
dictionary
jedi
female
hondo
igloo
vampire
##friend
loyal
eugene
tambour
wollensak
oklahoma
chamele
sebastian
bash
cia
cera
cyl
dud
dites
dude
eil
fad
fff
fought
fathers
gn
gates
hides
ir
icy
jaws
kook
kak
lat
loon
lumpy
mia
ng
nee
nifty
oun
pers
pumb
pals
ras
rick
rav
ruh
rising
siew
tanger
vrum
wight
yod
yick
yicky
zin
##tied
##roll
##lod
##eg
##eater
##eled
##ega
##ssed
##uly
##uish
##po
##wack
##mie
##mos
##mart
##cast
##ccess
##vah
##view
##bot
##atika
whiny
##anus
doves
##eral
thatza
tossed
goal
goos
goggles
heav
anh
##owers
##ooo
##ommy
anderson
haz
hast
nod
nodd
inch
inky
##cker
shield
##onstr
cany
canad
cance
##nam
bach
baab
stam
wanta
forwards
##amame
##ims
taun
tags
gonzo
chall
chess
chopper
jum
##verse
maze
rearr
moi
moly
abuh
##otch
##alee
blade
bron
dadadad
dadadadada
cobb
cling
clipper
makeup
spoke
##berg
crook
cruel
becomes
swip
swoosh
##abata
fluff
flipper
slight
arrr
shoulda
whip
scree
handing
handles
success
fives
shown
boxc
tales
quiver
brew
prints
##isted
pushba
nightm
mindy
leak
shocked
hart
snore
squaw
stromb
pickled
matzo
stork
roch
penne
adm
adadad
dinah
##ocious
##taun
appl
appet
storybook
beams
##agers
support
mornings
tibble
snapping
snowballs
baron
barbie
badega
marked
marion
uns
unc
paris
rockabye
patience
patients
degre
##ontas
creamer
naptime
counts
lotsa
rained
messages
dinnertime
hangs
jenna
##unka
##unky
tasting
sadly
concer
beautifully
oozing
pourquo
hurried
smelled
warmed
telephones
visitors
peacocks
refer
cardinals
curvy
superher
vacc
edamame
wishes
gentlemen
squirters
calcul
museums
indiana
acrob
menn
gumd
gums
fills
macaque
answers
collap
colleen
accidentally
radido
licks
bamboo
##etyboom
piled
muffet
poppa
poppies
artich
anteater
buzzing
waved
millions
burns
oysters
stamped
racketyboom
barks
toddlers
diplod
tentagon
tipto
breathing
sucks
robots
##sticks
caroline
swordfish
ewok
lamps
drilling
labels
teaspoon
giggles
hankey
hanabata
loses
kiawe
jacque
clubs
seriously
fantasy
powerful
lanterns
emptied
gespard
rarara
correctly
volume
jeffrey
knobs
sniffed
pteranodon
tikuh
sausages
mammal
silliest
smushed
sculptures
gahead
creepmouse
akk
gallop
lentils
nyum
dawson
buddah
fisherman
effort
effect
entertain
respons
predic
bindergarten
bruno
catalogue
obsessed
dye
length
bleeding
##jays
license
precious
album
annoying
exclaimed
portugal
infinity
appropriate
treadmill
easel
fascin
lagoon
yolky
prunes
excavator
lullaby
tambourine
ciao
eileen
pumbaa
zinn
nodded
canadian
baabaa
stamford
tauntaun
stromboli
degrees
pourquoi
diplodocus
bid
bink
bess
crew
dall
due
dair
dug
gour
gag
gita
hing
kush
kyle
lam
mct
mort
mguh
nummy
oly
occ
pum
psy
rif
russ
ropes
sank
une
vrm
wib
zee
##tim
##rh
##loo
##ebe
##doo
##doh
##dump
##dog
##yn
##iah
##ique
##nest
##zell
##oah
##kad
##kest
##kker
##vable
##bars
##jabi
##outh
##reme
##anced
itty
##ayo
hell
anch
##owow
##owary
##iser
##uttle
haza
nos
nois
shm
shush
shift
##arty
##arrow
rev
wann
##ookie
libba
bakes
balc
backed
beating
##irap
stings
##adel
gettin
gong
knowing
cher
ching
chry
chucky
cheryl
chili
plowing
alley
howard
trough
tromb
truly
litter
maa
mavis
aba
moments
alison
albert
theme
##aloo
##alala
heron
biggy
bla
blea
brook
cocoon
##apers
carter
carrie
spong
spooky
daddys
twent
tweez
twigs
##ivered
##amel
neil
anyplace
anyhow
crisp
watered
grant
elise
bully
buoy
sway
swoop
mayzie
##ema
hog
mani
##belie
grease
greasy
scuttle
##anted
guide
fier
##ahontas
##enta
diana
pecul
pra
fooba
wrigg
##phia
##venient
smil
inta
newborn
leot
legg
legged
lekker
leader
harness
cares
mouses
underground
strain
strang
stripe
stranger
talkie
drinker
walmart
boog
amber
adding
diner
##ocirap
wooba
peered
peeled
peeyou
peejays
nappies
nosed
tech
doorman
beagle
oldest
petals
lightbul
birthdays
builds
##ugh
aware
tomatos
snowed
skim
skies
buyed
appledump
barge
barry
sunda
suntan
poems
##orte
highest
##erai
oinkoink
musk
eyeglasses
jackson
cooling
moonlight
corners
##eheh
rooft
conv
convenient
stevie
backpacks
necks
growed
##intosh
motorb
disk
bucks
candyland
seaside
phy
phon
closest
##ugging
woodpe
##scious
##scotch
shortly
bonked
bonjour
ehe
deser
ladys
hoof
fights
grabby
announce
dragons
drumming
caps
compared
stickerbirds
powdered
cinda
signed
whistles
impressive
##vory
spaghettios
sharpen
sharpener
picnics
pointer
doodled
extinct
extreme
raced
kayak
clicking
rainbows
louie
bleat
woa
sending
##flowers
cockat
necklaces
bushy
beatles
aye
scooch
##clear
transcribe
stripy
plumer
plumerai
esp
villagers
invest
crows
dental
fourteenth
hayst
eva
lobsters
junior
fields
cassowary
knots
utah
smokest
subject
nineteenth
positive
whatsa
feria
goldenrod
borrowed
tightening
pedals
dickory
weighs
solve
solid
munching
rushed
mikey
student
expected
##jection
##iyaiya
philadel
tikatika
tablespoon
organic
destruct
advice
velocirap
cucumbers
pompom
adventures
pleasant
snuffles
cycle
bubby
marsha
punjabi
yeow
prepared
bouquet
stains
autumn
buddha
demonstr
thorns
derrick
perfume
development
predator
twirling
congrat
santie
andrea
amigos
firm
gravel
fleece
honestly
accordion
obstacle
europe
omelette
randall
issue
officers
waltzing
hawaii
falcon
pocahontas
ywanna
shrek
approached
physical
derek
clementine
eventually
tattooed
nadine
ralph
##jubajuba
##ishment
shoemaker
mousse
dalmatian
cylind
rascal
yodel
swiping
nightmare
calculator
jacqueline
mctats
balcony
chrys
trombone
sponges
peculiar
appledumpling
philadelphia
velociraptor
congratul
aer
bj
bure
bound
burt
ds
een
fat
fak
fatter
gap
gerg
ih
ivory
jake
kee
lug
loun
lava
meen
mik
nip
nadi
obo
oint
pom
pam
pest
pave
pairs
pss
pledge
ram
rust
sen
sel
umy
von
vines
viley
wes
weap
yumyum
##tog
##ram
##rock
##rav
##lee
##long
##lane
##luh
##loe
##dub
##dling
##duh
##year
##yote
##uy
##uced
##ioli
##ns
##gee
##heh
##psy
##olen
##for
##bop
##boop
##burn
##aters
##atosaurus
##rest
##ino
toasty
tobac
whatta
het
height
ana
ange
##isk
##ooly
##itor
weep
weeny
##igot
##ords
inn
injection
shucks
requ
wander
##ldem
donchou
bap
bagg
##iring
meh
meme
stare
##ading
##adon
##odie
ford
kneel
##uro
##ittles
##edy
shel
chill
chitty
chloe
##ppa
tram
trop
##unun
mala
abba
myster
altog
downhill
##alia
background
herb
hercul
##auqu
blush
broad
coyote
orn
caramel
cleared
spu
sparrow
spigot
cris
willing
becoming
##osion
elf
turkle
swift
swords
##abl
##abear
##nyard
flown
flippers
slices
wagging
arn
arri
##ctic
mant
cattle
timeout
comfort
##ipes
loli
##ela
##elp
##anging
##angular
guava
##oles
##olved
waits
waitress
##ups
##upials
seuss
quacked
##ential
pez
peps
##eps
minor
intell
daylight
leapt
harm
undies
snout
squeaked
mount
strut
##avior
mats
matilda
##uffs
##uffle
cleo
final
whoopie
peeing
napping
cleaners
eggpl
sorter
lightyear
partner
grandson
##play
runway
snazzy
awawa
tomcat
skittles
dana
barley
barnyard
differently
firehouse
fireflies
wheeler
margi
unbelie
paras
sunburn
deb
defe
swimmer
poked
##what
toystore
daily
dapper
countries
foil
poles
bumpa
behavior
##iance
##mings
sooner
cracks
scraps
joined
cornmeal
loos
policemen
pappy
connie
connor
salam
prolly
hurric
groundhog
tummyache
##oodoo
pheas
sweating
recorders
baaaa
robbie
woodcock
crashes
##ettes
terrap
bandana
machrauchenia
johnson
ranch
randy
nutty
nutcracker
classmates
gasped
hooey
kevin
rhodie
voldem
lullab
lays
layer
##swick
splashes
tadu
india
compass
compartment
rosies
koko
switching
coughed
digby
burrow
explod
exploring
wildebe
baltim
racquet
diapie
meantime
hawks
antelope
woken
gramps
cocktail
torture
wrapper
freddy
alphabets
cubby
silk
stretchy
fail
shouts
pilgr
leanne
duhkuh
bravely
sewer
juniper
raccoons
pounding
thumping
eliza
enjoyed
squashing
squashed
helmets
connection
luckily
bombs
copies
copying
reindeers
bases
marsupials
ferdie
murder
##wahwah
shrink
hanuk
kaboomps
beetles
uranus
jerami
relaxing
members
solution
dialing
devon
cello
generally
examined
envelopes
equals
nuhhuh
cranberries
elastics
mummies
zoete
lori
rrrr
poisoned
poisonous
gazagg
flicker
##ology
argue
waddle
canoeing
humps
wrinkly
mason
footprint
thermos
tablet
floppys
unwrap
expression
affect
unbuttoned
imitate
wacky
joanne
modern
brunswick
chowder
amigo
radishes
voted
limb
scallop
scallops
scolding
karate
pishy
route
staple
twisting
pollen
vehicle
rubbish
memorial
considered
climber
ashtray
footsteps
kinana
chapter
bryce
cobwebs
kukabear
groan
advertisement
tangerine
heavier
hazard
hasta
canyon
challen
hartzell
responsib
fascinated
dallas
fierce
sundae
motorbike
doodledoo
extremely
plumeria
haystack
smokestack
cylinder
congratulations
eeney
lounge
oboe
ointment
tobacco
baggage
altogether
hercules
##auqua
terrapin
voldemorte
wildebeest
baltimore
hanukkah
jeramiah
gazaggers
aa
ace
aya
bion
bond
biz
biddy
cases
ded
ditch
eg
fum
fond
fans
fitted
gast
gert
gadiga
hound
igen
jig
jock
jody
jars
kan
kaz
lur
lars
laces
munka
nack
oot
pth
pand
sis
sump
tay
tcha
tina
tangles
uht
uba
vet
voc
varen
wis
wea
yow
yoop
yike
zat
zeek
##aving
##rag
##sky
##uate
##uzz
##iat
##iji
##not
##gor
##gna
##xes
##zee
##zers
##pin
##ogg
##wor
##mn
##mee
##mission
##cies
##cour
##cile
##fold
##bet
##ben
##bill
##bil
##bag
thip
whir
##anation
dowa
##erate
italian
tone
gosp
heman
heather
heating
anak
angie
angle
##eton
##ooom
##uttered
##igold
hav
##vere
nother
##ckon
##arre
##arrh
reverse
wank
##nad
lime
livie
##ldron
yeast
bait
baggie
bebe
beige
meggie
mellas
##ereo
##sto
##stone
##stool
##storm
stall
stoop
stress
stereo
##addle
getcha
##ams
##amoo
##imum
##urra
##urity
tackle
upper
knowledge
cham
juggle
sox
soil
trish
mak
maps
boin
hup
huds
hubb
huey
playhouse
##uma
##alis
##ality
herd
huhuh
drips
broth
briar
overhead
coast
cobs
##ilada
carving
carmen
clause
clang
sper
spice
spock
spine
spices
##uckle
##geon
nev
cramp
crumble
watery
grun
grip
prepar
buds
bucy
##ished
happiness
##ababa
##aburra
flore
slink
slither
hoy
hoh
hok
hob
mmwah
managed
boyfriend
cath
##beat
comic
scab
scra
scamp
##ipi
throne
##elor
hiya
##olored
option
meanie
diarrh
brett
prog
writer
smarty
minie
shoppers
schools
drawbridge
##umps
snuck
hates
hatches
throwed
encour
struck
afric
monst
monks
breakdown
walter
booby
boohoo
boobal
amph
penelope
fixer
adeh
adios
##ogo
naar
glow
teething
##ashed
theirs
sarabi
##sha
funeral
weewee
lighting
lightening
jumper
recall
hunka
foots
movement
##ugug
throughout
##achoo
runner
skit
touches
touchdown
peekamoo
ernest
idiot
marjor
marigold
unhunh
ideal
popular
foundation
catcher
purr
sandman
##whel
security
cami
blower
forgets
armor
peekaboos
foe
rounds
untangle
starve
owen
matters
giants
apatosaurus
bothered
##uhuh
zoobs
pookey
##ibr
##ounced
perform
piggys
acre
convert
cereals
##aults
melk
learns
hurdy
warmly
maxwell
pinches
seas
peam
busybox
drawings
robber
robins
charged
ruining
shortri
froggies
curse
packs
jammy
figuring
tongs
benches
desper
summertime
heartbeat
gasala
hooh
paddy
kev
minds
minding
calv
accent
maryland
macintosh
squeezes
capital
fairly
serves
served
thumbs
##psack
trunks
lemmee
whistled
whistler
smiley
oceans
reasonable
meter
gaggle
explode
explosion
explanation
balo
##iva
stirred
unlocked
laundrom
handlebars
toadstool
hyp
hyster
measles
artoo
article
antlers
buzzer
mcd
woowoo
hulks
##strom
beatle
oblong
tort
clearing
deeper
stamping
transport
loads
choked
puffer
gabil
ribs
##baby
##liest
director
stealing
boingo
corny
timiam
honkers
punched
##mez
yawned
created
##chyou
reminding
evans
booties
measures
temp
##eteer
snuggling
huckleberry
sparkle
tattle
bunting
posy
protected
yahyah
rinsed
proudly
borrowing
straightening
delivers
nibbles
carlo
frighten
knapsack
holidays
polished
nuclear
whadaya
##ailable
tonya
separated
cooperating
cooperative
title
spaceships
expecting
swimsuit
##cription
interview
##frog
teletubby
somersaults
rawring
speeding
sniffing
mosquitoes
leapfrog
chirps
##hiy
rude
##piece
croiss
decker
moomoo
creeping
##umyumyumyumy
hedgehog
sunsuit
cyril
kellogg
rangy
boinka
dragged
clippers
clippety
cauldron
goofed
origami
necessary
slammed
prettier
prudential
dominos
##oyoyoyoy
autom
aunts
audience
bzzzz
##ubububub
surv
unwind
seashore
afford
gyere
jaques
magnificent
flattened
variet
disguise
complaining
handkerchiefs
pippo
sudsy
romper
miniature
enchanted
enchilada
##heehee
concentrate
australia
jeremy
chimpanzee
eyelashes
aggrav
ooga
##laglag
dottie
indoors
gaudy
doggys
moistur
wawawa
gugug
zevenber
disturb
deetoo
yankee
stabil
arguing
adiadi
kookaburra
ravioli
yickity
bachelor
rochelle
akkor
dairy
olymp
anchor
twentieth
tweezers
strangers
musketeer
rooftops
woodpecker
investig
predators
bureau
meeney
mysterious
spuds
pepsi
eggplant
unbelievable
hurricane
cubbyhole
bizarre
gertie
jocko
pandas
sumpin
gospal
anakin
mellason
hudson
hubbard
diarrhea
african
boobaloo
marjorie
laundromat
aright
bx
border
basha
cymb
diss
dummy
dudud
ddoh
ep
ec
fut
fare
fest
fist
fitting
faint
gan
gill
gem
gree
gina
gambler
hans
hnn
ihiy
kk
kaw
kah
kather
kobi
lair
lumber
mand
mile
mooky
nash
nitch
nyah
pi
pure
pong
parm
pookie
que
ric
rop
ripping
rico
sush
sul
sque
tun
tugging
tiring
uf
vous
zipped
##low
##ev
##ego
##uine
##uah
##iant
##nth
##nuh
##han
##zes
##pat
##pth
##pace
##papers
##wy
##watch
##kow
##keep
##kles
##call
##bies
##broom
##jamas
thay
thigh
##reens
##inken
whaa
whacha
##anana
##anza
##erable
tont
gogo
heey
heated
ankles
##owl
##owo
##etic
##etown
##itee
##itlin
##eered
##ori
##orus
##oride
##lem
##leine
##lection
shou
shen
shady
shred
##arant
relie
rebec
wandered
canals
liver
limp
limit
donno
bac
bale
##ircle
didoo
##stein
stur
stout
stacked
stinker
##thas
likely
##adum
##aduct
##odle
##icircle
forms
##amom
theyego
gonk
upward
chea
chum
chem
chute
chrystal
judge
jude
atl
allj
alleg
howdy
trow
trike
troy
troopers
##unity
makin
outg
boa
boc
boar
boast
ahman
##thern
##eller
abuel
myr
butcher
moma
##uming
##ots
##otta
hermit
drummer
drooly
blup
blither
blocked
bras
overwhel
woulda
##aping
clun
clipping
sple
spik
spying
twine
sails
##dayou
##bern
offered
crump
crinkle
##ffer
previous
turbo
turban
swoll
##abad
##abble
##abah
##ryl
flea
flake
floss
sla
slate
host
hobble
puds
puert
turnips
##bees
agh
reader
comin
comet
##ult
##athery
scout
scient
scuba
screens
colby
sup
##ipt
loc
##eless
guda
guzzle
guarant
hibern
girly
##olve
##olic
##olite
fromage
opin
opera
quail
quidd
dialed
pros
surely
smock
nighting
minimum
leans
leanna
horiz
snitch
snores
hairdo
truckie
milky
stroke
picky
booga
boogle
##uffed
ador
##ocent
longport
longneck
##resso
##eaded
glee
glam
glide
glitch
##fted
madeleine
tees
doorkn
##aging
##ship
petrie
tile
jumpy
jumpin
partly
stuffing
grandm
hotter
adams
##achio
jobs
skis
barrow
barbell
barrac
peeka
badge
tickoo
firecracker
marx
marge
maroon
marmo
marian
unpack
chooses
rockrock
pats
kidney
kiddie
sunflowers
belie
creams
poach
##rope
##wheat
##rase
ending
thanked
hopscotch
camer
excl
hamlet
starry
banthas
fingerp
bumpety
##iously
behaving
chocolates
screwing
eyeballs
poof
scraped
chews
##amps
jogging
viaduct
perla
musician
specially
accept
magoo
magenta
roosky
##broke
##iggy
delivered
instant
owned
wallpaper
salami
prove
pours
spotty
warming
grounds
buckled
understanding
##ify
visitor
pinched
kicky
neatly
toothies
mirrors
raised
riot
robbers
##ension
cardamom
curves
bonus
foxy
packet
splatter
decides
sample
tongues
desi
jellies
##bury
##burg
pools
##ective
slower
##ikiki
poopies
nanana
gumby
##inced
##incetown
keyhole
pearls
sinking
improve
impolite
lindsey
kokow
zeke
squirts
digs
mamaw
cheerful
doodoo
ridden
racoon
bullet
bullets
cecile
clicks
zooming
broombroom
lids
merced
addition
practiced
crocus
crocodiles
newspapers
fredonia
frances
bathtime
restaurants
kimmy
rackets
upsetting
coral
fax
passport
involved
crept
pilch
opposed
lipton
pinchers
sonny
krusty
swingset
babysitting
sparky
aqua
##glar
smokey
sprayed
blueberrys
cloudy
dolce
searched
labor
magnetic
estim
statues
wombat
steamroll
wristwatch
bocka
sweaty
shaved
controll
miserable
multic
pottery
creek
weighed
travels
traveled
frightening
thousands
relations
pacie
surfing
munchie
safer
photo
provincetown
masterpiece
disappearing
studio
leopards
mathew
prayer
eager
hankie
speeder
bulbs
rrrrr
receive
arkansas
signa
tulips
nipples
tuttle
ottoman
sherman
fluoride
scraping
flintstone
orchid
experience
gunky
nugget
pshsh
styrac
folks
humper
busts
nicest
micros
gathering
slots
operation
operator
pacific
cushions
detective
stairway
grinder
gypsy
adjusting
snowsuit
delighted
pods
bubaly
kully
santas
##buhbuh
pyram
pyjamas
voting
aboobooboo
spiral
directly
zsipi
chunks
cummings
twisty
billygoats
bundled
australian
reef
szabad
##khkh
pronounce
transcribing
seashells
removed
coupons
tadpoles
bumbles
platform
blossoms
boofoo
rebel
champion
allowance
pistachio
toenails
infant
waldo
petunias
marcus
chameleon
ounces
goosie
canceled
screech
superhero
vaccination
acrobat
artichoke
tiptoes
rifle
uneven
bleach
brookline
leggings
strainer
convinced
espresso
chrysalis
fakir
minoru
challenge
gaston
##mnop
sperm
nevada
monstees
amphib
mcduff
investigate
cymbals
kawadee
katherine
sushi
thayer
heeygo
relief
rebecca
allegiance
abuelo
crumpled
swollen
puerto
guarantee
quidditch
doorknob
kokowk
mercedes
steamroller
multicolored
styracosaurus
ath
azal
bv
bim
bends
bled
bwah
cure
coor
cres
cities
davy
eggie
eensie
ff
fea
fen
fang
faced
gain
gul
gutch
hool
ich
imm
jos
kw
kap
kurt
kich
kik
lub
mee
mick
mour
mate
mets
mung
ning
ned
niet
ndar
national
ou
ox
oar
ple
pah
pix
pamp
punky
rus
ramb
rises
sow
soo
sons
sooey
symb
tic
tater
tud
tents
tasha
uw
uzz
vag
vane
vily
vrap
woop
wren
woud
yey
zipping
##tly
##axes
##ran
##rome
##rain
##rape
##leen
##yer
##sit
##nc
##nang
##nier
##gum
##hive
##hold
##zilla
##zema
##pach
##kl
##kken
##met
##mak
##miah
##cade
##fg
##fst
##fire
##vi
##bl
##bank
##bob
thy
##atin
##atives
thero
##inas
##inth
##inum
##inting
##inton
##anth
doom
doops
##erps
whatchoo
heb
##ism
##isies
##ooh
##eah
##eables
##itzy
##itude
weensie
isra
##igley
hare
hagg
haired
infl
intern
##aroma
reun
repa
reckon
##onis
##onic
##oned
wands
wancha
##ooklee
##nail
liv
lizzy
donchu
bauck
baggy
babbling
##chur
##erer
##stand
stacy
##thm
wantcher
putnam
##adoodle
##adryl
knox
##amic
##urally
taki
taffy
##edom
goodie
chimes
cheez
chandel
chorus
chooklee
pleaded
jugs
juices
judie
wasting
howling
##unct
##ills
mose
mock
moss
aband
abra
abuela
buttered
##opa
##ndid
##anded
##using
##uses
##ali
##icki
##ickle
drape
dripped
draf
drinken
bloo
blimp
blades
bri
brit
bride
brist
brake
overd
cos
coinc
copper
##ilot
##ilts
##ilities
carb
##ethin
clu
clare
clogs
spain
##idel
twerps
##anky
sax
sav
nebr
##eedoo
##eedeed
offers
craters
graz
##oses
elis
somethin
buzzy
turquo
swung
##iesta
thingama
##abu
##abul
##abra
flup
flipping
flutter
slop
slup
slided
waah
arctic
coulda
##ctagon
hofst
pupa
uhuhuh
##bean
##arti
comment
comics
##ulas
##ulation
kinduv
##atha
##tinguish
scattered
handful
sug
suzy
succ
helpers
##ipede
loan
logging
loki
lofty
guessed
hives
##olantern
waiter
##upa
sequ
dion
wowee
wowie
pran
prim
prices
veggies
##este
footing
##istent
bluebird
##aki
##phal
##oho
beddy
newest
doghouse
heading
draws
harrow
harps
harley
snive
snug
milking
squea
squigley
thrower
duckbill
##amacall
bitatin
mona
yells
storys
ambr
amuse
adadadada
fishhead
peeked
teh
greatest
yayayay
sawmill
thoughts
thoughtful
##shy
petra
petsey
tii
lightly
recess
recipes
hunter
markie
##acinth
grandd
emu
emph
emory
embar
startled
bagi
storeman
sket
skys
beener
erik
erika
colds
walkin
##ichord
ident
martha
chooch
patches
sung
sunlight
##rian
mission
neverland
poly
poker
sander
##ortre
##raft
daisies
babble
bababa
untw
excess
trem
highway
highland
bumpers
baton
sockies
boomdi
hangers
streak
doof
pooey
prescription
jacks
jackolantern
coolest
childrens
jokken
perman
permission
##life
pale
pails
trauma
##iggers
growls
checkout
deliber
seated
##aza
meowing
apartments
bubbling
parks
dears
toesies
sickness
paulie
beeps
darkness
pinching
panic
panett
beecer
beehive
phony
phrase
quieter
eleg
election
toothie
toothache
refres
reaches
godzilla
oaty
roadgr
bobcat
chariot
tubbie
##sons
shortening
kingston
taps
courte
bandit
shares
trickortre
splat
jammie
maddy
benadryl
nutr
nutme
edible
dreamer
##udab
rataxes
honor
honked
hurrying
footballs
rugs
hehheh
wagons
hooking
lux
freeway
lyle
tupper
smarties
horner
nanold
changeables
content
folder
catsup
scarves
nestle
fresca
frescade
##rof
ugah
resist
##rictor
smoothing
porpo
rowing
freckle
freedom
squirted
diguh
burrit
balull
extension
riddles
brighter
crabby
hyacinth
naturally
scrubby
spits
mcgre
gobbled
lara
woggy
scooper
dotd
duc
millen
gigantic
mallet
youngest
scooting
##aaaa
swallowing
##zees
speaks
puffs
avoid
available
faking
inviting
beeser
timon
octopuses
mistaken
computers
tentacles
floated
locks
warren
warned
golfer
absor
decorated
promises
##adadah
celeste
nickle
shaka
tuesdays
dumptrucks
explaining
unscrewing
dusty
buhb
kerchief
subtle
cheeped
copilot
chains
labell
basic
data
positions
protecting
ferv
filmed
yahoo
stretcher
static
clunkam
spending
rhinoceroses
straightened
hmmm
##agaga
jacyn
jacuzz
##ervation
tiniest
smashing
designed
astronauts
bunkhouse
misunder
narf
mult
milkshakes
cells
release
relieve
flora
verb
verbal
conference
flashlights
whaddayou
examination
porcupines
zackary
sprinkling
corrected
pasteur
nuhnuh
custard
linl
eagles
bih
dohs
insisted
firefighters
gobot
leaping
tikaroma
tucking
zachary
##bahbah
leashes
entr
meltdown
families
paddled
blindfold
typing
aiming
hopperoos
hihuh
geraldine
##ombom
##imples
crushed
unzipped
balanced
wrestling
gazpach
flax
flapping
confusion
sherlock
sherbet
blasted
fluid
cynth
lalight
reflect
cleanser
rented
charms
rattlesna
masur
masking
venom
stained
audio
weights
grandparent
entirely
cadabra
stubbed
patterns
periw
posey
wouja
introduced
hotdog
universe
discussing
braids
developed
sighed
drowned
brrmm
slugs
product
dennison
tantrums
binding
model
various
threes
muppet
shocking
constrictor
spirit
gurdy
zsupa
teensie
vinny
vinnie
frowning
bruised
swirly
defro
##ootdoot
according
traded
tootsie
montana
interrupt
jawas
tackled
twinkie
flights
rafi
tadpole
chimpanzees
sensitive
moaned
spectacle
humidity
dododododod
dangling
yuppy
shivering
reptiles
hubc
##washira
##washiraga
asteroid
dixie
shoelace
activity
tarantula
shriek
bashful
gnashed
latest
ngwashiraga
rearranging
cobbler
brewster
squawk
gumdrop
entertainment
predict
zinnias
swaying
smiler
technic
phonograph
western
innocent
arriving
intellig
looser
salamander
pheasants
exploded
bionic
vocabul
havarti
spocket
shortribs
yahyahyah
croissant
variety
stabilize
olympia
dissolve
eczema
ganoboo
roping
##keeper
tonto
outgrow
splendid
spiky
opinion
adorable
teeshirt
grandmommy
barracuda
believes
fingerpaint
microspace
athlet
feast
kapl
kichel
ningwashira
ndaroma
symbol
woudjou
israel
haggis
repaired
coincidence
nebraska
turquoise
thingamaj
hofstra
harpsichord
##amacallits
ambrose
embarr
panettone
roadgrader
courteous
nutmeg
tupperware
mcgregor
jacyntha
jacuzzi
gazpacho
cynthia
vocabulary
aver
ads
bart
bucky
cer
cly
cack
cue
code
cory
culture
dv
eiff
eels
fame
fert
fled
feat
faker
gush
gucky
gumpy
giles
gwhat
higg
iz
ire
js
jad
koo
kom
kers
keen
kipper
kyou
kelp
lum
lend
lous
mit
mmy
mime
mild
mowed
mgah
nere
nell
nix
od
oi
oom
obe
pes
pome
pff
pry
pem
pne
pont
pia
range
rins
roun
ridge
rakes
races
rambler
rups
sly
sash
sib
sony
sissie
tch
tame
tla
tumb
tchu
una
vald
vutch
vibr
wick
wally
wif
ying
yam
yac
zay
zur
##round
##ros
##rush
##ruff
##rider
##raine
##lit
##losaurus
##linda
##eor
##eys
##ection
##du
##dry
##dew
##yne
##si
##uled
##ih
##net
##nas
##nge
##gan
##gay
##gas
##game
##gue
##girl
##hook
##harm
##heart
##xp
##oir
##ost
##worm
##mation
##mony
##cream
##fer
##vv
##vas
##vation
##junk
thund
thwack
##oufl
younge
##real
##rent
##reds
##resent
##inny
whirl
##ani
##anemone
doe
dos
dose
doog
dodo
dome
dodge
doreen
##eror
##eroni
itching
torr
toffer
##ayee
whatd
whatie
gover
goob
golem
##lling
##llis
##llie
hedd
anah
anci
anky
##esan
##esque
##etri
##utauqua
##igo
hal
hag
hap
hail
inner
##idid
##idocious
##lene
thistle
shee
shal
shines
shattered
shuffle
rene
report
##onse
##enan
##asion
##nace
##naway
lied
areas
based
begged
##ira
##chet
##choke
##chrome
##stalk
##tham
##aday
##adar
##adab
##icill
##ication
getchu
getchyou
knif
##ament
##urning
tak
tac
taj
tailed
upright
##eden
sheila
goods
chub
chances
plast
plump
plural
plaid
soci
somem
tripping
reass
outs
outline
bold
ahh
ahem
##teria
abee
abner
abbot
moms
alum
altern
##oplane
##indle
gots
##andoah
##umonia
##alus
##icexp
hersh
drippy
drury
drinked
blonk
bro
brack
brio
brandy
##ilight
##ilist
oriana
orders
##apoo
##apen
carouse
carla
cartr
carved
clup
clinton
##ntable
sputtered
spindle
twitch
twilight
neater
offices
crink
criss
crude
critters
willary
beca
grav
griff
griet
graves
prem
turntable
##abo
##abug
##abesque
flips
fleas
flopping
slob
sloppy
slicing
waa
ware
archa
archie
arabesque
mayer
mayor
couldjou
ballgame
hoho
hova
pups
honeydew
mmm
cattie
sites
mua
tryin
ages
como
gret
housework
household
scouts
handling
cola
sull
sues
sucked
lok
loxy
local
loaves
lolo
##antage
##anged
gull
guguh
gusto
##olo
##olves
opa
ump
meanest
##tures
dik
dipped
pecan
##obile
breyne
openings
bluejay
watcha
piepie
##phen
##phone
smear
smud
smarter
mint
minus
inton
lex
leon
leigh
leana
dogfish
homely
leaps
leafy
##oori
shoving
sweetest
militee
squamps
trucker
stripped
eyi
talkies
matines
booger
amar
rober
##zza
##zzling
adoo
adds
advis
coupl
napper
nappity
gloss
glac
append
eggies
##ubon
blocking
##agah
##shk
##shit
##shove
supply
pettic
##nez
kisser
footed
mics
foodies
awa
skipper
barna
peeky
peekie
peekboo
erm
walkiet
firecrack
active
whitey
##icho
##ichich
marco
uno
##nessee
sounding
##mans
patio
patted
sunsc
feets
iceberg
icecream
cryst
poe
poet
poem
sandcast
##ortunity
toybox
camoufl
babaa
horsy
tennessee
pinks
excite
treacle
banza
raked
apu
apeek
sockie
caused
puzzled
hangnail
dooby
jenni
scrunch
##ibly
cornbread
perch
dumps
##lift
drydry
magna
rooting
sadd
bounty
humor
conce
concept
conscious
##iggs
toasting
feeds
mailing
mailtruck
seattle
pumping
clockwise
sales
salug
persons
display
distinguish
yumma
##ified
##ifier
##ifrag
pinata
##uitje
seam
seaanemone
beebee
teddys
baaa
godfather
circling
rubs
charging
runaway
##scr
quicker
shortcut
sprat
sprout
springs
curry
livingroom
packie
jammed
madame
sorted
emptying
goldrush
supercal
nutrit
descri
educ
dreamt
couches
meghan
forklift
wishy
gentleman
gaspar
hoohoo
paddling
crawly
annette
squirting
franky
norstrom
northern
accur
access
tuppy
dragonflies
pizzeroni
flatter
nannie
menu
chautauqua
##alkie
macr
chinnie
boops
sundays
sinks
fury
furious
furnace
granpa
feathery
koa
##rician
meteor
crosses
crosswalk
gagg
hundreds
stations
sharpened
rivers
riverside
whisking
burke
fanning
princip
baloo
trays
mamam
richie
##ivity
bibby
bibble
goosey
rubbers
vanish
bullies
bullshit
campfire
stirs
unlike
muffy
screams
chokechoke
hamburglar
upsided
attaches
zoomed
bothers
broomsticks
hygi
natasha
sleds
syll
scoops
mercer
screwdrivers
beanstalk
cockadoodle
eeayee
bushel
janna
caitlin
rectangular
##ussion
susy
obadi
##oleum
forests
mallein
springtime
stampede
attitude
ayah
transfor
franken
puffin
magnol
avi
countryside
wiper
steamy
failed
passes
killer
creative
arranged
opportunity
expert
temple
temetri
denice
warning
retrie
sonnez
roselinda
spongebob
kris
##hoohoo
budluh
bumming
##boro
shakie
shakoori
damage
council
healing
dusting
incre
tarsha
flavors
kerchoo
stuart
cabinets
scootch
##gran
rescuing
pitching
wired
brandon
##ialidocious
taxis
dormez
spreading
protects
beaks
giggled
shrinks
dougy
stinging
pedest
peddle
pedaling
pedaled
pediat
steamshove
wrists
amounts
jerk
jerked
jericho
relaxed
assuming
unicorns
junkie
reply
bunka
membership
weighing
purples
purposes
nibbled
schuitje
solo
emperor
relative
knak
munchkin
yoyos
##cats
whadju
equal
mih
artistic
cooperation
disappears
transmission
linoleum
dunked
intercom
mechan
terrytown
philharm
biob
hanky
insul
tortoises
programs
bawp
pinec
centipede
wuoh
sirens
lorraine
googoo
googalee
receipt
carniv
buffers
typical
indeedie
portra
advanced
advantage
babysits
crochet
prefers
preference
boulders
daddiji
creepers
tarts
bridget
sheriff
volcanos
glenn
commun
cookbooks
experts
nectarine
gallon
gallery
jordon
punishment
wobble
clippie
clippity
grateful
whispers
cuddled
undoing
image
rodger
spears
radiant
icicle
nyeh
include
gracefully
audubon
angus
conditioning
dopey
staircase
##rowrowrowrow
unwra
invented
invention
scanning
snarl
eyelids
simpsons
discussion
illustr
illino
imitation
munster
versus
tritan
bosom
response
textures
vrrum
vrrmm
fortnight
knights
bloomer
delightful
corky
pouting
##iyiy
smacking
disguised
fossils
constantly
characters
mercuro
romantic
gondolas
deaf
davey
routine
staples
tellyt
swirling
aguguh
baboons
issues
appears
dingalingaling
interrupted
jeremiah
nerd
oooh
yeehah
squooshing
coupon
rubbery
crafts
considering
aggressive
dimple
dashed
dotted
toppled
malt
blossom
humidifier
accessorizing
##nyumnyumnyumnyum
dreidel
injury
injured
rebels
reptile
dontchu
oystering
bombombom
greeted
shoelaces
activities
choosing
attractive
tarantulas
performing
talented
kakas
miaow
bronco
slightly
boxcar
boxcars
concerned
referring
collapsed
bessy
hinges
mortar
occur
wibble
leotard
lightbulb
phyllo
deserve
announcement
cockatoo
aeroplane
gergog
mikie
pavement
selfish
weapons
##dubdub
angela
crispy
lullabee
pilgrims
groaned
responsibility
aaah
kanobi
wisest
convertible
desperately
toadstools
hysterical
kelloggs
moisturizer
zevenbergen
nashapoo
parmesan
squel
tuner
shenandoah
shredded
bacteria
sturdy
trowel
boasted
slapping
hobbledy
horizon
glamosh
poachers
eagerly
azaleas
bvoom
crescent
fangs
hooligan
kwanza
lubrider
mourning
rambunct
uzzers
hebrew
reunion
saxophone
snivelling
amusement
skyscr
untwist
deliberately
elegant
##rofo
hyacinths
relieved
venomous
grandparents
intelligent
clyde
dvd
eiffel
fertil
jaden
pomegran
pembroke
pneumonia
pontoon
roundy
rupsje
valdez
yacht
zurg
torrance
hedda
ancient
ankylosaurus
##icillin
knifes
abbott
aluminum
##icexpialidocious
hershey
##ilisticexpialidocious
carousel
grietje
leigha
petticoat
walkietalkie
firecrackers
sunscreen
banzai
apeekaboo
##ifragilisticexpialidocious
supercalifragilisticexpialidocious
nutritious
upsidedown
obadiah
pediatrician
steamshovel
philharmonic
illinois
mercurochrome
lubriderm
az
auh
auch
auto
bth
bil
bip
bins
bord
bomp
ced
cose
caw
civ
cacy
dit
dame
dilly
daught
dangled
dung
deded
euh
eji
eject
fay
foc
focus
fiesta
gh
gut
gav
gasket
hips
hooper
icht
ivan
kas
kink
kum
kore
kist
kara
lally
lac
lana
lint
laser
lops
laughter
mh
mes
mck
mie
mast
miam
mending
nen
nam
nim
nav
nation
nips
niled
naming
nguh
nava
nkay
olly
ooboo
oodle
perry
panky
qrs
reed
rate
ratch
riddle
sked
siam
sym
sided
sissy
tis
tck
tum
tess
tump
tres
tren
task
trench
tilt
tiggers
ud
uke
vie
vans
vina
verv
vicki
ww
wut
wup
ward
wsh
xip
yon
ysay
zh
zing
zum
##test
##tling
##ao
##away
##aire
##rin
##rid
##rim
##rol
##rison
##lar
##dong
##diggy
##yp
##yoo
##sz
##sht
##uous
##uity
##ii
##iere
##ius
##ires
##ioos
##nay
##nem
##hogs
##xon
##zb
##zat
##zit
##zam
##zag
##zio
##put
##pink
##pbth
##oing
##oen
##war
##wen
##wie
##wab
##weet
##water
##woof
##mers
##mate
##made
##mire
##mured
##cke
##fur
##fbr
##falaf
##vir
##vane
##bite
##bush
##bler
##bud
##jar
##juh
##jkl
thi
thaw
##atry
##atta
##atient
therap
##rett
##rette
##recal
##inoni
whin
whas
whuh
##ano
##anch
##anium
dory
doody
##erie
##erad
##erts
##erole
tott
##inging
##ayla
whatt
goin
godd
gohead
goopy
heugh
hesit
##esth
##esiosaurus
##etition
##etzal
##isture
##oooo
ons
##itation
##itiki
##ompl
##uting
##igrette
haup
##orice
##sem
noth
noble
nosy
novel
inqu
input
##idges
##lele
ohohoh
shau
shaw
shaz
##aro
##arma
therefore
rena
reward
##onment
wana
##enist
##enade
##enoids
cancer
##ookal
##asis
liar
liana
lila
lijah
##ldon
bady
bazam
beware
##irky
##chee
##change
##chya
didju
##stle
##stood
##stract
stal
staff
stopper
##ads
##icit
##icia
forced
knit
knieve
knuckle
##amn
##amee
##urance
tacky
upp
uptown
##edure
sheba
sheldon
goodnight
chur
chutes
chubb
chuk
chacha
platter
placing
placed
plaza
plesiosaurus
jup
jull
juic
atmos
sole
trist
tracing
tracy
mau
mare
maure
mailed
##illiant
outing
bolly
bogey
##allic
mover
mopping
moham
moisture
abl
abah
ability
ababab
abababa
abstract
huggy
hupple
hullab
##ophy
downy
downward
##anders
##celia
mommys
##alight
##alaka
##alayo
herbert
bigs
##aup
drome
drama
drapes
##byes
blot
blaz
blizz
blinked
bluish
fraid
fruity
brat
bray
brigh
brib
brok
brilliant
overall
dadadah
cogna
wouldju
##ilee
hmp
orbit
ordin
ahah
whyn
carib
carney
carwen
clopp
##ntime
spun
spiny
twas
sag
##ures
neg
crit
crock
crang
crate
crater
crops
cranes
willow
groom
grump
grub
grunt
prevent
##osophy
teller
buggie
buggies
bulk
buda
bugging
buggle
swatter
werew
##abod
##aboom
##abelle
##ockis
hass
flik
slugg
slosh
sliced
wazit
arts
argh
##ggin
##gger
##ggly
mayflower
##emburg
##ctuary
##ushy
##ushush
hoow
pud
mmd
manual
manche
muggy
agaga
agatha
comum
comets
greedy
##ulate
scat
scen
suz
suess
suzie
hadda
lov
loley
##elt
##awawa
guided
fizz
hiked
##olis
##olar
##ahockis
opt
umm
talula
##upup
selection
##tured
quetzal
holders
diagon
divers
pey
pepe
peatry
breather
prance
priya
prior
veil
useless
##isto
##isticated
##akie
sleepers
##phere
##phones
##vence
##peh
chex
cheery
##queak
##epend
mines
minne
birdhouse
leh
leoni
lefty
dayton
league
horror
harves
harri
undress
snor
snoop
sneaked
underman
greenish
workman
workben
envir
struggle
exit
exists
exxon
talker
monitor
mater
stormy
boogie
booba
boogers
amara
role
penises
penicillin
adject
adior
adeded
adenoids
coupe
dina
finch
finest
glea
glim
glows
cleanest
closely
cowgirl
greatgr
shallow
##ubu
blockbu
##shed
function
earn
peters
hunk
hunts
parton
rossie
##aco
##acular
##pleton
footsie
airline
washy
emm
snappers
stoplight
bagah
snowmen
stored
musta
buttery
barked
erases
baddy
walkwalk
towed
acts
wheeling
mara
margar
marlin
moneys
unicycle
uncon
unstick
uncles
rockets
##mance
buttoning
crayoning
kidnap
cheesecake
##rior
debor
rollers
##ieland
swimmy
bower
purim
posters
probly
rabber
rabies
rabbie
secure
toyota
blackbird
##bbell
hopes
tonka
wholewheat
lunchie
quacking
horserad
dribbling
drifted
foal
foster
politely
wonderland
lappy
starch
starter
banbury
ethans
raay
rails
##ization
lioness
painter
painful
gib
batty
battered
apf
##atory
chrah
farms
farmhouse
##sentially
screwed
mooth
mooshy
presenting
wordless
mussels
zoos
poos
circled
preser
engaged
scrapes
moonie
moonlit
violen
perk
dumpy
dumpling
musicians
sheepy
species
pappa
pactagon
teaches
beaches
conta
growth
growled
checker
dingy
delay
delph
owners
walla
wallaby
pumps
melody
melanie
provence
mira
warms
##umbu
mixture
satis
disease
visa
snakebite
hammerhead
panama
candybar
bellies
phoen
pharma
##lined
##ulafalaf
elena
reference
shutting
riva
barns
oats
##ambling
bobber
charley
surprising
meatlo
clapped
shortcake
bouncey
tapir
lilac
current
bonking
ursla
sharer
tricking
kalik
jamboree
madi
goldy
goldbug
scratchies
edwin
tyke
tylen
rattly
wishoo
payday
hooves
##burger
crawler
voce
announced
calves
lyon
costello
accompl
smartie
gook
##iko
poopsie
nanna
nananan
maryann
menjunk
noninoni
##idently
compare
comprom
towns
daring
dumd
dumbbell
merrywe
peeper
gardening
gordy
series
##easant
scarlet
nestles
cashew
cliffs
imperial
impatient
shelley
ugliest
lindz
resear
resident
reasoning
switches
collage
metrecal
metallic
yuckies
rowr
freshly
shawn
frequ
burly
lowa
wildflower
balog
##ivan
bibs
doodoodood
bulls
brightly
crabbie
worrying
stools
cecelia
popper
arthurs
bahroom
handlebar
attacked
sophisticated
brooms
nativity
aching
syring
buzzes
mcpink
scooped
merman
beanice
dull
dukey
peels
practical
helicopters
millet
janie
strollers
causing
suspect
macaronis
wahwahwah
youngsters
alpha
ayay
ayaya
##clop
transl
stripie
gerbil
geranium
flashy
puffy
texaco
regularly
silky
thirtieth
essentially
wipie
steamer
boinga
boingy
punchy
candid
candied
yawns
creation
creaking
abcde
ceilings
evidently
throated
exped
passey
islands
locket
tempeh
templeton
warbler
warrior
flex
retired
rosey
brianna
promenade
snuggled
videot
caboosey
krite
krissy
beavers
shakers
rexy
ashamed
casserole
knotted
babysitted
sparkling
woodsman
trailers
boobooboo
counters
unscrews
jaylyn
dustpan
burps
burping
distances
##hyosaurus
weathervane
subways
pecking
martians
planetarium
thinner
massaging
postc
postage
posing
doris
studying
fellows
ferocious
murmured
giggly
freighter
scramble
cradles
tightened
conditions
##unged
##ungung
grouches
lawny
dickie
lasso
sanctuary
assume
repacked
represent
contrary
collects
narwh
blinks
##uedo
recognized
solved
opossums
surfer
thunderstorm
kenned
verse
confir
confetti
photos
photoc
photograp
sailboats
toothpick
isabella
##quita
masters
pupil
firefly
transmitters
praying
wrecking
liner
linus
dungeon
interact
##choochoo
philosophy
kristin
ostriches
insist
insurance
explorers
jeanie
jeannie
speedboat
sniffles
tikitiki
stegas
incredibly
scribbled
cavity
entered
peacefully
pita
pits
##hias
antennas
##haha
velvet
smushing
homesick
clams
cheeses
pentagons
sheds
crusher
vineyard
##gengen
##cetera
antennae
gazing
teetered
##essori
possibility
lumps
hedgehogs
bossing
blastoff
tenderheart
cuddling
lalalight
repeated
dragging
orchard
##essional
commere
##ologist
snoozing
nectarines
wobbles
wobbled
chirping
eastport
styrofo
formation
apricots
morrison
rodents
wading
yackity
agreement
agreeable
squiggles
squigglies
organize
jewish
khan
rumbled
tingalayo
holler
unplugged
unpleasant
##udududud
autob
dewie
hoopla
topher
crusts
catalogs
suspic
repairing
genuine
genius
surround
boiler
privacy
mungi
tidily
ahahahahah
parachuting
respond
lifeguards
chchchchch
galact
clarabelle
graduate
scorpions
kufbr
pinga
pippin
andreas
elijah
constant
##agagagaga
steeple
bwab
licorice
filene
paintbrushes
corinne
cumul
teenie
zigzag
cheddy
savings
grrrrr
foamy
behaved
whatchya
whatchamacallits
montessori
hawaiian
noontime
thorahockis
##arararar
divide
vehicles
unhook
hummingbird
suggestions
dimet
rumpus
ashton
process
procedure
pengams
footstool
skillful
spectacular
accessorize
dododododo
semicircle
##googoo
hemlock
dontchou
specifically
etcetera
larkin
pistol
toenail
dixieland
petunia
performance
chameleons
vrumf
broncos
applau
unsnap
uncuffed
concern
gumdrops
collapse
zinnia
gourds
psych
wibbled
noisiest
shmutz
cherioos
maniac
leotards
lightbulbs
skimmer
phyllis
tablespoons
destructo
demonstration
european
nightmares
bjorn
senor
umyumyumyumyumy
request
wandering
trophy
tropical
blushed
ornika
mantis
failure
shrinking
affected
wildebeests
fumes
kazoo
lurkey
##world
chamber
grunts
preparing
florence
slinkies
hohoho
hobby
encouraged
hypnot
buntings
automatic
guguguh
epis
future
greek
mandrill
limping
cheaper
myrna
hostas
cameras
exclus
accepted
improvement
pilchert
received
pshshsht
amphibians
fender
ichabod
immense
meem
tudod
##nangnang
doopsie
chandelier
abandoned
bloody
cosmos
elisah
permanent
nutrition
##udabudab
luxemburg
nanolds
dotdot
millenium
misunderstood
entrance
reflecting
dododododododo
hubcap
irene
lumiere
lousy
neresh
nellie
pesky
sonya
vibrating
##rosse
reassuring
cartridge
crinkly
gravity
griffith
sullivan
intonation
amaranth
glaciers
camouflaged
excitement
describing
macrame
gaggling
hygienist
syllables
eeayeeay
transformer
temetrius
pedestrian
portrait
tellytubbies
rambunctious
pontoons
auchela
civil
daughters
focused
ichthyosaurus
lacrosse
lopsided
mckayla
miami
navajo
reeds
skedaddle
siamese
trenice
ukelele
vinaigrette
vervop
xiphias
yonder
##jklmnop
tottered
goddamn
heughie
nothin
shauna
shazam
stalked
knievel
chukah
atmosphere
tristan
maureen
hullabaloo
fraidy
brokken
cognac
crangrape
manchego
minnehaha
harriet
workbench
environment
greatgrand
blockbuster
margarine
deborah
horseradish
violence
phoenix
pharmacy
meatloaf
tylenol
merryweather
syringe
kennedy
photographer
styrofoam
kufbrim
ack
aish
aub
auth
aki
aerial
ajump
aiyaiya
bor
beed
binky
bikiki
cic
cine
cuff
cable
cuse
cummer
cept
dank
dach
dents
dzen
dense
dared
dza
dirk
dimples
eu
ez
eben
efg
fain
fate
fana
fenas
fists
falaf
gat
gna
gad
gia
gany
gja
gelf
gene
gili
gutter
hou
hom
hil
hrr
hilar
io
ik
irr
ickle
iori
jr
jz
joo
jal
jama
jog
jimal
jertain
ky
ks
kon
koc
kumb
kier
kya
khoo
kinks
kirk
lop
lack
lour
lorn
lash
lacing
lending
midge
mumble
midd
micky
mows
mumps
nus
nate
nub
noun
nord
neek
oc
ov
oow
oys
oder
oiled
oguh
oxy
ogah
oigan
ogre
ollie
poh
pike
pity
pinger
pogo
qr
rig
rome
roug
ritz
sere
sed
sian
sire
sinc
sipped
summ
sitters
tet
tink
titt
tang
tsh
tangle
tugged
tico
ul
uk
uhm
uah
ugu
uhmm
vow
vav
viper
wit
wid
wod
wop
wong
wart
wiff
woebe
waddy
wolves
xy
yab
yip
yoke
yees
yager
yelp
zipp
zamb
zhoo
zwie
##toom
##toe
##aig
##awn
##ration
##roe
##radeh
##lou
##lak
##lts
##liddle
##ec
##ean
##eim
##emy
##ecut
##deh
##dale
##dio
##dges
##yed
##sat
##sch
##sand
##sary
##uz
##uating
##uated
##nels
##gain
##gang
##gage
##gog
##goy
##green
##gaga
##hou
##hot
##hip
##houses
##xed
##zis
##pid
##pal
##pass
##pike
##point
##pje
##okes
##ova
##woo
##wali
##ket
##kna
##cred
##ciest
##cuffs
##craft
##fis
##feed
##feet
##folk
##vo
##vitch
##vils
##vety
##bm
##bv
##bin
##bes
##bid
##bun
##bach
##bages
##bund
thou
thine
thief
##oum
yous
youth
thea
theet
theod
##rer
##inart
##inate
##inally
##inction
whe
whit
doke
doth
doob
##erd
##erne
item
itches
token
##ayou
##ayah
gos
gop
gore
anoo
anon
##owsy
##esy
##eses
##esis
##isiosaurus
##isinart
##eau
##eads
##ito
##itas
##itos
##itzer
weede
issa
##eey
##igu
hab
haboo
##orf
##seat
##sell
##sequ
noell
noki
noggin
inge
infect
infle
##idy
##idoo
##idar
##leh
okie
shw
shear
shoop
shard
shane
shale
##aring
##arse
##arrr
reins
recept
wanno
##enos
##enters
##enhat
##encies
##naire
donnie
dondio
bally
baugh
mered
##chuck
##child
##stain
##stled
sto
stard
stumble
stalls
stolen
##thea
##thus
##thest
rightside
##aded
##ados
##odont
##icate
##icans
forked
format
##imate
##imbo
##ura
tain
taper
tapping
tabs
uppa
sheesh
chom
chard
chach
chuh
chipper
chuffy
chika
plun
plank
plunged
juh
juven
jules
atlas
social
##ppost
somewhat
trout
troop
trud
truro
##unci
##unction
sayin
outh
outlet
boils
boings
bojar
##alli
moish
moira
comed
justine
abf
abre
aboom
abuse
ababye
##wny
butta
butchy
ala
alf
alotta
alidar
##open
downs
downer
##lypt
##usion
##ussed
##umed
##otic
##otash
##aline
##ainai
herds
herring
bigbird
dring
droopy
droid
dropper
drowsy
bliss
blunk
frames
fridges
brim
brass
brroom
brring
brmm
braid
brooom
briggs
overl
overtoom
##tying
cog
core
##ilty
eatin
orient
##aphone
cardy
carly
clob
clamp
clomp
clonk
maked
spam
spick
spies
spool
spends
spikes
twister
saag
sabr
saggy
sabers
sacred
nein
nepal
##eedah
##bermans
crutch
prey
needa
needing
##osa
##osition
elthea
sombre
buenos
swash
sweden
switzer
thingies
##abel
##abol
##abump
##abla
##abuga
##abberg
##ongous
flirt
flied
flocks
flabberg
slith
slings
slopes
slaves
wak
waked
wailed
waggle
armo
hogs
hoarse
turnpike
mmg
mmoo
mmguh
catle
categ
##beans
asian
asphal
assem
##airodont
agr
agiy
agagaga
comee
comple
##uls
##ults
##aths
scand
scent
scored
scaly
scores
handcuffs
colog
colette
column
lover
lovie
##eetie
thrum
##elwe
##awo
##awk
##awbers
##angered
guards
guggies
guga
gugah
guern
evergreen
fiend
hiy
hiho
pico
piccol
picerne
##oong
##aura
beards
umhuh
girlfriend
quich
quills
diwali
pees
pebble
peggy
peppy
##obics
##obello
wows
bret
brer
prm
veggie
##eelee
##eeleelee
##ested
fooing
footer
foofy
##istant
wraps
wrinkle
##akalaka
##phph
##phony
wonders
smidge
cheque
cheche
chefs
##quis
##epen
mina
miner
birdfeed
intr
levers
lewe
dayo
homemade
leaked
hearken
shopper
shoji
sweeter
sweetlife
harper
##endous
hating
squeek
##akeet
truckbot
milkie
underarm
greenwich
enemy
enthus
biter
bited
strugg
stranded
eyah
eyaugh
afar
##angel
exist
exagg
exchange
execut
talkaphone
monsey
breakable
storage
storks
waltham
roamed
penney
penneys
aded
adop
adri
adund
loveyou
puller
clevel
##ocken
##ocrat
wooo
wooed
##ogen
fallin
wearin
nao
napped
yellowstone
gliding
glitzy
glocken
hardware
sarlak
##ubs
sawed
oohoo
##shop
##shund
##shakalaka
funshine
funnier
weeble
earliest
petre
petted
tiff
flooring
jumprope
recent
childworld
particles
rossly
buss
busiest
##plow
##plpl
##ewood
washable
bathios
felled
movements
##ugi
##ugud
micawbers
foodie
##pled
awoo
snowplow
skat
skins
skoodle
skippy
buyer
buttercup
bargain
erine
erup
badoop
badder
ticks
oopsy
walkers
flowing
flowed
ida
marri
marries
unhoo
unkn
untying
parades
parakeet
pope
crayfish
buttoned
patrol
numma
sunk
sunken
##rib
##rier
##rified
deers
debra
brushbrush
belch
creamy
bowel
catchy
purring
crybaby
ringo
sands
rabby
flyer
endangered
blackberry
blackbirds
##bbed
mousey
dai
camps
blowed
settling
forgive
bababab
##cester
rounded
polit
treet
bandy
owies
raar
raven
railing
painters
batting
apes
socket
rested
restless
##kini
garf
boomed
boomshakalaka
dressy
##ciw
josephine
presentation
fusel
crackle
holey
joins
joining
joann
##ouncing
vivi
corney
cornfield
peru
persey
##ddabu
blankety
learnt
sheepdog
magee
sadness
##brr
ceremony
humding
humongous
conson
consequ
steers
toasts
necktie
dingle
dingdong
delete
delvin
instance
engineers
saloon
salvation
melvin
meows
ooey
personality
dancey
farthest
hurries
fewdin
warmth
##umba
motors
maxine
mixa
##ptly
beeped
disag
soupy
soups
darkest
pinball
pinno
##llows
pandy
panty
panting
playdohs
kickball
paprika
papitas
beeu
phill
phase
peabody
gentil
hideout
tightrope
godiva
triangular
rubad
hippie
woodchuck
straighter
tubs
quicksand
questionnaire
froze
sprang
poohbie
curds
bonnet
bellyache
laughy
bandor
wiggler
machairodont
squeaker
foxboro
medical
lando
splitting
splitter
splosh
decent
figaro
##oyd
owlet
hearted
edwards
edelwe
##udu
lada
tybee
terrified
crackerj
tooted
pastry
davidal
planter
planner
hooting
##burgen
carriers
carriages
keppie
rhonda
anniver
squirter
luciw
calimbo
franks
norwood
norfolk
tuv
nani
indiv
indigo
independ
changeable
gumga
dirtier
chai
chapped
capt
competition
ruffle
darren
darlene
folds
cuppy
cuisinart
peeped
peepish
serasponda
exception
bunches
worlds
scarce
scariest
cliffy
fresco
granary
linds
respect
residents
fez
feige
##ettios
collaps
collette
collision
coughs
spaghett
afternoons
rowf
saturdays
wintertime
potata
digada
fanny
fanok
cribs
registers
grams
mami
cheering
bibi
salted
swishing
rubberband
brittle
queens
doodoodoodoo
extended
neighing
bulldog
campers
stirrup
##ressor
muffs
bornean
spanks
spankings
cecil
billed
chugged
felsz
hawkins
guitars
sophies
masher
broomstick
cartwheel
scrubber
desks
symp
sylves
buzzzz
mcc
mercy
toothbrushes
vacuums
cabs
cabbages
sethie
bumblebees
duster
dukad
wolfgang
cockles
telemark
beaters
desserts
janice
janitor
shelfs
strolling
susans
toilets
earthly
mallets
wahwee
aygah
scoots
scooters
mondays
transfer
brocco
stripey
toughy
flashes
puffing
gabor
silhou
ava
avon
##calypt
steaming
jarret
ville
villages
carpenters
irons
ironwood
timing
timber
lollies
awakened
octopusagon
tankers
frosted
creme
tiptoe
darlings
breathed
bracelets
duhguh
expir
expired
exposed
rhinos
locking
measured
tempt
warrah
stomper
retire
yoko
promptly
##lished
thumpkin
ashore
bettylou
booboos
chatauqua
jays
utter
utica
dwath
dusted
kathleen
electrical
zeroes
subscr
hippopotamuses
tatle
##mede
copied
##grown
pecka
depending
depressor
tamer
wiw
beautyful
bayberry
kabob
massive
posts
postman
basking
sledge
whatsat
pilots
teaser
fern
filter
testicles
guhguh
ponds
poncho
escapes
escaping
dubba
shrill
patiently
property
hanke
##agagaga
deliveries
##ooshy
stingy
niy
urf
languages
dicky
suggesting
assistant
damned
ronny
thicker
roasted
astronauta
miso
narth
dabby
##iderate
frisk
friskie
firetrucks
scholar
seekonk
devasion
surfboard
thundercats
confuse
munchies
yoye
nuwe
rushes
whadid
bitte
pipit
dumbest
volunt
##ukuk
stomped
pupils
pathway
vaseline
dropsies
toasters
husky
scribbling
##xyz
dunking
virus
##jeans
##iyai
philipp
bikini
raptor
jeanne
bawbo
controls
ballerinas
sculpin
leaped
tucks
##ucting
##ucted
threads
dwarf
destruction
pituh
chives
sacks
patchwork
rudolf
typed
hydrogen
portobello
##chtcht
velvety
celebrated
sigs
instructed
tutter
##ombomb
crushing
balances
blending
##umyumyum
akmak
fauna
gaze
tsup
##fleur
bridg
bridle
flapped
considerate
seaweeds
association
hatchet
continued
repeating
command
unbuckle
reflex
ignoring
punish
punkin
punished
bakers
quilted
prickers
printed
shaunathon
pshoo
styled
morph
morris
meadows
rods
humpback
originally
slamming
wontcha
kerplat
nicolas
##ommus
nuns
nunu
winking
winkie
replies
replaced
operating
detail
duplic
lugging
survey
##weewee
grinding
destroying
affection
redsox
teacups
bonniemae
cooties
foul
illness
imitating
jiggling
munga
chomping
bosoms
ahahahah
teased
blooming
produce
production
gluckie
joannie
galomp
roland
varju
hexagons
twirly
twirled
graduation
congress
darting
tendency
moths
bugger
sweatshirts
lenny
limited
molars
spirals
professional
directed
arrangement
included
bweeleelee
valerie
zsuz
maurice
molding
quinn
possums
dearest
pishie
##know
bruise
bruises
bravest
speedy
management
agugug
agugugug
##ootdootdoot
rhythm
bursting
unloading
obstacles
europa
omelet
szepen
hauling
trading
sabore
officially
pronoun
pronunci
adahdah
speckles
interrupting
harvested
victoria
poco
zzzz
thorny
shreds
maiden
twinkles
grinning
divine
dividing
squooshed
rafael
memorized
muttered
##spiel
toppenhat
platyp
moaning
climbers
##hmmhmm
amongst
recycled
dreary
gauze
semester
doggone
bryan
exhibits
zevenburgen
cobweb
charmingz
egyptian
asteroids
citus
citiz
etch
naynay
dowel
anxiously
knittings
bogack
waldorf
argued
remained
suffer
marcia
attracted
gnu
irma
kaki
latin
ounce
persu
ruhe
##eledeled
rearrange
dadadadadada
successful
adadadadada
appetit
appetite
superheroes
artichokes
tiptoed
effects
binkies
bessie
gourd
hinge
lamppost
mortgage
shushu
revea
revoir
wannoo
chingao
swooped
praise
wriggly
wriggled
boogies
destructive
##jubajubajubajuba
aerobics
gergok
keecha
paved
rustle
weapon
##boopboop
kneeling
trampled
swifts
arnica
arnold
mantel
defec
defeats
lullabies
burrows
pilgrim
connections
responsibilities
egret
egads
taylor
weaver
florenc
hobbit
scraggly
progress
recalled
robinson
survive
survival
unwinding
aggravated
gugugu
festival
ricotta
##evil
##evos
##owoowoo
limits
atlantic
overwhelming
overwhelmed
clunking
clunked
pickyaup
controller
signals
signaled
pyramid
pyramids
aboobooboobooboo
coordin
matey
mungani
pleisiosaurus
pixel
pamper
russell
vagina
internet
drafty
bribe
savanna
sugary
succotash
sequin
prancer
granddaddy
sketch
identify
polyphen
trickortreating
porpoises
burrito
absorbing
buhblah
fervop
clunkamunk
rattlesnakes
periwinkle
productive
defrost
technical
athlete
kichelous
thingamajigs
ceramic
cackle
higgens
kersz
odel
rinsing
wifie
zayre
gooba
anaheim
sheeba
shalom
##adabadoo
##abugabug
archae
gretel
umpapa
coupla
appendix
barnacles
sandcastle
saddest
salugos
principal
cockadoodledoo
magnolia
aviary
retrievers
mechanism
biobows
insulting
pinecone
occurred
squelsh
fertilizer
pomegranate
biplane
borders
cedar
gavin
kistament
miepje
symphony
tumpty
##diggydiggy
therapy
##ookalookal
julliet
juicie
mohammed
blizzard
ordinary
cloppety
werewolf
slugger
suzanna
lovins
options
peyo
materials
gleason
unconscious
perkier
contact
lilacs
accomplishment
nanananana
research
candidates
narwhal
photocop
stegasori
autobot
surrounding
galactica
applauded
hypnotized
episode
exclusive
meemaw
griffiths
civilized
greatgrandma
auburn
author
cinema
cummerbund
dankner
dachshund
daredevil
eucalypt
fateh
fenasaur
falafel
ganymede
houston
hilary
irrit
jrba
jimalong
kumbayah
kieran
loura
middles
nusrat
occup
odert
oxygen
rouge
serena
sincere
wodney
wiffle
woebegone
zwieback
theetje
anonay
weedeater
infected
shears
meredith
juvenile
moishy
oriental
sabrina
sombrero
switzerland
flabbergast
armoire
asphalt
cologne
guernsey
piccolo
quiche
birdfeeder
lewegie
struggling
executive
adrianna
cleveland
glockenspiel
unhooked
unknown
campsite
fuselage
humdinger
fewdinee
pinnochio
edelweiss
anniversary
individ
feigele
fanokie
sylvester
dukadoong
telemarketer
subscription
nuwevah
zsuzsa
pronunciation
platypus
florencia
polyphenol
eucalyptus
ave
ald
aiyai
bis
bic
boon
bbb
bens
bund
basses
bwa
bern
bido
cus
cso
capes
cym
cuffed
dj
dill
dand
dath
duff
drench
dips
duffy
dread
dju
eck
ech
esh
eeh
eared
fink
fac
fumble
filing
fenders
fiction
fowl
fugi
git
gid
gand
gump
geh
gale
gng
gander
gilk
gagagagag
hight
hind
hray
honda
il
ig
ipan
iris
izza
jur
jive
jab
joop
jag
jets
jinky
kere
kos
koop
kep
kend
kla
kerry
kho
kics
lah
lace
loss
loman
leek
lones
laws
lmnop
mink
mend
mitch
mrow
mikes
misc
mitz
nd
nig
nook
nnd
nast
ngg
nuff
nard
nula
nipped
nipper
nipping
nadada
nesting
ndah
nesh
nainai
oke
ost
oty
oah
omp
oma
oily
oiling
oda
ozzie
pith
pab
pag
pomi
pach
pors
pikes
posh
pounce
pounced
pimples
ris
roney
rup
ritch
rumb
rips
risk
sum
soop
sought
sima
samp
sif
sooper
tas
tep
tuff
ttt
tso
tund
tamed
tisha
uu
uter
uoh
ueh
vr
vent
vicky
visha
vvv
vadar
wump
wunch
wwh
woe
wilt
winger
wolk
wuba
wuffle
wabble
xant
ys
yan
yuk
yaddy
yonna
yenta
yknow
zor
zen
zed
zap
zel
zup
zac
zuh
zizz
zena
zippers
##top
##tra
##teller
##ails
##aeey
##ras
##run
##rose
##rab
##rumm
##lad
##lain
##lman
##licky
##ladeh
##eb
##eer
##ext
##det
##dig
##dies
##dish
##dney
##dler
##dress
##dination
##dawe
##yan
##yce
##yung
##uf
##una
##uese
##uces
##ucing
##ien
##nan
##nkey
##nigh
##nment
##noodle
##nichi
##gun
##gall
##gus
##gal
##gery
##gree
##gate
##gled
##gonna
##gachoo
##gawk
##hen
##hie
##hand
##hart
##horn
##hoh
##hale
##zi
##zed
##zos
##poo
##pah
##pired
##pipes
##oz
##oys
##oven
##ointing
##wo
##wad
##wur
##wick
##wap
##woman
##wald
##wooshy
##kk
##kkad
##mite
##mouth
##muffs
##mobile
##cou
##coop
##copes
##cussion
##fi
##foo
##fice
##fier
##falls
##fgh
##beth
##bong
##bils
##bwuh
##backs
##jes
##jum
##joe
##jory
thins
thud
thirds
thwap
##oul
##oucester
##atus
##atum
##atem
##atore
##atma
##atown
##inx
##inery
##inary
##inette
whim
whach
whey
wheez
##aning
doong
doable
##eroo
ittie
tost
tond
toky
toiled
topple
toggle
toodle
whatchou
whatnot
goy
goed
goby
gora
gobb
gomez
heff
hector
healed
anat
anan
anana
anger
anto
anesth
##owi
##owling
##esa
##etically
##etjes
##isie
##isco
##oove
##oomy
##oods
##ooges
##eady
oncom
online
##iti
##ituate
weint
weathered
weesh
##omen
##omically
andi
##utions
##igated
##igrain
##keley
haf
hack
hares
havin
hagah
haloo
##oro
##ories
##orio
noct
nods
noph
##idah
##idoop
##idious
ohs
ohhoh
##ckles
okap
shea
shind
shack
shab
shoom
shipped
shmon
shocks
shaves
shunted
shivered
shcoop
##arch
##ario
remy
regg
reuse
reject
revers
revere
##ono
yourselves
##ensed
##enbach
canvas
##ooks
##ooking
##ookiet
##asus
##assed
##asia
##asper
##asona
##asaurus
##nah
lione
liable
lipper
##lden
donk
donisha
doncou
yeap
seeking
bact
babo
bever
beeth
beers
##irting
##irial
meesy
##chum
didj
didger
##sty
##stop
##steen
##stress
##stuv
stit
stim
stead
stash
stalk
stinger
stowed
styl
stiles
stagg
steered
stooges
##that
##thol
##thole
righto
putter
putchur
lookee
lookie
lookout
##inkles
##adin
##adod
##adaga
##odian
##odootd
##ict
##icals
forb
formed
##amation
##iman
##urd
##urnal
wither
takin
taunted
upd
uph
##ittee
##edes
##edly
##edral
chg
chis
chab
chup
chummy
chocks
chico
chlor
plod
pleep
plumb
plym
plowed
plonk
plows
juman
judges
notions
wasted
soa
sott
sojour
sobbed
whoah
whosat
whozis
allowing
allergy
##ppin
tral
traw
trix
trous
trident
trusty
traged
traced
##unty
##unning
littered
macy
malc
maint
maids
mako
makh
mazes
maisie
malden
outlets
bot
bore
bobble
boler
boppy
boggies
bosa
##dya
##tery
mozz
motr
mocc
##ellane
##ellations
aber
ababa
abubu
wells
toop
huf
hucke
alp
alib
alala
alvin
alalala
##oph
playmates
playmate
gotchya
##cey
##celain
abouts
##usoe
##uman
##umph
##umatic
##umhat
##ott
##otes
##alil
##alog
##aliber
##ained
heros
herman
herons
herbal
biggie
huha
huhu
huhah
##augg
drake
blop
blum
blamed
blouses
blessed
blthm
bluedo
fra
frans
frida
frolic
fritzy
fritos
brow
brie
brad
brum
britch
braz
brows
overh
overc
overfl
overcoat
##tyard
dady
dadad
dadiji
coq
cosy
cockey
##ilay
ahaha
##aph
##apest
##apsed
carby
carts
carbs
carnad
carseat
clea
clau
clank
clump
clings
##nton
spart
spurt
spiffy
spitter
spurs
spiber
daddyo
twig
takeoff
saur
sacri
##gely
nemat
bookbag
##eedee
anya
offa
offs
cram
crim
crouch
crana
crusty
crusoe
willo
##ffle
##ffod
##ffenbach
grout
grot
grog
grumb
griddle
graff
grating
grader
groove
elapsed
bubi
buffy
swill
swede
##ishead
thankfully
byes
##abs
##ability
##abello
##ryn
##itect
hassy
hasda
flier
flaura
floods
slick
slack
slash
sloup
sliver
sloosh
##erski
wakad
elsewhere
arling
aroof
##ggers
ballie
balled
ballroom
##emies
##empt
##ements
worries
hoi
hoth
hobo
pul
puk
puka
honeycom
manic
manta
manger
mantle
manhat
boysen
catfish
##beck
##bebe
wayland
##arella
aspid
preten
pretends
agua
agagagagag
aglag
aglaglag
agleh
comments
grens
remo
remark
remotes
##ulub
whiff
scope
scann
sclaim
scituate
handler
coloss
colony
subur
sustain
##ipel
hadah
lox
logo
lockey
logger
callie
callisto
##angi
gust
guilty
guatem
fiona
showered
hiyah
hijklmnop
picass
piction
##olm
##olution
##olutions
##aurol
##aha
##ahass
##ahrah
##ahpah
boxing
cookout
heya
umkay
umbil
##acey
sele
sewn
severe
segas
girlie
useable
quat
quad
quag
quality
waterhouse
watertown
waterloo
waterfalls
##entry
##entially
holded
dias
dible
dipping
dipper
dials
diva
byebaby
byebyes
pequit
##obuh
wowowow
wowwy
prison
prissy
proof
prowl
printing
prowling
vega
##estines
fooey
fooyung
##isten
##istic
blueish
wring
writ
redwood
reddish
##aks
##akable
sleept
sleepiest
wonk
##venport
##ohs
smish
chevy
nighty
lota
lotus
##quack
mince
minney
intent
intend
intense
intestines
newer
newsc
lei
leggies
lefleur
homeland
headphones
hearth
horrid
drawed
sweetness
harlow
##umption
underest
roomie
snot
snew
sneered
hated
hattie
milo
squony
squids
greenery
workin
workshop
##amaz
encl
enters
enemies
strangle
strips
stripping
eyore
pickin
afl
exeter
exotic
exquis
exasper
monique
monroe
monarch
breaker
mature
mattie
yelly
##assic
amb
amasa
aminal
amused
roly
##zzer
penet
pence
penal
adee
adore
adoodoodoo
dinos
dinners
pullers
finn
whoopee
wooh
woota
nag
topic
yellowish
gloom
glob
glowed
glared
glowing
gloucester
gloomy
glisten
cleanup
oopy
appal
appel
appeal
approve
storyteller
sweetiepie
yayaya
egger
eggsh
beady
beacon
singy
singin
##ubud
##ublic
saws
oohee
##agand
fungi
fungus
suppos
sarahs
earl
earphone
earmuffs
petal
petrified
whoopsied
potion
potentially
##forest
lightest
lighthouses
recre
##movitch
partin
partridge
busses
##acter
grandchild
##plish
##ously
##ousine
footie
aircraft
washrag
##ugu
hotels
##aneany
##aches
startling
snappy
awright
awoke
tombe
bagpipes
snowstorm
storekeeper
skipp
danold
touchy
butterscotch
barb
barom
barron
barbat
barlow
peeks
peeker
ergel
ernies
bada
badgers
ticking
ticklet
realizes
walkfeet
toweled
lists
actor
wheelock
marin
marking
maraca
marilee
marjory
windex
unp
unreal
parch
paradar
rockettes
popoid
population
##fastly
crayoned
patoo
patri
patched
pataway
kidneys
##ippies
numb
sunroom
alexis
alexandra
defl
deguh
degree
##insky
missile
bangus
bowie
bowed
nape
founding
catched
purplish
##dley
nini
ringmas
ringring
poch
pokie
sandor
##rophe
##raa
supposedly
endless
##cycle
blacks
blackberries
##bbons
##bbidi
hopeless
dazzling
daffod
davenport
lunches
babi
babab
baboom
bababah
quacks
armored
rainforest
tense
tenica
foaming
unties
untangled
polie
pinkies
excaliber
lively
hamant
treated
trestle
eights
starred
banister
banners
banyan
bugaboo
favors
bumpkin
giv
gijoe
gibbons
sockets
rests
restrain
##uhdah
garan
garrett
gargoy
garlicky
boomboom
farmed
mooo
moofy
##cium
sleepingz
hangars
fud
fuse
fuddy
fastidious
muss
streaking
poosel
cracky
friendship
presidents
presumed
diapering
scraper
scrabble
scrambling
##ibl
joker
jostled
christine
corned
cornell
pero
percussion
swingsw
welcoming
##lioz
##oupes
sheeps
sheepish
knocker
dollys
dollywood
drivel
drivedr
sadik
carson
bouncer
bounciest
humph
conk
conj
conan
concl
toasties
violins
checkup
checkbook
dinger
dingading
delish
delman
wallboard
mailmen
##aze
##ersonic
chickaboom
combine
salsa
salwar
melisandy
melanch
probe
parker
ooch
ooze
personal
flowering
pillar
geograp
clownie
miranda
tallahass
motorboat
mixes
##eezer
disobe
yummies
visor
vision
grassy
grasses
##usted
pines
plateful
##uits
kicker
sealed
laps
beem
beebop
##lines
peaked
stringing
michela
micheb
toothed
refere
refill
refused
raises
triumph
shutters
##ambeau
roadway
hippety
woodland
woodgie
bobs
bobos
charco
charades
strauss
terr
terra
teriy
territ
terran
triplets
snacking
shortened
pajam
poohby
curb
curit
curling
curios
curkle
butterflys
courtyard
slippy
loudly
loudest
##relet
michaela
wiggy
machinery
believed
samicircle
eheh
madj
madam
madji
johnathan
lambies
rancher
kittycat
benu
goldfin
supervision
##oyo
spines
spinner
spinners
edging
regret
regulate
megy
classic
shara
piggyback
honking
wishful
gasing
horsesho
planing
hoooo
crawfish
keese
keisha
rhumba
void
squirm
calibr
calcium
##breaker
##breakable
sauces
lyric
slowed
##ronic
account
tuxed
spacey
gooky
splasher
flats
nananana
indic
strongly
strongest
magically
marybeth
menni
menthol
foreman
gumma
dirtiest
filler
macrauchenia
tweeting
capri
captured
ryans
compan
compete
compacter
contour
context
chinatown
mushes
boopie
darned
darleen
darabo
darabol
fairgun
tigery
tigri
peeps
henny
henney
##undi
serp
thumbt
rosanna
roshie
powered
scarier
toeing
nestor
bathrooms
lemurs
wheatie
wheaties
impre
impress
shellfish
ugat
ugato
resour
reserv
resume
reservation
resolutions
aidan
##rrrr
collie
collared
cinderell
yuckier
smoother
smoosh
##bugs
porcelain
rowboat
freshen
zez
sharpening
gunner
radar
digadig
whisked
burner
lowest
explored
explicit
grammas
grammie
cordova
wildflowers
wildlife
balinsky
trasherate
skinned
skinnier
mamiko
mamosa
##ivit
doodoodoo
vanity
campus
campbell
wiggleworm
smooths
smoothly
brightest
diapey
edgewater
billowing
billetjes
hawah
attaching
mashing
zooms
##fina
chests
artwork
sleet
anti
antar
antique
peppermill
scrubba
seesaws
syrac
sydney
toolshed
buzzhart
blech
merch
siree
dotcom
vacuumed
grampie
beanbag
disappointing
stacks
chimed
duk
duhm
duckey
dukie
yaunk
ziphi
sneezer
cockpit
miller
whoof
whooee
whooooo
##strode
oyoyoyoyoy
janine
janberry
shops
shopkeeper
caut
secretary
wrenches
wrenchie
obsc
roughly
chalks
definition
torped
clears
earthworm
springsteen
basketballs
doodley
chantal
swallows
banks
banking
##clip
transp
stripiest
facts
gervils
gerbils
gergely
choir
franz
speakers
gaba
gabe
##baum
coochie
strangely
hummburger
steals
carpentry
stretches
duties
passing
sweeps
wednesdays
honks
yawnanan
totter
crease
breaths
abcd
crumbly
bulldozers
caved
cotuit
thursdays
deny
denied
wehoh
pinchie
retie
returning
suckle
suckers
rosebush
sshh
golfers
absurd
orangie
orangish
decorative
snuggles
dieffenbach
##goid
thumps
snorted
imagining
shooter
##adadadad
##adadadada
budge
budapest
nickol
carols
railway
hahal
shakin
ashley
shampooed
sparkled
sparklies
seedling
drilled
county
chatting
electronic
lynnie
utility
weirdo
smoky
dweller
raymond
glorious
kathryn
zeros
twists
achooie
achooies
distinct
distinction
sofas
buhp
raspy
bedrooms
sleeved
jonni
mumana
mumford
rulers
amazement
kernel
eeyaeey
scooted
pokemon
protocer
rescues
chopstick
chopsticks
skirts
labored
brandice
pensive
massah
postal
basin
dorme
trolleys
rummage
vai
vaily
teases
ferian
ferns
murrelet
tested
discour
discussed
stretchie
statement
noodlenoodle
dubby
dublin
doubled
tushies
hansel
hanuman
condensed
##ghan
jimmys
astaire
nih
peddles
peddler
scarfs
urban
##idai
squirrelly
##ervatory
rockypoint
assumption
sweatpants
repor
repairs
reproach
republic
projects
ronald
soybeans
boko
holstein
bunkbed
jeeps
jeepers
##wuhwuh
daboing
tamarin
creeps
digga
weigher
frisky
purply
thousandth
nibilay
devils
cellphone
generation
generated
reluct
relatives
blooded
knaves
kenel
munchy
stinking
stinkies
sarafina
nukkad
whadayou
##ispra
inkie
tramping
tramped
briefly
particip
gesus
gesture
provided
kameez
separately
artists
correcting
cigar
silen
titans
volvo
poults
pathetic
calendula
flusher
flushing
flushed
francine
wrecks
wreckage
linen
trapegoid
logic
logical
##cross
interp
swammed
rapid
inspect
inspired
copyright
speedometer
##fficient
shoveled
sniffle
eyedrops
pteradon
##rodon
sortsa
sssh
tucker
wuf
outfits
bulstrode
daka
lorries
ramps
threaded
alarmed
conversations
knickkna
heroes
gayer
otoscope
roti
rotate
chiquita
blinds
brontosaur
carnatore
buffer
portishead
portabello
skeeter
##juy
guarding
hammered
joyous
iguanas
rashy
rashawn
sillies
sillier
##okee
celebrity
celebrating
craigville
signing
croaked
nippers
##uwuw
##hhh
##eapolis
shedding
streams
streamers
spokes
wrestled
linguine
pansies
doinka
mainly
bloaty
commermation
lucinda
blended
##umyumyumyum
akh
akron
gazed
gazelle
teeter
##iasm
##iasaurus
cloak
consistent
confuses
fiddly
gwin
gwath
journal
##print
blasts
blasting
grains
hatchlings
cuddler
stewardesses
lawyer
shamis
repeats
bubaloo
committee
gregorio
snoozers
fudgec
mermaids
scottish
escalators
casin
casual
gallons
dodger
juliet
attacking
chirped
nuggies
stye
stylish
formula
formica
emergencies
goofing
hungarians
gillygawk
morsel
morgan
morbid
rodney
yacky
rental
busted
pretties
squiggle
organizer
khkhkh
masc
pegasus
battled
pterodactyls
cheetahs
bzzz
dawee
dewey
hoops
angrily
operate
oldsmobile
dispose
bahbahbahbah
suspense
appreciation
cadoo
details
genie
genaba
genobuh
surgeon
lifter
lifesa
mommie
imaginations
positioned
trumpeted
gyalee
jaunty
kaiser
posed
thornberries
liquor
privile
minneapolis
eyelid
magnifique
munsty
versions
wacko
braun
underside
preferred
vrrrm
vrrooom
fortunately
charts
blooms
brrbrr
cruise
produces
delights
bindoo
breezy
hutch
hexagonal
channels
mahnkey
mahatma
buttah
twirls
gradually
graduated
watercolor
unsteady
disguises
disguising
natured
complained
recommendation
congested
darts
farts
kuz
kuvas
sassuh
tended
constellations
mammoths
observation
dyomp
gears
oakwood
scheduled
limousine
juggler
molar
ornament
includes
exhaust
bwopa
gurgle
gurgled
reels
soder
sodas
valve
value
zazzer
tossing
##adigadiga
hissing
undershirts
cumon
dealing
teens
rewound
##umumumum
frowned
precar
swirled
architect
archipel
agugu
recycl
concentrating
concentrated
lorrys
aahh
bassinet
meaghan
randolph
tradition
mystic
tootsies
montreal
windsor
raindrop
transcriber
transcribes
dunkirk
nerve
oooo
zzzzz
##raub
##nique
albany
skulls
rafiki
apologized
annoyed
bernie
berkeley
berlioz
dashing
homerun
mutt
mutual
rumplest
sensor
toppumhat
aguagu
skills
skillet
spoonfuls
accessories
chestnuts
portuguese
fossilized
gilbert
kinasona
pfp
semi
yuna
##hammer
thaumatic
chapstick
squealer
monkies
clementines
disturbing
stingrays
citrus
larks
##opygall
slurping
remaining
suffoc
suffering
##adehladeh
pinwheels
ayayayaya
chattering
shrieked
fabrics
threaten
threatened
advertisements
faded
persy
ravine
shields
cancel
abuhbuhbuh
clinging
rochambeau
admire
adadadah
applied
appetizer
unsure
uncover
predicted
bididoop
gagoo
lamby
occurs
psyched
psycho
rifles
russia
russian
noisie
shmear
bleaches
sways
smiladon
leggo
straining
technique
##ehehe
convince
cockatiel
espac
demonstrating
boundary
gapeen
ramsey
senior
selmovitch
##duhduh
##uyuy
##bopbop
require
stares
shelby
sheltered
##unununun
ornery
crisis
swiftly
harmless
harmouth
parasur
parasol
sunburned
salamanders
pheasant
taduhm
aceland
dedau
hounds
kazoos
yowch
whirly
stalling
soxer
makya
clangs
crumbled
grunting
preparation
slithering
cathedral
scrawny
progressive
marigolds
convertable
hypoth
tortell
tortillas
tempting
automobile
##ubububububub
aggravating
zevenberten
disturbance
dududootdootdoot
gilligan
sulfur
##patas
##pthpth
limpet
cheapy
chumchum
chemical
chemicals
atlanta
myrtle
flossy
flossie
scientist
scientists
supersonic
locust
located
hibernating
barbells
cameron
exclamation
splattering
desiree
bulletin
pilchard
estimate
amphibian
bledtime
coordination
gulper
pixie
pampers
##ranian
##gumgum
##makers
doomdi
inflation
international
##standing
mocking
drafting
british
britney
bristol
bristles
overdue
clarence
savages
grazes
grazed
fluttering
pupae
sequence
##phalosaurus
squealing
squeals
yayayaya
emphasis
sanderling
trembled
tremendous
refreshm
trickortreat
porpoise
burritos
clunkamunka
multigrain
rattlesnake
periwinkles
products
defrosted
kaplonk
kichelich
symbolizes
thingamajig
embarrass
embarrassed
avery
average
komen
nixon
obey
ridgewood
sibling
siblings
tumbles
tumbler
##hookhook
thundered
whatdju
governor
government
halved
renew
reported
tajumbu
chubbo
plasterer
society
outsides
alternative
broker
crisscross
becauses
premium
slobber
warehouse
smudge
smudges
lexie
roberto
advisor
advised
##shkshk
crystall
crystals
poetry
scrunched
seamstress
baaaah
spratt
accurate
mamamama
frankenstein
replying
carnivore
carnivores
communicate
unwrapping
unwrapped
skyscraper
skyscrapers
bilgy
ditn
korea
messe
mastodon
namommus
navigated
ratchael
trenchant
udder
wshhh
##zbzb
##pbthpbth
##wabwa
##woofwoof
whasthat
whattcha
inquired
ohohohohoh
shawna
churr
dromedar
blazing
brigham
hmpf
whyncha
caribbean
sagwa
crocker
grooming
hassle
pudgy
diagonally
snorke
snoopies
adjectives
moothie
delayed
satisfied
##ulafalafalus
compromise
residential
frequently
geraniums
abcdefg
expedition
flexible
videotaping
postcard
representation
confirmation
suspicion
bwabwabwa
dimetrodon
akiya
cicus
fainted
gelfling
homok
hilarious
jzug
jalapen
jamaica
konnichi
kocsi
lorney
lashes
nordstrom
ovals
sedum
tittie
ukranian
xyz
yabody
yeesh
zippered
zamboni
##radehradeh
##bvbv
theodoro
goslings
inflection
reception
stardust
stumbled
clobbered
##abumpabump
slithered
category
complex
##ulsive
scandal
scented
intrig
underarms
enthusiasm
exagger
adundun
tiffany
skoodled
erupting
marriage
treetop
##ddabuddabu
consequences
crackerjacks
independent
scarcely
frescoes
stirrups
cecilia
silhouettes
sledgehammer
niyow
morpho
revealed
occupied
individual
polyphenols
alder
bbbm
bernice
bidoigu
cymbal
dandruff
dreadful
gandhi
gngn
ipanema
jurassic
kerem
kepin
kendra
kicsi
lonesome
mitchell
miscellane
mitzvah
nigerski
nggo
nardeen
neshka
ompahpah
pablo
pagadi
pomium
pachyce
porsche
poshy
ritchie
rumblie
sifter
tuffet
tundra
uterus
wwhada
wilted
xantes
zenops
zizzer
zenaida
##rabbit
##wurst
whachou
tostados
tondie
tokyo
antoinette
oncoming
weintraub
nocturnal
nophie
okapi
shindig
reversible
lionel
bactrim
beverage
beethoven
didgeridoo
steadfastly
chabap
chlorine
plymouth
jumanji
sotto
sojourner
tralalala
trawler
trousers
tragedy
malcolm
bolero
mozzarella
motrin
moccas
huckel
fransisco
britches
brazil
sparta
spiberus
sacrifice
nematode
cranapple
graffiti
wakadu
arlington
honeycomb
manhattan
boysenberry
aspidispra
aglagla
aglaglaglaglag
sclaiming
guatemala
picasso
pictionary
umbilical
quagmire
pequito
exquisite
exasperated
eggshell
barbatus
ergelbop
tickletickle
paradarrot
patriots
ringmaster
gargoyle
pooselim
swingswing
drivedrive
sadiksha
conclusion
melancholic
geography
tallahassee
disobeyed
michebous
charcoal
teriyaki
rancheros
goldfinch
horseshoes
tuxedo
mentholatum
daraboja
darabolja
digadigadigadiga
syracuse
ziphius
torpedo
eeyaeeyayo
protoceratops
reproachfully
nukkaduk
knickknack
rashawnda
mahnkeybow
kuvasz
architectural
archipelago
thaumaticfis
tajumbuddy
konnichiwa
miscellaneous
pachycephalosaurus
ae
ai
aht
ady
awn
aime
amp
aard
aust
aston
aja
aiy
aesth
aangel
ajum
bome
bour
bate
borning
bummer
bison
bicki
bickle
bzbzb
cs
coon
cug
cort
cert
caser
cald
cissy
cuffs
cakie
dil
dul
dama
dag
dese
daboo
dates
dmit
dyl
djou
dmm
ditee
dirky
dilee
dhot
deezer
eb
eea
ena
eld
emy
eure
eves
eeek
econ
eze
fis
fuck
ful
fade
fard
firty
figh
fett
feas
ferries
fisted
gitt
goug
gart
geet
gaw
gew
gaug
gator
gada
ganna
gwah
gino
gambling
hoom
hoss
hunch
hous
hym
hided
hanna
hhh
hints
hitted
ia
iy
ii
iw
ib
ike
ion
ille
ijuh
jem
jorning
jogs
jigs
jeads
jinx
kun
kus
kot
kong
kol
keel
kake
kag
ksh
kew
kane
kia
kile
koda
kawa
kooky
kippers
kooo
kraft
kirky
kacey
lus
lore
leet
lans
lula
loopy
lung
lopes
lamin
lata
lunky
lanky
ladehladeh
ming
mig
mook
meth
mound
mong
morn
munt
mummer
mba
mbu
mhuh
mended
mumbu
nart
nant
nang
nunch
nile
nud
nik
ncha
nda
nippy
nika
nude
natha
os
og
ove
ood
oob
osh
obble
ogi
ojo
oden
odie
ova
oggle
ogay
oshk
oasis
pt
pw
pis
pid
pim
pead
pane
pian
pint
pio
pipper
paren
pester
pucks
rook
rink
ruck
rue
roon
rally
ricke
rro
rmm
rumbling
riley
rraa
sst
sie
sic
sain
sap
soom
sist
sera
sends
siesta
sisto
tt
tere
tue
tress
tuffy
tss
tann
tidd
tchoo
tshirt
teton
ub
uge
uuh
udd
uboo
ubuh
ulah
uluh
vy
ves
vall
vice
vip
voop
vak
virt
vuh
vyl
vidd
vuv
voum
wir
wam
wus
wap
wuck
wirst
wzz
wug
wich
wily
wucky
wint
wsw
wuss
widdy
witz
wiley
wuggle
wits
witty
wxyz
wunning
xer
yl
yv
yed
yun
yose
yarm
yada
yoni
yubb
yams
yiyiy
ygonna
zi
zj
zow
zam
zob
zion
zug
zither
zips
zuzz
zaboom
##too
##teed
##tation
##tens
##tiest
##toms
##tweet
##afore
##aisy
##aias
##rice
##ride
##rast
##rite
##rant
##roop
##rate
##rade
##rise
##rous
##roth
##rary
##ruh
##rieve
##rats
##rstuv
##lore
##law
##loop
##lav
##lady
##lug
##like
##lvia
##lared
##lishm
##lpth
##eoo
##eur
##eop
##eff
##eged
##did
##deep
##deed
##dos
##dally
##drop
##dra
##dia
##dary
##dust
##dote
##dadum
##dadadah
##ye
##yas
##yeh
##ydr
##sk
##sis
##sup
##sville
##ux
##uj
##ucked
##uka
##uations
##uyah
##uhmm
##iay
##iful
##ijklmnop
##ianeany
##nin
##non
##nore
##nces
##nation
##nony
##nium
##gt
##gies
##goop
##gins
##gets
##good
##gment
##gium
##ghoo
##gales
##galoo
##gogo
##hing
##har
##hur
##hers
##haw
##have
##hka
##hdale
##heads
##hicans
##zle
##zon
##zine
##zanders
##zabel
##pes
##pen
##pad
##pite
##page
##poke
##pac
##pile
##pkin
##pence
##pold
##pread
##pops
##pensive
##patter
##of
##ois
##ollo
##olyn
##wre
##wing
##will
##whm
##waw
##wey
##wars
##wubby
##wuw
##wxyz
##women
##kool
##kner
##kym
##kky
##kuy
##kettios
##mi
##mom
##might
##moon
##mier
##mlin
##meat
##mosaurus
##milk
##maker
##mitted
##midt
##cee
##cor
##cam
##cur
##cuck
##core
##coh
##cub
##cans
##caster
##cover
##ceable
##fat
##fen
##fill
##fide
##fers
##food
##ference
##faring
##vil
##veth
##vies
##vue
##vark
##vise
##vich
##vroom
##vuh
##vian
##vans
##vited
##vka
##vailable
##voum
##bf
##bon
##bere
##bby
##bery
##bones
##bwah
##baba
##qrstuv
##jee
##jas
##jos
##jack
##jel
thir
thad
thim
thum
thym
thonk
thora
##oured
##aty
##aton
##aten
##atra
##atically
##atadum
theah
theory
therape
##rem
##rell
##reting
##rella
##iner
##inating
##instone
##instein
##invited
whu
whh
whar
wham
whill
whass
whines
whacked
whined
whachu
whims
##anin
##anow
##anade
##ancy
##ania
##ancing
doy
dop
doed
doose
dooh
dori
dobble
docked
dorr
doddle
docky
doss
doota
dozers
dobermans
##erl
##erow
##erang
thatta
toor
tother
toma
tozy
##ingle
##ingers
##ays
whatr
whattie
whatja
whatza
whataya
whatdya
goh
gooy
goss
gozzle
gokay
##llah
hes
heap
hent
helda
hegh
heirl
hectic
anim
anast
anac
anew
aneek
analy
ancho
ananan
ananana
anec
analog
anagand
##owes
##owee
##owah
##owich
##owhoo
##owrowrowrowrow
##esty
##esel
##eska
##eslaw
##esof
##etor
##etist
##etuk
##etoid
##etnam
##isi
##isting
##iscope
##isje
##ooine
##ooled
##ealing
ont
onu
oni
onna
##itan
##itit
##itah
##itist
##ituss
##itations
##itlyn
wel
weg
wew
wees
weet
ween
weby
wedd
wept
##omy
##omon
##omap
##ominy
isa
ishy
ishka
andea
andres
##uta
##uts
##utic
##utched
##eee
##eeee
##igal
##igning
##igestion
##igible
##igida
##igail
##igaga
##kees
##keke
haut
hale
hace
hallo
haves
haman
hazy
haole
hagi
hagoo
hauled
##orty
##orah
##orous
##orms
##orail
##orarily
##oramic
##sewn
##seling
noy
nond
nont
nobo
nostr
nozo
nosie
nobot
nogales
inapp
inex
ingr
ingen
inhale
##iduous
##lep
oho
##hth
##cka
##ckers
shi
shk
shick
shant
shang
shuff
shuk
shingle
##arr
##aries
##arry
##arkey
##arsh
##aroni
##argi
##arara
##aratus
reer
reor
rely
reli
reba
repot
rename
##onked
##onimb
##onicle
##onara
yourn
wancher
wanned
##ench
##eness
##encil
##enance
##enco
##enbaum
canister
canteen
canoes
##ookhookhook
##ashm
##asized
##aschen
lipp
lizz
oft
dono
donts
donner
dongs
yeauh
baj
bail
bales
bauch
baggies
bapple
baffle
bef
beckon
bellows
mey
mere
melly
mello
meerk
##chg
##chol
##chairs
##chmidt
didl
didd
didide
didey
##erey
##eres
##stis
##stant
##step
##stling
stad
storn
stob
stake
stilly
stile
stakes
stoy
stoat
stitts
stems
stern
sthat
stilts
stencil
##thed
##thop
##thab
##theses
##thesis
rightie
rightly
##ieval
wherez
wheredawe
##inkner
##ador
##adder
##odge
##odootdoot
##icula
getchoo
getchou
knuck
knelt
##aman
##amit
##amum
##amine
##amama
##amund
##amina
##amatic
##amenco
##imin
##imen
##imain
##imony
##imeter
lethar
##urur
##urge
##urry
##urried
taill
taber
taker
tagged
taisha
tappa
gonne
upie
##ittle
##ittery
##eder
##edeh
##edient
##edidi
##edias
sheph
goodnap
goodbyes
chere
chau
chore
chel
chav
chopp
chich
chord
chung
chutter
chichich
pluck
plopped
plaque
plugging
jul
jus
juan
junie
judd
judi
juevos
thinkin
##vern
notch
notting
notches
notolo
lloyd
wassup
aturning
atiay
soles
sopping
soggies
sopo
soaring
whozat
whoowhoo
allosaurus
alleged
##ppad
##pples
somepin
howe
howdeed
tran
trun
trill
trib
trance
tromp
trina
tracked
triscuit
trisha
triggers
tricia
trashm
##unck
##ungr
##unken
mae
maw
maj
mave
maren
mauh
malla
maize
maggy
maude
mallows
##illi
sayonara
outf
outen
outgo
outgrown
bosh
bopple
boowoo
##dyou
##dylor
ahr
ahl
ahk
ahoo
ahoy
ahold
ahhh
ahooo
##terior
moat
moet
moink
moister
mops
movers
motion
mocht
mollie
mohicans
comeback
justice
##elled
abll
abide
abys
absent
abood
abwah
abubub
abwab
abadabadoo
abigail
butty
buthe
mommas
mompsy
toolie
toosi
hullo
huddle
huggies
hustle
huevos
als
alo
alight
alah
alps
alston
alga
alisha
almight
alcoh
##ople
##opawo
##opatra
##inds
##outi
##outons
playpen
gotcher
gotchyou
gotchur
##ands
##anding
##cela
##lyw
##lying
##oted
##otaur
##otion
##aless
##aluh
##alaca
##alanche
backin
backer
backside
##ainess
biggies
huhoh
##auau
drat
droids
drooled
drunken
bland
blip
blake
blana
bluh
blint
blinky
blaby
blugh
bladder
frick
frab
frol
frilly
framing
frail
frigida
bram
brock
brant
brang
brute
braces
brisk
overly
overcast
dadoo
dadee
daded
dadah
cokes
coca
cohen
wouldcha
##ilow
##ilton
##ilili
eated
eatcha
hmguh
ahaa
whydally
##aption
carob
carole
carroth
carolyn
##etheless
##eard
clink
clair
clah
clark
clust
clicked
clumps
clamps
clutched
clonked
##nta
##ntine
babybug
sput
spide
spade
spacy
spelt
twiddle
twonk
tweaked
##ivel
##iveled
##ucka
##ucket
##ankles
saver
sage
saif
savor
sappy
##gekuy
necked
neerow
bookoo
bookies
bookmark
##hme
##hmore
##hmuh
##eede
##eeding
##eedcake
##dayday
##berger
##beria
offended
crop
crunky
croutons
##ffert
##ffeur
grum
grama
grunk
grove
grated
grues
grasp
grubby
grummies
grims
gruy
grapen
griggs
grippies
preced
preview
presto
preakie
##osure
elas
eliot
elsie
elsa
elmos
elitist
elominy
tellin
somer
##astrophe
buick
buah
bubye
buoys
turd
turpin
swap
swang
swans
swizz
swik
swept
swifty
swivel
##ishon
thankful
thingie
##abong
##abeet
##abub
##aboink
##ablished
##abthab
##nyah
##ongest
##uelas
flo
flame
flopped
flaking
flesh
fluttered
floyd
flirting
flinstone
flamenco
flurried
slit
slant
slang
slump
slider
slugged
slinks
slinked
slanted
slabs
wai
wail
wage
wawah
wachu
wavin
wawa
wakie
waikiki
waiman
wafers
arist
arbit
arra
ariva
arlene
arahrah
arowrowrowrowrow
##ggug
couldju
ballies
##eman
##emoid
##emois
wormy
worris
##cted
##ctica
##ushka
hover
hopp
hozza
puddie
honeybees
honeymoon
turnip
gived
uhl
uhoo
uhoh
uhda
uhwah
uhded
mmw
mmuh
mmbuh
mmhmm
mmnyumnyumnyumnyum
##essive
##essions
mana
manip
manana
manner
mangi
mangr
manilow
manuelas
##oomoo
##oomaf
boynton
catastrophe
##bel
##bey
##belin
##beque
##bevah
##behave
wayfaring
birch
situations
##arees
mull
muzz
mudd
muwah
muggle
mupkin
muisje
asay
agi
aging
agag
agust
agagu
agouti
##oresc
combo
commit
comfor
gregg
gremlin
remus
remorse
helvet
kindly
kindness
kindergart
whipping
##athy
scal
scars
scapes
scowl
handies
handball
coler
coling
colon
colts
coltr
coleslaw
suki
sulley
suzan
sukl
sufficient
helpless
##ipus
##ipts
hadta
lol
loch
loqu
lobo
lovers
thrim
throught
thrump
##elves
##elargi
##awaw
##awoah
##awopawo
callous
##angang
betchu
guu
gup
guddy
guppy
guggug
fibers
fibbing
showin
hij
hifi
girt
pict
piccal
##dshot
##olin
##olie
##ahn
##ahwahwah
boxer
cookin
ops
oph
heygah
uma
umma
umchol
##upky
sequo
segment
sehme
meanings
##oops
quill
quant
quest
quiz
quince
quilts
quarry
quench
dih
dib
dibble
division
diju
pep
peering
pegle
pecc
pekay
pecans
##ysqueak
brenn
prin
prong
privy
pronto
pranced
praline
praten
prankles
veer
veve
vegas
##estr
##estones
bluey
bluejeans
watchful
watchman
redbre
reduced
##akers
woncha
##venir
##fuls
##ohydr
bedding
smoot
smacked
smores
smirk
##ageeska
pushy
pushers
##pector
##pecific
cheated
nightnight
nightshirt
lottery
##quest
##quake
##quaint
mining
minty
mints
mineral
minamina
birdle
intens
intention
intrus
newman
lect
leban
leathery
leesel
daya
leappad
##urtium
##lfish
hearty
shoved
sweetwill
hark
harsh
harroo
undec
snick
snipper
snipping
snippy
hatie
hatso
hairdress
milked
career
squat
squad
squabble
trucking
milks
milkies
milkaroni
underdog
mucha
greenhouse
greenjeans
workout
workday
workmen
enne
ency
enjo
envious
enroll
bitching
stri
strides
strung
struct
straddle
trainer
pickers
pickets
##avaa
doney
lauras
monte
monsk
monorail
pigtail
matu
matron
matzos
matador
storms
walace
boob
booing
boock
boost
booed
boody
booked
booya
bookend
boogin
boobies
keepers
ami
amate
ambit
aminals
##zzat
##zzen
##zzini
pennie
paperwork
fixated
adudududud
dinkey
pullin
fished
cleft
cleopatra
finicul
finicula
woot
woos
##tale
peent
stayin
stayover
weary
##ardly
naa
naz
naame
naimen
topum
glum
gloop
glapp
glops
glonk
glimp
glutton
glittery
cleanie
nexta
stickle
stickiest
oope
oopla
##ftie
mighta
cupid
apply
appro
appealing
apparatus
##mail
tej
teko
tequita
cowed
cowardly
greater
greatly
doormat
doorstep
hurted
teams
teaket
eggo
beaming
beauj
singers
sarrow
sargent
##ubuh
##ubdub
blocky
sawdust
##agi
##agne
##agua
##shsh
##shishon
funs
fungo
funnels
suppert
sorc
earphones
lasts
petto
petition
peteetie
friar
whoopsies
tia
tippie
tiko
##tons
lighten
jumpers
beforehand
recite
recover
recoll
recons
hunted
hunks
partners
comings
##neh
bottie
##acious
##acla
##acity
kissie
##pling
##plane
##placed
##planade
orangeish
airborn
washa
washers
bathe
bathed
buildest
movey
##ugas
handsomer
mices
hottest
adamy
adamant
differences
##omile
embr
emmet
eyesight
fitz
evenings
runways
runnin
awella
awowow
horseback
horseplay
tomie
snowfall
ska
skied
skated
skitter
skageeska
guesses
dancers
dancin
danceable
butterprint
buttermilk
barum
baruch
barneys
barometer
barbies
barrier
barthop
barbeque
pupple
erhm
errr
ergy
ermine
coldest
ticky
tickie
tickler
oopsies
reality
fireball
towtruck
listed
acted
whitewater
wheelie
idde
marcy
mario
marched
marathon
marcela
legal
windbreaker
unr
unre
unit
unna
unsa
unsp
unique
unclear
unpin
unatta
uninvited
unsewn
para
parce
parading
rockery
popoids
breakfasts
patina
patchy
patpat
pateetie
kiddos
##ipple
numbered
cheeseburger
sunning
sunrise
listener
listeners
pageant
##rial
##rios
ladybirds
degin
##ontal
beloof
belgium
belugas
swimmies
swimmed
swimmers
missin
creamity
banger
bowled
bowels
bowrowrow
niner
ringaling
pokes
pofe
poergy
sandie
flyed
flysw
##iedoo
##raction
##razzini
##gerate
##boing
##boards
##boks
blackwurst
tonk
tonnie
tonisha
sixes
sixers
sixpence
daih
dainkner
camell
campa
blowout
blowers
setup
settles
babu
babas
babby
babub
babbled
babushka
quackeroo
quackquack
##merized
horsing
peterrabbit
teethe
teethies
armie
armful
armchair
drift
tenure
roundhouse
unto
untest
polo
polic
##eyew
puzzler
hams
hamming
hamilton
trest
wonderfully
starwars
banjos
brownish
ethey
messiest
owa
owowow
bottled
bumpt
wets
wetter
rapping
rapper
raja
raoul
purpley
giver
giah
giina
apff
apwuh
apollo
chronicle
chrimain
restful
tailor
gara
garble
garbled
garbag
##etsz
boomie
boomerang
chocolaty
##iances
##ianno
moos
moore
mooze
mooses
moooooo
##cio
hangar
hangman
presently
secondly
fully
fastened
shaken
muso
eyegl
zoob
strep
streatch
streaked
kitchens
##ealth
dooey
pooing
poochie
englishm
engbaba
pockowa
jackpot
jackstone
scruffy
##iboo
##ibiot
coola
coolness
bowler
joes
jove
joked
joint
joggers
viking
vietnam
peras
perked
perched
perlow
perlman
perpatas
permitted
periscope
perimeter
swinger
dumpster
dumplings
loony
loosie
breaded
finely
##lifier
policewoman
acoming
acquaint
driven
drivein
magnad
paver
paolo
paedidi
##ehuh
##perity
woofy
woofwoofwoof
sadder
##brrm
beachou
interests
##action
humney
humumumumum
conch
confin
confl
converse
steppin
feeders
feedback
neckties
growler
instit
instigator
instantly
wallop
mails
specials
specialized
##aulting
chickety
chickamee
combining
salon
salute
salinger
saliva
suchi
melons
melanin
bestest
bubbali
##riest
proves
parka
personally
faratta
dearly
geck
##arsz
spotlight
spottiest
hurl
hurdles
hurvich
winked
winne
winners
peanutty
##umbum
maxie
yogurts
mixers
##ptical
hugud
satin
dism
disable
discon
dispy
disks
heeled
pillowcase
bucking
understandable
##ific
##ifying
##ification
sugars
sugarless
butterfingers
pinafore
##oodad
panes
pansy
panjo
panoramic
candys
candybars
belles
strawbere
lapel
lapels
papi
papas
papaya
beecy
beefe
beecee
phwack
closets
quietest
peaking
stepney
busytown
recordings
neatest
georgy
eleventeen
elenore
refue
refuel
refills
godiv
delicios
circular
circulation
raising
coupled
trio
trials
itsa
scareda
ribit
rivi
rivka
##ledeedle
ruba
rubble
rubianeany
begun
roadrun
robituss
medieval
vroomvroom
hippomap
boba
charges
ruins
##enser
##ensils
tubbo
tubbies
cardar
softie
quickest
questioning
sprite
sprained
pajamee
lilo
poohball
curler
bony
bonds
courting
courage
bellybell
##reless
troublemaker
bandits
wiggins
wiggled
squishes
motorcyke
machias
machaias
packaging
tricker
medicare
medication
kalamaz
splattered
spluedo
splurge
deciding
decals
decaf
declined
declared
deciduous
decongest
sambo
samtale
refrigerating
refrigerated
ehhe
jams
jambo
erics
madder
madman
madada
madaline
mademois
batterys
ranned
rancor
bendy
bennie
bengle
beneden
matched
matchmakers
supermen
superbaby
supervise
scratcher
scratchscr
desc
descr
description
despite
clauses
coating
edgar
edipus
hillel
regress
ladle
ladas
##hai
mega
megabl
classy
terrier
shari
tootoot
tootzio
pasted
pastime
pastina
piggybank
honker
##byeboo
meetings
ducksie
familys
kindsa
gasa
gases
##letter
pays
hooo
hoods
hoots
hoofs
hoogins
fighted
paddles
doughs
##irese
##irest
##irect
rhetor
liebermans
minded
announ
annual
announcing
squirmy
hooker
##ignon
##ignation
luis
lukey
luva
lubeck
freely
freezes
freelection
calmed
frankie
##zzybu
lychee
norway
norah
##ectual
slowing
slowest
layla
accomp
tuby
tufty
tufted
spaceman
wheeled
wheeeee
gooz
##swine
##ikat
##ikers
##ikik
##ikikiki
##ikaze
hornbill
taddy
taddle
pooper
poopers
flattens
nanu
nanan
indigestion
indignation
changa
blessing
blessings
##anya
##anyah
twelveth
mena
menorah
forecast
forecaster
gummie
ouched
dirties
fillie
fillings
chaise
chaquet
tweetle
capture
capable
capric
capalil
nonp
nonny
nonstop
nonbreakable
nonetheless
compar
compasses
compulsive
jellybean
contem
contract
contrib
keyboard
mushing
ruffly
ruffles
boopsie
boopboopboop
##nalds
donalds
dari
darcey
##yazz
dumdi
merrygor
tigress
peeping
ponytails
elevens
##unde
##undund
seril
serasp
scissor
stickerbird
mountaintop
powed
##eases
boarding
craziness
toebow
##coid
##coaster
trunkfuls
frenchist
furd
jillys
eastern
strawberrys
leme
##roit
##roeder
impro
ocelot
reser
resched
result
results
fevans
aiden
##rrr
##rrrm
##rict
##rical
##vised
collars
vegetarian
metals
yucka
yucksville
fifi
smooshed
followthed
saucepan
gaie
gaggies
theozine
saturated
saturaday
porgie
porgy
porthole
rowdy
rowrowrowrowrow
shaver
frera
freckles
freesof
##moning
sharpness
winters
##eekee
riverbank
##doing
whaley
accidently
gunder
radios
digest
digital
whisker
burble
burkes
burman
burro
bursie
burgers
burial
burglar
burbank
lowering
licky
lickety
fridays
registering
balk
balm
balum
balogna
balinski
##fying
trashed
mamie
mamaless
richer
##ivive
##ivable
##ummed
doodah
doodling
doodood
extras
rided
racer
bubbled
campell
campout
brighton
brighten
brightens
crabbs
unlucky
##onial
muffled
diapered
shipwre
boltons
poppity
billion
billions
billabong
kaya
felicia
plastics
hawsie
safeway
seller
sophia
zooma
toads
excitedly
hyd
hyphen
native
jimbo
antis
antler
antibiot
pepperonis
scrubbie
scrubbed
aisles
achy
jeze
jezabel
syllab
sylvia
synony
sycam
fiftys
buzzz
buzzed
baseballs
mcvet
mcintosh
bedspread
crawlies
woowo
woawo
leafs
awfulest
merlot
mernem
mermom
siberia
addison
peasant
##idededed
grampas
pocketbooks
disapprove
##flop
chimp
chiming
chimps
duw
duank
dudley
wolfs
wolfson
yaself
yauto
practise
cockroach
sneaks
deadea
eeoo
millie
millicent
##olais
jillybug
mistress
beatrice
fifties
curtis
jannee
causes
caitlyn
cavern
obedient
torch
torment
earthquake
mallards
ambulances
youngster
attacks
attempt
newsletter
raisiniest
ayg
aygi
ayumum
ayagah
sailors
sailfish
scoodle
propose
##aaa
alphabits
loosening
loosened
canned
cannister
cannib
transition
transmit
windowsill
germy
gerri
palette
toughie
flashed
flashcub
suey
puffins
##bai
shadowy
shadowed
avalanche
avignon
esze
esplanade
kimono
barkley
villainess
wilma
wilbert
carpets
corrod
corrin
corrid
faj
fais
faum
fails
fairest
ironed
passie
passive
invades
invitation
invitations
compliant
lollis
bathtubs
kills
halls
##ursie
totes
create
crested
creaks
crepes
pilates
##chyer
lessee
floaty
floatin
floaties
arranging
breathes
leann
haylo
hayride
oppa
duhduhduh
groceryman
evac
evidence
lobby
sandboxes
rhinestones
klang
wreath
wreaths
momentito
spidersaurus
locker
playskool
pickleberry
measurements
importantly
temerl
denying
dentures
denkner
kits
warped
stomps
pincher
pairplane
reticent
retrieve
sonaly
stewart
nahunh
nahnah
rosebud
brianne
gymbo
plainly
dentists
yoka
yostling
yalla
diez
flourished
imaginary
cabooses
budging
stomachache
bums
celine
jingling
lakey
nicki
nicknam
huckleberries
carolers
telula
hahahah
shakea
rexes
ashlyn
shampoos
shampooing
cassadaga
whaja
babysitters
squasher
aquiver
dameek
damsel
lampwick
seedlings
counseling
explains
lynne
lynette
opposition
utensils
weirdest
sprayer
dweep
##otamus
scotland
dustbin
income
incense
achooachoo
distant
distressed
distantly
distrib
distraction
district
wasteful
tara
targen
tarrin
spaniel
hippopotami
electrician
deeda
deedeedeed
deedledeedle
jonah
jonsen
lucka
luckiest
heaving
ninetieth
kleenexes
kernels
stucked
bomit
looped
taters
tattered
tatatadum
tatooine
cheeps
southern
souffert
souvenir
##iotape
pecker
protest
stefanie
depend
pitchko
bareback
bung
bungee
bunbun
wives
wiener
wireless
rollercoaster
connects
connecting
bayoup
exercycle
frustration
fools
postures
basis
datie
poses
spreads
spreader
protective
esthers
estrella
established
vaavaa
ferret
files
filet
filming
murk
murky
murdered
mealtime
tests
concussion
discards
discrim
staticky
aguhguh
difficulty
dubbie
shrank
shrubs
shriveled
hungrily
hungrier
diddley
hushing
attachment
attachments
dougie
hancock
jasper
##chuating
##agagah
constraint
constructor
constructing
cinnamony
conducting
losers
losangel
##lication
##dedrum
donging
returns
beetabeet
urves
urinal
urfs
##idaidai
dicka
kiwis
arrowheads
sidewalks
axle
axles
jerky
sanitation
assess
assumpt
tinman
reprod
viewer
webpage
soybean
smashes
roasting
contrast
contraption
bunky
fusses
misery
misbehave
misplaced
powerball
daba
dabadoo
dabadabadoo
microwaved
traveler
frisking
frisbees
frightful
frightens
recogniz
schooly
schlar
schroeder
winga
solomon
device
empties
empirial
generic
relig
spacesuits
paco
##gyah
munches
munchkins
pierce
pierced
##ksks
horrifying
polishing
confine
hickey
hiccom
nuzzling
nuirese
tramps
examines
examining
pineapples
temperatures
raging
brainy
provide
providing
equator
kamikaze
miert
pipis
pipers
rarh
rarah
rarrr
rararar
zackery
elevators
sprinkled
cooperated
gulped
titles
titmouse
##uralulafalafalus
shavings
jefferson
propelling
beading
paths
pathways
##drag
shyly
studies
studious
flushes
scribbles
wrecker
trapeod
trapecoid
mosque
kindergarteners
binging
bingbong
dunkin
dahdah
dahgee
intermission
interference
steaks
alador
cranston
ticketman
rumania
stanley
stanford
puttin
barbera
baloneys
teletable
biy
bikey
bibba
bibbidi
dohno
insane
insides
inspir
insisting
suggests
bawling
sniffly
sniffling
credible
destination
noonoo
zoar
chucka
nervously
wuzz
zachery
##uctive
chirper
drools
husbands
lordylor
lunar
midgets
pskettios
##matical
##enev
clucking
doubles
wuhhh
googolie
weedy
heroin
dragster
flopflop
paddlefish
benton
fetches
receipts
carnation
carnotaur
hydrants
portable
skeptical
##weight
##juju
stealth
advil
conversational
rashes
silliness
source
##ayayaya
chosen
doubly
croan
croquet
instruction
codes
tutus
streamlined
daddio
spoils
decklin
lingu
moomoos
marmot
doinkaboink
dootd
mainland
commeration
posterity
disgusted
splits
jaguarundi
akarsz
bonging
muckster
tsuh
blubber
snuffer
snuffie
consul
consuming
consult
consults
possibilities
fiddlers
gwenev
jetta
journeys
baldie
flupper
fluids
fluoresc
hatchamacallits
tenderly
scrapie
continent
continuing
continuous
cuddles
schmoo
lalie
lalalala
lawrence
shamrock
orchards
commons
community
commanded
commotion
gregory
snooby
squidwor
reflexes
casper
gallo
dodoo
dodies
dodged
dododootdoot
hendel
trotting
trotitit
sliming
##obiology
protection
margret
millionaire
attackers
eastman
pshew
yec
styles
styling
formal
cheetos
motive
motel
goofball
commercials
echoed
folklore
imhuh
moroc
roddy
wadded
waddles
waddling
yacking
##lestar
charmies
humped
necessities
bustling
##oodoodoodoodoo
kerplop
kerplunck
organizing
dominic
auld
dived
jewels
jeweled
khee
khuh
khookhookhook
nye
nyep
venice
incline
graceful
hollering
pegboard
appointments
microbiology
benefit
##oyoyoy
margareta
audiotape
dawdling
nungi
angcore
replay
replacing
trims
trimmed
crustimony
buddies
worthless
operas
squeaksqueak
bahbahs
trapezoids
detour
detatos
detroit
demol
democrat
surgery
vigyazz
##weejel
grinds
floppies
razors
expressive
expressions
distracting
journeyed
jaime
jazz
jagged
kaitlin
##rooom
inventing
inventor
inventions
liquids
scanner
privately
minnows
introducing
harpist
snarly
snargaloo
pigeon
gymnast
eeey
imitates
imitated
jiggy
jiggety
jiggaluh
muni
munich
tidmouth
winsor
website
##ededah
chomped
trapetoid
trapemoid
braver
mouthfuls
dehdeh
octagons
oregano
sighs
sighing
vrrroom
vrrrooom
##histamine
fortune
drowning
bloomed
cruising
cruiser
slidy
productions
prodigal
bowser
disappointment
urchins
corkscrew
modest
rolios
stumps
stumping
clarify
grading
gradma
firewood
prairies
strumming
unstable
generalizing
recommendations
congestion
dartboard
farted
pippit
pipple
pbthpbthpbth
santacla
victory
vicuna
whacking
shocker
blobbie
skinks
classrooms
##boobooboo
obsession
observatory
##agagagagagaga
customary
toucanet
dyw
pyth
peaks
romps
votes
wounds
##riters
limes
jugglers
bookshelves
enchant
typewriters
transformed
directing
arguments
nephews
bwu
bwapa
gurzy
gurdies
valamit
zaab
tosses
chunky
plasters
plastering
moldy
molds
fleecy
published
scolds
basilisk
reflections
kerplunkies
stubbornest
fountains
karly
karma
pishoo
pitterpatter
routines
##uvi
##uvuvi
bruiser
brachiasaurus
grrrr
grrrung
swirls
agahh
erasers
defensive
defended
rafts
bursts
obstinate
eskimos
concentrates
discovers
discovering
silently
strengths
aahbai
euros
reece
reeboks
szere
szia
tuhkuh
yippies
##uttering
hauls
replacements
lillie
tradgerate
official
puddly
monterey
waltz
booths
adahadah
advertising
pollies
pollute
speckled
taperecord
drumsticks
transcribed
cantaloupes
adjusted
boughie
false
falicky
nerf
nerves
ssss
sssss
ywame
ywant
zzzhhh
thorough
diddya
stiffer
tacks
frieda
twinklestar
divided
##ohoho
snatcher
##ropriate
hummingbirds
memorize
gwenivive
bernad
bumbum
bumbumbum
dims
dasher
hitcha
hitched
jedis
mutts
oogah
ooguhdah
rarely
rumpusing
sensible
sensational
habitat
kneading
platfor
malone
maloof
reactions
spicier
aguah
procession
procrast
boofer
spectacles
physics
rewinding
drebble
injure
champagne
trusted
coasters
newtons
appropriately
launched
events
bombom
croaky
veterinarians
nayee
ralphy
toura
tours
yanking
infants
soaky
soakie
soakies
blasters
brrrring
grogg
greetings
remains
suffix
shoemakers
mousies
choochoochoo
choochoochoochoo
termites
##alafalaf
shaftoe
attracts
ayayayayay
chatterbox
barefooted
shrieks
dalmatians
performer
talents
threatening
bashing
dudi
dudn
dudush
duditah
fading
fadder
faddle
fadders
irish
irving
loons
persistent
ruhruh
tangerines
##casting
canyons
jumble
jumbles
jumangi
dadadadadadadad
spoken
fluffing
screeched
screeching
successfully
admired
admitted
admiring
adadadadadah
appliances
supported
vaccine
vaccines
acrobats
acrobatic
akkk
effective
entertained
responsible
predicting
fascinating
binkie
crews
dairio
gourmet
gagaa
lament
occasion
pumommy
unex
##ynthesis
noisies
revolution
wannu
wannna
cherios
cherrios
twenties
tweezer
buoydi
wriggle
strangest
oinkoinkoink
rooftop
phonetic
woodpeckers
deserving
announcements
cockatoos
subjecting
##iyaiyai
chrysler
bjj
fattest
fakalli
jakey
psss
pssss
rusted
umyumyumyumyum
##uyus
##restrial
hetty
angeles
angelfish
##isket
weepin
weeping
injections
mehetsz
shelter
shelters
chilled
trampling
broadway
broadcasting
ornate
##ablu
##ablabl
arnchu
arrival
waitresses
intellectual
parasaurol
parasuralulafalafalus
debby
debating
explodes
tortured
waddled
groaning
challenging
lurking
lurched
pthl
wisdom
weave
##iatr
##gnagna
whirling
stooping
stooped
chambers
chamomile
makiki
maketuk
hupkym
coastal
cramped
catholic
progeny
encourage
encourages
performed
shortrib
desperation
paddywack
hysterics
tortilla
transportation
temples
tempera
temporarily
swimsuits
interviews
croissants
##oyoyoyoyoyoyoyoy
varieties
##heeheehee
moisturizing
stabilizing
olympics
dududu
dudududu
farewell
festiv
gillow
gillian
greece
piac
piquet
pongs
pookiepie
ricies
sultan
sulfide
squeesh
thighs
shenzi
shredding
bacuum
balentine
##adumdadum
trowbridge
flossing
slapped
pudsy
##iptive
hibernate
hibernation
proseedcake
prospector
prosperity
nightingale
horizontal
snitching
longnecks
glitches
poofrem
improved
racoons
passports
laboratory
estimation
estimates
controlling
snowsuits
##buhbuhbuh
bledder
gaines
gutchi
josie
josina
kikis
kikuyus
pahoo
rushmore
sooee
tudor
uwies
vaginas
woopie
woopla
##metrical
##blade
inflated
cheezits
chandeliers
abandon
bloodshot
blimpies
overdone
##iltskin
carbon
carbohydr
cluack
clucked
##eedooboop
elisiah
commentary
sugared
dionne
prancing
primarily
primrose
tehshishon
granddaughter
sketzy
identical
permanently
refresher
refreshing
bandito
banditos
nutrish
luxury
contented
resistance
dotdeedooboop
millennium
buhbup
labelled
fervoff
misunderstanding
released
##bahbahbah
entranced
meltdowns
blindfolded
reflected
spectacled
hubcaps
technically
yahyahyahyah
athletic
kaplunk
codeine
cultures
feature
features
higgins
kooz
komt
kerspold
keenas
oompa
obeys
rinsie
slyly
unable
unaware
unavailable
wicket
wifey
zayres
##ruffruff
##duddy
##gaygay
thunders
doogin
doogah
##idididi
sheehan
##enanenan
tajumb
plastered
sociable
bracket
twitching
twitchett
gretchen
diku
dikka
smearing
leonard
roberts
coupling
glossy
##ichichichi
sandcastles
saddies
conceive
conceivable
salugo
seamus
education
educated
educational
accurately
flattering
principle
cockadoodledo
frankenswine
magnolias
kristy
increase
increases
relatively
mechanical
biobio
insulted
pinecones
googoogaga
crocheting
communication
clippityclop
illustrator
illustrations
vrrmmm
##dubdubdub
squelch
pomegranates
petticoats
bthabthab
bilbo
dungarees
euhh
faye
gutchy
kassey
korean
mesmerized
nimble
oobooboo
tressy
trespass
tilted
www
wwanna
wardrobe
zhup
zhoop
zingo
##neme
whiner
whinnie
whasat
whattaya
hesitated
uppiedoo
churches
maukey
ababababoo
dromedary
blotted
brighams
bribing
bribed
orbits
whynchu
negatives
critic
critical
##ushushushush
hoowey
pudzio
mmdada
scatters
scenery
fizzing
fizzies
ummmae
##upupupup
diagonal
lehet
harvesting
harvesters
snorting
adjective
adededeh
glimmer
functioning
huntsman
huntsberry
rollersk
securely
preserver
delphadin
##ulafalafalafalaf
dumdum
dumdadumdadum
cashews
doodoodoodoodoodoo
##clopedias
translate
translating
abcdefgh
expeditions
videotape
postcards
##ungungungung
confirm
photosynthesis
interaction
responded
chchchchchch
cumulus
cumulonimb
grrrrrr
dimetapp
psychology
psychiatr
senorita
umyumyumyumyumyumyum
umyumyumyumyumyumyumyum
requests
reassuringly
skedaddled
environmentally
borage
cuffin
gnawing
gnagnagna
gadget
hrrum
nubirds
qrx
romeo
summary
tetanus
tetrazzini
tinkling
tango
ultra
uguah
vavuvuvi
witness
widest
wopawopawo
waddya
##aigah
##schke
##gogogo
whitest
doobee
doobie
shwu
shwoop
stoves
##adedaded
chachalaca
plunger
plankton
troops
alfas
spickie
assembled
agraba
agrabah
columns
adopted
##ewoodewood
babababoop
politeness
consonant
consonants
disagre
disagree
phillip
phillips
rubadubdub
luciwall
luciwull
captive
capturing
collapsing
collapses
spaghettis
spaghettio
cartwheels
symptoms
mccarty
transferred
tiptoeing
expiration
expirational
tempted
volunteered
volunteer
philippe
philippines
reflexology
duplicate
affectionate
agugugugugu
citizen
citizens
persuade
defecate
defecating
coordinated
##abugabugabuga
archaeologist
photocopier
photocopying
irritable
irritated
sincerely
flabbergasted
bicis
benson
bundler
csoki
djave
dillinger
eshay
facial
gidday
gehlie
igea
jagsey
koszon
ndadada
nndah
nasturtium
okefen
osteop
oahu
summoning
soopa
samples
tepee
ttttt
uuuw
vrump
yanked
zorro
zacalli
##ladd
##nighnigh
##gachoogachoo
##wooshywooshy
##bwuhbwuh
wheezing
toodleloo
gobblers
heffal
anatomy
anesthetist
##owiowi
hacking
sheam
shabat
shmonin
reggiano
rejects
##ookietookiet
stalks
stylus
staggering
##adodadod
updated
chgchg
chisel
plodded
plumbing
soaftie
trixie
maintenance
alpine
alibabah
##ophus
##auggaugg
drakey
fraiser
browse
browsing
overheard
overcooked
overflowing
overcoats
dadadun
carnadors
clearer
claudia
saurus
criminal
crouches
grumbly
pukkie
pretender
removing
remarkable
##ulubulub
scanned
colossal
suburban
sustaining
select
wowowowah
wringler
writie
mincemeat
newscaster
underestimate
enclose
afloat
ambient
penetrate
penalty
appalet
approved
##ubudubud
supposing
whoopsiedaisy
recreational
grandchildren
skippity
marinade
numberer
deflating
daffodils
davenports
bababoop
hamantaschen
givya
fuddyduddy
conjunction
dingadingading
territory
curiosity
megyunk
calibrated
lyrics
indicator
companion
serpent
thumbtacks
imprevue
resources
reservoir
cinderellee
antihistamine
antarctica
merchant
dukadoo
oyoyoyoyoyoyo
cautious
obscene
transparent
yawnanananana
dieffenbachia
nickolodian
distinctly
discouraged
reporters
republican
reluctant
interpreting
rapidly
brontosauri
##juyjuy
fudgecicles
khkhkhkhkh
mascara
lifesaver
braunwald
precariously
recyclable
traditional
rumplestiltskin
##opygallopygall
suffocating
espacio
parasurulafalafalafalaf
hypothesis
tortellini
refreshments
embarrassing
crystallized
messenger
dromedarys
snorkel
jalapeno
scandalous
intrigues
skoodledoop
alderon
moccasin
awning
amplifier
aardvark
austin
ajax
aangelopen
ajumelargi
dmitri
dylan
dmmm
dhoti
eeaw
eldest
eureka
economically
ezeket
fischer
fulfill
fardella
feasible
gitta
geeta
housing
hannah
ibis
jemima
jigsaw
kuskin
kotter
kakechuating
kewie
kanevil
kilenc
kawaii
lusil
loren
lansinal
laminate
migration
method
monger
muntamum
mumbudy
nantucket
nangnangnang
nunchkie
niledy
ogoh
oshka
odenowich
oshkosh
peadinger
pinto
parentheses
rooney
rickel
rraaarrr
siccing
saints
teresa
tressa
tannenbaum
ububububububub
udders
vessel
valleys
vipers
vakas
virtue
vylee
vuvva
voumvoum
wamme
wusat
wuckpoo
wirsty
wintry
wsws
witzi
xerox
yeddy
yunna
yosemite
yarmouth
yubbuda
yiyiyiyiy
zjroop
zowwy
zoboomaf
##teedoop
##ijklmnopqrstuv
##wuwoo
thimble
thumbelin
thyme
therapeutic
whillikers
dorrie
tooralee
hentschke
heirloom
animation
anastasia
anchovies
anecdote
analogy
anagandzanders
weenie
weddings
nobotics
inappropriate
inexpensive
ingrid
ingenious
shanties
shanghai
shukaday
lizzes
beckoning
melloan
meerkat
##stantial
stadium
stornth
stobo
stoats
knuckles
##amundo
taillight
shepherd
chauffeur
chelo
chavane
choppers
chunganow
chutterchoo
chichichichichichi
nottingham
notoloko
soggiest
allegedly
trundle
triscuits
outgoing
abyss
aboodedy
huddled
algae
almighty
alcohol
blintzes
blughk
frabedes
frolicked
framingham
frigidaire
brockmier
carrothead
clahe
clusters
spidey
saifi
bookmarks
gruesome
grimsby
gruyere
grapenuts
preceded
eliott
swikka
waimanalo
aristocrat
arbitrary
worrisome
mmnyumnyumnyumnyumnyumnyumnyumnyum
manipulate
mangrove
muzzles
muddly
agustus
helvetica
kindergartener
coltrane
suzanne
suklami
loquacious
piccalilli
sequoia
pegleg
peccary
brennen
privyet
redbreast
intensified
intrusive
lebanon
sweetwilliam
undecided
hairdresser
encyclopedias
enjoys
structure
ambitious
finiculi
glappens
glimpse
teakettle
beaujolais
suppertime
recollection
airborne
runninout
awowowow
barthopeyew
ergyik
unsafe
deginneme
beloofd
pofez
flyswatter
daihu
garbagy
eyeglass
englishman
pockowait
acquaintance
humneycuck
confined
hugudugud
strawberery
godivas
delicioso
riviera
roadrunner
robitussin
hippomapotamus
bellybelly
kalamazoo
decongestant
mademoiselle
scratchscratch
descriptive
megablocks
hooginschmidt
rhetorical
accompany
chaqueta
capricorn
contribute
merrygoround
seraspond
followthedots
shipwreck
antibiotic
jezebel
syllabus
synonyms
sycamore
mcvetter
woawoawoah
mernemer
cockroaches
flashcubes
corroded
corridor
hayloft
nicknames
achooachooachoo
distribut
distractions
losangelus
beetabeetuh
assumptions
schoolyard
inspiration
lordylordy
consultation
fluorescent
squidworth
dododootdootdo
trotititrot
santaclaus
adahadahadoo
bernadette
platforms
dadadadadadadadadadada
##ablablabla
parasaurolophus
hupkymupky
kerspolde
bthabthabtha
trespassers
delphadinia
abcdefghijklmnopqrstuv
cumulonimbus
koszonom
okefenokee
parasurulafalafalafalafalus
zoboomafoo
thumbelina
abcdefghijklmnopqrstuvwxyz
