[PAD]
[UNK]
[CLS]
[SEP]
[MASK]
!
"
#
$
%
&
'
(
)
*
+
,
-
.
/
0
1
2
3
4
5
6
7
8
9
:
;
<
=
>
?
@
[
\
]
^
_
`
a
b
c
d
e
f
g
h
i
j
k
l
m
n
o
p
q
r
s
t
u
v
w
x
y
z
{
|
}
~












¡
¢
£
¥
¦
§
©
«
­
®
¯
°
±
²
³
´
µ
¶
·
¸
¹
º
»
¼
½
¿
×
ß
à
á
â
ã
ä
å
æ
ç
è
é
ê
ë
ì
í
î
ï
ð
ñ
ò
ó
ô
õ
ö
÷
ø
ù
ú
û
ü
ý
þ
ā
ă
ć
č
đ
ē
ę
ě
ğ
ī
ı
ł
ň
ō
œ
ř
ś
ş
š
ţ
ū
ů
ž
ɐ
ə
ɛ
ʒ
ʔ
ʻ
ˈ
ː
˚
˜
̇
ά
έ
ή
ί
α
β
γ
δ
ε
η
θ
ι
κ
λ
μ
ν
ξ
ο
π
ρ
ς
σ
τ
υ
φ
χ
ω
ό
ύ
ώ
а
б
в
г
д
е
ж
з
и
й
к
л
м
н
о
п
р
с
т
у
ф
х
ц
ч
ш
щ
ы
ь
э
ю
я
ё
ѕ
і
י
،
ا
ب
ة
ت
ح
خ
د
ر
ز
س
ط
ظ
ع
ف
ق
ك
ل
م
ن
ه
و
ي
گ
ی
य
र
ल
ा
ि
े
्
ก
ข
ง
ด
ท
น
ป
ม
ย
ร
ล
ว
ห
อ
า
ี
เ
ไ
่
้
๋
ა
ი
ḍ
ḷ
ṃ
ṅ
ṇ
ṛ
ṣ
ṭ
ἀ
ἰ
ὀ
ὐ
ῖ
ῶ
​
‎
‐
‑
–
—
―
‘
’
‚
“
”
„
‡
•
․
…
′
″
›
※
⁄
₂
€
™
↑
→
↓
⇓
−
∞
∥
∷
∼
≈
≥
─
┃
█
■
▪
►
▼
◊
★
♦
❤
➜
、
。
々
〈
〉
「
」
『
』
あ
い
う
え
お
か
が
き
く
け
げ
こ
さ
し
じ
す
ず
そ
た
だ
ち
っ
つ
て
で
と
ど
な
に
の
は
ば
び
へ
べ
ま
み
む
め
も
や
よ
ら
り
る
れ
ろ
わ
を
ん
ァ
ア
ィ
イ
ゥ
ウ
ェ
エ
ォ
オ
カ
キ
ギ
ク
グ
ゲ
コ
ゴ
サ
シ
ジ
ス
ズ
セ
ソ
ゾ
タ
ダ
チ
ッ
ツ
テ
デ
ト
ド
ナ
ニ
ネ
ノ
バ
ヒ
ビ
ピ
フ
ブ
プ
ヘ
ホ
ボ
マ
ミ
ム
メ
モ
ャ
ヤ
ュ
ユ
ョ
ラ
リ
ル
レ
ロ
ワ
ン
ヴ
・
ー
ㅋ
一
上
下
不
中
事
亡
京
人
他
以
件
位
低
体
何
作
係
側
傷
先
光
入
全
公
内
出
分
切
初
判
別
前
力
助
動
北
占
原
可
同
名
向
告
員
問
回
因
在
地
域
報
場
外
多
夜
大
失
始
姿
子
存
学
定
実
家
容
密
察
審
対
射
小
局
履
山
峠
崩
州
工
常
年
度
式
引
張
弾
当
彼
後
性
想
意
態
所
折
持
捜
探
接
損
撃
放
文
料
斜
新
方
日
明
時
書
最
月
有
服
木
本
東
査
森
検
極
機
次
死
残
気
渓
温
点
無
然
版
物
特
状
現
球
理
生
画
症
発
登
的
目
直
県
真
着
研
示
科
秘
究
立
索
終
結
線
編
置
考
者
能
脱
自
至
色
落
著
行
衣
裂
要
見
解
記
設
証
語
説
調
論
警
谷
象
負
財
資
起
超
足
跡
身
軍
近
述
送
通
連
道
遺
部
都
量
長
開
間
関
隊
集
離
難
雪
面
靴
頭
風
験
骨
高
가
각
간
갔
같
개
거
건
걸
검
겁
것
게
겠
겨
견
결
경
계
고
공
과
관
광
구
국
권
그
극
글
금
기
긴
김
까
끝
끼
나
난
날
남
났
내
냐
너
년
노
놓
눈
뉴
느
는
늘
니
다
단
담
당
대
더
던
데
도
독
돈
동
됐
되
된
두
드
든
들
등
디
따
딸
때
떳
떻
또
라
락
람
랑
래
러
런
럼
렇
레
려
로
론
루
르
른
를
름
리
린
마
만
많
말
매
먼
며
면
모
몰
못
무
문
물
뭐
미
민
바
박
밖
반
받
발
밝
버
번
벌
범
법
변
별
병
보
복
본
봤
부
분
불
뷰
비
빠
사
살
상
생
서
석
선
섭
세
소
손
송
수
순
숨
스
슬
습
시
식
신
실
싫
심
싶
싸
씨
아
안
않
알
았
애
야
약
양
어
억
언
얼
엄
없
었
에
여
연
열
였
영
예
오
온
올
와
왔
왜
요
용
우
운
울
워
원
웠
위
유
으
은
을
음
응
의
이
인
일
있
자
작
잘
장
재
저
적
전
정
제
져
조
좀
주
죽
준
중
증
지
진
질
집
쪽
차
찰
처
청
체
추
취
친
키
타
터
테
판
편
평
표
하
한
할
함
해
했
행
혀
현
혐
혜
호
혹
혼
화
확
활
황
회
후
훈
흥
히
힘
️
﻿
（
）
：
＝
＞
�
🐒
😉
🙂
##o
##l
##w
##e
##d
##t
##a
##m
##r
##p
##n
##g
##k
##i
##u
##s
##h
##ü
##y
##b
##x
##v
##z
##а
##й
##н
##ö
##ä
##c
##š
##5
##2
##4
##6
##편
##도
##0
##­
##8
##3
##9
##으
##면
##f
##á
##υ
##σ
##π
##ρ
##ό
##ι
##τ
##ο
##ς
##인
##다
##リ
##ヴ
##ォ
##ニ
##シ
##チ
##ェ
##ン
##コ
##q
##니
##1
##j
##ï
##ァ
##ノ
##フ
##人
##は
##ィ
##ク
##ョ
##늘
##이
##о
##ā
##é
##í
##시
##당
##하
##고
##보
##7
##έ
##호
##사
##ó
##õ
##
##ø
##별
##한
##е
##с
##è
##集
##밖
##에
##у
##к
##ц
##и
##는
##ñ
##ō
##т
##р
##в
##я
##局
##の
##最
##終
##的
##な
##調
##査
##結
##л
##х
##ч
##з
##°
##혼
##年
##月
##体
##着
##だ
##っ
##た
##件
##原
##因
##å
##м
##語
##版
##і
##게
##ω
##â
##ă
##đ
##→
##ß
##λ
##™
##ç
##®
##×
##が
##メ
##ー
##ト
##ル
##高
##さ
##ま
##で
##折
##ら
##れ
##て
##い
##こ
##と
##論
##を
##き
##起
##し
##른
##처
##를
##을
##해
##순
##씨
##가
##े
##्
##र
##ʻ
##재
##겠
##무
##
##ビ
##イ
##ロ
##ネ
##나
##д
##ã
##ャ
##ラ
##루
##ボ
##＝
##ブ
##遺
##頭
##部
##に
##大
##負
##お
##り
##山
##č
##対
##す
##る
##見
##有
##
##α
##ν
##θ
##ά
##ε
##そ
##木
##か
##실
##서
##б
##º
##지
##ы
##자
##의
##エ
##ワ
##著
##書
##ò
##회
##생
##활
##수
##資
##料
##や
##他
##文
##ѕ
##ı
##п
##ь
##行
##ダ
##け
##死
##亡
##ど
##ů
##ὐ
##ῖ
##간
##ύ
##η
##
##ī
##€
##œ
##
##ú
##까
##方
##금
##プ
##多
##く
##ウ
##科
##学
##物
##目
##中
##선
##つ
##も
##長
##時
##間
##雪
##日
##光
##ば
##⁄
##ː
##었
##데
##상
##라
##마
##ž
##æ
##ṣ
##ṇ
##½
##ر
##ا
##م
##س
##ت
##각
##δ
##광
##석
##デ
##骨
##小
##裂
##ф
##ë
##행
##β
##崩
##斜
##度
##以
##上
##発
##生
##습
##直
##接
##通
##じ
##道
##位
##置
##ě
##地
##域
##г
##à
##원
##連
##内
##要
##実
##験
##場
##ヤ
##ţ
##문
##事
##前
##ア
##ユ
##어
##オ
##テ
##側
##あ
##ホ
##ジ
##ミ
##복
##ˈ
##ʔ
##못
##스
##기
##려
##ی
##리
##ш
##아
##있
##ř
##ṭ
##一
##出
##ス
##ド
##州
##公
##よ
##う
##状
##態
##低
##温
##症
##ý
##들
##랑
##�
##았
##察
##当
##特
##別
##可
##報
##告
##関
##わ
##ず
##述
##べ
##¹
##여
##ل
##و
##ن
##μ
##ḷ
##정
##와
##떳
##은
##전
##병
##²
##ṛ
##물
##ę
##¦
##ю
##건
##일
##損
##傷
##放
##론
##중
##위
##로
##ɛ
##ə
##음
##ś
##ṃ
##カ
##作
##약
##説
##家
##気
##̇
##법
##モ
##キ
##ュ
##タ
##立
##³
##索
##î
##風
##ッ
##び
##バ
##저
##ʒ
##考
##県
##げ
##ん
##러
##했
##🐒
##범
##년
##画
##下
##落
##ῶ
##ć
##ナ
##부
##存
##者
##ū
##式
##ち
##記
##견
##ა
##ი
##検
##明
##ح
##分
##極
##意
##失
##´
##د
##ك
##±
##화
##マ
##足
##跡
##残
##γ
##子
##적
##대
##민
##디
##연
##ş
##ğ
##
##示
##단
##گ
##本
##セ
##ソ
##捜
##新
##공
##ê
##모
##국
##外
##​
##不
##難
##❤
##️
##า
##ด
##อ
##ง
##現
##近
##ツ
##財
##向
##先
##動
##열
##울
##만
##え
##๋
##ว
##ย
##เ
##ี
##ร
##느
##경
##놓
##初
##北
##レ
##グ
##장
##¸
##隊
##ヒ
##ギ
##所
##渓
##谷
##되
##常
##力
##ή
##審
##問
##始
##め
##야
##던
##य
##設
##定
##히
##ί
##였
##自
##然
##오
##離
##サ
##소
##ه
##軍
##秘
##密
##진
##난
##미
##占
##ô
##변
##응
##探
##찰
##황
##제
##분
##─
##˜
##究
##超
##象
##걸
##요
##
##든
##할
##웠
##온
##何
##衣
##服
##름
##람
##係
##む
##
##런
##ḍ
##脱
##더
##끼
##解
##姿
##靴
##履
##긴
##냐
##ป
##ท
##르
##확
##검
##증
##후
##혜
##ع
##ط
##ب
##권
##י
##빠
##드
##우
##÷
##ล
##้
##말
##것
##테
##렇
##ゥ
##工
##ي
##동
##됐
##락
##ム
##理
##線
##量
##射
##性
##워
##峠
##ز
##‎
##ㅋ
##ж
##東
##面
##럼
##่
##点
##機
##져
##용
##혀
##ة
##양
##球
##표
##ピ
##後
##∷
##돈
##へ
##登
##ल
##ि
##ð
##⇓
##森
##ň
##송
##반
##ม
##등
##혹
##조
##在
##며
##린
##น
##次
##ё
##신
##애
##容
##거
##ώ
##能
##ì
##ไ
##身
##◊
##♦
##매
##겁
##개
##彼
##京
##都
##번
##구
##¼
##ɐ
##과
##خ
##щ
##내
##無
##撃
##送
##세
##났
##왔
##み
##손
##래
##체
##χ
##κ
##¢
##回
##想
##ق
##ろ
##引
##작
##없
##入
##−
##심
##員
##억
##담
##々
##持
##노
##주
##真
##全
##질
##ヘ
##証
##살
##研
##겨
##준
##助
##ห
##집
##청
##切
##운
##
##名
##많
##터
##█
##判
##ゾ
##至
##된
##ゲ
##때
##ł
##û
##ズ
##ù
##ṅ
##올
##ा
##두
##＞
##≈
##버
##쪽
##친
##봤
##開
##너
##식
##張
##警
##갔
##色
##©
##예
##ก
##안
##발
##夜
##
##훈
##﻿
##э
##ξ
##섭
##함
##관
##弾
##비
##현
##독
##˚
##흥
##ظ
##ف
##∞
##혐
##떻
##차
##뷰
##ゴ
##판
##벌
##ē
##₂
##
##불
##극
##받
##먼
##날
##뉴
##레
##결
##φ
##타
th
the
##er
##in
##at
##ou
##re
##an
##on
##es
##nd
##ing
##it
##ll
to
##en
wh
##ar
##or
you
##ed
it
in
and
no
##is
of
##om
##le
is
##ay
on
##as
##ow
##ic
that
##ig
##oo
##et
##ac
##ut
##al
##id
re
be
se
##st
can
##ve
##ir
##ht
##ot
do
##ke
sh
he
##ion
st
##se
##ight
##ad
what
##ld
##ent
are
##ly
we
##ack
see
##ook
bl
##all
##am
##ith
##ere
li
for
with
##ur
there
not
##ite
##ver
yes
an
ha
##ch
##im
look
##ell
##ro
this
le
##ome
white
##ers
##th
like
go
ch
they
fr
right
but
##ant
##ter
##ct
su
##ce
at
##ab
##ust
##il
so
##ink
##pp
##ge
have
mo
##ie
don
as
##own
##ill
or
##and
ne
##ol
was
##op
tr
br
##ould
pl
me
ye
oh
##ain
tell
black
##ue
##ft
de
your
##ation
##us
##um
just
one
all
some
ab
up
con
##est
##ood
cl
##ate
think
ok
##ul
okay
##un
al
looks
out
##ah
##ap
##ally
left
man
here
##ide
she
##ind
##ard
com
##ound
his
##out
##ck
##itt
gr
kn
pro
##art
##os
from
ma
##ort
##ff
sp
back
##na
##res
gre
##ess
did
##ist
##ri
who
pe
by
has
yeah
get
ex
sa
##ast
want
about
bo
##her
may
know
blue
##one
##ive
red
##ies
say
where
ar
##ment
co
brown
##ice
##oug
them
more
##ther
##el
put
##irt
##ure
##ity
wor
how
fe
let
##be
##ery
gu
##ose
##nt
ta
would
##ame
does
her
##ark
over
if
##ick
other
20
te
off
will
good
any
peop
people
now
litt
play
cou
little
very
##dy
##ong
##ra
##ars
##are
##ass
##au
ro
##ich
##ore
##ry
my
##ine
##ime
bot
##ect
us
maybe
##ish
only
##ag
ad
un
bu
##able
##age
##ber
##ough
said
too
di
part
tw
##iz
app
down
green
##ep
en
##ib
their
well
than
shirt
ll
##hing
fl
##ans
when
sc
##ace
##em
##onna
##king
gonna
ag
bec
really
new
sm
car
##ild
day
##ven
pre
big
##ip
were
am
him
##ud
##ach
##ater
##ict
pr
##ial
##ase
top
gir
##ont
im
##ond
pers
##ous
po
could
had
##ause
going
int
##if
guy
##way
##ign
##act
##gr
person
##pt
##ors
##side
far
comp
come
##cc
##our
which
ph
##air
##ile
##ings
col
##ree
time
##ions
lo
qu
sure
wom
##ak
make
##ence
##iv
af
ah
res
because
then
##qu
##ire
##ellow
##so
##av
cont
##ang
##ub
##pe
got
yellow
cr
##ia
##my
two
front
mom
##ance
##ult
##ange
##ress
hand
hu
##other
##pl
read
mid
##ated
been
##atch
its
bott
sk
ho
way
##nder
##ty
light
ever
per
##day
these
##uck
girl
##omet
##ny
most
lot
##urn
fir
##les
##per
##ord
after
somet
##ens
bab
##anna
gl
need
##ph
##ary
##orn
take
bet
wanna
those
act
small
first
why
##we
also
hard
ind
##ible
stand
##gg
kind
cle
dis
inc
woman
##int
book
mu
many
thr
##orm
pol
pict
##dle
##ian
el
bus
under
rec
into
hel
la
##ade
side
eat
around
baby
##ouse
##ull
again
our
prob
table
inter
rem
ve
show
##ting
boy
##iss
work
should
##ple
em
dark
old
##bo
ele
sec
something
wr
##ical
doing
bottom
mommy
##ory
sl
201
long
##og
sun
tre
##ground
rep
head
##oc
op
##ving
des
spe
every
##ool
another
##ock
##ail
build
jo
##ations
vis
happ
##up
middle
##ath
call
huh
dad
pret
##oss
color
10
away
water
##ants
picture
bel
##ms
appe
##aring
##xt
even
##ump
comm
chair
short
cann
background
close
beh
hm
##alk
##vel
diff
gray
min
doesn
cam
much
##oney
dr
cre
##ird
ke
aha
turn
cannot
##ious
##ates
bre
che
lar
19
##ix
few
ear
##ably
both
says
orange
acc
pres
##lf
hold
ser
cent
##ition
open
mon
##igh
sch
##uct
##ons
house
str
##als
daddy
##hm
att
count
ball
##wn
sign
pretty
help
##ady
wa
wood
##ush
##lic
behind
cat
try
year
##ise
##de
face
##ents
##ces
looking
supp
##get
stre
med
##ower
else
dog
nice
didn
differ
might
sn
dec
mhm
bit
phot
##ually
through
probably
thank
fin
inside
home
##ank
find
##ek
##ved
##right
last
use
30
imp
##kes
outside
##itting
sit
##ake
##fore
ed
reg
mar
made
##ves
while
wind
wearing
years
def
um
three
##oot
isn
dist
##ys
room
next
##end
grey
##man
give
fun
end
standing
##atter
##ful
visible
cons
still
hat
ob
train
cut
##ets
sil
trees
high
##ds
##ave
photo
##io
large
##ps
##ee
sy
##00
glass
things
##form
##aff
bed
before
num
being
##ows
fo
wall
bear
state
start
##iew
sur
clear
alright
clou
##thing
##ss
##ward
##ought
##cy
rel
sw
leg
night
bas
hair
ev
sitting
second
##ember
thing
different
pie
##ma
pink
pur
##te
##ug
##ular
##ident
##der
##ual
##cial
inv
game
##ating
##ger
##ning
##mo
met
child
watch
same
name
exp
mark
##ert
school
##ci
kid
cap
bro
##ied
sunny
##ily
##vers
flo
##ced
box
real
##aper
food
add
run
air
##oth
##eric
sle
##self
world
##ction
bird
cur
team
male
##ather
dri
happen
nope
##lud
hor
##mer
silver
ref
##ublic
mil
ac
##ash
inst
war
##ren
poss
today
##ject
##ount
sky
sand
set
##ize
truck
belie
americ
cour
##ane
ter
better
##raw
pants
##ike
great
stu
##cle
mm
though
##ope
point
##oon
gen
##ative
##osed
appears
swe
honey
##fe
own
rest
remember
##ason
wait
care
park
cook
uh
##lease
goes
guess
full
mean
found
stri
anim
##ng
sim
ass
##itch
jack
char
##ese
includ
##ier
building
##wh
sub
street
##ute
##ats
hal
##ince
ty
such
##ures
##olog
##ited
##ton
##ational
##ics
##imes
grass
##az
##vern
##alking
center
##ween
##uring
report
pot
between
200
##ama
went
##its
##ments
je
called
govern
##ins
##ium
##unch
##outh
floor
four
bar
##ead
bow
##co
coll
##rect
##br
city
horse
keep
ide
ban
cup
each
##ities
##ific
actually
week
conf
##owing
fac
##led
##ues
near
##ble
##ither
ask
dem
##ross
ey
against
half
##ape
##ork
eleph
cover
ben
men
##ove
camer
corn
##ever
lady
used
##most
tan
##za
##ized
pick
grou
eng
conc
##time
##pped
young
story
##ield
feel
sing
early
prod
fall
since
##ne
sho
ste
cow
resp
lead
##red
ground
ap
clean
##gan
eff
##ames
paper
##ness
hi
aut
##ote
list
##ric
##cept
lots
trans
law
seems
ready
hot
must
please
never
##ility
talk
##iend
ju
offic
##arch
believe
##sp
pa
ze
seen
12
holding
bowl
##land
##sh
distance
foot
squ
art
ret
plate
camera
##ken
number
done
ext
president
late
##ider
##ner
hum
miss
scre
##illion
hey
fam
place
getting
won
door
piz
enough
sever
main
elephant
told
##urt
support
least
block
government
yet
post
nothing
win
drink
during
##cess
friend
##stem
police
foll
##aim
piece
pass
love
making
##body
snow
fire
##ana
hands
several
dress
##ared
playing
sleep
thought
mem
det
##rib
##ism
shorts
##ists
##min
cloudy
record
public
##ices
move
pizza
##oy
happened
cor
chr
pop
##con
##uss
break
##amp
fore
##ored
##med
##bers
whole
anything
mot
pen
##ina
push
sort
either
quest
cars
##ines
gener
##ball
15
system
corner
coun
##ense
##board
bring
##ling
daytime
dirt
ra
five
fact
toget
together
job
compan
draw
later
stuff
giraff
stop
##ished
view
prov
inf
month
best
almost
bag
women
direct
par
purple
eas
ge
pri
##ways
player
phone
jacket
##att
window
doll
stud
size
##ator
wow
##key
bye
money
power
polit
##ired
rock
feet
coming
##room
prot
##ots
##bra
##ige
pull
##ution
##ister
##velop
##less
mostly
road
pu
##iam
##iting
exper
##ient
trump
catch
idea
nor
design
##ror
tree
came
##ages
bike
##ains
morn
##els
develop
40
ones
life
cake
disc
11
cal
##pper
##ready
already
morning
unt
##do
tom
image
camp
##str
area
plan
##aur
expl
contin
opp
bad
adult
mus
##by
iss
stick
group
##oun
##cast
##ives
ent
stay
strip
without
##uc
court
hell
din
##uit
zebra
##iness
##ience
clos
comple
commun
possib
interest
##gy
party
dep
contro
comes
fil
fema
suit
giraffe
ann
apple
gi
female
mr
##ries
uni
case
aw
board
past
##ned
##cent
adv
##ically
prof
country
tech
##owers
free
ten
##me
tall
line
proble
pet
mic
##ho
pos
##und
000
sweet
##hip
fix
##alth
av
loc
saw
cheese
eating
invest
##sc
##iding
milk
##bre
intern
##uce
boat
however
news
##cl
50
pain
pat
aren
mouth
##ts
##aug
cir
round
always
kitt
##ted
gold
beige
american
##ta
18
hear
having
someone
##ouch
whe
har
sol
mod
##ten
animals
##ides
change
couple
took
medium
using
##ention
pay
##aves
fish
##thers
##view
tow
##ected
duck
jeans
sal
trying
states
partic
requ
until
walk
less
sound
chick
##ature
field
business
store
accord
others
serv
##ety
##ital
couch
arm
##ster
elect
fur
##ision
test
taking
press
mult
appear
bun
##que
ce
sum
##ately
##ik
ir
type
sor
level
##ology
form
##row
land
quite
cloth
##illy
season
##stand
val
dat
class
mess
eyes
boo
above
##iver
times
coff
lap
leave
including
according
import
children
cond
everything
##rent
##acks
base
id
##zz
##ised
buy
possibly
result
lear
roll
hello
exam
##conom
cert
da
##lla
jump
product
sorry
percent
##ura
bright
once
throw
egg
##hn
##pping
cost
walking
##top
sheep
makes
##bs
ca
cream
25
recent
tv
econom
##wich
yep
auth
coffee
vi
hit
##ung
funny
var
incre
inform
star
del
blond
grand
##aps
##wards
##gram
pig
##ming
along
national
techn
million
six
key
##line
batter
working
buildings
able
##ral
minute
touch
appro
##ato
happy
metal
sandwich
saying
office
juice
##gress
spec
##atur
bir
rese
exc
##ased
oo
research
bath
william
##where
##ined
##pr
christ
blur
family
##used
counter
rain
spr
##phone
order
umbre
##ged
effect
across
net
eur
health
maj
step
based
##ases
20s
mag
prom
current
flowers
##ony
##ially
overcast
##ew
##ency
john
check
page
chang
program
lay
er
fair
wooden
##ald
lab
sen
##ls
shoes
present
##icy
living
days
glasses
mother
13
means
company
##anc
card
##tain
nose
##ones
talking
##ops
##unk
cold
##inal
motor
body
hurt
question
##idge
live
hist
whoo
clock
super
##gle
organ
market
screen
##ret
prev
windows
fence
ger
major
##tern
aver
project
##let
consider
birth
##ob
##ided
wants
sar
##aph
laura
asked
plane
certain
tax
##ocr
wanted
vide
14
human
mama
players
est
mir
third
wasn
tot
##ale
donut
united
fav
##atic
aff
dro
indo
shall
ham
##ey
fight
important
understand
fing
shot
kitch
##icle
##ife
univers
ice
##gin
bottle
process
##iling
games
gone
kitchen
16
##ggie
foc
##oof
##dd
thre
ant
##ugg
helm
fre
hour
##ional
##ude
facing
rece
##ppy
##ians
low
##ences
words
##mi
data
umbrella
books
fro
##ether
##ef
regular
blonde
gar
meet
word
fly
author
age
likely
port
##itor
lower
space
special
hang
matter
york
##ration
##bit
return
song
##oli
##go
##ocol
toys
##ief
##son
course
##iny
letter
taken
write
tape
##arent
ins
aftern
##avy
##illed
claim
democr
clim
clouds
cookie
##ges
##ior
rom
non
##une
equ
closed
fig
afternoon
##ract
prop
older
mount
deb
political
##work
oper
bill
fed
fund
legs
##ered
##aw
wrong
hill
opt
bench
information
bur
twent
possible
covered
engine
ur
norm
##lex
kids
##utes
animal
##erv
problem
##astic
writing
##ering
colored
instead
##sel
mix
occ
##ying
social
tick
official
former
##acy
carr
needs
micro
average
pan
colors
careful
##ern
choo
blurry
strong
north
##ories
ahead
##ising
199
banana
2nd
##aut
listen
##eth
media
whether
##aign
surf
cell
fell
running
fit
deal
sweetie
campaign
##ploy
##urs
beach
birthday
event
sarah
vot
yay
arg
lit
europe
##book
##ury
##owed
often
##airs
##ained
pract
bunny
summer
mind
sour
republic
match
lett
hope
pic
quick
silly
rather
become
kiss
##ler
chocol
dirty
17
##od
clothes
##ality
adam
priv
outdo
seem
trad
dou
below
##artment
tele
bread
##ued
##ison
butter
hy
chocolate
##ensive
eight
leaves
tie
reason
favor
##ators
comput
den
blank
desk
ride
##lish
soon
cho
months
ooh
##raft
perform
##ummy
tail
sometimes
##cut
laptop
wond
music
square
crit
##nding
lim
sink
dev
kittie
fut
started
cry
conn
indoors
es
##aster
comb
##ley
##ured
gave
video
##aking
shad
nap
row
sou
##idence
defin
ross
friends
sam
mov
further
##ene
moder
##pty
mal
brocc
vers
study
sto
wear
complete
activ
yourself
##orts
##cil
##ift
ago
secur
whoops
##ential
dom
turned
toile
viol
helmet
fast
known
pictures
bank
##gest
orig
##ified
enter
##iously
among
##uary
within
##ilar
sent
##af
single
tur
bush
colle
##ization
seat
supposed
slee
given
restaur
ru
##sw
brick
veh
30s
local
rad
##eral
chicken
motorcy
##amed
deep
00
guys
mirror
bare
bi
100
##itions
signs
south
soft
##iel
profess
##ables
desc
university
broccoli
seven
##0s
tar
##tt
putting
##ov
swim
ident
##ccess
everyone
mouse
spo
closest
toilet
cy
general
reach
##walk
ill
grow
entire
bat
dish
##eng
dav
##light
pack
##ection
exact
stra
watching
lights
alex
rele
stat
obama
cause
##mber
edge
following
pub
milit
example
particular
##lect
wild
##itter
spoon
security
members
circ
##aught
true
cross
fail
indust
doggie
washing
##ks
anyone
doct
lost
##ches
##empt
##umb
##ague
##uction
numbers
similar
future
compet
beaut
canad
attack
investig
pill
coat
tra
cool
hors
##nes
sugg
##aces
cand
rul
##ites
cab
control
##ney
##par
bell
community
##haps
spot
##ivid
perhaps
suggest
minutes
addition
##ument
sex
##ume
success
typ
anal
share
announ
wouldn
##lo
eth
##port
toy
##ipe
alone
##ortun
dead
gotta
walls
##itive
catcher
except
track
##soci
paul
striped
gets
eye
ow
const
russ
bask
german
restaurant
##iff
america
##erence
vict
finish
dre
vo
##iving
##reme
##fl
alth
heart
reported
although
individ
gun
proper
rob
plant
mich
service
empty
##cially
van
##com
ener
history
poor
series
associ
pieces
sized
##unt
scr
whoa
bunch
mass
##ze
##ips
##por
##fast
wash
##lin
town
tor
##ware
wide
invol
et
carry
##rest
issue
straight
whose
secret
wee
international
hon
pal
##case
##ails
lang
peek
sidewalk
impro
jud
oops
tit
zoo
sty
avail
##selves
##cket
standard
drive
begin
brush
abe
repres
points
button
scient
policy
##vert
##ried
21
plastic
##app
huge
god
##ilt
tem
##kin
sat
easy
bang
meas
blocks
##ourn
##icult
chur
total
dam
##ript
father
goo
2016
env
##ully
west
mill
frame
##ulation
crow
added
san
##ances
tea
played
answ
naim
ris
##osaur
computer
himself
king
nomi
##iger
##what
aust
meat
naima
china
works
breakfast
soci
football
cult
roman
foreign
mach
due
wed
aud
band
dry
ep
##ha
death
somewhat
difficult
##ination
##ager
contain
abs
driver
ski
##iday
ring
rich
##graph
slight
cop
mat
object
mer
normal
sad
##play
hop
hung
amount
motorcycle
discuss
fruit
capt
focus
cust
hall
birds
warm
##zy
##inc
reading
rab
##lished
##oop
##ived
chairs
modern
ted
tool
beautif
basket
##nis
##amb
neck
teen
link
federal
hig
energy
##ires
learn
wonder
tiny
imm
happens
##come
earl
22
ut
thom
##anas
##icles
infl
##akes
haven
edit
account
surpr
tile
vase
item
itself
moving
feed
##minist
##gs
employ
price
##rod
movie
available
##itely
somebody
upd
##nel
stripes
towards
twitter
action
access
military
lou
stuck
##uced
hous
film
june
div
relig
exe
favorite
league
##ended
upper
brit
2015
outdoors
patter
##ission
shows
speak
langu
ol
##ply
rights
heard
thanks
##acter
phys
wine
##to
chin
church
init
yester
development
cas
wet
yesterday
bite
que
##ron
club
specific
doc
attempt
##een
finished
flower
exactly
fine
##fully
24
higher
##ability
conv
committ
beautiful
experience
department
liber
rub
##for
##ural
bananas
wheel
##iron
baseball
lunch
stone
jan
##aged
rac
##gl
bigger
boys
washington
##got
##use
natur
##ax
self
oil
traff
2014
vol
bud
##back
fairly
espe
##ii
couldn
broken
especially
desp
benef
dude
##gar
##ently
exist
clint
peter
position
goodness
led
deter
##ru
kinda
interview
wrote
definitely
gas
kick
cray
educ
parked
letters
takes
##iple
blanket
circle
economic
environ
teeth
station
wel
continue
##iet
##uation
repl
countries
simply
max
smaller
college
tast
custom
35
bal
rev
slice
##osp
civ
sund
final
crack
network
lat
lives
##rael
tank
race
thirt
note
moment
fan
##aching
interesting
tennis
oct
##ands
mel
thinking
jose
dig
##rete
arms
flat
##sy
israel
##enc
target
mine
administ
##uel
##ective
election
signific
geor
clinton
##ael
clearly
airpl
earlier
riding
glob
finger
forward
sense
david
##orrow
2017
##ij
advert
longer
nine
##asing
kill
smiling
ran
##bb
##aniel
represent
pretend
girls
##he
##aid
##ify
hours
##mon
evidence
thomas
review
concrete
figure
##rench
issues
dinner
dinosaur
lines
parent
##ault
constr
unif
march
common
ver
minister
director
plain
uk
coach
198
force
barely
held
knife
relations
ton
dest
dra
chall
showing
##oom
cute
cookies
tomato
brought
tired
students
oce
visit
##den
##more
##han
looked
bes
##pet
character
##ott
companies
eggs
environment
role
agree
farm
##anger
launch
dogs
##ask
medic
express
cast
stories
##itten
crowd
fel
nation
pap
parking
##attle
bull
term
questions
##omes
##auc
spring
pattern
fork
conserv
language
##mb
likes
weeks
respons
model
billion
waiting
create
yours
##cks
knew
expect
mor
slightly
carrots
knock
##read
sunday
usually
print
driving
doctor
fres
themselves
2013
legal
suitcase
adults
river
sell
traffic
began
needed
source
mis
mac
vari
mater
##ili
##angle
version
##lection
##fer
##eds
stove
enc
2012
uniform
article
private
candid
teddy
despite
vote
##aming
oppos
site
separ
personal
pitch
##mas
ocean
##gn
##apan
treat
##ees
hosp
subject
shirts
decision
technology
leaders
##eg
congress
became
japan
champ
civil
shown
suff
intell
perf
terror
##ino
shut
##ival
##ett
hanging
noise
##ises
##zen
related
bridge
mad
recently
slow
follow
hungry
global
significant
mur
poll
microphone
society
heavy
content
28
yup
##oots
sold
hund
earth
cit
##rict
text
facebook
sleeping
anti
sna
##ding
##atures
various
rabbit
laying
puzz
services
##arter
value
tight
broad
moon
##ula
##ogn
monitor
apart
skate
tower
airplane
east
##pend
friday
click
sept
built
##cover
son
##yn
beer
##apes
cred
protest
parts
include
neigh
##wood
##ging
inj
##aboo
dressed
nearly
calif
##oint
search
brother
groups
ba
htt
##ucture
wheels
23
potential
giving
##pack
release
email
mond
##onse
##ades
faces
bathroom
natural
60
handle
drug
chief
prim
statement
style
##iles
provide
hole
recogn
joseph
changes
flor
everybody
teams
lily
tri
shape
goal
##istic
finan
accept
brand
hol
boom
extreme
mail
serious
staff
popular
science
regard
instit
du
quack
##ological
tomorrow
execut
completely
online
##ental
butt
straw
guard
inde
threat
host
function
##ateg
arch
results
##ribut
##hood
emer
jer
sauce
officials
nut
##lam
problems
material
defense
adm
laws
released
mc
response
cart
currently
##roll
puppy
obs
industry
cases
unf
address
christmas
perio
##ining
opportun
moo
somewhere
##eter
babies
smart
blow
##aving
##iced
ul
teens
describ
display
rocks
##bed
##aced
plat
monkey
decl
journ
jen
nu
tim
##rel
##asons
##ston
blood
finally
commer
monday
enj
sweater
##ength
michael
los
pin
##lim
webs
nath
##over
##atives
correct
particip
perfect
##set
fresh
##ril
quickly
satur
ways
aug
##bor
hur
multi
yard
tried
pred
twenty
27
peekaboo
gosh
##anta
cabin
india
published
introd
remain
swing
sounds
##men
##spect
hospital
backpack
created
welcome
tues
meant
wire
tuesday
197
practice
45
respond
##ppers
afric
challen
republican
austral
californ
ach
sugar
veget
internet
plants
workers
##load
length
island
arri
evening
member
paint
partly
simple
ang
cutting
##medi
directly
slide
answer
mart
named
written
french
yog
##clear
nina
original
ble
twe
machine
toward
progress
imag
worked
ethan
leader
apples
starting
twenties
tub
##ushing
worth
##olution
scene
consum
capital
screw
approach
risk
growing
bump
##ners
donald
tooth
comment
journal
prep
americans
protect
tun
2011
travel
angle
tray
flag
doub
chinese
##ban
##epend
quarter
towel
administration
enjoy
recorder
felt
whatever
biggest
string
solid
islam
trou
spl
dece
announced
laug
range
woo
hood
##ring
196
tour
spell
##pire
european
web
missing
cro
26
fans
speed
weather
chance
safe
obv
##iled
allow
indic
independ
pump
anymore
rice
thous
##ept
cere
##stairs
pepper
fingers
influ
california
rug
##uth
trade
decided
grandma
flying
bey
##thern
september
reports
rules
wednes
saturday
april
wednesday
##ales
knows
impact
conference
carpet
necess
shoe
shar
lake
increase
##xic
contract
winter
##isy
meeting
education
immedi
instr
demand
financial
##val
plates
canada
##ilities
expected
ears
##ai
##ively
situation
refer
january
via
studies
certainly
path
asian
tradition
swimming
danger
pocket
99
pad
toast
images
skin
mountain
rack
fox
english
ess
sides
##ils
indian
complex
period
cra
##ked
partially
saf
lion
central
deliver
sea
users
##akers
##ucky
##riage
drinking
beyond
##berry
google
##ka
##fort
reve
trick
pole
platform
dan
shake
trunk
double
ira
##ba
bears
production
constit
british
unl
performance
individual
map
committee
vac
busy
keyboard
intellig
burn
metho
climate
horses
##oring
items
##bing
trip
sque
##isl
terms
puzzle
poo
bob
##box
##action
july
rate
##sey
##agon
disp
##coin
rect
2010
nar
nobody
##ients
##asses
movement
##ien
request
##anges
fully
loss
plans
arrest
training
officer
##da
surve
##izing
nathaniel
eve
extra
parents
und
confir
##gu
section
ber
cauc
names
##uff
weap
shower
areas
houses
##rupt
##oid
##bur
plaid
feature
chew
vehicles
advertise
relationship
##idents
contact
involved
##cing
bran
estim
trim
received
pillow
oven
libr
frank
ability
oink
legisl
##pa
thurs
neither
dollars
##cloth
##aped
upon
##ancing
lu
ry
estab
iraq
##ares
##ray
spin
electric
ult
thursday
applic
larger
multiple
dream
bord
grown
events
commercial
##bc
##atory
##ky
teach
scar
reflection
concern
choice
##nie
economy
##rd
killed
log
discover
##onstr
##ondon
40s
##asc
##mine
##rew
nove
##ica
council
particularly
tracks
##aked
belong
##off
quality
voice
overall
soup
##estern
december
sens
##fr
##ened
skirt
broke
ren
uns
officers
ny
##oke
allowed
spect
army
conduct
doo
london
century
professional
29
haw
##uments
attention
hun
##kend
crim
title
gro
matt
##ech
boats
aged
tex
considered
august
sick
##enger
tickle
telev
vir
terri
iran
date
career
mention
##ode
thin
changed
sleeve
pool
amaz
crash
wave
november
wish
beat
code
steel
prior
controll
growth
etc
absol
lift
compl
dim
opened
potato
radio
roof
##isc
lean
kinds
monster
minim
communic
additional
james
lad
medicine
file
forgot
magaz
surface
drop
fa
rand
##elly
##anda
plus
##rant
partial
included
##glasses
george
yummy
cele
skateboard
##gon
##aled
##imately
offer
vehicle
improve
casual
##verse
spread
##iction
cris
attach
##bi
##rection
corpor
sett
falling
bom
rough
assist
russia
##ipped
spent
diaper
website
boun
lack
none
santa
##arily
save
beginning
medical
purp
previous
stem
##itted
absolute
##20
##asian
syri
pencil
shoo
democratic
dance
##bert
message
citiz
##nger
##ham
##bow
repe
justice
resour
socks
behav
photos
tonight
phil
tablecloth
barn
celebr
vill
##mp
convers
calls
pour
##ober
disapp
reb
october
##hy
assume
daily
copy
##etic
sports
peace
##sa
##bon
##cer
require
connect
rid
quiet
county
weekend
ple
born
stopped
##force
ros
##ties
##band
##ero
agency
load
##oni
myself
dropped
ko
##ida
forces
user
analys
epis
telling
bug
remote
##ledge
frog
##itar
inn
anyway
dough
##ado
ange
calling
mist
younger
##zer
##iter
stage
##ibility
calm
##ession
caucasian
wife
##kins
##erson
##wise
##ker
shr
fris
intelligence
forget
##istan
iron
##ids
skill
difference
stripe
tools
document
television
mob
decor
fold
senate
safety
lol
sister
##fa
concept
spir
union
send
##aging
showed
reflect
2009
software
champions
fal
##uf
trust
marky
kept
neat
wake
leading
jobs
navy
##ga
select
##uses
shelf
gard
##ios
##craft
ate
sunglasses
majority
culture
immig
prem
happening
painted
hide
places
spots
muse
western
##acher
##enty
library
##rop
##usion
shoulder
switch
##field
features
horn
##iers
rail
stock
bitcoin
trucks
pressure
histor
defe
hiding
##omm
moved
manage
pee
forest
cru
speech
taste
32
die
##bee
turning
boots
caught
tal
turt
##ament
positive
victim
ding
esc
nature
setting
opportunity
autom
mike
rap
##gre
##erve
##ctions
dear
shadow
##rast
##ples
measure
budget
pm
doors
soap
2008
indeed
redd
guessing
garage
##uals
##berries
crying
turkey
fat
##cs
shel
schools
##ener
helped
freed
mixed
republicans
bought
covering
notice
commission
systems
executive
prison
hats
muslim
telephone
dut
lose
rt
##old
##orter
jumping
wer
onto
occur
carrot
museum
ital
beans
ship
spider
demonstr
liter
crayons
lamp
chest
politics
trouble
gives
delic
largest
germany
fill
psy
##sequ
smell
investigation
##ws
##gh
dar
wing
##ki
fridge
refr
effort
population
levels
http
battle
pair
##entially
imple
stands
kh
##ously
lock
hotel
property
latest
31
wii
ens
actual
##ification
cereal
bay
jam
kite
dozen
bushes
##round
sleepy
continued
mountains
psych
defend
effects
portion
critic
limited
##ara
alb
feeling
separate
ord
##atively
richard
magazine
##uing
##illa
grab
crime
update
tiss
##mark
##isions
dump
##aries
mech
achie
opening
hyd
caption
##mit
pupp
drawing
pulled
waves
##ca
brain
mexic
span
tend
bubb
voters
fift
patch
si
##ada
febr
install
meaning
500
der
lie
uses
3rd
comments
spokes
february
##oura
##aker
##hold
cows
shop
surround
religious
cash
mush
rout
##ube
##ette
umpire
district
basic
passenger
container
dolly
products
domin
secretary
paid
costs
implement
attacks
details
bon
loo
mary
seeing
##ceed
structure
reality
explain
##lines
weird
income
remains
salad
frequ
males
described
ign
recomm
spend
debate
physical
advertisement
woof
comfort
democrats
trail
grad
heads
accom
throughout
regul
neighbor
tables
##hib
apparent
attorn
cups
focused
propos
texas
freedom
eu
stars
leaving
purch
fixed
##ko
insp
cards
frost
immediately
lugg
mcc
##pan
reasons
##ension
required
sev
alle
inte
lob
glo
credit
kore
wil
##adem
sup
aunt
mars
hero
direction
condition
russian
scale
authority
eventually
thousands
command
golden
gay
##house
increasing
strugg
register
surv
organization
thus
candy
leaf
depend
easier
student
origin
ri
ww
##ford
##anut
##oming
chan
70
bicy
##ening
peanut
core
195
claims
lam
lying
construction
##nut
arab
associated
##che
queen
coo
##kn
altern
coal
tweet
##bage
asking
manager
##while
ideas
violence
doubt
##lly
beg
##oles
prec
interested
conditions
criminal
gal
##inary
##iture
ped
##thest
impress
roy
scen
contribut
subst
presidential
oranges
nuclear
truth
plenty
chris
learning
unit
opin
designed
vs
vest
anywhere
died
hammer
prime
rule
florida
analysis
draft
##head
clown
exch
refriger
hook
academ
efforts
status
fu
tiger
wipe
prevent
crisis
unable
smith
charl
followed
fighting
analy
eric
##nam
polic
##ught
##nic
compared
increased
labor
hus
nurs
tong
toes
##ache
cats
ryan
frisbee
##using
cooking
promot
mechan
judge
fle
##ago
ath
thick
streng
cloud
provided
luggage
oop
##uits
download
carrying
minor
attached
weren
##uh
scared
2007
cement
steps
yogurt
strength
lic
easily
senior
receive
papers
##ufact
integr
region
damage
33
chic
princ
assum
unlike
rise
spill
teacher
spending
passed
ine
##acters
##place
characters
conservative
delicious
ken
##bble
##erc
unless
battery
healthy
horsie
dangerous
border
absolutely
37
lamb
sofa
amb
lettuce
upside
manufact
gran
ended
raised
tough
appl
magic
types
##aint
missed
choose
blind
closer
36
tomatoes
constitution
jaz
na
brief
loud
predict
34
tire
hasn
##oe
##ya
prose
otherwise
maintain
determin
pac
wets
##la
trial
##ivity
feels
activity
vegetables
virt
sharp
##gers
##gie
shoot
beside
japanese
fake
pony
##ris
knowledge
speaking
terr
triangle
jim
##ini
sne
aware
##aughter
episode
sus
knee
##berg
learned
option
##aling
detail
failed
bald
brownish
underne
join
underneath
por
##ule
##utions
neg
sexual
shooting
refrigerator
rat
rose
asp
sciss
occup
candidate
audience
extremely
pil
inches
rear
agre
sched
agreement
australia
categ
adj
buttons
citizens
theory
remo
transport
aim
##rim
meow
##actor
confl
mission
tissue
stad
cowbo
crazy
##ille
unc
snake
80
##anced
hee
weight
attract
includes
reached
ram
stack
unkn
turns
fourth
developed
bubbles
fi
smile
foreground
projects
album
lid
bottles
consist
individuals
fer
chain
balls
avoid
competition
yum
##64
sees
helping
##encies
ms
##icient
##ggy
experim
ceiling
shift
totally
encoura
55
##reds
notes
bedroom
association
independent
pumpkin
##aser
highest
airport
napkin
laugh
rust
greater
concent
owl
www
rib
liqu
turtle
homes
##ays
cla
dise
dollar
kat
wal
##ona
flight
score
unique
stadium
unknown
hom
whom
sher
forced
primary
ip
plays
##iolet
graph
raining
filled
loves
runs
potty
dum
##oud
winning
religion
cabinet
##ux
##ooth
respect
bout
seemed
exerc
elephants
memory
traditional
resources
##erved
##icol
##brush
magn
policies
##tered
logo
everywhere
charge
honest
lil
##roy
##ribe
flip
incident
expand
picked
matth
gent
sight
authorities
scissors
cath
rank
posted
tunnel
method
random
mah
violet
##rick
willing
boxes
hundreds
75
##iders
reform
##ads
leather
keys
scratch
rum
attend
crayon
dancing
foundation
##aded
therefore
appeared
finding
hundred
angry
championship
sport
fear
illeg
unfortun
rare
##iance
advant
attorney
pun
tap
##nn
heat
upstairs
newsp
sanders
famil
dining
organiz
##dden
conflict
cord
gate
thirty
martin
imagine
purpose
chicago
pages
##venue
impl
concer
outdoor
critical
fab
hid
fort
editor
highly
politic
pushing
##cles
balloon
matthew
hay
sally
beep
guide
mainly
leaning
storm
goat
##ustr
previously
canadian
minimum
behavior
##down
anybody
accident
temper
##aren
sources
belly
##uela
treatment
blog
##umn
throwing
alleged
tummy
tells
peppers
powerful
researchers
franc
##ategy
##osh
actions
strategy
starts
records
height
noted
yeh
minist
jes
##rants
ther
sudden
##apt
worry
strange
trains
continues
necessary
weapons
fellow
mister
worse
tee
shouldn
stret
excited
climb
challenge
garden
nan
##ented
##ola
generation
messy
emerg
lin
mud
##icit
##ortion
photograph
painting
benefits
digital
##fly
chem
##oph
##osure
streets
produced
##jam
partners
scott
2018
singing
giant
sales
rolling
caused
##po
decades
dishes
nations
pine
##cr
##roid
incred
collect
garbage
professor
successful
jersey
mushroom
gather
pip
stairs
france
qual
device
fant
math
##ores
##bl
##cul
onions
esp
coast
##issa
parl
obviously
management
noon
goals
trash
##aks
##ggies
hate
##izes
patients
kitty
murder
##ste
parties
limit
90
jar
creating
cities
zoom
##ext
sale
hug
served
bags
excell
equip
surprise
customers
african
flash
resident
##doh
shadows
42
95
pound
194
species
teenager
initial
pud
symb
owner
microw
pillows
toothbrush
influence
39
aid
##dies
##etch
##ota
shaped
signed
programs
millions
benefit
agreed
francis
##dom
##bar
arr
generally
christian
environmental
jazz
families
kal
wig
grant
imposs
marriage
produce
rainbow
massive
tongue
##town
carol
pointing
grandpa
roo
##ses
tru
drinks
bicycle
65
hen
##imate
##host
confirmed
adop
uncle
breaking
serve
jeff
kr
##amic
playdoh
##ccer
produc
lawy
##ipp
shell
usa
owners
##vin
shock
stain
nearby
thirties
##put
##eno
##iring
cha
boston
defensive
options
##inate
rais
entirely
furn
faster
clot
backs
quant
remind
occas
opposition
38
wit
##tains
##uge
##any
weak
hipp
stuffed
##iliar
wetsuit
##10
numer
adding
survey
craw
gain
##cel
brew
understanding
banks
64
gy
##iences
##fs
##fit
residents
##aved
apartment
debt
spirit
master
oat
wol
##gen
enforce
recover
##ribution
models
funding
##no
##onents
enem
prices
compar
sticky
virgin
impossible
ramp
sect
soccer
##others
profile
affect
operations
apparently
pc
shared
firm
curtain
wheat
reddish
recommend
symbol
era
nest
##raid
salt
initi
variety
microwave
ec
rh
##enth
herself
twel
policeman
excuse
panel
equipment
##itude
seats
cells
mig
tractor
allows
explained
insur
##iju
baa
false
cooper
clothing
bum
mont
##dog
slices
sprink
stretch
43
cub
##ala
assault
convention
ell
shopping
afraid
subsc
investment
determine
rectangle
##sters
worst
emot
basically
advoc
claimed
##arm
##usive
mobile
gentle
48
ii
kang
org
thinks
active
england
surfboard
conversation
##ijuana
android
poly
supper
transl
##ription
zero
##ex
chap
##antly
robert
sites
bringing
hillary
##ih
##aroo
smooth
resc
pointed
supporters
neighborhood
bol
##ville
charges
surprised
establish
relatively
besides
syria
opinion
wra
lived
offensive
drum
pepperoni
pow
andrew
prefer
controvers
palest
islamic
##uch
sav
partner
becoming
curren
provides
southern
award
gig
zone
##ici
##aine
##estic
##rial
bucket
bugs
##ario
##iro
butterfly
bikes
arrived
branch
scarf
##lor
##iti
belt
highlight
hack
odd
protection
ducks
touching
ghost
susp
##agers
serving
cather
refuge
entertain
vroom
##ann
manuela
sheet
scary
transform
candidates
wings
dism
##zzy
threw
daughter
fash
nfl
wars
whis
deg
remark
gear
johnson
channel
49
eh
jet
offered
excellent
nick
##ari
maroon
northern
scientists
ari
joe
penn
multicol
changing
employees
dot
lind
mut
##inct
##elling
unp
communities
##goti
balance
pitcher
legislation
fits
nas
cher
purse
2006
gender
optim
responsible
bounce
supreme
parliam
catherine
gall
##iest
meter
believed
racket
pooh
frosting
advantage
hind
tack
suspect
##ander
marijuana
meanwhile
fashion
stream
annual
lettering
52
nin
beard
supply
daisy
effective
announce
amazing
tab
##resp
sail
dragon
concerns
negative
adjust
twelve
wo
acqu
motion
planet
businesses
victory
exchange
##now
planned
solution
louis
gloves
unfortunately
hidden
wealth
donkey
buff
glad
keeping
paying
label
israeli
institute
witness
kangaroo
vice
wage
##ipping
##outs
diam
elements
trend
cuts
instruct
##uters
reaching
seeds
##amm
joined
pulling
##leep
##acon
shore
hearing
twice
crew
strateg
marble
argument
truly
##asp
bean
seek
##uries
raw
expert
africa
furniture
parliament
44
ps
##tle
commit
village
doughnut
os
rates
##hi
##onent
##iser
bee
##ibly
familiar
listening
gross
asleep
deck
2000
perm
decide
governor
studio
stores
destroy
opposite
revealed
mentioned
##ram
##gly
specifically
removed
illegal
ded
nur
ron
tant
pete
failure
replace
##pri
##vant
clay
buck
skier
falls
steve
posts
##coming
hoodie
arrested
concentr
concerned
##stein
41
cu
iv
##ez
grapes
decent
application
cer
##ita
novel
excl
##ression
miles
planning
tests
approx
tip
##eless
values
construct
selling
ack
pra
jew
mrs
solar
##aver
guitar
tag
urban
comfortable
jon
##enced
elmo
centre
package
##mm
##hol
stan
flav
##aki
markets
##pm
##isation
lighting
193
seconds
ensure
tiles
trib
offers
liquid
newspaper
emergency
braz
keeps
division
atl
drivers
introduced
ox
sir
##mond
##hen
##aters
react
negoti
placed
jean
sticking
discussion
nic
task
##don
##ques
jackets
afford
connected
documents
mere
tied
liked
appoint
birdie
##ship
gift
existing
achieve
dub
beef
useful
##apers
##ifer
poles
##iano
300
cleaning
transfer
williams
faith
bib
lemon
comed
bodies
helps
collar
walked
piggy
pile
soph
backwards
mayor
mug
accur
housing
obvious
##wide
##acity
shade
stated
prin
restrict
designs
equal
proposed
revolution
papa
sin
##yl
bless
closet
melissa
prosecut
nav
resist
buses
decisions
##ashed
recording
industrial
losing
47
bern
##kel
alt
peach
apply
tops
sticker
discovered
tent
##gging
interp
darker
decade
strike
experts
urs
suggested
stainless
bin
fol
##anes
sharing
clin
fem
location
repeated
66
##abor
momma
supported
spokesman
enforcement
nurse
dess
##11
becomes
mall
##ns
##igan
allowing
##aud
joke
coverage
whoop
shades
hoo
kar
##ructure
##antic
saus
##ifying
largely
expensive
50s
requires
ultimately
begins
aspect
fest
grew
getty
returned
spoke
fancy
roughly
les
mummy
##oons
##li
##iation
##rem
##sty
covers
carl
basis
##cient
curtains
activities
liberal
copyright
dust
pipe
sets
shark
shapes
teaching
context
friendly
posing
techni
domestic
terrible
rot
##ano
consequ
dada
schem
syn
talked
infrast
royal
charlie
ker
rach
gop
saud
snack
snap
pale
songs
tig
thumb
differences
pushed
figures
identify
holes
strawberry
##jamas
54
53
lucky
rings
ash
clip
snowboard
raise
testing
scientology
launched
ursula
dessert
veter
##tr
##ora
sov
##ulf
sandy
towels
domain
robin
rush
chips
interact
purs
appropri
slowly
disappe
##uate
faced
files
elections
britain
sneakers
degree
acknow
kent
mi
##isf
reject
reuters
asse
##soft
##ups
basketball
disease
dots
py
sust
greek
carried
##issions
accused
talks
matches
sleeves
drew
dinosaurs
recognize
participants
craft
pond
##ograph
##ters
##ipper
guest
##igned
##ption
zebr
humans
mexico
pilot
infrastructure
kim
##atically
##keys
smoke
identified
multicolored
vul
##inated
semi
twin
downstairs
pajamas
awake
movies
injury
yards
prepared
hub
jelly
##ata
stress
script
smo
ends
blocked
providing
issued
suggests
spanish
bond
cock
##onto
eleven
2003
passing
skills
ske
##lock
stir
forth
troo
believes
assess
standards
rapid
princip
bio
vast
gogg
clap
suppl
jumped
democracy
objects
jenny
colorful
2005
planes
wonderful
originally
kalie
jul
##ae
coord
encl
aircraft
subm
squish
articles
eastern
developing
advanced
donuts
operation
mistake
husband
females
##bie
##omp
fran
captain
##ception
claus
hitting
##elle
famous
zebras
mand
pir
##rie
dele
##eline
column
shoulders
waist
obtain
possibility
##meal
desktop
identity
expression
https
corporate
cowboy
wrest
wagon
##hirt
##itz
sock
owned
giraffes
sleeved
leadership
01
ven
cancer
##alley
##ulate
views
interests
scientific
immigration
##rative
##ulated
carriage
proud
broadcast
hurry
goggles
ment
oly
##wr
##how
alloc
outfit
prince
presents
olives
regarding
established
gor
##ivers
##oned
##ading
managed
skis
suppose
stickers
typical
accounts
athlet
currency
diamond
powers
alleg
diet
downtown
collection
ruby
suddenly
jun
ly
##ena
amend
recall
2019
privacy
jesus
palestin
lif
appre
swed
cooked
senator
46
bid
rang
todd
##icing
plug
reduce
struct
harm
indoor
responsibility
laughing
squeak
innov
witch
##ji
##icip
trav
vision
seriously
married
mustard
toronto
cracker
victims
wilson
dw
abuse
cliff
leftmost
carbon
glaz
2001
voting
korea
exercise
chapter
olymp
##ius
##ream
neut
##oses
buzz
##enses
considering
measures
##ghan
##iw
##cake
toe
stor
candles
##encing
determined
fabric
51
jones
sac
##istics
##eling
contest
watched
recorded
##enoord
fif
kur
tact
##ole
##gb
##uk
##inger
##stone
alph
killing
terrorism
carolina
egy
rope
rural
vit
##ashing
##oween
##elled
spons
puts
conclud
discrim
labour
committed
customer
floral
narrow
angeles
gam
wid
whist
presence
holds
patrick
electron
connection
##gor
##icated
##arko
budd
loved
taller
cycle
brazil
ast
ray
shiny
mickey
summ
buying
racing
##etti
purchase
oatmeal
virginia
##itation
##isher
rod
##angular
earn
floppy
##going
halloween
maxim
mushrooms
bacon
ire
luck
##rog
harder
eval
charged
potentially
sticks
devices
philos
fuel
##bour
##nda
##itory
##lement
writ
sliced
capacity
##bye
affected
votes
guns
##uffy
organizations
assemb
egypt
##usk
##icted
muff
treas
pigs
linked
alternative
1st
bound
mort
##wor
##va
heav
pear
knowing
breed
param
technical
presented
hurts
panc
till
wik
anth
##road
##rif
engage
internal
microsoft
approximately
tourn
wound
soda
##rier
afghan
cheap
evil
sample
powder
lau
##uous
##acing
seed
shining
spark
taught
polar
bowls
depart
positions
##onym
layer
videos
voted
attempts
occurred
dyn
una
##uish
##ye
##arian
waste
scot
veggies
toot
##arant
chip
instance
taxes
palm
ladder
gum
jay
##ded
##ias
##fish
stool
##ella
neur
##olic
goodbye
writes
factor
circum
soldiers
ore
rs
allig
farthest
compr
subur
picking
squir
factors
elected
ceo
drugs
sector
entertainment
##asy
ancient
aband
aggress
##gged
penny
appearance
picnic
circus
complexity
francisco
insurance
cel
mun
mental
nana
##oh
##mat
##cher
brothers
knees
buddy
politicians
ot
sab
##illing
##aham
consult
widely
nuts
literally
nasa
sausage
##hl
##uster
complic
interf
reference
fishing
promise
helmets
funds
skiing
nyarko
batt
jail
som
aside
supporting
cultural
osc
##cious
seasons
shh
noticed
##roph
persp
joint
mini
founder
paris
exciting
hyp
publish
circles
satisf
branches
travis
bent
bik
##rad
##real
armed
writer
sweats
subs
rocking
entry
australian
ugly
nomin
##oms
##agh
daylight
remained
element
fired
kitten
coalition
bbc
##acle
lee
alive
realize
motiv
rachel
thir
##icial
forms
fraser
##isted
farmer
emph
steam
knocked
weapon
spinach
ceramic
bars
##ani
stood
##agues
penal
typically
gaming
##makers
grape
##arest
##izz
##phones
governments
profit
ernie
methods
##ienced
belongs
shelves
lobby
saudi
85
pure
##die
##inn
chart
brian
worried
guarant
drawer
surprising
bul
boot
ky
vent
##wa
##ards
##ansas
emp
visual
cannab
refused
located
jenn
split
raisins
gym
appreci
bone
bark
##kers
stable
asia
intended
elim
desert
tempor
strawberries
premier
proposal
##18
##ico
prospect
##essions
flood
##ivia
extend
loose
increasingly
ministry
linux
residential
cind
##isa
##oma
shares
seeking
flu
concl
leads
engineering
owls
trailer
aqu
upset
usual
phones
charles
parall
ireland
cd
ft
gap
tad
##ox
##imp
proced
wrap
blocking
##ribute
patient
argued
wedding
complain
fifty
jour
mask
pak
##aa
##32
fries
woods
disappoint
rig
##fc
##enn
haha
agent
pray
quot
secure
combined
miller
patterns
numerous
icing
##ront
inch
dock
fey
offering
schol
confidence
artist
ticket
ruff
speaker
remaining
bomb
italy
analyst
wolf
troops
fred
mice
od
##night
exhib
unclear
default
statements
2002
classic
error
combination
controller
cia
lord
##30
##edge
##stal
dial
2004
suffered
spectators
jav
##uations
unus
bubble
columb
hoc
##athers
investors
practices
crossing
accompl
category
400
##stream
acting
hills
robot
audio
terrorist
bure
ketch
wis
youth
deploy
abortion
scores
retire
hydrant
piano
##mes
revenue
intent
holder
defence
greatest
essential
gang
hint
yer
yucky
flow
agencies
##pending
remove
emb
marg
viet
ruling
initially
challenges
matters
punch
wins
anne
moves
##umin
##uls
tear
myth
##weight
chairman
horiz
feeding
experiment
alligator
ketchup
eld
il
ya
clar
bother
eaten
stayed
harry
doctors
consumer
schedul
3d
ale
rising
valley
##point
##19
##ati
##gend
dee
outl
proceed
relax
##engers
vanilla
cabinets
conducted
license
ties
##aven
grayish
breath
deput
advance
employment
updates
regardless
potatoes
blinds
neutral
56
boss
kay
lane
cous
personally
creative
##ertain
universe
updated
rubber
substant
chemical
storage
dusk
whee
##ionally
abc
comic
examples
blurred
kingdom
drawn
astr
edition
transp
developers
formula
matty
utens
conservatives
italian
route
emphas
paved
##mos
megan
ali
obsc
termin
memor
turk
castle
##front
renew
sweatshirt
##bel
alco
expans
auto
screens
experienced
awful
satell
holiday
##yard
##lets
isis
bending
topic
intr
contrast
handed
##ensions
sits
lovely
rescue
cush
fbi
kites
poop
rally
##aly
reserve
hardly
chef
carefully
thirsty
feyenoord
fool
oak
##ja
##oman
##arters
playoff
warning
grassy
fixing
increases
properly
protesters
terrif
dismiss
bert
native
##oty
scoo
diss
bits
advent
rectangular
estimated
circumst
vietnam
05
##uces
rein
shots
bloom
cham
somehow
gotten
ourselves
dram
##ucing
filed
harv
entered
essentially
surrounding
dur
kir
pier
##lers
##itect
crimes
newslet
landing
declared
perspective
##gment
##van
##chool
trig
arth
cole
greenish
newer
amanda
hardwood
regime
subsequ
discount
ordered
soul
franklin
mahiro
vulner
##under
reaction
suc
mode
bron
yemen
##orted
elev
closely
jackson
extent
150
completed
advice
violent
featured
communication
temperature
bor
cage
jess
##tail
ish
frustr
nearest
greens
cheer
critics
observ
talent
suspend
fifth
morm
ouch
##mont
nov
##amental
legend
##abe
bride
##ulous
beds
factory
datab
boost
scrub
involve
puppet
alcohol
las
##oll
##well
##rep
##cho
##roit
fried
##abet
distant
extended
entr
furthest
operating
volume
splash
applications
teachers
ay
fuck
##bn
chug
##abilities
prove
units
perman
finance
parade
easter
explan
opposed
necessarily
dingo
lawyer
princess
daniel
lick
shout
brings
##xture
shovel
thoughts
campus
##standing
significantly
admitted
communications
whistle
heavily
cnn
root
##tion
##inals
candle
orient
reduced
ages
##grap
crunch
follows
pengu
discl
awes
frozen
bills
burg
hopes
expressed
##ributed
consumers
62
gaz
sought
##stick
suits
##abil
offense
##iped
incor
##upid
snowing
functions
##ologies
apron
hambur
sentence
statue
victor
merry
architect
lawsuit
uncertain
ribbon
journey
pakistan
4th
pats
##tie
##iable
##ippers
##esh
ongoing
##ello
golf
findings
##attered
climbing
fundamental
mitt
##vor
##rels
ing
##see
forty
withd
phase
glue
opens
legit
detroit
explo
valid
delay
uniforms
institutions
responded
ariz
60s
tel
##mates
##ito
yout
##omer
wears
suv
resol
lighter
radical
teenagers
squee
escape
gm
iphone
##here
##ams
chim
contains
emails
everyday
regener
capable
passengers
containers
ukr
injured
sustain
bah
cos
lt
##born
##cling
underst
server
caps
corrupt
debut
discussed
destr
opportunities
amazon
galax
63
nba
session
##thy
mos
##phere
household
regional
reporters
collabor
umbrell
argue
honor
champion
spells
vacation
auntie
pedest
katie
sprinkles
##donald
cried
mp
tony
##iant
##oodle
peep
##rage
crown
headed
sweep
prize
err
napkins
michigan
pleas
hunt
pi
##ancy
peel
treated
192
marc
rolled
reportedly
enemy
jord
kelly
tone
##word
##iot
beck
stom
rightmost
brook
ohio
allen
colorado
warned
advis
importance
description
competitive
historical
academic
transportation
festival
pit
##py
##pass
hispan
dipl
resolution
pasta
thousand
pacific
awesome
57
bak
##bell
##inating
##itors
ford
crab
disney
edges
regist
davis
declined
##greg
honestly
dun
fasc
sed
troll
##ost
##iber
##ua
##je
gov
plum
clut
teal
appeal
barrel
hotdog
links
assistant
merely
59
bage
##uum
depth
activists
existence
moral
index
therap
ain
cough
hr
rhy
##zel
##cution
##esis
whit
shorter
upgr
phen
sym
foods
driven
affairs
relevant
unlikely
virtual
tournament
umbrellas
##esy
##icop
doz
blowing
proof
kevin
balloons
decre
winner
opponents
causing
enterpr
danny
muslims
schedule
incredible
vitam
oscar
jennifer
naked
om
pant
##dp
##vey
stupid
lew
spagh
peas
readers
holly
worker
facility
causes
alongside
promin
describe
tort
perfectly
impressive
appropriate
cig
latter
races
wisc
shit
staring
##esty
##ulations
gra
signal
distribution
simpl
films
duckie
piggie
unsure
applied
##respond
afghanistan
hockey
##grapher
wires
meal
reporting
correspond
rupe
soldier
swinging
flags
severe
comparison
jewish
youtube
stomach
ht
jill
rif
##gi
forum
chat
fruits
algor
sheets
defined
obl
respective
transition
deaths
syrian
lobster
manufactur
kit
lined
tons
shield
##eller
orch
roger
moments
helicop
confident
steven
listed
prompt
universal
agenda
injuries
materials
confirm
expansion
algorith
rim
rider
vr
##gia
##bits
##16
##onic
iter
blk
hazy
##opher
theme
sunset
trevor
##onsin
conscious
tested
classes
combat
liberty
##heart
henry
wisconsin
58
dug
jac
##rical
##rison
##can
##iration
stall
##agn
adapt
carn
cargo
interse
ending
marks
##whel
pots
calcul
explos
percentage
trading
spotted
accepted
amendment
deputy
cens
##west
##mel
##omen
suck
##boat
signing
nicely
boop
batteries
hopefully
trunks
defeat
writers
72
74
ax
cave
mas
whale
nood
lies
yellowish
correl
##iami
closing
boards
packed
latin
delivered
##iciency
patsy
squeeze
ic
ses
##sl
##xual
##oul
##lying
haired
whenever
imper
laid
refere
judy
formal
stephen
batht
subjects
khaki
assuming
punish
arizona
jordan
bamb
dall
ga
isol
##ador
pref
costume
taxi
traditions
pretending
announcement
glazed
dozens
groom
tu
##12
manning
adds
crust
snoop
explains
organized
denied
hoping
##itarian
inspired
ambul
wrapped
controversial
unusual
josh
vary
##bles
habit
confront
irish
locked
lone
tang
##rot
##vit
##onom
##igation
persons
eats
resting
collective
fields
spray
erin
neckl
olivia
mexican
granite
hippo
cherry
arthur
pope
voc
##ml
##bard
##fall
##lend
blame
brun
spain
scare
polka
##lands
chrome
rocket
authors
marketing
represents
surveill
shrub
korean
mathem
buddh
kings
tum
##lli
inher
depending
ups
alert
coats
hadn
holl
wrist
creation
creep
monkeys
retail
puff
criticism
allegedly
noodles
bones
luc
##eer
##cery
##reh
degre
##sole
glove
##ologist
transm
1998
estimates
territory
degrees
cable
foss
nat
rip
##14
holy
thrown
sandbox
fallen
squirt
explor
effectively
promised
checkered
ranking
coaches
fuzzy
surveillance
dick
jason
kil
miami
##cript
##inity
soil
prohib
##employ
emily
advertising
immigrants
registered
spaghetti
crib
gab
##uated
chose
britt
overwhel
scored
lois
midday
cheek
distinct
realized
artific
sorts
##ternal
stronger
improved
attempted
progressive
arrange
scheme
bathtub
jung
pave
ts
zip
##pay
##jo
selection
sole
demo
config
approved
choices
properties
printed
institution
delivery
vacuum
puppies
rooster
hispanic
cater
pd
sony
beads
plot
##usse
blueberries
emissions
stew
publicly
raising
strongly
wondering
definition
suffering
guardian
quarterback
orders
partnership
refugees
hip
oval
##mans
##rich
render
maker
gloom
disag
desper
pictured
subway
barack
facts
experiences
goose
kicking
constitutional
consequences
##oured
##isms
##unte
kne
goods
interv
sweat
squad
physics
volunte
crackers
targets
cruz
patches
puddle
subsid
cannabis
rupee
ka
lyn
##rid
##uable
##17
##osen
backyard
brownwood
scoring
##athy
##mingly
immediate
tantric
flavor
diplom
eag
ought
pens
tires
vert
##alt
##ched
backed
agents
pover
intention
embr
drone
struck
highway
genetic
menu
steep
forever
threats
normally
cyber
encoun
##roller
grocery
tackle
maximum
rides
##ran
##erves
##cha
##ros
spaces
guil
ads
scand
reads
acts
disaster
eliz
interior
reporter
shortly
##pson
steak
directed
discip
controls
protests
observed
fantasy
galaxy
cad
dcs
##zo
##oral
##orse
dol
coke
divers
apps
fluffy
empire
reput
sword
nighttime
curious
arts
meetings
matching
##friend
requirements
consistent
laund
utensils
circumstances
jr
ni
##rum
##bug
##atos
chant
chase
chosen
##ophy
##umes
unw
flour
skies
evolution
officially
rocky
messages
returning
compete
machines
duty
detailed
scheduled
ak
dc
ee
jur
ric
tam
##zing
theo
sequ
##inky
brad
worm
##ressed
##ogue
evol
bricks
constant
regulations
incredibly
02
godd
spit
saved
ariel
continuing
##print
colleagues
exception
struggle
folks
palestinian
understood
ais
##rary
##sen
##col
thor
onion
seattle
##thood
gram
graham
##ours
quit
sliding
ideology
approval
##aws
washed
electricity
assistance
electronic
gord
tips
##ication
##icide
sean
##otic
##erella
liver
elsewhere
checked
sams
titles
frequently
scenes
encourage
trigger
database
necklace
cot
gut
hits
yuck
outs
unemploy
desire
finds
curly
extension
chickens
engineer
versions
illustr
##chester
primarily
instrument
quantum
enclosure
entrance
poverty
800
han
nhl
##season
##char
excess
disrupt
preschool
fireplace
thread
util
polls
skinny
controlled
selected
frequency
interpret
acknowled
kong
khan
tes
tiled
inqu
stones
weeds
alien
manif
prote
compare
lawn
marked
worldwide
passion
promote
limits
networks
jamie
depends
hollywood
pavement
04
68
mild
##water
mans
grain
spilled
greg
##aret
roast
scan
loy
elite
marie
engines
apolog
pops
solo
landers
insight
hawai
horned
espn
commitment
assembly
cinderella
98
tut
##hun
ont
welf
anonym
##chair
chord
mole
##isters
coins
une
topics
##rence
landsc
motorcycles
olive
farmers
dutch
comedy
squirrel
columbia
##owa
bend
anger
fewer
squares
poster
roads
deeply
crossed
##aska
intellect
catholic
repeatedly
elder
ambulance
guilty
welfare
hul
jane
junk
lions
np
wick
sending
lip
lime
anna
##ishing
elbow
slope
sunlight
cents
##undy
countertop
claiming
tickets
##iffy
cartoon
independence
fifteen
67
gh
iq
rick
rasp
dod
##abeth
grade
##rian
bottoms
performed
preparing
precise
dedicated
parallel
lewis
doug
va
vel
##made
##rey
##otes
abd
peak
arrow
newly
amp
crick
bene
efficient
250
hearts
captured
liberals
ridic
historic
surrounded
discrimination
pancakes
scotland
cass
yield
##chain
brut
allies
abu
grid
putin
handles
cupcake
picks
mainstream
courts
sweetheart
vegetable
grover
ladies
conclusion
helicopter
rival
##des
theat
blo
formed
meg
client
worn
compens
contem
##anged
coloring
presum
exposed
dried
arguments
answers
awareness
linda
clifford
explanation
burgundy
snoopy
elizabeth
manifest
avenue
dal
hong
panda
##mother
topp
upcoming
bund
compreh
crank
artists
directions
rolls
humanity
racial
replaced
recognition
purposes
loading
zoomed
satellite
dallas
fault
fiction
jets
##win
##hs
myst
disord
heading
joy
photographer
##ifications
dealing
##odes
computers
ruled
clubs
sufficient
contributions
kurd
permanent
gloomy
03
73
aer
dies
goof
tuck
##hire
thro
heaven
stim
anx
chlor
enth
possession
assert
developer
condem
dawn
drove
crypt
risks
utility
narrative
academy
accurate
aspects
tigers
scooter
laundry
samsung
hans
mt
rating
shed
justin
ark
enorm
amy
polo
counting
catal
terry
strikes
concert
extrem
supports
stays
giants
patri
minds
beauty
replied
references
installed
scenario
complicated
jessica
lens
##pro
brows
feat
roster
monsters
lego
broc
stepped
province
christopher
romney
oliver
naturally
hindu
flex
ku
lisa
pent
rent
##ec
frag
sue
##apse
proved
pod
invited
warming
solutions
regularly
1999
attacked
macar
obser
referred
granted
comprom
76
cakes
nich
tas
##mic
andy
reward
sha
chop
fraud
conce
intense
phr
handful
drill
earned
strict
ump
confused
extensive
counsel
staying
versus
sanctions
amounts
abandoned
oz
woke
##gas
##asion
blues
##inkle
triple
conven
consp
capit
ideal
mustache
retrie
awoh
valent
receiving
lowest
kissing
spoons
ethnic
describes
priority
resource
artificial
69
61
hud
lun
sizes
tries
conver
console
pron
larry
relative
gene
classroom
taxpay
reasonable
indicate
estimate
sixt
dominant
mccain
subscribe
franch
toddler
succeed
gravel
eb
##gian
##etts
##keep
##ctic
brace
outcome
##osition
scoop
perce
emma
minnes
ladybug
retired
protected
catching
##osaurus
feedback
speakers
lamps
fantastic
##hunh
mum
vige
##har
##zard
##car
##oray
##eda
nomine
##etime
weigh
blast
cone
agric
surg
asks
priest
opponent
harass
yoga
roses
premium
kneeling
loyal
minnesota
vigeant
08
82
fought
karen
roots
##ody
##dri
##su
inse
chalk
pros
hooray
syr
breaks
stops
funded
moderate
bathing
targeted
reveal
ultimate
rusty
techniques
icon
ott
sessions
##esc
noisy
##uted
reven
seal
stamp
abstr
clue
dip
sometime
hardware
repair
##ologists
barb
patty
payment
technologies
returns
1996
cycling
circuit
employee
representative
drag
philosophy
##vania
withdraw
agricult
07
cuc
pul
pans
rattle
ves
##backs
yea
alliance
output
uncom
breast
situations
sweets
founded
payments
##ika
checking
tastes
celebrate
literature
virtually
alphabet
billy
miffy
oy
pork
vic
##arn
##ications
maisy
regions
detect
formation
landed
voices
capture
##syl
scholars
intersection
beneath
cucum
bj
iowa
nail
nato
nbc
rape
manip
grind
grav
overl
zeal
patio
resulting
##lson
similarly
massach
torn
emerged
losses
complaint
behavi
lawyers
pennsyl
destroyed
##ece
##pher
##erg
##alo
##ali
notable
manner
mak
reds
femin
edward
marvel
drives
facilities
harold
favour
deeper
journalists
enjoyed
chewing
ponytail
wrestling
oregon
mathemat
reputation
enthus
bass
echo
nah
rag
##hall
##bled
##icate
##ami
##iment
deer
##usetts
grill
scattered
amid
recipe
swall
pastry
templ
austin
georgia
folded
gathered
wiggle
enemies
massachusetts
mile
pitt
##rit
##uine
##care
noo
chugg
##ila
##ilit
alumin
herit
overse
serves
deficit
belief
engaged
musical
entit
locations
valuable
congressional
##burgh
hunhunh
cowboys
crawl
recovery
emotional
rapidly
cousin
ingred
bust
bind
kate
nerv
porn
##ped
##hou
##oric
weener
forfe
suite
##agan
actor
camel
creates
greyish
fourte
resulted
wireless
automatic
contributed
muffin
enterprise
brittany
pennsylvania
dna
tube
wre
input
##isan
##alf
heh
##sea
##abled
graff
graz
flick
##ifies
rooms
metall
assets
jumps
choke
samples
improvement
ignore
initiative
principles
prominent
wool
yah
##40
brave
saving
fees
##ilda
percy
jokes
invent
collected
cameras
firef
represented
accompan
sophie
mormon
hamburger
regenerative
pace
##lings
##hab
##igen
sew
##otte
forks
brushing
exit
colin
attended
offices
explicit
programming
anticip
biology
verb
visitors
relationships
minority
##gbt
hatch
lgbt
riv
bever
chances
exists
pregn
component
glor
sideways
decline
walks
walker
euro
equival
blankets
entering
prisoners
jonath
vulnerable
yo
##met
##33
##fire
##15
##iner
chuck
##cend
alice
spar
pride
joining
silence
##mod
floors
weekly
explore
cardboard
fighter
propag
terrorists
corporations
angel
decorations
pounds
suspended
hawaiian
loop
x64
##mies
##ester
beast
blah
neon
##umbs
bored
handling
metro
viewers
affili
damn
dreams
begun
inevit
obtained
allegations
jungle
gulf
mamm
naz
beaver
arena
suicide
##olis
##aping
personnel
colon
contribute
cromer
underground
##ogen
headband
raf
informed
discussions
bullet
flew
##oebe
adopted
exclusive
ukraine
77
cited
zipper
##rass
##rition
##cases
##veness
##udes
visited
swish
broom
collapse
##bridge
counterp
1994
representatives
responses
introduction
burned
iraqi
innoc
routine
peanuts
sheriff
sherlock
rejected
deleg
chamber
sesame
disagree
hers
kin
kle
ware
theore
token
##lyn
outstanding
reduction
feathers
flies
seth
demands
info
paras
constantly
reviews
threatened
requests
citizen
loaded
nursing
penalty
gordon
ontario
dent
fc
fisher
kl
##pu
##xit
ade
incl
embar
waff
relief
grounds
calf
democrat
figured
1997
practical
referring
ordinary
ipad
pineapp
strategic
cushion
therapy
goddess
enormous
fert
mant
waters
ank
##arts
phoebe
barrels
cleaner
monthly
parrot
promises
##works
islands
horns
principle
hypoth
phenomen
dugout
88
ginger
mast
ti
vanc
##dles
##iev
deals
abb
maggie
visiting
legacy
transit
pett
rounds
freight
operate
tasty
journalist
pads
implementation
porch
hubbard
bagel
wise
##ouver
lips
chunk
atmos
external
nowhere
vend
drunk
##rene
banned
lists
generate
filter
solve
modi
calend
denver
involving
##encer
hurric
dispens
manufacturing
sovere
sweden
olympic
sympt
shrubs
throat
09
87
97
ling
ripe
##ni
beak
##olit
pock
distract
blockchain
generated
receiver
hyper
racist
burning
survive
aimed
bumble
soviet
supplies
macaroni
79
81
96
baker
dave
gently
uber
##cur
whereas
cogn
tags
##agram
##quet
##iana
190
##shirt
squash
sixth
processing
##ugged
crowded
##burg
koala
globe
categories
bernie
technique
retirement
rifle
cotton
vancouver
atmosphere
86
vig
vect
toss
inspect
##alia
rely
##ooked
lev
knives
##essed
array
beta
silent
paws
passes
##ounced
christie
kisses
threatening
prepare
extraord
discovery
sensitive
instructions
concluded
newsletter
destruction
dying
##eenth
##ader
##celer
##osis
slippers
obam
pickup
maine
sandwiches
cycl
societ
##haust
jerry
unders
##ihad
mixture
anthony
600
boring
dor
##bia
beating
seated
stroller
blouse
bra
fee
surely
##inson
footage
dolls
##augh
drops
smartphone
introduce
luke
borders
graphics
wigg
controversy
tabby
veteran
aggressive
nervous
700
iii
mood
tay
##mons
##rr
##██
##inter
##idency
revel
chel
bry
snee
distur
genuine
dresser
testim
estate
tails
statistics
advocates
unemployment
wore
wrench
##lah
##dr
##igible
##iler
mold
exhaust
browns
overhead
recru
##bod
attitude
feelings
publication
deliber
absor
screwdri
forgotten
pouring
crucial
baaee
ninet
trends
concentrating
appointed
terrific
abstract
graffiti
equivalent
hut
wides
##pill
bluish
##rol
alter
elsa
watermel
acceler
beliefs
simult
assass
pottie
pickle
efficiency
win64
freezer
1990s
divided
struggling
fortun
highlights
resistance
clinical
vertical
conspir
pockets
kansas
nonna
##eed
##yer
##inator
##ouri
inner
manchester
proven
letting
##bec
##iper
##orship
resign
booksh
drones
brexit
define
consens
foggy
legos
floating
lawmakers
snowy
##ampa
protocol
gerry
##enging
investigators
convin
maple
graduate
temporary
caterpill
simultane
78
84
fisc
faded
gains
ml
tac
##oise
##woman
##ystem
##rell
toad
bees
brill
##aining
hash
##agger
prey
compound
disting
##cod
courtesy
tallest
format
norman
campaigns
bias
attempting
challenging
mcdonald
settings
achieved
maintained
jimmy
migrants
permission
negotiations
disappeared
pirate
athletic
structures
tactics
landscape
goofy
83
gained
pence
pets
##mal
##mate
##hill
##boo
beij
cant
grac
##ria
##asty
##aky
trek
centers
marine
swift
##colli
engineers
industries
suffer
apartments
recommended
rarely
aluminum
ave
dell
jere
tid
wages
##pool
##xy
##oning
##ndum
##aron
mosc
##opus
alan
diapers
twist
monarch
helpful
distributed
##avell
pizz
privile
physic
enjoying
##market
establishment
odds
dolph
ridiculous
franchise
syrup
beijing
baked
fue
hired
kab
tin
##pes
##pread
chen
travell
##apore
enable
personality
##uctive
marco
trained
silverware
banking
singapore
caf
processes
frogs
benches
argues
successfully
containing
balt
thirteen
monitoring
recognized
participate
platforms
producing
astron
uncertainty
calendar
widespread
hou
mck
nails
vet
wider
yell
##acare
sem
seemingly
noting
##chy
alab
spencer
202
unex
##onda
poison
loan
interaction
exposure
curb
confer
cleaned
booth
touchdown
burger
1995
studying
neighbour
arrive
mistakes
ministers
spiritual
stanford
appreciate
penguin
cluttered
hulk
jonathan
obamacare
convinced
fulf
mit
vl
vases
wah
##nels
##onge
stun
notion
clark
oklah
##rible
components
actors
##wear
recip
laure
tablet
runway
##ussy
infant
geograph
roller
profession
alexander
investigations
scientist
immune
admit
crocod
logic
hunting
diego
seesaw
graphic
ranked
carlos
smoking
skept
vitamin
bail
dv
fences
kas
mam
sant
sisters
##cro
##corn
##igrew
gobble
##opes
trillion
dean
regulation
inval
horrible
potatos
summit
organisation
garlic
activist
answered
indiana
vacc
implemented
producer
pettigrew
moscow
cul
dumb
rou
##list
##vet
##uration
##gender
outer
coco
hern
overs
carries
##aches
##veland
homemade
airlines
barret
##tenance
programme
##ova
notebook
padding
conversations
reddit
fashioned
legitimate
fossil
surgery
screwdriver
bible
roles
##lie
##sing
toler
shops
stations
##the
alike
reducing
prepar
skating
glare
recre
cape
warrant
popcorn
annivers
layers
universities
surfer
suggesting
pocketbook
settlement
railroad
hydro
heroes
suspected
beanie
incorpor
valentine
92
az
cin
doodle
maps
ner
rook
##east
##afe
##ridge
##gage
##50
toaster
##asher
revers
##ching
leon
roar
rode
##agu
perpet
presidency
endorse
silhou
stripped
maintenance
forecast
lesson
fighters
buried
crystal
kicked
expectations
searching
indicated
lux
corporation
mechanics
mechanism
treasury
celery
fourteen
##aire
##pg
##gue
shipping
##adel
lect
##andez
deaf
alaska
scope
amate
farther
reader
cleveland
incidents
elastic
potter
halfway
steering
extract
badly
multip
rainy
superior
equally
performing
devast
attacking
judges
utah
interviews
advertisements
peaceful
bolt
##otype
featuring
nominee
oklahoma
pon
##mus
##ju
##leton
stages
##andy
knight
prol
##aste
wanting
coc
coin
enh
fled
scout
resem
streaming
setup
screaming
189
exclud
mounted
urg
driveway
addressed
websites
traveling
berlin
automatically
proposals
gigi
whisper
innovation
bureau
subsequent
referendum
intellectual
grazing
pineapple
alabama
cort
jihad
nie
pup
tint
tier
vital
##eys
##net
##cont
theater
ink
semin
##stit
##ima
lever
spy
backing
bold
##ials
poke
crush
actively
reprod
visor
ballot
bites
climbed
speaks
tricky
ratio
expanded
prosecutors
suburban
municip
procedure
turkish
frustrated
consciousness
lonely
chugga
embarrass
vector
94
pose
##mun
##uild
thunder
##inations
shaking
blade
##oln
##aints
abroad
##apot
whoever
overly
##aka
smallest
clever
laur
strings
jeep
barcel
1980s
participation
protecting
escal
maryland
gathering
pipeline
remarkable
scandal
innocent
fiscal
anniversary
dare
hd
ji
mitch
##tes
##gust
##ique
##eters
shame
stere
stake
##riers
tears
sciences
##aken
indians
trem
behalf
mining
drama
accents
counts
homeless
syd
furthermore
iranian
reflected
atlantic
prosecutor
##ipedia
mystery
bracelet
zealand
89
borrow
dict
hes
linc
mash
raz
x6
ys
##80
##stri
shah
asph
##elf
myster
carrier
persu
secre
##ocks
schm
##feld
simon
assad
mississ
johnny
presentation
violations
statist
investigate
hoped
administr
settle
bonk
substantial
makabe
lincoln
au
jury
mim
##away
##bors
seag
cans
ships
anton
mock
##ulating
mane
shepher
grace
disgust
##intend
differently
markings
brocolli
instant
restr
remembered
missouri
basement
economics
touched
importantly
argent
##lights
riders
inequ
occupy
venture
respectively
ingredients
ai
aaron
mint
rho
##rated
##vi
##fo
forties
anc
warn
jews
doorway
surfing
immun
divide
octopus
correctly
1970s
bleach
crashed
shelter
opinions
implications
shocked
restrictions
corruption
astronaut
barcelona
gem
hilda
ward
##name
##24
almond
fears
quarters
creator
sandals
banner
muscle
burnt
competing
scramb
focusing
popularity
decorative
tweeted
rhet
analysts
javasc
contempor
awards
jilly
naught
tul
##ok
##rics
##ori
clash
teapot
warri
parks
dressing
suitcases
portray
equality
bells
analog
improving
titled
framework
inflation
murray
acceptable
duke
##kyo
hunter
junior
surprisingly
brunette
capitol
testimony
sydney
asphalt
javascript
06
fame
trop
wag
waving
##of
##lest
reverse
goats
managing
proph
2020
skip
firing
lazy
centuries
strap
winds
steal
paw
tommy
arguing
epic
misc
civilian
snakes
puzzles
grocer
stacked
diseases
wealthy
acknowledge
harvard
elderly
forfeiture
houston
bing
rah
xbox
##paper
##isons
##station
asyl
##assy
unions
##izer
crane
firms
##ensity
vegas
strain
counted
wax
foil
horror
acid
autonom
studied
powered
##lessly
examination
operator
urinal
hybr
blankie
##ilipp
bobby
commissioner
predicted
guidelines
remarks
dramatic
intervention
inquir
chelsea
70s
bm
tune
whites
dos
stored
whats
deem
ally
##ulu
ambit
##ateral
pok
midfield
afterwards
swir
export
curve
viewed
supermarket
consideration
dropping
burst
illness
saddle
georgie
craig
assessment
accomplish
kirk
sustainable
amateur
bh
dates
pix
wand
##iat
##hd
##vis
##uten
##amps
liby
alarm
comics
scul
aga
philipp
reserved
polish
slacks
builds
presc
symp
invasion
missile
populations
camping
annoy
##nedy
module
salary
##iki
technological
erase
fundra
panels
voter
##lining
languages
civilians
nutrition
displayed
improvements
pleased
rosie
sevent
encouraged
chaos
complaints
quoted
adventure
algorithm
imperial
toppings
asylum
ng
vint
yan
##rors
##iveness
##hand
##opard
bru
memo
##umble
spat
exempt
overcome
20th
##phia
##ampoo
entrep
avoc
towers
bunk
delhi
chopped
contracts
demanding
virus
episodes
psychological
bonus
survival
nursery
kennedy
homose
montreal
gallery
guarantee
tadah
registration
carnival
encounter
cricket
tasks
phrase
pitts
consensus
lag
vamp
wales
##ras
##nish
##vp
##13
toxic
sections
##oted
shy
frames
nev
skater
recy
eddie
designer
profits
avo
##clair
irre
identical
membership
eastl
brotherhood
functional
declar
requested
settled
affordable
engagement
terminal
adequ
phenomenon
extraordinary
crocodile
shepherd
entreprene
bb
cum
faint
gn
hedge
lining
sig
##life
##ev
##aii
##mad
##mers
##cat
##cos
##inction
##etics
##kee
stl
##olen
##usal
##osing
cocon
loll
contained
##ucks
##iances
runner
teammates
stef
depression
failing
void
patterned
##inois
toothp
legislative
connections
commander
ranks
ownership
raisin
bumper
conventional
gorilla
yawn
diversity
caterpillar
coconut
71
dual
dya
pins
til
##dam
##person
##zed
##father
theories
##athing
anderson
shampoo
stained
forb
##unction
comfor
wherever
##aga
twinkle
compat
contrary
skull
headqu
obst
wallet
bases
float
##shine
squat
lessons
pressing
feder
biological
batting
bulldo
indicates
purchased
arabia
producers
##ippi
suspic
kentucky
transparent
symptoms
##adelphia
sculpt
cs
gdp
lav
pard
rows
wip
##aria
##etary
keith
biting
##othy
singer
fireman
questioned
##umbled
measuring
damaged
broader
blend
consumption
hawaii
celebration
dependent
riot
kenny
wounded
interpretation
presumably
jeremy
vintage
pittsburgh
comforter
cine
dating
gee
kam
mack
##gies
inject
beet
##state
##ira
stub
haiti
##chu
leap
brid
##istent
pears
sake
usage
##ouses
worksh
slip
closeup
creature
relation
transgender
scream
adviser
kittens
mixing
practicing
millenn
difficulty
hurting
philadelphia
temperatures
swedish
involvement
manufacturers
pentagon
wreck
hurricane
taylor
laurie
mississippi
93
aj
citing
cbs
foo
fauc
gail
hire
sang
##dale
##mony
##pected
##fare
##itals
##uto
pla
grave
preced
contribution
indigen
##hman
signals
120
stephan
insert
adams
restaurants
illinois
batman
investigating
palace
judging
discussing
repeat
demonstrate
filling
promoting
integrity
cooperation
guests
emphasis
watermelon
conspiracy
bam
dash
hence
lanes
ss
##pie
##bling
##cies
##s
##icon
##rose
##ustration
pled
spare
arc
startup
lately
##attan
politically
authent
antib
mixer
violation
traum
torso
improv
hallway
1960s
instruments
demanded
minimal
darling
impressed
charlotte
expanding
navig
battles
horizont
theatre
barbara
overseas
inequality
indigenous
##rs
##bury
tokyo
andre
leash
fright
soy
greece
tale
rober
uncon
##irect
##shot
campbell
insisted
dishw
involves
racism
replacement
disappear
buddhist
arkansas
firefight
paddington
tremend
fate
masc
rome
sauc
coaching
lets
guid
##ictions
ours
sunshine
strang
medi
assigned
salty
sprint
burden
circular
doctr
deadly
convicted
blew
defeated
ratings
flights
strategies
submitted
bikini
horizon
chimney
unexpected
conferences
hernandez
cube
##zes
##anth
##arre
##aya
reign
##iments
pledge
upright
couples
##rav
enroll
popped
##pled
slam
bitter
##enders
swings
assign
##ributes
movements
lands
checks
choppy
spoken
packages
##graphy
objective
employed
queens
libert
cracked
hosted
blender
berries
mattress
pencils
defender
grabbed
accommod
substance
laboratory
nancy
ecos
sacrif
bronze
torture
diesel
browser
seagull
bisc
fires
ib
tshirt
##lical
##mail
##maker
##pal
##bul
##city
##39
##leum
rex
stolen
lib
##immer
grate
spiders
exceed
overt
peoples
unre
diverse
resort
##angles
darkness
sled
windy
cutie
childhood
harvey
laptops
neighbors
pinch
tricks
explaining
##chez
occasionally
decker
departments
chantilly
acknowledged
comprehensive
pizzas
hybrid
poké
ein
gid
sie
##las
##mill
##nell
##kh
##oto
sting
stance
ants
chad
sud
##ilton
##andel
##andra
abilities
clients
cluster
skys
joey
snows
striking
facilit
investments
##flies
towns
sanct
commonly
timing
impression
buffalo
sharks
dialogue
eagle
anonymous
perceived
entitled
aur
gary
pars
pige
wan
##rin
##vy
##jack
##era
##oub
reck
segment
doggies
stability
moss
conse
##apolis
grip
grilled
feather
unha
twins
flap
##udge
intim
crouch
interrog
embed
cambod
foster
nights
##cience
collins
communist
malcol
trapped
absence
divor
approached
lucy
spinning
concepts
railing
numerals
brewing
dynam
harvest
rookie
ecosystem
unhappy
malcolm
7th
bou
cav
nasty
qa
ues
wiz
##gate
##vent
##leans
##ione
blink
forcing
hah
convert
sponge
arctic
coinc
perry
baba
incom
##boy
##pshire
surge
stepping
geomet
110
classified
grandmother
clocks
insult
whoopsie
21st
moore
reveals
refugee
louisiana
oxy
athletes
disappointed
brooklyn
punishment
taxpayers
invalid
cinnam
contemporary
naughty
skyscr
biz
cm
ease
jug
sack
vine
##iety
##uko
##bian
##omed
##theless
chasing
sore
bruce
boing
contents
##mann
worlds
restore
nevertheless
##shield
hampshire
1990
1993
denim
stopping
casually
volunt
interviewed
targeting
contacted
arabic
exclus
pursue
gorge
summary
wikipedia
becky
oblig
dishwasher
5th
awhile
cops
gest
tatt
troph
yu
##lan
##war
##wall
##rons
notably
anch
brusse
##usions
diagn
intend
slept
courses
cameron
api
lawrence
posting
corps
provin
paste
costumes
healthcare
layout
mirrors
1992
publ
additionally
separated
duh
approaches
constitu
overalls
spectrum
quietly
inspiration
laminate
granola
consistently
laughed
editorial
muddy
kerry
obscured
juris
theoret
##croft
rhetoric
cinnamon
brussels
bart
pist
##burn
##oux
noises
donna
upload
cler
##istry
##icks
scoot
quote
crumbs
secondary
instagram
charity
##aimed
dresses
dollie
delight
senators
##comes
shooter
puppets
occupied
rhin
sinclair
ranging
dynamic
bour
baking
hose
pail
rational
vague
yelling
##occ
##ruit
##nc
##onia
##ndall
##orable
##orous
##isible
##omi
ist
canon
heck
orang
meets
##itty
peer
coher
enfor
##pted
recruit
opio
##veless
camps
margin
windshield
wallpaper
##itsu
zeb
password
discont
awa
sounded
electrical
productivity
caul
cafe
devil
swims
releases
tracking
measured
convince
destination
tweets
controllers
decoration
seventh
licens
preferred
upgrade
thorough
harassment
gravity
propaganda
municipal
groceries
dil
ew
ian
nca
pussy
rit
rake
ripped
ub
##gus
##kk
##oust
##oose
beings
liv
chili
blueberry
##iley
reserv
huck
incent
openly
legally
basil
warren
generic
simba
pickles
lineback
pressed
starcraft
fairy
organic
insist
merkel
teenage
##aucr
admission
tourists
legislature
rebel
districts
dominated
reforms
awarded
sophistic
nomination
bureaucr
html
explosion
protein
compensation
cranky
nichol
sixteen
heritage
simultaneously
ncaa
nons
nike
pp
ruth
tens
##oard
##drop
##acles
canc
std
stating
lend
blacks
howard
unac
##ogether
minnie
camo
supplement
evident
transact
transaction
lineup
examine
violin
robb
associate
educational
bulls
emerging
arrival
commentary
unlock
bombing
talented
smells
defendant
ignor
promotion
assumed
territor
laughs
krist
subscrib
hacking
witnesses
veterans
bambi
sequence
avocado
headquarters
dj
dorm
hitch
km
nsa
nintend
sr
##lu
##hal
##cht
##ingly
##arthy
##lem
##idi
nex
managers
proc
poet
underlying
treating
deserve
drank
kidding
greatly
owns
choosing
bankrupt
supposedly
##flix
sadly
execution
physically
airplanes
archae
##guard
demonstration
defending
integrated
attending
reminds
acquired
palestinians
interface
playoffs
anxiety
insect
nintendo
dak
gon
lass
mothers
ome
pause
paren
##mn
##gun
##uj
lizard
##imore
##antern
grows
moreover
##icking
coup
unve
afp
cran
indones
remov
slim
watering
relie
markers
steady
apoll
designers
tennes
kitties
salv
certific
speculation
portra
panic
eyebr
baskets
finishing
judgment
killer
unfair
koch
documentary
magnet
collecting
neighborhoods
savings
pennies
egyptian
metallic
warehouse
pardon
apollo
fare
fog
ios
##rate
##cute
##fol
##eding
sep
heel
hehe
leices
chill
orbit
traged
manual
overnight
compact
skunk
betty
accus
foam
collaps
raises
petition
germans
considerable
billions
sleeveless
belle
bands
polling
commerce
sensor
meaningful
regulatory
aims
occasion
weakness
sailboat
interpre
pyth
lifetime
subsequently
decreased
rendering
desperate
gramma
prosper
baltimore
bizarre
leicester
91
bc
dang
dull
eater
eager
gil
tink
zom
##bows
##cular
theft
##arity
clo
outrage
grim
boast
uncover
visa
pinkish
confusion
facial
paj
infer
appearances
##ikh
christians
netflix
deadline
judicial
1980
describing
bloody
capitalism
talib
criticized
struggled
concentration
##post
stanley
altogether
coordinator
widget
cheerios
preference
tangled
kilomet
pdf
compromise
dentist
bulldozer
aub
cb
hars
pas
##rus
seiz
blu
orn
##inder
arsen
admin
popping
handled
midnight
underwear
recon
imposed
reliable
evans
bowling
snowden
raven
infect
harper
electoral
##umbling
thompson
tanks
vermont
medicare
variation
variable
executives
influential
dispos
jesse
migration
interactions
motivated
eliminate
bloomberg
stimul
enthusi
silhouette
scrambled
azer
fet
mes
##ping
##pad
##eries
heels
##gel
##oline
spank
adap
colour
##quoise
perception
creatures
accum
snacks
funeral
invisible
refers
missus
missions
passive
annie
modified
walkway
furry
caution
technically
labels
##alem
proportion
combine
sentences
exceptions
digging
pollution
guards
folding
demonstrated
derived
spokesperson
channels
exchanges
trials
ribbit
folk
tigger
empower
procedures
memorial
dismissed
shouted
isolated
explicitly
bookshelf
distinguish
libya
homosexual
tremendous
jurisd
tennessee
dive
fier
gad
gand
hier
kiw
nc
nit
nak
nash
poured
wi
##ender
##giving
##86
##eria
##arium
inaug
liam
leaked
framed
manh
pending
scroll
loving
##pling
lightning
servers
monitors
obstr
meters
exped
horrif
asset
flooring
followers
##conn
salmon
piglet
urged
tradem
turquoise
temple
copies
rabbits
casting
tourist
crop
intelligent
shrimp
experiments
taping
atlanta
prospects
gaza
trolley
transmission
aislin
wicker
disorder
behaviour
ankle
societies
brilliant
barrette
deemed
bip
batch
kett
saint
tib
##mis
##bal
##ndy
shred
stabil
blaz
trap
##eryl
unsc
sketch
interven
speck
visits
engaging
retro
raj
drawers
oppose
harris
functionality
influenced
unsu
ignored
adoption
clinic
guaranteed
wispy
errors
uncomfort
dispenser
mysterious
tropical
guidance
trademark
aislinn
bax
bapt
lump
mps
rash
tro
tents
wy
##dling
##zi
##coon
##60
##ingle
##ington
##itudes
##aro
inbox
##amel
donors
arbit
copper
intel
##ifl
eligible
oldest
longest
keen
snugg
realistic
##which
subtle
chron
harness
fastest
utter
revol
polly
nathan
screws
crops
rosen
substit
crawling
nickel
sponsored
embassy
oakland
bakery
kurdish
enhance
exclusively
ugh
ufc
vib
##eing
##uity
##isations
##urd
abund
alber
##agic
##acha
imam
logs
##gger
probability
preserve
charter
submit
##coat
generations
provision
awfully
180
hitler
noneth
deny
styles
epa
merc
momentum
morgan
printing
opposing
treaty
earthqu
bumped
beaten
rebels
attorneys
frosted
ripp
susan
squishy
##bourne
telesc
fascinating
liverpool
toothpaste
faucet
pokémon
intimid
nonetheless
bt
dated
ecl
nun
qb
sid
vp
##oys
##uating
##sch
##bac
##ativity
##edy
sued
orth
##ando
peck
prest
##iva
crude
longtime
marry
evac
##ugu
curios
parker
##aza
latex
##tawa
formally
traded
eighteen
wondered
ledge
representation
1989
conservation
encry
regarded
ceremony
lifted
stems
frequent
surviv
analyt
encouraging
occasional
suspects
lifesty
java
correlation
bamboo
habitat
pregnant
pajama
aids
bacter
gates
ld
mul
mature
nix
sip
##oen
##pants
##cakes
##29
##──
seized
stab
stats
chains
donation
orleans
##olo
##eman
preview
quad
hugging
girlfriend
recount
babys
interrupt
drain
signature
snort
airline
stein
respected
cardinals
affair
caboose
honk
absent
representing
##heim
reviewed
texture
documented
ordin
ambass
porcel
symbols
advocate
revolutionary
olympics
ottawa
marginal
manufacturer
varying
vocal
creepy
taliban
porcelain
0x
lb
lor
lantern
sill
##reced
##itivity
stitch
soggy
orland
outlets
##agen
prede
phant
hob
needle
header
19th
finals
mario
##000
genes
barrier
cupboard
courtney
awk
promising
southwest
wildlife
cabbage
volat
1988
moose
1970
sioux
fleet
attractive
##crack
unpreced
doughnuts
appointment
peaches
aqua
pleasant
precisely
abbott
professionals
uncomfortable
unprecedented
cinc
dora
gw
mashed
ns
nib
pont
##aj
##bus
##ón
##reen
##omial
##ante
##anted
##ilight
soc
##owned
abol
align
##orton
##ortions
scor
popp
##quer
babe
slo
##oca
evange
gameplay
facult
studios
freeze
painful
patent
modest
chicks
examined
minded
butterflies
reasonably
sinks
malays
amongst
fails
scrut
1986
credits
brandon
tuna
dimly
communicate
spanking
alternatives
newspapers
pudding
buffer
pleasure
raspberry
mathematical
swallow
rivals
horizontal
qaeda
manhattan
dy
md
mason
rr
rus
rud
sd
##eas
##ti
##gal
##bird
##fy
thri
##arms
##igo
weh
##illo
debr
##usalem
##umper
aboard
outta
knot
procl
##hero
overd
mycroft
twilight
greenhouse
fla
##ached
composed
permit
slot
##ocl
consol
drift
refuse
sandwhich
tyler
footprint
forehead
viewing
protective
##break
euros
shallow
descript
knocking
jerusalem
periods
1975
tends
occupation
fiber
exercises
synth
venue
deployed
outlined
mittens
collaboration
lynn
tesla
noodle
sparse
dvd
saucer
arsenal
cincinn
80s
ja
lulu
pension
ssh
##oked
##ikes
##inite
##enz
noah
##adim
##ellor
chanc
trace
backside
greet
sax
phill
incons
headphones
endors
metrop
confusing
demol
produces
passage
fundament
occurs
robust
poorly
inflamm
trays
safely
skateboarder
decorated
gardens
turtles
adopt
recommendations
initiatives
ninth
principal
treasure
proceedings
renewable
elevator
victoria
arrangement
nineteen
cocoa
luxury
caulifl
sophisticated
parenthood
orlando
aston
mg
ov
##will
##map
##iors
##icity
##oos
moham
##opy
##ahu
unic
dizzy
scales
##pton
loaf
evergre
recession
slipper
101
cupcakes
detective
infection
prototype
depos
requiring
freder
practically
##enex
raccoon
shuttle
reflecting
spokeswoman
inex
experimental
qualified
shells
stretched
pirates
##iwan
publishing
exhibit
penguins
resolve
iterator
rankings
douglas
brutal
colonial
bmw
declaration
stefan
trophy
transactions
tragedy
harsh
bake
dere
fid
gag
punk
vin
##ders
##press
##nett
##base
##34
reid
rewards
shakes
weas
##amus
anarch
haul
neil
brands
alley
outcomes
##ounds
feb
enact
shirtless
smash
lod
veggie
drought
snip
silicon
warfare
##balls
certification
uran
##ttes
divisions
significance
nationwide
antique
fatal
bicycles
appliances
maintaining
arranged
ivory
dublin
restricted
sponsor
architecture
##gregation
cigare
stewart
diplomatic
embrace
cucumbers
yahoo
gloria
kleenex
waffle
cocaine
python
ambassador
cincinnati
cauliflower
ct
dab
mw
rol
rails
##odo
##hoo
##bies
##eros
##lee
##irk
anime
##thr
gosp
##ilateral
##aha
griff
backdrop
safer
taiwan
##agr
phoen
residence
##quest
builder
appeals
countless
regret
reluct
marker
capability
drip
assists
directors
pulls
filing
researcher
humanitarian
cooler
crowds
accessible
expecting
hosts
paintings
##baij
dispute
spiderman
briefly
scottish
quantity
wrapping
constructed
parameters
wikile
screensh
agriculture
inevitable
cafeter
consecut
auburn
fierce
cigarettes
fount
lung
tide
tapes
uri
##lined
##dled
##power
##oup
recept
##sell
blown
donations
courage
carter
wright
reply
breathing
earning
serge
counters
possess
tyndall
bann
eyed
sorta
grandfather
performances
vanity
casino
murky
texts
##ynth
respondents
journalism
indication
complained
rebuild
requirement
##olds
sporting
chemistry
bulk
accomplished
newsletters
prompted
accompanied
ancest
bleachers
squatting
doctrine
giddy
sanctuary
azerbaij
curiosity
wikileaks
cafeteria
consecutive
cbc
gill
hp
niger
v20
##esth
wha
##arat
nobel
replay
##step
static
##entions
##imm
##opho
pluto
feminist
compass
##ourse
contrad
##phy
cleared
throws
helen
speeds
edwards
marines
consent
cutter
swan
capabilities
barry
geese
developments
invested
188
productive
operational
1991
cycles
releasing
addressing
1965
ultra
spreading
switched
championships
photographs
supplied
##oxide
households
##keeper
cheney
leonard
indonesia
honda
len
sv
sib
vene
zak
##lar
##iah
##fits
##render
##isk
seas
sham
hend
ster
stair
clust
knit
##rians
pend
worship
##aukee
usc
unn
diving
wells
glory
slipped
headlines
hmm
demon
corp
parad
freezing
##icycle
ruin
churches
administrative
destro
clicking
tribe
acceptance
squeez
grabbing
hooked
ferry
ghosts
plugin
prayer
incorrect
demograph
bjp
preparation
inquiry
publisher
ald
cc
fib
mate
vim
##eh
##nbc
##36
##isive
beers
cancel
##sels
gore
deed
clunk
pew
##inea
flush
sci
amber
##active
makeup
poland
reconstr
boyfriend
deserves
cambridge
monk
sniff
##cedes
placemat
correction
chronic
exploring
projected
portable
criteria
canadians
banging
absurd
replacing
hospitals
traveled
lifting
bouncy
philip
spirits
cruise
duties
##holders
removing
conflicts
shocking
transformed
praise
recalled
satisfied
wisdom
observations
delayed
overwhelming
##ussell
cryptoc
argentina
rhode
seventeen
lollip
dakota
chancellor
apt
cott
gau
vw
watt
yall
zub
##waukee
##dah
##mith
##ruck
##iac
##bons
##­ing
##fas
toll
##eder
reind
shin
##amine
##urren
notor
leban
negle
trips
##osl
backl
unreal
aging
##grad
cola
##plus
##ucted
##hmer
counties
milwaukee
approaching
averaged
140
listened
violated
michelle
merch
melbourne
variables
displays
hawk
controlling
analyses
marshall
mechanical
naomi
attracted
magnets
cathed
attendance
constructor
powdered
aquarium
pronounced
template
ponies
huckle
nexus
neglect
900
cree
cpu
f1
hart
jup
mesh
pouch
##foot
topped
##arios
node
##omin
##lete
leak
lemons
fry
##aba
##inking
upwards
congr
##itters
spa
cobb
compuls
interim
olds
headboard
accent
bedsp
expense
waited
keeper
hummus
providers
geek
calico
possibilities
187
elective
fury
viable
delta
magical
receives
ethical
bunches
beneficial
melted
expects
searched
essay
sensitivity
magazines
bouncing
politician
praised
gifts
accuracy
allocator
brazilian
departure
margaret
duration
lunar
rouge
disgusting
roberts
opioid
nonsense
hierarch
kettle
bedspread
fond
hike
rushing
rbi
sons
tus
vans
yarn
##gt
##vas
##itable
##itzer
reass
reagan
seam
stro
##adad
wendy
##acking
leopard
chilly
tric
trium
alar
ampl
compos
wayne
append
defended
reloc
watches
genius
##news
posters
##ribly
forefront
provider
particles
sara
socialist
radar
cyl
investigated
employers
thanksgiving
balanced
1984
characteristics
madison
troubles
arrests
berry
connecting
reflects
measurements
routes
scenarios
nurses
integration
pilots
whiskey
jewel
rushed
rangers
breathe
aliens
dramatically
fucking
sweeping
discipline
convenient
rafael
awkward
aven
bould
fm
kathy
lum
loun
mls
roth
sier
##obs
##tails
##rah
##ports
##nies
##hh
##35
##igue
butler
mol
tricycle
##una
alban
outline
sheer
backup
disast
disabled
workforce
slipp
cheaper
meth
curry
believing
genre
sweaters
animation
norwe
##string
186
##zzle
nether
operators
militants
wildstein
sexy
existed
duff
indicating
logos
tissues
struggles
prosecution
wetsuits
cordur
jefferson
atlas
dubbed
elementary
evolved
##arette
beverage
tidy
privilege
hesit
##piece
sudan
telescope
faculty
triumph
6th
bish
fern
horton
lino
pse
rats
sigh
zones
##xx
##100
thump
##eness
inhab
beats
stella
##aby
upward
##ounder
gravy
spike
##riages
boiled
##ela
guinea
appet
##ivan
indie
sliver
minus
median
homeland
bedtime
addiction
animated
benjam
125
humpty
motors
raft
filming
##quel
equipped
devoted
sidewalks
janet
fingerna
pitching
murphy
mailman
addresses
terrier
repeal
reminded
occasions
concentrated
kermit
interactive
structural
electronics
evaluation
intentions
cousins
frustrating
cigarette
exploration
popsicle
chlorine
dolphins
einstein
discontin
nicholas
benjamin
cud
fencing
mb
nik
posed
russell
sinc
x7
##och
##eat
##oration
##storm
##chio
mop
grin
maid
##beat
dix
compelling
resigned
huff
intercept
happiness
waking
highchair
expenses
instances
centered
##inski
128
baghd
closes
lesser
testified
cardinal
superhero
benchmark
suggestions
ethics
educated
melt
snail
1967
paddle
tripod
conductor
dimin
bombs
defeats
leafy
1950s
liquor
scratchy
concerning
##cules
suspension
acquis
alpha
mortgage
pancake
exhibition
sedan
joshua
cheeks
volunteer
embedded
oxygen
weasel
phoenix
norwegian
corduroy
linoleum
baghdad
bats
cache
gul
gamb
jars
jingle
lite
lush
nag
tah
vow
##obe
##matic
##iencing
##bat
##zels
##cia
##cons
##22
##jan
##itative
##etta
##acht
sel
shook
##urance
likeli
gods
fract
##ceeds
nemo
##opot
tract
##ahn
grants
##astroph
cod
##nty
unst
twisted
flames
##onduct
reson
crad
probabilities
workplace
secular
joanna
10th
1000
turner
catastroph
medal
distinction
##psy
##eez
curved
charging
juven
win32
recordings
generous
profound
booboo
marketplace
understands
debbie
eighth
sentenced
colleges
ringing
mercedes
separately
searches
participated
responding
celebrity
##ropri
psychology
tendency
dumpt
translation
scholar
broncos
solely
##olitan
vladim
secrets
warriors
nevada
gorgeous
unscrew
lifestyle
cryptocurren
likelihood
vladimir
90s
dandel
laser
pies
pairs
ridge
##iar
##fw
##atism
##omo
##irical
blitz
##amy
dioxide
pricing
comparing
lightly
elabor
appearing
commod
cattle
corners
##shell
harmon
hamilton
nonpro
argu
torrent
editors
quebec
balcon
misle
archive
worthy
revealing
burns
criminals
psychiat
defenders
dumpty
unfortunate
emotions
oxford
philosoph
transparen
oriented
##borne
census
configuration
eagles
tinted
workshop
cathedral
slippery
gib
hiring
js
jello
lur
mous
pj
rated
tug
v4
wats
##say
##bin
##ignty
##acent
reception
stap
stark
yess
probe
##arten
playstation
rover
flint
##ifier
##akis
##ressing
remotes
##ogy
happily
belg
evie
simpson
autumn
memories
prix
115
freely
harrison
fishies
brightly
130
preval
threads
##awa
traders
turf
queer
accepting
meantime
stocks
rapt
heroin
ineff
pipes
advocacy
ronald
reactions
achievement
sustained
motivation
fluid
vitamins
orchest
volunteers
tutor
nazi
sovereignty
disturbing
razor
ambitious
adequate
linebacker
removal
gandhi
phantom
##through
transparency
ds
fuss
gown
lac
ned
rin
ranges
wwe
zach
##bull
sealed
##irl
##otive
seeks
##chini
fraction
##umer
altered
##cker
grampa
pel
sak
offseason
##ishes
unne
enabled
##avia
contend
goth
hugh
##ggle
surrender
curled
grassho
artic
retain
experiencing
tenure
poses
portland
romantic
strongest
dealt
announcing
brushes
focuses
arriving
surveys
logical
laden
immigrant
fifties
survived
walnut
qualifying
montana
muffins
##world
suburbs
pedestrians
whitish
kurdistan
##stitution
antonio
vampire
rhinoc
gospel
arguably
bree
db
eey
owe
sic
sard
wade
##ean
##rom
##rowing
##pit
##hin
##uting
anten
##chi
chacha
##terior
brains
plaza
##astically
boil
fever
tefl
unrel
buh
carp
composition
pharm
dispar
pretzels
commons
##uctions
consists
refusal
founding
jackie
humor
winners
winnie
rounded
haram
daw
questionable
froggie
radiation
spoil
suggestion
##appropri
launching
triangles
pinstri
marty
imagination
protections
pumpkins
delivering
fergus
##anyahu
recovered
affects
drums
cherries
lemonade
kyle
relaxed
crunchy
rhyth
forums
censorship
condemned
cucumber
hypothesis
autonomous
alberta
venez
watson
teflon
ferguson
dign
kern
npr
ostr
tensions
wired
zuc
##watch
##haw
##bag
##jud
##erity
tod
##edia
beam
shine
thereby
atm
tragic
brow
platter
cozy
downward
smiled
quilt
contam
treats
supporter
invite
mete
instantly
artwork
sleeps
infected
tomb
investor
netanyahu
160
figur
sooner
securities
davies
difficulties
flowered
balancing
verd
achoo
tuned
toasted
hunger
magnitude
organizers
hippopot
comparable
translate
palestine
highlighted
oddly
mutt
penalties
hrv
disorders
agricultural
delegates
federation
divorce
skyscrapers
ignorance
pseud
cure
gp
sings
v5
##mble
##rac
##ku
##iy
##yes
##zan
##atar
##anim
##arians
##oosh
##star
canal
stump
stead
##chron
legg
frustration
atom
justify
##osc
##rix
cob
tender
usb
adoles
unity
unrest
bucks
##emet
newton
##ipse
impe
loans
bookcase
slower
105
belo
monetary
streak
endang
endless
barber
firearms
##ussion
carson
184
##urai
starb
thirds
##udeau
optional
fitness
kissed
musicians
cyn
competitors
oopsie
cultures
epide
custody
billionaire
morris
citation
##limited
narc
documentation
rivers
athlete
##block
esports
transferred
stressed
innovative
luckily
pierre
##sticks
severely
jillian
dodgers
iconic
cognitive
philippines
nixon
##agraph
reindeer
jupiter
dah
dense
dunk
napp
pt
##mouth
##gary
##kens
##hr
##organ
##acular
ree
canoe
##irs
weed
##itement
nelson
justified
conj
cones
conced
makers
themes
playground
unlimited
flaw
resume
actress
slides
cheep
monument
synd
##owski
swiss
metab
##minth
pries
continuous
linear
paints
modes
economist
labs
skiers
conservatism
nutri
timeline
pinoc
participating
bleep
tourism
##fruit
stocking
historically
automob
mccon
athe
manufactured
limitations
adjusted
parliamentary
buckle
ashes
dwar
kurds
abandon
alec
chemicals
vietnamese
advisory
##eera
gabby
institutional
excessive
ebola
stunning
statistical
##eastern
consolid
netherlands
dumptruck
zucchini
cis
nig
rd
##lay
##western
##mar
##rill
##run
##nik
##km
##cup
##fu
thai
##erving
tol
##icut
reun
seals
##urg
likewise
trudeau
conway
dieter
envel
girafe
intact
crashing
desynth
accidents
hatred
##azi
retre
mainland
breakdown
provisions
paragraph
advances
profiles
landmark
springs
eru
prevention
flynn
privately
telecom
computing
denial
palin
availability
bandana
liberties
kills
mailbox
admits
smartphones
declare
pinter
prediction
impacts
carpeted
assisted
celebrated
mobil
demonstrations
hydra
leafs
lambs
assumption
witnessed
applying
##ography
enclosed
broadcasting
##writer
summar
evaluate
interference
grapefruit
cosm
marcus
holland
raspberries
brocoli
retriever
feminism
fertility
vendor
sovereign
bryan
warnings
mascul
cambodia
certificate
portrait
eclipse
fountain
lollipop
sierra
unnecess
priesthood
envelope
ace
bp
dime
eg
nad
packs
rav
wavy
yikes
##overs
##ais
##math
##eday
##isers
rewr
##chen
leagues
chi
dong
mead
grizz
spitting
expend
dian
diale
flaming
##atern
##ubby
lightweight
slate
30ish
metaph
respiration
##shore
artistic
raid
petting
formica
buyers
hitter
hamster
typing
##liner
civic
latino
verify
plaint
1983
1987
emerge
nutcrack
connecticut
angels
folder
sends
neatly
granny
360
jazeera
accidentally
cubs
printer
julie
harmful
glaze
publishers
substantially
obscure
orientation
explorer
encountered
bradley
aerial
tossed
endorsement
sympath
fundraising
biscuit
seizure
scrutiny
debris
tusks
lounge
cradle
dys
het
hann
kik
lakes
v8
von
wu
##wer
##ement
##eem
##hum
##but
##cam
##oufl
##onk
##ndra
##uter
##kees
shaved
##uro
##uri
leo
sull
##iller
##aho
peac
peers
diver
partisan
ammun
imf
reserves
cruel
##ensen
glimp
acted
##weed
helminth
probable
##boats
belgian
camoufl
attributes
considers
wallace
assured
##ologically
12th
norway
explod
musk
entities
advised
harbor
bunnies
messed
portal
southeast
typed
russians
ranch
macbook
variations
civilization
independently
dispro
peeking
fuzz
briefcase
photography
mandate
aggression
tadi
cushions
##monton
algorithms
apologize
mathematics
mantra
oversight
compatible
pledged
eeyore
ammunition
glimpse
jpg
kris
khmer
lut
lust
vag
##pin
##page
##uates
##uki
##és
##ía
##inge
doom
heating
stink
blamed
##amation
grasp
mayer
herald
20ish
##izations
flan
caramel
##ptions
indirect
brend
thankfully
surrog
nightstand
invented
sandra
listing
retained
dollies
##mingham
spacecraft
problematic
professors
crosswalk
trait
judo
titan
austria
execute
350
hosting
1979
1968
libraries
skateboarding
crisp
ensuring
dumped
determination
advantages
1945
elliot
currencies
expertise
##working
someday
gymn
prayers
##ulsion
lipstick
tucked
loyalty
sewing
inspector
fortunately
urgent
grateful
unaccept
bankruptcy
earthquake
predecess
hobby
compulsory
plaintiff
911
fitting
gt
gb
hz
lg
saints
##di
##25
inhib
inappropri
##idas
bearing
doi
##keley
stinky
blades
chester
knick
spices
gren
boiling
##bey
teh
goodman
anytime
smiles
##cca
betray
elbows
tren
headline
breach
presidents
impose
edmonton
namely
warmer
cooker
barg
barney
bennett
detention
infinite
casey
investing
couches
pressures
starter
sixty
birmingham
questioning
fights
equity
debates
desks
connor
reaches
dryer
interestingly
melon
macro
heavyweight
hostile
instruction
safari
dispatch
berkeley
spectacle
precious
nursie
promoted
fixture
albums
ferr
shifts
walt
cords
flashlight
mutual
acquire
leslie
pursuing
conclude
bulb
quotes
observation
pedestal
pedestrian
desperately
molecules
podcast
revenge
counterparts
sculpture
ritual
eyebrows
tibet
mohammed
zakaria
balcony
hippopotamus
9th
binary
css
fn
hir
jake
kot
kits
mph
pand
poodle
tension
v2
##reg
topping
##enas
whales
heated
stomp
##aman
##aments
habits
chor
##uscript
clues
spur
pea
##astics
usd
flops
##icts
girra
cleans
secured
##umpy
commands
startups
hairy
##bron
ideological
##shake
chrom
designated
##byn
deport
##screen
patrol
storefront
armor
summon
irr
forming
dale
starfish
sprouts
authorized
insane
urge
limb
defining
stole
violate
radi
identifying
toyota
torto
immense
earliest
##hanced
pitchers
citations
challenged
1969
spectacular
steelers
priorities
switching
measurement
prevented
husky
strengthen
cathy
sectors
concentrations
##avery
bernard
julia
allocated
width
squirrels
licking
converted
vessel
chunks
infantry
libertarian
##folio
jurisdiction
evangelical
destroying
congrat
rhinoceros
aka
lore
mound
sq
sire
tc
wat
wiped
##mart
##rint
##note
##hu
##85
##99
##enna
lied
atop
##olk
brig
placing
clam
##ulative
manga
manuscript
splin
##resh
##rily
tak
robe
usher
enhanced
prelim
##ifiable
##plant
perse
marath
ende
reli
bash
meta
boxing
warner
assange
##coins
detection
raiders
annually
aviation
185
pays
dais
affir
propeller
formerly
northwest
turb
bangs
gasoline
digit
##bbles
1960
hawks
bomber
conversion
spiral
trusted
occurring
lieuten
drafted
downloaded
rumm
fortune
gaining
pcb
accurately
pursuit
lobbying
extending
deployment
intrusive
confirmation
isolation
veloc
observer
revenues
devastating
entrepreneur
sacrifice
snowsuit
orangish
insects
accusations
tinker
kiwi
bacteria
unicorn
belgium
ostrich
mcconnell
cables
dental
eug
fda
horm
hush
kan
mour
noun
##mie
##44
thail
tock
wholes
##arine
nodd
##stock
shaving
blake
blows
theresa
sox
neph
plugged
meals
dea
outfield
spout
bock
coy
worms
howe
##beit
guild
##agne
unanim
##izon
greenery
enrich
premi
ahl
skilled
beth
underway
102
imprison
marx
cutoff
##making
instinct
confess
hiking
severity
pushes
112
111
continent
closure
harley
cease
effectiveness
portfolio
##aughters
robinson
sensex
##held
sells
chiefs
executed
introducing
consumed
traditionally
celebrating
rebell
sexuality
dumbo
reminder
optimistic
woah
naval
mentor
tactical
purely
eliminated
peeled
inherit
condemn
ragged
travelling
yankees
spatula
beetle
aurora
unveiled
ripples
misleading
meteor
pinocchio
unacceptable
thailand
houth
jagu
lan
mets
munch
m19
mvp
pik
##iop
##uz
##ben
##70
##eri
##inty
isab
##asse
healing
##advant
lia
##abad
neo
##fty
outlet
comfy
##rik
hass
cohen
guided
rogers
greene
flatt
smugg
afl
crap
crooked
##ressive
perl
disadvant
incoming
spear
joan
holders
attributed
attitudes
dripping
dribble
barriers
handsome
draws
salaries
electro
europ
checker
tickling
##odies
reasoning
ruined
rises
wheelchair
environments
revised
admir
doubled
dani
viral
wishes
villain
reflections
escaped
inspection
rhino
emotion
navigation
gamers
earnings
parameter
conclusions
legendary
adaptation
icons
spaceship
flexible
revelation
seagulls
anchor
coherence
##heimer
fundamentally
beloved
pinterest
splinter
aired
cemet
eeg
gps
jaw
nx
nare
ration
tm
tet
taped
##oft
##ioca
##bish
##vo
##core
##130
##aru
##alous
rend
rever
cane
shave
stiff
stagger
##amous
goss
##ills
clips
roch
unbel
scrib
amn
quinn
##qual
glen
glac
indef
undert
wrig
slog
descend
cheers
strat
straps
distribut
genoc
corro
discoura
idaho
superman
considerably
processor
170
telegraph
##ifty
biom
identification
##hai
physi
kicks
verizon
regards
##guh
pleaded
gradually
minorities
##nost
affecting
transformation
tribune
lesbian
sparked
soulkey
ukrain
passionate
chords
binding
mammals
vendors
dorothy
resignation
midfielder
annoying
wizard
robbery
territories
shredded
frederick
cemetery
cp
daughters
fathers
hilar
pv
rall
zbra
##like
##rous
##rise
##bah
##zilla
##function
##inery
##orate
seg
##urf
choc
frig
##ieval
trot
convey
claws
albeit
mang
mango
redist
arn
##bean
overview
##berger
downhill
flaws
flounder
compiled
aftermath
##enson
hardest
undermin
wrink
caller
mines
schiz
deciding
refusing
stealing
##space
snowfl
penet
systematic
planets
buns
varies
raincoat
superv
specialist
operated
hopeful
favorites
ruler
conviction
1982
freshman
variant
madrid
sonic
threaten
mcm
1976
commented
conducting
dimensions
installation
1950
preventing
spilling
loveseat
tapioca
qualities
christianity
subscription
528
lyrics
sacred
##worth
temporarily
legends
buddhism
subsidies
molecular
flickr
inclusion
recruiting
fuels
skeptical
mitchell
theoretical
collapsed
uncovered
ornate
administer
metropolitan
reluctant
sergeant
antenna
starbucks
aesth
cf
fict
font
hic
iced
jal
jama
ndp
piled
v6
vod
wp
zion
zack
##lus
##wal
##park
##iq
##cor
##card
##21
##てい
nod
##eta
shaky
##amo
hazard
nem
plag
plural
outfits
mann
##resso
guh
overha
teasing
##rystal
##agus
diabet
##ibilities
aguh
php
ahmed
##ulture
disse
mueller
polite
##iani
underwater
laa
headset
headlights
##ocy
pretzel
medieval
snaps
swept
thingy
metres
##erto
bros
terribly
careers
barnes
missiles
coral
popul
##amped
infring
parado
##lessness
muscles
goldfish
##ancer
organizing
organisations
freak
insider
billboard
northeast
malware
planted
bangko
auditor
volk
globally
marching
1981
congressman
1966
narr
forests
ignoring
spends
seventy
alternate
promotions
mechanisms
applies
porridge
illegally
qualify
murdered
cooperative
cuuko
mandatory
unav
##iasm
intrig
resolved
scholarship
##ergarten
enthusiasm
anticipated
beverages
affiliate
inevitably
fertil
##curity
deliberately
tattoo
disposal
amnesty
ape
cair
cries
damp
fitted
lace
sacks
xl
xml
##dn
##mac
##gling
sequel
stalk
##sec
##child
##rost
lex
leaks
donate
brack
mend
abusive
##estone
combo
spine
peps
##eled
worries
##izable
scal
sme
smashed
##udin
intens
comply
gotcha
disgu
chev
lara
opener
edited
##affe
basin
expose
halt
youngest
parach
suitable
solved
datas
motorola
garcia
url
mindset
limiting
definitive
origins
statues
spotlight
sexually
damaging
drying
trafficking
1985
treatments
archives
sharon
rye
falcon
defendants
dominance
regulators
precision
clowns
hooks
integrative
agrees
categor
polymer
instructor
permitted
novels
karl
skeleton
mentions
astro
consulting
disappointing
relaxing
astronom
satellites
reinfor
exploit
ltd
bagels
jacob
arrangements
flexibility
favourite
waffles
nerd
crouching
pistol
thoroughly
griffin
notorious
creek
juvenile
dialect
preliminary
corrobor
paradox
bangkok
cork
dud
fist
fenced
gur
jas
mh
moust
sf
viny
##log
##wart
##dar
##aired
##gins
##uously
##hee
##bart
thigh
##llah
toby
##orig
nok
##isandy
onl
##store
heap
frances
butcher
##ilst
abrupt
##unes
graves
diddle
bok
offshore
##aux
adorable
unm
aggreg
farms
crus
handy
needles
mupp
helper
appealing
editing
relatives
kidna
apost
transc
corbyn
generating
geo
entity
prevail
miriam
miracle
propri
operates
burgl
skipped
teeny
digest
expressions
snapped
broadway
staffers
cartoons
observe
lengthy
bumpity
solidarity
spelling
essays
trimmed
frankly
randy
mistaken
locker
graduated
citizenship
translated
rescued
establishing
ninety
paleo
bonds
stirring
wrestle
diamonds
breeding
consultant
charts
renewed
disclosure
decrease
masks
referee
fragment
succeeded
otto
ottoman
prosperity
arbitrary
uranium
##odox
spawn
jewelry
overhaul
aster
bong
cze
dame
kg
naming
nicol
rx
rio
tush
tales
tux
ug
wals
yug
yelled
##rt
##rain
##iary
##ucc
##yton
##cad
##reach
##omy
dose
##chief
##anded
mew
allied
abused
##unted
outright
##idel
prox
spite
backward
bobo
20██
offended
diagon
phar
##airy
colt
quo
incumb
##plete
behave
miner
minne
mineral
brenn
preserved
financing
defines
trainer
surplus
restroom
collie
friendship
firetr
prizes
catches
awak
boarding
countryside
##bread
classical
accordingly
economists
wording
mounting
urging
cellphone
##books
privat
tarp
failures
saturn
accountability
convinc
selfie
carts
jenell
doubts
undoub
innings
proposition
purchasing
contributor
jeffrey
wrapper
achievements
boundaries
tournaments
bothering
discounts
ltl
mosque
disneyland
ricchez
##charge
bundle
strictly
taxpayer
masters
vigil
touchdowns
bridges
pigeons
adapted
snuggle
azerbaijan
leggings
daisies
unbeliev
yugosl
undoubted
ricchezza
aap
bast
ced
erect
gian
gpu
hated
hank
ig
jeez
mong
nord
nhs
nifty
puck
pug
yang
za
zoe
##dor
##pd
##pat
##sk
##bank
##jab
tokens
whilst
##asm
##iga
##acies
canopy
hein
stamps
ana
##olf
pliers
manaf
spart
greed
peeling
pebbles
bod
boko
bozo
coca
fluct
becca
carriers
poem
##ifact
mommies
skates
lotta
workout
joking
stranger
##hmall
woody
mighty
switzer
haircut
curves
restoration
strips
subt
tying
steamed
coron
breakthrough
penins
designing
depot
goldman
fishy
##zzie
cares
excitement
gerald
dealers
barefoot
exceptional
owie
##comed
honour
objectives
hungary
accounting
religions
dragged
agreements
pitches
broadband
financially
timer
ache
##ascar
lacking
villages
loops
marshmall
scratched
rumors
espresso
recommendation
smoothie
seekers
cuz
ivy
rotation
mentally
elevated
destructive
hollow
tamar
triggered
disruption
templates
genuinely
gracious
lauren
crushed
prescription
plaus
overturn
sincere
unnecessary
lieutenant
vinyl
manafort
bos
diction
foli
ges
ging
kor
kath
ole
oun
pere
porter
sap
uint
wished
xi
##oche
##uv
##far
##ен
tory
##orum
noble
##idt
shag
##ldow
##enter
hav
sul
bri
brady
allerg
clause
knob
didldow
##ista
mayonna
themed
##bek
offset
unle
flore
flakes
newest
carib
##ipher
compiler
hull
itsy
disconn
undermine
underpants
boyc
breit
attire
declining
##attering
curls
simulation
chargers
barr
##neys
apology
transf
infamous
fixes
certified
economies
specified
excer
garner
specialized
performers
musician
victories
titans
millisandy
austerity
skiier
merit
utilities
feeder
wheeler
interviewer
macdonald
loses
1971
angular
falcons
historian
assumptions
ribbons
katy
walter
walmart
heights
##ophren
wolves
ecu
sprinkle
ellen
poly130
tackles
flavors
tribes
tribun
consequence
cockpit
pearl
cdc
outlook
confrontation
prohibition
tucker
withdrawal
revelations
kaboom
subscribing
zombie
appendix
toddy
inappropriate
narendra
schizophren
diabetes
walsh
mayonnaise
poly1305
dow
dairy
kell
nm
og
piv
rc
ratt
tik
tones
yam
zwill
##mare
##rust
##ра
##∷∷
whipped
##utan
shir
hex
##sein
weaker
butch
##tery
donor
triv
##unct
alger
##ounding
reduces
cox
##ougher
herb
pointy
colours
hugs
midst
hod
##ometer
sunfl
decides
bitsy
milan
carey
governance
barron
##redict
##otech
hotels
##shire
fireworks
detected
entries
complement
condiments
presenting
organisms
receip
equation
burr
matched
17th
welcomed
destiny
subjected
tighten
##adesh
travels
angela
marsh
aspir
adjacent
scoreboard
nanny
##ophone
arrows
stretching
unpredict
optimal
##respons
smoked
observers
priests
cyclists
sneeze
gracie
geographic
whatsapp
avoiding
avoided
trauma
dynamics
provincial
licensed
ordinance
shakespe
backlash
rhythm
genocide
pepsi
undoubtedly
bard
cuck
density
gaw
io
json
kap
nes
nab
sided
ting
tampa
uz
zo
##wah
##tra
##rm
##kit
##bone
##55
##3d
##inform
##anche
##isen
reactor
cance
##addy
##item
##thas
gob
##tering
wasted
justices
grumpy
proving
maur
spicy
##rium
saves
bobb
##arkar
enlar
flows
flowing
flipped
flesh
complim
clearing
tablets
slap
slavery
watermark
drilling
cheating
cheesy
monop
fines
lasting
starters
relating
marking
capris
humming
calgary
unto
##ounce
examining
technic
labrad
eventual
packing
pubmed
cooling
associations
scrap
massac
audiences
##oopers
responsibilities
misunder
functioning
obsessed
responds
arrives
imagined
bumpy
cros
weathered
paths
caucus
demonstrates
purchases
aiming
shifting
punished
implies
blogs
whiskers
squeaky
writings
wounds
satisfy
extends
disappointment
clarity
htc
puffy
patriots
dolphin
leverage
geometry
voluntary
obligations
poetry
ravens
homosexuality
utterly
endorsed
inflammatory
compassion
cottage
tricia
elaborate
nonprofit
sakurai
chacha20
nappie
camouflage
moustache
czech
brennan
peninsula
breitbart
zwillings
shakespeare
falk
jor
nz
nir
sana
v1
wur
##rome
##pers
##hard
##yy
##bound
##­t
##atable
##itary
tobac
anders
nos
##igs
##eted
##alds
reed
reyn
segregation
hears
blizz
##alling
liz
fors
frt
oral
plaster
upr
##ested
outd
##ahan
##ardo
##artisan
spice
tearing
##auer
##achi
prisons
farming
lotion
elep
slave
headache
descent
108
breeds
wooded
##ciation
runny
founders
singh
##shape
11th
modify
furious
idk
varied
excav
averaging
optical
##oda
domains
##ovic
damages
beautifully
octagon
bulldog
credibility
goalkeeper
freshly
1973
vegetation
islamist
casualties
demonstrators
darth
sippy
contributing
hussein
uncons
cubes
labeled
permits
tribute
delete
columns
miniature
barking
flooded
mosqu
popeye
convenience
pulse
veto
navigate
accommodate
parsley
istan
interpreted
stimulus
socio
malaysia
demographic
lebanon
cryptocurrency
endangered
nokia
minneapolis
firetruck
tobacco
bach
bows
dh
ff
hue
hips
kale
niss
oath
pall
pell
pau
rar
sah
wang
##wick
##eches
##rings
##rating
##rament
##packs
##gent
##bil
##bars
##26
##90
##fth
whip
##oro
##aca
seah
seating
##sted
shack
stale
stern
##adada
bloc
liability
##rock
##rogen
aborig
claw
##ules
##unzel
codes
##inez
adidas
##grown
colom
##placed
pert
glenn
##orns
##dley
remedy
desired
speeches
103
commuter
shortcut
serp
decomp
useless
marriages
realm
foundations
striker
halves
artifact
drawings
badge
badji
creamy
viking
touches
approve
questionna
hamper
processed
authoritarian
tickles
eighty
dennis
malik
traits
straighten
louder
selfish
cracking
advertised
launches
expressing
morrison
legalization
credited
unfold
cropped
unlaw
##biber
talents
dingy
rapunzel
khakis
richards
frequencies
mccarthy
promotional
licenses
susie
attraction
shifted
hacked
negotiate
carlton
snowboarding
venus
sacrament
anthrop
empirical
columbus
disclose
pakistani
advisor
rhyme
corresponding
correspondent
dalmat
extremist
hudson
verbal
fulfill
facilitate
incentive
kristen
unsuccess
acquisition
breeze
tortoise
nodded
ukrainian
istanbul
aa
aide
auction
bie
bolog
beryl
dye
iw
rene
##lene
##ele
##dem
##pard
##uished
##hub
##bike
##erte
tore
##etically
##acious
##utic
##alach
reh
seaf
stam
##imb
lending
chased
ori
trin
broth
uphold
##oodoo
##unting
outbreak
maz
guac
playback
unite
unch
appalach
caring
intensity
quart
##ivy
cracks
handing
hover
muah
remem
104
creativity
chefs
laroche
lasted
defer
relish
restored
cared
jealous
juan
maintains
postp
moto
directive
##hoe
mouths
duckies
servant
productions
256
piggies
receivers
insists
toilets
sentiment
colleague
dreaming
associates
honored
risen
##ieties
melting
tightly
1972
1977
spectator
compliance
noticeable
literary
suprem
sneak
homan
piper
hippos
comparisons
emotionally
gentleman
surfboards
dotted
dusty
snowboarder
gangs
mormons
rifles
explosive
lynch
embraced
patriot
vessels
embarrassing
administrator
prophet
misconduct
pixel
bbq
interrogation
sepia
raggedy
danielle
switzerland
trivial
reynolds
3shape
ci
eq
jumper
nipp
naugh
pes
pam
punt
piles
rage
td
tart
troy
tenth
tougher
v7
â€
##ois
##nas
##houses
##bach
##cus
##­tion
##found
##ри
##orph
isil
ismail
##rov
chir
##ilib
##ppel
moses
##ulates
##osures
peg
exagger
mayo
feared
guilt
buggy
prejud
poking
poker
pointer
readily
glow
induced
undergo
oposs
serum
reliance
nightmare
birdies
##ashi
##aneous
tyran
collision
confeder
transcript
baggage
continually
completion
advancing
petals
locally
milkshake
patience
18th
ducky
booster
idiot
costly
rained
organize
lowly
opted
norms
fitz
practiced
combing
sammy
softly
statute
horsies
straightfor
volt
nationally
modeling
pitched
threatens
lawsuits
martinez
indicators
rugs
rugby
##agonist
##oids
bombers
delicate
terrain
balding
rusted
worrying
toothbrushes
wheaton
savarkar
cuomo
faithful
crafted
sponsorship
rodr
assembled
cannabino
proceeding
holidays
adventures
legitim
orchid
grammy
proteins
tornado
recreational
jiuj
borrowed
antibodies
omega
survivors
nigeria
marathon
zwillingsbiber
opossum
straightforward
jiujitsu
2d
dice
joc
kom
lars
nj
patt
pts
racks
tumb
wives
##lon
##gow
##iya
##yd
##yon
##cd
##04
itchy
inmates
##icism
hew
##chem
tramp
degr
albert
herbs
teet
dire
enab
amd
comeback
query
ahmad
resid
##quote
handgun
indict
kindergarten
sunrise
happier
serial
marin
silk
evan
##feed
charco
tyr
tanned
##spective
corrid
directory
##atories
depri
##hole
patric
piglets
##ews
socialism
surfers
litigation
packaging
cabal
kickst
tanker
verified
characterized
medicaid
injust
bumps
##uffs
mobility
surviving
determining
clapping
willingness
##oshi
1944
bolts
hackers
instructed
prair
##ylan
coordinate
deleted
dietary
tactic
rhymes
upgrades
chatty
confronted
insights
wicked
underside
entrepreneurs
suspicious
firefighter
strangers
ibm
caval
encryption
bishop
fingernails
dandelion
commodity
exploded
disproport
tehran
chromos
fictional
foliage
caribbean
orioles
naughright
fs
ick
krem
nl
nerve
oudin
rays
sb
vik
vault
v10
yale
##aque
##mitt
##roots
##raham
##pc
##kar
##ör
##28
##fund
##fold
##orth
##igious
##iguous
reiter
sear
shoots
shipped
staged
bloss
trio
plank
blackberry
pelic
sails
feud
willy
##agle
unh
unse
enlight
flown
newborn
amen
amph
prud
intro
##cco
##ource
frontier
perma
glas
##week
throne
visibly
cannon
suppress
bitcoins
finland
edmond
consume
baseline
barbec
passport
thoughtful
viewer
rockets
pastries
locals
cheesecake
sounding
businessman
armad
##iko
valve
lowen
microb
moderately
activated
001
tarmac
robots
wedge
queue
liberation
melan
separation
tighter
credential
bailey
bleeding
capitalist
splashing
essence
texting
crashes
photosho
gays
mechanic
briefing
randomly
scratching
therape
brewery
tribal
nicer
submission
neuros
docked
shouting
advisers
simplicity
utilized
roasted
vaivy
bundled
crypto
catalog
behaviors
swallowed
forbid
gadget
inauguration
phillips
boulder
venezuela
steadily
sullivan
rebellion
mewes
bologna
appalachian
della
hick
lent
nascar
pact
rf
ropes
soo
vader
##law
##apped
##gant
##iate
##cano
##った
##eses
##itis
##icious
##idal
relying
shale
stig
stur
stakes
##sexual
##amole
forwards
notre
##verning
##chs
##ims
governing
sulf
suited
neural
##ulum
gramm
sailing
buys
dilem
contempt
##plan
##ords
winding
basics
##tex
teammate
americas
##azz
winn
publications
factories
easiest
untie
##dodo
patting
hearings
modifications
caut
informal
delivers
##atural
##obi
certainty
microsc
chooses
175
hymn
denying
samanth
attacker
planting
secretly
brushed
answering
##haq
accounted
deterior
revival
##iji
morocc
##ettes
duo
vegetarian
consuming
impacted
luis
renov
priorit
lifts
rebounds
defeating
positively
regulate
inspiring
wilbur
puddy
rooft
paneling
commitments
1930s
##ographic
junction
recalls
celt
satisfaction
biker
outlaw
rooted
hamburgers
exploited
iteration
prohibited
overwhelmed
illustrated
##ecd
fragile
weighed
vicious
exhausted
compounds
recipes
culmin
scouting
cortex
tilted
forbes
wiping
obstruction
mercury
footprints
inhabit
luther
endeav
velocity
wrigley
cuckoo
labrador
nissan
guacamole
charcoal
disproportion
kremlin
photoshopped
samantha
cpp
cope
dylan
ki
lope
lenses
pf
ucl
voy
xen
yacht
zimmer
##lr
##sis
##vol
##но
##frost
##inished
##ref
##inging
##itated
##omena
ishaq
##aydah
thats
##sten
sta
weiner
blunt
##ellar
##roc
##rolet
leis
chilling
chubby
##inks
bras
brass
someplace
manages
grat
spying
##essa
peyton
boeing
redempt
putt
guer
##icked
unload
flop
intensive
##actic
##soever
##plug
indul
disco
##pleas
emper
waterfall
committing
creators
##ugal
refuses
grassroots
collared
concussion
famously
firearm
##ribed
raids
parthas
pund
##brew
##lette
garf
propose
turkeys
identities
illusion
competitor
##untu
reviewing
madonna
recognised
dupl
declaring
predomin
troubled
belonged
sensors
nyc
premise
battlefield
academics
flee
ipod
ellie
preferences
gallon
sailboats
adjusting
louisville
negotiating
pyram
biography
launder
biko
profitable
utensil
memorable
foolish
permanently
orchids
tumor
contempl
catalonia
niche
overlook
mammoth
counterpart
routinely
tippy
wiggles
tolerance
lecture
astronauts
clashes
obstacle
obstacles
cinema
voluntarily
vaguely
ubuntu
livest
relieved
methane
##oscope
automobile
rochdale
chevrolet
convincing
excerpt
tribunal
gawker
unlawful
patricia
permafrost
lopez
aero
bds
dome
heter
laughter
mick
mcl
mik
nn
pia
uc
yak
yoy
##oly
##ogram
##wire
##tz
##uzz
##yum
##onal
whining
##isi
##ete
##acer
shang
shaw
shaker
heal
hemp
blob
##ampton
sunder
orph
spurs
backpacks
##istically
coding
feas
offence
willie
##arella
roach
adobe
dayton
persist
colts
##atched
everton
glance
vegan
##ocaly
##ailable
ballet
finale
surpass
swamp
charities
governors
##zai
##zale
screamed
postseason
penis
continental
vienna
starring
blondish
ports
insuff
burton
wonders
sampling
announces
richmond
accessories
240
welcoming
characteristic
sellers
subjective
credible
handlebars
admitting
unfinished
corrected
1974
martial
tubes
crore
influences
sharply
contractor
##uffed
contacts
teaches
bounces
conceptual
automated
fills
dumping
surroundings
porcup
rosechu
rumor
rumours
matthews
brewers
firmly
cuba
bolster
optimization
streams
woll
buckets
ivan
##mmet
comedian
##style
teachings
trooper
evaluated
hypocr
appreciated
emphasized
##otypes
oriental
gmail
prompting
calculated
correlated
velvet
sufficiently
chopsticks
metallica
assassination
taco
monarchy
perpetr
excluded
seminar
precedent
pigeon
cancelled
cranberry
horrific
abundance
deedee
zubaydah
spoilers
premiere
m1918
gingrich
schizophrenia
awn
cite
dart
foul
gong
gases
hed
jos
nugg
ope
pest
rains
sans
vowed
##oa
##lane
##din
##pen
##iens
##ieth
##hurt
##bast
##vs
##vil
##zone
##zee
##zahn
##37
##just
thres
##lev
##idy
re­
bea
bead
semit
##otch
doggy
whatsoever
##robe
moist
brist
##ainted
blackish
abortions
uphill
conform
proves
pepe
exterior
##onged
##ichu
##isha
flashing
pruss
crumb
handc
##pless
gluten
thru
undercover
eman
drool
crews
cheet
edu
maria
conscience
relent
##cium
realise
realised
sands
cooks
barred
barbed
banning
transcend
publicity
motive
provoc
proto
continuation
internally
##tenham
particle
electorate
irs
valued
messing
economically
grandp
johns
seniors
##lsen
germ
##lett
##object
portugal
equilib
burp
burke
investigative
foreigners
mercy
rubio
positioned
commonwe
felony
prints
separating
recognise
mcd
carton
yoghurt
imaging
constitute
leaned
##saic
prisoner
##holder
precip
analyze
erica
nursies
ambition
consistency
sherman
magnetic
gateway
krug
cooperate
##iciary
entertaining
witches
bosses
dissent
dissol
vulnerability
enterprises
stalls
alerts
intentionally
anxious
hinduism
pregnancy
lingu
fortunate
mlb
geography
reversed
deafness
incomplete
provinces
orthodox
volatile
lodge
paradig
reconstruction
hilarious
parachute
pivot
unpredictable
questionnaire
therapeutic
sunderland
threshold
bilateral
cue
ditch
jed
kos
kel
mowed
piss
rfc
tb
£6
##lab
##million
##rab
##uy
##ser
##bark
##01
##300
thy
##erting
##inates
##arth
##isb
##isman
##icer
##ighing
##uts
rebe
reich
canvas
##urer
hazel
##elli
socially
mozilla
donated
##ols
tram
brom
dement
##ulin
alma
##arded
grades
knack
##ripp
##ongs
##rag
llama
scouts
persistent
afterward
##ensional
smallish
interstate
106
belts
shortage
attribute
edith
defenses
##00s
potted
singles
apocaly
##shi
foremost
generates
##lington
providence
infra
infilt
infinity
119
tomee
applejack
pasture
salman
chicka
irv
messenger
increment
specify
networking
understandable
yorker
cellular
trades
individually
hugely
cultiv
accountable
feeds
committees
volcano
parental
morally
broadly
progressives
risky
tours
burner
disputed
legislators
applicants
renee
wishing
repeating
remotely
budgets
criticised
inspire
fusel
integral
predictions
ramsey
encourages
750
emergence
multicolor
fifa
anthem
clarify
disclosed
##password
crabs
panties
sucking
axe
tumble
unwilling
evolve
shaun
distracted
deliberate
recreation
immunity
stephanie
frightened
screenshot
clusters
grasshopper
kernel
nutrients
desynthesis
peacock
pharma
1password
eternal
fusion
gd
gif
pb
ply
ral
vivid
##oir
##lift
##with
##test
##crow
##caster
##cups
##fax
##án
##erable
itch
inac
##levant
isa
##ayed
beagle
seer
##stad
##stop
weld
##alled
##chch
suz
##ieu
aspar
##illou
traces
justification
clone
leftest
pele
hasht
##ichi
diag
diandra
encom
flame
smack
carved
preseason
prone
compartment
reset
##ava
disk
incon
polished
undergrad
lave
empt
emble
sls
dadada
##sson
curse
banners
##ships
detained
geological
114
filmed
filters
filthy
petro
internation
messaging
caillou
delays
eraser
##ugging
denies
souls
wilder
successor
##ported
tracked
masses
measles
machinery
felix
nationals
champagne
archer
angles
1963
necessity
seaweed
pools
ironically
darwin
dominate
implementing
implementations
contributors
vests
virtue
claire
implicit
politico
behavioral
collector
collections
coastal
lindsay
2000s
karim
festiv
mentality
concludes
suburb
nominated
parallax
terrifying
gmt
più
obligation
abdul
feminine
inventory
vaccine
recycling
gnocl
yawning
stubborn
reconcil
infections
bipartisan
intervene
astonishing
##steps
siblings
gauge
gambling
unrelated
grizzly
volksw
minerals
uint32
blizzard
outdated
leisure
commonwealth
asparagus
bount
buster
ces
cres
dn
das
ego
fb
gust
gus
jig
jays
kane
mia
mats
nra
ost
pors
tipped
upp
v3
vines
##oi
##wan
##pace
##grav
##krel
##uu
##cill
##cence
##ст
##го
##inis
toggle
whad
##aram
inade
##asive
##owitz
beets
##stones
doh
shaven
hemis
##urb
chow
##ctor
sudo
##cending
asht
nepal
plop
gramp
##heric
arist
coated
coaster
brownie
##irts
feij
coupled
diane
downgr
priced
intest
timeout
##ggers
##intosh
recl
earrings
bitch
regression
distribute
syll
synt
##ounters
grasses
bengh
steward
supportive
councill
calcium
explored
oppression
petty
oof
videog
hamm
16th
panama
versa
activation
##ovich
illum
packers
tempt
audit
divine
racquet
digger
##heit
##aids
macron
matern
sono
timber
timothy
islanders
progression
tuning
1962
undo
belonging
hunts
duterte
smelling
1957
substances
transported
nests
migrant
polyg
dismant
nickname
shoreline
sausages
coordination
##matism
complaining
##repres
exploitation
hunters
plums
lucas
transmitter
fossils
extremists
observing
assassin
neighbouring
incorporate
reproductive
administrators
mimi
tulips
warrior
suspicion
firefighters
slammed
enforced
swimsuit
dangers
expedition
vpn
cylinder
retreat
tibetan
chorus
staggering
aggregate
transfers
enlarge
remembers
enabling
redemption
parthasarthy
rebecca
hashtag
##kreli
inadequ
feijenoord
baw
cors
dood
gs
gith
gaps
iz
lacks
nw
pomp
tiki
vand
xyl
yolk
##loo
##wing
##wind
##mens
##nest
##kind
##hist
##bet
##23
##68
##itate
##lley
##omat
##left
##aco
shi
heidi
stal
stacks
steth
stroll
##adi
notices
##imeter
frying
succ
mosaic
brood
yeast
dew
##uma
allison
alf
sper
##rika
coh
brownies
offs
rogue
adverse
unint
unified
dipping
enzy
agu
smily
smarter
carlson
poppy
phd
##iao
readable
indy
mugs
thrilled
showcase
securing
slug
slots
slipping
visually
107
brett
homeown
##anka
imposing
##ending
relies
swap
curs
milton
charming
##ificent
concord
storyt
systemic
parish
rocked
discourse
##breaking
##ouched
ducklings
ordering
lays
supern
supervis
projections
favored
dealer
critically
malzahn
pills
pillar
langley
envision
linking
replies
##ospheric
encounters
shutter
predators
1978
martian
1964
indianapolis
disputes
confirms
skirts
dimension
roofs
skillet
premises
conditioning
corey
spills
predictable
weights
consisting
msnbc
homopho
##culus
initiated
synchron
rejection
scripts
venues
amendments
earnest
flooding
rigorous
##points
borrowing
overwhelmingly
aisle
instrumental
blogger
glorious
affiliated
##ogenic
vigor
wiggily
fueled
elasticity
pupils
schmitt
portrayed
nutritional
irrelevant
injection
enrolled
incompet
intends
licensing
##────
interrupted
evergreen
pendleton
lustre
reliability
inheritance
diagonal
incumbent
dictionary
shaggy
ecuador
canceled
kickstarter
edmonds
shanghai
paradigm
volkswagen
benghazi
github
8th
aides
akin
cact
cages
ctr
dic
daff
ea
ftt
hond
jensen
kun
kurt
ls
lub
mitten
null
oc
pics
sny
tpp
tup
vall
zinc
##wald
##dly
##rane
##gp
##59
##jou
thumbs
##anan
##armed
##igence
##etto
##ioned
##ooky
##ellers
ched
##antis
sug
##ilation
outreach
knobs
spouse
##asts
oversee
##raged
unz
##achment
##iful
conting
yellows
hopping
disgr
incomes
mufas
elana
joked
109
drown
centres
ballots
consort
##iov
realizing
##brook
beng
tannish
listens
122
##she
humble
posture
meme
detain
##strong
solving
varieties
nationalist
keyword
motorbike
hamas
spacex
northeastern
yaya
combining
versat
cymb
pillars
dread
dreary
robbie
washcloth
tempo
immers
surprises
employer
replicate
bridgey
triangular
450
challenger
doubles
troubling
hooded
skinned
##guy
amazed
celebrities
disappro
rosy
achieving
originated
licence
appliance
walrus
graphene
punjab
adjustment
adjustments
consequently
skelet
forthcoming
gamer
comprised
aggressively
satisfying
appreciation
temporal
extensively
ladybugs
manipulate
firefox
nineteenth
tacos
resembles
clerk
passwords
vibrant
analytics
synthetic
evergreens
derek
alarming
dignity
atomic
narciss
meadow
typedef
trench
ferrari
sanaa
aboriginal
injustice
dilemma
livestock
infrared
snyder
mufasa
bans
cider
dl
dudes
dnc
fp
fsu
kush
mn
norn
oust
ping
pione
rut
raped
vil
£7
##oken
##mind
##master
##pot
##kan
##uka
thee
##atus
##atics
##itan
tofu
##eney
##arak
##orrent
nostal
##alou
##alism
beams
shim
stint
stee
##adays
weighing
blair
hait
##imo
##ellation
leone
leila
frown
dont
nebr
##opular
trape
brakes
brien
##ulent
aligned
spik
gregg
hasta
nowadays
downs
##emic
aggrav
newt
amuse
logan
quake
##akh
contention
##anging
fronts
midter
perch
gloss
needing
mund
thrones
emir
backgrounds
turnout
turnover
brent
cheat
baller
defl
swam
expon
exports
boxer
addict
curl
remembering
charm
subpo
subaru
autob
blockquote
15th
parr
protagonist
calib
##castle
armstrong
informational
fairfax
14th
tottenham
freel
letterman
figuring
bury
township
sanction
merrily
hopkins
necks
killings
bully
morality
personalities
shutdown
participant
doubling
contractors
pathway
dimensional
skateboards
##hydr
plea
fatty
jammies
hammering
homeschool
unpopular
decentral
clinics
allocation
mortar
mortality
unaware
scotch
somers
yemeni
calculate
yields
manipulation
heritability
pornhub
prolifer
maneu
kirkuk
authentic
reckless
diagnosis
incentives
bureaucracy
substitute
prestige
volatility
alignment
verdict
masculine
gymnastics
allergic
emperor
ralph
diagnost
porsche
stethoscope
nebraska
bac
cun
dup
hs
kon
lakers
lids
pom
tat
tian
wont
##oz
##eur
##dock
##sfeld
##fill
##orized
##eded
inability
##omics
##asi
##irable
shady
##security
bland
leica
lebron
chd
sushi
sof
moe
asc
orb
##usc
abraham
converse
##inda
##ardi
##outed
knuck
backers
backups
mayans
ard
arise
herd
offenses
unpleas
buch
buds
##izers
giraf
lovers
quint
midway
glued
callback
accl
##deep
refund
acres
acute
warns
confined
cameroon
placement
##minster
whew
chickie
servants
testify
lander
25th
keystone
steph
135
avery
authorization
quicker
favorable
activate
bankers
militant
similarities
competent
sexism
massage
hungarian
rubin
customs
baloney
230
admired
angled
tuba
touring
croat
ceremon
sensation
ridden
premature
looph
tongs
rams
exercising
rumble
nanette
remarkably
sailor
strategist
ronnie
flavored
oxid
sophom
schemes
appropriately
coordinated
innovations
nominations
cindy
fluor
hints
confidential
inherent
manifestations
mtf
concealed
redskins
neighbourhood
devastated
knights
schmidt
millennium
improvisation
uploaded
archaeological
lasso
blazer
nibble
watts
gulp
prevalent
epidemic
nigel
dianetics
nutcrackers
eugene
houthi
hiccups
dissemin
unavailable
unbelievable
yugoslavia
plausible
mosquito
orphan
insufficient
porcupine
dementia
cripp
fow
ful
fudge
jab
nd
okey
rowing
ranger
rental
sgt
wes
##len
##lies
##nog
##gles
##iated
##bands
##build
##38
tho
tha
##initely
##arus
reel
##stage
stare
weiss
lill
liking
##change
lease
##ilocks
sod
##gey
mozz
molly
wasps
tracy
brib
plains
clan
##ahah
spam
spies
##elt
telet
playful
adrian
ench
phob
logging
midas
hoag
##pert
glowing
betsy
displaced
incar
##ullah
remod
##ocad
##ocument
deserved
drapes
strick
##hmir
streaks
dogmatism
snuffy
30th
funn
relate
swiper
curric
assorted
banjo
##ceptions
121
generator
40ish
courtroom
diner
goldilocks
##iker
seasoned
specif
whoosh
portions
beaches
cryst
violating
illumin
attackers
investigator
cooled
tracker
voiced
westminster
matrix
objection
220
specificity
conventions
wheelbar
##glass
stationary
israelis
dragging
medicines
protesting
mcdon
displaying
1961
croiss
undocument
chestnut
installing
neighboring
1955
integrate
assumes
shootings
lilies
rumsfeld
##ophys
recovering
sprinkled
biblical
rotten
crafting
submarine
allegiance
oscill
eliminating
whistlebl
regeneration
bahrain
1920s
registry
phenomena
retailers
evolving
mansion
extremism
blasted
disagreement
distinguished
kashmir
whispering
whispered
persuaded
constituents
lenders
kilometers
speckled
chronicle
descriptions
inconsist
inconsistent
ancestors
hierarchical
sighed
walnuts
flamingo
isabelle
proxim
marshmallows
massacre
trinomial
barbecue
cheetah
lavender
baff
dm
dought
git
gle
hbo
lal
nets
pav
rw
rv
raff
rift
rsa
vander
##ln
##low
##lib
##lio
##mats
##rist
##nen
##iott
##upp
##hound
##hog
##bro
##ат
##27
##45
##65
##ος
theaters
##enos
itunes
##lements
##oooo
##utical
reggie
dokey
heater
##ados
blat
notification
anat
##tha
chile
fracking
rightest
mog
##andert
negl
neandert
##olph
##oped
##ople
plung
mega
depl
clack
##unciation
alad
alumn
##ounded
sphere
##elia
guides
overtime
teasp
##agag
apparat
intake
##ifi
phon
##ivo
##otherap
disreg
eaters
darkest
slated
evenly
keats
turnbull
breaches
1920
monica
schumer
regain
funk
funnel
highs
alrightie
relied
hairs
##maid
capita
additions
airports
curt
skyline
stucco
restart
jeb
##code
humili
misses
breakout
motel
stoplight
directing
onesie
peters
locate
##scale
fishes
testament
classification
buyer
capp
pigtails
specim
##oba
froggy
hanger
climbs
europeans
critique
definitions
samuel
sentencing
illustration
circuits
##ipeg
volley
gunman
planter
##linary
styro
sanchez
richest
capturing
toolbox
225
crackdown
davidson
expectation
executing
mcg
obsess
##boro
respondent
vacant
logistics
##gae
##amente
##check
therm
quantities
masterpiece
oatios
insurg
ellis
nicole
desserts
veterinary
athletics
biden
contests
stools
##dieu
fluores
rigid
margins
reinforce
chambers
kirby
gaze
victorian
shields
stevens
calculations
tangible
collectively
inherited
disagre
cybersecurity
anonymity
perceive
gravit
physicians
mckin
almonds
ambitions
kamut
bourdieu
recruitment
subscribers
boasts
mulberry
babysitter
tutorial
##stitutional
sympathetic
flannel
goblin
indictment
glasgow
predominantly
pyramid
wilderness
grampy
xylophone
consortium
incarcer
undocumented
teaspoon
aus
eject
fetch
gan
jong
nr
oculus
pter
sut
vm
ved
xxx
yas
##econom
##tor
##gren
##kirts
##uer
##uquer
##ciously
##89
##rez
##inges
##itored
##edo
##isp
##icable
##igr
##ido
canyon
##otion
shkreli
hem
heisman
stains
##amin
##verted
leaking
choles
##terol
soaked
##oping
tran
##umi
clippers
##ulously
##apor
mana
manually
bypass
guate
advers
unhe
budley
intuit
comey
resil
##pec
crises
##ucker
##phis
harding
muzzle
elites
recur
sidelines
specially
joel
##xtures
stride
##hme
edin
distress
swung
invo
airborne
ideally
hotsp
##spoken
extinction
firemen
sleeper
infront
locom
soundtr
testobject
seasoning
nationalism
erick
147
esther
focal
hyster
chopping
futur
activism
similarity
eyeglasses
poorer
merits
saddam
convictions
rubble
revis
constraints
bullying
madd
goalie
journals
saturated
remainder
deceased
indicator
##uffle
discovering
sensible
unsafe
reflective
automotive
tended
mushy
1952
pedal
fleece
strengthening
ramps
organizer
crawford
assaults
andrews
highlighting
tackling
structured
buzzfeed
linkedin
##worthy
bombard
mythology
terrified
chimpan
cosmic
capsule
brooks
duncan
simpler
kaju
evolutionary
outskirts
unemployed
theatrical
heavens
fragments
sixties
undershirt
moldova
recruited
absorb
travelled
santorum
vaccines
pokemon
stereo
statistically
##foam
faintly
leapf
crouched
vinegar
mwuh
screenshots
gothic
atmospheric
##layer
intriguing
receipt
winnipeg
cautious
sperm
somersault
unpleasant
mozzarella
wheelbarrow
proximity
apparatus
styrofoam
cholesterol
aje
cds
cnbc
hive
kra
lame
lud
lsu
muck
pines
ui
v9
zimb
김광
##eous
##tv
##tic
##norm
##krit
##hop
##75
##ци
thief
##atisf
##itic
##ede
##etical
##uta
##utz
dove
##kell
shattered
##amiliar
notified
hare
haze
whitebark
##abwe
moped
##illery
##olics
bront
plush
##ums
abcs
##ulary
alz
proxy
proceeds
exotic
##elong
##bear
gull
guant
##dynam
##asser
##ishi
bup
newcastle
amster
colone
crushing
pero
indiff
dissoci
muham
intermedi
##issance
elegant
slash
slowing
ops
joins
belfast
commem
mins
drastically
brenda
holdings
snar
homework
edna
defect
##yson
swarm
airstri
##asha
pointers
##insky
fours
barley
squig
firebase
factions
trumpet
116
untouched
campuses
continuously
depicted
giul
pastor
patron
goldie
starred
programmers
13th
##ancies
afflu
climax
propulsion
limbs
stovet
spoiler
releg
competitions
traject
shareholders
##flow
judged
policymakers
rubbing
tasting
revision
seller
tights
skatepark
protested
recognizing
unfamiliar
timest
imagery
poorest
##frame
unsur
loads
##energy
commissioned
albuquer
meaningless
graduation
regulated
1956
scenery
analyzed
manufacture
pilgr
attendees
implied
parlor
650
defensively
432
translational
gigantic
##iciencies
concentrate
karzai
##liu
sync
obtaining
turkman
suspenders
explanations
omar
tuition
inherently
partnerships
intentional
disciplines
utilize
mildly
assertion
conceived
##olitical
recruits
hydrogen
incorporated
persuade
ajax
gesture
theoretically
territorial
weaknesses
prestigious
abolition
fiddle
enacted
stroke
disastrous
tractors
telecommun
metaphor
predecessor
populist
jasmine
uzbek
uprising
sacramento
unsuccessful
prairie
credentials
peleliu
inadequate
##ranean
cheddar
hoagie
zimbabwe
amsterdam
albuquerque
bil
dé
fizz
gael
hilly
lom
lith
mumb
nbn
rude
tand
tipping
yuk
£2
##data
##try
##rans
##game
##kt
##kos
##kov
##hem
##hift
##cock
##cled
##ов
##した
##inum
##anch
nol
##asis
##aci
reim
beacon
##iri
doj
stoo
stunt
##seys
liq
##chat
chess
chops
##ppity
plun
deception
abnorm
congest
grapp
mapping
##nage
peat
overboard
overweight
##iche
enqu
flank
scall
scra
##uds
compelled
##avo
gott
midwest
skim
hopper
##ensible
booked
reps
repos
johan
##xton
decisive
fins
finest
distorted
greyhound
##ssss
##cycl
legion
metals
##ertime
runtime
acids
genetics
129
##shit
extr
extensions
placemats
blockb
memphis
155
puerto
113
depict
payroll
irma
eggshell
nationality
specs
stepmother
programmer
137
screening
projection
wordpress
romance
nonno
opera
listeners
malicious
identifies
captures
fingerprint
bullets
responsive
morph
perfection
protects
constitutes
scarce
communicating
offerings
lacked
shelby
derby
judgement
strengths
detailing
attracting
rampant
symbolic
assaulted
elliott
powell
49ers
unpaid
1939
reacted
appointments
altitude
cocktail
bioenergy
columnist
astros
dunge
jacques
physician
kasich
escalator
rahul
adequately
traumatic
unconstitutional
awaiting
procure
rosenberg
staircase
disasters
staple
rinse
dysfunction
rationale
##children
proprietary
boycott
##information
bachel
cavaliers
armadillo
##uzzi
specifics
aaa
a40
dancer
hb
homet
kum
kaw
lon
mms
mma
nam
niet
n36
pag
pita
rb
rant
righ
rico
sz
sach
tou
tyson
wink
##aus
##aires
##kl
##yan
##xhall
##vable
##vals
##cord
##jet
##ет
thesis
nop
##aying
ons
onomat
##aliation
sears
doe
dope
heath
stagn
forg
##urred
haz
hailed
haunted
##choo
##illas
ornam
oracle
neh
neoli
wasp
cluck
##unts
##elope
ush
theirs
flipping
scam
##aceutical
carb
preach
prehist
##uda
intric
##group
crates
glitter
mull
trent
headless
opaque
specks
1080
minors
accusing
##itional
fined
finances
imply
defamation
fozzie
invitation
watchdog
runners
airways
acre
swear
cookbook
potent
jeopard
eyel
grounded
apa
pais
reth
retaliation
humid
populated
bestsell
explode
completing
freeway
payload
fishie
irony
imported
makeshift
majors
mixamp
surfaces
campaigning
hype
domination
##afi
biased
finishes
learns
despair
variants
maduro
nuxhall
imaginary
commentators
quarterbacks
danced
burners
undis
renowned
shrinking
conception
historians
cruiser
1958
1951
policing
kenn
predicting
negatively
smiley
catholics
randomness
storms
photographers
surveyed
transformative
degener
acquiring
diameter
scriptures
assessed
vastly
piracy
guarantees
dialog
myths
dismissal
coleman
architectural
dodge
shaft
retrieve
inclusive
mantle
protocols
reversal
rodeo
extracted
##contin
settlements
mimic
compatibility
improvise
frightening
assignment
biscuits
siemens
hitchh
enthusiastic
empowered
baxter
wyoming
##enzie
sterling
fmri
vowel
gibson
ineffective
carpenter
pinstripes
flawed
siren
jaguar
andersen
vikings
rehabil
tyrann
celtics
inhabitants
equilibrium
reconciliation
bengals
amusement
alumni
stovetop
onomatop
neoliber
5m
bins
ecc
euc
gim
ion
jc
jou
kau
nt
nim
pestic
puls
qatar
ras
rory
sas
tense
vant
vatic
wack
wenger
£5
##eb
##dro
##mph
##rina
##not
##nia
##uber
##bic
##bery
##cal
##88
##fil
##jd
##им
##erie
##oustr
##onies
whine
##arns
##isol
sebast
##irth
shen
weist
##amoto
liken
hail
##iman
suing
solic
##pported
trill
traps
brim
plow
aba
abuses
##esta
##itte
pecul
peaks
pehme
exert
adul
downplay
llc
sc2
scut
scaling
##ema
smir
carroll
pokey
##ivable
afore
##angs
##type
##perform
##ensed
wraps
slaughter
camaro
monitored
stroustr
attic
edible
marmal
deficiency
##0000
bedding
##uga
inviting
invention
gamepad
kiddo
refres
possessed
fallout
##ribing
cornerback
##boards
companion
parse
geop
401
depressed
advise
tenants
fielding
armen
irrespons
ooaa
##prising
healthier
checkers
colder
##retion
lowered
hangar
debts
burial
panther
panthers
litter
shaded
definite
##after
exceptionally
owed
##comb
torres
improper
scientologists
romania
audi
sadness
hopeless
halls
immort
housed
welsh
replica
knocks
misrepres
antiqu
holmes
straws
jerseys
enjoys
keyboards
##offs
televised
rebu
forgetting
railway
darn
winger
psyched
crimea
dependency
doubtful
drafting
fixtures
stretches
1947
krg
rampage
cuban
giggle
1938
negotiated
resistant
dadaji
julian
sponsors
gametime
polarization
neurological
exhibits
unusually
flowery
clarke
debuted
mosul
honorable
coughing
spraying
vocab
distinctive
##manship
rendered
richer
acknowledges
rivalry
phrases
uncommon
accompanying
anticipation
rafiq
klein
exclude
embarrassed
millennials
wizards
bourbon
enforcing
unsupported
abundant
intimidation
scorp
demolition
vincent
neglected
catastrophe
sardes
figurines
impeachment
syndrome
metabol
storefronts
affirm
biomass
cairo
bodily
perez
artifacts
mazda
tumblr
hewitt
corridor
grammar
garfiel
laundering
bounty
polygamy
emirates
ballerina
autobio
maneuver
curriculum
##economic
leapfrog
muhammad
hometown
vatican
stroustrup
marmalade
bis
dt
dummy
ek
etern
fatt
gast
hiv
hunch
jag
lis
mell
nay
ou
rans
rss
siding
salley
tf
vita
wad
x2
£3
##loc
##eel
##mala
##bask
##6d
##62
##fd
##aton
##lle
##arb
iso
##icits
##eton
##utory
reop
stared
##urally
anom
anecd
chapt
fra
fratern
sucks
nect
plague
abram
upt
##apa
##apable
griz
spraw
bog
redes
arrog
##mentioned
##icky
##oree
unoff
diets
becht
carbo
bigot
amended
poised
compile
lobb
womans
hog
disability
eli
slid
draped
stranded
marina
windmill
pinkie
purported
reflex
warrants
possessions
waitress
covert
stealth
juicy
paired
##shots
screams
para
discern
117
##strom
##center
accordance
fairness
superb
prevents
145
hamstring
##arents
ticklish
cellar
futures
malt
ruf
softball
##ovo
##ovak
entirety
statutory
circulation
canadiens
owen
louise
educate
verse
verbs
tonnes
springfield
bait
baum
primaries
branding
dui
obsession
pinned
bleh
flagship
contracted
rackets
applicable
minimize
crispy
connectivity
criticizing
deriv
dominion
trailers
dependence
1959
precar
downloading
fiat
conflicting
fabulous
1940
adopting
chaotic
crawled
ellison
optimism
osama
buckley
dustin
ranged
summers
rodgers
paramount
somalia
lobbyist
##mester
embark
observatory
puffed
ricky
chloramine
patriarch
pattycake
nazis
gingerbread
disturb
cantalou
preparations
forecasts
urgency
##lestone
swirl
wandering
workshops
coincidence
unlocked
outrageous
kilometres
nitrogen
sloppy
unnamed
squeezing
squeezed
merchand
philosophical
raptors
orchestra
erupted
radiator
slogan
dataset
onlive
abruptly
unconscious
##leneck
seafood
jockey
yoyo
cactus
sophomore
doughty
##otherapy
edinburgh
alzheimer
unsurprising
onomatopoe
vantage
chapters
asexual
bw
cic
dazz
e3
fren
hump
jitsu
kem
lah
laces
pensions
rp
sway
vind
wakes
##oqu
##link
##draw
##rat
##num
##gular
##uan
##hot
##count
##69
##jeri
##ée
##inos
##esity
##aras
inning
##idav
rept
##sts
##otine
shaping
stout
stumbled
liza
lem
chih
fringe
##ilk
sober
##ande
nept
##opic
brake
meats
meyer
##user
maver
grease
cody
fein
guj
herbert
overgrown
offline
roe
ada
unin
dipsy
enables
##empl
smoo
prick
pradesh
##ubbies
glam
##ggling
disresp
thrust
tabletop
interchange
emission
repairs
visitor
breman
cheered
openings
attain
suppression
impaired
marbles
obesity
statewide
sworn
swath
pinky
realities
drizz
acorn
genome
assurance
subd
apache
squid
passer
infest
calories
calais
untr
issuing
hellboy
communal
##undjeri
armada
ceos
eggnog
starving
germs
144
miraj
affidav
iceland
writeline
insign
debug
##awks
wrongdo
microphones
denom
tailed
bushy
strait
competed
successive
robber
gooey
meatballs
rubbish
maxwell
marched
destinations
candidacy
shutting
clickety
accepts
dube
australians
tunnels
enjoyable
danish
settling
villa
trusts
shelters
khal
ensures
richardson
regulator
1953
fuchs
330
predicts
7539
salesforce
1949
puddles
falsely
savage
lindsey
adjustable
1930
blessed
##auded
schema
jellyfish
contested
philosopher
wastebask
saban
interfere
battling
punched
bothered
sucrose
jacksonville
cheerio
clutter
upgraded
chatting
adaptive
calculator
interventions
apologized
rewarded
shawn
geneva
##keeping
nominees
grinding
echoed
theorem
absorbed
bailout
excluding
jiu
tulip
dosbox
coherent
fibre
avengers
pharmaceutical
europa
aesthetic
plagued
nicolas
rx100
compliment
wurundjeri
colombia
ucla
awning
inaccur
encompass
syntax
storytelling
supernatural
ctrl
midterm
mcdonalds
fluorescent
guatemala
locomotive
김광석
telecommunications
peculiar
vocabulary
carbohydr
wastebasket
bs
bise
bitten
diced
fah
lbs
lament
mub
moth
nai
nno
ramb
rrr
wuh
wander
##ww
##a2
##munk
##rations
##pel
##gone
##ui
##ych
##vb
##cu
##cap
##cats
##fk
##jin
##jani
theor
##esville
##itos
##itous
##arin
##around
noses
##omb
##omon
##asio
##icating
##igibility
rey
begg
semester
stumble
##seling
##ldown
lilly
noticing
ans
ante
##ells
chass
chry
##ustomed
moons
melo
de­
dept
##umm
abys
##ulars
alas
##osity
whopping
sauces
lethal
overr
overla
teac
unident
unjust
flock
scares
immin
##oused
colony
##quin
crate
crist
crows
hugged
lighthouse
peril
perched
lottery
glitch
probation
remake
slaves
tread
##ools
##ailing
appealed
preserv
yearly
snoo
sniper
impul
editions
func
endured
clearer
baseman
evo
invaded
milestone
courty
cookers
##ologic
baron
banquet
eyew
benz
paperwork
autism
retiring
snowball
rapp
faction
parody
mornings
118
calc
caliber
##uca
dino
##club
duckling
multim
brighter
authored
researching
##proof
erad
histories
windowsill
considerations
##awi
burd
northwestern
campaigners
denounced
sinking
stopp
turban
professionally
dishon
honors
stylus
mills
22nd
utmost
divisive
volumes
positioning
toned
opposites
ulster
corrections
hurray
270
introduces
tweed
worthwhile
rena
randle
spreads
connects
kohl
selective
escaping
demonstrating
proposing
mccoy
heroic
fleeing
determines
fiery
photographed
ecological
organs
bolivia
hacker
remarked
cuis
guitarist
1937
snapshot
interacting
pursued
ponder
harmony
widow
evaluating
heavier
pennys
linux64
praying
punching
proceeded
renewal
fooling
mp3
trolls
prominently
tortured
correspondence
stevenson
promptly
kaep
illustrate
illustrations
catalan
kuuko
overlooked
mammal
ankles
accelerate
simultaneous
recipients
prolonged
nielsen
dictators
autonomy
bhutan
imperialism
irregular
stubble
inserted
unreason
bouquet
surgeon
geometric
skyscraper
##occup
baptist
poppop
descriptive
rebuilding
contradict
maiden
catastrophic
articulate
pseudo
conceded
girrafe
deportation
scribble
indefinitely
vodka
asteroid
tushie
fluctuations
ounce
serpico
rodrigue
relentless
krugman
emblem
internationally
parrots
diagnostic
neandertal
specimens
dissociation
tandem
prehistoric
paisley
unofficial
bechtel
aided
bop
cull
doop
gour
hil
hoop
igu
kol
lark
loot
mk
tally
tert
uppy
wob
winky
yad
zh
£1
##opp
##lis
##lia
##dc
##dough
##rung
##gom
##uw
##uition
##yr
##bot
##xp
##ач
##cars
##48
##­er
##­al
##fi
##され
##onso
##itas
tories
##arr
oft
onboard
##owis
##icular
seize
##vell
heather
##aders
weaver
liar
leah
frumble
righteous
##anton
##ppings
tril
trails
plumb
meh
##umed
conqu
manuel
grud
prostitution
prospective
##orte
redef
cohn
wors
offenders
roaches
##agna
adela
bub
diagram
amtra
##achine
farrell
##ako
##uba
##people
##plash
standpoint
clems
displace
laz
showers
empl
slump
slats
##ogical
sunni
##alsa
##usha
##ushed
mediter
finnish
lastly
marque
margar
syner
##gerald
exposing
floyd
sleigh
acer
warmed
terra
ideals
demos
bengal
tanish
singers
apric
detrim
##ussions
motives
sorting
discred
patrons
181
organised
hammers
antio
portugu
equals
##aware
twentieth
##ernick
campaigned
literal
practition
connell
stoke
radically
radius
biotech
illicit
militar
wildly
michel
kingston
auditory
copied
accessed
racially
volcan
benefited
##renched
destabil
variability
pollut
archety
scarcity
faun
shrink
##ghz
installment
comfortably
freedoms
sights
##blue
##doms
nested
savann
buffet
rawls
rotate
saudis
ashamed
kimber
julius
venom
chipmunk
jailed
retirees
annex
fools
borough
withdrew
validation
becker
iterations
kilogram
disruptive
dalton
oyster
ingredient
inclined
##ievous
physicists
poisonous
fulfilling
mitig
binge
fundraiser
gonzale
salvation
eyebrow
greeted
dabee
pjs
contamination
conjunction
##runner
helminths
plaintiffs
bargain
admiral
pvc
snowflakes
tuxedo
monopoly
tyranny
fitzgerald
feasible
sugars
haitian
colonel
enquir
psychedel
cantaloupe
bisexual
mubarak
chassis
kaepernick
amtrak
clemson
mediterranean
gonzalez
4k
bse
cory
cites
dana
dandy
eco
hens
hides
icy
ipa
kaz
lp
lacy
mika
rg
sask
tanger
taboo
tumbled
uef
wield
zen
śa
−0
##db
##table
##mint
##pre
##iating
##ür
##bys
##vation
##cie
##fight
##fest
##ña
thе
##anic
##ono
##enh
##array
##isans
##isco
##omatic
##acas
##utta
reef
bella
shan
##amer
##amura
forged
forgi
##urp
thereafter
notep
anem
##chin
##imps
##roads
goate
chand
##gee
moh
donny
##oper
plott
dei
aller
abed
claud
outraged
sheikh
comr
grains
prostit
maeda
##ffman
spaniel
redhead
browning
##elines
offender
anyways
##arez
unarmed
##bern
diaz
twer
twitch
envelop
flute
intol
##ptic
compute
coles
locks
##akin
frontal
handwr
readings
skins
##ensibly
##wee
##weigh
clement
discharge
##inters
elves
eligibility
busses
underest
helpless
##adee
reminis
veg
##bollah
wrists
slab
sloth
repet
desires
shortages
drowned
margie
deficits
distances
##fulness
syl
surreal
swoop
##erton
brock
worldview
assure
##aze
barring
steg
##shop
footsteps
forecl
sorted
1500
systematically
##atta
protester
discretion
goldberg
##taking
irrit
formid
delaware
taxation
esteem
affection
shotgun
specialists
roma
combines
napole
deepest
##ovan
statutes
sexist
paula
torch
titus
temp
satire
damned
saddles
vera
oceans
castles
riverside
globalization
broadcaster
branded
emerges
cartridge
timmy
augment
tubs
pumping
foxes
unde
##guards
senses
renamed
hunm
##erole
occurrence
darren
psychotic
criticisms
spanning
installations
bonnie
graduating
graduates
frosty
supra
1954
cooldown
kenya
terran
implication
oatio
transforming
psst
osborne
reactors
prosecuted
scripture
allocators
##stonecraft
bounds
unauth
neurons
lobbyists
850
elimination
ftp
fredrick
hinted
elders
deputies
architects
plummet
symph
cigar
prefix
tsun
diplomacy
##rosion
scandals
unwanted
##charged
lawnm
presumed
ebay
premiums
chalkboard
hypothetical
hurricanes
bumblebee
sneezed
café
semif
stunned
skepticism
multiplayer
embarrassment
dividend
tulsa
bingo
andrea
convertible
babaji
diagnosed
delighted
inferior
inaugural
malaysian
proclaim
proclaimed
overdose
anarchy
huffington
tahoe
profoundly
brendan
smuggling
rallies
arnold
jamaica
dalmatian
reiterated
forbidden
irvine
envisioned
whistleblower
futuristic
mumbai
blockbuster
kenneth
scuttle
aforementioned
gujarat
adelaide
employs
ae
bitty
dens
eisen
faux
gator
hoof
kb
lance
latch
lcs
mé
mord
mowing
matur
nurt
nsw
nfc
nguy
omin
obey
riff
sizz
sikh
t2
tir
vip
vinc
zer
zig
€14
##wash
##dler
##nology
##sn
##sie
##you
##vest
##ад
##cade
##fle
##erman
##ename
nolan
##acs
##sevel
wein
##acked
blaming
goy
chatter
soaring
##ppie
asy
plight
##usa
thinkers
##ulator
##ulatory
als
outward
##ahar
propped
mailing
spont
bystand
exile
saul
sailed
##bees
overth
roc
usable
##ishly
unblock
appell
flirt
newcom
cara
##onder
intimate
compares
timely
contributes
handker
hobb
peru
harden
incomp
thriller
recliner
remn
veil
showdown
slowed
desantis
visibility
cheering
signatures
cataly
obj
expired
refined
genesis
rests
charitable
grouchy
##neck
hih
124
retaining
extinct
counseling
raking
stuffing
puh
##elson
communism
avril
classics
caes
starr
grandaddy
bathrobe
erased
132
antar
romo
fedora
urugu
179
tailored
rossy
violently
radiant
packets
packaged
statistic
googey
higgins
##encia
medication
##feri
murders
snails
guarding
declares
losers
##borough
imagin
spelled
referencing
undressed
mentioning
settlers
bounced
shadowy
museums
locking
gradual
ripping
pedoph
exchanged
promotes
lambda
attractions
homer
magnificent
hayden
nanowis
roosevel
backsplash
brewed
wolver
cooperatives
announcements
amazingly
woven
woggie
exclaimed
liquidity
reactive
crafts
skew
assessments
franny
franco
allocate
harmless
maximize
wiki
##onymous
otter
kyu
visualization
intrins
pooping
scrubs
lucrative
sweatpants
scanner
casserole
vicinity
feminists
##metal
fishermen
levine
cyclone
accelerated
swiftly
pottery
prolific
jihadists
secrecy
wagner
swirls
sympathy
annoyed
mascot
##anthrop
enrollment
exceeded
stingray
ecosystems
evidently
lassie
lorry
bannon
##immune
henderson
paradise
troublesome
unstable
cynical
surrogacy
grenade
wholesome
nephew
imprisoned
segments
disguise
muppets
burglary
seahawks
cannabinoids
morocco
wollstonecraft
perpetrators
beavers
suzuki
ostensibly
intestinal
supervisor
contingent
narcissistic
addictive
cunning
acclaimed
disregard
gravitational
giuliani
timestamp
sebastian
bigotry
neptune
wrongdoing
courtyard
rodriguez
portuguese
stegosaurus
lawnmower
nguyen
handkerchief
uruguay
nanowisdoms
3ds
balk
cues
caves
caffe
dp
ez
eft
erik
fen
fade
gta
gunk
genders
hath
hates
kre
kes
lft
lure
lds
lcd
mourn
sitt
tiers
uw
ubi
vouch
wary
yar
zaz
£15
##worm
##tw
##mund
##px
##pies
##gio
##baugh
##xid
##vid
##ны
##call
##cule
##57
##fur
##fect
##én
##из
thie
theological
##inent
##inqu
##atal
##itures
##oria
##edon
ingen
##isite
reilly
seash
##stv
##oton
doomed
healy
##send
##enta
##entric
blot
##amas
hab
##imal
##roar
suic
##ablo
moom
asyn
##illers
##olar
##olith
brag
debit
##estine
##unken
##aputta
leftover
groo
##osi
##osph
##ffe
sput
blueprint
arte
goodell
##arelli
##aude
##icho
##inement
adher
encycl
scour
scots
agon
carne
prow
##ondo
##ifax
##actory
resur
##avid
contender
cram
crater
hoard
lighted
lotus
needless
##phem
betting
disqual
elvis
recap
interd
showroom
boyne
##plex
##bold
wrath
slinger
##ocious
jojo
commuters
canned
miners
crest
accustomed
serbia
strewn
meditation
regimes
marvin
endure
purpl
rung
acro
terrell
genetically
waiter
uhp
halifax
concessions
singular
steer
127
##shad
extrad
winston
chriss
forens
151
facto
lateral
giraffee
##atorial
powerhouse
discom
muscular
anni
patents
paypal
salami
armchair
laps
imports
idf
netting
cardigan
superf
142
favre
favors
lowering
spacey
equations
operatives
feds
urn
surfaced
##odon
hyenas
esa
successes
dreamed
palms
judiciary
styled
damasc
auditing
epstein
24th
##ijn
##heed
bullshit
separat
280
sonichu
recognizes
platinum
tweak
progressions
influencing
renault
loader
selecting
switches
automation
rapids
italia
lockheed
psychologist
derrick
loosen
drafts
laboratories
flea
thicker
shooters
consisted
respects
nano
##poa
initiate
montgom
whisk
nicky
instructors
grossman
tantra
bernad
disappearing
plugs
narrowly
##yev
bulbs
freddie
experimenting
substantive
autoimmune
circumstance
pierce
friedman
admittedly
burgdor
galaxies
helicopters
carnations
prefers
mathematic
configur
diplomat
bloat
compensate
manifested
hansen
weighs
dragons
manipulated
eurozone
bulletin
goddesses
privileged
lectures
stakeholders
analogy
vampires
antibody
unexpectedly
cambodian
insults
constituency
supplementary
boasted
marginalized
inflammation
lungs
v2017
albania
appetite
prevalence
hughes
##eanor
##button
brendon
congratulations
mourning
unanimous
unanimously
ceasefire
##ていた
rattles
bobbie
prejudice
legitimacy
pelican
gadgets
puttaputta
overlooking
nuggets
##stadt
petroleum
hemisphere
maternal
proliferation
teletubbies
procurement
ornaments
merchandise
affidavit
melody
antioxid
savannah
goatee
formidable
ubiqu
damascus
montgomery
burgdorferi
320
bool
bhar
cly
doot
dns
eos
fia
fussy
hound
hoot
idle
kool
krystal
lull
mab
mates
nous
naw
pits
ptr
riley
tard
tuc
taps
ux
vu
vas
wann
yrs
##wave
##dings
##tc
##ao
##mia
##kam
##iques
##uo
##hart
##vd
##­m
##t
thwart
theology
##atin
##anet
##esco
##itness
##enstein
inel
onset
##ican
thatcher
##idium
reins
rehe
seater
##otta
##otto
stip
stellar
blub
lima
withhold
haber
lookout
legged
chandel
sully
asus
##illon
##anders
##andum
##andestine
washer
##opia
traced
trinity
plunk
ohp
abide
clandestine
leftist
manic
redirect
arf
co2
coch
guiding
overhe
bots
twists
##ontroll
compression
queries
ema
reprint
spears
watercol
camper
1918
prescript
preserving
##uctory
differing
distortion
conson
trainers
swans
evid
##tech
##mob
capac
##version
slender
skype
##aney
collusion
demar
hottest
##spring
126
123
squished
famed
policemen
rapper
gears
roadway
nora
develops
lifeguard
enters
boardwalk
sweetened
aval
##breaker
harp
modules
##entional
typewriter
clothed
costa
cae
battered
threes
hourly
authoritative
hangs
occult
matchup
hyena
esk
turbo
ruins
cyan
##lected
wilde
owens
gunshot
improves
skipping
captivity
filmmakers
liberia
tasted
melod
madness
textbook
tightening
archived
declines
predator
introductory
responders
commentator
carpeting
referenced
##forte
tricked
rectangles
unden
confirming
##guided
sectional
huni
iranians
radioactive
faire
weekends
innate
decorate
trustees
chests
criticize
##marked
derail
bonuses
##heads
granma
naive
prosecute
sneaker
heehee
ferment
rustic
katusha
liner
saleh
excellence
1948
weakened
cubicle
gentlemen
ps4
buddha
consultation
complications
batters
empathy
##ennial
advancement
kayak
fooled
databases
disclaim
telus
intersect
##oulos
imperative
vocals
explorers
distinctly
diplomats
swords
outsiders
browsing
podium
compromised
conceal
luncht
##keepers
stamped
breasts
rivet
parasitic
cyclist
semantic
incorporating
##controller
mocked
gems
cumulative
wrecked
sledding
paso
feta
stabbing
0x44
##birds
thrive
deposit
demonet
sniffing
merchants
x74
consolidation
predecessors
bargaining
##bench
discourage
##corp
francesco
kidnapped
aapl
kelley
maurice
decompression
unchanged
confederate
icky
mclaren
##yumyum
grandparents
fuselage
concordia
shutterstock
steele
croissant
trajectory
1080p
geopolitical
irresponsible
eternity
unsurprisingly
teacup
imminent
preservation
uefa
carnegie
purplish
lunchtime
0x446d
1x
awe
arose
dir
gah
gend
giov
ico
kara
pct
pry
patern
qur
rink
rous
siam
salsa
tresp
utt
ucs
vom
wm
wk
wading
xp
yoda
zw
£19
€9
##aul
##apping
##rates
##kon
##xon
##vity
##cile
##011
##84
##fires
##jee
##inatory
##iters
##itating
##orie
##isse
isps
##asia
##asaki
##igent
##etz
##acola
beau
semen
doink
doses
shia
hez
##amina
##thia
##thread
chik
fritz
##terdam
nel
##olt
##olia
troopers
brink
plac
plunder
conco
clair
ala
alm
outspoken
manit
como
grief
spooky
backhoe
##riad
wholly
exacer
exempl
sage
arises
cove
##iceps
fend
herman
littler
playbook
rods
myriad
##ishment
##agin
aden
##berland
enco
flut
##ansole
scent
smirk
amar
imbal
fargo
##reeca
lover
##ivol
##ivoc
afreeca
##avin
bottled
glaring
booking
recons
intoxic
slopes
desirable
commence
creed
chevy
accuse
bitset
eddy
enduring
highways
##text
##moil
airbn
acoust
owning
guessed
tyre
collateral
menus
shoppers
##sport
paink
deton
158
153
geared
##dokan
000000
avatar
182
payer
iris
causal
labelled
insiders
performer
futon
violates
fastball
turmoil
southwestern
vanished
energ
energi
scrape
bandw
objections
halluc
warmly
flowering
raced
customary
##ija
unifi
##hani
crowdfund
misch
miserable
misguided
financed
guardians
jerk
cartel
anglo
commenting
islamists
splitting
dispers
chewed
##okee
groin
villagers
turtleneck
##gregor
fatigue
bubba
marsha
galvan
princeton
mahm
1943
weaken
advocated
planetary
kangaroos
psi
tantras
tasked
mugabe
blessing
resisted
hooves
lester
rotating
rotterdam
ashley
submissions
proudly
lifelong
appreh
gamble
treasures
departed
neuro
accomplice
memorandum
validate
resolutions
therapies
carniv
sprayed
tumors
retailer
natalia
subsidy
subsidiary
steeple
dcm
sequences
disrupted
unearth
abdullah
asserted
fraudulent
jumpsuit
delegation
clarkson
multipl
niece
##context
stereotype
restraint
accomplishments
philippine
recycled
andreas
gestures
##folk
interpreting
infectious
nashville
obstruct
stabilize
analytical
babysit
cobblestone
boulders
psychiatric
tugboat
atheist
rewritten
hormone
nouns
disadvantage
wrinkled
snowflake
administered
dialectical
gianforte
sunflowers
postponed
zimmerman
gonga
crescent
councillor
stalin
homeowners
dickey
cymbals
decentralized
raffi
volleyball
soundtrack
intermediate
affluent
lombard
repository
bachelor
smirking
abrams
##ovakia
plumbing
śaiva
notepad
coleslaw
roosevelt
exacerb
##ansoleil
airbnb
aly
b2
bitt
ccc
coot
dion
ef
ej
egreg
fad
fak
gel
hula
ie
jw
kw
kia
kello
lr
lows
mural
och
pion
pff
psh
rented
sé
txt
taper
wim
zoning
€7
사람
##oko
##lord
##girl
##kol
##uance
##yang
##xuals
##zu
##zers
##49
##jri
##こと
therav
##inas
##inho
##anity
##iton
##itzen
##llo
##orf
##orthy
inert
##leen
##leys
##asco
##icz
reper
beater
##irmed
shap
shane
shove
hebrew
stung
stiles
notch
notions
haird
hague
frivol
##anti
##abi
soak
soils
##gear
##illes
##opath
trum
braw
##ftime
aber
uphol
clop
##indle
grr
spouses
hast
excel
boink
boeh
reductions
feast
##beck
tau
tapping
overst
teg
##rawn
roared
##ectives
adri
adhere
unim
buber
appalling
smur
smelly
ample
##achu
persian
whichever
lok
lofty
contra
crm
midtown
undergoing
recess
sideline
remed
slack
slider
slugg
jogging
differs
creations
monks
schaming
ballistic
supplements
impat
marit
marissa
deficiencies
endurance
obsole
symmet
startling
swipe
schoolbus
##versal
teamed
dries
refresh
stuart
charger
barbar
##bral
confisc
demons
storyline
##nehy
coward
artillery
foresee
viewpoint
infants
catchers
##script
towing
armies
dai
vibe
excurs
excuses
##prom
christine
magist
layered
cardio
##rett
146
165
antelope
propellers
fedex
hillside
engineered
tickled
176
eighteenth
denmark
shadowed
southeastern
wildfl
candies
sexes
ethiop
owing
voom
##comm
austrian
hallmark
dividing
racer
stationed
revive
digits
verge
coached
destined
clicks
protestant
hostage
jenkins
capitalize
screwed
travelers
croft
pathetic
vacansoleil
scarry
##ascal
faa
assisting
celebrates
##kinson
decorating
gardner
refrain
bayon
alleges
commanders
alternatively
loudly
predictably
methodology
pounding
wiggly
caroline
brewer
advocating
savvy
nicotine
dubious
cocktails
supplier
suppliers
broadcasts
allegation
oreos
perspectives
motivations
jennings
deserted
robotic
schedules
boris
cheerle
exploiting
bakken
fascist
##vitamin
scarecrow
creeping
transmitted
configured
embracing
cassie
yielded
bruton
chloram
franchises
marvelous
lgbtq
parasite
tossing
braun
##███
hutch
resemble
x65
restruct
memoir
exemption
exemptions
queensland
libertarians
scooters
robbins
certificates
seizures
accumulated
jurisdictions
horrified
evacuation
survivor
nsfw
rolf
receptors
v2016
composer
duffy
vowels
mousie
grasshoppers
pinstripe
browse
adolescent
cynthia
nutcracker
indirectly
persecution
confessore
supervision
20██011
privatization
vigilant
disconnect
barracks
sunflower
technicians
supremacy
ismaili
voltage
enlighten
microbes
stigma
sulfur
disproportionately
staunch
##300███
isaac
undergraduate
stewardess
kushner
freelance
blatant
kumar
rehabilitation
refreshing
fraternity
inaccurate
beggars
eyewitness
trilogy
napoleon
discomfort
hezbollah
chikada
reconsider
kellogg
pioneer
boehner
20██011300███
ail
cels
dd
ere
gow
gly
hust
hops
hilton
hicks
ike
iod
kah
kart
koosh
lair
nond
nause
nbat
p2
pint
pains
sstv
tata
tinky
vents
vla
voodoo
£10
서연
##oster
##listed
##tan
##range
##riel
##np
##gown
##kg
##uah
##horn
##vie
##cation
##53
##67
##fx
##js
##jad
##ер
thorn
##rea
##rets
##ndo
##llie
##isie
##isoft
##ig­
##utt
##alas
rehab
##stood
canes
##hth
webb
blitzen
livel
forc
##chan
lookin
##roe
##omey
##tert
##ilia
soaking
socket
neum
##olved
##opoulos
brisb
allah
upton
upscale
conve
congregation
clover
outage
outlines
##ahe
manne
##outing
knox
mau
maf
spand
spaced
splend
##essler
##rique
peaked
hastert
exting
exxon
redund
whereby
cores
coating
##elves
gupt
tapped
2050
willis
##assed
##assified
adorn
buc
dips
diaries
partition
downing
##ibles
scaring
newman
##orsi
compressed
phy
coloss
loi
qui
##aku
resurg
handler
handheld
##atchew
hoe
perceptions
glut
hardcore
disable
incapable
underw
##issible
emo
sunk
prett
shortest
drunken
chee
monad
housew
signaling
waiver
medals
impart
martha
funky
relo
nightma
nightgown
bashar
differentiation
invites
broker
milking
instability
believers
courth
genitals
restoring
streetcar
halted
barren
collage
weekday
bened
pickled
concur
respir
cleanup
##span
humm
doorbell
governmental
##media
parmes
geoff
rocker
roadmap
calves
milky
##clock
iridium
grandson
grandchildren
excused
138
131
organism
##ocracy
143
processors
##racted
proponents
debian
operative
urges
microbi
##auth
listener
dennehy
esque
banker
sentiments
robbed
washes
stylish
bangl
meatball
audition
slightest
merrill
updating
filmmaker
winehouse
developmental
benefici
existent
deterrent
revoked
flatbed
reviewers
##mboree
legalized
opposes
perfume
contentious
mcgregor
nuh
speeding
influx
pathways
requesting
commercials
discoveries
nypd
texans
faq
peacefully
kodokan
escort
battleground
tendencies
loos
allege
riots
downloads
toughest
applause
340
550
scratches
fearful
strangely
gymboree
initiation
polygon
translates
dismal
muted
cherokee
optimizer
gallons
witnessing
dedication
gifted
vulgar
smokes
squishing
stormy
raymond
rodents
##year
oreo
reinst
vulnerabilities
pitbull
fascinated
simplest
##falls
bruno
intervals
unequ
pronounce
mummie
overlap
rags
società
wiggling
bryant
##xyvitamin
2021
mamma
notebooks
lecturer
reproduce
stereotypes
inquiries
accomplishment
wipers
blended
footing
plaque
dashboard
unconv
mediated
reservations
slimy
disposable
nakamura
rudolph
demolished
uranus
sibling
aldrin
lebanese
hierarchy
alarmed
composite
relocate
fingernail
figurine
dwarf
dwarfs
expenditure
irrational
manuscripts
enrichment
jaguars
infringement
reinforced
muppet
cedar
##∷∷∷∷
shirley
algeria
aspirations
pellets
bieber
microscope
rooftop
pundits
duplicate
emanuel
ashtray
aggravated
mundane
softer
girafee
yukon
stooges
sachs
rethink
hitchhiker
eucl
nectar
precarious
disrespect
overlapping
unreasonable
pollutants
saskatchew
unauthorized
tucson
brisbane
nightmares
parmesan
beneficiaries
saskatchewan
2m
6e
bers
bint
bcs
cth
corm
erosion
fou
hunk
jd
jin
kany
mv
morsi
oje
pw
pum
poth
rm
rouse
sri
sys
sins
tl
tiff
tumbling
vick
yrd
zy
£11
███
##wy
##wolf
##dafi
##pect
##pensive
##nan
##gled
##gages
##sight
##sky
##yah
##via
##vance
##vette
##cf
##47
##03
##31
##face
##fix
##から
##info
##atra
##reon
##rend
##anz
##arse
##edient
inhum
nodes
##ooo
##alay
dole
docks
shun
sten
staging
liable
sums
atoms
soared
moby
donkeys
##umsy
upheld
condo
clamp
clumsy
##ulas
##ulah
alou
alto
leftovers
manners
mankind
grams
mapped
spree
backbone
##isting
##istine
##riber
pegs
bytes
exocad
saver
redstone
redeem
coven
##beest
overshad
unra
unused
unpack
diy
twigs
newfound
carve
amino
poe
##activity
persona
phosph
timeframe
ques
##ivas
resent
crotch
midd
hoy
peripher
perimeter
lotto
mule
elmer
emmy
slaught
headphone
##ocre
deserving
1900
schne
signaled
marbled
deform
foley
evd
##derm
invari
invasive
marko
floats
warwick
simmons
charism
barric
confessed
retali
postwar
stuffy
geom
discarded
grouped
filip
pastel
petrol
modification
payne
multin
learnt
certifications
caus
deli
##prot
christina
rainfore
ernest
motherboard
136
superstar
##retched
averages
sarc
proportions
burgers
##ervice
177
##odact
chores
choking
performs
devised
devils
combinations
##walker
packet
wildfire
circa
crosses
coolest
shareholder
scrum
tempted
milling
sociology
bandaids
objected
mermaid
discusses
captive
toolbar
inflicted
exec
balances
revital
flatmap
representations
castro
billionaires
printable
misery
miscon
misinformation
sonnen
arche
admire
wooly
pumps
nyar
viruses
potatohead
philanthrop
reboot
frisco
stockings
grabs
dominating
salads
allevi
royals
fuk
analyzing
promoters
37b
ambient
stacking
stadiums
homicide
honesty
punct
accidental
thermo
1946
breweries
insurers
chapel
channeler
permitting
constructive
afforded
vulcan
astute
boundary
mortgages
unaff
munich
##rader
ventures
ftv
freddy
deploying
embry
govcorp
hotdogs
pdt
sweaty
vertically
##rosse
chanting
richt
utilizing
efficiently
joyce
valentines
detectives
echoes
fourteenth
##3333
parasites
levy
huts
watermelons
bookshelves
neighbours
hydroxyvitamin
resembl
darede
pixels
antibiot
mediocre
##khaz
bartender
ubisoft
reservoir
srf
salvador
prosperous
rajdeep
sidd
suedfeld
stitching
sdk
inexpensive
ctv
azerbaijani
geeks
albany
discontinued
diminished
lacrosse
dawson
reunion
cosmetic
surrogate
fnatic
bashir
descended
physiology
penetration
jalap
poems
technician
socioeconomic
pertamina
exaggerated
unseen
pissed
incompetent
daffy
tupac
disgrace
skeletal
spiked
ceremonies
pterodact
uzbekistan
abnormal
forgive
tyrannosaurus
dictatorship
practitioners
kimberly
sizzle
wildebeest
trespass
manitoba
crowdfunding
mischievous
enlightenment
celsius
courthouse
optimizerdata
2c
6f
aft
auf
billed
citt
coop
fals
gin
hacks
kü
kand
lest
mish
ngo
poul
ratch
rath
tp
vid
viv
vapor
ws
wou
wanda
yoo
##tree
##mc
##machine
##rc
##rath
##pw
##notes
##gic
##gah
##satur
##hat
##hair
##42
##63
##으로
##fm
##fined
thumper
##erent
##inke
##aten
##anamo
##onial
##omic
##acom
##idth
##idated
relic
##staking
canucks
##irm
##otics
doss
heir
##lda
blaster
##urry
notew
##imated
##ppe
trough
traction
brr
bravo
melee
##ueling
deity
degrad
##umen
abusing
abbie
abkhaz
clad
clump
clipp
alison
outweigh
##ahon
maze
sp1
saga
bore
mayim
worsh
tagged
##auce
##agara
unesco
ense
##iband
lloy
carmen
##iph
pru
##onds
pox
##ignment
frontline
sket
perme
disin
##inte
helium
##boom
wrought
slaw
suns
repro
##ocation
visions
watered
belarus
commute
shortened
behold
hmmm
drilled
drastic
strum
thankful
impair
situated
marrow
##mania
nightclub
secondly
kidd
airfield
milo
sweating
careless
sims
assur
tyres
demise
autot
transversal
##spot
artisan
numbered
humour
postcard
firewall
memes
corb
154
baggy
##atted
##atters
##ouncing
profiling
##undheit
painstaking
formats
idi
idol
idlib
##hnow
magnes
erie
133
screenplay
149
estates
socialists
tickly
dealings
telegram
devote
##leye
turbul
growling
strapped
massively
banged
matte
merge
oilers
finalized
besk
launcher
misdem
suffers
potentials
emailed
primitive
tripped
mails
staffer
hostility
mcnam
bumping
prepares
indications
pumped
##daq
chewy
luhnow
##ascular
sickness
tablecloths
shrunk
selections
escorted
patchwork
maryse
supers
lamar
removes
katli
hayes
heightened
thermos
emergencies
qualifications
##blog
ecst
rhine
##annon
tabs
tantrum
exclusion
constructors
##holm
reacting
nicke
sinister
binoc
assemble
stirred
wrestlers
##writers
alleging
toddlers
plugins
dwonk
fabrication
sparks
saber
battal
nominal
emphasize
terminated
triggers
cosmos
collaborate
simplify
stalled
explosives
axis
shrubbery
lucille
prohibit
prohibits
artificially
disciplinary
unwind
illustrates
uneven
abducted
cassandra
hanson
counselor
pronunciation
surgical
pulp
nbcsn
grinder
entitlement
inventor
anticipate
hatched
delegate
phenomenal
distraction
privileges
physicist
poisoning
recipient
invaluable
wipes
facilitated
boulev
linebackers
ignorant
omelet
unfairly
enthusiasts
speckles
trojan
earthquakes
recounted
dyed
##vasive
cylind
lumber
hesitate
cuddly
betrayal
tcu
coyotes
tetlock
stratford
mcmahon
apex
guru
erectus
coroner
sincerely
burrito
iwgp
lutheran
semitic
pivotal
fttp
subpoena
aladar
disagreed
mckinley
##igroup
guantanamo
pesticides
misrepresent
metabolism
onomatopoeia
chrys
calculation
renaissance
gruden
faunus
intoler
reminiscent
t2i
caffeine
disclaimer
##threads
##jriwal
underwent
bintur
ojeleye
cittad
noteworthy
degradation
3g
airt
cw
ccs
cgi
dx
dans
duc
fx
ferv
fiji
gc
hin
hoses
jind
jude
jaws
kaf
mow
oj
paced
pcs
tats
vt
vg
vie
wic
waved
yap
zap
zag
zipped
ал
оп
€4
##oher
##rand
##pse
##yo
##yad
##bu
##bite
##var
##83
##qq
thaw
thorns
##inel
##anian
##oner
##esa
##ità
##orant
inland
inception
nola
isbn
ono
##asa
seld
seoul
##hton
##otle
shre
shiver
hefty
stork
##sex
##ente
blames
blanche
##amn
##chur
##chrystal
##image
leh
leaky
##thora
gos
gobi
chipped
frm
rightside
##terror
##ppo
donnell
orion
nep
neu
wasting
##opa
brant
##uels
defore
yourplug
alla
conquest
##ahashi
##ittle
##ortment
spade
greasy
ars
coil
covent
2030
playable
##ongyang
##inem
uss
unman
uncut
unfor
dias
parted
##iba
scuffy
scalia
carc
carriages
preaching
preston
preoccup
amash
imitation
##iform
philly
phases
loft
quir
##angled
crp
crook
crum
hopped
pervasive
gli
glider
firstly
dislike
bookstore
muk
thrott
helio
showc
workday
sling
longish
longstanding
headlight
builders
daddies
watergate
belkin
kejriwal
1919
schl
stray
strains
strache
decree
finite
obi
##eee
relates
evasion
expelled
broch
##ilyn
realization
airspace
slew
miliband
acl
##ashes
skywalker
sandal
believer
asserting
##ieri
subset
halftime
grouch
youngsters
shores
paperback
listings
transplant
juj
paused
squint
wonj
passages
penned
generators
infield
easing
dollhouse
proton
norris
norfolk
discre
issuance
entrenched
tenets
tallulah
micah
##hof
solos
salam
summed
soros
landline
cloths
condol
costing
tvs
touchscreen
speculative
counterterror
cardona
taxis
##ocratic
affl
168
gara
specialty
##govern
insom
optic
ticking
sourced
adamant
trader
deng
denise
limes
domino
tarant
spoiled
baton
militia
crossref
##umbles
rulers
spotless
succession
eyeball
vanessa
##combe
scraps
palmer
objectively
amounted
existential
ukip
##ottesville
bullpen
shutters
citigroup
puzzled
23rd
bathrooms
recognizable
executor
guarded
nutty
admissions
mcchrystal
##etermin
nucle
loser
hurdle
hurrah
islander
woolly
woohoo
260
26th
allowance
independents
danmark
undone
ryu
sensing
crimson
thinner
celebrations
plethora
cruising
psycho
psychologists
ordination
lobsters
conditioner
tweeting
precurs
truths
charlottesville
athens
sharpen
occupying
occupiers
attracts
ribs
respecting
rumored
1942
granting
380
smoothly
ehrm
nasdaq
dede
ronan
prag
binomial
contexts
synops
synonymous
pyongyang
assessing
coordinating
mandated
460
discriminatory
summertime
egyptians
seeding
alligators
consulted
battled
bentley
bikers
robotics
scooby
blooms
scrubbing
disclosures
withdrawn
collaborative
1928
jacobs
sucked
imperfect
tupper
gabriel
subsidized
triggering
gregory
scanned
brutality
mtv
luna
mumma
yoink
hyperb
cognition
aveva
mckenzie
router
endorsements
silhouettes
urgently
reproduction
illnesses
prescribed
spatial
nevus
preceded
disappearance
reigning
chadian
divorced
sacked
awaited
archaeologists
kochs
cloak
cbd
revolt
overe
robertson
dandelions
pelosi
contends
##hawks
dunkin
concede
metabolic
paragraphs
masculinity
expenditures
metaphys
hetfield
krispies
betrayed
hormones
wholesale
hassan
flatten
undertaken
fertilizer
##logic
awakening
overturned
gesundheit
garnered
rcmp
hexagon
complementary
kapusc
lizards
renegoti
supremac
nipple
trampoline
chromosomes
sturdy
sanskrit
handcuffs
festivals
reclaim
bawk
unzip
detainees
nostalgia
funniest
thermometer
tranqu
recurring
congestion
intricate
jcpoa
cuisine
apricot
