{"version":"1.0","truncation":null,"padding":null,"added_tokens":[{"id":0,"content":"[PAD]","single_word":false,"lstrip":false,"rstrip":false,"normalized":false,"special":true},{"id":1,"content":"[UNK]","single_word":false,"lstrip":false,"rstrip":false,"normalized":false,"special":true},{"id":2,"content":"[CLS]","single_word":false,"lstrip":false,"rstrip":false,"normalized":false,"special":true},{"id":3,"content":"[SEP]","single_word":false,"lstrip":false,"rstrip":false,"normalized":false,"special":true},{"id":4,"content":"[MASK]","single_word":false,"lstrip":false,"rstrip":false,"normalized":false,"special":true}],"normalizer":{"type":"BertNormalizer","clean_text":false,"handle_chinese_chars":false,"strip_accents":false,"lowercase":true},"pre_tokenizer":{"type":"BertPreTokenizer"},"post_processor":null,"decoder":{"type":"WordPiece","prefix":"##","cleanup":true},"model":{"type":"WordPiece","unk_token":"[UNK]","continuing_subword_prefix":"##","max_input_chars_per_word":100,"vocab":{"[PAD]":0,"[UNK]":1,"[CLS]":2,"[SEP]":3,"[MASK]":4,"!":5,"\"":6,"#":7,"$":8,"%":9,"&":10,"'":11,"(":12,")":13,"*":14,"+":15,",":16,"-":17,".":18,"/":19,"0":20,"1":21,"2":22,"3":23,"4":24,"5":25,"6":26,"7":27,"8":28,"9":29,":":30,";":31,"<":32,"=":33,">":34,"?":35,"@":36,"[":37,"\\":38,"]":39,"^":40,"_":41,"`":42,"a":43,"b":44,"c":45,"d":46,"e":47,"f":48,"g":49,"h":50,"i":51,"j":52,"k":53,"l":54,"m":55,"n":56,"o":57,"p":58,"q":59,"r":60,"s":61,"t":62,"u":63,"v":64,"w":65,"x":66,"y":67,"z":68,"{":69,"|":70,"}":71,"~":72,"":73,"":74,"":75,"":76,"":77,"":78,"":79,"":80,"":81,"":82,"":83,"":84,"¡":85,"¢":86,"£":87,"¥":88,"¦":89,"§":90,"©":91,"«":92,"­":93,"®":94,"¯":95,"°":96,"±":97,"²":98,"³":99,"´":100,"µ":101,"¶":102,"·":103,"¸":104,"¹":105,"º":106,"»":107,"¼":108,"½":109,"¿":110,"×":111,"ß":112,"à":113,"á":114,"â":115,"ã":116,"ä":117,"å":118,"æ":119,"ç":120,"è":121,"é":122,"ê":123,"ë":124,"ì":125,"í":126,"î":127,"ï":128,"ð":129,"ñ":130,"ò":131,"ó":132,"ô":133,"õ":134,"ö":135,"÷":136,"ø":137,"ù":138,"ú":139,"û":140,"ü":141,"ý":142,"þ":143,"ā":144,"ă":145,"ć":146,"č":147,"đ":148,"ē":149,"ę":150,"ě":151,"ğ":152,"ī":153,"ı":154,"ł":155,"ň":156,"ō":157,"œ":158,"ř":159,"ś":160,"ş":161,"š":162,"ţ":163,"ū":164,"ů":165,"ž":166,"ɐ":167,"ə":168,"ɛ":169,"ʒ":170,"ʔ":171,"ʻ":172,"ˈ":173,"ː":174,"˚":175,"˜":176,"̇":177,"ά":178,"έ":179,"ή":180,"ί":181,"α":182,"β":183,"γ":184,"δ":185,"ε":186,"η":187,"θ":188,"ι":189,"κ":190,"λ":191,"μ":192,"ν":193,"ξ":194,"ο":195,"π":196,"ρ":197,"ς":198,"σ":199,"τ":200,"υ":201,"φ":202,"χ":203,"ω":204,"ό":205,"ύ":206,"ώ":207,"а":208,"б":209,"в":210,"г":211,"д":212,"е":213,"ж":214,"з":215,"и":216,"й":217,"к":218,"л":219,"м":220,"н":221,"о":222,"п":223,"р":224,"с":225,"т":226,"у":227,"ф":228,"х":229,"ц":230,"ч":231,"ш":232,"щ":233,"ы":234,"ь":235,"э":236,"ю":237,"я":238,"ё":239,"ѕ":240,"і":241,"י":242,"،":243,"ا":244,"ب":245,"ة":246,"ت":247,"ح":248,"خ":249,"د":250,"ر":251,"ز":252,"س":253,"ط":254,"ظ":255,"ع":256,"ف":257,"ق":258,"ك":259,"ل":260,"م":261,"ن":262,"ه":263,"و":264,"ي":265,"گ":266,"ی":267,"य":268,"र":269,"ल":270,"ा":271,"ि":272,"े":273,"्":274,"ก":275,"ข":276,"ง":277,"ด":278,"ท":279,"น":280,"ป":281,"ม":282,"ย":283,"ร":284,"ล":285,"ว":286,"ห":287,"อ":288,"า":289,"ี":290,"เ":291,"ไ":292,"่":293,"้":294,"๋":295,"ა":296,"ი":297,"ḍ":298,"ḷ":299,"ṃ":300,"ṅ":301,"ṇ":302,"ṛ":303,"ṣ":304,"ṭ":305,"ἀ":306,"ἰ":307,"ὀ":308,"ὐ":309,"ῖ":310,"ῶ":311,"​":312,"‎":313,"‐":314,"‑":315,"–":316,"—":317,"―":318,"‘":319,"’":320,"‚":321,"“":322,"”":323,"„":324,"‡":325,"•":326,"․":327,"…":328,"′":329,"″":330,"›":331,"※":332,"⁄":333,"₂":334,"€":335,"™":336,"↑":337,"→":338,"↓":339,"⇓":340,"−":341,"∞":342,"∥":343,"∷":344,"∼":345,"≈":346,"≥":347,"─":348,"┃":349,"█":350,"■":351,"▪":352,"►":353,"▼":354,"◊":355,"★":356,"♦":357,"❤":358,"➜":359,"、":360,"。":361,"々":362,"〈":363,"〉":364,"「":365,"」":366,"『":367,"』":368,"あ":369,"い":370,"う":371,"え":372,"お":373,"か":374,"が":375,"き":376,"く":377,"け":378,"げ":379,"こ":380,"さ":381,"し":382,"じ":383,"す":384,"ず":385,"そ":386,"た":387,"だ":388,"ち":389,"っ":390,"つ":391,"て":392,"で":393,"と":394,"ど":395,"な":396,"に":397,"の":398,"は":399,"ば":400,"び":401,"へ":402,"べ":403,"ま":404,"み":405,"む":406,"め":407,"も":408,"や":409,"よ":410,"ら":411,"り":412,"る":413,"れ":414,"ろ":415,"わ":416,"を":417,"ん":418,"ァ":419,"ア":420,"ィ":421,"イ":422,"ゥ":423,"ウ":424,"ェ":425,"エ":426,"ォ":427,"オ":428,"カ":429,"キ":430,"ギ":431,"ク":432,"グ":433,"ゲ":434,"コ":435,"ゴ":436,"サ":437,"シ":438,"ジ":439,"ス":440,"ズ":441,"セ":442,"ソ":443,"ゾ":444,"タ":445,"ダ":446,"チ":447,"ッ":448,"ツ":449,"テ":450,"デ":451,"ト":452,"ド":453,"ナ":454,"ニ":455,"ネ":456,"ノ":457,"バ":458,"ヒ":459,"ビ":460,"ピ":461,"フ":462,"ブ":463,"プ":464,"ヘ":465,"ホ":466,"ボ":467,"マ":468,"ミ":469,"ム":470,"メ":471,"モ":472,"ャ":473,"ヤ":474,"ュ":475,"ユ":476,"ョ":477,"ラ":478,"リ":479,"ル":480,"レ":481,"ロ":482,"ワ":483,"ン":484,"ヴ":485,"・":486,"ー":487,"ㅋ":488,"一":489,"上":490,"下":491,"不":492,"中":493,"事":494,"亡":495,"京":496,"人":497,"他":498,"以":499,"件":500,"位":501,"低":502,"体":503,"何":504,"作":505,"係":506,"側":507,"傷":508,"先":509,"光":510,"入":511,"全":512,"公":513,"内":514,"出":515,"分":516,"切":517,"初":518,"判":519,"別":520,"前":521,"力":522,"助":523,"動":524,"北":525,"占":526,"原":527,"可":528,"同":529,"名":530,"向":531,"告":532,"員":533,"問":534,"回":535,"因":536,"在":537,"地":538,"域":539,"報":540,"場":541,"外":542,"多":543,"夜":544,"大":545,"失":546,"始":547,"姿":548,"子":549,"存":550,"学":551,"定":552,"実":553,"家":554,"容":555,"密":556,"察":557,"審":558,"対":559,"射":560,"小":561,"局":562,"履":563,"山":564,"峠":565,"崩":566,"州":567,"工":568,"常":569,"年":570,"度":571,"式":572,"引":573,"張":574,"弾":575,"当":576,"彼":577,"後":578,"性":579,"想":580,"意":581,"態":582,"所":583,"折":584,"持":585,"捜":586,"探":587,"接":588,"損":589,"撃":590,"放":591,"文":592,"料":593,"斜":594,"新":595,"方":596,"日":597,"明":598,"時":599,"書":600,"最":601,"月":602,"有":603,"服":604,"木":605,"本":606,"東":607,"査":608,"森":609,"検":610,"極":611,"機":612,"次":613,"死":614,"残":615,"気":616,"渓":617,"温":618,"点":619,"無":620,"然":621,"版":622,"物":623,"特":624,"状":625,"現":626,"球":627,"理":628,"生":629,"画":630,"症":631,"発":632,"登":633,"的":634,"目":635,"直":636,"県":637,"真":638,"着":639,"研":640,"示":641,"科":642,"秘":643,"究":644,"立":645,"索":646,"終":647,"結":648,"線":649,"編":650,"置":651,"考":652,"者":653,"能":654,"脱":655,"自":656,"至":657,"色":658,"落":659,"著":660,"行":661,"衣":662,"裂":663,"要":664,"見":665,"解":666,"記":667,"設":668,"証":669,"語":670,"説":671,"調":672,"論":673,"警":674,"谷":675,"象":676,"負":677,"財":678,"資":679,"起":680,"超":681,"足":682,"跡":683,"身":684,"軍":685,"近":686,"述":687,"送":688,"通":689,"連":690,"道":691,"遺":692,"部":693,"都":694,"量":695,"長":696,"開":697,"間":698,"関":699,"隊":700,"集":701,"離":702,"難":703,"雪":704,"面":705,"靴":706,"頭":707,"風":708,"験":709,"骨":710,"高":711,"가":712,"각":713,"간":714,"갔":715,"같":716,"개":717,"거":718,"건":719,"걸":720,"검":721,"겁":722,"것":723,"게":724,"겠":725,"겨":726,"견":727,"결":728,"경":729,"계":730,"고":731,"공":732,"과":733,"관":734,"광":735,"구":736,"국":737,"권":738,"그":739,"극":740,"글":741,"금":742,"기":743,"긴":744,"김":745,"까":746,"끝":747,"끼":748,"나":749,"난":750,"날":751,"남":752,"났":753,"내":754,"냐":755,"너":756,"년":757,"노":758,"놓":759,"눈":760,"뉴":761,"느":762,"는":763,"늘":764,"니":765,"다":766,"단":767,"담":768,"당":769,"대":770,"더":771,"던":772,"데":773,"도":774,"독":775,"돈":776,"동":777,"됐":778,"되":779,"된":780,"두":781,"드":782,"든":783,"들":784,"등":785,"디":786,"따":787,"딸":788,"때":789,"떳":790,"떻":791,"또":792,"라":793,"락":794,"람":795,"랑":796,"래":797,"러":798,"런":799,"럼":800,"렇":801,"레":802,"려":803,"로":804,"론":805,"루":806,"르":807,"른":808,"를":809,"름":810,"리":811,"린":812,"마":813,"만":814,"많":815,"말":816,"매":817,"먼":818,"며":819,"면":820,"모":821,"몰":822,"못":823,"무":824,"문":825,"물":826,"뭐":827,"미":828,"민":829,"바":830,"박":831,"밖":832,"반":833,"받":834,"발":835,"밝":836,"버":837,"번":838,"벌":839,"범":840,"법":841,"변":842,"별":843,"병":844,"보":845,"복":846,"본":847,"봤":848,"부":849,"분":850,"불":851,"뷰":852,"비":853,"빠":854,"사":855,"살":856,"상":857,"생":858,"서":859,"석":860,"선":861,"섭":862,"세":863,"소":864,"손":865,"송":866,"수":867,"순":868,"숨":869,"스":870,"슬":871,"습":872,"시":873,"식":874,"신":875,"실":876,"싫":877,"심":878,"싶":879,"싸":880,"씨":881,"아":882,"안":883,"않":884,"알":885,"았":886,"애":887,"야":888,"약":889,"양":890,"어":891,"억":892,"언":893,"얼":894,"엄":895,"없":896,"었":897,"에":898,"여":899,"연":900,"열":901,"였":902,"영":903,"예":904,"오":905,"온":906,"올":907,"와":908,"왔":909,"왜":910,"요":911,"용":912,"우":913,"운":914,"울":915,"워":916,"원":917,"웠":918,"위":919,"유":920,"으":921,"은":922,"을":923,"음":924,"응":925,"의":926,"이":927,"인":928,"일":929,"있":930,"자":931,"작":932,"잘":933,"장":934,"재":935,"저":936,"적":937,"전":938,"정":939,"제":940,"져":941,"조":942,"좀":943,"주":944,"죽":945,"준":946,"중":947,"증":948,"지":949,"진":950,"질":951,"집":952,"쪽":953,"차":954,"찰":955,"처":956,"청":957,"체":958,"추":959,"취":960,"친":961,"키":962,"타":963,"터":964,"테":965,"판":966,"편":967,"평":968,"표":969,"하":970,"한":971,"할":972,"함":973,"해":974,"했":975,"행":976,"혀":977,"현":978,"혐":979,"혜":980,"호":981,"혹":982,"혼":983,"화":984,"확":985,"활":986,"황":987,"회":988,"후":989,"훈":990,"흥":991,"히":992,"힘":993,"️":994,"﻿":995,"（":996,"）":997,"：":998,"＝":999,"＞":1000,"�":1001,"🐒":1002,"😉":1003,"🙂":1004,"##o":1005,"##l":1006,"##w":1007,"##e":1008,"##d":1009,"##t":1010,"##a":1011,"##m":1012,"##r":1013,"##p":1014,"##n":1015,"##g":1016,"##k":1017,"##i":1018,"##u":1019,"##s":1020,"##h":1021,"##ü":1022,"##y":1023,"##b":1024,"##x":1025,"##v":1026,"##z":1027,"##а":1028,"##й":1029,"##н":1030,"##ö":1031,"##ä":1032,"##c":1033,"##š":1034,"##5":1035,"##2":1036,"##4":1037,"##6":1038,"##편":1039,"##도":1040,"##0":1041,"##­":1042,"##8":1043,"##3":1044,"##9":1045,"##으":1046,"##면":1047,"##f":1048,"##á":1049,"##υ":1050,"##σ":1051,"##π":1052,"##ρ":1053,"##ό":1054,"##ι":1055,"##τ":1056,"##ο":1057,"##ς":1058,"##인":1059,"##다":1060,"##リ":1061,"##ヴ":1062,"##ォ":1063,"##ニ":1064,"##シ":1065,"##チ":1066,"##ェ":1067,"##ン":1068,"##コ":1069,"##q":1070,"##니":1071,"##1":1072,"##j":1073,"##ï":1074,"##ァ":1075,"##ノ":1076,"##フ":1077,"##人":1078,"##は":1079,"##ィ":1080,"##ク":1081,"##ョ":1082,"##늘":1083,"##이":1084,"##о":1085,"##ā":1086,"##é":1087,"##í":1088,"##시":1089,"##당":1090,"##하":1091,"##고":1092,"##보":1093,"##7":1094,"##έ":1095,"##호":1096,"##사":1097,"##ó":1098,"##õ":1099,"##":1100,"##ø":1101,"##별":1102,"##한":1103,"##е":1104,"##с":1105,"##è":1106,"##集":1107,"##밖":1108,"##에":1109,"##у":1110,"##к":1111,"##ц":1112,"##и":1113,"##는":1114,"##ñ":1115,"##ō":1116,"##т":1117,"##р":1118,"##в":1119,"##я":1120,"##局":1121,"##の":1122,"##最":1123,"##終":1124,"##的":1125,"##な":1126,"##調":1127,"##査":1128,"##結":1129,"##л":1130,"##х":1131,"##ч":1132,"##з":1133,"##°":1134,"##혼":1135,"##年":1136,"##月":1137,"##体":1138,"##着":1139,"##だ":1140,"##っ":1141,"##た":1142,"##件":1143,"##原":1144,"##因":1145,"##å":1146,"##м":1147,"##語":1148,"##版":1149,"##і":1150,"##게":1151,"##ω":1152,"##â":1153,"##ă":1154,"##đ":1155,"##→":1156,"##ß":1157,"##λ":1158,"##™":1159,"##ç":1160,"##®":1161,"##×":1162,"##が":1163,"##メ":1164,"##ー":1165,"##ト":1166,"##ル":1167,"##高":1168,"##さ":1169,"##ま":1170,"##で":1171,"##折":1172,"##ら":1173,"##れ":1174,"##て":1175,"##い":1176,"##こ":1177,"##と":1178,"##論":1179,"##を":1180,"##き":1181,"##起":1182,"##し":1183,"##른":1184,"##처":1185,"##를":1186,"##을":1187,"##해":1188,"##순":1189,"##씨":1190,"##가":1191,"##े":1192,"##्":1193,"##र":1194,"##ʻ":1195,"##재":1196,"##겠":1197,"##무":1198,"##":1199,"##ビ":1200,"##イ":1201,"##ロ":1202,"##ネ":1203,"##나":1204,"##д":1205,"##ã":1206,"##ャ":1207,"##ラ":1208,"##루":1209,"##ボ":1210,"##＝":1211,"##ブ":1212,"##遺":1213,"##頭":1214,"##部":1215,"##に":1216,"##大":1217,"##負":1218,"##お":1219,"##り":1220,"##山":1221,"##č":1222,"##対":1223,"##す":1224,"##る":1225,"##見":1226,"##有":1227,"##":1228,"##α":1229,"##ν":1230,"##θ":1231,"##ά":1232,"##ε":1233,"##そ":1234,"##木":1235,"##か":1236,"##실":1237,"##서":1238,"##б":1239,"##º":1240,"##지":1241,"##ы":1242,"##자":1243,"##의":1244,"##エ":1245,"##ワ":1246,"##著":1247,"##書":1248,"##ò":1249,"##회":1250,"##생":1251,"##활":1252,"##수":1253,"##資":1254,"##料":1255,"##や":1256,"##他":1257,"##文":1258,"##ѕ":1259,"##ı":1260,"##п":1261,"##ь":1262,"##行":1263,"##ダ":1264,"##け":1265,"##死":1266,"##亡":1267,"##ど":1268,"##ů":1269,"##ὐ":1270,"##ῖ":1271,"##간":1272,"##ύ":1273,"##η":1274,"##":1275,"##ī":1276,"##€":1277,"##œ":1278,"##":1279,"##ú":1280,"##까":1281,"##方":1282,"##금":1283,"##プ":1284,"##多":1285,"##く":1286,"##ウ":1287,"##科":1288,"##学":1289,"##物":1290,"##目":1291,"##中":1292,"##선":1293,"##つ":1294,"##も":1295,"##長":1296,"##時":1297,"##間":1298,"##雪":1299,"##日":1300,"##光":1301,"##ば":1302,"##⁄":1303,"##ː":1304,"##었":1305,"##데":1306,"##상":1307,"##라":1308,"##마":1309,"##ž":1310,"##æ":1311,"##ṣ":1312,"##ṇ":1313,"##½":1314,"##ر":1315,"##ا":1316,"##م":1317,"##س":1318,"##ت":1319,"##각":1320,"##δ":1321,"##광":1322,"##석":1323,"##デ":1324,"##骨":1325,"##小":1326,"##裂":1327,"##ф":1328,"##ë":1329,"##행":1330,"##β":1331,"##崩":1332,"##斜":1333,"##度":1334,"##以":1335,"##上":1336,"##発":1337,"##生":1338,"##습":1339,"##直":1340,"##接":1341,"##通":1342,"##じ":1343,"##道":1344,"##位":1345,"##置":1346,"##ě":1347,"##地":1348,"##域":1349,"##г":1350,"##à":1351,"##원":1352,"##連":1353,"##内":1354,"##要":1355,"##実":1356,"##験":1357,"##場":1358,"##ヤ":1359,"##ţ":1360,"##문":1361,"##事":1362,"##前":1363,"##ア":1364,"##ユ":1365,"##어":1366,"##オ":1367,"##テ":1368,"##側":1369,"##あ":1370,"##ホ":1371,"##ジ":1372,"##ミ":1373,"##복":1374,"##ˈ":1375,"##ʔ":1376,"##못":1377,"##스":1378,"##기":1379,"##려":1380,"##ی":1381,"##리":1382,"##ш":1383,"##아":1384,"##있":1385,"##ř":1386,"##ṭ":1387,"##一":1388,"##出":1389,"##ス":1390,"##ド":1391,"##州":1392,"##公":1393,"##よ":1394,"##う":1395,"##状":1396,"##態":1397,"##低":1398,"##温":1399,"##症":1400,"##ý":1401,"##들":1402,"##랑":1403,"##�":1404,"##았":1405,"##察":1406,"##当":1407,"##特":1408,"##別":1409,"##可":1410,"##報":1411,"##告":1412,"##関":1413,"##わ":1414,"##ず":1415,"##述":1416,"##べ":1417,"##¹":1418,"##여":1419,"##ل":1420,"##و":1421,"##ن":1422,"##μ":1423,"##ḷ":1424,"##정":1425,"##와":1426,"##떳":1427,"##은":1428,"##전":1429,"##병":1430,"##²":1431,"##ṛ":1432,"##물":1433,"##ę":1434,"##¦":1435,"##ю":1436,"##건":1437,"##일":1438,"##損":1439,"##傷":1440,"##放":1441,"##론":1442,"##중":1443,"##위":1444,"##로":1445,"##ɛ":1446,"##ə":1447,"##음":1448,"##ś":1449,"##ṃ":1450,"##カ":1451,"##作":1452,"##약":1453,"##説":1454,"##家":1455,"##気":1456,"##̇":1457,"##법":1458,"##モ":1459,"##キ":1460,"##ュ":1461,"##タ":1462,"##立":1463,"##³":1464,"##索":1465,"##î":1466,"##風":1467,"##ッ":1468,"##び":1469,"##バ":1470,"##저":1471,"##ʒ":1472,"##考":1473,"##県":1474,"##げ":1475,"##ん":1476,"##러":1477,"##했":1478,"##🐒":1479,"##범":1480,"##년":1481,"##画":1482,"##下":1483,"##落":1484,"##ῶ":1485,"##ć":1486,"##ナ":1487,"##부":1488,"##存":1489,"##者":1490,"##ū":1491,"##式":1492,"##ち":1493,"##記":1494,"##견":1495,"##ა":1496,"##ი":1497,"##検":1498,"##明":1499,"##ح":1500,"##分":1501,"##極":1502,"##意":1503,"##失":1504,"##´":1505,"##د":1506,"##ك":1507,"##±":1508,"##화":1509,"##マ":1510,"##足":1511,"##跡":1512,"##残":1513,"##γ":1514,"##子":1515,"##적":1516,"##대":1517,"##민":1518,"##디":1519,"##연":1520,"##ş":1521,"##ğ":1522,"##":1523,"##示":1524,"##단":1525,"##گ":1526,"##本":1527,"##セ":1528,"##ソ":1529,"##捜":1530,"##新":1531,"##공":1532,"##ê":1533,"##모":1534,"##국":1535,"##外":1536,"##​":1537,"##不":1538,"##難":1539,"##❤":1540,"##️":1541,"##า":1542,"##ด":1543,"##อ":1544,"##ง":1545,"##現":1546,"##近":1547,"##ツ":1548,"##財":1549,"##向":1550,"##先":1551,"##動":1552,"##열":1553,"##울":1554,"##만":1555,"##え":1556,"##๋":1557,"##ว":1558,"##ย":1559,"##เ":1560,"##ี":1561,"##ร":1562,"##느":1563,"##경":1564,"##놓":1565,"##初":1566,"##北":1567,"##レ":1568,"##グ":1569,"##장":1570,"##¸":1571,"##隊":1572,"##ヒ":1573,"##ギ":1574,"##所":1575,"##渓":1576,"##谷":1577,"##되":1578,"##常":1579,"##力":1580,"##ή":1581,"##審":1582,"##問":1583,"##始":1584,"##め":1585,"##야":1586,"##던":1587,"##य":1588,"##設":1589,"##定":1590,"##히":1591,"##ί":1592,"##였":1593,"##自":1594,"##然":1595,"##오":1596,"##離":1597,"##サ":1598,"##소":1599,"##ه":1600,"##軍":1601,"##秘":1602,"##密":1603,"##진":1604,"##난":1605,"##미":1606,"##占":1607,"##ô":1608,"##변":1609,"##응":1610,"##探":1611,"##찰":1612,"##황":1613,"##제":1614,"##분":1615,"##─":1616,"##˜":1617,"##究":1618,"##超":1619,"##象":1620,"##걸":1621,"##요":1622,"##":1623,"##든":1624,"##할":1625,"##웠":1626,"##온":1627,"##何":1628,"##衣":1629,"##服":1630,"##름":1631,"##람":1632,"##係":1633,"##む":1634,"##":1635,"##런":1636,"##ḍ":1637,"##脱":1638,"##더":1639,"##끼":1640,"##解":1641,"##姿":1642,"##靴":1643,"##履":1644,"##긴":1645,"##냐":1646,"##ป":1647,"##ท":1648,"##르":1649,"##확":1650,"##검":1651,"##증":1652,"##후":1653,"##혜":1654,"##ع":1655,"##ط":1656,"##ب":1657,"##권":1658,"##י":1659,"##빠":1660,"##드":1661,"##우":1662,"##÷":1663,"##ล":1664,"##้":1665,"##말":1666,"##것":1667,"##테":1668,"##렇":1669,"##ゥ":1670,"##工":1671,"##ي":1672,"##동":1673,"##됐":1674,"##락":1675,"##ム":1676,"##理":1677,"##線":1678,"##量":1679,"##射":1680,"##性":1681,"##워":1682,"##峠":1683,"##ز":1684,"##‎":1685,"##ㅋ":1686,"##ж":1687,"##東":1688,"##面":1689,"##럼":1690,"##่":1691,"##点":1692,"##機":1693,"##져":1694,"##용":1695,"##혀":1696,"##ة":1697,"##양":1698,"##球":1699,"##표":1700,"##ピ":1701,"##後":1702,"##∷":1703,"##돈":1704,"##へ":1705,"##登":1706,"##ल":1707,"##ि":1708,"##ð":1709,"##⇓":1710,"##森":1711,"##ň":1712,"##송":1713,"##반":1714,"##ม":1715,"##등":1716,"##혹":1717,"##조":1718,"##在":1719,"##며":1720,"##린":1721,"##น":1722,"##次":1723,"##ё":1724,"##신":1725,"##애":1726,"##容":1727,"##거":1728,"##ώ":1729,"##能":1730,"##ì":1731,"##ไ":1732,"##身":1733,"##◊":1734,"##♦":1735,"##매":1736,"##겁":1737,"##개":1738,"##彼":1739,"##京":1740,"##都":1741,"##번":1742,"##구":1743,"##¼":1744,"##ɐ":1745,"##과":1746,"##خ":1747,"##щ":1748,"##내":1749,"##無":1750,"##撃":1751,"##送":1752,"##세":1753,"##났":1754,"##왔":1755,"##み":1756,"##손":1757,"##래":1758,"##체":1759,"##χ":1760,"##κ":1761,"##¢":1762,"##回":1763,"##想":1764,"##ق":1765,"##ろ":1766,"##引":1767,"##작":1768,"##없":1769,"##入":1770,"##−":1771,"##심":1772,"##員":1773,"##억":1774,"##담":1775,"##々":1776,"##持":1777,"##노":1778,"##주":1779,"##真":1780,"##全":1781,"##질":1782,"##ヘ":1783,"##証":1784,"##살":1785,"##研":1786,"##겨":1787,"##준":1788,"##助":1789,"##ห":1790,"##집":1791,"##청":1792,"##切":1793,"##운":1794,"##":1795,"##名":1796,"##많":1797,"##터":1798,"##█":1799,"##判":1800,"##ゾ":1801,"##至":1802,"##된":1803,"##ゲ":1804,"##때":1805,"##ł":1806,"##û":1807,"##ズ":1808,"##ù":1809,"##ṅ":1810,"##올":1811,"##ा":1812,"##두":1813,"##＞":1814,"##≈":1815,"##버":1816,"##쪽":1817,"##친":1818,"##봤":1819,"##開":1820,"##너":1821,"##식":1822,"##張":1823,"##警":1824,"##갔":1825,"##色":1826,"##©":1827,"##예":1828,"##ก":1829,"##안":1830,"##발":1831,"##夜":1832,"##":1833,"##훈":1834,"##﻿":1835,"##э":1836,"##ξ":1837,"##섭":1838,"##함":1839,"##관":1840,"##弾":1841,"##비":1842,"##현":1843,"##독":1844,"##˚":1845,"##흥":1846,"##ظ":1847,"##ف":1848,"##∞":1849,"##혐":1850,"##떻":1851,"##차":1852,"##뷰":1853,"##ゴ":1854,"##판":1855,"##벌":1856,"##ē":1857,"##₂":1858,"##":1859,"##불":1860,"##극":1861,"##받":1862,"##먼":1863,"##날":1864,"##뉴":1865,"##레":1866,"##결":1867,"##φ":1868,"##타":1869,"th":1870,"the":1871,"##er":1872,"##in":1873,"##at":1874,"##ou":1875,"##re":1876,"##an":1877,"##on":1878,"##es":1879,"##nd":1880,"##ing":1881,"##it":1882,"##ll":1883,"to":1884,"##en":1885,"wh":1886,"##ar":1887,"##or":1888,"you":1889,"##ed":1890,"it":1891,"in":1892,"and":1893,"no":1894,"##is":1895,"of":1896,"##om":1897,"##le":1898,"is":1899,"##ay":1900,"on":1901,"##as":1902,"##ow":1903,"##ic":1904,"that":1905,"##ig":1906,"##oo":1907,"##et":1908,"##ac":1909,"##ut":1910,"##al":1911,"##id":1912,"re":1913,"be":1914,"se":1915,"##st":1916,"can":1917,"##ve":1918,"##ir":1919,"##ht":1920,"##ot":1921,"do":1922,"##ke":1923,"sh":1924,"he":1925,"##ion":1926,"st":1927,"##se":1928,"##ight":1929,"##ad":1930,"what":1931,"##ld":1932,"##ent":1933,"are":1934,"##ly":1935,"we":1936,"##ack":1937,"see":1938,"##ook":1939,"bl":1940,"##all":1941,"##am":1942,"##ith":1943,"##ere":1944,"li":1945,"for":1946,"with":1947,"##ur":1948,"there":1949,"not":1950,"##ite":1951,"##ver":1952,"yes":1953,"an":1954,"ha":1955,"##ch":1956,"##im":1957,"look":1958,"##ell":1959,"##ro":1960,"this":1961,"le":1962,"##ome":1963,"white":1964,"##ers":1965,"##th":1966,"like":1967,"go":1968,"ch":1969,"they":1970,"fr":1971,"right":1972,"but":1973,"##ant":1974,"##ter":1975,"##ct":1976,"su":1977,"##ce":1978,"at":1979,"##ab":1980,"##ust":1981,"##il":1982,"so":1983,"##ink":1984,"##pp":1985,"##ge":1986,"have":1987,"mo":1988,"##ie":1989,"don":1990,"as":1991,"##own":1992,"##ill":1993,"or":1994,"##and":1995,"ne":1996,"##ol":1997,"was":1998,"##op":1999,"tr":2000,"br":2001,"##ould":2002,"pl":2003,"me":2004,"ye":2005,"oh":2006,"##ain":2007,"tell":2008,"black":2009,"##ue":2010,"##ft":2011,"de":2012,"your":2013,"##ation":2014,"##us":2015,"##um":2016,"just":2017,"one":2018,"all":2019,"some":2020,"ab":2021,"up":2022,"con":2023,"##est":2024,"##ood":2025,"cl":2026,"##ate":2027,"think":2028,"ok":2029,"##ul":2030,"okay":2031,"##un":2032,"al":2033,"looks":2034,"out":2035,"##ah":2036,"##ap":2037,"##ally":2038,"left":2039,"man":2040,"here":2041,"##ide":2042,"she":2043,"##ind":2044,"##ard":2045,"com":2046,"##ound":2047,"his":2048,"##out":2049,"##ck":2050,"##itt":2051,"gr":2052,"kn":2053,"pro":2054,"##art":2055,"##os":2056,"from":2057,"ma":2058,"##ort":2059,"##ff":2060,"sp":2061,"back":2062,"##na":2063,"##res":2064,"gre":2065,"##ess":2066,"did":2067,"##ist":2068,"##ri":2069,"who":2070,"pe":2071,"by":2072,"has":2073,"yeah":2074,"get":2075,"ex":2076,"sa":2077,"##ast":2078,"want":2079,"about":2080,"bo":2081,"##her":2082,"may":2083,"know":2084,"blue":2085,"##one":2086,"##ive":2087,"red":2088,"##ies":2089,"say":2090,"where":2091,"ar":2092,"##ment":2093,"co":2094,"brown":2095,"##ice":2096,"##oug":2097,"them":2098,"more":2099,"##ther":2100,"##el":2101,"put":2102,"##irt":2103,"##ure":2104,"##ity":2105,"wor":2106,"how":2107,"fe":2108,"let":2109,"##be":2110,"##ery":2111,"gu":2112,"##ose":2113,"##nt":2114,"ta":2115,"would":2116,"##ame":2117,"does":2118,"her":2119,"##ark":2120,"over":2121,"if":2122,"##ick":2123,"other":2124,"20":2125,"te":2126,"off":2127,"will":2128,"good":2129,"any":2130,"peop":2131,"people":2132,"now":2133,"litt":2134,"play":2135,"cou":2136,"little":2137,"very":2138,"##dy":2139,"##ong":2140,"##ra":2141,"##ars":2142,"##are":2143,"##ass":2144,"##au":2145,"ro":2146,"##ich":2147,"##ore":2148,"##ry":2149,"my":2150,"##ine":2151,"##ime":2152,"bot":2153,"##ect":2154,"us":2155,"maybe":2156,"##ish":2157,"only":2158,"##ag":2159,"ad":2160,"un":2161,"bu":2162,"##able":2163,"##age":2164,"##ber":2165,"##ough":2166,"said":2167,"too":2168,"di":2169,"part":2170,"tw":2171,"##iz":2172,"app":2173,"down":2174,"green":2175,"##ep":2176,"en":2177,"##ib":2178,"their":2179,"well":2180,"than":2181,"shirt":2182,"ll":2183,"##hing":2184,"fl":2185,"##ans":2186,"when":2187,"sc":2188,"##ace":2189,"##em":2190,"##onna":2191,"##king":2192,"gonna":2193,"ag":2194,"bec":2195,"really":2196,"new":2197,"sm":2198,"car":2199,"##ild":2200,"day":2201,"##ven":2202,"pre":2203,"big":2204,"##ip":2205,"were":2206,"am":2207,"him":2208,"##ud":2209,"##ach":2210,"##ater":2211,"##ict":2212,"pr":2213,"##ial":2214,"##ase":2215,"top":2216,"gir":2217,"##ont":2218,"im":2219,"##ond":2220,"pers":2221,"##ous":2222,"po":2223,"could":2224,"had":2225,"##ause":2226,"going":2227,"int":2228,"##if":2229,"guy":2230,"##way":2231,"##ign":2232,"##act":2233,"##gr":2234,"person":2235,"##pt":2236,"##ors":2237,"##side":2238,"far":2239,"comp":2240,"come":2241,"##cc":2242,"##our":2243,"which":2244,"ph":2245,"##air":2246,"##ile":2247,"##ings":2248,"col":2249,"##ree":2250,"time":2251,"##ions":2252,"lo":2253,"qu":2254,"sure":2255,"wom":2256,"##ak":2257,"make":2258,"##ence":2259,"##iv":2260,"af":2261,"ah":2262,"res":2263,"because":2264,"then":2265,"##qu":2266,"##ire":2267,"##ellow":2268,"##so":2269,"##av":2270,"cont":2271,"##ang":2272,"##ub":2273,"##pe":2274,"got":2275,"yellow":2276,"cr":2277,"##ia":2278,"##my":2279,"two":2280,"front":2281,"mom":2282,"##ance":2283,"##ult":2284,"##ange":2285,"##ress":2286,"hand":2287,"hu":2288,"##other":2289,"##pl":2290,"read":2291,"mid":2292,"##ated":2293,"been":2294,"##atch":2295,"its":2296,"bott":2297,"sk":2298,"ho":2299,"way":2300,"##nder":2301,"##ty":2302,"light":2303,"ever":2304,"per":2305,"##day":2306,"these":2307,"##uck":2308,"girl":2309,"##omet":2310,"##ny":2311,"most":2312,"lot":2313,"##urn":2314,"fir":2315,"##les":2316,"##per":2317,"##ord":2318,"after":2319,"somet":2320,"##ens":2321,"bab":2322,"##anna":2323,"gl":2324,"need":2325,"##ph":2326,"##ary":2327,"##orn":2328,"take":2329,"bet":2330,"wanna":2331,"those":2332,"act":2333,"small":2334,"first":2335,"why":2336,"##we":2337,"also":2338,"hard":2339,"ind":2340,"##ible":2341,"stand":2342,"##gg":2343,"kind":2344,"cle":2345,"dis":2346,"inc":2347,"woman":2348,"##int":2349,"book":2350,"mu":2351,"many":2352,"thr":2353,"##orm":2354,"pol":2355,"pict":2356,"##dle":2357,"##ian":2358,"el":2359,"bus":2360,"under":2361,"rec":2362,"into":2363,"hel":2364,"la":2365,"##ade":2366,"side":2367,"eat":2368,"around":2369,"baby":2370,"##ouse":2371,"##ull":2372,"again":2373,"our":2374,"prob":2375,"table":2376,"inter":2377,"rem":2378,"ve":2379,"show":2380,"##ting":2381,"boy":2382,"##iss":2383,"work":2384,"should":2385,"##ple":2386,"em":2387,"dark":2388,"old":2389,"##bo":2390,"ele":2391,"sec":2392,"something":2393,"wr":2394,"##ical":2395,"doing":2396,"bottom":2397,"mommy":2398,"##ory":2399,"sl":2400,"201":2401,"long":2402,"##og":2403,"sun":2404,"tre":2405,"##ground":2406,"rep":2407,"head":2408,"##oc":2409,"op":2410,"##ving":2411,"des":2412,"spe":2413,"every":2414,"##ool":2415,"another":2416,"##ock":2417,"##ail":2418,"build":2419,"jo":2420,"##ations":2421,"vis":2422,"happ":2423,"##up":2424,"middle":2425,"##ath":2426,"call":2427,"huh":2428,"dad":2429,"pret":2430,"##oss":2431,"color":2432,"10":2433,"away":2434,"water":2435,"##ants":2436,"picture":2437,"bel":2438,"##ms":2439,"appe":2440,"##aring":2441,"##xt":2442,"even":2443,"##ump":2444,"comm":2445,"chair":2446,"short":2447,"cann":2448,"background":2449,"close":2450,"beh":2451,"hm":2452,"##alk":2453,"##vel":2454,"diff":2455,"gray":2456,"min":2457,"doesn":2458,"cam":2459,"much":2460,"##oney":2461,"dr":2462,"cre":2463,"##ird":2464,"ke":2465,"aha":2466,"turn":2467,"cannot":2468,"##ious":2469,"##ates":2470,"bre":2471,"che":2472,"lar":2473,"19":2474,"##ix":2475,"few":2476,"ear":2477,"##ably":2478,"both":2479,"says":2480,"orange":2481,"acc":2482,"pres":2483,"##lf":2484,"hold":2485,"ser":2486,"cent":2487,"##ition":2488,"open":2489,"mon":2490,"##igh":2491,"sch":2492,"##uct":2493,"##ons":2494,"house":2495,"str":2496,"##als":2497,"daddy":2498,"##hm":2499,"att":2500,"count":2501,"ball":2502,"##wn":2503,"sign":2504,"pretty":2505,"help":2506,"##ady":2507,"wa":2508,"wood":2509,"##ush":2510,"##lic":2511,"behind":2512,"cat":2513,"try":2514,"year":2515,"##ise":2516,"##de":2517,"face":2518,"##ents":2519,"##ces":2520,"looking":2521,"supp":2522,"##get":2523,"stre":2524,"med":2525,"##ower":2526,"else":2527,"dog":2528,"nice":2529,"didn":2530,"differ":2531,"might":2532,"sn":2533,"dec":2534,"mhm":2535,"bit":2536,"phot":2537,"##ually":2538,"through":2539,"probably":2540,"thank":2541,"fin":2542,"inside":2543,"home":2544,"##ank":2545,"find":2546,"##ek":2547,"##ved":2548,"##right":2549,"last":2550,"use":2551,"30":2552,"imp":2553,"##kes":2554,"outside":2555,"##itting":2556,"sit":2557,"##ake":2558,"##fore":2559,"ed":2560,"reg":2561,"mar":2562,"made":2563,"##ves":2564,"while":2565,"wind":2566,"wearing":2567,"years":2568,"def":2569,"um":2570,"three":2571,"##oot":2572,"isn":2573,"dist":2574,"##ys":2575,"room":2576,"next":2577,"##end":2578,"grey":2579,"##man":2580,"give":2581,"fun":2582,"end":2583,"standing":2584,"##atter":2585,"##ful":2586,"visible":2587,"cons":2588,"still":2589,"hat":2590,"ob":2591,"train":2592,"cut":2593,"##ets":2594,"sil":2595,"trees":2596,"high":2597,"##ds":2598,"##ave":2599,"photo":2600,"##io":2601,"large":2602,"##ps":2603,"##ee":2604,"sy":2605,"##00":2606,"glass":2607,"things":2608,"##form":2609,"##aff":2610,"bed":2611,"before":2612,"num":2613,"being":2614,"##ows":2615,"fo":2616,"wall":2617,"bear":2618,"state":2619,"start":2620,"##iew":2621,"sur":2622,"clear":2623,"alright":2624,"clou":2625,"##thing":2626,"##ss":2627,"##ward":2628,"##ought":2629,"##cy":2630,"rel":2631,"sw":2632,"leg":2633,"night":2634,"bas":2635,"hair":2636,"ev":2637,"sitting":2638,"second":2639,"##ember":2640,"thing":2641,"different":2642,"pie":2643,"##ma":2644,"pink":2645,"pur":2646,"##te":2647,"##ug":2648,"##ular":2649,"##ident":2650,"##der":2651,"##ual":2652,"##cial":2653,"inv":2654,"game":2655,"##ating":2656,"##ger":2657,"##ning":2658,"##mo":2659,"met":2660,"child":2661,"watch":2662,"same":2663,"name":2664,"exp":2665,"mark":2666,"##ert":2667,"school":2668,"##ci":2669,"kid":2670,"cap":2671,"bro":2672,"##ied":2673,"sunny":2674,"##ily":2675,"##vers":2676,"flo":2677,"##ced":2678,"box":2679,"real":2680,"##aper":2681,"food":2682,"add":2683,"run":2684,"air":2685,"##oth":2686,"##eric":2687,"sle":2688,"##self":2689,"world":2690,"##ction":2691,"bird":2692,"cur":2693,"team":2694,"male":2695,"##ather":2696,"dri":2697,"happen":2698,"nope":2699,"##lud":2700,"hor":2701,"##mer":2702,"silver":2703,"ref":2704,"##ublic":2705,"mil":2706,"ac":2707,"##ash":2708,"inst":2709,"war":2710,"##ren":2711,"poss":2712,"today":2713,"##ject":2714,"##ount":2715,"sky":2716,"sand":2717,"set":2718,"##ize":2719,"truck":2720,"belie":2721,"americ":2722,"cour":2723,"##ane":2724,"ter":2725,"better":2726,"##raw":2727,"pants":2728,"##ike":2729,"great":2730,"stu":2731,"##cle":2732,"mm":2733,"though":2734,"##ope":2735,"point":2736,"##oon":2737,"gen":2738,"##ative":2739,"##osed":2740,"appears":2741,"swe":2742,"honey":2743,"##fe":2744,"own":2745,"rest":2746,"remember":2747,"##ason":2748,"wait":2749,"care":2750,"park":2751,"cook":2752,"uh":2753,"##lease":2754,"goes":2755,"guess":2756,"full":2757,"mean":2758,"found":2759,"stri":2760,"anim":2761,"##ng":2762,"sim":2763,"ass":2764,"##itch":2765,"jack":2766,"char":2767,"##ese":2768,"includ":2769,"##ier":2770,"building":2771,"##wh":2772,"sub":2773,"street":2774,"##ute":2775,"##ats":2776,"hal":2777,"##ince":2778,"ty":2779,"such":2780,"##ures":2781,"##olog":2782,"##ited":2783,"##ton":2784,"##ational":2785,"##ics":2786,"##imes":2787,"grass":2788,"##az":2789,"##vern":2790,"##alking":2791,"center":2792,"##ween":2793,"##uring":2794,"report":2795,"pot":2796,"between":2797,"200":2798,"##ama":2799,"went":2800,"##its":2801,"##ments":2802,"je":2803,"called":2804,"govern":2805,"##ins":2806,"##ium":2807,"##unch":2808,"##outh":2809,"floor":2810,"four":2811,"bar":2812,"##ead":2813,"bow":2814,"##co":2815,"coll":2816,"##rect":2817,"##br":2818,"city":2819,"horse":2820,"keep":2821,"ide":2822,"ban":2823,"cup":2824,"each":2825,"##ities":2826,"##ific":2827,"actually":2828,"week":2829,"conf":2830,"##owing":2831,"fac":2832,"##led":2833,"##ues":2834,"near":2835,"##ble":2836,"##ither":2837,"ask":2838,"dem":2839,"##ross":2840,"ey":2841,"against":2842,"half":2843,"##ape":2844,"##ork":2845,"eleph":2846,"cover":2847,"ben":2848,"men":2849,"##ove":2850,"camer":2851,"corn":2852,"##ever":2853,"lady":2854,"used":2855,"##most":2856,"tan":2857,"##za":2858,"##ized":2859,"pick":2860,"grou":2861,"eng":2862,"conc":2863,"##time":2864,"##pped":2865,"young":2866,"story":2867,"##ield":2868,"feel":2869,"sing":2870,"early":2871,"prod":2872,"fall":2873,"since":2874,"##ne":2875,"sho":2876,"ste":2877,"cow":2878,"resp":2879,"lead":2880,"##red":2881,"ground":2882,"ap":2883,"clean":2884,"##gan":2885,"eff":2886,"##ames":2887,"paper":2888,"##ness":2889,"hi":2890,"aut":2891,"##ote":2892,"list":2893,"##ric":2894,"##cept":2895,"lots":2896,"trans":2897,"law":2898,"seems":2899,"ready":2900,"hot":2901,"must":2902,"please":2903,"never":2904,"##ility":2905,"talk":2906,"##iend":2907,"ju":2908,"offic":2909,"##arch":2910,"believe":2911,"##sp":2912,"pa":2913,"ze":2914,"seen":2915,"12":2916,"holding":2917,"bowl":2918,"##land":2919,"##sh":2920,"distance":2921,"foot":2922,"squ":2923,"art":2924,"ret":2925,"plate":2926,"camera":2927,"##ken":2928,"number":2929,"done":2930,"ext":2931,"president":2932,"late":2933,"##ider":2934,"##ner":2935,"hum":2936,"miss":2937,"scre":2938,"##illion":2939,"hey":2940,"fam":2941,"place":2942,"getting":2943,"won":2944,"door":2945,"piz":2946,"enough":2947,"sever":2948,"main":2949,"elephant":2950,"told":2951,"##urt":2952,"support":2953,"least":2954,"block":2955,"government":2956,"yet":2957,"post":2958,"nothing":2959,"win":2960,"drink":2961,"during":2962,"##cess":2963,"friend":2964,"##stem":2965,"police":2966,"foll":2967,"##aim":2968,"piece":2969,"pass":2970,"love":2971,"making":2972,"##body":2973,"snow":2974,"fire":2975,"##ana":2976,"hands":2977,"several":2978,"dress":2979,"##ared":2980,"playing":2981,"sleep":2982,"thought":2983,"mem":2984,"det":2985,"##rib":2986,"##ism":2987,"shorts":2988,"##ists":2989,"##min":2990,"cloudy":2991,"record":2992,"public":2993,"##ices":2994,"move":2995,"pizza":2996,"##oy":2997,"happened":2998,"cor":2999,"chr":3000,"pop":3001,"##con":3002,"##uss":3003,"break":3004,"##amp":3005,"fore":3006,"##ored":3007,"##med":3008,"##bers":3009,"whole":3010,"anything":3011,"mot":3012,"pen":3013,"##ina":3014,"push":3015,"sort":3016,"either":3017,"quest":3018,"cars":3019,"##ines":3020,"gener":3021,"##ball":3022,"15":3023,"system":3024,"corner":3025,"coun":3026,"##ense":3027,"##board":3028,"bring":3029,"##ling":3030,"daytime":3031,"dirt":3032,"ra":3033,"five":3034,"fact":3035,"toget":3036,"together":3037,"job":3038,"compan":3039,"draw":3040,"later":3041,"stuff":3042,"giraff":3043,"stop":3044,"##ished":3045,"view":3046,"prov":3047,"inf":3048,"month":3049,"best":3050,"almost":3051,"bag":3052,"women":3053,"direct":3054,"par":3055,"purple":3056,"eas":3057,"ge":3058,"pri":3059,"##ways":3060,"player":3061,"phone":3062,"jacket":3063,"##att":3064,"window":3065,"doll":3066,"stud":3067,"size":3068,"##ator":3069,"wow":3070,"##key":3071,"bye":3072,"money":3073,"power":3074,"polit":3075,"##ired":3076,"rock":3077,"feet":3078,"coming":3079,"##room":3080,"prot":3081,"##ots":3082,"##bra":3083,"##ige":3084,"pull":3085,"##ution":3086,"##ister":3087,"##velop":3088,"##less":3089,"mostly":3090,"road":3091,"pu":3092,"##iam":3093,"##iting":3094,"exper":3095,"##ient":3096,"trump":3097,"catch":3098,"idea":3099,"nor":3100,"design":3101,"##ror":3102,"tree":3103,"came":3104,"##ages":3105,"bike":3106,"##ains":3107,"morn":3108,"##els":3109,"develop":3110,"40":3111,"ones":3112,"life":3113,"cake":3114,"disc":3115,"11":3116,"cal":3117,"##pper":3118,"##ready":3119,"already":3120,"morning":3121,"unt":3122,"##do":3123,"tom":3124,"image":3125,"camp":3126,"##str":3127,"area":3128,"plan":3129,"##aur":3130,"expl":3131,"contin":3132,"opp":3133,"bad":3134,"adult":3135,"mus":3136,"##by":3137,"iss":3138,"stick":3139,"group":3140,"##oun":3141,"##cast":3142,"##ives":3143,"ent":3144,"stay":3145,"strip":3146,"without":3147,"##uc":3148,"court":3149,"hell":3150,"din":3151,"##uit":3152,"zebra":3153,"##iness":3154,"##ience":3155,"clos":3156,"comple":3157,"commun":3158,"possib":3159,"interest":3160,"##gy":3161,"party":3162,"dep":3163,"contro":3164,"comes":3165,"fil":3166,"fema":3167,"suit":3168,"giraffe":3169,"ann":3170,"apple":3171,"gi":3172,"female":3173,"mr":3174,"##ries":3175,"uni":3176,"case":3177,"aw":3178,"board":3179,"past":3180,"##ned":3181,"##cent":3182,"adv":3183,"##ically":3184,"prof":3185,"country":3186,"tech":3187,"##owers":3188,"free":3189,"ten":3190,"##me":3191,"tall":3192,"line":3193,"proble":3194,"pet":3195,"mic":3196,"##ho":3197,"pos":3198,"##und":3199,"000":3200,"sweet":3201,"##hip":3202,"fix":3203,"##alth":3204,"av":3205,"loc":3206,"saw":3207,"cheese":3208,"eating":3209,"invest":3210,"##sc":3211,"##iding":3212,"milk":3213,"##bre":3214,"intern":3215,"##uce":3216,"boat":3217,"however":3218,"news":3219,"##cl":3220,"50":3221,"pain":3222,"pat":3223,"aren":3224,"mouth":3225,"##ts":3226,"##aug":3227,"cir":3228,"round":3229,"always":3230,"kitt":3231,"##ted":3232,"gold":3233,"beige":3234,"american":3235,"##ta":3236,"18":3237,"hear":3238,"having":3239,"someone":3240,"##ouch":3241,"whe":3242,"har":3243,"sol":3244,"mod":3245,"##ten":3246,"animals":3247,"##ides":3248,"change":3249,"couple":3250,"took":3251,"medium":3252,"using":3253,"##ention":3254,"pay":3255,"##aves":3256,"fish":3257,"##thers":3258,"##view":3259,"tow":3260,"##ected":3261,"duck":3262,"jeans":3263,"sal":3264,"trying":3265,"states":3266,"partic":3267,"requ":3268,"until":3269,"walk":3270,"less":3271,"sound":3272,"chick":3273,"##ature":3274,"field":3275,"business":3276,"store":3277,"accord":3278,"others":3279,"serv":3280,"##ety":3281,"##ital":3282,"couch":3283,"arm":3284,"##ster":3285,"elect":3286,"fur":3287,"##ision":3288,"test":3289,"taking":3290,"press":3291,"mult":3292,"appear":3293,"bun":3294,"##que":3295,"ce":3296,"sum":3297,"##ately":3298,"##ik":3299,"ir":3300,"type":3301,"sor":3302,"level":3303,"##ology":3304,"form":3305,"##row":3306,"land":3307,"quite":3308,"cloth":3309,"##illy":3310,"season":3311,"##stand":3312,"val":3313,"dat":3314,"class":3315,"mess":3316,"eyes":3317,"boo":3318,"above":3319,"##iver":3320,"times":3321,"coff":3322,"lap":3323,"leave":3324,"including":3325,"according":3326,"import":3327,"children":3328,"cond":3329,"everything":3330,"##rent":3331,"##acks":3332,"base":3333,"id":3334,"##zz":3335,"##ised":3336,"buy":3337,"possibly":3338,"result":3339,"lear":3340,"roll":3341,"hello":3342,"exam":3343,"##conom":3344,"cert":3345,"da":3346,"##lla":3347,"jump":3348,"product":3349,"sorry":3350,"percent":3351,"##ura":3352,"bright":3353,"once":3354,"throw":3355,"egg":3356,"##hn":3357,"##pping":3358,"cost":3359,"walking":3360,"##top":3361,"sheep":3362,"makes":3363,"##bs":3364,"ca":3365,"cream":3366,"25":3367,"recent":3368,"tv":3369,"econom":3370,"##wich":3371,"yep":3372,"auth":3373,"coffee":3374,"vi":3375,"hit":3376,"##ung":3377,"funny":3378,"var":3379,"incre":3380,"inform":3381,"star":3382,"del":3383,"blond":3384,"grand":3385,"##aps":3386,"##wards":3387,"##gram":3388,"pig":3389,"##ming":3390,"along":3391,"national":3392,"techn":3393,"million":3394,"six":3395,"key":3396,"##line":3397,"batter":3398,"working":3399,"buildings":3400,"able":3401,"##ral":3402,"minute":3403,"touch":3404,"appro":3405,"##ato":3406,"happy":3407,"metal":3408,"sandwich":3409,"saying":3410,"office":3411,"juice":3412,"##gress":3413,"spec":3414,"##atur":3415,"bir":3416,"rese":3417,"exc":3418,"##ased":3419,"oo":3420,"research":3421,"bath":3422,"william":3423,"##where":3424,"##ined":3425,"##pr":3426,"christ":3427,"blur":3428,"family":3429,"##used":3430,"counter":3431,"rain":3432,"spr":3433,"##phone":3434,"order":3435,"umbre":3436,"##ged":3437,"effect":3438,"across":3439,"net":3440,"eur":3441,"health":3442,"maj":3443,"step":3444,"based":3445,"##ases":3446,"20s":3447,"mag":3448,"prom":3449,"current":3450,"flowers":3451,"##ony":3452,"##ially":3453,"overcast":3454,"##ew":3455,"##ency":3456,"john":3457,"check":3458,"page":3459,"chang":3460,"program":3461,"lay":3462,"er":3463,"fair":3464,"wooden":3465,"##ald":3466,"lab":3467,"sen":3468,"##ls":3469,"shoes":3470,"present":3471,"##icy":3472,"living":3473,"days":3474,"glasses":3475,"mother":3476,"13":3477,"means":3478,"company":3479,"##anc":3480,"card":3481,"##tain":3482,"nose":3483,"##ones":3484,"talking":3485,"##ops":3486,"##unk":3487,"cold":3488,"##inal":3489,"motor":3490,"body":3491,"hurt":3492,"question":3493,"##idge":3494,"live":3495,"hist":3496,"whoo":3497,"clock":3498,"super":3499,"##gle":3500,"organ":3501,"market":3502,"screen":3503,"##ret":3504,"prev":3505,"windows":3506,"fence":3507,"ger":3508,"major":3509,"##tern":3510,"aver":3511,"project":3512,"##let":3513,"consider":3514,"birth":3515,"##ob":3516,"##ided":3517,"wants":3518,"sar":3519,"##aph":3520,"laura":3521,"asked":3522,"plane":3523,"certain":3524,"tax":3525,"##ocr":3526,"wanted":3527,"vide":3528,"14":3529,"human":3530,"mama":3531,"players":3532,"est":3533,"mir":3534,"third":3535,"wasn":3536,"tot":3537,"##ale":3538,"donut":3539,"united":3540,"fav":3541,"##atic":3542,"aff":3543,"dro":3544,"indo":3545,"shall":3546,"ham":3547,"##ey":3548,"fight":3549,"important":3550,"understand":3551,"fing":3552,"shot":3553,"kitch":3554,"##icle":3555,"##ife":3556,"univers":3557,"ice":3558,"##gin":3559,"bottle":3560,"process":3561,"##iling":3562,"games":3563,"gone":3564,"kitchen":3565,"16":3566,"##ggie":3567,"foc":3568,"##oof":3569,"##dd":3570,"thre":3571,"ant":3572,"##ugg":3573,"helm":3574,"fre":3575,"hour":3576,"##ional":3577,"##ude":3578,"facing":3579,"rece":3580,"##ppy":3581,"##ians":3582,"low":3583,"##ences":3584,"words":3585,"##mi":3586,"data":3587,"umbrella":3588,"books":3589,"fro":3590,"##ether":3591,"##ef":3592,"regular":3593,"blonde":3594,"gar":3595,"meet":3596,"word":3597,"fly":3598,"author":3599,"age":3600,"likely":3601,"port":3602,"##itor":3603,"lower":3604,"space":3605,"special":3606,"hang":3607,"matter":3608,"york":3609,"##ration":3610,"##bit":3611,"return":3612,"song":3613,"##oli":3614,"##go":3615,"##ocol":3616,"toys":3617,"##ief":3618,"##son":3619,"course":3620,"##iny":3621,"letter":3622,"taken":3623,"write":3624,"tape":3625,"##arent":3626,"ins":3627,"aftern":3628,"##avy":3629,"##illed":3630,"claim":3631,"democr":3632,"clim":3633,"clouds":3634,"cookie":3635,"##ges":3636,"##ior":3637,"rom":3638,"non":3639,"##une":3640,"equ":3641,"closed":3642,"fig":3643,"afternoon":3644,"##ract":3645,"prop":3646,"older":3647,"mount":3648,"deb":3649,"political":3650,"##work":3651,"oper":3652,"bill":3653,"fed":3654,"fund":3655,"legs":3656,"##ered":3657,"##aw":3658,"wrong":3659,"hill":3660,"opt":3661,"bench":3662,"information":3663,"bur":3664,"twent":3665,"possible":3666,"covered":3667,"engine":3668,"ur":3669,"norm":3670,"##lex":3671,"kids":3672,"##utes":3673,"animal":3674,"##erv":3675,"problem":3676,"##astic":3677,"writing":3678,"##ering":3679,"colored":3680,"instead":3681,"##sel":3682,"mix":3683,"occ":3684,"##ying":3685,"social":3686,"tick":3687,"official":3688,"former":3689,"##acy":3690,"carr":3691,"needs":3692,"micro":3693,"average":3694,"pan":3695,"colors":3696,"careful":3697,"##ern":3698,"choo":3699,"blurry":3700,"strong":3701,"north":3702,"##ories":3703,"ahead":3704,"##ising":3705,"199":3706,"banana":3707,"2nd":3708,"##aut":3709,"listen":3710,"##eth":3711,"media":3712,"whether":3713,"##aign":3714,"surf":3715,"cell":3716,"fell":3717,"running":3718,"fit":3719,"deal":3720,"sweetie":3721,"campaign":3722,"##ploy":3723,"##urs":3724,"beach":3725,"birthday":3726,"event":3727,"sarah":3728,"vot":3729,"yay":3730,"arg":3731,"lit":3732,"europe":3733,"##book":3734,"##ury":3735,"##owed":3736,"often":3737,"##airs":3738,"##ained":3739,"pract":3740,"bunny":3741,"summer":3742,"mind":3743,"sour":3744,"republic":3745,"match":3746,"lett":3747,"hope":3748,"pic":3749,"quick":3750,"silly":3751,"rather":3752,"become":3753,"kiss":3754,"##ler":3755,"chocol":3756,"dirty":3757,"17":3758,"##od":3759,"clothes":3760,"##ality":3761,"adam":3762,"priv":3763,"outdo":3764,"seem":3765,"trad":3766,"dou":3767,"below":3768,"##artment":3769,"tele":3770,"bread":3771,"##ued":3772,"##ison":3773,"butter":3774,"hy":3775,"chocolate":3776,"##ensive":3777,"eight":3778,"leaves":3779,"tie":3780,"reason":3781,"favor":3782,"##ators":3783,"comput":3784,"den":3785,"blank":3786,"desk":3787,"ride":3788,"##lish":3789,"soon":3790,"cho":3791,"months":3792,"ooh":3793,"##raft":3794,"perform":3795,"##ummy":3796,"tail":3797,"sometimes":3798,"##cut":3799,"laptop":3800,"wond":3801,"music":3802,"square":3803,"crit":3804,"##nding":3805,"lim":3806,"sink":3807,"dev":3808,"kittie":3809,"fut":3810,"started":3811,"cry":3812,"conn":3813,"indoors":3814,"es":3815,"##aster":3816,"comb":3817,"##ley":3818,"##ured":3819,"gave":3820,"video":3821,"##aking":3822,"shad":3823,"nap":3824,"row":3825,"sou":3826,"##idence":3827,"defin":3828,"ross":3829,"friends":3830,"sam":3831,"mov":3832,"further":3833,"##ene":3834,"moder":3835,"##pty":3836,"mal":3837,"brocc":3838,"vers":3839,"study":3840,"sto":3841,"wear":3842,"complete":3843,"activ":3844,"yourself":3845,"##orts":3846,"##cil":3847,"##ift":3848,"ago":3849,"secur":3850,"whoops":3851,"##ential":3852,"dom":3853,"turned":3854,"toile":3855,"viol":3856,"helmet":3857,"fast":3858,"known":3859,"pictures":3860,"bank":3861,"##gest":3862,"orig":3863,"##ified":3864,"enter":3865,"##iously":3866,"among":3867,"##uary":3868,"within":3869,"##ilar":3870,"sent":3871,"##af":3872,"single":3873,"tur":3874,"bush":3875,"colle":3876,"##ization":3877,"seat":3878,"supposed":3879,"slee":3880,"given":3881,"restaur":3882,"ru":3883,"##sw":3884,"brick":3885,"veh":3886,"30s":3887,"local":3888,"rad":3889,"##eral":3890,"chicken":3891,"motorcy":3892,"##amed":3893,"deep":3894,"00":3895,"guys":3896,"mirror":3897,"bare":3898,"bi":3899,"100":3900,"##itions":3901,"signs":3902,"south":3903,"soft":3904,"##iel":3905,"profess":3906,"##ables":3907,"desc":3908,"university":3909,"broccoli":3910,"seven":3911,"##0s":3912,"tar":3913,"##tt":3914,"putting":3915,"##ov":3916,"swim":3917,"ident":3918,"##ccess":3919,"everyone":3920,"mouse":3921,"spo":3922,"closest":3923,"toilet":3924,"cy":3925,"general":3926,"reach":3927,"##walk":3928,"ill":3929,"grow":3930,"entire":3931,"bat":3932,"dish":3933,"##eng":3934,"dav":3935,"##light":3936,"pack":3937,"##ection":3938,"exact":3939,"stra":3940,"watching":3941,"lights":3942,"alex":3943,"rele":3944,"stat":3945,"obama":3946,"cause":3947,"##mber":3948,"edge":3949,"following":3950,"pub":3951,"milit":3952,"example":3953,"particular":3954,"##lect":3955,"wild":3956,"##itter":3957,"spoon":3958,"security":3959,"members":3960,"circ":3961,"##aught":3962,"true":3963,"cross":3964,"fail":3965,"indust":3966,"doggie":3967,"washing":3968,"##ks":3969,"anyone":3970,"doct":3971,"lost":3972,"##ches":3973,"##empt":3974,"##umb":3975,"##ague":3976,"##uction":3977,"numbers":3978,"similar":3979,"future":3980,"compet":3981,"beaut":3982,"canad":3983,"attack":3984,"investig":3985,"pill":3986,"coat":3987,"tra":3988,"cool":3989,"hors":3990,"##nes":3991,"sugg":3992,"##aces":3993,"cand":3994,"rul":3995,"##ites":3996,"cab":3997,"control":3998,"##ney":3999,"##par":4000,"bell":4001,"community":4002,"##haps":4003,"spot":4004,"##ivid":4005,"perhaps":4006,"suggest":4007,"minutes":4008,"addition":4009,"##ument":4010,"sex":4011,"##ume":4012,"success":4013,"typ":4014,"anal":4015,"share":4016,"announ":4017,"wouldn":4018,"##lo":4019,"eth":4020,"##port":4021,"toy":4022,"##ipe":4023,"alone":4024,"##ortun":4025,"dead":4026,"gotta":4027,"walls":4028,"##itive":4029,"catcher":4030,"except":4031,"track":4032,"##soci":4033,"paul":4034,"striped":4035,"gets":4036,"eye":4037,"ow":4038,"const":4039,"russ":4040,"bask":4041,"german":4042,"restaurant":4043,"##iff":4044,"america":4045,"##erence":4046,"vict":4047,"finish":4048,"dre":4049,"vo":4050,"##iving":4051,"##reme":4052,"##fl":4053,"alth":4054,"heart":4055,"reported":4056,"although":4057,"individ":4058,"gun":4059,"proper":4060,"rob":4061,"plant":4062,"mich":4063,"service":4064,"empty":4065,"##cially":4066,"van":4067,"##com":4068,"ener":4069,"history":4070,"poor":4071,"series":4072,"associ":4073,"pieces":4074,"sized":4075,"##unt":4076,"scr":4077,"whoa":4078,"bunch":4079,"mass":4080,"##ze":4081,"##ips":4082,"##por":4083,"##fast":4084,"wash":4085,"##lin":4086,"town":4087,"tor":4088,"##ware":4089,"wide":4090,"invol":4091,"et":4092,"carry":4093,"##rest":4094,"issue":4095,"straight":4096,"whose":4097,"secret":4098,"wee":4099,"international":4100,"hon":4101,"pal":4102,"##case":4103,"##ails":4104,"lang":4105,"peek":4106,"sidewalk":4107,"impro":4108,"jud":4109,"oops":4110,"tit":4111,"zoo":4112,"sty":4113,"avail":4114,"##selves":4115,"##cket":4116,"standard":4117,"drive":4118,"begin":4119,"brush":4120,"abe":4121,"repres":4122,"points":4123,"button":4124,"scient":4125,"policy":4126,"##vert":4127,"##ried":4128,"21":4129,"plastic":4130,"##app":4131,"huge":4132,"god":4133,"##ilt":4134,"tem":4135,"##kin":4136,"sat":4137,"easy":4138,"bang":4139,"meas":4140,"blocks":4141,"##ourn":4142,"##icult":4143,"chur":4144,"total":4145,"dam":4146,"##ript":4147,"father":4148,"goo":4149,"2016":4150,"env":4151,"##ully":4152,"west":4153,"mill":4154,"frame":4155,"##ulation":4156,"crow":4157,"added":4158,"san":4159,"##ances":4160,"tea":4161,"played":4162,"answ":4163,"naim":4164,"ris":4165,"##osaur":4166,"computer":4167,"himself":4168,"king":4169,"nomi":4170,"##iger":4171,"##what":4172,"aust":4173,"meat":4174,"naima":4175,"china":4176,"works":4177,"breakfast":4178,"soci":4179,"football":4180,"cult":4181,"roman":4182,"foreign":4183,"mach":4184,"due":4185,"wed":4186,"aud":4187,"band":4188,"dry":4189,"ep":4190,"##ha":4191,"death":4192,"somewhat":4193,"difficult":4194,"##ination":4195,"##ager":4196,"contain":4197,"abs":4198,"driver":4199,"ski":4200,"##iday":4201,"ring":4202,"rich":4203,"##graph":4204,"slight":4205,"cop":4206,"mat":4207,"object":4208,"mer":4209,"normal":4210,"sad":4211,"##play":4212,"hop":4213,"hung":4214,"amount":4215,"motorcycle":4216,"discuss":4217,"fruit":4218,"capt":4219,"focus":4220,"cust":4221,"hall":4222,"birds":4223,"warm":4224,"##zy":4225,"##inc":4226,"reading":4227,"rab":4228,"##lished":4229,"##oop":4230,"##ived":4231,"chairs":4232,"modern":4233,"ted":4234,"tool":4235,"beautif":4236,"basket":4237,"##nis":4238,"##amb":4239,"neck":4240,"teen":4241,"link":4242,"federal":4243,"hig":4244,"energy":4245,"##ires":4246,"learn":4247,"wonder":4248,"tiny":4249,"imm":4250,"happens":4251,"##come":4252,"earl":4253,"22":4254,"ut":4255,"thom":4256,"##anas":4257,"##icles":4258,"infl":4259,"##akes":4260,"haven":4261,"edit":4262,"account":4263,"surpr":4264,"tile":4265,"vase":4266,"item":4267,"itself":4268,"moving":4269,"feed":4270,"##minist":4271,"##gs":4272,"employ":4273,"price":4274,"##rod":4275,"movie":4276,"available":4277,"##itely":4278,"somebody":4279,"upd":4280,"##nel":4281,"stripes":4282,"towards":4283,"twitter":4284,"action":4285,"access":4286,"military":4287,"lou":4288,"stuck":4289,"##uced":4290,"hous":4291,"film":4292,"june":4293,"div":4294,"relig":4295,"exe":4296,"favorite":4297,"league":4298,"##ended":4299,"upper":4300,"brit":4301,"2015":4302,"outdoors":4303,"patter":4304,"##ission":4305,"shows":4306,"speak":4307,"langu":4308,"ol":4309,"##ply":4310,"rights":4311,"heard":4312,"thanks":4313,"##acter":4314,"phys":4315,"wine":4316,"##to":4317,"chin":4318,"church":4319,"init":4320,"yester":4321,"development":4322,"cas":4323,"wet":4324,"yesterday":4325,"bite":4326,"que":4327,"##ron":4328,"club":4329,"specific":4330,"doc":4331,"attempt":4332,"##een":4333,"finished":4334,"flower":4335,"exactly":4336,"fine":4337,"##fully":4338,"24":4339,"higher":4340,"##ability":4341,"conv":4342,"committ":4343,"beautiful":4344,"experience":4345,"department":4346,"liber":4347,"rub":4348,"##for":4349,"##ural":4350,"bananas":4351,"wheel":4352,"##iron":4353,"baseball":4354,"lunch":4355,"stone":4356,"jan":4357,"##aged":4358,"rac":4359,"##gl":4360,"bigger":4361,"boys":4362,"washington":4363,"##got":4364,"##use":4365,"natur":4366,"##ax":4367,"self":4368,"oil":4369,"traff":4370,"2014":4371,"vol":4372,"bud":4373,"##back":4374,"fairly":4375,"espe":4376,"##ii":4377,"couldn":4378,"broken":4379,"especially":4380,"desp":4381,"benef":4382,"dude":4383,"##gar":4384,"##ently":4385,"exist":4386,"clint":4387,"peter":4388,"position":4389,"goodness":4390,"led":4391,"deter":4392,"##ru":4393,"kinda":4394,"interview":4395,"wrote":4396,"definitely":4397,"gas":4398,"kick":4399,"cray":4400,"educ":4401,"parked":4402,"letters":4403,"takes":4404,"##iple":4405,"blanket":4406,"circle":4407,"economic":4408,"environ":4409,"teeth":4410,"station":4411,"wel":4412,"continue":4413,"##iet":4414,"##uation":4415,"repl":4416,"countries":4417,"simply":4418,"max":4419,"smaller":4420,"college":4421,"tast":4422,"custom":4423,"35":4424,"bal":4425,"rev":4426,"slice":4427,"##osp":4428,"civ":4429,"sund":4430,"final":4431,"crack":4432,"network":4433,"lat":4434,"lives":4435,"##rael":4436,"tank":4437,"race":4438,"thirt":4439,"note":4440,"moment":4441,"fan":4442,"##aching":4443,"interesting":4444,"tennis":4445,"oct":4446,"##ands":4447,"mel":4448,"thinking":4449,"jose":4450,"dig":4451,"##rete":4452,"arms":4453,"flat":4454,"##sy":4455,"israel":4456,"##enc":4457,"target":4458,"mine":4459,"administ":4460,"##uel":4461,"##ective":4462,"election":4463,"signific":4464,"geor":4465,"clinton":4466,"##ael":4467,"clearly":4468,"airpl":4469,"earlier":4470,"riding":4471,"glob":4472,"finger":4473,"forward":4474,"sense":4475,"david":4476,"##orrow":4477,"2017":4478,"##ij":4479,"advert":4480,"longer":4481,"nine":4482,"##asing":4483,"kill":4484,"smiling":4485,"ran":4486,"##bb":4487,"##aniel":4488,"represent":4489,"pretend":4490,"girls":4491,"##he":4492,"##aid":4493,"##ify":4494,"hours":4495,"##mon":4496,"evidence":4497,"thomas":4498,"review":4499,"concrete":4500,"figure":4501,"##rench":4502,"issues":4503,"dinner":4504,"dinosaur":4505,"lines":4506,"parent":4507,"##ault":4508,"constr":4509,"unif":4510,"march":4511,"common":4512,"ver":4513,"minister":4514,"director":4515,"plain":4516,"uk":4517,"coach":4518,"198":4519,"force":4520,"barely":4521,"held":4522,"knife":4523,"relations":4524,"ton":4525,"dest":4526,"dra":4527,"chall":4528,"showing":4529,"##oom":4530,"cute":4531,"cookies":4532,"tomato":4533,"brought":4534,"tired":4535,"students":4536,"oce":4537,"visit":4538,"##den":4539,"##more":4540,"##han":4541,"looked":4542,"bes":4543,"##pet":4544,"character":4545,"##ott":4546,"companies":4547,"eggs":4548,"environment":4549,"role":4550,"agree":4551,"farm":4552,"##anger":4553,"launch":4554,"dogs":4555,"##ask":4556,"medic":4557,"express":4558,"cast":4559,"stories":4560,"##itten":4561,"crowd":4562,"fel":4563,"nation":4564,"pap":4565,"parking":4566,"##attle":4567,"bull":4568,"term":4569,"questions":4570,"##omes":4571,"##auc":4572,"spring":4573,"pattern":4574,"fork":4575,"conserv":4576,"language":4577,"##mb":4578,"likes":4579,"weeks":4580,"respons":4581,"model":4582,"billion":4583,"waiting":4584,"create":4585,"yours":4586,"##cks":4587,"knew":4588,"expect":4589,"mor":4590,"slightly":4591,"carrots":4592,"knock":4593,"##read":4594,"sunday":4595,"usually":4596,"print":4597,"driving":4598,"doctor":4599,"fres":4600,"themselves":4601,"2013":4602,"legal":4603,"suitcase":4604,"adults":4605,"river":4606,"sell":4607,"traffic":4608,"began":4609,"needed":4610,"source":4611,"mis":4612,"mac":4613,"vari":4614,"mater":4615,"##ili":4616,"##angle":4617,"version":4618,"##lection":4619,"##fer":4620,"##eds":4621,"stove":4622,"enc":4623,"2012":4624,"uniform":4625,"article":4626,"private":4627,"candid":4628,"teddy":4629,"despite":4630,"vote":4631,"##aming":4632,"oppos":4633,"site":4634,"separ":4635,"personal":4636,"pitch":4637,"##mas":4638,"ocean":4639,"##gn":4640,"##apan":4641,"treat":4642,"##ees":4643,"hosp":4644,"subject":4645,"shirts":4646,"decision":4647,"technology":4648,"leaders":4649,"##eg":4650,"congress":4651,"became":4652,"japan":4653,"champ":4654,"civil":4655,"shown":4656,"suff":4657,"intell":4658,"perf":4659,"terror":4660,"##ino":4661,"shut":4662,"##ival":4663,"##ett":4664,"hanging":4665,"noise":4666,"##ises":4667,"##zen":4668,"related":4669,"bridge":4670,"mad":4671,"recently":4672,"slow":4673,"follow":4674,"hungry":4675,"global":4676,"significant":4677,"mur":4678,"poll":4679,"microphone":4680,"society":4681,"heavy":4682,"content":4683,"28":4684,"yup":4685,"##oots":4686,"sold":4687,"hund":4688,"earth":4689,"cit":4690,"##rict":4691,"text":4692,"facebook":4693,"sleeping":4694,"anti":4695,"sna":4696,"##ding":4697,"##atures":4698,"various":4699,"rabbit":4700,"laying":4701,"puzz":4702,"services":4703,"##arter":4704,"value":4705,"tight":4706,"broad":4707,"moon":4708,"##ula":4709,"##ogn":4710,"monitor":4711,"apart":4712,"skate":4713,"tower":4714,"airplane":4715,"east":4716,"##pend":4717,"friday":4718,"click":4719,"sept":4720,"built":4721,"##cover":4722,"son":4723,"##yn":4724,"beer":4725,"##apes":4726,"cred":4727,"protest":4728,"parts":4729,"include":4730,"neigh":4731,"##wood":4732,"##ging":4733,"inj":4734,"##aboo":4735,"dressed":4736,"nearly":4737,"calif":4738,"##oint":4739,"search":4740,"brother":4741,"groups":4742,"ba":4743,"htt":4744,"##ucture":4745,"wheels":4746,"23":4747,"potential":4748,"giving":4749,"##pack":4750,"release":4751,"email":4752,"mond":4753,"##onse":4754,"##ades":4755,"faces":4756,"bathroom":4757,"natural":4758,"60":4759,"handle":4760,"drug":4761,"chief":4762,"prim":4763,"statement":4764,"style":4765,"##iles":4766,"provide":4767,"hole":4768,"recogn":4769,"joseph":4770,"changes":4771,"flor":4772,"everybody":4773,"teams":4774,"lily":4775,"tri":4776,"shape":4777,"goal":4778,"##istic":4779,"finan":4780,"accept":4781,"brand":4782,"hol":4783,"boom":4784,"extreme":4785,"mail":4786,"serious":4787,"staff":4788,"popular":4789,"science":4790,"regard":4791,"instit":4792,"du":4793,"quack":4794,"##ological":4795,"tomorrow":4796,"execut":4797,"completely":4798,"online":4799,"##ental":4800,"butt":4801,"straw":4802,"guard":4803,"inde":4804,"threat":4805,"host":4806,"function":4807,"##ateg":4808,"arch":4809,"results":4810,"##ribut":4811,"##hood":4812,"emer":4813,"jer":4814,"sauce":4815,"officials":4816,"nut":4817,"##lam":4818,"problems":4819,"material":4820,"defense":4821,"adm":4822,"laws":4823,"released":4824,"mc":4825,"response":4826,"cart":4827,"currently":4828,"##roll":4829,"puppy":4830,"obs":4831,"industry":4832,"cases":4833,"unf":4834,"address":4835,"christmas":4836,"perio":4837,"##ining":4838,"opportun":4839,"moo":4840,"somewhere":4841,"##eter":4842,"babies":4843,"smart":4844,"blow":4845,"##aving":4846,"##iced":4847,"ul":4848,"teens":4849,"describ":4850,"display":4851,"rocks":4852,"##bed":4853,"##aced":4854,"plat":4855,"monkey":4856,"decl":4857,"journ":4858,"jen":4859,"nu":4860,"tim":4861,"##rel":4862,"##asons":4863,"##ston":4864,"blood":4865,"finally":4866,"commer":4867,"monday":4868,"enj":4869,"sweater":4870,"##ength":4871,"michael":4872,"los":4873,"pin":4874,"##lim":4875,"webs":4876,"nath":4877,"##over":4878,"##atives":4879,"correct":4880,"particip":4881,"perfect":4882,"##set":4883,"fresh":4884,"##ril":4885,"quickly":4886,"satur":4887,"ways":4888,"aug":4889,"##bor":4890,"hur":4891,"multi":4892,"yard":4893,"tried":4894,"pred":4895,"twenty":4896,"27":4897,"peekaboo":4898,"gosh":4899,"##anta":4900,"cabin":4901,"india":4902,"published":4903,"introd":4904,"remain":4905,"swing":4906,"sounds":4907,"##men":4908,"##spect":4909,"hospital":4910,"backpack":4911,"created":4912,"welcome":4913,"tues":4914,"meant":4915,"wire":4916,"tuesday":4917,"197":4918,"practice":4919,"45":4920,"respond":4921,"##ppers":4922,"afric":4923,"challen":4924,"republican":4925,"austral":4926,"californ":4927,"ach":4928,"sugar":4929,"veget":4930,"internet":4931,"plants":4932,"workers":4933,"##load":4934,"length":4935,"island":4936,"arri":4937,"evening":4938,"member":4939,"paint":4940,"partly":4941,"simple":4942,"ang":4943,"cutting":4944,"##medi":4945,"directly":4946,"slide":4947,"answer":4948,"mart":4949,"named":4950,"written":4951,"french":4952,"yog":4953,"##clear":4954,"nina":4955,"original":4956,"ble":4957,"twe":4958,"machine":4959,"toward":4960,"progress":4961,"imag":4962,"worked":4963,"ethan":4964,"leader":4965,"apples":4966,"starting":4967,"twenties":4968,"tub":4969,"##ushing":4970,"worth":4971,"##olution":4972,"scene":4973,"consum":4974,"capital":4975,"screw":4976,"approach":4977,"risk":4978,"growing":4979,"bump":4980,"##ners":4981,"donald":4982,"tooth":4983,"comment":4984,"journal":4985,"prep":4986,"americans":4987,"protect":4988,"tun":4989,"2011":4990,"travel":4991,"angle":4992,"tray":4993,"flag":4994,"doub":4995,"chinese":4996,"##ban":4997,"##epend":4998,"quarter":4999,"towel":5000,"administration":5001,"enjoy":5002,"recorder":5003,"felt":5004,"whatever":5005,"biggest":5006,"string":5007,"solid":5008,"islam":5009,"trou":5010,"spl":5011,"dece":5012,"announced":5013,"laug":5014,"range":5015,"woo":5016,"hood":5017,"##ring":5018,"196":5019,"tour":5020,"spell":5021,"##pire":5022,"european":5023,"web":5024,"missing":5025,"cro":5026,"26":5027,"fans":5028,"speed":5029,"weather":5030,"chance":5031,"safe":5032,"obv":5033,"##iled":5034,"allow":5035,"indic":5036,"independ":5037,"pump":5038,"anymore":5039,"rice":5040,"thous":5041,"##ept":5042,"cere":5043,"##stairs":5044,"pepper":5045,"fingers":5046,"influ":5047,"california":5048,"rug":5049,"##uth":5050,"trade":5051,"decided":5052,"grandma":5053,"flying":5054,"bey":5055,"##thern":5056,"september":5057,"reports":5058,"rules":5059,"wednes":5060,"saturday":5061,"april":5062,"wednesday":5063,"##ales":5064,"knows":5065,"impact":5066,"conference":5067,"carpet":5068,"necess":5069,"shoe":5070,"shar":5071,"lake":5072,"increase":5073,"##xic":5074,"contract":5075,"winter":5076,"##isy":5077,"meeting":5078,"education":5079,"immedi":5080,"instr":5081,"demand":5082,"financial":5083,"##val":5084,"plates":5085,"canada":5086,"##ilities":5087,"expected":5088,"ears":5089,"##ai":5090,"##ively":5091,"situation":5092,"refer":5093,"january":5094,"via":5095,"studies":5096,"certainly":5097,"path":5098,"asian":5099,"tradition":5100,"swimming":5101,"danger":5102,"pocket":5103,"99":5104,"pad":5105,"toast":5106,"images":5107,"skin":5108,"mountain":5109,"rack":5110,"fox":5111,"english":5112,"ess":5113,"sides":5114,"##ils":5115,"indian":5116,"complex":5117,"period":5118,"cra":5119,"##ked":5120,"partially":5121,"saf":5122,"lion":5123,"central":5124,"deliver":5125,"sea":5126,"users":5127,"##akers":5128,"##ucky":5129,"##riage":5130,"drinking":5131,"beyond":5132,"##berry":5133,"google":5134,"##ka":5135,"##fort":5136,"reve":5137,"trick":5138,"pole":5139,"platform":5140,"dan":5141,"shake":5142,"trunk":5143,"double":5144,"ira":5145,"##ba":5146,"bears":5147,"production":5148,"constit":5149,"british":5150,"unl":5151,"performance":5152,"individual":5153,"map":5154,"committee":5155,"vac":5156,"busy":5157,"keyboard":5158,"intellig":5159,"burn":5160,"metho":5161,"climate":5162,"horses":5163,"##oring":5164,"items":5165,"##bing":5166,"trip":5167,"sque":5168,"##isl":5169,"terms":5170,"puzzle":5171,"poo":5172,"bob":5173,"##box":5174,"##action":5175,"july":5176,"rate":5177,"##sey":5178,"##agon":5179,"disp":5180,"##coin":5181,"rect":5182,"2010":5183,"nar":5184,"nobody":5185,"##ients":5186,"##asses":5187,"movement":5188,"##ien":5189,"request":5190,"##anges":5191,"fully":5192,"loss":5193,"plans":5194,"arrest":5195,"training":5196,"officer":5197,"##da":5198,"surve":5199,"##izing":5200,"nathaniel":5201,"eve":5202,"extra":5203,"parents":5204,"und":5205,"confir":5206,"##gu":5207,"section":5208,"ber":5209,"cauc":5210,"names":5211,"##uff":5212,"weap":5213,"shower":5214,"areas":5215,"houses":5216,"##rupt":5217,"##oid":5218,"##bur":5219,"plaid":5220,"feature":5221,"chew":5222,"vehicles":5223,"advertise":5224,"relationship":5225,"##idents":5226,"contact":5227,"involved":5228,"##cing":5229,"bran":5230,"estim":5231,"trim":5232,"received":5233,"pillow":5234,"oven":5235,"libr":5236,"frank":5237,"ability":5238,"oink":5239,"legisl":5240,"##pa":5241,"thurs":5242,"neither":5243,"dollars":5244,"##cloth":5245,"##aped":5246,"upon":5247,"##ancing":5248,"lu":5249,"ry":5250,"estab":5251,"iraq":5252,"##ares":5253,"##ray":5254,"spin":5255,"electric":5256,"ult":5257,"thursday":5258,"applic":5259,"larger":5260,"multiple":5261,"dream":5262,"bord":5263,"grown":5264,"events":5265,"commercial":5266,"##bc":5267,"##atory":5268,"##ky":5269,"teach":5270,"scar":5271,"reflection":5272,"concern":5273,"choice":5274,"##nie":5275,"economy":5276,"##rd":5277,"killed":5278,"log":5279,"discover":5280,"##onstr":5281,"##ondon":5282,"40s":5283,"##asc":5284,"##mine":5285,"##rew":5286,"nove":5287,"##ica":5288,"council":5289,"particularly":5290,"tracks":5291,"##aked":5292,"belong":5293,"##off":5294,"quality":5295,"voice":5296,"overall":5297,"soup":5298,"##estern":5299,"december":5300,"sens":5301,"##fr":5302,"##ened":5303,"skirt":5304,"broke":5305,"ren":5306,"uns":5307,"officers":5308,"ny":5309,"##oke":5310,"allowed":5311,"spect":5312,"army":5313,"conduct":5314,"doo":5315,"london":5316,"century":5317,"professional":5318,"29":5319,"haw":5320,"##uments":5321,"attention":5322,"hun":5323,"##kend":5324,"crim":5325,"title":5326,"gro":5327,"matt":5328,"##ech":5329,"boats":5330,"aged":5331,"tex":5332,"considered":5333,"august":5334,"sick":5335,"##enger":5336,"tickle":5337,"telev":5338,"vir":5339,"terri":5340,"iran":5341,"date":5342,"career":5343,"mention":5344,"##ode":5345,"thin":5346,"changed":5347,"sleeve":5348,"pool":5349,"amaz":5350,"crash":5351,"wave":5352,"november":5353,"wish":5354,"beat":5355,"code":5356,"steel":5357,"prior":5358,"controll":5359,"growth":5360,"etc":5361,"absol":5362,"lift":5363,"compl":5364,"dim":5365,"opened":5366,"potato":5367,"radio":5368,"roof":5369,"##isc":5370,"lean":5371,"kinds":5372,"monster":5373,"minim":5374,"communic":5375,"additional":5376,"james":5377,"lad":5378,"medicine":5379,"file":5380,"forgot":5381,"magaz":5382,"surface":5383,"drop":5384,"fa":5385,"rand":5386,"##elly":5387,"##anda":5388,"plus":5389,"##rant":5390,"partial":5391,"included":5392,"##glasses":5393,"george":5394,"yummy":5395,"cele":5396,"skateboard":5397,"##gon":5398,"##aled":5399,"##imately":5400,"offer":5401,"vehicle":5402,"improve":5403,"casual":5404,"##verse":5405,"spread":5406,"##iction":5407,"cris":5408,"attach":5409,"##bi":5410,"##rection":5411,"corpor":5412,"sett":5413,"falling":5414,"bom":5415,"rough":5416,"assist":5417,"russia":5418,"##ipped":5419,"spent":5420,"diaper":5421,"website":5422,"boun":5423,"lack":5424,"none":5425,"santa":5426,"##arily":5427,"save":5428,"beginning":5429,"medical":5430,"purp":5431,"previous":5432,"stem":5433,"##itted":5434,"absolute":5435,"##20":5436,"##asian":5437,"syri":5438,"pencil":5439,"shoo":5440,"democratic":5441,"dance":5442,"##bert":5443,"message":5444,"citiz":5445,"##nger":5446,"##ham":5447,"##bow":5448,"repe":5449,"justice":5450,"resour":5451,"socks":5452,"behav":5453,"photos":5454,"tonight":5455,"phil":5456,"tablecloth":5457,"barn":5458,"celebr":5459,"vill":5460,"##mp":5461,"convers":5462,"calls":5463,"pour":5464,"##ober":5465,"disapp":5466,"reb":5467,"october":5468,"##hy":5469,"assume":5470,"daily":5471,"copy":5472,"##etic":5473,"sports":5474,"peace":5475,"##sa":5476,"##bon":5477,"##cer":5478,"require":5479,"connect":5480,"rid":5481,"quiet":5482,"county":5483,"weekend":5484,"ple":5485,"born":5486,"stopped":5487,"##force":5488,"ros":5489,"##ties":5490,"##band":5491,"##ero":5492,"agency":5493,"load":5494,"##oni":5495,"myself":5496,"dropped":5497,"ko":5498,"##ida":5499,"forces":5500,"user":5501,"analys":5502,"epis":5503,"telling":5504,"bug":5505,"remote":5506,"##ledge":5507,"frog":5508,"##itar":5509,"inn":5510,"anyway":5511,"dough":5512,"##ado":5513,"ange":5514,"calling":5515,"mist":5516,"younger":5517,"##zer":5518,"##iter":5519,"stage":5520,"##ibility":5521,"calm":5522,"##ession":5523,"caucasian":5524,"wife":5525,"##kins":5526,"##erson":5527,"##wise":5528,"##ker":5529,"shr":5530,"fris":5531,"intelligence":5532,"forget":5533,"##istan":5534,"iron":5535,"##ids":5536,"skill":5537,"difference":5538,"stripe":5539,"tools":5540,"document":5541,"television":5542,"mob":5543,"decor":5544,"fold":5545,"senate":5546,"safety":5547,"lol":5548,"sister":5549,"##fa":5550,"concept":5551,"spir":5552,"union":5553,"send":5554,"##aging":5555,"showed":5556,"reflect":5557,"2009":5558,"software":5559,"champions":5560,"fal":5561,"##uf":5562,"trust":5563,"marky":5564,"kept":5565,"neat":5566,"wake":5567,"leading":5568,"jobs":5569,"navy":5570,"##ga":5571,"select":5572,"##uses":5573,"shelf":5574,"gard":5575,"##ios":5576,"##craft":5577,"ate":5578,"sunglasses":5579,"majority":5580,"culture":5581,"immig":5582,"prem":5583,"happening":5584,"painted":5585,"hide":5586,"places":5587,"spots":5588,"muse":5589,"western":5590,"##acher":5591,"##enty":5592,"library":5593,"##rop":5594,"##usion":5595,"shoulder":5596,"switch":5597,"##field":5598,"features":5599,"horn":5600,"##iers":5601,"rail":5602,"stock":5603,"bitcoin":5604,"trucks":5605,"pressure":5606,"histor":5607,"defe":5608,"hiding":5609,"##omm":5610,"moved":5611,"manage":5612,"pee":5613,"forest":5614,"cru":5615,"speech":5616,"taste":5617,"32":5618,"die":5619,"##bee":5620,"turning":5621,"boots":5622,"caught":5623,"tal":5624,"turt":5625,"##ament":5626,"positive":5627,"victim":5628,"ding":5629,"esc":5630,"nature":5631,"setting":5632,"opportunity":5633,"autom":5634,"mike":5635,"rap":5636,"##gre":5637,"##erve":5638,"##ctions":5639,"dear":5640,"shadow":5641,"##rast":5642,"##ples":5643,"measure":5644,"budget":5645,"pm":5646,"doors":5647,"soap":5648,"2008":5649,"indeed":5650,"redd":5651,"guessing":5652,"garage":5653,"##uals":5654,"##berries":5655,"crying":5656,"turkey":5657,"fat":5658,"##cs":5659,"shel":5660,"schools":5661,"##ener":5662,"helped":5663,"freed":5664,"mixed":5665,"republicans":5666,"bought":5667,"covering":5668,"notice":5669,"commission":5670,"systems":5671,"executive":5672,"prison":5673,"hats":5674,"muslim":5675,"telephone":5676,"dut":5677,"lose":5678,"rt":5679,"##old":5680,"##orter":5681,"jumping":5682,"wer":5683,"onto":5684,"occur":5685,"carrot":5686,"museum":5687,"ital":5688,"beans":5689,"ship":5690,"spider":5691,"demonstr":5692,"liter":5693,"crayons":5694,"lamp":5695,"chest":5696,"politics":5697,"trouble":5698,"gives":5699,"delic":5700,"largest":5701,"germany":5702,"fill":5703,"psy":5704,"##sequ":5705,"smell":5706,"investigation":5707,"##ws":5708,"##gh":5709,"dar":5710,"wing":5711,"##ki":5712,"fridge":5713,"refr":5714,"effort":5715,"population":5716,"levels":5717,"http":5718,"battle":5719,"pair":5720,"##entially":5721,"imple":5722,"stands":5723,"kh":5724,"##ously":5725,"lock":5726,"hotel":5727,"property":5728,"latest":5729,"31":5730,"wii":5731,"ens":5732,"actual":5733,"##ification":5734,"cereal":5735,"bay":5736,"jam":5737,"kite":5738,"dozen":5739,"bushes":5740,"##round":5741,"sleepy":5742,"continued":5743,"mountains":5744,"psych":5745,"defend":5746,"effects":5747,"portion":5748,"critic":5749,"limited":5750,"##ara":5751,"alb":5752,"feeling":5753,"separate":5754,"ord":5755,"##atively":5756,"richard":5757,"magazine":5758,"##uing":5759,"##illa":5760,"grab":5761,"crime":5762,"update":5763,"tiss":5764,"##mark":5765,"##isions":5766,"dump":5767,"##aries":5768,"mech":5769,"achie":5770,"opening":5771,"hyd":5772,"caption":5773,"##mit":5774,"pupp":5775,"drawing":5776,"pulled":5777,"waves":5778,"##ca":5779,"brain":5780,"mexic":5781,"span":5782,"tend":5783,"bubb":5784,"voters":5785,"fift":5786,"patch":5787,"si":5788,"##ada":5789,"febr":5790,"install":5791,"meaning":5792,"500":5793,"der":5794,"lie":5795,"uses":5796,"3rd":5797,"comments":5798,"spokes":5799,"february":5800,"##oura":5801,"##aker":5802,"##hold":5803,"cows":5804,"shop":5805,"surround":5806,"religious":5807,"cash":5808,"mush":5809,"rout":5810,"##ube":5811,"##ette":5812,"umpire":5813,"district":5814,"basic":5815,"passenger":5816,"container":5817,"dolly":5818,"products":5819,"domin":5820,"secretary":5821,"paid":5822,"costs":5823,"implement":5824,"attacks":5825,"details":5826,"bon":5827,"loo":5828,"mary":5829,"seeing":5830,"##ceed":5831,"structure":5832,"reality":5833,"explain":5834,"##lines":5835,"weird":5836,"income":5837,"remains":5838,"salad":5839,"frequ":5840,"males":5841,"described":5842,"ign":5843,"recomm":5844,"spend":5845,"debate":5846,"physical":5847,"advertisement":5848,"woof":5849,"comfort":5850,"democrats":5851,"trail":5852,"grad":5853,"heads":5854,"accom":5855,"throughout":5856,"regul":5857,"neighbor":5858,"tables":5859,"##hib":5860,"apparent":5861,"attorn":5862,"cups":5863,"focused":5864,"propos":5865,"texas":5866,"freedom":5867,"eu":5868,"stars":5869,"leaving":5870,"purch":5871,"fixed":5872,"##ko":5873,"insp":5874,"cards":5875,"frost":5876,"immediately":5877,"lugg":5878,"mcc":5879,"##pan":5880,"reasons":5881,"##ension":5882,"required":5883,"sev":5884,"alle":5885,"inte":5886,"lob":5887,"glo":5888,"credit":5889,"kore":5890,"wil":5891,"##adem":5892,"sup":5893,"aunt":5894,"mars":5895,"hero":5896,"direction":5897,"condition":5898,"russian":5899,"scale":5900,"authority":5901,"eventually":5902,"thousands":5903,"command":5904,"golden":5905,"gay":5906,"##house":5907,"increasing":5908,"strugg":5909,"register":5910,"surv":5911,"organization":5912,"thus":5913,"candy":5914,"leaf":5915,"depend":5916,"easier":5917,"student":5918,"origin":5919,"ri":5920,"ww":5921,"##ford":5922,"##anut":5923,"##oming":5924,"chan":5925,"70":5926,"bicy":5927,"##ening":5928,"peanut":5929,"core":5930,"195":5931,"claims":5932,"lam":5933,"lying":5934,"construction":5935,"##nut":5936,"arab":5937,"associated":5938,"##che":5939,"queen":5940,"coo":5941,"##kn":5942,"altern":5943,"coal":5944,"tweet":5945,"##bage":5946,"asking":5947,"manager":5948,"##while":5949,"ideas":5950,"violence":5951,"doubt":5952,"##lly":5953,"beg":5954,"##oles":5955,"prec":5956,"interested":5957,"conditions":5958,"criminal":5959,"gal":5960,"##inary":5961,"##iture":5962,"ped":5963,"##thest":5964,"impress":5965,"roy":5966,"scen":5967,"contribut":5968,"subst":5969,"presidential":5970,"oranges":5971,"nuclear":5972,"truth":5973,"plenty":5974,"chris":5975,"learning":5976,"unit":5977,"opin":5978,"designed":5979,"vs":5980,"vest":5981,"anywhere":5982,"died":5983,"hammer":5984,"prime":5985,"rule":5986,"florida":5987,"analysis":5988,"draft":5989,"##head":5990,"clown":5991,"exch":5992,"refriger":5993,"hook":5994,"academ":5995,"efforts":5996,"status":5997,"fu":5998,"tiger":5999,"wipe":6000,"prevent":6001,"crisis":6002,"unable":6003,"smith":6004,"charl":6005,"followed":6006,"fighting":6007,"analy":6008,"eric":6009,"##nam":6010,"polic":6011,"##ught":6012,"##nic":6013,"compared":6014,"increased":6015,"labor":6016,"hus":6017,"nurs":6018,"tong":6019,"toes":6020,"##ache":6021,"cats":6022,"ryan":6023,"frisbee":6024,"##using":6025,"cooking":6026,"promot":6027,"mechan":6028,"judge":6029,"fle":6030,"##ago":6031,"ath":6032,"thick":6033,"streng":6034,"cloud":6035,"provided":6036,"luggage":6037,"oop":6038,"##uits":6039,"download":6040,"carrying":6041,"minor":6042,"attached":6043,"weren":6044,"##uh":6045,"scared":6046,"2007":6047,"cement":6048,"steps":6049,"yogurt":6050,"strength":6051,"lic":6052,"easily":6053,"senior":6054,"receive":6055,"papers":6056,"##ufact":6057,"integr":6058,"region":6059,"damage":6060,"33":6061,"chic":6062,"princ":6063,"assum":6064,"unlike":6065,"rise":6066,"spill":6067,"teacher":6068,"spending":6069,"passed":6070,"ine":6071,"##acters":6072,"##place":6073,"characters":6074,"conservative":6075,"delicious":6076,"ken":6077,"##bble":6078,"##erc":6079,"unless":6080,"battery":6081,"healthy":6082,"horsie":6083,"dangerous":6084,"border":6085,"absolutely":6086,"37":6087,"lamb":6088,"sofa":6089,"amb":6090,"lettuce":6091,"upside":6092,"manufact":6093,"gran":6094,"ended":6095,"raised":6096,"tough":6097,"appl":6098,"magic":6099,"types":6100,"##aint":6101,"missed":6102,"choose":6103,"blind":6104,"closer":6105,"36":6106,"tomatoes":6107,"constitution":6108,"jaz":6109,"na":6110,"brief":6111,"loud":6112,"predict":6113,"34":6114,"tire":6115,"hasn":6116,"##oe":6117,"##ya":6118,"prose":6119,"otherwise":6120,"maintain":6121,"determin":6122,"pac":6123,"wets":6124,"##la":6125,"trial":6126,"##ivity":6127,"feels":6128,"activity":6129,"vegetables":6130,"virt":6131,"sharp":6132,"##gers":6133,"##gie":6134,"shoot":6135,"beside":6136,"japanese":6137,"fake":6138,"pony":6139,"##ris":6140,"knowledge":6141,"speaking":6142,"terr":6143,"triangle":6144,"jim":6145,"##ini":6146,"sne":6147,"aware":6148,"##aughter":6149,"episode":6150,"sus":6151,"knee":6152,"##berg":6153,"learned":6154,"option":6155,"##aling":6156,"detail":6157,"failed":6158,"bald":6159,"brownish":6160,"underne":6161,"join":6162,"underneath":6163,"por":6164,"##ule":6165,"##utions":6166,"neg":6167,"sexual":6168,"shooting":6169,"refrigerator":6170,"rat":6171,"rose":6172,"asp":6173,"sciss":6174,"occup":6175,"candidate":6176,"audience":6177,"extremely":6178,"pil":6179,"inches":6180,"rear":6181,"agre":6182,"sched":6183,"agreement":6184,"australia":6185,"categ":6186,"adj":6187,"buttons":6188,"citizens":6189,"theory":6190,"remo":6191,"transport":6192,"aim":6193,"##rim":6194,"meow":6195,"##actor":6196,"confl":6197,"mission":6198,"tissue":6199,"stad":6200,"cowbo":6201,"crazy":6202,"##ille":6203,"unc":6204,"snake":6205,"80":6206,"##anced":6207,"hee":6208,"weight":6209,"attract":6210,"includes":6211,"reached":6212,"ram":6213,"stack":6214,"unkn":6215,"turns":6216,"fourth":6217,"developed":6218,"bubbles":6219,"fi":6220,"smile":6221,"foreground":6222,"projects":6223,"album":6224,"lid":6225,"bottles":6226,"consist":6227,"individuals":6228,"fer":6229,"chain":6230,"balls":6231,"avoid":6232,"competition":6233,"yum":6234,"##64":6235,"sees":6236,"helping":6237,"##encies":6238,"ms":6239,"##icient":6240,"##ggy":6241,"experim":6242,"ceiling":6243,"shift":6244,"totally":6245,"encoura":6246,"55":6247,"##reds":6248,"notes":6249,"bedroom":6250,"association":6251,"independent":6252,"pumpkin":6253,"##aser":6254,"highest":6255,"airport":6256,"napkin":6257,"laugh":6258,"rust":6259,"greater":6260,"concent":6261,"owl":6262,"www":6263,"rib":6264,"liqu":6265,"turtle":6266,"homes":6267,"##ays":6268,"cla":6269,"dise":6270,"dollar":6271,"kat":6272,"wal":6273,"##ona":6274,"flight":6275,"score":6276,"unique":6277,"stadium":6278,"unknown":6279,"hom":6280,"whom":6281,"sher":6282,"forced":6283,"primary":6284,"ip":6285,"plays":6286,"##iolet":6287,"graph":6288,"raining":6289,"filled":6290,"loves":6291,"runs":6292,"potty":6293,"dum":6294,"##oud":6295,"winning":6296,"religion":6297,"cabinet":6298,"##ux":6299,"##ooth":6300,"respect":6301,"bout":6302,"seemed":6303,"exerc":6304,"elephants":6305,"memory":6306,"traditional":6307,"resources":6308,"##erved":6309,"##icol":6310,"##brush":6311,"magn":6312,"policies":6313,"##tered":6314,"logo":6315,"everywhere":6316,"charge":6317,"honest":6318,"lil":6319,"##roy":6320,"##ribe":6321,"flip":6322,"incident":6323,"expand":6324,"picked":6325,"matth":6326,"gent":6327,"sight":6328,"authorities":6329,"scissors":6330,"cath":6331,"rank":6332,"posted":6333,"tunnel":6334,"method":6335,"random":6336,"mah":6337,"violet":6338,"##rick":6339,"willing":6340,"boxes":6341,"hundreds":6342,"75":6343,"##iders":6344,"reform":6345,"##ads":6346,"leather":6347,"keys":6348,"scratch":6349,"rum":6350,"attend":6351,"crayon":6352,"dancing":6353,"foundation":6354,"##aded":6355,"therefore":6356,"appeared":6357,"finding":6358,"hundred":6359,"angry":6360,"championship":6361,"sport":6362,"fear":6363,"illeg":6364,"unfortun":6365,"rare":6366,"##iance":6367,"advant":6368,"attorney":6369,"pun":6370,"tap":6371,"##nn":6372,"heat":6373,"upstairs":6374,"newsp":6375,"sanders":6376,"famil":6377,"dining":6378,"organiz":6379,"##dden":6380,"conflict":6381,"cord":6382,"gate":6383,"thirty":6384,"martin":6385,"imagine":6386,"purpose":6387,"chicago":6388,"pages":6389,"##venue":6390,"impl":6391,"concer":6392,"outdoor":6393,"critical":6394,"fab":6395,"hid":6396,"fort":6397,"editor":6398,"highly":6399,"politic":6400,"pushing":6401,"##cles":6402,"balloon":6403,"matthew":6404,"hay":6405,"sally":6406,"beep":6407,"guide":6408,"mainly":6409,"leaning":6410,"storm":6411,"goat":6412,"##ustr":6413,"previously":6414,"canadian":6415,"minimum":6416,"behavior":6417,"##down":6418,"anybody":6419,"accident":6420,"temper":6421,"##aren":6422,"sources":6423,"belly":6424,"##uela":6425,"treatment":6426,"blog":6427,"##umn":6428,"throwing":6429,"alleged":6430,"tummy":6431,"tells":6432,"peppers":6433,"powerful":6434,"researchers":6435,"franc":6436,"##ategy":6437,"##osh":6438,"actions":6439,"strategy":6440,"starts":6441,"records":6442,"height":6443,"noted":6444,"yeh":6445,"minist":6446,"jes":6447,"##rants":6448,"ther":6449,"sudden":6450,"##apt":6451,"worry":6452,"strange":6453,"trains":6454,"continues":6455,"necessary":6456,"weapons":6457,"fellow":6458,"mister":6459,"worse":6460,"tee":6461,"shouldn":6462,"stret":6463,"excited":6464,"climb":6465,"challenge":6466,"garden":6467,"nan":6468,"##ented":6469,"##ola":6470,"generation":6471,"messy":6472,"emerg":6473,"lin":6474,"mud":6475,"##icit":6476,"##ortion":6477,"photograph":6478,"painting":6479,"benefits":6480,"digital":6481,"##fly":6482,"chem":6483,"##oph":6484,"##osure":6485,"streets":6486,"produced":6487,"##jam":6488,"partners":6489,"scott":6490,"2018":6491,"singing":6492,"giant":6493,"sales":6494,"rolling":6495,"caused":6496,"##po":6497,"decades":6498,"dishes":6499,"nations":6500,"pine":6501,"##cr":6502,"##roid":6503,"incred":6504,"collect":6505,"garbage":6506,"professor":6507,"successful":6508,"jersey":6509,"mushroom":6510,"gather":6511,"pip":6512,"stairs":6513,"france":6514,"qual":6515,"device":6516,"fant":6517,"math":6518,"##ores":6519,"##bl":6520,"##cul":6521,"onions":6522,"esp":6523,"coast":6524,"##issa":6525,"parl":6526,"obviously":6527,"management":6528,"noon":6529,"goals":6530,"trash":6531,"##aks":6532,"##ggies":6533,"hate":6534,"##izes":6535,"patients":6536,"kitty":6537,"murder":6538,"##ste":6539,"parties":6540,"limit":6541,"90":6542,"jar":6543,"creating":6544,"cities":6545,"zoom":6546,"##ext":6547,"sale":6548,"hug":6549,"served":6550,"bags":6551,"excell":6552,"equip":6553,"surprise":6554,"customers":6555,"african":6556,"flash":6557,"resident":6558,"##doh":6559,"shadows":6560,"42":6561,"95":6562,"pound":6563,"194":6564,"species":6565,"teenager":6566,"initial":6567,"pud":6568,"symb":6569,"owner":6570,"microw":6571,"pillows":6572,"toothbrush":6573,"influence":6574,"39":6575,"aid":6576,"##dies":6577,"##etch":6578,"##ota":6579,"shaped":6580,"signed":6581,"programs":6582,"millions":6583,"benefit":6584,"agreed":6585,"francis":6586,"##dom":6587,"##bar":6588,"arr":6589,"generally":6590,"christian":6591,"environmental":6592,"jazz":6593,"families":6594,"kal":6595,"wig":6596,"grant":6597,"imposs":6598,"marriage":6599,"produce":6600,"rainbow":6601,"massive":6602,"tongue":6603,"##town":6604,"carol":6605,"pointing":6606,"grandpa":6607,"roo":6608,"##ses":6609,"tru":6610,"drinks":6611,"bicycle":6612,"65":6613,"hen":6614,"##imate":6615,"##host":6616,"confirmed":6617,"adop":6618,"uncle":6619,"breaking":6620,"serve":6621,"jeff":6622,"kr":6623,"##amic":6624,"playdoh":6625,"##ccer":6626,"produc":6627,"lawy":6628,"##ipp":6629,"shell":6630,"usa":6631,"owners":6632,"##vin":6633,"shock":6634,"stain":6635,"nearby":6636,"thirties":6637,"##put":6638,"##eno":6639,"##iring":6640,"cha":6641,"boston":6642,"defensive":6643,"options":6644,"##inate":6645,"rais":6646,"entirely":6647,"furn":6648,"faster":6649,"clot":6650,"backs":6651,"quant":6652,"remind":6653,"occas":6654,"opposition":6655,"38":6656,"wit":6657,"##tains":6658,"##uge":6659,"##any":6660,"weak":6661,"hipp":6662,"stuffed":6663,"##iliar":6664,"wetsuit":6665,"##10":6666,"numer":6667,"adding":6668,"survey":6669,"craw":6670,"gain":6671,"##cel":6672,"brew":6673,"understanding":6674,"banks":6675,"64":6676,"gy":6677,"##iences":6678,"##fs":6679,"##fit":6680,"residents":6681,"##aved":6682,"apartment":6683,"debt":6684,"spirit":6685,"master":6686,"oat":6687,"wol":6688,"##gen":6689,"enforce":6690,"recover":6691,"##ribution":6692,"models":6693,"funding":6694,"##no":6695,"##onents":6696,"enem":6697,"prices":6698,"compar":6699,"sticky":6700,"virgin":6701,"impossible":6702,"ramp":6703,"sect":6704,"soccer":6705,"##others":6706,"profile":6707,"affect":6708,"operations":6709,"apparently":6710,"pc":6711,"shared":6712,"firm":6713,"curtain":6714,"wheat":6715,"reddish":6716,"recommend":6717,"symbol":6718,"era":6719,"nest":6720,"##raid":6721,"salt":6722,"initi":6723,"variety":6724,"microwave":6725,"ec":6726,"rh":6727,"##enth":6728,"herself":6729,"twel":6730,"policeman":6731,"excuse":6732,"panel":6733,"equipment":6734,"##itude":6735,"seats":6736,"cells":6737,"mig":6738,"tractor":6739,"allows":6740,"explained":6741,"insur":6742,"##iju":6743,"baa":6744,"false":6745,"cooper":6746,"clothing":6747,"bum":6748,"mont":6749,"##dog":6750,"slices":6751,"sprink":6752,"stretch":6753,"43":6754,"cub":6755,"##ala":6756,"assault":6757,"convention":6758,"ell":6759,"shopping":6760,"afraid":6761,"subsc":6762,"investment":6763,"determine":6764,"rectangle":6765,"##sters":6766,"worst":6767,"emot":6768,"basically":6769,"advoc":6770,"claimed":6771,"##arm":6772,"##usive":6773,"mobile":6774,"gentle":6775,"48":6776,"ii":6777,"kang":6778,"org":6779,"thinks":6780,"active":6781,"england":6782,"surfboard":6783,"conversation":6784,"##ijuana":6785,"android":6786,"poly":6787,"supper":6788,"transl":6789,"##ription":6790,"zero":6791,"##ex":6792,"chap":6793,"##antly":6794,"robert":6795,"sites":6796,"bringing":6797,"hillary":6798,"##ih":6799,"##aroo":6800,"smooth":6801,"resc":6802,"pointed":6803,"supporters":6804,"neighborhood":6805,"bol":6806,"##ville":6807,"charges":6808,"surprised":6809,"establish":6810,"relatively":6811,"besides":6812,"syria":6813,"opinion":6814,"wra":6815,"lived":6816,"offensive":6817,"drum":6818,"pepperoni":6819,"pow":6820,"andrew":6821,"prefer":6822,"controvers":6823,"palest":6824,"islamic":6825,"##uch":6826,"sav":6827,"partner":6828,"becoming":6829,"curren":6830,"provides":6831,"southern":6832,"award":6833,"gig":6834,"zone":6835,"##ici":6836,"##aine":6837,"##estic":6838,"##rial":6839,"bucket":6840,"bugs":6841,"##ario":6842,"##iro":6843,"butterfly":6844,"bikes":6845,"arrived":6846,"branch":6847,"scarf":6848,"##lor":6849,"##iti":6850,"belt":6851,"highlight":6852,"hack":6853,"odd":6854,"protection":6855,"ducks":6856,"touching":6857,"ghost":6858,"susp":6859,"##agers":6860,"serving":6861,"cather":6862,"refuge":6863,"entertain":6864,"vroom":6865,"##ann":6866,"manuela":6867,"sheet":6868,"scary":6869,"transform":6870,"candidates":6871,"wings":6872,"dism":6873,"##zzy":6874,"threw":6875,"daughter":6876,"fash":6877,"nfl":6878,"wars":6879,"whis":6880,"deg":6881,"remark":6882,"gear":6883,"johnson":6884,"channel":6885,"49":6886,"eh":6887,"jet":6888,"offered":6889,"excellent":6890,"nick":6891,"##ari":6892,"maroon":6893,"northern":6894,"scientists":6895,"ari":6896,"joe":6897,"penn":6898,"multicol":6899,"changing":6900,"employees":6901,"dot":6902,"lind":6903,"mut":6904,"##inct":6905,"##elling":6906,"unp":6907,"communities":6908,"##goti":6909,"balance":6910,"pitcher":6911,"legislation":6912,"fits":6913,"nas":6914,"cher":6915,"purse":6916,"2006":6917,"gender":6918,"optim":6919,"responsible":6920,"bounce":6921,"supreme":6922,"parliam":6923,"catherine":6924,"gall":6925,"##iest":6926,"meter":6927,"believed":6928,"racket":6929,"pooh":6930,"frosting":6931,"advantage":6932,"hind":6933,"tack":6934,"suspect":6935,"##ander":6936,"marijuana":6937,"meanwhile":6938,"fashion":6939,"stream":6940,"annual":6941,"lettering":6942,"52":6943,"nin":6944,"beard":6945,"supply":6946,"daisy":6947,"effective":6948,"announce":6949,"amazing":6950,"tab":6951,"##resp":6952,"sail":6953,"dragon":6954,"concerns":6955,"negative":6956,"adjust":6957,"twelve":6958,"wo":6959,"acqu":6960,"motion":6961,"planet":6962,"businesses":6963,"victory":6964,"exchange":6965,"##now":6966,"planned":6967,"solution":6968,"louis":6969,"gloves":6970,"unfortunately":6971,"hidden":6972,"wealth":6973,"donkey":6974,"buff":6975,"glad":6976,"keeping":6977,"paying":6978,"label":6979,"israeli":6980,"institute":6981,"witness":6982,"kangaroo":6983,"vice":6984,"wage":6985,"##ipping":6986,"##outs":6987,"diam":6988,"elements":6989,"trend":6990,"cuts":6991,"instruct":6992,"##uters":6993,"reaching":6994,"seeds":6995,"##amm":6996,"joined":6997,"pulling":6998,"##leep":6999,"##acon":7000,"shore":7001,"hearing":7002,"twice":7003,"crew":7004,"strateg":7005,"marble":7006,"argument":7007,"truly":7008,"##asp":7009,"bean":7010,"seek":7011,"##uries":7012,"raw":7013,"expert":7014,"africa":7015,"furniture":7016,"parliament":7017,"44":7018,"ps":7019,"##tle":7020,"commit":7021,"village":7022,"doughnut":7023,"os":7024,"rates":7025,"##hi":7026,"##onent":7027,"##iser":7028,"bee":7029,"##ibly":7030,"familiar":7031,"listening":7032,"gross":7033,"asleep":7034,"deck":7035,"2000":7036,"perm":7037,"decide":7038,"governor":7039,"studio":7040,"stores":7041,"destroy":7042,"opposite":7043,"revealed":7044,"mentioned":7045,"##ram":7046,"##gly":7047,"specifically":7048,"removed":7049,"illegal":7050,"ded":7051,"nur":7052,"ron":7053,"tant":7054,"pete":7055,"failure":7056,"replace":7057,"##pri":7058,"##vant":7059,"clay":7060,"buck":7061,"skier":7062,"falls":7063,"steve":7064,"posts":7065,"##coming":7066,"hoodie":7067,"arrested":7068,"concentr":7069,"concerned":7070,"##stein":7071,"41":7072,"cu":7073,"iv":7074,"##ez":7075,"grapes":7076,"decent":7077,"application":7078,"cer":7079,"##ita":7080,"novel":7081,"excl":7082,"##ression":7083,"miles":7084,"planning":7085,"tests":7086,"approx":7087,"tip":7088,"##eless":7089,"values":7090,"construct":7091,"selling":7092,"ack":7093,"pra":7094,"jew":7095,"mrs":7096,"solar":7097,"##aver":7098,"guitar":7099,"tag":7100,"urban":7101,"comfortable":7102,"jon":7103,"##enced":7104,"elmo":7105,"centre":7106,"package":7107,"##mm":7108,"##hol":7109,"stan":7110,"flav":7111,"##aki":7112,"markets":7113,"##pm":7114,"##isation":7115,"lighting":7116,"193":7117,"seconds":7118,"ensure":7119,"tiles":7120,"trib":7121,"offers":7122,"liquid":7123,"newspaper":7124,"emergency":7125,"braz":7126,"keeps":7127,"division":7128,"atl":7129,"drivers":7130,"introduced":7131,"ox":7132,"sir":7133,"##mond":7134,"##hen":7135,"##aters":7136,"react":7137,"negoti":7138,"placed":7139,"jean":7140,"sticking":7141,"discussion":7142,"nic":7143,"task":7144,"##don":7145,"##ques":7146,"jackets":7147,"afford":7148,"connected":7149,"documents":7150,"mere":7151,"tied":7152,"liked":7153,"appoint":7154,"birdie":7155,"##ship":7156,"gift":7157,"existing":7158,"achieve":7159,"dub":7160,"beef":7161,"useful":7162,"##apers":7163,"##ifer":7164,"poles":7165,"##iano":7166,"300":7167,"cleaning":7168,"transfer":7169,"williams":7170,"faith":7171,"bib":7172,"lemon":7173,"comed":7174,"bodies":7175,"helps":7176,"collar":7177,"walked":7178,"piggy":7179,"pile":7180,"soph":7181,"backwards":7182,"mayor":7183,"mug":7184,"accur":7185,"housing":7186,"obvious":7187,"##wide":7188,"##acity":7189,"shade":7190,"stated":7191,"prin":7192,"restrict":7193,"designs":7194,"equal":7195,"proposed":7196,"revolution":7197,"papa":7198,"sin":7199,"##yl":7200,"bless":7201,"closet":7202,"melissa":7203,"prosecut":7204,"nav":7205,"resist":7206,"buses":7207,"decisions":7208,"##ashed":7209,"recording":7210,"industrial":7211,"losing":7212,"47":7213,"bern":7214,"##kel":7215,"alt":7216,"peach":7217,"apply":7218,"tops":7219,"sticker":7220,"discovered":7221,"tent":7222,"##gging":7223,"interp":7224,"darker":7225,"decade":7226,"strike":7227,"experts":7228,"urs":7229,"suggested":7230,"stainless":7231,"bin":7232,"fol":7233,"##anes":7234,"sharing":7235,"clin":7236,"fem":7237,"location":7238,"repeated":7239,"66":7240,"##abor":7241,"momma":7242,"supported":7243,"spokesman":7244,"enforcement":7245,"nurse":7246,"dess":7247,"##11":7248,"becomes":7249,"mall":7250,"##ns":7251,"##igan":7252,"allowing":7253,"##aud":7254,"joke":7255,"coverage":7256,"whoop":7257,"shades":7258,"hoo":7259,"kar":7260,"##ructure":7261,"##antic":7262,"saus":7263,"##ifying":7264,"largely":7265,"expensive":7266,"50s":7267,"requires":7268,"ultimately":7269,"begins":7270,"aspect":7271,"fest":7272,"grew":7273,"getty":7274,"returned":7275,"spoke":7276,"fancy":7277,"roughly":7278,"les":7279,"mummy":7280,"##oons":7281,"##li":7282,"##iation":7283,"##rem":7284,"##sty":7285,"covers":7286,"carl":7287,"basis":7288,"##cient":7289,"curtains":7290,"activities":7291,"liberal":7292,"copyright":7293,"dust":7294,"pipe":7295,"sets":7296,"shark":7297,"shapes":7298,"teaching":7299,"context":7300,"friendly":7301,"posing":7302,"techni":7303,"domestic":7304,"terrible":7305,"rot":7306,"##ano":7307,"consequ":7308,"dada":7309,"schem":7310,"syn":7311,"talked":7312,"infrast":7313,"royal":7314,"charlie":7315,"ker":7316,"rach":7317,"gop":7318,"saud":7319,"snack":7320,"snap":7321,"pale":7322,"songs":7323,"tig":7324,"thumb":7325,"differences":7326,"pushed":7327,"figures":7328,"identify":7329,"holes":7330,"strawberry":7331,"##jamas":7332,"54":7333,"53":7334,"lucky":7335,"rings":7336,"ash":7337,"clip":7338,"snowboard":7339,"raise":7340,"testing":7341,"scientology":7342,"launched":7343,"ursula":7344,"dessert":7345,"veter":7346,"##tr":7347,"##ora":7348,"sov":7349,"##ulf":7350,"sandy":7351,"towels":7352,"domain":7353,"robin":7354,"rush":7355,"chips":7356,"interact":7357,"purs":7358,"appropri":7359,"slowly":7360,"disappe":7361,"##uate":7362,"faced":7363,"files":7364,"elections":7365,"britain":7366,"sneakers":7367,"degree":7368,"acknow":7369,"kent":7370,"mi":7371,"##isf":7372,"reject":7373,"reuters":7374,"asse":7375,"##soft":7376,"##ups":7377,"basketball":7378,"disease":7379,"dots":7380,"py":7381,"sust":7382,"greek":7383,"carried":7384,"##issions":7385,"accused":7386,"talks":7387,"matches":7388,"sleeves":7389,"drew":7390,"dinosaurs":7391,"recognize":7392,"participants":7393,"craft":7394,"pond":7395,"##ograph":7396,"##ters":7397,"##ipper":7398,"guest":7399,"##igned":7400,"##ption":7401,"zebr":7402,"humans":7403,"mexico":7404,"pilot":7405,"infrastructure":7406,"kim":7407,"##atically":7408,"##keys":7409,"smoke":7410,"identified":7411,"multicolored":7412,"vul":7413,"##inated":7414,"semi":7415,"twin":7416,"downstairs":7417,"pajamas":7418,"awake":7419,"movies":7420,"injury":7421,"yards":7422,"prepared":7423,"hub":7424,"jelly":7425,"##ata":7426,"stress":7427,"script":7428,"smo":7429,"ends":7430,"blocked":7431,"providing":7432,"issued":7433,"suggests":7434,"spanish":7435,"bond":7436,"cock":7437,"##onto":7438,"eleven":7439,"2003":7440,"passing":7441,"skills":7442,"ske":7443,"##lock":7444,"stir":7445,"forth":7446,"troo":7447,"believes":7448,"assess":7449,"standards":7450,"rapid":7451,"princip":7452,"bio":7453,"vast":7454,"gogg":7455,"clap":7456,"suppl":7457,"jumped":7458,"democracy":7459,"objects":7460,"jenny":7461,"colorful":7462,"2005":7463,"planes":7464,"wonderful":7465,"originally":7466,"kalie":7467,"jul":7468,"##ae":7469,"coord":7470,"encl":7471,"aircraft":7472,"subm":7473,"squish":7474,"articles":7475,"eastern":7476,"developing":7477,"advanced":7478,"donuts":7479,"operation":7480,"mistake":7481,"husband":7482,"females":7483,"##bie":7484,"##omp":7485,"fran":7486,"captain":7487,"##ception":7488,"claus":7489,"hitting":7490,"##elle":7491,"famous":7492,"zebras":7493,"mand":7494,"pir":7495,"##rie":7496,"dele":7497,"##eline":7498,"column":7499,"shoulders":7500,"waist":7501,"obtain":7502,"possibility":7503,"##meal":7504,"desktop":7505,"identity":7506,"expression":7507,"https":7508,"corporate":7509,"cowboy":7510,"wrest":7511,"wagon":7512,"##hirt":7513,"##itz":7514,"sock":7515,"owned":7516,"giraffes":7517,"sleeved":7518,"leadership":7519,"01":7520,"ven":7521,"cancer":7522,"##alley":7523,"##ulate":7524,"views":7525,"interests":7526,"scientific":7527,"immigration":7528,"##rative":7529,"##ulated":7530,"carriage":7531,"proud":7532,"broadcast":7533,"hurry":7534,"goggles":7535,"ment":7536,"oly":7537,"##wr":7538,"##how":7539,"alloc":7540,"outfit":7541,"prince":7542,"presents":7543,"olives":7544,"regarding":7545,"established":7546,"gor":7547,"##ivers":7548,"##oned":7549,"##ading":7550,"managed":7551,"skis":7552,"suppose":7553,"stickers":7554,"typical":7555,"accounts":7556,"athlet":7557,"currency":7558,"diamond":7559,"powers":7560,"alleg":7561,"diet":7562,"downtown":7563,"collection":7564,"ruby":7565,"suddenly":7566,"jun":7567,"ly":7568,"##ena":7569,"amend":7570,"recall":7571,"2019":7572,"privacy":7573,"jesus":7574,"palestin":7575,"lif":7576,"appre":7577,"swed":7578,"cooked":7579,"senator":7580,"46":7581,"bid":7582,"rang":7583,"todd":7584,"##icing":7585,"plug":7586,"reduce":7587,"struct":7588,"harm":7589,"indoor":7590,"responsibility":7591,"laughing":7592,"squeak":7593,"innov":7594,"witch":7595,"##ji":7596,"##icip":7597,"trav":7598,"vision":7599,"seriously":7600,"married":7601,"mustard":7602,"toronto":7603,"cracker":7604,"victims":7605,"wilson":7606,"dw":7607,"abuse":7608,"cliff":7609,"leftmost":7610,"carbon":7611,"glaz":7612,"2001":7613,"voting":7614,"korea":7615,"exercise":7616,"chapter":7617,"olymp":7618,"##ius":7619,"##ream":7620,"neut":7621,"##oses":7622,"buzz":7623,"##enses":7624,"considering":7625,"measures":7626,"##ghan":7627,"##iw":7628,"##cake":7629,"toe":7630,"stor":7631,"candles":7632,"##encing":7633,"determined":7634,"fabric":7635,"51":7636,"jones":7637,"sac":7638,"##istics":7639,"##eling":7640,"contest":7641,"watched":7642,"recorded":7643,"##enoord":7644,"fif":7645,"kur":7646,"tact":7647,"##ole":7648,"##gb":7649,"##uk":7650,"##inger":7651,"##stone":7652,"alph":7653,"killing":7654,"terrorism":7655,"carolina":7656,"egy":7657,"rope":7658,"rural":7659,"vit":7660,"##ashing":7661,"##oween":7662,"##elled":7663,"spons":7664,"puts":7665,"conclud":7666,"discrim":7667,"labour":7668,"committed":7669,"customer":7670,"floral":7671,"narrow":7672,"angeles":7673,"gam":7674,"wid":7675,"whist":7676,"presence":7677,"holds":7678,"patrick":7679,"electron":7680,"connection":7681,"##gor":7682,"##icated":7683,"##arko":7684,"budd":7685,"loved":7686,"taller":7687,"cycle":7688,"brazil":7689,"ast":7690,"ray":7691,"shiny":7692,"mickey":7693,"summ":7694,"buying":7695,"racing":7696,"##etti":7697,"purchase":7698,"oatmeal":7699,"virginia":7700,"##itation":7701,"##isher":7702,"rod":7703,"##angular":7704,"earn":7705,"floppy":7706,"##going":7707,"halloween":7708,"maxim":7709,"mushrooms":7710,"bacon":7711,"ire":7712,"luck":7713,"##rog":7714,"harder":7715,"eval":7716,"charged":7717,"potentially":7718,"sticks":7719,"devices":7720,"philos":7721,"fuel":7722,"##bour":7723,"##nda":7724,"##itory":7725,"##lement":7726,"writ":7727,"sliced":7728,"capacity":7729,"##bye":7730,"affected":7731,"votes":7732,"guns":7733,"##uffy":7734,"organizations":7735,"assemb":7736,"egypt":7737,"##usk":7738,"##icted":7739,"muff":7740,"treas":7741,"pigs":7742,"linked":7743,"alternative":7744,"1st":7745,"bound":7746,"mort":7747,"##wor":7748,"##va":7749,"heav":7750,"pear":7751,"knowing":7752,"breed":7753,"param":7754,"technical":7755,"presented":7756,"hurts":7757,"panc":7758,"till":7759,"wik":7760,"anth":7761,"##road":7762,"##rif":7763,"engage":7764,"internal":7765,"microsoft":7766,"approximately":7767,"tourn":7768,"wound":7769,"soda":7770,"##rier":7771,"afghan":7772,"cheap":7773,"evil":7774,"sample":7775,"powder":7776,"lau":7777,"##uous":7778,"##acing":7779,"seed":7780,"shining":7781,"spark":7782,"taught":7783,"polar":7784,"bowls":7785,"depart":7786,"positions":7787,"##onym":7788,"layer":7789,"videos":7790,"voted":7791,"attempts":7792,"occurred":7793,"dyn":7794,"una":7795,"##uish":7796,"##ye":7797,"##arian":7798,"waste":7799,"scot":7800,"veggies":7801,"toot":7802,"##arant":7803,"chip":7804,"instance":7805,"taxes":7806,"palm":7807,"ladder":7808,"gum":7809,"jay":7810,"##ded":7811,"##ias":7812,"##fish":7813,"stool":7814,"##ella":7815,"neur":7816,"##olic":7817,"goodbye":7818,"writes":7819,"factor":7820,"circum":7821,"soldiers":7822,"ore":7823,"rs":7824,"allig":7825,"farthest":7826,"compr":7827,"subur":7828,"picking":7829,"squir":7830,"factors":7831,"elected":7832,"ceo":7833,"drugs":7834,"sector":7835,"entertainment":7836,"##asy":7837,"ancient":7838,"aband":7839,"aggress":7840,"##gged":7841,"penny":7842,"appearance":7843,"picnic":7844,"circus":7845,"complexity":7846,"francisco":7847,"insurance":7848,"cel":7849,"mun":7850,"mental":7851,"nana":7852,"##oh":7853,"##mat":7854,"##cher":7855,"brothers":7856,"knees":7857,"buddy":7858,"politicians":7859,"ot":7860,"sab":7861,"##illing":7862,"##aham":7863,"consult":7864,"widely":7865,"nuts":7866,"literally":7867,"nasa":7868,"sausage":7869,"##hl":7870,"##uster":7871,"complic":7872,"interf":7873,"reference":7874,"fishing":7875,"promise":7876,"helmets":7877,"funds":7878,"skiing":7879,"nyarko":7880,"batt":7881,"jail":7882,"som":7883,"aside":7884,"supporting":7885,"cultural":7886,"osc":7887,"##cious":7888,"seasons":7889,"shh":7890,"noticed":7891,"##roph":7892,"persp":7893,"joint":7894,"mini":7895,"founder":7896,"paris":7897,"exciting":7898,"hyp":7899,"publish":7900,"circles":7901,"satisf":7902,"branches":7903,"travis":7904,"bent":7905,"bik":7906,"##rad":7907,"##real":7908,"armed":7909,"writer":7910,"sweats":7911,"subs":7912,"rocking":7913,"entry":7914,"australian":7915,"ugly":7916,"nomin":7917,"##oms":7918,"##agh":7919,"daylight":7920,"remained":7921,"element":7922,"fired":7923,"kitten":7924,"coalition":7925,"bbc":7926,"##acle":7927,"lee":7928,"alive":7929,"realize":7930,"motiv":7931,"rachel":7932,"thir":7933,"##icial":7934,"forms":7935,"fraser":7936,"##isted":7937,"farmer":7938,"emph":7939,"steam":7940,"knocked":7941,"weapon":7942,"spinach":7943,"ceramic":7944,"bars":7945,"##ani":7946,"stood":7947,"##agues":7948,"penal":7949,"typically":7950,"gaming":7951,"##makers":7952,"grape":7953,"##arest":7954,"##izz":7955,"##phones":7956,"governments":7957,"profit":7958,"ernie":7959,"methods":7960,"##ienced":7961,"belongs":7962,"shelves":7963,"lobby":7964,"saudi":7965,"85":7966,"pure":7967,"##die":7968,"##inn":7969,"chart":7970,"brian":7971,"worried":7972,"guarant":7973,"drawer":7974,"surprising":7975,"bul":7976,"boot":7977,"ky":7978,"vent":7979,"##wa":7980,"##ards":7981,"##ansas":7982,"emp":7983,"visual":7984,"cannab":7985,"refused":7986,"located":7987,"jenn":7988,"split":7989,"raisins":7990,"gym":7991,"appreci":7992,"bone":7993,"bark":7994,"##kers":7995,"stable":7996,"asia":7997,"intended":7998,"elim":7999,"desert":8000,"tempor":8001,"strawberries":8002,"premier":8003,"proposal":8004,"##18":8005,"##ico":8006,"prospect":8007,"##essions":8008,"flood":8009,"##ivia":8010,"extend":8011,"loose":8012,"increasingly":8013,"ministry":8014,"linux":8015,"residential":8016,"cind":8017,"##isa":8018,"##oma":8019,"shares":8020,"seeking":8021,"flu":8022,"concl":8023,"leads":8024,"engineering":8025,"owls":8026,"trailer":8027,"aqu":8028,"upset":8029,"usual":8030,"phones":8031,"charles":8032,"parall":8033,"ireland":8034,"cd":8035,"ft":8036,"gap":8037,"tad":8038,"##ox":8039,"##imp":8040,"proced":8041,"wrap":8042,"blocking":8043,"##ribute":8044,"patient":8045,"argued":8046,"wedding":8047,"complain":8048,"fifty":8049,"jour":8050,"mask":8051,"pak":8052,"##aa":8053,"##32":8054,"fries":8055,"woods":8056,"disappoint":8057,"rig":8058,"##fc":8059,"##enn":8060,"haha":8061,"agent":8062,"pray":8063,"quot":8064,"secure":8065,"combined":8066,"miller":8067,"patterns":8068,"numerous":8069,"icing":8070,"##ront":8071,"inch":8072,"dock":8073,"fey":8074,"offering":8075,"schol":8076,"confidence":8077,"artist":8078,"ticket":8079,"ruff":8080,"speaker":8081,"remaining":8082,"bomb":8083,"italy":8084,"analyst":8085,"wolf":8086,"troops":8087,"fred":8088,"mice":8089,"od":8090,"##night":8091,"exhib":8092,"unclear":8093,"default":8094,"statements":8095,"2002":8096,"classic":8097,"error":8098,"combination":8099,"controller":8100,"cia":8101,"lord":8102,"##30":8103,"##edge":8104,"##stal":8105,"dial":8106,"2004":8107,"suffered":8108,"spectators":8109,"jav":8110,"##uations":8111,"unus":8112,"bubble":8113,"columb":8114,"hoc":8115,"##athers":8116,"investors":8117,"practices":8118,"crossing":8119,"accompl":8120,"category":8121,"400":8122,"##stream":8123,"acting":8124,"hills":8125,"robot":8126,"audio":8127,"terrorist":8128,"bure":8129,"ketch":8130,"wis":8131,"youth":8132,"deploy":8133,"abortion":8134,"scores":8135,"retire":8136,"hydrant":8137,"piano":8138,"##mes":8139,"revenue":8140,"intent":8141,"holder":8142,"defence":8143,"greatest":8144,"essential":8145,"gang":8146,"hint":8147,"yer":8148,"yucky":8149,"flow":8150,"agencies":8151,"##pending":8152,"remove":8153,"emb":8154,"marg":8155,"viet":8156,"ruling":8157,"initially":8158,"challenges":8159,"matters":8160,"punch":8161,"wins":8162,"anne":8163,"moves":8164,"##umin":8165,"##uls":8166,"tear":8167,"myth":8168,"##weight":8169,"chairman":8170,"horiz":8171,"feeding":8172,"experiment":8173,"alligator":8174,"ketchup":8175,"eld":8176,"il":8177,"ya":8178,"clar":8179,"bother":8180,"eaten":8181,"stayed":8182,"harry":8183,"doctors":8184,"consumer":8185,"schedul":8186,"3d":8187,"ale":8188,"rising":8189,"valley":8190,"##point":8191,"##19":8192,"##ati":8193,"##gend":8194,"dee":8195,"outl":8196,"proceed":8197,"relax":8198,"##engers":8199,"vanilla":8200,"cabinets":8201,"conducted":8202,"license":8203,"ties":8204,"##aven":8205,"grayish":8206,"breath":8207,"deput":8208,"advance":8209,"employment":8210,"updates":8211,"regardless":8212,"potatoes":8213,"blinds":8214,"neutral":8215,"56":8216,"boss":8217,"kay":8218,"lane":8219,"cous":8220,"personally":8221,"creative":8222,"##ertain":8223,"universe":8224,"updated":8225,"rubber":8226,"substant":8227,"chemical":8228,"storage":8229,"dusk":8230,"whee":8231,"##ionally":8232,"abc":8233,"comic":8234,"examples":8235,"blurred":8236,"kingdom":8237,"drawn":8238,"astr":8239,"edition":8240,"transp":8241,"developers":8242,"formula":8243,"matty":8244,"utens":8245,"conservatives":8246,"italian":8247,"route":8248,"emphas":8249,"paved":8250,"##mos":8251,"megan":8252,"ali":8253,"obsc":8254,"termin":8255,"memor":8256,"turk":8257,"castle":8258,"##front":8259,"renew":8260,"sweatshirt":8261,"##bel":8262,"alco":8263,"expans":8264,"auto":8265,"screens":8266,"experienced":8267,"awful":8268,"satell":8269,"holiday":8270,"##yard":8271,"##lets":8272,"isis":8273,"bending":8274,"topic":8275,"intr":8276,"contrast":8277,"handed":8278,"##ensions":8279,"sits":8280,"lovely":8281,"rescue":8282,"cush":8283,"fbi":8284,"kites":8285,"poop":8286,"rally":8287,"##aly":8288,"reserve":8289,"hardly":8290,"chef":8291,"carefully":8292,"thirsty":8293,"feyenoord":8294,"fool":8295,"oak":8296,"##ja":8297,"##oman":8298,"##arters":8299,"playoff":8300,"warning":8301,"grassy":8302,"fixing":8303,"increases":8304,"properly":8305,"protesters":8306,"terrif":8307,"dismiss":8308,"bert":8309,"native":8310,"##oty":8311,"scoo":8312,"diss":8313,"bits":8314,"advent":8315,"rectangular":8316,"estimated":8317,"circumst":8318,"vietnam":8319,"05":8320,"##uces":8321,"rein":8322,"shots":8323,"bloom":8324,"cham":8325,"somehow":8326,"gotten":8327,"ourselves":8328,"dram":8329,"##ucing":8330,"filed":8331,"harv":8332,"entered":8333,"essentially":8334,"surrounding":8335,"dur":8336,"kir":8337,"pier":8338,"##lers":8339,"##itect":8340,"crimes":8341,"newslet":8342,"landing":8343,"declared":8344,"perspective":8345,"##gment":8346,"##van":8347,"##chool":8348,"trig":8349,"arth":8350,"cole":8351,"greenish":8352,"newer":8353,"amanda":8354,"hardwood":8355,"regime":8356,"subsequ":8357,"discount":8358,"ordered":8359,"soul":8360,"franklin":8361,"mahiro":8362,"vulner":8363,"##under":8364,"reaction":8365,"suc":8366,"mode":8367,"bron":8368,"yemen":8369,"##orted":8370,"elev":8371,"closely":8372,"jackson":8373,"extent":8374,"150":8375,"completed":8376,"advice":8377,"violent":8378,"featured":8379,"communication":8380,"temperature":8381,"bor":8382,"cage":8383,"jess":8384,"##tail":8385,"ish":8386,"frustr":8387,"nearest":8388,"greens":8389,"cheer":8390,"critics":8391,"observ":8392,"talent":8393,"suspend":8394,"fifth":8395,"morm":8396,"ouch":8397,"##mont":8398,"nov":8399,"##amental":8400,"legend":8401,"##abe":8402,"bride":8403,"##ulous":8404,"beds":8405,"factory":8406,"datab":8407,"boost":8408,"scrub":8409,"involve":8410,"puppet":8411,"alcohol":8412,"las":8413,"##oll":8414,"##well":8415,"##rep":8416,"##cho":8417,"##roit":8418,"fried":8419,"##abet":8420,"distant":8421,"extended":8422,"entr":8423,"furthest":8424,"operating":8425,"volume":8426,"splash":8427,"applications":8428,"teachers":8429,"ay":8430,"fuck":8431,"##bn":8432,"chug":8433,"##abilities":8434,"prove":8435,"units":8436,"perman":8437,"finance":8438,"parade":8439,"easter":8440,"explan":8441,"opposed":8442,"necessarily":8443,"dingo":8444,"lawyer":8445,"princess":8446,"daniel":8447,"lick":8448,"shout":8449,"brings":8450,"##xture":8451,"shovel":8452,"thoughts":8453,"campus":8454,"##standing":8455,"significantly":8456,"admitted":8457,"communications":8458,"whistle":8459,"heavily":8460,"cnn":8461,"root":8462,"##tion":8463,"##inals":8464,"candle":8465,"orient":8466,"reduced":8467,"ages":8468,"##grap":8469,"crunch":8470,"follows":8471,"pengu":8472,"discl":8473,"awes":8474,"frozen":8475,"bills":8476,"burg":8477,"hopes":8478,"expressed":8479,"##ributed":8480,"consumers":8481,"62":8482,"gaz":8483,"sought":8484,"##stick":8485,"suits":8486,"##abil":8487,"offense":8488,"##iped":8489,"incor":8490,"##upid":8491,"snowing":8492,"functions":8493,"##ologies":8494,"apron":8495,"hambur":8496,"sentence":8497,"statue":8498,"victor":8499,"merry":8500,"architect":8501,"lawsuit":8502,"uncertain":8503,"ribbon":8504,"journey":8505,"pakistan":8506,"4th":8507,"pats":8508,"##tie":8509,"##iable":8510,"##ippers":8511,"##esh":8512,"ongoing":8513,"##ello":8514,"golf":8515,"findings":8516,"##attered":8517,"climbing":8518,"fundamental":8519,"mitt":8520,"##vor":8521,"##rels":8522,"ing":8523,"##see":8524,"forty":8525,"withd":8526,"phase":8527,"glue":8528,"opens":8529,"legit":8530,"detroit":8531,"explo":8532,"valid":8533,"delay":8534,"uniforms":8535,"institutions":8536,"responded":8537,"ariz":8538,"60s":8539,"tel":8540,"##mates":8541,"##ito":8542,"yout":8543,"##omer":8544,"wears":8545,"suv":8546,"resol":8547,"lighter":8548,"radical":8549,"teenagers":8550,"squee":8551,"escape":8552,"gm":8553,"iphone":8554,"##here":8555,"##ams":8556,"chim":8557,"contains":8558,"emails":8559,"everyday":8560,"regener":8561,"capable":8562,"passengers":8563,"containers":8564,"ukr":8565,"injured":8566,"sustain":8567,"bah":8568,"cos":8569,"lt":8570,"##born":8571,"##cling":8572,"underst":8573,"server":8574,"caps":8575,"corrupt":8576,"debut":8577,"discussed":8578,"destr":8579,"opportunities":8580,"amazon":8581,"galax":8582,"63":8583,"nba":8584,"session":8585,"##thy":8586,"mos":8587,"##phere":8588,"household":8589,"regional":8590,"reporters":8591,"collabor":8592,"umbrell":8593,"argue":8594,"honor":8595,"champion":8596,"spells":8597,"vacation":8598,"auntie":8599,"pedest":8600,"katie":8601,"sprinkles":8602,"##donald":8603,"cried":8604,"mp":8605,"tony":8606,"##iant":8607,"##oodle":8608,"peep":8609,"##rage":8610,"crown":8611,"headed":8612,"sweep":8613,"prize":8614,"err":8615,"napkins":8616,"michigan":8617,"pleas":8618,"hunt":8619,"pi":8620,"##ancy":8621,"peel":8622,"treated":8623,"192":8624,"marc":8625,"rolled":8626,"reportedly":8627,"enemy":8628,"jord":8629,"kelly":8630,"tone":8631,"##word":8632,"##iot":8633,"beck":8634,"stom":8635,"rightmost":8636,"brook":8637,"ohio":8638,"allen":8639,"colorado":8640,"warned":8641,"advis":8642,"importance":8643,"description":8644,"competitive":8645,"historical":8646,"academic":8647,"transportation":8648,"festival":8649,"pit":8650,"##py":8651,"##pass":8652,"hispan":8653,"dipl":8654,"resolution":8655,"pasta":8656,"thousand":8657,"pacific":8658,"awesome":8659,"57":8660,"bak":8661,"##bell":8662,"##inating":8663,"##itors":8664,"ford":8665,"crab":8666,"disney":8667,"edges":8668,"regist":8669,"davis":8670,"declined":8671,"##greg":8672,"honestly":8673,"dun":8674,"fasc":8675,"sed":8676,"troll":8677,"##ost":8678,"##iber":8679,"##ua":8680,"##je":8681,"gov":8682,"plum":8683,"clut":8684,"teal":8685,"appeal":8686,"barrel":8687,"hotdog":8688,"links":8689,"assistant":8690,"merely":8691,"59":8692,"bage":8693,"##uum":8694,"depth":8695,"activists":8696,"existence":8697,"moral":8698,"index":8699,"therap":8700,"ain":8701,"cough":8702,"hr":8703,"rhy":8704,"##zel":8705,"##cution":8706,"##esis":8707,"whit":8708,"shorter":8709,"upgr":8710,"phen":8711,"sym":8712,"foods":8713,"driven":8714,"affairs":8715,"relevant":8716,"unlikely":8717,"virtual":8718,"tournament":8719,"umbrellas":8720,"##esy":8721,"##icop":8722,"doz":8723,"blowing":8724,"proof":8725,"kevin":8726,"balloons":8727,"decre":8728,"winner":8729,"opponents":8730,"causing":8731,"enterpr":8732,"danny":8733,"muslims":8734,"schedule":8735,"incredible":8736,"vitam":8737,"oscar":8738,"jennifer":8739,"naked":8740,"om":8741,"pant":8742,"##dp":8743,"##vey":8744,"stupid":8745,"lew":8746,"spagh":8747,"peas":8748,"readers":8749,"holly":8750,"worker":8751,"facility":8752,"causes":8753,"alongside":8754,"promin":8755,"describe":8756,"tort":8757,"perfectly":8758,"impressive":8759,"appropriate":8760,"cig":8761,"latter":8762,"races":8763,"wisc":8764,"shit":8765,"staring":8766,"##esty":8767,"##ulations":8768,"gra":8769,"signal":8770,"distribution":8771,"simpl":8772,"films":8773,"duckie":8774,"piggie":8775,"unsure":8776,"applied":8777,"##respond":8778,"afghanistan":8779,"hockey":8780,"##grapher":8781,"wires":8782,"meal":8783,"reporting":8784,"correspond":8785,"rupe":8786,"soldier":8787,"swinging":8788,"flags":8789,"severe":8790,"comparison":8791,"jewish":8792,"youtube":8793,"stomach":8794,"ht":8795,"jill":8796,"rif":8797,"##gi":8798,"forum":8799,"chat":8800,"fruits":8801,"algor":8802,"sheets":8803,"defined":8804,"obl":8805,"respective":8806,"transition":8807,"deaths":8808,"syrian":8809,"lobster":8810,"manufactur":8811,"kit":8812,"lined":8813,"tons":8814,"shield":8815,"##eller":8816,"orch":8817,"roger":8818,"moments":8819,"helicop":8820,"confident":8821,"steven":8822,"listed":8823,"prompt":8824,"universal":8825,"agenda":8826,"injuries":8827,"materials":8828,"confirm":8829,"expansion":8830,"algorith":8831,"rim":8832,"rider":8833,"vr":8834,"##gia":8835,"##bits":8836,"##16":8837,"##onic":8838,"iter":8839,"blk":8840,"hazy":8841,"##opher":8842,"theme":8843,"sunset":8844,"trevor":8845,"##onsin":8846,"conscious":8847,"tested":8848,"classes":8849,"combat":8850,"liberty":8851,"##heart":8852,"henry":8853,"wisconsin":8854,"58":8855,"dug":8856,"jac":8857,"##rical":8858,"##rison":8859,"##can":8860,"##iration":8861,"stall":8862,"##agn":8863,"adapt":8864,"carn":8865,"cargo":8866,"interse":8867,"ending":8868,"marks":8869,"##whel":8870,"pots":8871,"calcul":8872,"explos":8873,"percentage":8874,"trading":8875,"spotted":8876,"accepted":8877,"amendment":8878,"deputy":8879,"cens":8880,"##west":8881,"##mel":8882,"##omen":8883,"suck":8884,"##boat":8885,"signing":8886,"nicely":8887,"boop":8888,"batteries":8889,"hopefully":8890,"trunks":8891,"defeat":8892,"writers":8893,"72":8894,"74":8895,"ax":8896,"cave":8897,"mas":8898,"whale":8899,"nood":8900,"lies":8901,"yellowish":8902,"correl":8903,"##iami":8904,"closing":8905,"boards":8906,"packed":8907,"latin":8908,"delivered":8909,"##iciency":8910,"patsy":8911,"squeeze":8912,"ic":8913,"ses":8914,"##sl":8915,"##xual":8916,"##oul":8917,"##lying":8918,"haired":8919,"whenever":8920,"imper":8921,"laid":8922,"refere":8923,"judy":8924,"formal":8925,"stephen":8926,"batht":8927,"subjects":8928,"khaki":8929,"assuming":8930,"punish":8931,"arizona":8932,"jordan":8933,"bamb":8934,"dall":8935,"ga":8936,"isol":8937,"##ador":8938,"pref":8939,"costume":8940,"taxi":8941,"traditions":8942,"pretending":8943,"announcement":8944,"glazed":8945,"dozens":8946,"groom":8947,"tu":8948,"##12":8949,"manning":8950,"adds":8951,"crust":8952,"snoop":8953,"explains":8954,"organized":8955,"denied":8956,"hoping":8957,"##itarian":8958,"inspired":8959,"ambul":8960,"wrapped":8961,"controversial":8962,"unusual":8963,"josh":8964,"vary":8965,"##bles":8966,"habit":8967,"confront":8968,"irish":8969,"locked":8970,"lone":8971,"tang":8972,"##rot":8973,"##vit":8974,"##onom":8975,"##igation":8976,"persons":8977,"eats":8978,"resting":8979,"collective":8980,"fields":8981,"spray":8982,"erin":8983,"neckl":8984,"olivia":8985,"mexican":8986,"granite":8987,"hippo":8988,"cherry":8989,"arthur":8990,"pope":8991,"voc":8992,"##ml":8993,"##bard":8994,"##fall":8995,"##lend":8996,"blame":8997,"brun":8998,"spain":8999,"scare":9000,"polka":9001,"##lands":9002,"chrome":9003,"rocket":9004,"authors":9005,"marketing":9006,"represents":9007,"surveill":9008,"shrub":9009,"korean":9010,"mathem":9011,"buddh":9012,"kings":9013,"tum":9014,"##lli":9015,"inher":9016,"depending":9017,"ups":9018,"alert":9019,"coats":9020,"hadn":9021,"holl":9022,"wrist":9023,"creation":9024,"creep":9025,"monkeys":9026,"retail":9027,"puff":9028,"criticism":9029,"allegedly":9030,"noodles":9031,"bones":9032,"luc":9033,"##eer":9034,"##cery":9035,"##reh":9036,"degre":9037,"##sole":9038,"glove":9039,"##ologist":9040,"transm":9041,"1998":9042,"estimates":9043,"territory":9044,"degrees":9045,"cable":9046,"foss":9047,"nat":9048,"rip":9049,"##14":9050,"holy":9051,"thrown":9052,"sandbox":9053,"fallen":9054,"squirt":9055,"explor":9056,"effectively":9057,"promised":9058,"checkered":9059,"ranking":9060,"coaches":9061,"fuzzy":9062,"surveillance":9063,"dick":9064,"jason":9065,"kil":9066,"miami":9067,"##cript":9068,"##inity":9069,"soil":9070,"prohib":9071,"##employ":9072,"emily":9073,"advertising":9074,"immigrants":9075,"registered":9076,"spaghetti":9077,"crib":9078,"gab":9079,"##uated":9080,"chose":9081,"britt":9082,"overwhel":9083,"scored":9084,"lois":9085,"midday":9086,"cheek":9087,"distinct":9088,"realized":9089,"artific":9090,"sorts":9091,"##ternal":9092,"stronger":9093,"improved":9094,"attempted":9095,"progressive":9096,"arrange":9097,"scheme":9098,"bathtub":9099,"jung":9100,"pave":9101,"ts":9102,"zip":9103,"##pay":9104,"##jo":9105,"selection":9106,"sole":9107,"demo":9108,"config":9109,"approved":9110,"choices":9111,"properties":9112,"printed":9113,"institution":9114,"delivery":9115,"vacuum":9116,"puppies":9117,"rooster":9118,"hispanic":9119,"cater":9120,"pd":9121,"sony":9122,"beads":9123,"plot":9124,"##usse":9125,"blueberries":9126,"emissions":9127,"stew":9128,"publicly":9129,"raising":9130,"strongly":9131,"wondering":9132,"definition":9133,"suffering":9134,"guardian":9135,"quarterback":9136,"orders":9137,"partnership":9138,"refugees":9139,"hip":9140,"oval":9141,"##mans":9142,"##rich":9143,"render":9144,"maker":9145,"gloom":9146,"disag":9147,"desper":9148,"pictured":9149,"subway":9150,"barack":9151,"facts":9152,"experiences":9153,"goose":9154,"kicking":9155,"constitutional":9156,"consequences":9157,"##oured":9158,"##isms":9159,"##unte":9160,"kne":9161,"goods":9162,"interv":9163,"sweat":9164,"squad":9165,"physics":9166,"volunte":9167,"crackers":9168,"targets":9169,"cruz":9170,"patches":9171,"puddle":9172,"subsid":9173,"cannabis":9174,"rupee":9175,"ka":9176,"lyn":9177,"##rid":9178,"##uable":9179,"##17":9180,"##osen":9181,"backyard":9182,"brownwood":9183,"scoring":9184,"##athy":9185,"##mingly":9186,"immediate":9187,"tantric":9188,"flavor":9189,"diplom":9190,"eag":9191,"ought":9192,"pens":9193,"tires":9194,"vert":9195,"##alt":9196,"##ched":9197,"backed":9198,"agents":9199,"pover":9200,"intention":9201,"embr":9202,"drone":9203,"struck":9204,"highway":9205,"genetic":9206,"menu":9207,"steep":9208,"forever":9209,"threats":9210,"normally":9211,"cyber":9212,"encoun":9213,"##roller":9214,"grocery":9215,"tackle":9216,"maximum":9217,"rides":9218,"##ran":9219,"##erves":9220,"##cha":9221,"##ros":9222,"spaces":9223,"guil":9224,"ads":9225,"scand":9226,"reads":9227,"acts":9228,"disaster":9229,"eliz":9230,"interior":9231,"reporter":9232,"shortly":9233,"##pson":9234,"steak":9235,"directed":9236,"discip":9237,"controls":9238,"protests":9239,"observed":9240,"fantasy":9241,"galaxy":9242,"cad":9243,"dcs":9244,"##zo":9245,"##oral":9246,"##orse":9247,"dol":9248,"coke":9249,"divers":9250,"apps":9251,"fluffy":9252,"empire":9253,"reput":9254,"sword":9255,"nighttime":9256,"curious":9257,"arts":9258,"meetings":9259,"matching":9260,"##friend":9261,"requirements":9262,"consistent":9263,"laund":9264,"utensils":9265,"circumstances":9266,"jr":9267,"ni":9268,"##rum":9269,"##bug":9270,"##atos":9271,"chant":9272,"chase":9273,"chosen":9274,"##ophy":9275,"##umes":9276,"unw":9277,"flour":9278,"skies":9279,"evolution":9280,"officially":9281,"rocky":9282,"messages":9283,"returning":9284,"compete":9285,"machines":9286,"duty":9287,"detailed":9288,"scheduled":9289,"ak":9290,"dc":9291,"ee":9292,"jur":9293,"ric":9294,"tam":9295,"##zing":9296,"theo":9297,"sequ":9298,"##inky":9299,"brad":9300,"worm":9301,"##ressed":9302,"##ogue":9303,"evol":9304,"bricks":9305,"constant":9306,"regulations":9307,"incredibly":9308,"02":9309,"godd":9310,"spit":9311,"saved":9312,"ariel":9313,"continuing":9314,"##print":9315,"colleagues":9316,"exception":9317,"struggle":9318,"folks":9319,"palestinian":9320,"understood":9321,"ais":9322,"##rary":9323,"##sen":9324,"##col":9325,"thor":9326,"onion":9327,"seattle":9328,"##thood":9329,"gram":9330,"graham":9331,"##ours":9332,"quit":9333,"sliding":9334,"ideology":9335,"approval":9336,"##aws":9337,"washed":9338,"electricity":9339,"assistance":9340,"electronic":9341,"gord":9342,"tips":9343,"##ication":9344,"##icide":9345,"sean":9346,"##otic":9347,"##erella":9348,"liver":9349,"elsewhere":9350,"checked":9351,"sams":9352,"titles":9353,"frequently":9354,"scenes":9355,"encourage":9356,"trigger":9357,"database":9358,"necklace":9359,"cot":9360,"gut":9361,"hits":9362,"yuck":9363,"outs":9364,"unemploy":9365,"desire":9366,"finds":9367,"curly":9368,"extension":9369,"chickens":9370,"engineer":9371,"versions":9372,"illustr":9373,"##chester":9374,"primarily":9375,"instrument":9376,"quantum":9377,"enclosure":9378,"entrance":9379,"poverty":9380,"800":9381,"han":9382,"nhl":9383,"##season":9384,"##char":9385,"excess":9386,"disrupt":9387,"preschool":9388,"fireplace":9389,"thread":9390,"util":9391,"polls":9392,"skinny":9393,"controlled":9394,"selected":9395,"frequency":9396,"interpret":9397,"acknowled":9398,"kong":9399,"khan":9400,"tes":9401,"tiled":9402,"inqu":9403,"stones":9404,"weeds":9405,"alien":9406,"manif":9407,"prote":9408,"compare":9409,"lawn":9410,"marked":9411,"worldwide":9412,"passion":9413,"promote":9414,"limits":9415,"networks":9416,"jamie":9417,"depends":9418,"hollywood":9419,"pavement":9420,"04":9421,"68":9422,"mild":9423,"##water":9424,"mans":9425,"grain":9426,"spilled":9427,"greg":9428,"##aret":9429,"roast":9430,"scan":9431,"loy":9432,"elite":9433,"marie":9434,"engines":9435,"apolog":9436,"pops":9437,"solo":9438,"landers":9439,"insight":9440,"hawai":9441,"horned":9442,"espn":9443,"commitment":9444,"assembly":9445,"cinderella":9446,"98":9447,"tut":9448,"##hun":9449,"ont":9450,"welf":9451,"anonym":9452,"##chair":9453,"chord":9454,"mole":9455,"##isters":9456,"coins":9457,"une":9458,"topics":9459,"##rence":9460,"landsc":9461,"motorcycles":9462,"olive":9463,"farmers":9464,"dutch":9465,"comedy":9466,"squirrel":9467,"columbia":9468,"##owa":9469,"bend":9470,"anger":9471,"fewer":9472,"squares":9473,"poster":9474,"roads":9475,"deeply":9476,"crossed":9477,"##aska":9478,"intellect":9479,"catholic":9480,"repeatedly":9481,"elder":9482,"ambulance":9483,"guilty":9484,"welfare":9485,"hul":9486,"jane":9487,"junk":9488,"lions":9489,"np":9490,"wick":9491,"sending":9492,"lip":9493,"lime":9494,"anna":9495,"##ishing":9496,"elbow":9497,"slope":9498,"sunlight":9499,"cents":9500,"##undy":9501,"countertop":9502,"claiming":9503,"tickets":9504,"##iffy":9505,"cartoon":9506,"independence":9507,"fifteen":9508,"67":9509,"gh":9510,"iq":9511,"rick":9512,"rasp":9513,"dod":9514,"##abeth":9515,"grade":9516,"##rian":9517,"bottoms":9518,"performed":9519,"preparing":9520,"precise":9521,"dedicated":9522,"parallel":9523,"lewis":9524,"doug":9525,"va":9526,"vel":9527,"##made":9528,"##rey":9529,"##otes":9530,"abd":9531,"peak":9532,"arrow":9533,"newly":9534,"amp":9535,"crick":9536,"bene":9537,"efficient":9538,"250":9539,"hearts":9540,"captured":9541,"liberals":9542,"ridic":9543,"historic":9544,"surrounded":9545,"discrimination":9546,"pancakes":9547,"scotland":9548,"cass":9549,"yield":9550,"##chain":9551,"brut":9552,"allies":9553,"abu":9554,"grid":9555,"putin":9556,"handles":9557,"cupcake":9558,"picks":9559,"mainstream":9560,"courts":9561,"sweetheart":9562,"vegetable":9563,"grover":9564,"ladies":9565,"conclusion":9566,"helicopter":9567,"rival":9568,"##des":9569,"theat":9570,"blo":9571,"formed":9572,"meg":9573,"client":9574,"worn":9575,"compens":9576,"contem":9577,"##anged":9578,"coloring":9579,"presum":9580,"exposed":9581,"dried":9582,"arguments":9583,"answers":9584,"awareness":9585,"linda":9586,"clifford":9587,"explanation":9588,"burgundy":9589,"snoopy":9590,"elizabeth":9591,"manifest":9592,"avenue":9593,"dal":9594,"hong":9595,"panda":9596,"##mother":9597,"topp":9598,"upcoming":9599,"bund":9600,"compreh":9601,"crank":9602,"artists":9603,"directions":9604,"rolls":9605,"humanity":9606,"racial":9607,"replaced":9608,"recognition":9609,"purposes":9610,"loading":9611,"zoomed":9612,"satellite":9613,"dallas":9614,"fault":9615,"fiction":9616,"jets":9617,"##win":9618,"##hs":9619,"myst":9620,"disord":9621,"heading":9622,"joy":9623,"photographer":9624,"##ifications":9625,"dealing":9626,"##odes":9627,"computers":9628,"ruled":9629,"clubs":9630,"sufficient":9631,"contributions":9632,"kurd":9633,"permanent":9634,"gloomy":9635,"03":9636,"73":9637,"aer":9638,"dies":9639,"goof":9640,"tuck":9641,"##hire":9642,"thro":9643,"heaven":9644,"stim":9645,"anx":9646,"chlor":9647,"enth":9648,"possession":9649,"assert":9650,"developer":9651,"condem":9652,"dawn":9653,"drove":9654,"crypt":9655,"risks":9656,"utility":9657,"narrative":9658,"academy":9659,"accurate":9660,"aspects":9661,"tigers":9662,"scooter":9663,"laundry":9664,"samsung":9665,"hans":9666,"mt":9667,"rating":9668,"shed":9669,"justin":9670,"ark":9671,"enorm":9672,"amy":9673,"polo":9674,"counting":9675,"catal":9676,"terry":9677,"strikes":9678,"concert":9679,"extrem":9680,"supports":9681,"stays":9682,"giants":9683,"patri":9684,"minds":9685,"beauty":9686,"replied":9687,"references":9688,"installed":9689,"scenario":9690,"complicated":9691,"jessica":9692,"lens":9693,"##pro":9694,"brows":9695,"feat":9696,"roster":9697,"monsters":9698,"lego":9699,"broc":9700,"stepped":9701,"province":9702,"christopher":9703,"romney":9704,"oliver":9705,"naturally":9706,"hindu":9707,"flex":9708,"ku":9709,"lisa":9710,"pent":9711,"rent":9712,"##ec":9713,"frag":9714,"sue":9715,"##apse":9716,"proved":9717,"pod":9718,"invited":9719,"warming":9720,"solutions":9721,"regularly":9722,"1999":9723,"attacked":9724,"macar":9725,"obser":9726,"referred":9727,"granted":9728,"comprom":9729,"76":9730,"cakes":9731,"nich":9732,"tas":9733,"##mic":9734,"andy":9735,"reward":9736,"sha":9737,"chop":9738,"fraud":9739,"conce":9740,"intense":9741,"phr":9742,"handful":9743,"drill":9744,"earned":9745,"strict":9746,"ump":9747,"confused":9748,"extensive":9749,"counsel":9750,"staying":9751,"versus":9752,"sanctions":9753,"amounts":9754,"abandoned":9755,"oz":9756,"woke":9757,"##gas":9758,"##asion":9759,"blues":9760,"##inkle":9761,"triple":9762,"conven":9763,"consp":9764,"capit":9765,"ideal":9766,"mustache":9767,"retrie":9768,"awoh":9769,"valent":9770,"receiving":9771,"lowest":9772,"kissing":9773,"spoons":9774,"ethnic":9775,"describes":9776,"priority":9777,"resource":9778,"artificial":9779,"69":9780,"61":9781,"hud":9782,"lun":9783,"sizes":9784,"tries":9785,"conver":9786,"console":9787,"pron":9788,"larry":9789,"relative":9790,"gene":9791,"classroom":9792,"taxpay":9793,"reasonable":9794,"indicate":9795,"estimate":9796,"sixt":9797,"dominant":9798,"mccain":9799,"subscribe":9800,"franch":9801,"toddler":9802,"succeed":9803,"gravel":9804,"eb":9805,"##gian":9806,"##etts":9807,"##keep":9808,"##ctic":9809,"brace":9810,"outcome":9811,"##osition":9812,"scoop":9813,"perce":9814,"emma":9815,"minnes":9816,"ladybug":9817,"retired":9818,"protected":9819,"catching":9820,"##osaurus":9821,"feedback":9822,"speakers":9823,"lamps":9824,"fantastic":9825,"##hunh":9826,"mum":9827,"vige":9828,"##har":9829,"##zard":9830,"##car":9831,"##oray":9832,"##eda":9833,"nomine":9834,"##etime":9835,"weigh":9836,"blast":9837,"cone":9838,"agric":9839,"surg":9840,"asks":9841,"priest":9842,"opponent":9843,"harass":9844,"yoga":9845,"roses":9846,"premium":9847,"kneeling":9848,"loyal":9849,"minnesota":9850,"vigeant":9851,"08":9852,"82":9853,"fought":9854,"karen":9855,"roots":9856,"##ody":9857,"##dri":9858,"##su":9859,"inse":9860,"chalk":9861,"pros":9862,"hooray":9863,"syr":9864,"breaks":9865,"stops":9866,"funded":9867,"moderate":9868,"bathing":9869,"targeted":9870,"reveal":9871,"ultimate":9872,"rusty":9873,"techniques":9874,"icon":9875,"ott":9876,"sessions":9877,"##esc":9878,"noisy":9879,"##uted":9880,"reven":9881,"seal":9882,"stamp":9883,"abstr":9884,"clue":9885,"dip":9886,"sometime":9887,"hardware":9888,"repair":9889,"##ologists":9890,"barb":9891,"patty":9892,"payment":9893,"technologies":9894,"returns":9895,"1996":9896,"cycling":9897,"circuit":9898,"employee":9899,"representative":9900,"drag":9901,"philosophy":9902,"##vania":9903,"withdraw":9904,"agricult":9905,"07":9906,"cuc":9907,"pul":9908,"pans":9909,"rattle":9910,"ves":9911,"##backs":9912,"yea":9913,"alliance":9914,"output":9915,"uncom":9916,"breast":9917,"situations":9918,"sweets":9919,"founded":9920,"payments":9921,"##ika":9922,"checking":9923,"tastes":9924,"celebrate":9925,"literature":9926,"virtually":9927,"alphabet":9928,"billy":9929,"miffy":9930,"oy":9931,"pork":9932,"vic":9933,"##arn":9934,"##ications":9935,"maisy":9936,"regions":9937,"detect":9938,"formation":9939,"landed":9940,"voices":9941,"capture":9942,"##syl":9943,"scholars":9944,"intersection":9945,"beneath":9946,"cucum":9947,"bj":9948,"iowa":9949,"nail":9950,"nato":9951,"nbc":9952,"rape":9953,"manip":9954,"grind":9955,"grav":9956,"overl":9957,"zeal":9958,"patio":9959,"resulting":9960,"##lson":9961,"similarly":9962,"massach":9963,"torn":9964,"emerged":9965,"losses":9966,"complaint":9967,"behavi":9968,"lawyers":9969,"pennsyl":9970,"destroyed":9971,"##ece":9972,"##pher":9973,"##erg":9974,"##alo":9975,"##ali":9976,"notable":9977,"manner":9978,"mak":9979,"reds":9980,"femin":9981,"edward":9982,"marvel":9983,"drives":9984,"facilities":9985,"harold":9986,"favour":9987,"deeper":9988,"journalists":9989,"enjoyed":9990,"chewing":9991,"ponytail":9992,"wrestling":9993,"oregon":9994,"mathemat":9995,"reputation":9996,"enthus":9997,"bass":9998,"echo":9999,"nah":10000,"rag":10001,"##hall":10002,"##bled":10003,"##icate":10004,"##ami":10005,"##iment":10006,"deer":10007,"##usetts":10008,"grill":10009,"scattered":10010,"amid":10011,"recipe":10012,"swall":10013,"pastry":10014,"templ":10015,"austin":10016,"georgia":10017,"folded":10018,"gathered":10019,"wiggle":10020,"enemies":10021,"massachusetts":10022,"mile":10023,"pitt":10024,"##rit":10025,"##uine":10026,"##care":10027,"noo":10028,"chugg":10029,"##ila":10030,"##ilit":10031,"alumin":10032,"herit":10033,"overse":10034,"serves":10035,"deficit":10036,"belief":10037,"engaged":10038,"musical":10039,"entit":10040,"locations":10041,"valuable":10042,"congressional":10043,"##burgh":10044,"hunhunh":10045,"cowboys":10046,"crawl":10047,"recovery":10048,"emotional":10049,"rapidly":10050,"cousin":10051,"ingred":10052,"bust":10053,"bind":10054,"kate":10055,"nerv":10056,"porn":10057,"##ped":10058,"##hou":10059,"##oric":10060,"weener":10061,"forfe":10062,"suite":10063,"##agan":10064,"actor":10065,"camel":10066,"creates":10067,"greyish":10068,"fourte":10069,"resulted":10070,"wireless":10071,"automatic":10072,"contributed":10073,"muffin":10074,"enterprise":10075,"brittany":10076,"pennsylvania":10077,"dna":10078,"tube":10079,"wre":10080,"input":10081,"##isan":10082,"##alf":10083,"heh":10084,"##sea":10085,"##abled":10086,"graff":10087,"graz":10088,"flick":10089,"##ifies":10090,"rooms":10091,"metall":10092,"assets":10093,"jumps":10094,"choke":10095,"samples":10096,"improvement":10097,"ignore":10098,"initiative":10099,"principles":10100,"prominent":10101,"wool":10102,"yah":10103,"##40":10104,"brave":10105,"saving":10106,"fees":10107,"##ilda":10108,"percy":10109,"jokes":10110,"invent":10111,"collected":10112,"cameras":10113,"firef":10114,"represented":10115,"accompan":10116,"sophie":10117,"mormon":10118,"hamburger":10119,"regenerative":10120,"pace":10121,"##lings":10122,"##hab":10123,"##igen":10124,"sew":10125,"##otte":10126,"forks":10127,"brushing":10128,"exit":10129,"colin":10130,"attended":10131,"offices":10132,"explicit":10133,"programming":10134,"anticip":10135,"biology":10136,"verb":10137,"visitors":10138,"relationships":10139,"minority":10140,"##gbt":10141,"hatch":10142,"lgbt":10143,"riv":10144,"bever":10145,"chances":10146,"exists":10147,"pregn":10148,"component":10149,"glor":10150,"sideways":10151,"decline":10152,"walks":10153,"walker":10154,"euro":10155,"equival":10156,"blankets":10157,"entering":10158,"prisoners":10159,"jonath":10160,"vulnerable":10161,"yo":10162,"##met":10163,"##33":10164,"##fire":10165,"##15":10166,"##iner":10167,"chuck":10168,"##cend":10169,"alice":10170,"spar":10171,"pride":10172,"joining":10173,"silence":10174,"##mod":10175,"floors":10176,"weekly":10177,"explore":10178,"cardboard":10179,"fighter":10180,"propag":10181,"terrorists":10182,"corporations":10183,"angel":10184,"decorations":10185,"pounds":10186,"suspended":10187,"hawaiian":10188,"loop":10189,"x64":10190,"##mies":10191,"##ester":10192,"beast":10193,"blah":10194,"neon":10195,"##umbs":10196,"bored":10197,"handling":10198,"metro":10199,"viewers":10200,"affili":10201,"damn":10202,"dreams":10203,"begun":10204,"inevit":10205,"obtained":10206,"allegations":10207,"jungle":10208,"gulf":10209,"mamm":10210,"naz":10211,"beaver":10212,"arena":10213,"suicide":10214,"##olis":10215,"##aping":10216,"personnel":10217,"colon":10218,"contribute":10219,"cromer":10220,"underground":10221,"##ogen":10222,"headband":10223,"raf":10224,"informed":10225,"discussions":10226,"bullet":10227,"flew":10228,"##oebe":10229,"adopted":10230,"exclusive":10231,"ukraine":10232,"77":10233,"cited":10234,"zipper":10235,"##rass":10236,"##rition":10237,"##cases":10238,"##veness":10239,"##udes":10240,"visited":10241,"swish":10242,"broom":10243,"collapse":10244,"##bridge":10245,"counterp":10246,"1994":10247,"representatives":10248,"responses":10249,"introduction":10250,"burned":10251,"iraqi":10252,"innoc":10253,"routine":10254,"peanuts":10255,"sheriff":10256,"sherlock":10257,"rejected":10258,"deleg":10259,"chamber":10260,"sesame":10261,"disagree":10262,"hers":10263,"kin":10264,"kle":10265,"ware":10266,"theore":10267,"token":10268,"##lyn":10269,"outstanding":10270,"reduction":10271,"feathers":10272,"flies":10273,"seth":10274,"demands":10275,"info":10276,"paras":10277,"constantly":10278,"reviews":10279,"threatened":10280,"requests":10281,"citizen":10282,"loaded":10283,"nursing":10284,"penalty":10285,"gordon":10286,"ontario":10287,"dent":10288,"fc":10289,"fisher":10290,"kl":10291,"##pu":10292,"##xit":10293,"ade":10294,"incl":10295,"embar":10296,"waff":10297,"relief":10298,"grounds":10299,"calf":10300,"democrat":10301,"figured":10302,"1997":10303,"practical":10304,"referring":10305,"ordinary":10306,"ipad":10307,"pineapp":10308,"strategic":10309,"cushion":10310,"therapy":10311,"goddess":10312,"enormous":10313,"fert":10314,"mant":10315,"waters":10316,"ank":10317,"##arts":10318,"phoebe":10319,"barrels":10320,"cleaner":10321,"monthly":10322,"parrot":10323,"promises":10324,"##works":10325,"islands":10326,"horns":10327,"principle":10328,"hypoth":10329,"phenomen":10330,"dugout":10331,"88":10332,"ginger":10333,"mast":10334,"ti":10335,"vanc":10336,"##dles":10337,"##iev":10338,"deals":10339,"abb":10340,"maggie":10341,"visiting":10342,"legacy":10343,"transit":10344,"pett":10345,"rounds":10346,"freight":10347,"operate":10348,"tasty":10349,"journalist":10350,"pads":10351,"implementation":10352,"porch":10353,"hubbard":10354,"bagel":10355,"wise":10356,"##ouver":10357,"lips":10358,"chunk":10359,"atmos":10360,"external":10361,"nowhere":10362,"vend":10363,"drunk":10364,"##rene":10365,"banned":10366,"lists":10367,"generate":10368,"filter":10369,"solve":10370,"modi":10371,"calend":10372,"denver":10373,"involving":10374,"##encer":10375,"hurric":10376,"dispens":10377,"manufacturing":10378,"sovere":10379,"sweden":10380,"olympic":10381,"sympt":10382,"shrubs":10383,"throat":10384,"09":10385,"87":10386,"97":10387,"ling":10388,"ripe":10389,"##ni":10390,"beak":10391,"##olit":10392,"pock":10393,"distract":10394,"blockchain":10395,"generated":10396,"receiver":10397,"hyper":10398,"racist":10399,"burning":10400,"survive":10401,"aimed":10402,"bumble":10403,"soviet":10404,"supplies":10405,"macaroni":10406,"79":10407,"81":10408,"96":10409,"baker":10410,"dave":10411,"gently":10412,"uber":10413,"##cur":10414,"whereas":10415,"cogn":10416,"tags":10417,"##agram":10418,"##quet":10419,"##iana":10420,"190":10421,"##shirt":10422,"squash":10423,"sixth":10424,"processing":10425,"##ugged":10426,"crowded":10427,"##burg":10428,"koala":10429,"globe":10430,"categories":10431,"bernie":10432,"technique":10433,"retirement":10434,"rifle":10435,"cotton":10436,"vancouver":10437,"atmosphere":10438,"86":10439,"vig":10440,"vect":10441,"toss":10442,"inspect":10443,"##alia":10444,"rely":10445,"##ooked":10446,"lev":10447,"knives":10448,"##essed":10449,"array":10450,"beta":10451,"silent":10452,"paws":10453,"passes":10454,"##ounced":10455,"christie":10456,"kisses":10457,"threatening":10458,"prepare":10459,"extraord":10460,"discovery":10461,"sensitive":10462,"instructions":10463,"concluded":10464,"newsletter":10465,"destruction":10466,"dying":10467,"##eenth":10468,"##ader":10469,"##celer":10470,"##osis":10471,"slippers":10472,"obam":10473,"pickup":10474,"maine":10475,"sandwiches":10476,"cycl":10477,"societ":10478,"##haust":10479,"jerry":10480,"unders":10481,"##ihad":10482,"mixture":10483,"anthony":10484,"600":10485,"boring":10486,"dor":10487,"##bia":10488,"beating":10489,"seated":10490,"stroller":10491,"blouse":10492,"bra":10493,"fee":10494,"surely":10495,"##inson":10496,"footage":10497,"dolls":10498,"##augh":10499,"drops":10500,"smartphone":10501,"introduce":10502,"luke":10503,"borders":10504,"graphics":10505,"wigg":10506,"controversy":10507,"tabby":10508,"veteran":10509,"aggressive":10510,"nervous":10511,"700":10512,"iii":10513,"mood":10514,"tay":10515,"##mons":10516,"##rr":10517,"##██":10518,"##inter":10519,"##idency":10520,"revel":10521,"chel":10522,"bry":10523,"snee":10524,"distur":10525,"genuine":10526,"dresser":10527,"testim":10528,"estate":10529,"tails":10530,"statistics":10531,"advocates":10532,"unemployment":10533,"wore":10534,"wrench":10535,"##lah":10536,"##dr":10537,"##igible":10538,"##iler":10539,"mold":10540,"exhaust":10541,"browns":10542,"overhead":10543,"recru":10544,"##bod":10545,"attitude":10546,"feelings":10547,"publication":10548,"deliber":10549,"absor":10550,"screwdri":10551,"forgotten":10552,"pouring":10553,"crucial":10554,"baaee":10555,"ninet":10556,"trends":10557,"concentrating":10558,"appointed":10559,"terrific":10560,"abstract":10561,"graffiti":10562,"equivalent":10563,"hut":10564,"wides":10565,"##pill":10566,"bluish":10567,"##rol":10568,"alter":10569,"elsa":10570,"watermel":10571,"acceler":10572,"beliefs":10573,"simult":10574,"assass":10575,"pottie":10576,"pickle":10577,"efficiency":10578,"win64":10579,"freezer":10580,"1990s":10581,"divided":10582,"struggling":10583,"fortun":10584,"highlights":10585,"resistance":10586,"clinical":10587,"vertical":10588,"conspir":10589,"pockets":10590,"kansas":10591,"nonna":10592,"##eed":10593,"##yer":10594,"##inator":10595,"##ouri":10596,"inner":10597,"manchester":10598,"proven":10599,"letting":10600,"##bec":10601,"##iper":10602,"##orship":10603,"resign":10604,"booksh":10605,"drones":10606,"brexit":10607,"define":10608,"consens":10609,"foggy":10610,"legos":10611,"floating":10612,"lawmakers":10613,"snowy":10614,"##ampa":10615,"protocol":10616,"gerry":10617,"##enging":10618,"investigators":10619,"convin":10620,"maple":10621,"graduate":10622,"temporary":10623,"caterpill":10624,"simultane":10625,"78":10626,"84":10627,"fisc":10628,"faded":10629,"gains":10630,"ml":10631,"tac":10632,"##oise":10633,"##woman":10634,"##ystem":10635,"##rell":10636,"toad":10637,"bees":10638,"brill":10639,"##aining":10640,"hash":10641,"##agger":10642,"prey":10643,"compound":10644,"disting":10645,"##cod":10646,"courtesy":10647,"tallest":10648,"format":10649,"norman":10650,"campaigns":10651,"bias":10652,"attempting":10653,"challenging":10654,"mcdonald":10655,"settings":10656,"achieved":10657,"maintained":10658,"jimmy":10659,"migrants":10660,"permission":10661,"negotiations":10662,"disappeared":10663,"pirate":10664,"athletic":10665,"structures":10666,"tactics":10667,"landscape":10668,"goofy":10669,"83":10670,"gained":10671,"pence":10672,"pets":10673,"##mal":10674,"##mate":10675,"##hill":10676,"##boo":10677,"beij":10678,"cant":10679,"grac":10680,"##ria":10681,"##asty":10682,"##aky":10683,"trek":10684,"centers":10685,"marine":10686,"swift":10687,"##colli":10688,"engineers":10689,"industries":10690,"suffer":10691,"apartments":10692,"recommended":10693,"rarely":10694,"aluminum":10695,"ave":10696,"dell":10697,"jere":10698,"tid":10699,"wages":10700,"##pool":10701,"##xy":10702,"##oning":10703,"##ndum":10704,"##aron":10705,"mosc":10706,"##opus":10707,"alan":10708,"diapers":10709,"twist":10710,"monarch":10711,"helpful":10712,"distributed":10713,"##avell":10714,"pizz":10715,"privile":10716,"physic":10717,"enjoying":10718,"##market":10719,"establishment":10720,"odds":10721,"dolph":10722,"ridiculous":10723,"franchise":10724,"syrup":10725,"beijing":10726,"baked":10727,"fue":10728,"hired":10729,"kab":10730,"tin":10731,"##pes":10732,"##pread":10733,"chen":10734,"travell":10735,"##apore":10736,"enable":10737,"personality":10738,"##uctive":10739,"marco":10740,"trained":10741,"silverware":10742,"banking":10743,"singapore":10744,"caf":10745,"processes":10746,"frogs":10747,"benches":10748,"argues":10749,"successfully":10750,"containing":10751,"balt":10752,"thirteen":10753,"monitoring":10754,"recognized":10755,"participate":10756,"platforms":10757,"producing":10758,"astron":10759,"uncertainty":10760,"calendar":10761,"widespread":10762,"hou":10763,"mck":10764,"nails":10765,"vet":10766,"wider":10767,"yell":10768,"##acare":10769,"sem":10770,"seemingly":10771,"noting":10772,"##chy":10773,"alab":10774,"spencer":10775,"202":10776,"unex":10777,"##onda":10778,"poison":10779,"loan":10780,"interaction":10781,"exposure":10782,"curb":10783,"confer":10784,"cleaned":10785,"booth":10786,"touchdown":10787,"burger":10788,"1995":10789,"studying":10790,"neighbour":10791,"arrive":10792,"mistakes":10793,"ministers":10794,"spiritual":10795,"stanford":10796,"appreciate":10797,"penguin":10798,"cluttered":10799,"hulk":10800,"jonathan":10801,"obamacare":10802,"convinced":10803,"fulf":10804,"mit":10805,"vl":10806,"vases":10807,"wah":10808,"##nels":10809,"##onge":10810,"stun":10811,"notion":10812,"clark":10813,"oklah":10814,"##rible":10815,"components":10816,"actors":10817,"##wear":10818,"recip":10819,"laure":10820,"tablet":10821,"runway":10822,"##ussy":10823,"infant":10824,"geograph":10825,"roller":10826,"profession":10827,"alexander":10828,"investigations":10829,"scientist":10830,"immune":10831,"admit":10832,"crocod":10833,"logic":10834,"hunting":10835,"diego":10836,"seesaw":10837,"graphic":10838,"ranked":10839,"carlos":10840,"smoking":10841,"skept":10842,"vitamin":10843,"bail":10844,"dv":10845,"fences":10846,"kas":10847,"mam":10848,"sant":10849,"sisters":10850,"##cro":10851,"##corn":10852,"##igrew":10853,"gobble":10854,"##opes":10855,"trillion":10856,"dean":10857,"regulation":10858,"inval":10859,"horrible":10860,"potatos":10861,"summit":10862,"organisation":10863,"garlic":10864,"activist":10865,"answered":10866,"indiana":10867,"vacc":10868,"implemented":10869,"producer":10870,"pettigrew":10871,"moscow":10872,"cul":10873,"dumb":10874,"rou":10875,"##list":10876,"##vet":10877,"##uration":10878,"##gender":10879,"outer":10880,"coco":10881,"hern":10882,"overs":10883,"carries":10884,"##aches":10885,"##veland":10886,"homemade":10887,"airlines":10888,"barret":10889,"##tenance":10890,"programme":10891,"##ova":10892,"notebook":10893,"padding":10894,"conversations":10895,"reddit":10896,"fashioned":10897,"legitimate":10898,"fossil":10899,"surgery":10900,"screwdriver":10901,"bible":10902,"roles":10903,"##lie":10904,"##sing":10905,"toler":10906,"shops":10907,"stations":10908,"##the":10909,"alike":10910,"reducing":10911,"prepar":10912,"skating":10913,"glare":10914,"recre":10915,"cape":10916,"warrant":10917,"popcorn":10918,"annivers":10919,"layers":10920,"universities":10921,"surfer":10922,"suggesting":10923,"pocketbook":10924,"settlement":10925,"railroad":10926,"hydro":10927,"heroes":10928,"suspected":10929,"beanie":10930,"incorpor":10931,"valentine":10932,"92":10933,"az":10934,"cin":10935,"doodle":10936,"maps":10937,"ner":10938,"rook":10939,"##east":10940,"##afe":10941,"##ridge":10942,"##gage":10943,"##50":10944,"toaster":10945,"##asher":10946,"revers":10947,"##ching":10948,"leon":10949,"roar":10950,"rode":10951,"##agu":10952,"perpet":10953,"presidency":10954,"endorse":10955,"silhou":10956,"stripped":10957,"maintenance":10958,"forecast":10959,"lesson":10960,"fighters":10961,"buried":10962,"crystal":10963,"kicked":10964,"expectations":10965,"searching":10966,"indicated":10967,"lux":10968,"corporation":10969,"mechanics":10970,"mechanism":10971,"treasury":10972,"celery":10973,"fourteen":10974,"##aire":10975,"##pg":10976,"##gue":10977,"shipping":10978,"##adel":10979,"lect":10980,"##andez":10981,"deaf":10982,"alaska":10983,"scope":10984,"amate":10985,"farther":10986,"reader":10987,"cleveland":10988,"incidents":10989,"elastic":10990,"potter":10991,"halfway":10992,"steering":10993,"extract":10994,"badly":10995,"multip":10996,"rainy":10997,"superior":10998,"equally":10999,"performing":11000,"devast":11001,"attacking":11002,"judges":11003,"utah":11004,"interviews":11005,"advertisements":11006,"peaceful":11007,"bolt":11008,"##otype":11009,"featuring":11010,"nominee":11011,"oklahoma":11012,"pon":11013,"##mus":11014,"##ju":11015,"##leton":11016,"stages":11017,"##andy":11018,"knight":11019,"prol":11020,"##aste":11021,"wanting":11022,"coc":11023,"coin":11024,"enh":11025,"fled":11026,"scout":11027,"resem":11028,"streaming":11029,"setup":11030,"screaming":11031,"189":11032,"exclud":11033,"mounted":11034,"urg":11035,"driveway":11036,"addressed":11037,"websites":11038,"traveling":11039,"berlin":11040,"automatically":11041,"proposals":11042,"gigi":11043,"whisper":11044,"innovation":11045,"bureau":11046,"subsequent":11047,"referendum":11048,"intellectual":11049,"grazing":11050,"pineapple":11051,"alabama":11052,"cort":11053,"jihad":11054,"nie":11055,"pup":11056,"tint":11057,"tier":11058,"vital":11059,"##eys":11060,"##net":11061,"##cont":11062,"theater":11063,"ink":11064,"semin":11065,"##stit":11066,"##ima":11067,"lever":11068,"spy":11069,"backing":11070,"bold":11071,"##ials":11072,"poke":11073,"crush":11074,"actively":11075,"reprod":11076,"visor":11077,"ballot":11078,"bites":11079,"climbed":11080,"speaks":11081,"tricky":11082,"ratio":11083,"expanded":11084,"prosecutors":11085,"suburban":11086,"municip":11087,"procedure":11088,"turkish":11089,"frustrated":11090,"consciousness":11091,"lonely":11092,"chugga":11093,"embarrass":11094,"vector":11095,"94":11096,"pose":11097,"##mun":11098,"##uild":11099,"thunder":11100,"##inations":11101,"shaking":11102,"blade":11103,"##oln":11104,"##aints":11105,"abroad":11106,"##apot":11107,"whoever":11108,"overly":11109,"##aka":11110,"smallest":11111,"clever":11112,"laur":11113,"strings":11114,"jeep":11115,"barcel":11116,"1980s":11117,"participation":11118,"protecting":11119,"escal":11120,"maryland":11121,"gathering":11122,"pipeline":11123,"remarkable":11124,"scandal":11125,"innocent":11126,"fiscal":11127,"anniversary":11128,"dare":11129,"hd":11130,"ji":11131,"mitch":11132,"##tes":11133,"##gust":11134,"##ique":11135,"##eters":11136,"shame":11137,"stere":11138,"stake":11139,"##riers":11140,"tears":11141,"sciences":11142,"##aken":11143,"indians":11144,"trem":11145,"behalf":11146,"mining":11147,"drama":11148,"accents":11149,"counts":11150,"homeless":11151,"syd":11152,"furthermore":11153,"iranian":11154,"reflected":11155,"atlantic":11156,"prosecutor":11157,"##ipedia":11158,"mystery":11159,"bracelet":11160,"zealand":11161,"89":11162,"borrow":11163,"dict":11164,"hes":11165,"linc":11166,"mash":11167,"raz":11168,"x6":11169,"ys":11170,"##80":11171,"##stri":11172,"shah":11173,"asph":11174,"##elf":11175,"myster":11176,"carrier":11177,"persu":11178,"secre":11179,"##ocks":11180,"schm":11181,"##feld":11182,"simon":11183,"assad":11184,"mississ":11185,"johnny":11186,"presentation":11187,"violations":11188,"statist":11189,"investigate":11190,"hoped":11191,"administr":11192,"settle":11193,"bonk":11194,"substantial":11195,"makabe":11196,"lincoln":11197,"au":11198,"jury":11199,"mim":11200,"##away":11201,"##bors":11202,"seag":11203,"cans":11204,"ships":11205,"anton":11206,"mock":11207,"##ulating":11208,"mane":11209,"shepher":11210,"grace":11211,"disgust":11212,"##intend":11213,"differently":11214,"markings":11215,"brocolli":11216,"instant":11217,"restr":11218,"remembered":11219,"missouri":11220,"basement":11221,"economics":11222,"touched":11223,"importantly":11224,"argent":11225,"##lights":11226,"riders":11227,"inequ":11228,"occupy":11229,"venture":11230,"respectively":11231,"ingredients":11232,"ai":11233,"aaron":11234,"mint":11235,"rho":11236,"##rated":11237,"##vi":11238,"##fo":11239,"forties":11240,"anc":11241,"warn":11242,"jews":11243,"doorway":11244,"surfing":11245,"immun":11246,"divide":11247,"octopus":11248,"correctly":11249,"1970s":11250,"bleach":11251,"crashed":11252,"shelter":11253,"opinions":11254,"implications":11255,"shocked":11256,"restrictions":11257,"corruption":11258,"astronaut":11259,"barcelona":11260,"gem":11261,"hilda":11262,"ward":11263,"##name":11264,"##24":11265,"almond":11266,"fears":11267,"quarters":11268,"creator":11269,"sandals":11270,"banner":11271,"muscle":11272,"burnt":11273,"competing":11274,"scramb":11275,"focusing":11276,"popularity":11277,"decorative":11278,"tweeted":11279,"rhet":11280,"analysts":11281,"javasc":11282,"contempor":11283,"awards":11284,"jilly":11285,"naught":11286,"tul":11287,"##ok":11288,"##rics":11289,"##ori":11290,"clash":11291,"teapot":11292,"warri":11293,"parks":11294,"dressing":11295,"suitcases":11296,"portray":11297,"equality":11298,"bells":11299,"analog":11300,"improving":11301,"titled":11302,"framework":11303,"inflation":11304,"murray":11305,"acceptable":11306,"duke":11307,"##kyo":11308,"hunter":11309,"junior":11310,"surprisingly":11311,"brunette":11312,"capitol":11313,"testimony":11314,"sydney":11315,"asphalt":11316,"javascript":11317,"06":11318,"fame":11319,"trop":11320,"wag":11321,"waving":11322,"##of":11323,"##lest":11324,"reverse":11325,"goats":11326,"managing":11327,"proph":11328,"2020":11329,"skip":11330,"firing":11331,"lazy":11332,"centuries":11333,"strap":11334,"winds":11335,"steal":11336,"paw":11337,"tommy":11338,"arguing":11339,"epic":11340,"misc":11341,"civilian":11342,"snakes":11343,"puzzles":11344,"grocer":11345,"stacked":11346,"diseases":11347,"wealthy":11348,"acknowledge":11349,"harvard":11350,"elderly":11351,"forfeiture":11352,"houston":11353,"bing":11354,"rah":11355,"xbox":11356,"##paper":11357,"##isons":11358,"##station":11359,"asyl":11360,"##assy":11361,"unions":11362,"##izer":11363,"crane":11364,"firms":11365,"##ensity":11366,"vegas":11367,"strain":11368,"counted":11369,"wax":11370,"foil":11371,"horror":11372,"acid":11373,"autonom":11374,"studied":11375,"powered":11376,"##lessly":11377,"examination":11378,"operator":11379,"urinal":11380,"hybr":11381,"blankie":11382,"##ilipp":11383,"bobby":11384,"commissioner":11385,"predicted":11386,"guidelines":11387,"remarks":11388,"dramatic":11389,"intervention":11390,"inquir":11391,"chelsea":11392,"70s":11393,"bm":11394,"tune":11395,"whites":11396,"dos":11397,"stored":11398,"whats":11399,"deem":11400,"ally":11401,"##ulu":11402,"ambit":11403,"##ateral":11404,"pok":11405,"midfield":11406,"afterwards":11407,"swir":11408,"export":11409,"curve":11410,"viewed":11411,"supermarket":11412,"consideration":11413,"dropping":11414,"burst":11415,"illness":11416,"saddle":11417,"georgie":11418,"craig":11419,"assessment":11420,"accomplish":11421,"kirk":11422,"sustainable":11423,"amateur":11424,"bh":11425,"dates":11426,"pix":11427,"wand":11428,"##iat":11429,"##hd":11430,"##vis":11431,"##uten":11432,"##amps":11433,"liby":11434,"alarm":11435,"comics":11436,"scul":11437,"aga":11438,"philipp":11439,"reserved":11440,"polish":11441,"slacks":11442,"builds":11443,"presc":11444,"symp":11445,"invasion":11446,"missile":11447,"populations":11448,"camping":11449,"annoy":11450,"##nedy":11451,"module":11452,"salary":11453,"##iki":11454,"technological":11455,"erase":11456,"fundra":11457,"panels":11458,"voter":11459,"##lining":11460,"languages":11461,"civilians":11462,"nutrition":11463,"displayed":11464,"improvements":11465,"pleased":11466,"rosie":11467,"sevent":11468,"encouraged":11469,"chaos":11470,"complaints":11471,"quoted":11472,"adventure":11473,"algorithm":11474,"imperial":11475,"toppings":11476,"asylum":11477,"ng":11478,"vint":11479,"yan":11480,"##rors":11481,"##iveness":11482,"##hand":11483,"##opard":11484,"bru":11485,"memo":11486,"##umble":11487,"spat":11488,"exempt":11489,"overcome":11490,"20th":11491,"##phia":11492,"##ampoo":11493,"entrep":11494,"avoc":11495,"towers":11496,"bunk":11497,"delhi":11498,"chopped":11499,"contracts":11500,"demanding":11501,"virus":11502,"episodes":11503,"psychological":11504,"bonus":11505,"survival":11506,"nursery":11507,"kennedy":11508,"homose":11509,"montreal":11510,"gallery":11511,"guarantee":11512,"tadah":11513,"registration":11514,"carnival":11515,"encounter":11516,"cricket":11517,"tasks":11518,"phrase":11519,"pitts":11520,"consensus":11521,"lag":11522,"vamp":11523,"wales":11524,"##ras":11525,"##nish":11526,"##vp":11527,"##13":11528,"toxic":11529,"sections":11530,"##oted":11531,"shy":11532,"frames":11533,"nev":11534,"skater":11535,"recy":11536,"eddie":11537,"designer":11538,"profits":11539,"avo":11540,"##clair":11541,"irre":11542,"identical":11543,"membership":11544,"eastl":11545,"brotherhood":11546,"functional":11547,"declar":11548,"requested":11549,"settled":11550,"affordable":11551,"engagement":11552,"terminal":11553,"adequ":11554,"phenomenon":11555,"extraordinary":11556,"crocodile":11557,"shepherd":11558,"entreprene":11559,"bb":11560,"cum":11561,"faint":11562,"gn":11563,"hedge":11564,"lining":11565,"sig":11566,"##life":11567,"##ev":11568,"##aii":11569,"##mad":11570,"##mers":11571,"##cat":11572,"##cos":11573,"##inction":11574,"##etics":11575,"##kee":11576,"stl":11577,"##olen":11578,"##usal":11579,"##osing":11580,"cocon":11581,"loll":11582,"contained":11583,"##ucks":11584,"##iances":11585,"runner":11586,"teammates":11587,"stef":11588,"depression":11589,"failing":11590,"void":11591,"patterned":11592,"##inois":11593,"toothp":11594,"legislative":11595,"connections":11596,"commander":11597,"ranks":11598,"ownership":11599,"raisin":11600,"bumper":11601,"conventional":11602,"gorilla":11603,"yawn":11604,"diversity":11605,"caterpillar":11606,"coconut":11607,"71":11608,"dual":11609,"dya":11610,"pins":11611,"til":11612,"##dam":11613,"##person":11614,"##zed":11615,"##father":11616,"theories":11617,"##athing":11618,"anderson":11619,"shampoo":11620,"stained":11621,"forb":11622,"##unction":11623,"comfor":11624,"wherever":11625,"##aga":11626,"twinkle":11627,"compat":11628,"contrary":11629,"skull":11630,"headqu":11631,"obst":11632,"wallet":11633,"bases":11634,"float":11635,"##shine":11636,"squat":11637,"lessons":11638,"pressing":11639,"feder":11640,"biological":11641,"batting":11642,"bulldo":11643,"indicates":11644,"purchased":11645,"arabia":11646,"producers":11647,"##ippi":11648,"suspic":11649,"kentucky":11650,"transparent":11651,"symptoms":11652,"##adelphia":11653,"sculpt":11654,"cs":11655,"gdp":11656,"lav":11657,"pard":11658,"rows":11659,"wip":11660,"##aria":11661,"##etary":11662,"keith":11663,"biting":11664,"##othy":11665,"singer":11666,"fireman":11667,"questioned":11668,"##umbled":11669,"measuring":11670,"damaged":11671,"broader":11672,"blend":11673,"consumption":11674,"hawaii":11675,"celebration":11676,"dependent":11677,"riot":11678,"kenny":11679,"wounded":11680,"interpretation":11681,"presumably":11682,"jeremy":11683,"vintage":11684,"pittsburgh":11685,"comforter":11686,"cine":11687,"dating":11688,"gee":11689,"kam":11690,"mack":11691,"##gies":11692,"inject":11693,"beet":11694,"##state":11695,"##ira":11696,"stub":11697,"haiti":11698,"##chu":11699,"leap":11700,"brid":11701,"##istent":11702,"pears":11703,"sake":11704,"usage":11705,"##ouses":11706,"worksh":11707,"slip":11708,"closeup":11709,"creature":11710,"relation":11711,"transgender":11712,"scream":11713,"adviser":11714,"kittens":11715,"mixing":11716,"practicing":11717,"millenn":11718,"difficulty":11719,"hurting":11720,"philadelphia":11721,"temperatures":11722,"swedish":11723,"involvement":11724,"manufacturers":11725,"pentagon":11726,"wreck":11727,"hurricane":11728,"taylor":11729,"laurie":11730,"mississippi":11731,"93":11732,"aj":11733,"citing":11734,"cbs":11735,"foo":11736,"fauc":11737,"gail":11738,"hire":11739,"sang":11740,"##dale":11741,"##mony":11742,"##pected":11743,"##fare":11744,"##itals":11745,"##uto":11746,"pla":11747,"grave":11748,"preced":11749,"contribution":11750,"indigen":11751,"##hman":11752,"signals":11753,"120":11754,"stephan":11755,"insert":11756,"adams":11757,"restaurants":11758,"illinois":11759,"batman":11760,"investigating":11761,"palace":11762,"judging":11763,"discussing":11764,"repeat":11765,"demonstrate":11766,"filling":11767,"promoting":11768,"integrity":11769,"cooperation":11770,"guests":11771,"emphasis":11772,"watermelon":11773,"conspiracy":11774,"bam":11775,"dash":11776,"hence":11777,"lanes":11778,"ss":11779,"##pie":11780,"##bling":11781,"##cies":11782,"##s":11783,"##icon":11784,"##rose":11785,"##ustration":11786,"pled":11787,"spare":11788,"arc":11789,"startup":11790,"lately":11791,"##attan":11792,"politically":11793,"authent":11794,"antib":11795,"mixer":11796,"violation":11797,"traum":11798,"torso":11799,"improv":11800,"hallway":11801,"1960s":11802,"instruments":11803,"demanded":11804,"minimal":11805,"darling":11806,"impressed":11807,"charlotte":11808,"expanding":11809,"navig":11810,"battles":11811,"horizont":11812,"theatre":11813,"barbara":11814,"overseas":11815,"inequality":11816,"indigenous":11817,"##rs":11818,"##bury":11819,"tokyo":11820,"andre":11821,"leash":11822,"fright":11823,"soy":11824,"greece":11825,"tale":11826,"rober":11827,"uncon":11828,"##irect":11829,"##shot":11830,"campbell":11831,"insisted":11832,"dishw":11833,"involves":11834,"racism":11835,"replacement":11836,"disappear":11837,"buddhist":11838,"arkansas":11839,"firefight":11840,"paddington":11841,"tremend":11842,"fate":11843,"masc":11844,"rome":11845,"sauc":11846,"coaching":11847,"lets":11848,"guid":11849,"##ictions":11850,"ours":11851,"sunshine":11852,"strang":11853,"medi":11854,"assigned":11855,"salty":11856,"sprint":11857,"burden":11858,"circular":11859,"doctr":11860,"deadly":11861,"convicted":11862,"blew":11863,"defeated":11864,"ratings":11865,"flights":11866,"strategies":11867,"submitted":11868,"bikini":11869,"horizon":11870,"chimney":11871,"unexpected":11872,"conferences":11873,"hernandez":11874,"cube":11875,"##zes":11876,"##anth":11877,"##arre":11878,"##aya":11879,"reign":11880,"##iments":11881,"pledge":11882,"upright":11883,"couples":11884,"##rav":11885,"enroll":11886,"popped":11887,"##pled":11888,"slam":11889,"bitter":11890,"##enders":11891,"swings":11892,"assign":11893,"##ributes":11894,"movements":11895,"lands":11896,"checks":11897,"choppy":11898,"spoken":11899,"packages":11900,"##graphy":11901,"objective":11902,"employed":11903,"queens":11904,"libert":11905,"cracked":11906,"hosted":11907,"blender":11908,"berries":11909,"mattress":11910,"pencils":11911,"defender":11912,"grabbed":11913,"accommod":11914,"substance":11915,"laboratory":11916,"nancy":11917,"ecos":11918,"sacrif":11919,"bronze":11920,"torture":11921,"diesel":11922,"browser":11923,"seagull":11924,"bisc":11925,"fires":11926,"ib":11927,"tshirt":11928,"##lical":11929,"##mail":11930,"##maker":11931,"##pal":11932,"##bul":11933,"##city":11934,"##39":11935,"##leum":11936,"rex":11937,"stolen":11938,"lib":11939,"##immer":11940,"grate":11941,"spiders":11942,"exceed":11943,"overt":11944,"peoples":11945,"unre":11946,"diverse":11947,"resort":11948,"##angles":11949,"darkness":11950,"sled":11951,"windy":11952,"cutie":11953,"childhood":11954,"harvey":11955,"laptops":11956,"neighbors":11957,"pinch":11958,"tricks":11959,"explaining":11960,"##chez":11961,"occasionally":11962,"decker":11963,"departments":11964,"chantilly":11965,"acknowledged":11966,"comprehensive":11967,"pizzas":11968,"hybrid":11969,"poké":11970,"ein":11971,"gid":11972,"sie":11973,"##las":11974,"##mill":11975,"##nell":11976,"##kh":11977,"##oto":11978,"sting":11979,"stance":11980,"ants":11981,"chad":11982,"sud":11983,"##ilton":11984,"##andel":11985,"##andra":11986,"abilities":11987,"clients":11988,"cluster":11989,"skys":11990,"joey":11991,"snows":11992,"striking":11993,"facilit":11994,"investments":11995,"##flies":11996,"towns":11997,"sanct":11998,"commonly":11999,"timing":12000,"impression":12001,"buffalo":12002,"sharks":12003,"dialogue":12004,"eagle":12005,"anonymous":12006,"perceived":12007,"entitled":12008,"aur":12009,"gary":12010,"pars":12011,"pige":12012,"wan":12013,"##rin":12014,"##vy":12015,"##jack":12016,"##era":12017,"##oub":12018,"reck":12019,"segment":12020,"doggies":12021,"stability":12022,"moss":12023,"conse":12024,"##apolis":12025,"grip":12026,"grilled":12027,"feather":12028,"unha":12029,"twins":12030,"flap":12031,"##udge":12032,"intim":12033,"crouch":12034,"interrog":12035,"embed":12036,"cambod":12037,"foster":12038,"nights":12039,"##cience":12040,"collins":12041,"communist":12042,"malcol":12043,"trapped":12044,"absence":12045,"divor":12046,"approached":12047,"lucy":12048,"spinning":12049,"concepts":12050,"railing":12051,"numerals":12052,"brewing":12053,"dynam":12054,"harvest":12055,"rookie":12056,"ecosystem":12057,"unhappy":12058,"malcolm":12059,"7th":12060,"bou":12061,"cav":12062,"nasty":12063,"qa":12064,"ues":12065,"wiz":12066,"##gate":12067,"##vent":12068,"##leans":12069,"##ione":12070,"blink":12071,"forcing":12072,"hah":12073,"convert":12074,"sponge":12075,"arctic":12076,"coinc":12077,"perry":12078,"baba":12079,"incom":12080,"##boy":12081,"##pshire":12082,"surge":12083,"stepping":12084,"geomet":12085,"110":12086,"classified":12087,"grandmother":12088,"clocks":12089,"insult":12090,"whoopsie":12091,"21st":12092,"moore":12093,"reveals":12094,"refugee":12095,"louisiana":12096,"oxy":12097,"athletes":12098,"disappointed":12099,"brooklyn":12100,"punishment":12101,"taxpayers":12102,"invalid":12103,"cinnam":12104,"contemporary":12105,"naughty":12106,"skyscr":12107,"biz":12108,"cm":12109,"ease":12110,"jug":12111,"sack":12112,"vine":12113,"##iety":12114,"##uko":12115,"##bian":12116,"##omed":12117,"##theless":12118,"chasing":12119,"sore":12120,"bruce":12121,"boing":12122,"contents":12123,"##mann":12124,"worlds":12125,"restore":12126,"nevertheless":12127,"##shield":12128,"hampshire":12129,"1990":12130,"1993":12131,"denim":12132,"stopping":12133,"casually":12134,"volunt":12135,"interviewed":12136,"targeting":12137,"contacted":12138,"arabic":12139,"exclus":12140,"pursue":12141,"gorge":12142,"summary":12143,"wikipedia":12144,"becky":12145,"oblig":12146,"dishwasher":12147,"5th":12148,"awhile":12149,"cops":12150,"gest":12151,"tatt":12152,"troph":12153,"yu":12154,"##lan":12155,"##war":12156,"##wall":12157,"##rons":12158,"notably":12159,"anch":12160,"brusse":12161,"##usions":12162,"diagn":12163,"intend":12164,"slept":12165,"courses":12166,"cameron":12167,"api":12168,"lawrence":12169,"posting":12170,"corps":12171,"provin":12172,"paste":12173,"costumes":12174,"healthcare":12175,"layout":12176,"mirrors":12177,"1992":12178,"publ":12179,"additionally":12180,"separated":12181,"duh":12182,"approaches":12183,"constitu":12184,"overalls":12185,"spectrum":12186,"quietly":12187,"inspiration":12188,"laminate":12189,"granola":12190,"consistently":12191,"laughed":12192,"editorial":12193,"muddy":12194,"kerry":12195,"obscured":12196,"juris":12197,"theoret":12198,"##croft":12199,"rhetoric":12200,"cinnamon":12201,"brussels":12202,"bart":12203,"pist":12204,"##burn":12205,"##oux":12206,"noises":12207,"donna":12208,"upload":12209,"cler":12210,"##istry":12211,"##icks":12212,"scoot":12213,"quote":12214,"crumbs":12215,"secondary":12216,"instagram":12217,"charity":12218,"##aimed":12219,"dresses":12220,"dollie":12221,"delight":12222,"senators":12223,"##comes":12224,"shooter":12225,"puppets":12226,"occupied":12227,"rhin":12228,"sinclair":12229,"ranging":12230,"dynamic":12231,"bour":12232,"baking":12233,"hose":12234,"pail":12235,"rational":12236,"vague":12237,"yelling":12238,"##occ":12239,"##ruit":12240,"##nc":12241,"##onia":12242,"##ndall":12243,"##orable":12244,"##orous":12245,"##isible":12246,"##omi":12247,"ist":12248,"canon":12249,"heck":12250,"orang":12251,"meets":12252,"##itty":12253,"peer":12254,"coher":12255,"enfor":12256,"##pted":12257,"recruit":12258,"opio":12259,"##veless":12260,"camps":12261,"margin":12262,"windshield":12263,"wallpaper":12264,"##itsu":12265,"zeb":12266,"password":12267,"discont":12268,"awa":12269,"sounded":12270,"electrical":12271,"productivity":12272,"caul":12273,"cafe":12274,"devil":12275,"swims":12276,"releases":12277,"tracking":12278,"measured":12279,"convince":12280,"destination":12281,"tweets":12282,"controllers":12283,"decoration":12284,"seventh":12285,"licens":12286,"preferred":12287,"upgrade":12288,"thorough":12289,"harassment":12290,"gravity":12291,"propaganda":12292,"municipal":12293,"groceries":12294,"dil":12295,"ew":12296,"ian":12297,"nca":12298,"pussy":12299,"rit":12300,"rake":12301,"ripped":12302,"ub":12303,"##gus":12304,"##kk":12305,"##oust":12306,"##oose":12307,"beings":12308,"liv":12309,"chili":12310,"blueberry":12311,"##iley":12312,"reserv":12313,"huck":12314,"incent":12315,"openly":12316,"legally":12317,"basil":12318,"warren":12319,"generic":12320,"simba":12321,"pickles":12322,"lineback":12323,"pressed":12324,"starcraft":12325,"fairy":12326,"organic":12327,"insist":12328,"merkel":12329,"teenage":12330,"##aucr":12331,"admission":12332,"tourists":12333,"legislature":12334,"rebel":12335,"districts":12336,"dominated":12337,"reforms":12338,"awarded":12339,"sophistic":12340,"nomination":12341,"bureaucr":12342,"html":12343,"explosion":12344,"protein":12345,"compensation":12346,"cranky":12347,"nichol":12348,"sixteen":12349,"heritage":12350,"simultaneously":12351,"ncaa":12352,"nons":12353,"nike":12354,"pp":12355,"ruth":12356,"tens":12357,"##oard":12358,"##drop":12359,"##acles":12360,"canc":12361,"std":12362,"stating":12363,"lend":12364,"blacks":12365,"howard":12366,"unac":12367,"##ogether":12368,"minnie":12369,"camo":12370,"supplement":12371,"evident":12372,"transact":12373,"transaction":12374,"lineup":12375,"examine":12376,"violin":12377,"robb":12378,"associate":12379,"educational":12380,"bulls":12381,"emerging":12382,"arrival":12383,"commentary":12384,"unlock":12385,"bombing":12386,"talented":12387,"smells":12388,"defendant":12389,"ignor":12390,"promotion":12391,"assumed":12392,"territor":12393,"laughs":12394,"krist":12395,"subscrib":12396,"hacking":12397,"witnesses":12398,"veterans":12399,"bambi":12400,"sequence":12401,"avocado":12402,"headquarters":12403,"dj":12404,"dorm":12405,"hitch":12406,"km":12407,"nsa":12408,"nintend":12409,"sr":12410,"##lu":12411,"##hal":12412,"##cht":12413,"##ingly":12414,"##arthy":12415,"##lem":12416,"##idi":12417,"nex":12418,"managers":12419,"proc":12420,"poet":12421,"underlying":12422,"treating":12423,"deserve":12424,"drank":12425,"kidding":12426,"greatly":12427,"owns":12428,"choosing":12429,"bankrupt":12430,"supposedly":12431,"##flix":12432,"sadly":12433,"execution":12434,"physically":12435,"airplanes":12436,"archae":12437,"##guard":12438,"demonstration":12439,"defending":12440,"integrated":12441,"attending":12442,"reminds":12443,"acquired":12444,"palestinians":12445,"interface":12446,"playoffs":12447,"anxiety":12448,"insect":12449,"nintendo":12450,"dak":12451,"gon":12452,"lass":12453,"mothers":12454,"ome":12455,"pause":12456,"paren":12457,"##mn":12458,"##gun":12459,"##uj":12460,"lizard":12461,"##imore":12462,"##antern":12463,"grows":12464,"moreover":12465,"##icking":12466,"coup":12467,"unve":12468,"afp":12469,"cran":12470,"indones":12471,"remov":12472,"slim":12473,"watering":12474,"relie":12475,"markers":12476,"steady":12477,"apoll":12478,"designers":12479,"tennes":12480,"kitties":12481,"salv":12482,"certific":12483,"speculation":12484,"portra":12485,"panic":12486,"eyebr":12487,"baskets":12488,"finishing":12489,"judgment":12490,"killer":12491,"unfair":12492,"koch":12493,"documentary":12494,"magnet":12495,"collecting":12496,"neighborhoods":12497,"savings":12498,"pennies":12499,"egyptian":12500,"metallic":12501,"warehouse":12502,"pardon":12503,"apollo":12504,"fare":12505,"fog":12506,"ios":12507,"##rate":12508,"##cute":12509,"##fol":12510,"##eding":12511,"sep":12512,"heel":12513,"hehe":12514,"leices":12515,"chill":12516,"orbit":12517,"traged":12518,"manual":12519,"overnight":12520,"compact":12521,"skunk":12522,"betty":12523,"accus":12524,"foam":12525,"collaps":12526,"raises":12527,"petition":12528,"germans":12529,"considerable":12530,"billions":12531,"sleeveless":12532,"belle":12533,"bands":12534,"polling":12535,"commerce":12536,"sensor":12537,"meaningful":12538,"regulatory":12539,"aims":12540,"occasion":12541,"weakness":12542,"sailboat":12543,"interpre":12544,"pyth":12545,"lifetime":12546,"subsequently":12547,"decreased":12548,"rendering":12549,"desperate":12550,"gramma":12551,"prosper":12552,"baltimore":12553,"bizarre":12554,"leicester":12555,"91":12556,"bc":12557,"dang":12558,"dull":12559,"eater":12560,"eager":12561,"gil":12562,"tink":12563,"zom":12564,"##bows":12565,"##cular":12566,"theft":12567,"##arity":12568,"clo":12569,"outrage":12570,"grim":12571,"boast":12572,"uncover":12573,"visa":12574,"pinkish":12575,"confusion":12576,"facial":12577,"paj":12578,"infer":12579,"appearances":12580,"##ikh":12581,"christians":12582,"netflix":12583,"deadline":12584,"judicial":12585,"1980":12586,"describing":12587,"bloody":12588,"capitalism":12589,"talib":12590,"criticized":12591,"struggled":12592,"concentration":12593,"##post":12594,"stanley":12595,"altogether":12596,"coordinator":12597,"widget":12598,"cheerios":12599,"preference":12600,"tangled":12601,"kilomet":12602,"pdf":12603,"compromise":12604,"dentist":12605,"bulldozer":12606,"aub":12607,"cb":12608,"hars":12609,"pas":12610,"##rus":12611,"seiz":12612,"blu":12613,"orn":12614,"##inder":12615,"arsen":12616,"admin":12617,"popping":12618,"handled":12619,"midnight":12620,"underwear":12621,"recon":12622,"imposed":12623,"reliable":12624,"evans":12625,"bowling":12626,"snowden":12627,"raven":12628,"infect":12629,"harper":12630,"electoral":12631,"##umbling":12632,"thompson":12633,"tanks":12634,"vermont":12635,"medicare":12636,"variation":12637,"variable":12638,"executives":12639,"influential":12640,"dispos":12641,"jesse":12642,"migration":12643,"interactions":12644,"motivated":12645,"eliminate":12646,"bloomberg":12647,"stimul":12648,"enthusi":12649,"silhouette":12650,"scrambled":12651,"azer":12652,"fet":12653,"mes":12654,"##ping":12655,"##pad":12656,"##eries":12657,"heels":12658,"##gel":12659,"##oline":12660,"spank":12661,"adap":12662,"colour":12663,"##quoise":12664,"perception":12665,"creatures":12666,"accum":12667,"snacks":12668,"funeral":12669,"invisible":12670,"refers":12671,"missus":12672,"missions":12673,"passive":12674,"annie":12675,"modified":12676,"walkway":12677,"furry":12678,"caution":12679,"technically":12680,"labels":12681,"##alem":12682,"proportion":12683,"combine":12684,"sentences":12685,"exceptions":12686,"digging":12687,"pollution":12688,"guards":12689,"folding":12690,"demonstrated":12691,"derived":12692,"spokesperson":12693,"channels":12694,"exchanges":12695,"trials":12696,"ribbit":12697,"folk":12698,"tigger":12699,"empower":12700,"procedures":12701,"memorial":12702,"dismissed":12703,"shouted":12704,"isolated":12705,"explicitly":12706,"bookshelf":12707,"distinguish":12708,"libya":12709,"homosexual":12710,"tremendous":12711,"jurisd":12712,"tennessee":12713,"dive":12714,"fier":12715,"gad":12716,"gand":12717,"hier":12718,"kiw":12719,"nc":12720,"nit":12721,"nak":12722,"nash":12723,"poured":12724,"wi":12725,"##ender":12726,"##giving":12727,"##86":12728,"##eria":12729,"##arium":12730,"inaug":12731,"liam":12732,"leaked":12733,"framed":12734,"manh":12735,"pending":12736,"scroll":12737,"loving":12738,"##pling":12739,"lightning":12740,"servers":12741,"monitors":12742,"obstr":12743,"meters":12744,"exped":12745,"horrif":12746,"asset":12747,"flooring":12748,"followers":12749,"##conn":12750,"salmon":12751,"piglet":12752,"urged":12753,"tradem":12754,"turquoise":12755,"temple":12756,"copies":12757,"rabbits":12758,"casting":12759,"tourist":12760,"crop":12761,"intelligent":12762,"shrimp":12763,"experiments":12764,"taping":12765,"atlanta":12766,"prospects":12767,"gaza":12768,"trolley":12769,"transmission":12770,"aislin":12771,"wicker":12772,"disorder":12773,"behaviour":12774,"ankle":12775,"societies":12776,"brilliant":12777,"barrette":12778,"deemed":12779,"bip":12780,"batch":12781,"kett":12782,"saint":12783,"tib":12784,"##mis":12785,"##bal":12786,"##ndy":12787,"shred":12788,"stabil":12789,"blaz":12790,"trap":12791,"##eryl":12792,"unsc":12793,"sketch":12794,"interven":12795,"speck":12796,"visits":12797,"engaging":12798,"retro":12799,"raj":12800,"drawers":12801,"oppose":12802,"harris":12803,"functionality":12804,"influenced":12805,"unsu":12806,"ignored":12807,"adoption":12808,"clinic":12809,"guaranteed":12810,"wispy":12811,"errors":12812,"uncomfort":12813,"dispenser":12814,"mysterious":12815,"tropical":12816,"guidance":12817,"trademark":12818,"aislinn":12819,"bax":12820,"bapt":12821,"lump":12822,"mps":12823,"rash":12824,"tro":12825,"tents":12826,"wy":12827,"##dling":12828,"##zi":12829,"##coon":12830,"##60":12831,"##ingle":12832,"##ington":12833,"##itudes":12834,"##aro":12835,"inbox":12836,"##amel":12837,"donors":12838,"arbit":12839,"copper":12840,"intel":12841,"##ifl":12842,"eligible":12843,"oldest":12844,"longest":12845,"keen":12846,"snugg":12847,"realistic":12848,"##which":12849,"subtle":12850,"chron":12851,"harness":12852,"fastest":12853,"utter":12854,"revol":12855,"polly":12856,"nathan":12857,"screws":12858,"crops":12859,"rosen":12860,"substit":12861,"crawling":12862,"nickel":12863,"sponsored":12864,"embassy":12865,"oakland":12866,"bakery":12867,"kurdish":12868,"enhance":12869,"exclusively":12870,"ugh":12871,"ufc":12872,"vib":12873,"##eing":12874,"##uity":12875,"##isations":12876,"##urd":12877,"abund":12878,"alber":12879,"##agic":12880,"##acha":12881,"imam":12882,"logs":12883,"##gger":12884,"probability":12885,"preserve":12886,"charter":12887,"submit":12888,"##coat":12889,"generations":12890,"provision":12891,"awfully":12892,"180":12893,"hitler":12894,"noneth":12895,"deny":12896,"styles":12897,"epa":12898,"merc":12899,"momentum":12900,"morgan":12901,"printing":12902,"opposing":12903,"treaty":12904,"earthqu":12905,"bumped":12906,"beaten":12907,"rebels":12908,"attorneys":12909,"frosted":12910,"ripp":12911,"susan":12912,"squishy":12913,"##bourne":12914,"telesc":12915,"fascinating":12916,"liverpool":12917,"toothpaste":12918,"faucet":12919,"pokémon":12920,"intimid":12921,"nonetheless":12922,"bt":12923,"dated":12924,"ecl":12925,"nun":12926,"qb":12927,"sid":12928,"vp":12929,"##oys":12930,"##uating":12931,"##sch":12932,"##bac":12933,"##ativity":12934,"##edy":12935,"sued":12936,"orth":12937,"##ando":12938,"peck":12939,"prest":12940,"##iva":12941,"crude":12942,"longtime":12943,"marry":12944,"evac":12945,"##ugu":12946,"curios":12947,"parker":12948,"##aza":12949,"latex":12950,"##tawa":12951,"formally":12952,"traded":12953,"eighteen":12954,"wondered":12955,"ledge":12956,"representation":12957,"1989":12958,"conservation":12959,"encry":12960,"regarded":12961,"ceremony":12962,"lifted":12963,"stems":12964,"frequent":12965,"surviv":12966,"analyt":12967,"encouraging":12968,"occasional":12969,"suspects":12970,"lifesty":12971,"java":12972,"correlation":12973,"bamboo":12974,"habitat":12975,"pregnant":12976,"pajama":12977,"aids":12978,"bacter":12979,"gates":12980,"ld":12981,"mul":12982,"mature":12983,"nix":12984,"sip":12985,"##oen":12986,"##pants":12987,"##cakes":12988,"##29":12989,"##──":12990,"seized":12991,"stab":12992,"stats":12993,"chains":12994,"donation":12995,"orleans":12996,"##olo":12997,"##eman":12998,"preview":12999,"quad":13000,"hugging":13001,"girlfriend":13002,"recount":13003,"babys":13004,"interrupt":13005,"drain":13006,"signature":13007,"snort":13008,"airline":13009,"stein":13010,"respected":13011,"cardinals":13012,"affair":13013,"caboose":13014,"honk":13015,"absent":13016,"representing":13017,"##heim":13018,"reviewed":13019,"texture":13020,"documented":13021,"ordin":13022,"ambass":13023,"porcel":13024,"symbols":13025,"advocate":13026,"revolutionary":13027,"olympics":13028,"ottawa":13029,"marginal":13030,"manufacturer":13031,"varying":13032,"vocal":13033,"creepy":13034,"taliban":13035,"porcelain":13036,"0x":13037,"lb":13038,"lor":13039,"lantern":13040,"sill":13041,"##reced":13042,"##itivity":13043,"stitch":13044,"soggy":13045,"orland":13046,"outlets":13047,"##agen":13048,"prede":13049,"phant":13050,"hob":13051,"needle":13052,"header":13053,"19th":13054,"finals":13055,"mario":13056,"##000":13057,"genes":13058,"barrier":13059,"cupboard":13060,"courtney":13061,"awk":13062,"promising":13063,"southwest":13064,"wildlife":13065,"cabbage":13066,"volat":13067,"1988":13068,"moose":13069,"1970":13070,"sioux":13071,"fleet":13072,"attractive":13073,"##crack":13074,"unpreced":13075,"doughnuts":13076,"appointment":13077,"peaches":13078,"aqua":13079,"pleasant":13080,"precisely":13081,"abbott":13082,"professionals":13083,"uncomfortable":13084,"unprecedented":13085,"cinc":13086,"dora":13087,"gw":13088,"mashed":13089,"ns":13090,"nib":13091,"pont":13092,"##aj":13093,"##bus":13094,"##ón":13095,"##reen":13096,"##omial":13097,"##ante":13098,"##anted":13099,"##ilight":13100,"soc":13101,"##owned":13102,"abol":13103,"align":13104,"##orton":13105,"##ortions":13106,"scor":13107,"popp":13108,"##quer":13109,"babe":13110,"slo":13111,"##oca":13112,"evange":13113,"gameplay":13114,"facult":13115,"studios":13116,"freeze":13117,"painful":13118,"patent":13119,"modest":13120,"chicks":13121,"examined":13122,"minded":13123,"butterflies":13124,"reasonably":13125,"sinks":13126,"malays":13127,"amongst":13128,"fails":13129,"scrut":13130,"1986":13131,"credits":13132,"brandon":13133,"tuna":13134,"dimly":13135,"communicate":13136,"spanking":13137,"alternatives":13138,"newspapers":13139,"pudding":13140,"buffer":13141,"pleasure":13142,"raspberry":13143,"mathematical":13144,"swallow":13145,"rivals":13146,"horizontal":13147,"qaeda":13148,"manhattan":13149,"dy":13150,"md":13151,"mason":13152,"rr":13153,"rus":13154,"rud":13155,"sd":13156,"##eas":13157,"##ti":13158,"##gal":13159,"##bird":13160,"##fy":13161,"thri":13162,"##arms":13163,"##igo":13164,"weh":13165,"##illo":13166,"debr":13167,"##usalem":13168,"##umper":13169,"aboard":13170,"outta":13171,"knot":13172,"procl":13173,"##hero":13174,"overd":13175,"mycroft":13176,"twilight":13177,"greenhouse":13178,"fla":13179,"##ached":13180,"composed":13181,"permit":13182,"slot":13183,"##ocl":13184,"consol":13185,"drift":13186,"refuse":13187,"sandwhich":13188,"tyler":13189,"footprint":13190,"forehead":13191,"viewing":13192,"protective":13193,"##break":13194,"euros":13195,"shallow":13196,"descript":13197,"knocking":13198,"jerusalem":13199,"periods":13200,"1975":13201,"tends":13202,"occupation":13203,"fiber":13204,"exercises":13205,"synth":13206,"venue":13207,"deployed":13208,"outlined":13209,"mittens":13210,"collaboration":13211,"lynn":13212,"tesla":13213,"noodle":13214,"sparse":13215,"dvd":13216,"saucer":13217,"arsenal":13218,"cincinn":13219,"80s":13220,"ja":13221,"lulu":13222,"pension":13223,"ssh":13224,"##oked":13225,"##ikes":13226,"##inite":13227,"##enz":13228,"noah":13229,"##adim":13230,"##ellor":13231,"chanc":13232,"trace":13233,"backside":13234,"greet":13235,"sax":13236,"phill":13237,"incons":13238,"headphones":13239,"endors":13240,"metrop":13241,"confusing":13242,"demol":13243,"produces":13244,"passage":13245,"fundament":13246,"occurs":13247,"robust":13248,"poorly":13249,"inflamm":13250,"trays":13251,"safely":13252,"skateboarder":13253,"decorated":13254,"gardens":13255,"turtles":13256,"adopt":13257,"recommendations":13258,"initiatives":13259,"ninth":13260,"principal":13261,"treasure":13262,"proceedings":13263,"renewable":13264,"elevator":13265,"victoria":13266,"arrangement":13267,"nineteen":13268,"cocoa":13269,"luxury":13270,"caulifl":13271,"sophisticated":13272,"parenthood":13273,"orlando":13274,"aston":13275,"mg":13276,"ov":13277,"##will":13278,"##map":13279,"##iors":13280,"##icity":13281,"##oos":13282,"moham":13283,"##opy":13284,"##ahu":13285,"unic":13286,"dizzy":13287,"scales":13288,"##pton":13289,"loaf":13290,"evergre":13291,"recession":13292,"slipper":13293,"101":13294,"cupcakes":13295,"detective":13296,"infection":13297,"prototype":13298,"depos":13299,"requiring":13300,"freder":13301,"practically":13302,"##enex":13303,"raccoon":13304,"shuttle":13305,"reflecting":13306,"spokeswoman":13307,"inex":13308,"experimental":13309,"qualified":13310,"shells":13311,"stretched":13312,"pirates":13313,"##iwan":13314,"publishing":13315,"exhibit":13316,"penguins":13317,"resolve":13318,"iterator":13319,"rankings":13320,"douglas":13321,"brutal":13322,"colonial":13323,"bmw":13324,"declaration":13325,"stefan":13326,"trophy":13327,"transactions":13328,"tragedy":13329,"harsh":13330,"bake":13331,"dere":13332,"fid":13333,"gag":13334,"punk":13335,"vin":13336,"##ders":13337,"##press":13338,"##nett":13339,"##base":13340,"##34":13341,"reid":13342,"rewards":13343,"shakes":13344,"weas":13345,"##amus":13346,"anarch":13347,"haul":13348,"neil":13349,"brands":13350,"alley":13351,"outcomes":13352,"##ounds":13353,"feb":13354,"enact":13355,"shirtless":13356,"smash":13357,"lod":13358,"veggie":13359,"drought":13360,"snip":13361,"silicon":13362,"warfare":13363,"##balls":13364,"certification":13365,"uran":13366,"##ttes":13367,"divisions":13368,"significance":13369,"nationwide":13370,"antique":13371,"fatal":13372,"bicycles":13373,"appliances":13374,"maintaining":13375,"arranged":13376,"ivory":13377,"dublin":13378,"restricted":13379,"sponsor":13380,"architecture":13381,"##gregation":13382,"cigare":13383,"stewart":13384,"diplomatic":13385,"embrace":13386,"cucumbers":13387,"yahoo":13388,"gloria":13389,"kleenex":13390,"waffle":13391,"cocaine":13392,"python":13393,"ambassador":13394,"cincinnati":13395,"cauliflower":13396,"ct":13397,"dab":13398,"mw":13399,"rol":13400,"rails":13401,"##odo":13402,"##hoo":13403,"##bies":13404,"##eros":13405,"##lee":13406,"##irk":13407,"anime":13408,"##thr":13409,"gosp":13410,"##ilateral":13411,"##aha":13412,"griff":13413,"backdrop":13414,"safer":13415,"taiwan":13416,"##agr":13417,"phoen":13418,"residence":13419,"##quest":13420,"builder":13421,"appeals":13422,"countless":13423,"regret":13424,"reluct":13425,"marker":13426,"capability":13427,"drip":13428,"assists":13429,"directors":13430,"pulls":13431,"filing":13432,"researcher":13433,"humanitarian":13434,"cooler":13435,"crowds":13436,"accessible":13437,"expecting":13438,"hosts":13439,"paintings":13440,"##baij":13441,"dispute":13442,"spiderman":13443,"briefly":13444,"scottish":13445,"quantity":13446,"wrapping":13447,"constructed":13448,"parameters":13449,"wikile":13450,"screensh":13451,"agriculture":13452,"inevitable":13453,"cafeter":13454,"consecut":13455,"auburn":13456,"fierce":13457,"cigarettes":13458,"fount":13459,"lung":13460,"tide":13461,"tapes":13462,"uri":13463,"##lined":13464,"##dled":13465,"##power":13466,"##oup":13467,"recept":13468,"##sell":13469,"blown":13470,"donations":13471,"courage":13472,"carter":13473,"wright":13474,"reply":13475,"breathing":13476,"earning":13477,"serge":13478,"counters":13479,"possess":13480,"tyndall":13481,"bann":13482,"eyed":13483,"sorta":13484,"grandfather":13485,"performances":13486,"vanity":13487,"casino":13488,"murky":13489,"texts":13490,"##ynth":13491,"respondents":13492,"journalism":13493,"indication":13494,"complained":13495,"rebuild":13496,"requirement":13497,"##olds":13498,"sporting":13499,"chemistry":13500,"bulk":13501,"accomplished":13502,"newsletters":13503,"prompted":13504,"accompanied":13505,"ancest":13506,"bleachers":13507,"squatting":13508,"doctrine":13509,"giddy":13510,"sanctuary":13511,"azerbaij":13512,"curiosity":13513,"wikileaks":13514,"cafeteria":13515,"consecutive":13516,"cbc":13517,"gill":13518,"hp":13519,"niger":13520,"v20":13521,"##esth":13522,"wha":13523,"##arat":13524,"nobel":13525,"replay":13526,"##step":13527,"static":13528,"##entions":13529,"##imm":13530,"##opho":13531,"pluto":13532,"feminist":13533,"compass":13534,"##ourse":13535,"contrad":13536,"##phy":13537,"cleared":13538,"throws":13539,"helen":13540,"speeds":13541,"edwards":13542,"marines":13543,"consent":13544,"cutter":13545,"swan":13546,"capabilities":13547,"barry":13548,"geese":13549,"developments":13550,"invested":13551,"188":13552,"productive":13553,"operational":13554,"1991":13555,"cycles":13556,"releasing":13557,"addressing":13558,"1965":13559,"ultra":13560,"spreading":13561,"switched":13562,"championships":13563,"photographs":13564,"supplied":13565,"##oxide":13566,"households":13567,"##keeper":13568,"cheney":13569,"leonard":13570,"indonesia":13571,"honda":13572,"len":13573,"sv":13574,"sib":13575,"vene":13576,"zak":13577,"##lar":13578,"##iah":13579,"##fits":13580,"##render":13581,"##isk":13582,"seas":13583,"sham":13584,"hend":13585,"ster":13586,"stair":13587,"clust":13588,"knit":13589,"##rians":13590,"pend":13591,"worship":13592,"##aukee":13593,"usc":13594,"unn":13595,"diving":13596,"wells":13597,"glory":13598,"slipped":13599,"headlines":13600,"hmm":13601,"demon":13602,"corp":13603,"parad":13604,"freezing":13605,"##icycle":13606,"ruin":13607,"churches":13608,"administrative":13609,"destro":13610,"clicking":13611,"tribe":13612,"acceptance":13613,"squeez":13614,"grabbing":13615,"hooked":13616,"ferry":13617,"ghosts":13618,"plugin":13619,"prayer":13620,"incorrect":13621,"demograph":13622,"bjp":13623,"preparation":13624,"inquiry":13625,"publisher":13626,"ald":13627,"cc":13628,"fib":13629,"mate":13630,"vim":13631,"##eh":13632,"##nbc":13633,"##36":13634,"##isive":13635,"beers":13636,"cancel":13637,"##sels":13638,"gore":13639,"deed":13640,"clunk":13641,"pew":13642,"##inea":13643,"flush":13644,"sci":13645,"amber":13646,"##active":13647,"makeup":13648,"poland":13649,"reconstr":13650,"boyfriend":13651,"deserves":13652,"cambridge":13653,"monk":13654,"sniff":13655,"##cedes":13656,"placemat":13657,"correction":13658,"chronic":13659,"exploring":13660,"projected":13661,"portable":13662,"criteria":13663,"canadians":13664,"banging":13665,"absurd":13666,"replacing":13667,"hospitals":13668,"traveled":13669,"lifting":13670,"bouncy":13671,"philip":13672,"spirits":13673,"cruise":13674,"duties":13675,"##holders":13676,"removing":13677,"conflicts":13678,"shocking":13679,"transformed":13680,"praise":13681,"recalled":13682,"satisfied":13683,"wisdom":13684,"observations":13685,"delayed":13686,"overwhelming":13687,"##ussell":13688,"cryptoc":13689,"argentina":13690,"rhode":13691,"seventeen":13692,"lollip":13693,"dakota":13694,"chancellor":13695,"apt":13696,"cott":13697,"gau":13698,"vw":13699,"watt":13700,"yall":13701,"zub":13702,"##waukee":13703,"##dah":13704,"##mith":13705,"##ruck":13706,"##iac":13707,"##bons":13708,"##­ing":13709,"##fas":13710,"toll":13711,"##eder":13712,"reind":13713,"shin":13714,"##amine":13715,"##urren":13716,"notor":13717,"leban":13718,"negle":13719,"trips":13720,"##osl":13721,"backl":13722,"unreal":13723,"aging":13724,"##grad":13725,"cola":13726,"##plus":13727,"##ucted":13728,"##hmer":13729,"counties":13730,"milwaukee":13731,"approaching":13732,"averaged":13733,"140":13734,"listened":13735,"violated":13736,"michelle":13737,"merch":13738,"melbourne":13739,"variables":13740,"displays":13741,"hawk":13742,"controlling":13743,"analyses":13744,"marshall":13745,"mechanical":13746,"naomi":13747,"attracted":13748,"magnets":13749,"cathed":13750,"attendance":13751,"constructor":13752,"powdered":13753,"aquarium":13754,"pronounced":13755,"template":13756,"ponies":13757,"huckle":13758,"nexus":13759,"neglect":13760,"900":13761,"cree":13762,"cpu":13763,"f1":13764,"hart":13765,"jup":13766,"mesh":13767,"pouch":13768,"##foot":13769,"topped":13770,"##arios":13771,"node":13772,"##omin":13773,"##lete":13774,"leak":13775,"lemons":13776,"fry":13777,"##aba":13778,"##inking":13779,"upwards":13780,"congr":13781,"##itters":13782,"spa":13783,"cobb":13784,"compuls":13785,"interim":13786,"olds":13787,"headboard":13788,"accent":13789,"bedsp":13790,"expense":13791,"waited":13792,"keeper":13793,"hummus":13794,"providers":13795,"geek":13796,"calico":13797,"possibilities":13798,"187":13799,"elective":13800,"fury":13801,"viable":13802,"delta":13803,"magical":13804,"receives":13805,"ethical":13806,"bunches":13807,"beneficial":13808,"melted":13809,"expects":13810,"searched":13811,"essay":13812,"sensitivity":13813,"magazines":13814,"bouncing":13815,"politician":13816,"praised":13817,"gifts":13818,"accuracy":13819,"allocator":13820,"brazilian":13821,"departure":13822,"margaret":13823,"duration":13824,"lunar":13825,"rouge":13826,"disgusting":13827,"roberts":13828,"opioid":13829,"nonsense":13830,"hierarch":13831,"kettle":13832,"bedspread":13833,"fond":13834,"hike":13835,"rushing":13836,"rbi":13837,"sons":13838,"tus":13839,"vans":13840,"yarn":13841,"##gt":13842,"##vas":13843,"##itable":13844,"##itzer":13845,"reass":13846,"reagan":13847,"seam":13848,"stro":13849,"##adad":13850,"wendy":13851,"##acking":13852,"leopard":13853,"chilly":13854,"tric":13855,"trium":13856,"alar":13857,"ampl":13858,"compos":13859,"wayne":13860,"append":13861,"defended":13862,"reloc":13863,"watches":13864,"genius":13865,"##news":13866,"posters":13867,"##ribly":13868,"forefront":13869,"provider":13870,"particles":13871,"sara":13872,"socialist":13873,"radar":13874,"cyl":13875,"investigated":13876,"employers":13877,"thanksgiving":13878,"balanced":13879,"1984":13880,"characteristics":13881,"madison":13882,"troubles":13883,"arrests":13884,"berry":13885,"connecting":13886,"reflects":13887,"measurements":13888,"routes":13889,"scenarios":13890,"nurses":13891,"integration":13892,"pilots":13893,"whiskey":13894,"jewel":13895,"rushed":13896,"rangers":13897,"breathe":13898,"aliens":13899,"dramatically":13900,"fucking":13901,"sweeping":13902,"discipline":13903,"convenient":13904,"rafael":13905,"awkward":13906,"aven":13907,"bould":13908,"fm":13909,"kathy":13910,"lum":13911,"loun":13912,"mls":13913,"roth":13914,"sier":13915,"##obs":13916,"##tails":13917,"##rah":13918,"##ports":13919,"##nies":13920,"##hh":13921,"##35":13922,"##igue":13923,"butler":13924,"mol":13925,"tricycle":13926,"##una":13927,"alban":13928,"outline":13929,"sheer":13930,"backup":13931,"disast":13932,"disabled":13933,"workforce":13934,"slipp":13935,"cheaper":13936,"meth":13937,"curry":13938,"believing":13939,"genre":13940,"sweaters":13941,"animation":13942,"norwe":13943,"##string":13944,"186":13945,"##zzle":13946,"nether":13947,"operators":13948,"militants":13949,"wildstein":13950,"sexy":13951,"existed":13952,"duff":13953,"indicating":13954,"logos":13955,"tissues":13956,"struggles":13957,"prosecution":13958,"wetsuits":13959,"cordur":13960,"jefferson":13961,"atlas":13962,"dubbed":13963,"elementary":13964,"evolved":13965,"##arette":13966,"beverage":13967,"tidy":13968,"privilege":13969,"hesit":13970,"##piece":13971,"sudan":13972,"telescope":13973,"faculty":13974,"triumph":13975,"6th":13976,"bish":13977,"fern":13978,"horton":13979,"lino":13980,"pse":13981,"rats":13982,"sigh":13983,"zones":13984,"##xx":13985,"##100":13986,"thump":13987,"##eness":13988,"inhab":13989,"beats":13990,"stella":13991,"##aby":13992,"upward":13993,"##ounder":13994,"gravy":13995,"spike":13996,"##riages":13997,"boiled":13998,"##ela":13999,"guinea":14000,"appet":14001,"##ivan":14002,"indie":14003,"sliver":14004,"minus":14005,"median":14006,"homeland":14007,"bedtime":14008,"addiction":14009,"animated":14010,"benjam":14011,"125":14012,"humpty":14013,"motors":14014,"raft":14015,"filming":14016,"##quel":14017,"equipped":14018,"devoted":14019,"sidewalks":14020,"janet":14021,"fingerna":14022,"pitching":14023,"murphy":14024,"mailman":14025,"addresses":14026,"terrier":14027,"repeal":14028,"reminded":14029,"occasions":14030,"concentrated":14031,"kermit":14032,"interactive":14033,"structural":14034,"electronics":14035,"evaluation":14036,"intentions":14037,"cousins":14038,"frustrating":14039,"cigarette":14040,"exploration":14041,"popsicle":14042,"chlorine":14043,"dolphins":14044,"einstein":14045,"discontin":14046,"nicholas":14047,"benjamin":14048,"cud":14049,"fencing":14050,"mb":14051,"nik":14052,"posed":14053,"russell":14054,"sinc":14055,"x7":14056,"##och":14057,"##eat":14058,"##oration":14059,"##storm":14060,"##chio":14061,"mop":14062,"grin":14063,"maid":14064,"##beat":14065,"dix":14066,"compelling":14067,"resigned":14068,"huff":14069,"intercept":14070,"happiness":14071,"waking":14072,"highchair":14073,"expenses":14074,"instances":14075,"centered":14076,"##inski":14077,"128":14078,"baghd":14079,"closes":14080,"lesser":14081,"testified":14082,"cardinal":14083,"superhero":14084,"benchmark":14085,"suggestions":14086,"ethics":14087,"educated":14088,"melt":14089,"snail":14090,"1967":14091,"paddle":14092,"tripod":14093,"conductor":14094,"dimin":14095,"bombs":14096,"defeats":14097,"leafy":14098,"1950s":14099,"liquor":14100,"scratchy":14101,"concerning":14102,"##cules":14103,"suspension":14104,"acquis":14105,"alpha":14106,"mortgage":14107,"pancake":14108,"exhibition":14109,"sedan":14110,"joshua":14111,"cheeks":14112,"volunteer":14113,"embedded":14114,"oxygen":14115,"weasel":14116,"phoenix":14117,"norwegian":14118,"corduroy":14119,"linoleum":14120,"baghdad":14121,"bats":14122,"cache":14123,"gul":14124,"gamb":14125,"jars":14126,"jingle":14127,"lite":14128,"lush":14129,"nag":14130,"tah":14131,"vow":14132,"##obe":14133,"##matic":14134,"##iencing":14135,"##bat":14136,"##zels":14137,"##cia":14138,"##cons":14139,"##22":14140,"##jan":14141,"##itative":14142,"##etta":14143,"##acht":14144,"sel":14145,"shook":14146,"##urance":14147,"likeli":14148,"gods":14149,"fract":14150,"##ceeds":14151,"nemo":14152,"##opot":14153,"tract":14154,"##ahn":14155,"grants":14156,"##astroph":14157,"cod":14158,"##nty":14159,"unst":14160,"twisted":14161,"flames":14162,"##onduct":14163,"reson":14164,"crad":14165,"probabilities":14166,"workplace":14167,"secular":14168,"joanna":14169,"10th":14170,"1000":14171,"turner":14172,"catastroph":14173,"medal":14174,"distinction":14175,"##psy":14176,"##eez":14177,"curved":14178,"charging":14179,"juven":14180,"win32":14181,"recordings":14182,"generous":14183,"profound":14184,"booboo":14185,"marketplace":14186,"understands":14187,"debbie":14188,"eighth":14189,"sentenced":14190,"colleges":14191,"ringing":14192,"mercedes":14193,"separately":14194,"searches":14195,"participated":14196,"responding":14197,"celebrity":14198,"##ropri":14199,"psychology":14200,"tendency":14201,"dumpt":14202,"translation":14203,"scholar":14204,"broncos":14205,"solely":14206,"##olitan":14207,"vladim":14208,"secrets":14209,"warriors":14210,"nevada":14211,"gorgeous":14212,"unscrew":14213,"lifestyle":14214,"cryptocurren":14215,"likelihood":14216,"vladimir":14217,"90s":14218,"dandel":14219,"laser":14220,"pies":14221,"pairs":14222,"ridge":14223,"##iar":14224,"##fw":14225,"##atism":14226,"##omo":14227,"##irical":14228,"blitz":14229,"##amy":14230,"dioxide":14231,"pricing":14232,"comparing":14233,"lightly":14234,"elabor":14235,"appearing":14236,"commod":14237,"cattle":14238,"corners":14239,"##shell":14240,"harmon":14241,"hamilton":14242,"nonpro":14243,"argu":14244,"torrent":14245,"editors":14246,"quebec":14247,"balcon":14248,"misle":14249,"archive":14250,"worthy":14251,"revealing":14252,"burns":14253,"criminals":14254,"psychiat":14255,"defenders":14256,"dumpty":14257,"unfortunate":14258,"emotions":14259,"oxford":14260,"philosoph":14261,"transparen":14262,"oriented":14263,"##borne":14264,"census":14265,"configuration":14266,"eagles":14267,"tinted":14268,"workshop":14269,"cathedral":14270,"slippery":14271,"gib":14272,"hiring":14273,"js":14274,"jello":14275,"lur":14276,"mous":14277,"pj":14278,"rated":14279,"tug":14280,"v4":14281,"wats":14282,"##say":14283,"##bin":14284,"##ignty":14285,"##acent":14286,"reception":14287,"stap":14288,"stark":14289,"yess":14290,"probe":14291,"##arten":14292,"playstation":14293,"rover":14294,"flint":14295,"##ifier":14296,"##akis":14297,"##ressing":14298,"remotes":14299,"##ogy":14300,"happily":14301,"belg":14302,"evie":14303,"simpson":14304,"autumn":14305,"memories":14306,"prix":14307,"115":14308,"freely":14309,"harrison":14310,"fishies":14311,"brightly":14312,"130":14313,"preval":14314,"threads":14315,"##awa":14316,"traders":14317,"turf":14318,"queer":14319,"accepting":14320,"meantime":14321,"stocks":14322,"rapt":14323,"heroin":14324,"ineff":14325,"pipes":14326,"advocacy":14327,"ronald":14328,"reactions":14329,"achievement":14330,"sustained":14331,"motivation":14332,"fluid":14333,"vitamins":14334,"orchest":14335,"volunteers":14336,"tutor":14337,"nazi":14338,"sovereignty":14339,"disturbing":14340,"razor":14341,"ambitious":14342,"adequate":14343,"linebacker":14344,"removal":14345,"gandhi":14346,"phantom":14347,"##through":14348,"transparency":14349,"ds":14350,"fuss":14351,"gown":14352,"lac":14353,"ned":14354,"rin":14355,"ranges":14356,"wwe":14357,"zach":14358,"##bull":14359,"sealed":14360,"##irl":14361,"##otive":14362,"seeks":14363,"##chini":14364,"fraction":14365,"##umer":14366,"altered":14367,"##cker":14368,"grampa":14369,"pel":14370,"sak":14371,"offseason":14372,"##ishes":14373,"unne":14374,"enabled":14375,"##avia":14376,"contend":14377,"goth":14378,"hugh":14379,"##ggle":14380,"surrender":14381,"curled":14382,"grassho":14383,"artic":14384,"retain":14385,"experiencing":14386,"tenure":14387,"poses":14388,"portland":14389,"romantic":14390,"strongest":14391,"dealt":14392,"announcing":14393,"brushes":14394,"focuses":14395,"arriving":14396,"surveys":14397,"logical":14398,"laden":14399,"immigrant":14400,"fifties":14401,"survived":14402,"walnut":14403,"qualifying":14404,"montana":14405,"muffins":14406,"##world":14407,"suburbs":14408,"pedestrians":14409,"whitish":14410,"kurdistan":14411,"##stitution":14412,"antonio":14413,"vampire":14414,"rhinoc":14415,"gospel":14416,"arguably":14417,"bree":14418,"db":14419,"eey":14420,"owe":14421,"sic":14422,"sard":14423,"wade":14424,"##ean":14425,"##rom":14426,"##rowing":14427,"##pit":14428,"##hin":14429,"##uting":14430,"anten":14431,"##chi":14432,"chacha":14433,"##terior":14434,"brains":14435,"plaza":14436,"##astically":14437,"boil":14438,"fever":14439,"tefl":14440,"unrel":14441,"buh":14442,"carp":14443,"composition":14444,"pharm":14445,"dispar":14446,"pretzels":14447,"commons":14448,"##uctions":14449,"consists":14450,"refusal":14451,"founding":14452,"jackie":14453,"humor":14454,"winners":14455,"winnie":14456,"rounded":14457,"haram":14458,"daw":14459,"questionable":14460,"froggie":14461,"radiation":14462,"spoil":14463,"suggestion":14464,"##appropri":14465,"launching":14466,"triangles":14467,"pinstri":14468,"marty":14469,"imagination":14470,"protections":14471,"pumpkins":14472,"delivering":14473,"fergus":14474,"##anyahu":14475,"recovered":14476,"affects":14477,"drums":14478,"cherries":14479,"lemonade":14480,"kyle":14481,"relaxed":14482,"crunchy":14483,"rhyth":14484,"forums":14485,"censorship":14486,"condemned":14487,"cucumber":14488,"hypothesis":14489,"autonomous":14490,"alberta":14491,"venez":14492,"watson":14493,"teflon":14494,"ferguson":14495,"dign":14496,"kern":14497,"npr":14498,"ostr":14499,"tensions":14500,"wired":14501,"zuc":14502,"##watch":14503,"##haw":14504,"##bag":14505,"##jud":14506,"##erity":14507,"tod":14508,"##edia":14509,"beam":14510,"shine":14511,"thereby":14512,"atm":14513,"tragic":14514,"brow":14515,"platter":14516,"cozy":14517,"downward":14518,"smiled":14519,"quilt":14520,"contam":14521,"treats":14522,"supporter":14523,"invite":14524,"mete":14525,"instantly":14526,"artwork":14527,"sleeps":14528,"infected":14529,"tomb":14530,"investor":14531,"netanyahu":14532,"160":14533,"figur":14534,"sooner":14535,"securities":14536,"davies":14537,"difficulties":14538,"flowered":14539,"balancing":14540,"verd":14541,"achoo":14542,"tuned":14543,"toasted":14544,"hunger":14545,"magnitude":14546,"organizers":14547,"hippopot":14548,"comparable":14549,"translate":14550,"palestine":14551,"highlighted":14552,"oddly":14553,"mutt":14554,"penalties":14555,"hrv":14556,"disorders":14557,"agricultural":14558,"delegates":14559,"federation":14560,"divorce":14561,"skyscrapers":14562,"ignorance":14563,"pseud":14564,"cure":14565,"gp":14566,"sings":14567,"v5":14568,"##mble":14569,"##rac":14570,"##ku":14571,"##iy":14572,"##yes":14573,"##zan":14574,"##atar":14575,"##anim":14576,"##arians":14577,"##oosh":14578,"##star":14579,"canal":14580,"stump":14581,"stead":14582,"##chron":14583,"legg":14584,"frustration":14585,"atom":14586,"justify":14587,"##osc":14588,"##rix":14589,"cob":14590,"tender":14591,"usb":14592,"adoles":14593,"unity":14594,"unrest":14595,"bucks":14596,"##emet":14597,"newton":14598,"##ipse":14599,"impe":14600,"loans":14601,"bookcase":14602,"slower":14603,"105":14604,"belo":14605,"monetary":14606,"streak":14607,"endang":14608,"endless":14609,"barber":14610,"firearms":14611,"##ussion":14612,"carson":14613,"184":14614,"##urai":14615,"starb":14616,"thirds":14617,"##udeau":14618,"optional":14619,"fitness":14620,"kissed":14621,"musicians":14622,"cyn":14623,"competitors":14624,"oopsie":14625,"cultures":14626,"epide":14627,"custody":14628,"billionaire":14629,"morris":14630,"citation":14631,"##limited":14632,"narc":14633,"documentation":14634,"rivers":14635,"athlete":14636,"##block":14637,"esports":14638,
[...]
